<unk>	0
<s>	0
</s>	0
UuRrLl	0
DdAaTtEe	0
NnUuMm	0
▁क	-0
▁स	-1
▁ह	-2
▁प	-3
▁म	-4
▁के	-5
या	-6
ार	-7
्र	-8
▁न	-9
▁अ	-10
▁है	-11
▁,	-12
ें	-13
▁ज	-14
▁।	-15
▁व	-16
र्	-17
▁द	-18
▁कि	-19
ता	-20
▁में	-21
ों	-22
▁उ	-23
▁ब	-24
▁ल	-25
्य	-26
▁को	-27
िक	-28
ने	-29
▁की	-30
▁र	-31
▁प्र	-32
▁औ	-33
▁ग	-34
▁और	-35
▁आ	-36
ित	-37
्त	-38
ान	-39
▁कर	-40
▁त	-41
▁से	-42
▁का	-43
▁इ	-44
▁भ	-45
िए	-46
ना	-47
▁ए	-48
्व	-49
▁पर	-50
▁.	-51
▁य	-52
▁सं	-53
▁थ	-54
िय	-55
ही	-56
▁इस	-57
▁वि	-58
▁लिए	-59
▁श	-60
▁जा	-61
्ष	-62
्या	-63
ाल	-64
▁हो	-65
▁एक	-66
▁किया	-67
वा	-68
▁-	-69
हीं	-70
ाम	-71
▁नि	-72
▁च	-73
▁नहीं	-74
ति	-75
▁या	-76
्ट	-77
▁यह	-78
ारा	-79
▁अप	-80
▁अन	-81
▁गया	-82
क्ष	-83
▁सम	-84
▁ने	-85
के	-86
▁अध	-87
क्त	-88
सी	-89
▁था	-90
▁हैं	-91
िया	-92
िस	-93
ेश	-94
▁करने	-95
्थ	-96
ले	-97
▁भी	-98
न्	-99
ला	-100
ती	-101
▁द्व	-102
ाय	-103
▁उस	-104
ते	-105
▁सा	-106
▁द्वारा	-107
▁ख	-108
रा	-109
▁)	-110
हा	-111
त्र	-112
▁(	-113
कार	-114
ड़	-115
नी	-116
री	-117
▁रा	-118
िन	-119
ूप	-120
ाद	-121
▁अनु	-122
▁कार	-123
▁जो	-124
िका	-125
गा	-126
्प	-127
▁सक	-128
ोग	-129
▁दे	-130
▁न्या	-131
▁निर्	-132
कर्	-133
ियों	-134
▁रूप	-135
देश	-136
ां	-137
ष्ट	-138
ास	-139
▁उप	-140
ाव	-141
ारी	-142
ंध	-143
ाह	-144
▁फ	-145
द्	-146
कर्ता	-147
ाप	-148
▁न्याया	-149
▁प्रति	-150
▁/	-151
्री	-152
लय	-153
ियम	-154
▁अधिक	-155
से	-156
धार	-157
बंध	-158
रण	-159
िल	-160
ंग	-161
ओं	-162
मा	-163
▁हु	-164
▁मु	-165
▁ले	-166
▁उन	-167
▁माम	-168
ील	-169
स्त	-170
सा	-171
्च	-172
का	-173
▁सु	-174
▁साथ	-175
रो	-176
▁याच	-177
▁पू	-178
▁ड	-179
▁दिया	-180
न्ह	-181
▁याचिका	-182
हत	-183
▁जिस	-184
▁किसी	-185
▁पह	-186
्म	-187
कि	-188
ाग	-189
त्त	-190
▁ध	-191
ोज	-192
▁कोई	-193
▁'	-194
▁हम	-195
▁गई	-196
▁व्य	-197
▁स्थ	-198
▁न्यायालय	-199
▁थी	-200
की	-201
वाद	-202
▁वह	-203
▁घ	-204
ंद	-205
▁स्व	-206
▁ही	-207
▁राज	-208
▁उन्ह	-209
▁सकता	-210
▁तथ	-211
▁गए	-212
ंड	-213
▁कु	-214
ृत	-215
्ता	-216
ाना	-217
▁अभ	-218
▁पु	-219
खा	-220
▁आव	-221
▁तो	-222
वि	-223
▁विश	-224
क्ति	-225
▁ऐ	-226
▁ट	-227
▁सी	-228
स्थ	-229
▁वर्	-230
िव	-231
▁जाता	-232
ंच	-233
▁संबंध	-234
र्व	-235
▁चाह	-236
▁अपने	-237
ात	-238
्यों	-239
▁तक	-240
ली	-241
ेद	-242
चार	-243
▁याचिकाकर्ता	-244
ल्	-245
▁मामले	-246
ंत	-247
▁बाद	-248
▁अपील	-249
▁तहत	-250
▁कहा	-251
▁जब	-252
रे	-253
ीन	-254
ंक	-255
▁थे	-256
द्ध	-257
▁दो	-258
▁वाल	-259
रह	-260
च्च	-261
धान	-262
▁भार	-263
दा	-264
ंब	-265
भी	-266
ुत	-267
▁0	-268
ब्	-269
▁सि	-270
▁कार्य	-271
▁दी	-272
▁आदेश	-273
▁आप	-274
▁अव	-275
पी	-276
में	-277
▁रह	-278
दि	-279
▁छ	-280
जी	-281
िला	-282
▁वे	-283
योग	-284
कर	-285
▁बना	-286
▁साम	-287
ूल	-288
▁तरह	-289
▁अन्य	-290
धिक	-291
▁P	-292
▁किए	-293
गे	-294
▁क्ष	-295
▁अधिन	-296
िट	-297
▁:	-298
ोंने	-299
्क	-300
▁अधिनियम	-301
िप	-302
ुक्त	-303
▁चाहिए	-304
▁सर	-305
▁हुए	-306
मान	-307
ून	-308
▁करना	-309
र्ट	-310
ुर	-311
▁सह	-312
िर	-313
ाप्त	-314
सार	-315
ारे	-316
▁सू	-317
▁तथा	-318
ोट	-319
गी	-320
िश	-321
र्थ	-322
▁समय	-323
ष्	-324
▁उन्होंने	-325
वादी	-326
्स	-327
श्य	-328
▁आरो	-329
▁बी	-330
क्र	-331
▁उसके	-332
▁पी	-333
▁पहले	-334
लिए	-335
्रे	-336
ढ़	-337
▁कारण	-338
▁मान	-339
▁इसलिए	-340
ंत्र	-341
▁अधिकार	-342
▁कुछ	-343
▁करता	-344
▁राज्य	-345
▁होने	-346
▁सरकार	-347
▁जै	-348
नों	-349
▁जाए	-350
र्ण	-351
िति	-352
▁पार	-353
्ञ	-354
▁करते	-355
ेष	-356
▁पा	-357
▁उनके	-358
▁प्रतिवादी	-359
स्ता	-360
▁ला	-361
▁कम	-362
जा	-363
चित	-364
▁दू	-365
ेत्र	-366
िम	-367
▁मै	-368
▁इन	-369
▁आधार	-370
▁अभिय	-371
्न	-372
श्यक	-373
न्न	-374
▁कान	-375
▁क्षेत्र	-376
ोक	-377
िना	-378
▁पक्ष	-379
▁रख	-380
र्म	-381
▁नियम	-382
▁आवश्यक	-383
▁मे	-384
भाव	-385
▁बह	-386
▁शिक	-387
▁भारत	-388
▁इसके	-389
किन	-390
ंबर	-391
▁व्यक्ति	-392
▁होता	-393
ंप	-394
▁सभी	-395
▁ओ	-396
ध्य	-397
▁प्रद	-398
वल	-399
▁लेकिन	-400
▁प्रा	-401
क्षा	-402
▁विचार	-403
ीय	-404
ाज	-405
▁होगा	-406
▁श्री	-407
▁उत्त	-408
▁मा	-409
▁सब	-410
▁निर्ण	-411
धि	-412
▁उत	-413
▁स्प	-414
्छ	-415
▁प्राप्त	-416
▁आय	-417
वाह	-418
▁निर्णय	-419
▁मृत	-420
▁केवल	-421
▁रहा	-422
▁जांच	-423
▁अपनी	-424
▁अस	-425
▁अनुसार	-426
टी	-427
ेज	-428
▁विभ	-429
▁उक्त	-430
▁वाले	-431
▁निय	-432
▁अद	-433
▁लगा	-434
▁यदि	-435
▁उसे	-436
▁PW	-437
ौर	-438
ालत	-439
▁बै	-440
शन	-441
च्छ	-442
▁चु	-443
ाई	-444
पू	-445
र्ड	-446
र्त	-447
▁अंत	-448
▁विशेष	-449
▁;	-450
▁दर्	-451
ानी	-452
▁प्रकार	-453
दे	-454
ूम	-455
▁परि	-456
▁वर्ष	-457
▁जाना	-458
जन	-459
▁जी	-460
▁अपीलकर्ता	-461
▁मूल	-462
▁स्पष्ट	-463
▁पूर्व	-464
▁अल	-465
▁नंबर	-466
▁उन्हें	-467
▁अदालत	-468
▁दाय	-469
▁धारा	-470
▁उत्तर	-471
▁निर्धार	-472
▁अग	-473
्रा	-474
▁प्रस्त	-475
▁क्यों	-476
िज	-477
▁राष्ट	-478
चना	-479
द्य	-480
▁पै	-481
▁उच्च	-482
▁रहे	-483
▁आवेद	-484
▁मैं	-485
्ल	-486
कों	-487
▁जाने	-488
माण	-489
हां	-490
ोजन	-491
धी	-492
ेक	-493
िख	-494
त्य	-495
▁जारी	-496
▁गु	-497
▁कानून	-498
िता	-499
▁प्रस्तुत	-500
▁दूस	-501
▁आगे	-502
करण	-503
स्ताव	-504
रिक	-505
▁प्रश	-506
▁संप	-507
दार	-508
▁S	-509
ेल	-510
▁लाग	-511
ज्ञ	-512
ंट	-513
ष्ठ	-514
▁स्वी	-515
▁उत्प	-516
त्ति	-517
ोर्ट	-518
▁बात	-519
ादी	-520
▁संबंधित	-521
▁देने	-522
▁अपरा	-523
▁समझ	-524
▁सेवा	-525
▁व्या	-526
▁एस	-527
▁क्योंकि	-528
टना	-529
दर्	-530
▁ऐसे	-531
क्षण	-532
▁हाल	-533
▁विश्व	-534
▁बारे	-535
▁मौ	-536
▁बो	-537
▁सर्व	-538
▁रु	-539
▁जिसमें	-540
लों	-541
▁खिला	-542
िंग	-543
ांत	-544
▁लिया	-545
ेट	-546
ड़ी	-547
▁क्या	-548
▁पास	-549
▁हुआ	-550
▁कंप	-551
▁वै	-552
वन	-553
▁मह	-554
▁देख	-555
▁उल्	-556
ुल	-557
▁नाम	-558
▁काम	-559
ये	-560
▁बता	-561
▁खिलाफ	-562
ड़ा	-563
र्क	-564
ूत	-565
▁अपराध	-566
▁बहुत	-567
▁प्रदान	-568
▁न्याय	-569
▁स्थान	-570
▁ओर	-571
▁आरोपी	-572
▁भूम	-573
▁निर्धारित	-574
पूर्ण	-575
▁लोग	-576
ुग	-577
▁पत्र	-578
न्द	-579
क्रिया	-580
▁क्र	-581
▁कह	-582
▁अलग	-583
▁ऐसा	-584
लिस	-585
जे	-586
▁लग	-587
ायत	-588
स्ट	-589
▁उसने	-590
▁आरोप	-591
ोर	-592
▁भाग	-593
▁गवाह	-594
▁नी	-595
▁अनुम	-596
▁करें	-597
▁प्रभाव	-598
ावधान	-599
▁दु	-600
▁ऊ	-601
▁रिप	-602
त्म	-603
ोष	-604
▁लागू	-605
▁बीच	-606
▁प्रावधान	-607
ताओं	-608
▁प्रक्रिया	-609
▁सकती	-610
ाइ	-611
▁शाम	-612
्ड	-613
्यान	-614
ोजना	-615
▁मुख	-616
▁जाती	-617
जू	-618
▁स्वीकार	-619
ास्त	-620
▁रिपोर्ट	-621
▁साक्ष	-622
▁ठ	-623
▁मृतक	-624
्यू	-625
ड़े	-626
्रीय	-627
▁सकते	-628
▁रिक	-629
▁सद	-630
▁होती	-631
वाही	-632
▁अधिकारी	-633
▁दायर	-634
▁पुलिस	-635
नि	-636
तीय	-637
▁ता	-638
▁मिल	-639
ोध	-640
▁आवेदन	-641
ग्र	-642
वी	-643
▁दर्ज	-644
नीय	-645
▁जहां	-646
आई	-647
▁जान	-648
भा	-649
▁आर	-650
▁परिव	-651
▁वादी	-652
▁जन	-653
▁ऑ	-654
▁परिस	-655
आर	-656
▁उनकी	-657
▁बढ़	-658
▁अर्थ	-659
▁फिर	-660
म्	-661
▁स्ट	-662
▁हुई	-663
रों	-664
▁उपयोग	-665
▁जाएगा	-666
ूं	-667
▁शामिल	-668
दी	-669
श्च	-670
▁बे	-671
▁देश	-672
ची	-673
एं	-674
▁जैसा	-675
▁दा	-676
कारी	-677
▁ऐसी	-678
▁इसे	-679
ज़	-680
▁निर्देश	-681
▁निक	-682
▁योग	-683
▁A	-684
▁परी	-685
शि	-686
▁राष्ट्र	-687
मे	-688
▁भारतीय	-689
ृति	-690
▁बार	-691
▁खु	-692
▁उद्	-693
तिक	-694
▁माना	-695
टा	-696
ंह	-697
▁शिकायत	-698
▁अभियोजन	-699
▁स्थिति	-700
तर	-701
तान	-702
दर्भ	-703
▁दिन	-704
▁व्यक्त	-705
मार	-706
एस	-707
▁भूमि	-708
▁दोनों	-709
▁संदर्भ	-710
गत	-711
▁पद	-712
▁ट्र	-713
ंस	-714
▁जि	-715
लेख	-716
▁उसकी	-717
▁उचित	-718
िस्ट	-719
▁घटना	-720
▁मां	-721
▁दौर	-722
धिकरण	-723
ब्द	-724
्यालय	-725
▁कंपनी	-726
▁हि	-727
▁C	-728
▁ग्र	-729
▁बिना	-730
▁अब	-731
▁उठ	-732
▁कोर्ट	-733
▁स्थाप	-734
▁पारित	-735
▁करे	-736
फल	-737
युक्त	-738
▁पर्	-739
▁फै	-740
▁I	-741
▁ध्यान	-742
िन्न	-743
स्था	-744
हित	-745
▁व्यव	-746
वाई	-747
िकास	-748
▁भुग	-749
▁आवश्यकता	-750
ार्थ	-751
ाँ	-752
ॉर्ड	-753
ुक	-754
▁मन	-755
ालन	-756
▁विकास	-757
▁रिट	-758
▁दौरान	-759
▁शिक्ष	-760
▁रखा	-761
कृत	-762
▁शुर	-763
िखा	-764
▁भुगतान	-765
▁वर्त	-766
ोल	-767
ित्व	-768
▁विक	-769
▁दिना	-770
▁निष	-771
▁दिनांक	-772
▁सर्वो	-773
▁ई	-774
द्योग	-775
ाली	-776
▁दिए	-777
▁मार	-778
▁अनुमति	-779
▁?	-780
▁वर्तमान	-781
चा	-782
िखित	-783
▁कर्म	-784
▁बया	-785
▁राशि	-786
डी	-787
▁सामान	-788
चे	-789
▁रिकॉर्ड	-790
क्रम	-791
पर	-792
▁जिसे	-793
▁प्रत्य	-794
▁विवाद	-795
▁साक्ष्य	-796
▁सिद्ध	-797
▁जिसके	-798
▁उत्पाद	-799
ांकि	-800
▁हालांकि	-801
▁वास्त	-802
▁उद्देश	-803
▁पूरी	-804
▁सदस	-805
ेड	-806
पति	-807
▁लाभ	-808
क्ट	-809
▁कार्यवाही	-810
▁जैसे	-811
▁बा	-812
▁अपना	-813
▁दृ	-814
▁कै	-815
▁अधीन	-816
▁सहाय	-817
▁सिंह	-818
को	-819
▁तै	-820
▁बाह	-821
शोध	-822
बी	-823
धीश	-824
▁पता	-825
▁महत	-826
▁तथ्य	-827
▁माध्य	-828
सू	-829
▁खंड	-830
कर्ष	-831
▁शक्ति	-832
▁होना	-833
▁प्रव	-834
्यता	-835
धा	-836
यन	-837
▁स्त	-838
ोड़	-839
▁शब्द	-840
हार	-841
▁मामलों	-842
▁जिन	-843
▁अभियुक्त	-844
▁रही	-845
स्व	-846
णा	-847
▁संपत्ति	-848
गर	-849
▁अवधि	-850
▁वास्तव	-851
▁सर्वोच्च	-852
▁उत्तरदा	-853
ियां	-854
▁आई	-855
▁पं	-856
▁मामला	-857
▁न्यायाधीश	-858
▁बैंक	-859
तन	-860
▁नोट	-861
▁दस्ताव	-862
▁संशोध	-863
▁घर	-864
▁अं	-865
▁योजना	-866
▁पहु	-867
▁सुन	-868
प्त	-869
ायी	-870
▁कॉ	-871
ल्प	-872
र्ष	-873
▁मध्य	-874
लब्	-875
▁वाली	-876
▁जु	-877
▁हमारे	-878
▁सबूत	-879
▁पुन	-880
▁बु	-881
▁बन	-882
वाल	-883
▁माध्यम	-884
वं	-885
▁अला	-886
▁सो	-887
▁परिस्थ	-888
ायल	-889
ar	-890
▁समक्ष	-891
▁लोगों	-892
त्	-893
जर	-894
ष्टि	-895
▁झ	-896
▁देखा	-897
▁तब	-898
▁उपलब्	-899
▁प्रक	-900
▁अति	-901
ेशन	-902
ेय	-903
ासन	-904
सर	-905
▁विभाग	-906
थम	-907
कद	-908
▁अंतर	-909
▁मज	-910
ग्री	-911
▁चल	-912
▁बयान	-913
▁परिण	-914
म्म	-915
▁अलावा	-916
▁दस्तावेज	-917
▁राष्ट्रपति	-918
▁पुर	-919
▁याचिकाकर्ताओं	-920
▁उद्देश्य	-921
▁तैया	-922
▁ये	-923
▁समान	-924
▁सुर	-925
▁प्रयोग	-926
▁सामान्य	-927
शा	-928
▁शुरू	-929
▁संस	-930
▁मुख्य	-931
▁उपलब्ध	-932
ूर	-933
▁परिणाम	-934
्टी	-935
▁संवि	-936
ंभ	-937
रूप	-938
तम	-939
वार	-940
▁दूसरे	-941
▁डी	-942
▁उसी	-943
मी	-944
रि	-945
त्या	-946
▁माल	-947
▁हों	-948
बर	-949
▁दिखा	-950
▁होते	-951
▁मुझ	-952
▁एवं	-953
▁दावा	-954
▁यहां	-955
▁विव	-956
▁पर्या	-957
रित	-958
त्मक	-959
िक्री	-960
▁विभिन्न	-961
ितियों	-962
▁भीतर	-963
▁जीवन	-964
▁फैस	-965
▁मुकद	-966
▁निम	-967
▁कृ	-968
ंद्र	-969
▁तैयार	-970
▁महत्व	-971
्यु	-972
▁सूचना	-973
द्र	-974
▁वित	-975
▁करती	-976
स्	-977
णी	-978
रोध	-979
▁उठा	-980
▁तीन	-981
▁शु	-982
टर	-983
षा	-984
▁लोक	-985
▁व्याप	-986
▁शी	-987
▁भा	-988
▁बद	-989
▁अच्छ	-990
▁निर्माण	-991
गम	-992
an	-993
▁प्रमाण	-994
▁सार	-995
▁सके	-996
▁खार	-997
▁व्यक्तियों	-998
▁%	-999
काश	-1000
▁तरी	-1001
▁गल	-1002
▁सिद्धांत	-1003
▁खारिज	-1004
िये	-1005
हरा	-1006
तिम	-1007
तु	-1008
▁मुझे	-1009
▁अनुप	-1010
▁समाप्त	-1011
भव	-1012
▁मो	-1013
▁अगर	-1014
▁पहुंच	-1015
▁स्थापित	-1016
▁तारी	-1017
▁D	-1018
ग्रह	-1019
जूद	-1020
▁हिस	-1021
दान	-1022
▁विष	-1023
▁तारीख	-1024
ज्ञान	-1025
ामी	-1026
▁गै	-1027
क्षित	-1028
▁समझौ	-1029
मु	-1030
▁चार	-1031
्सा	-1032
▁निम्न	-1033
▁उल्लेख	-1034
तंत्र	-1035
▁घोष	-1036
▁R	-1037
वास	-1038
▁जिला	-1039
▁सामग्री	-1040
▁ढ	-1041
▁निप	-1042
▁कई	-1043
▁प्रस्ताव	-1044
▁होगी	-1045
ोजित	-1046
द्द	-1047
▁संविधान	-1048
▁ज्ञ	-1049
ेप	-1050
▁वा	-1051
▁मांग	-1052
▁सीमा	-1053
▁विन	-1054
▁हा	-1055
▁तर्क	-1056
▁उल्ल	-1057
▁एन	-1058
▁प्रत्येक	-1059
ौती	-1060
▁राम	-1061
बित	-1062
▁लेने	-1063
▁करके	-1064
▁ना	-1065
्रम	-1066
▁पूरा	-1067
▁वक	-1068
ेम	-1069
स्थान	-1070
▁वस्त	-1071
▁बनाम	-1072
▁साल	-1073
▁स्क	-1074
▁विषय	-1075
▁विध	-1076
▁गो	-1077
▁बच्च	-1078
▁निष्	-1079
भग	-1080
द्दे	-1081
▁बताया	-1082
▁कथ	-1083
▁रुप	-1084
▁M	-1085
ूनी	-1086
▁एम	-1087
▁साबित	-1088
▁सबसे	-1089
ेदार	-1090
▁तथ्यों	-1091
त्रा	-1092
▁विद	-1093
फ़	-1094
▁चि	-1095
▁बाहर	-1096
▁चुन	-1097
▁समिति	-1098
▁निष्कर्ष	-1099
व्य	-1100
▁अतिरिक	-1101
▁तत	-1102
▁लगभग	-1103
▁दर	-1104
▁प्रावधानों	-1105
▁रखने	-1106
▁तु	-1107
▁कभी	-1108
राधिक	-1109
▁निष्प	-1110
श्व	-1111
▁अंतिम	-1112
▁वी	-1113
▁समर्थ	-1114
▁शिक्षा	-1115
ाला	-1116
दन	-1117
▁पृ	-1118
▁करेगा	-1119
▁परिस्थितियों	-1120
▁दोष	-1121
▁s	-1122
▁उपरो	-1123
मत	-1124
निक	-1125
ुट	-1126
वान	-1127
▁उपरोक्त	-1128
▁वाप	-1129
▁अतिरिक्त	-1130
र्स	-1131
ीद	-1132
▁सही	-1133
क्षम	-1134
▁इसका	-1135
तः	-1136
▁चला	-1137
▁पूर्ण	-1138
▁सीखा	-1139
▁उसका	-1140
▁मृत्यु	-1141
▁हमें	-1142
▁जिन्ह	-1143
साय	-1144
▁पाया	-1145
ुक्ति	-1146
▁कब्	-1147
▁बि	-1148
▁हर	-1149
न्त	-1150
▁पर्याप्त	-1151
▁नियमों	-1152
▁सम्म	-1153
शी	-1154
▁कार्र	-1155
▁जाते	-1156
त्ता	-1157
▁प्रबंध	-1158
▁सौ	-1159
ाने	-1160
▁नोटिस	-1161
▁बनाया	-1162
पुर	-1163
▁उत्तरदाताओं	-1164
र्ति	-1165
▁संशोधन	-1166
▁शर्त	-1167
▁आदि	-1168
▁प्रवेश	-1169
▁B	-1170
▁आया	-1171
▁दिल	-1172
हर	-1173
▁सूची	-1174
▁डॉ	-1175
▁विस्त	-1176
▁सार्व	-1177
▁ऋ	-1178
▁कार्रवाई	-1179
द्योगिक	-1180
हन	-1181
र्ती	-1182
▁ली	-1183
▁दंड	-1184
▁ऊपर	-1185
▁सामने	-1186
▁हस्ता	-1187
▁अनुबंध	-1188
▁प्रश्न	-1189
▁छोड़	-1190
िष्ट	-1191
ुसार	-1192
▁हूं	-1193
▁राय	-1194
ेंस	-1195
▁ट्रायल	-1196
▁अथ	-1197
▁गलत	-1198
▁न्यायिक	-1199
▁प्रदर्	-1200
▁E	-1201
▁पढ़	-1202
▁उपस्थ	-1203
▁स्वतंत्र	-1204
ीस	-1205
▁विप	-1206
▁बच	-1207
ेंट	-1208
▁राष्ट्रीय	-1209
यं	-1210
▁देता	-1211
▁मूल्य	-1212
▁मत	-1213
▁माननीय	-1214
▁चोट	-1215
▁उनका	-1216
▁तय	-1217
▁सुप	-1218
▁पंजी	-1219
ंघ	-1220
▁आज	-1221
वर	-1222
▁नीचे	-1223
ुद्ध	-1224
▁सहायता	-1225
▁प्रकृति	-1226
▁धार	-1227
▁कुमार	-1228
▁परीक्षा	-1229
▁ब्र	-1230
▁अधिकारियों	-1231
▁प्रो	-1232
▁अंग	-1233
▁पैरा	-1234
▁तरीके	-1235
▁अवसर	-1236
इट	-1237
▁सजा	-1238
▁महत्वपूर्ण	-1239
मित	-1240
▁वस्तु	-1241
▁कानूनी	-1242
▁गैर	-1243
फी	-1244
▁पेश	-1245
▁अध्य	-1246
▁पिता	-1247
▁संघ	-1248
▁बल्	-1249
▁एफ	-1250
▁लगाया	-1251
▁वकील	-1252
ापन	-1253
▁एक्स	-1254
क्	-1255
▁वाला	-1256
▁दाव	-1257
▁रो	-1258
जनिक	-1259
▁मध्यस्थ	-1260
▁i	-1261
चान	-1262
▁सार्वजनिक	-1263
था	-1264
▁लंब	-1265
▁संस्थान	-1266
▁प्राधिकरण	-1267
▁बनाने	-1268
मुख	-1269
धिकार	-1270
▁प्रकाश	-1271
▁बनाए	-1272
क्षेप	-1273
▁न्यायाधिकरण	-1274
▁बिक्री	-1275
▁नियुक्ति	-1276
पाल	-1277
▁बोर्ड	-1278
▁नियंत्र	-1279
▁रोक	-1280
▁बैठ	-1281
▁स्तर	-1282
▁वृ	-1283
ूट	-1284
ंज	-1285
▁छोट	-1286
ाइल	-1287
▁सूट	-1288
▁उद	-1289
▁प्रण	-1290
▁पि	-1291
ठन	-1292
विद	-1293
▁मंत्र	-1294
▁पश्च	-1295
▁वित्त	-1296
▁प्रया	-1297
▁स्वयं	-1298
▁वरि	-1299
▁सक्षम	-1300
▁जर	-1301
▁जबकि	-1302
▁नाग	-1303
▁आयोजित	-1304
ीकरण	-1305
▁गवाहों	-1306
षण	-1307
▁विधि	-1308
बा	-1309
▁जमा	-1310
▁वरिष्ठ	-1311
▁परीक्षण	-1312
्ली	-1313
▁अथवा	-1314
▁इसमें	-1315
▁फैसले	-1316
▁वापस	-1317
▁शीर्ष	-1318
▁प्रार	-1319
नाव	-1320
▁गिर	-1321
एल	-1322
▁“	-1323
▁इसी	-1324
▁प्रयास	-1325
▁खा	-1326
▁सरकारी	-1327
▁आयोग	-1328
▁लेख	-1329
धन	-1330
यी	-1331
प्र	-1332
▁श्रे	-1333
▁आपराधिक	-1334
▁समर्थन	-1335
▁महा	-1336
▁परिवार	-1337
▁आम	-1338
▁सवाल	-1339
्वी	-1340
▁संर	-1341
▁प्रस	-1342
र्तन	-1343
वानी	-1344
सान	-1345
ण्ड	-1346
▁कल	-1347
ालय	-1348
▁हाथ	-1349
ूह	-1350
at	-1351
भर	-1352
▁निपट	-1353
▁फ़	-1354
▁विशिष्ट	-1355
▁गां	-1356
▁गं	-1357
▁नियुक्त	-1358
ित्र	-1359
▁जानकारी	-1360
▁दूसरी	-1361
▁संग	-1362
▁चिक	-1363
द्धि	-1364
▁बर	-1365
▁सदस्य	-1366
ंकन	-1367
▁हे	-1368
एम	-1369
▁खोज	-1370
▁चुनौती	-1371
▁डि	-1372
विद्यालय	-1373
▁नीति	-1374
▁निर	-1375
▁सुप्रा	-1376
ंगिक	-1377
▁निदेश	-1378
ात्	-1379
▁दुर्	-1380
ोन	-1381
▁केंद्र	-1382
▁निष्पाद	-1383
▁दूर	-1384
▁उम्म	-1385
▁समाज	-1386
▁यू	-1387
पीसी	-1388
▁देना	-1389
▁बल्कि	-1390
िश्च	-1391
बद्ध	-1392
▁उल्लंघ	-1393
▁निहित	-1394
▁सच	-1395
▁देते	-1396
दिष्ट	-1397
▁विफल	-1398
न्द्र	-1399
▁उम्मीद	-1400
बल	-1401
▁उल्लंघन	-1402
▁ऑफ	-1403
▁टी	-1404
▁ताकि	-1405
▁कार्यालय	-1406
▁प्रती	-1407
्यांकन	-1408
▁बंद	-1409
क्स	-1410
▁पड़	-1411
▁संदे	-1412
स्कार	-1413
▁भाषा	-1414
क्ता	-1415
▁मही	-1416
▁संच	-1417
▁उत्पादन	-1418
ंश	-1419
्ग	-1420
▁प्रमुख	-1421
्रेट	-1422
▁खरी	-1423
चारी	-1424
ल्क	-1425
▁प्रतिनि	-1426
्ले	-1427
▁वेतन	-1428
▁गति	-1429
▁पालन	-1430
▁अधि	-1431
▁विश्वविद्यालय	-1432
▁पहली	-1433
▁दल	-1434
▁इससे	-1435
▁SC	-1436
▁चिकित	-1437
▁पां	-1438
▁कुल	-1439
▁गुण	-1440
▁पृष्ठ	-1441
ासंगिक	-1442
▁पुरस्कार	-1443
ेन	-1444
▁विश्वास	-1445
▁अर्	-1446
▁वार	-1447
▁दीवानी	-1448
सत	-1449
▁योग्य	-1450
▁अधिस	-1451
▁जल	-1452
▁ऋण	-1453
▁पहचान	-1454
▁वर्ग	-1455
▁संह	-1456
इन	-1457
्ज	-1458
▁W	-1459
धानिक	-1460
▁संभाव	-1461
दाय	-1462
▁संहिता	-1463
▁विवरण	-1464
▁सुरक्षा	-1465
▁पो	-1466
▁मि	-1467
▁लिम	-1468
▁संस्क	-1469
ंतु	-1470
च्छेद	-1471
▁N	-1472
ाया	-1473
▁अधिसू	-1474
ेंगे	-1475
▁सुवि	-1476
िवक्ता	-1477
▁प्रय	-1478
हाँ	-1479
▁पंच	-1480
▁निश्च	-1481
▁नई	-1482
क्टर	-1483
वरी	-1484
▁ची	-1485
ब्ल	-1486
▁चौ	-1487
ुप	-1488
▁प्राधिक	-1489
▁बिल	-1490
▁पूछ	-1491
▁अस्प	-1492
▁हक	-1493
▁पिछ	-1494
ॉल	-1495
▁मूल्यांकन	-1496
▁अप्र	-1497
▁त्र	-1498
▁शिकायतकर्ता	-1499
▁समझौते	-1500
▁भाव	-1501
ार्थी	-1502
▁जम	-1503
▁कर्मचारी	-1504
▁अपीलकर्ताओं	-1505
स्प	-1506
▁लिख	-1507
▁चर्	-1508
▁पीड़	-1509
ाक	-1510
is	-1511
▁प्रशासन	-1512
तना	-1513
टक	-1514
▁&	-1515
ुष	-1516
▁वहां	-1517
▁लिमिट	-1518
▁संदेह	-1519
रीत	-1520
▁K	-1521
▁दिश	-1522
▁प्रासंगिक	-1523
▁कब्जे	-1524
▁थीं	-1525
▁विपरीत	-1526
▁सदस्यों	-1527
▁इसकी	-1528
▁एससी	-1529
▁चे	-1530
▁मौजूद	-1531
▁लिमिटेड	-1532
लू	-1533
▁स्कूल	-1534
▁जिससे	-1535
▁संक	-1536
▁निगम	-1537
रल	-1538
▁व्यापार	-1539
▁रे	-1540
्रो	-1541
ख्या	-1542
ास्थ	-1543
▁चयन	-1544
▁संयुक्त	-1545
थमिक	-1546
▁मानव	-1547
▁हित	-1548
वे	-1549
ट्ट	-1550
▁प्राथमिक	-1551
▁हस्ताक्ष	-1552
▁योग्यता	-1553
िस्ट्रेट	-1554
िवार	-1555
▁समु	-1556
▁गण	-1557
▁जग	-1558
▁कठ	-1559
ीक	-1560
▁धन	-1561
▁जवा	-1562
ूर्ति	-1563
▁दृष्ट	-1564
ंख	-1565
लिखित	-1566
▁विदेश	-1567
▁ज्ञान	-1568
▁मं	-1569
▁उत्पन्न	-1570
▁हस्त	-1571
▁धर्म	-1572
▁प्रभावित	-1573
▁मेरे	-1574
▁o	-1575
▁प्रथम	-1576
▁अंतर्	-1577
▁मजिस्ट्रेट	-1578
▁भर	-1579
ेयर	-1580
भीर	-1581
▁कमी	-1582
िश्चित	-1583
▁कृष	-1584
▁उद्योग	-1585
▁शरी	-1586
▁रद्द	-1587
▁भेज	-1588
▁संव	-1589
▁जिसका	-1590
ूँ	-1591
▁लगाए	-1592
▁बजे	-1593
▁दिल्ली	-1594
▁अधिवक्ता	-1595
मता	-1596
ोस	-1597
▁प्रदेश	-1598
▁जनता	-1599
▁हमारी	-1600
▁निर्धारण	-1601
▁इनकार	-1602
▁Ex	-1603
▁महिला	-1604
▁दोषी	-1605
▁ठहरा	-1606
▁शुल्क	-1607
▁रज	-1608
▁लिये	-1609
▁हकदार	-1610
▁कथित	-1611
▁सुविधा	-1612
▁"	-1613
ूंकि	-1614
▁कोश	-1615
▁चूंकि	-1616
▁समूह	-1617
▁हल	-1618
▁नागरिक	-1619
शत	-1620
▁सुधार	-1621
▁महीने	-1622
कान	-1623
▁मी	-1624
▁मुकदमे	-1625
्ला	-1626
▁बाज	-1627
▁होंगे	-1628
▁खुद	-1629
न्म	-1630
▁प्रारंभ	-1631
▁निम्नलिखित	-1632
▁रुपये	-1633
▁चुनाव	-1634
▁आर्थ	-1635
▁ठीक	-1636
▁भरो	-1637
▁घोषणा	-1638
▁अनुसू	-1639
▁अम	-1640
धारण	-1641
ँच	-1642
इस	-1643
▁शै	-1644
▁काफी	-1645
▁चर्चा	-1646
▁मद	-1647
▁आने	-1648
▁O	-1649
▁शरीर	-1650
▁सहित	-1651
▁बदल	-1652
▁पार्टी	-1653
्काल	-1654
▁अनुच्छेद	-1655
्यास	-1656
▁पाठ	-1657
▁ज़	-1658
▁गंभीर	-1659
▁पार्ट	-1660
▁उपाय	-1661
▁लिखित	-1662
▁वास्तविक	-1663
त्नी	-1664
▁विस्तार	-1665
▁निव	-1666
▁आर्थिक	-1667
▁जवाब	-1668
ंदर	-1669
▁अभी	-1670
▁निर्भर	-1671
▁जाएगी	-1672
▁नए	-1673
मेंट	-1674
▁शब्दों	-1675
▁पत्नी	-1676
▁अच्छी	-1677
गार	-1678
▁अपे	-1679
▁रखते	-1680
▁बल	-1681
▁मालिक	-1682
▁प्रतिशत	-1683
▁एच	-1684
विध	-1685
▁अने	-1686
म्ब	-1687
निया	-1688
▁अपीलार्थी	-1689
▁क्षेत्रों	-1690
▁स्थित	-1691
▁कर्मचार	-1692
तों	-1693
▁मिला	-1694
▁परिय	-1695
ताल	-1696
▁सहायक	-1697
▁तौर	-1698
▁क्रम	-1699
▁लड़	-1700
▁परियोजना	-1701
▁कार्यक्रम	-1702
▁प्राधिकारी	-1703
▁सफल	-1704
▁वर्षों	-1705
▁>	-1706
▁कर्मचारियों	-1707
▁प्रे	-1708
▁हटा	-1709
ियन	-1710
▁खुला	-1711
▁आधारित	-1712
ोड	-1713
ाजिक	-1714
▁प्रभ	-1715
▁भवन	-1716
▁मुकदमा	-1717
▁संभव	-1718
काल	-1719
▁वाह	-1720
▁बड़ी	-1721
▁पूर्वो	-1722
्ब	-1723
▁दिनों	-1724
▁अवै	-1725
▁मद्दे	-1726
▁आक	-1727
▁कृषि	-1728
्से	-1729
▁हस्ताक्षर	-1730
र्य	-1731
▁निश्चित	-1732
ाँकि	-1733
▁हालाँकि	-1734
▁सामाजिक	-1735
ाहरण	-1736
धारा	-1737
▁मैंने	-1738
▁प्रबंधन	-1739
▁मद्देन	-1740
▁व्यवस्था	-1741
▁विद्व	-1742
▁नियमित	-1743
▁शर्तों	-1744
▁वैध	-1745
▁अभि	-1746
▁हिंद	-1747
▁डाल	-1748
▁स्टेशन	-1749
▁निर्दिष्ट	-1750
▁तीस	-1751
▁मद्देनजर	-1752
▁भरोसा	-1753
▁उदाहरण	-1754
▁प्रतिक	-1755
▁इंड	-1756
▁सबूतों	-1757
▁कर्त	-1758
▁ति	-1759
स्या	-1760
ri	-1761
▁विर	-1762
▁क्षमता	-1763
▁लगाने	-1764
स्वरूप	-1765
▁अवैध	-1766
▁प्रौ	-1767
▁गर्	-1768
▁आश	-1769
्रेड	-1770
▁उपबंध	-1771
▁आध	-1772
▁निजी	-1773
ष्ण	-1774
▁सीख	-1775
फ्त	-1776
▁भे	-1777
▁जब्त	-1778
▁दस्तावेजों	-1779
▁जमीन	-1780
▁हस्तक्षेप	-1781
▁गये	-1782
▁वर्ण	-1783
िको	-1784
सल	-1785
▁पे	-1786
▁अधिसूचना	-1787
▁अनेक	-1788
▁नगर	-1789
▁जे	-1790
ूक	-1791
▁श्रेणी	-1792
on	-1793
▁ब्या	-1794
▁अनुस	-1795
चल	-1796
शील	-1797
राज	-1798
▁राहत	-1799
▁अनिवार	-1800
▁प्रणाली	-1801
▁पति	-1802
▁नियंत्रण	-1803
▁उम्मीदवार	-1804
▁समा	-1805
▁रजिस्ट	-1806
ुओं	-1807
▁क्ल	-1808
▁रहने	-1809
▁प्रतिनिध	-1810
▁दिशा	-1811
▁एल	-1812
पन	-1813
al	-1814
पत्र	-1815
▁रोग	-1816
▁स्	-1817
▁शक्त	-1818
फार	-1819
▁प्रदर्शन	-1820
▁निदेशक	-1821
▁आत्म	-1822
वासी	-1823
र्न	-1824
चन	-1825
▁करेंगे	-1826
▁वित्तीय	-1827
▁पीछ	-1828
आईआर	-1829
▁सुनवाई	-1830
ंडल	-1831
▁समस्या	-1832
▁पीड़ित	-1833
▁न्यायालयों	-1834
▁अनुरोध	-1835
▁पूर्वोक्त	-1836
र्श	-1837
▁व्याख्या	-1838
▁सुना	-1839
▁कट	-1840
ोक्ता	-1841
▁आपको	-1842
ब्ल्यू	-1843
▁सुनिश्चित	-1844
हास	-1845
▁दर्शा	-1846
ST	-1847
▁अनिवार्य	-1848
▁बड़े	-1849
▁ब्याज	-1850
▁बाव	-1851
▁सै	-1852
▁तदन	-1853
न्तु	-1854
▁प्रार्थ	-1855
▁नव	-1856
▁बाल	-1857
क्षक	-1858
▁प्रार्थना	-1859
ग्न	-1860
ियर	-1861
▁समी	-1862
ंटर	-1863
▁पूरे	-1864
▁इरा	-1865
▁स्थापना	-1866
्याय	-1867
▁आस	-1868
▁रंग	-1869
▁विनियम	-1870
▁आवेदक	-1871
en	-1872
▁पुष्टि	-1873
▁बें	-1874
▁हिस्सा	-1875
डर	-1876
ियो	-1877
▁जिसने	-1878
राब	-1879
▁अग्र	-1880
▁आन	-1881
▁स्वास्थ	-1882
िक्ष	-1883
▁तदनुसार	-1884
▁छा	-1885
▁जानी	-1886
▁संस्था	-1887
▁प्रौद्योगिक	-1888
▁बाजार	-1889
दम	-1890
▁कहते	-1891
▁सुझ	-1892
▁चिकित्सा	-1893
▁मंजू	-1894
ंजी	-1895
▁याद	-1896
▁परिभा	-1897
ur	-1898
▁इस्त	-1899
▁उससे	-1900
ांक	-1901
▁लेन	-1902
▁हत्या	-1903
▁कौ	-1904
▁आयुक्त	-1905
▁पुस्त	-1906
▁संभावना	-1907
er	-1908
लेज	-1909
▁एज	-1910
▁स्वास्थ्य	-1911
▁तुल	-1912
▁लक्ष	-1913
▁हमने	-1914
▁कारणों	-1915
▁पें	-1916
▁परिवर्तन	-1917
१०	-1918
▁बावजूद	-1919
▁पार्टियों	-1920
बार	-1921
लाह	-1922
श्म	-1923
एँ	-1924
▁उत्तरदाता	-1925
्मिक	-1926
▁जिन्हें	-1927
▁प्रतीत	-1928
▁तकनी	-1929
िकोण	-1930
▁देखते	-1931
▁निर्धारिती	-1932
▁हिस्से	-1933
▁सीमित	-1934
▁अत्य	-1935
▁अपीलीय	-1936
▁दक्ष	-1937
▁किस	-1938
▁यहाँ	-1939
मति	-1940
es	-1941
▁‘	-1942
िव्य	-1943
ैंड	-1944
▁जगह	-1945
वादियों	-1946
▁तर	-1947
थि	-1948
▁आयु	-1949
▁G	-1950
▁अधिकारों	-1951
तिहास	-1952
▁चलता	-1953
▁पैदा	-1954
▁मंद	-1955
▁क़	-1956
▁लाख	-1957
▁बस	-1958
▁अन्त	-1959
्यिक	-1960
▁हेतु	-1961
▁लाल	-1962
▁L	-1963
▁इच्छ	-1964
सित	-1965
प्ता	-1966
▁संसद	-1967
िम्म	-1968
▁अस्पताल	-1969
▁बचाव	-1970
▁T	-1971
▁व्यक्तिगत	-1972
▁संके	-1973
▁आपके	-1974
▁जिन्होंने	-1975
▁मुआ	-1976
फारिश	-1977
▁स्वतंत्रता	-1978
▁मुद्दे	-1979
ंसा	-1980
▁पांच	-1981
▁मात्रा	-1982
▁हिन्द	-1983
▁मार्ग	-1984
ंगत	-1985
▁आए	-1986
▁सीआर	-1987
▁पुनर्	-1988
▁सिफारिश	-1989
▁बढ़ा	-1990
▁दायित्व	-1991
▁”	-1992
▁व्यवसाय	-1993
ूरी	-1994
्टर	-1995
▁अंक	-1996
▁मुआव	-1997
▁लगता	-1998
▁व्यापक	-1999
िकल	-2000
निर्	-2001
▁उपस्थिति	-2002
▁सहयोग	-2003
▁दृष्टिकोण	-2004
▁व्यवहार	-2005
▁विज्ञान	-2006
▁तत्काल	-2007
▁अर	-2008
▁भाई	-2009
▁विधान	-2010
▁तुम	-2011
▁वाद	-2012
▁विवाह	-2013
▁भू	-2014
▁परिणामस्वरूप	-2015
▁पोस्ट	-2016
▁कैसे	-2017
▁H	-2018
▁भर्ती	-2019
ग्रहण	-2020
▁अध्यक्ष	-2021
र्प	-2022
▁शा	-2023
▁अनुमान	-2024
▁उच्चतम	-2025
▁रोज	-2026
▁केंद	-2027
▁उपधारा	-2028
▁घोषित	-2029
ष्य	-2030
▁जन्म	-2031
ह्न	-2032
▁सुझाव	-2033
र्च	-2034
▁पंजीकृत	-2035
▁लाइस	-2036
न्ध	-2037
▁सेवाओं	-2038
▁बीमा	-2039
▁अन्यथा	-2040
▁उपस्थित	-2041
▁निकाल	-2042
ैन	-2043
▁संत	-2044
▁सूचित	-2045
▁प्रौद्योगिकी	-2046
in	-2047
▁बच्चों	-2048
▁निवेश	-2049
पूर्व	-2050
▁खरीद	-2051
ोह	-2052
▁J	-2053
▁V	-2054
कृतिक	-2055
▁उपयुक्त	-2056
ha	-2057
बू	-2058
ीर	-2059
▁सभा	-2060
ांति	-2061
लो	-2062
▁जोड़	-2063
लग्न	-2064
खिल	-2065
▁गयी	-2066
▁एकल	-2067
▁बच्चे	-2068
टन	-2069
्राफ	-2070
धीन	-2071
▁जीव	-2072
▁रक्षा	-2073
▁लाइसेंस	-2074
▁सत्र	-2075
▁वही	-2076
▁a	-2077
मती	-2078
▁अभियुक्तों	-2079
▁संतु	-2080
▁चाहते	-2081
▁खो	-2082
▁भौ	-2083
▁अस्वी	-2084
लाई	-2085
ानि	-2086
▁स्थायी	-2087
▁स्थानीय	-2088
▁परिष	-2089
▁प्रधान	-2090
▁सहमति	-2091
▁अनुभव	-2092
▁अमे	-2093
▁दलील	-2094
यों	-2095
▁स्पष्टीकरण	-2096
▁जमान	-2097
णिज	-2098
▁क्रिया	-2099
▁कवि	-2100
षित	-2101
▁पिछले	-2102
▁अगस्त	-2103
▁विदेशी	-2104
वरण	-2105
▁यात्रा	-2106
▁केंद्रीय	-2107
▁कप	-2108
लन	-2109
फना	-2110
▁मेरी	-2111
▁सचिव	-2112
रासत	-2113
▁पानी	-2114
▁वृद्धि	-2115
▁बाध्य	-2116
▁स्थानांत	-2117
▁चरण	-2118
ेमाल	-2119
▁वाणिज	-2120
▁गिरफ्त	-2121
▁अंतर्गत	-2122
▁कोशिश	-2123
▁प्रशिक्ष	-2124
▁सम्मान	-2125
▁इस्तेमाल	-2126
नाथ	-2127
▁बैठक	-2128
▁प्रतिनिधित्व	-2129
▁रखना	-2130
▁संकेत	-2131
ृत्ति	-2132
▁नुक	-2133
▁मदद	-2134
▁अह	-2135
▁संशोधित	-2136
▁असम	-2137
▁औद्योगिक	-2138
▁मंजूरी	-2139
▁पश्चिम	-2140
▁कॉलेज	-2141
मन	-2142
▁अंग्रे	-2143
▁बेंच	-2144
▁यानी	-2145
डब्ल्यू	-2146
▁सौंप	-2147
▁सेट	-2148
▁जिम्म	-2149
▁श्रम	-2150
▁आकर्ष	-2151
▁देरी	-2152
▁हूँ	-2153
▁जरूर	-2154
वर्ती	-2155
▁समीक्षा	-2156
▁IST	-2157
भाग	-2158
▁WP	-2159
▁ज्या	-2160
▁आरोपों	-2161
▁दावे	-2162
▁मध्यस्थता	-2163
▁नौ	-2164
▁राजस्व	-2165
▁सुरक्षित	-2166
▁देय	-2167
▁इंग	-2168
▁मंदिर	-2169
▁देशों	-2170
▁पीछे	-2171
िवी	-2172
▁प्राकृतिक	-2173
▁आदेशों	-2174
दायी	-2175
▁हलफना	-2176
ेंसी	-2177
ोद	-2178
▁भूमिका	-2179
डा	-2180
ान्त	-2181
▁करोड़	-2182
▁चिह्न	-2183
No	-2184
्रिय	-2185
▁मोट	-2186
▁एफआईआर	-2187
▁संबंधी	-2188
डे	-2189
▁विकसित	-2190
▁संदर्भित	-2191
ूठ	-2192
▁बंग	-2193
▁वाहन	-2194
▁समझौता	-2195
▁विभाज	-2196
ुआ	-2197
▁पंजीकरण	-2198
▁सत	-2199
▁सलाह	-2200
▁बिंद	-2201
▁सिद्धांतों	-2202
00	-2203
▁काउ	-2204
तियों	-2205
▁तुलना	-2206
यां	-2207
ियाँ	-2208
खंड	-2209
सि	-2210
ष्ट्रीय	-2211
ैल	-2212
ेंद्र	-2213
▁रेल	-2214
▁टे	-2215
▁दूसरा	-2216
▁डिक्री	-2217
▁इला	-2218
▁श्र	-2219
▁वैधानिक	-2220
▁एससीसी	-2221
ra	-2222
▁नुकसान	-2223
▁ठहराया	-2224
▁प्रभावी	-2225
▁बज	-2226
▁अभिव्य	-2227
्साह	-2228
▁राजनी	-2229
ंगे	-2230
▁छात्र	-2231
▁निपटान	-2232
▁लागत	-2233
▁कदम	-2234
▁छोटे	-2235
▁जमानत	-2236
▁देव	-2237
दार्थ	-2238
▁भेजा	-2239
▁लौ	-2240
▁धो	-2241
▁यु	-2242
ंटी	-2243
▁मिश	-2244
▁अस्त	-2245
▁मंत्रालय	-2246
▁वेब	-2247
▁जहाँ	-2248
▁प्रदर्श	-2249
यात	-2250
▁प्रतिवादियों	-2251
पि	-2252
▁तिथि	-2253
जों	-2254
▁काल	-2255
▁बहु	-2256
ड़क	-2257
लोक	-2258
एफ	-2259
▁चाल	-2260
र्जी	-2261
▁ग्राम	-2262
दंड	-2263
सीय	-2264
▁लेकर	-2265
▁भवि	-2266
▁अनुचित	-2267
▁पदार्थ	-2268
▁पीठ	-2269
▁आईपीसी	-2270
ोप	-2271
▁दृष्टि	-2272
▁अस्थ	-2273
▁गार	-2274
▁बां	-2275
▁d	-2276
▁भले	-2277
ताछ	-2278
्रेस	-2279
▁बोली	-2280
▁रि	-2281
▁भविष्य	-2282
▁त्रुट	-2283
▁श्रीमती	-2284
▁दक्षि	-2285
ist	-2286
▁00	-2287
▁बेट	-2288
▁निरी	-2289
एन	-2290
▁of	-2291
राह	-2292
▁एंड	-2293
मात्र	-2294
▁मजब	-2295
▁लंबित	-2296
तार	-2297
▁रहते	-2298
▁अर्थात्	-2299
▁गांव	-2300
▁उत्तरदायी	-2301
▁विकल्प	-2302
ंधान	-2303
▁शक्तियों	-2304
▁निष्पादित	-2305
▁पेट	-2306
▁मर	-2307
िटी	-2308
ct	-2309
▁फर	-2310
र्मा	-2311
▁विज्ञ	-2312
त्तियों	-2313
ाधिकार	-2314
▁विरोध	-2315
िवीजन	-2316
▁रहता	-2317
त्मा	-2318
▁इका	-2319
▁पूछताछ	-2320
▁अच्छा	-2321
▁संपर्क	-2322
▁अनुपालन	-2323
ेर	-2324
▁बड़ा	-2325
▁अनुश	-2326
▁प्रारंभिक	-2327
ेशा	-2328
▁उसमें	-2329
लब	-2330
▁विल	-2331
▁प्रकाशित	-2332
▁संचालन	-2333
ामीण	-2334
▁एड	-2335
▁सत्य	-2336
▁आपूर्ति	-2337
▁चाहे	-2338
▁कर्तव्य	-2339
▁ग्रामीण	-2340
▁टिप	-2341
▁निर्णयों	-2342
११	-2343
▁गठन	-2344
▁अधिग्रहण	-2345
▁आपत्ति	-2346
▁दिखाई	-2347
▁जाये	-2348
▁आद	-2349
▁संसा	-2350
धे	-2351
▁उपकरण	-2352
चरण	-2353
▁डिवीजन	-2354
र्इ	-2355
▁मार्च	-2356
▁पक्षों	-2357
सिक	-2358
▁अनुसंधान	-2359
पूर्वक	-2360
▁अपेक्षा	-2361
्श	-2362
▁खाते	-2363
▁नम	-2364
▁रखी	-2365
▁राज्यों	-2366
कृति	-2367
▁सम्प	-2368
खी	-2369
र्ग	-2370
▁विद्य	-2371
▁हमेशा	-2372
▁कर्	-2373
▁जोर	-2374
▁देखने	-2375
▁उनमें	-2376
विदा	-2377
▁चित्र	-2378
▁वसू	-2379
ानुसार	-2380
▁छूट	-2381
▁बाहरी	-2382
▁मिली	-2383
र्फ	-2384
बाद	-2385
▁यही	-2386
▁लॉ	-2387
▁अध्ययन	-2388
▁निष्पादन	-2389
▁वन	-2390
▁तुर	-2391
▁इतिहास	-2392
ल्पना	-2393
ड़ों	-2394
▁पक	-2395
▁उठाया	-2396
▁पात्र	-2397
▁अनुसूची	-2398
▁कार्यों	-2399
▁तकनीकी	-2400
▁गवाही	-2401
▁दाखिल	-2402
▁पेंशन	-2403
▁कला	-2404
▁टिप्प	-2405
▁अंतरिम	-2406
जार	-2407
▁चुका	-2408
▁यून	-2409
▁मास	-2410
▁शीर्षक	-2411
▁प्रकट	-2412
▁आता	-2413
▁ढंग	-2414
▁बोल	-2415
▁जाति	-2416
▁खर्च	-2417
▁इत	-2418
▁नक	-2419
▁रचना	-2420
▁माता	-2421
ेध	-2422
▁जिनके	-2423
▁रक्त	-2424
▁वसूली	-2425
▁भौतिक	-2426
▁आवंट	-2427
▁प्रेम	-2428
▁भिन्न	-2429
▁संगठन	-2430
▁भावना	-2431
▁परिप	-2432
▁यद्य	-2433
▁युद्ध	-2434
केट	-2435
▁लाया	-2436
▁मान्यता	-2437
▁यद्यपि	-2438
हरी	-2439
▁आरंभ	-2440
▁देवी	-2441
दर्श	-2442
▁रोजगार	-2443
▁शासन	-2444
कु	-2445
ंता	-2446
रेट	-2447
▁उठाए	-2448
▁शेष	-2449
▁विस्तृत	-2450
▁बुला	-2451
▁लगे	-2452
▁पहलू	-2453
संद	-2454
▁जिरह	-2455
▁फिल	-2456
▁महान	-2457
▁डा	-2458
▁साहित	-2459
ंजन	-2460
▁लिखा	-2461
▁निविदा	-2462
▁खेल	-2463
▁Dist	-2464
▁होनी	-2465
▁सीखे	-2466
जरा	-2467
▁पाठ्य	-2468
सन	-2469
वीं	-2470
▁विरुद्ध	-2471
▁किरा	-2472
ायद	-2473
्मक	-2474
शल	-2475
ोन्न	-2476
▁एकमात्र	-2477
▁खुलासा	-2478
▁पेज	-2479
जय	-2480
▁मिले	-2481
▁आरोपियों	-2482
▁जिनमें	-2483
▁मौत	-2484
▁अस्तित्व	-2485
▁केस	-2486
▁निर्वा	-2487
▁साव	-2488
▁हिरासत	-2489
▁पदोन्न	-2490
▁होकर	-2491
ंतर	-2492
▁उम	-2493
▁प्रवि	-2494
▁शव	-2495
भूत	-2496
▁प्रग	-2497
▁चाहता	-2498
▁देती	-2499
▁जून	-2500
▁आकार	-2501
▁वाय	-2502
▁परे	-2503
▁बरा	-2504
▁निकल	-2505
▁उपर्	-2506
▁स्म	-2507
▁लि	-2508
▁व्याव	-2509
▁सम्ब	-2510
▁बिंदु	-2511
टल	-2512
▁सेवान	-2513
▁बिज	-2514
▁आचरण	-2515
▁सेवानिव	-2516
▁उपर्युक्त	-2517
▁संस्थानों	-2518
▁मश	-2519
▁पुत्र	-2520
▁ज्यादा	-2521
▁खे	-2522
▁साह	-2523
▁विद्वान	-2524
▁विवेक	-2525
र्वा	-2526
▁परंतु	-2527
▁परिषद	-2528
▁तरफ	-2529
▁गाँ	-2530
्यून	-2531
▁हमारा	-2532
▁निर्देशित	-2533
म्प	-2534
▁टै	-2535
▁वाणिज्यिक	-2536
ायक	-2537
▁संय	-2538
▁किर	-2539
▁विनिर्	-2540
▁आकर्षित	-2541
▁संरक्षण	-2542
▁कहना	-2543
ग्	-2544
▁अभिव्यक्ति	-2545
▁अश	-2546
▁निषेध	-2547
▁अप्रैल	-2548
▁अर्थात	-2549
▁पुस्तक	-2550
▁बेहत	-2551
▁अभ्यास	-2552
▁बराम	-2553
▁ते	-2554
▁फाइल	-2555
▁सत्ता	-2556
▁II	-2557
▁विश्ले	-2558
▁गुर	-2559
म्ह	-2560
▁ii	-2561
धानी	-2562
▁जाँच	-2563
मो	-2564
रक	-2565
▁डे	-2566
▁फैसला	-2567
▁रू	-2568
▁परिसर	-2569
▁बराबर	-2570
▁त्रुटि	-2571
▁हथ	-2572
▁पट्ट	-2573
ैतिक	-2574
▁गांधी	-2575
▁प्रशिक्षण	-2576
▁प्रत्यक्ष	-2577
ॉस	-2578
ार्	-2579
▁कहीं	-2580
ज्ञानिक	-2581
▁संस्करण	-2582
▁दें	-2583
▁रात	-2584
▁प्रशासनिक	-2585
▁इस्ल	-2586
▁तंत्र	-2587
▁विरो	-2588
▁प्रतिबंध	-2589
▁याचिकाओं	-2590
ेदारी	-2591
ून्य	-2592
▁कांग	-2593
▁साधारण	-2594
▁t	-2595
▁जिसकी	-2596
साइट	-2597
ंगल	-2598
▁सित	-2599
जनक	-2600
▁करनी	-2601
ालित	-2602
▁नया	-2603
ात्मक	-2604
ठित	-2605
▁पीसी	-2606
भाई	-2607
ेदन	-2608
▁पुनः	-2609
▁कोर्इ	-2610
सम	-2611
▁संदेश	-2612
भू	-2613
▁अनुक	-2614
▁साझ	-2615
▁दावेदार	-2616
▁सिर	-2617
▁रिक्त	-2618
▁प्रगति	-2619
▁झूठ	-2620
▁इंडिया	-2621
▁जल्	-2622
▁परन्तु	-2623
▁समझा	-2624
जित	-2625
▁पहल	-2626
▁मेड	-2627
स्थाप	-2628
▁पौ	-2629
▁तुरंत	-2630
▁संतुष्ट	-2631
▁बॉ	-2632
▁दि	-2633
▁उल्लिखित	-2634
▁यथ	-2635
▁राजा	-2636
▁सराह	-2637
▁क्षति	-2638
▁पंचायत	-2639
गढ़	-2640
▁अवि	-2641
▁मुआवजे	-2642
▁निकाय	-2643
प्प	-2644
▁पूंजी	-2645
▁दक्षिण	-2646
न्व	-2647
ृत्त	-2648
▁जरूरत	-2649
▁लगी	-2650
दाता	-2651
▁अध्याय	-2652
▁बरामद	-2653
यर	-2654
भाल	-2655
▁शेयर	-2656
कारों	-2657
▁शून्य	-2658
il	-2659
स्क	-2660
▁तुम्ह	-2661
▁निर्यात	-2662
ॉक	-2663
▁विलेख	-2664
▁अस्वीकार	-2665
▁SCC	-2666
▁गुजरा	-2667
▁कारा	-2668
▁c	-2669
▁अक	-2670
▁तेल	-2671
▁निम्नानुसार	-2672
लाव	-2673
ांड	-2674
▁दिस	-2675
▁नही	-2676
▁पुरुष	-2677
▁पाठ्यक्रम	-2678
▁उद्य	-2679
▁कृत	-2680
▁पराम	-2681
संगत	-2682
ैक	-2683
▁सोच	-2684
फा	-2685
▁पुरा	-2686
▁छोड़कर	-2687
▁उम्मीदवारों	-2688
▁अधिका	-2689
सनीय	-2690
्राम	-2691
ैधानिक	-2692
▁पाए	-2693
िस्ता	-2694
▁स्रो	-2695
▁संचार	-2696
▁सड़क	-2697
▁पहला	-2698
▁सुब	-2699
▁क़ान	-2700
▁विंड	-2701
▁पड़ा	-2702
▁पदों	-2703
▁शायद	-2704
▁मुक्त	-2705
▁छह	-2706
▁उपचार	-2707
णियों	-2708
▁पसंद	-2709
▁अपराधों	-2710
▁विशेषज्ञ	-2711
▁तत्व	-2712
▁महारा	-2713
▁भग	-2714
रिका	-2715
्राइ	-2716
बे	-2717
▁अनुरूप	-2718
पालिका	-2719
▁चेक	-2720
त्साह	-2721
▁बेहतर	-2722
श्वर	-2723
▁अभाव	-2724
आईसी	-2725
▁सामना	-2726
▁विज्ञापन	-2727
▁रखे	-2728
▁संरचना	-2729
र्जा	-2730
▁बचा	-2731
नात्मक	-2732
▁इतना	-2733
▁क़ानून	-2734
as	-2735
▁जनवरी	-2736
प्ताह	-2737
▁बढ़ाने	-2738
▁राजनीतिक	-2739
▁मिट	-2740
हीन	-2741
▁निरंतर	-2742
▁कार्यकारी	-2743
▁सहमत	-2744
▁प्रयोज	-2745
घु	-2746
्ष्	-2747
▁दुकान	-2748
▁मई	-2749
▁इच्छा	-2750
▁दिखाया	-2751
गल	-2752
▁पाल	-2753
▁री	-2754
ज़ा	-2755
टों	-2756
▁लेखा	-2757
▁लेना	-2758
▁इंज	-2759
▁गतिविध	-2760
▁सत्या	-2761
▁बने	-2762
▁किराय	-2763
▁निपटा	-2764
▁आत	-2765
▁मतलब	-2766
▁स्थानांतरित	-2767
▁कीमत	-2768
▁अनुदान	-2769
▁मेरा	-2770
▁अमेरिका	-2771
ण्श	-2772
▁इं	-2773
ण्श्छ	-2774
▁ऊण्श्छ	-2775
▁ऊण्श्छ्ष्	-2776
▁वहाँ	-2777
▁दुनिया	-2778
ag	-2779
▁शाखा	-2780
▁पड़ता	-2781
▁इक	-2782
▁उनसे	-2783
ंगा	-2784
and	-2785
▁किंतु	-2786
▁वेबसाइट	-2787
▁उपभ	-2788
▁सराहना	-2789
▁गाँव	-2790
▁धी	-2791
▁दिव	-2792
IR	-2793
▁जाय	-2794
▁पीएस	-2795
▁दिखाने	-2796
▁बरी	-2797
▁न्यून	-2798
▁मानते	-2799
पा	-2800
राव	-2801
▁शादी	-2802
▁विद्या	-2803
भूम	-2804
▁करा	-2805
▁पर्य	-2806
▁उद्ध	-2807
▁किये	-2808
▁आग	-2809
▁फॉ	-2810
▁मशीन	-2811
ुनिक	-2812
घटना	-2813
▁दायरे	-2814
▁प्रतिष्ठ	-2815
ल्स	-2816
किंग	-2817
▁ब्रिट	-2818
ियार	-2819
▁संकल्प	-2820
▁विश्लेषण	-2821
▁सेना	-2822
▁पट	-2823
्यो	-2824
▁नजर	-2825
▁जज	-2826
▁परिभाषित	-2827
मारी	-2828
▁सात	-2829
▁परामर्श	-2830
▁पत	-2831
िप्त	-2832
▁सक्रिय	-2833
AR	-2834
ad	-2835
▁मुद्द	-2836
▁प्ल	-2837
▁खत	-2838
द्व	-2839
▁धोखा	-2840
▁समाप्ति	-2841
▁क्रॉस	-2842
▁ब्ल	-2843
ठी	-2844
▁कल्या	-2845
ूबर	-2846
▁खाद	-2847
▁कारावास	-2848
▁प्रोत्साह	-2849
▁कांग्रेस	-2850
▁w	-2851
चर	-2852
▁अफ	-2853
▁लाने	-2854
▁दुर्घटना	-2855
ड्ड	-2856
टे	-2857
▁भारी	-2858
▁जुलाई	-2859
्यूटर	-2860
पित	-2861
▁मेडिकल	-2862
कम	-2863
▁वें	-2864
▁योगदान	-2865
▁देगा	-2866
▁मंत्री	-2867
▁संपूर्ण	-2868
▁सन्	-2869
▁बेटी	-2870
▁बिजली	-2871
▁शांति	-2872
▁निकाला	-2873
भार	-2874
जूदा	-2875
▁मुद्दों	-2876
भूमि	-2877
▁वस्तुओं	-2878
▁बंध	-2879
▁मौजूदा	-2880
▁सप्ताह	-2881
▁न्यूनतम	-2882
नियों	-2883
▁समुदाय	-2884
▁दृश्य	-2885
र्द	-2886
▁बजाय	-2887
ारात्मक	-2888
▁समाधान	-2889
▁दस	-2890
▁ट्रस्ट	-2891
स्थित	-2892
▁निश	-2893
▁मिलता	-2894
चि	-2895
▁साहित्य	-2896
▁रिश	-2897
▁निर्व	-2898
डियो	-2899
माने	-2900
▁एकत्र	-2901
▁लक्ष्य	-2902
▁हस्तांत	-2903
▁अंदर	-2904
am	-2905
ूर्ण	-2906
▁प्रतिकूल	-2907
बिर	-2908
▁प्रदर्शित	-2909
▁दुर	-2910
▁वसीय	-2911
ent	-2912
▁वैज्ञानिक	-2913
वक	-2914
▁स्थग	-2915
▁आधुनिक	-2916
▁आते	-2917
pur	-2918
रत	-2919
▁गारंटी	-2920
ंव	-2921
▁कल्याण	-2922
▁मॉ	-2923
▁उद्यम	-2924
▁अगले	-2925
▁संलग्न	-2926
▁नर	-2927
▁ज्ञापन	-2928
▁पदोन्नति	-2929
▁केन्द्र	-2930
▁प्राय	-2931
▁हमला	-2932
▁निर्मित	-2933
▁विभाजन	-2934
िफ	-2935
▁कोड	-2936
▁खोल	-2937
द्रा	-2938
▁रेलवे	-2939
▁घायल	-2940
▁तीसरे	-2941
▁कब्जा	-2942
▁वितरण	-2943
▁पंजा	-2944
▁पर्यावरण	-2945
▁डेट	-2946
rict	-2947
▁आतंक	-2948
▁मुखबिर	-2949
it	-2950
▁बेच	-2951
▁संवैधानिक	-2952
१२	-2953
▁शर्मा	-2954
स्ल	-2955
▁शिव	-2956
▁शास	-2957
▁कटौती	-2958
▁इंगित	-2959
▁District	-2960
▁देन	-2961
वाय	-2962
▁नदी	-2963
▁सश	-2964
▁F	-2965
▁तला	-2966
ोदन	-2967
▁फरवरी	-2968
▁घंट	-2969
▁मुसल	-2970
or	-2971
▁जिम्मेदार	-2972
▁चिह्नित	-2973
▁मनुष	-2974
ंथ	-2975
▁शहर	-2976
चक	-2977
▁मू	-2978
▁पाने	-2979
▁रोकने	-2980
ृह	-2981
्वर	-2982
▁तम	-2983
▁सुल	-2984
▁ती	-2985
▁जेल	-2986
▁खुल	-2987
▁धार्मिक	-2988
▁अल्प	-2989
▁दश	-2990
▁अधिकांश	-2991
ोषण	-2992
▁परिस्थिति	-2993
▁थो	-2994
िस्तान	-2995
▁स्थल	-2996
वत्ता	-2997
▁उम्र	-2998
▁विविध	-2999
▁क्षेत्रीय	-3000
▁मौके	-3001
▁पृथ	-3002
▁अंग्रेजी	-3003
शु	-3004
▁परिवहन	-3005
▁मानसिक	-3006
▁अनुमोदन	-3007
ृत्व	-3008
▁एक्ट	-3009
▁ग्राह	-3010
ांस	-3011
ल्ड	-3012
▁करेगी	-3013
ोलन	-3014
▁छुट	-3015
कीय	-3016
िब	-3017
▁मना	-3018
▁भोजन	-3019
▁गुजरात	-3020
▁गुणवत्ता	-3021
▁चार्ज	-3022
ंचित	-3023
▁कहानी	-3024
▁संब	-3025
कता	-3026
▁मुसलमान	-3027
▁दौ	-3028
स्ति	-3029
▁फ्र	-3030
नेट	-3031
▁जित	-3032
क्रमण	-3033
▁कम्प	-3034
▁सांस	-3035
▁फल	-3036
▁पढ़ने	-3037
लिक	-3038
▁इंटर	-3039
▁खून	-3040
▁कॉल	-3041
▁आग्रह	-3042
क़	-3043
▁मोह	-3044
▁क्षेत्राधिकार	-3045
्रिया	-3046
▁नेट	-3047
▁हास	-3048
▁ऊर्जा	-3049
खिक	-3050
▁छोटी	-3051
▁शारी	-3052
▁बंगाल	-3053
▁प्रस्तावित	-3054
▁सफलता	-3055
▁गणना	-3056
▁चलाने	-3057
▁जुड़े	-3058
▁पद्ध	-3059
▁छात्रों	-3060
▁सीधे	-3061
ारण	-3062
▁खाली	-3063
▁मंडल	-3064
▁निवास	-3065
▁शंक	-3066
▁आकलन	-3067
▁सुबह	-3068
▁कले	-3069
▁मनोर	-3070
▁आयात	-3071
पथ	-3072
▁भ्र	-3073
द्दा	-3074
सं	-3075
▁ध्व	-3076
ार्ड	-3077
▁माप	-3078
▁विश्वसनीय	-3079
AN	-3080
▁माँ	-3081
▁शारीरिक	-3082
▁प्रसाद	-3083
▁विचारों	-3084
▁अके	-3085
▁विच	-3086
चारिक	-3087
▁बनाई	-3088
▁अनुपात	-3089
ग्राफ	-3090
ितीय	-3091
▁दिसंबर	-3092
▁इस्लाम	-3093
▁p	-3094
▁मित्र	-3095
▁पश्चात्	-3096
नात	-3097
▁सका	-3098
▁अनुसूचित	-3099
▁अवस्था	-3100
▁अहम	-3101
एच	-3102
▁गी	-3103
नल	-3104
▁मात्र	-3105
▁चाहिये	-3106
▁निधि	-3107
लंब	-3108
▁दिख	-3109
▁पढ़ा	-3110
हरे	-3111
▁रखता	-3112
फे	-3113
▁इरादा	-3114
▁सिर्फ	-3115
▁आनंद	-3116
▁स्वामी	-3117
▁प्रमाणित	-3118
▁नील	-3119
▁जैसी	-3120
▁मोटर	-3121
रीय	-3122
ed	-3123
▁मजद	-3124
▁निवासी	-3125
उस	-3126
ल्ल	-3127
▁मौखिक	-3128
▁शुद्ध	-3129
▁इनमें	-3130
▁कवर	-3131
व्यव	-3132
साइ	-3133
ंबई	-3134
न्स	-3135
▁औसत	-3136
▁नियोक्ता	-3137
▁आब	-3138
चीन	-3139
▁खाता	-3140
स्थिति	-3141
▁हलफनामे	-3142
▁निष्पक्ष	-3143
▁निर्देशों	-3144
▁उपन	-3145
▁वालों	-3146
▁कठोर	-3147
▁करी	-3148
▁सर्वे	-3149
▁वसीयत	-3150
▁सितंबर	-3151
▁निरीक्षण	-3152
मंत्र	-3153
▁लेते	-3154
▁मुखर्जी	-3155
ष्ट्र	-3156
ुता	-3157
्वेष	-3158
ाज्ञ	-3159
घा	-3160
▁उठाने	-3161
har	-3162
ुन	-3163
▁पाते	-3164
ष्क	-3165
▁डॉक्टर	-3166
▁पीडब्ल्यू	-3167
▁शि	-3168
▁स्वा	-3169
▁दोहरा	-3170
id	-3171
▁पड़े	-3172
▁गिरफ्तार	-3173
EN	-3174
▁v	-3175
▁अच्छे	-3176
ुपयोग	-3177
्षिक	-3178
ियल	-3179
▁बर्	-3180
▁वंचित	-3181
▁सावधानी	-3182
▁विचारा	-3183
सूस	-3184
▁इंजीन	-3185
▁परिभाषा	-3186
ाज्ञा	-3187
▁शुरुआ	-3188
▁न्यायाधीशों	-3189
▁नमू	-3190
▁गतिविधियों	-3191
▁इकाई	-3192
▁कलेक्टर	-3193
▁चुके	-3194
वाला	-3195
▁प्राप्ति	-3196
▁केन्द	-3197
▁गि	-3198
▁स्रोत	-3199
▁लगातार	-3200
▁निषेधाज्ञा	-3201
▁प्राथमिकता	-3202
▁फर्म	-3203
▁परिवर्त	-3204
दर	-3205
▁निष्कर्षों	-3206
▁व्यय	-3207
▁गा	-3208
▁मजबूत	-3209
▁पकड़	-3210
ियोग	-3211
▁सकें	-3212
▁भेद	-3213
▁मुद्रा	-3214
▁AIR	-3215
▁दूरी	-3216
▁विचाराधीन	-3217
▁नियंत्रित	-3218
▁निकट	-3219
▁आधिकार	-3220
▁युवा	-3221
▁वर्णित	-3222
ंका	-3223
पीठ	-3224
▁युग	-3225
▁वो	-3226
▁दुरुपयोग	-3227
बाइल	-3228
▁आंद	-3229
▁रेड	-3230
▁नेत	-3231
▁आधिकारिक	-3232
▁सम्	-3233
ृद	-3234
▁हिंदू	-3235
काया	-3236
▁मुद्दा	-3237
ायर	-3238
मल	-3239
▁स्वीकृति	-3240
▁तेज	-3241
▁न्यू	-3242
▁पैराग्राफ	-3243
ेलन	-3244
▁डेटा	-3245
▁रहती	-3246
▁सच्च	-3247
िक्स	-3248
▁कृष्ण	-3249
▁अत्यधिक	-3250
▁असा	-3251
पचारिक	-3252
▁वर्णन	-3253
▁नेतृत्व	-3254
▁उन्न	-3255
म्भ	-3256
▁आत्मा	-3257
▁सृ	-3258
▁जरूरी	-3259
्यात्मक	-3260
▁त्व	-3261
▁फोन	-3262
ंगी	-3263
▁हटाने	-3264
▁ताल	-3265
▁दस्तावेज़	-3266
▁निर्वहन	-3267
ास्त्र	-3268
▁माह	-3269
▁रजिस्ट्र	-3270
मंत्री	-3271
▁प्रयोजन	-3272
▁स्वाम	-3273
▁चीज	-3274
ुण	-3275
▁वैधता	-3276
िज़	-3277
▁असमर्थ	-3278
▁अंश	-3279
▁लघु	-3280
▁संघर्ष	-3281
▁बिहार	-3282
▁रकम	-3283
▁ग्रह	-3284
▁दरवा	-3285
▁उत्तराधिक	-3286
▁प्रेरित	-3287
नाटक	-3288
▁प्राइ	-3289
▁सहकारी	-3290
धनों	-3291
▁तभी	-3292
▁किसान	-3293
▁महसूस	-3294
ृंख	-3295
▁वार्षिक	-3296
▁मानदंड	-3297
▁जानते	-3298
▁कथन	-3299
▁समाचार	-3300
यण	-3301
▁कंपनियों	-3302
IC	-3303
▁आह	-3304
▁लै	-3305
▁सम्मिल	-3306
▁सम्बन्ध	-3307
▁मिलने	-3308
म्बर	-3309
▁खान	-3310
▁मनुष्य	-3311
▁संक्षेप	-3312
▁कंप्यूटर	-3313
पे	-3314
▁जुर्म	-3315
▁ईश्वर	-3316
he	-3317
▁१	-3318
▁वर्गी	-3319
भूति	-3320
स्ती	-3321
▁प्रयोजनों	-3322
ंदा	-3323
▁कौन	-3324
▁कर्नाटक	-3325
▁इसने	-3326
▁संग्रह	-3327
um	-3328
टिल	-3329
▁अवलोक	-3330
▁बेटे	-3331
▁पूर्वव	-3332
डिया	-3333
▁निच	-3334
▁तत्प	-3335
▁प्रतिक्रिया	-3336
ंत्रित	-3337
▁अस्थायी	-3338
▁दै	-3339
▁स्वीकार्य	-3340
ुति	-3341
▁समार	-3342
▁अपेक्षित	-3343
▁उल	-3344
▁भगवान	-3345
▁दास	-3346
▁मानक	-3347
दारों	-3348
वर्क	-3349
राष्ट्रीय	-3350
▁कहता	-3351
▁परम	-3352
▁देकर	-3353
▁पंजाब	-3354
▁दब	-3355
▁प्रसार	-3356
▁आवा	-3357
▁x	-3358
▁धीरे	-3359
▁मोबाइल	-3360
▁इंस	-3361
▁अभियोग	-3362
टने	-3363
▁देखभाल	-3364
▁उद्धृत	-3365
▁U	-3366
स्थापित	-3367
▁चरित	-3368
▁रजिस्ट्रार	-3369
शाला	-3370
ृंखला	-3371
▁एजेंसी	-3372
▁जुर्माना	-3373
▁पृष्ठभूमि	-3374
▁जनरल	-3375
ेक्ट	-3376
▁हद	-3377
▁शत्र	-3378
▁आंत	-3379
▁ऊंच	-3380
ीदारी	-3381
▁अधिकतम	-3382
▁आशय	-3383
▁खास	-3384
▁समारोह	-3385
▁r	-3386
शिया	-3387
▁कार्यान	-3388
▁सकेगा	-3389
तया	-3390
▁इरादे	-3391
▁बढ	-3392
▁मध	-3393
▁पद्धति	-3394
AT	-3395
▁विधिव	-3396
्कुल	-3397
▁संगी	-3398
▁अग्रिम	-3399
▁घरे	-3400
▁निशान	-3401
त्री	-3402
▁विद्वत	-3403
ion	-3404
▁नारा	-3405
रिया	-3406
ॉज	-3407
▁हाई	-3408
इयों	-3409
▁चोटों	-3410
मक	-3411
न्ट	-3412
▁चंद्र	-3413
दृ	-3414
▁तार	-3415
▁कार्यान्व	-3416
ोजक	-3417
▁अनुशास	-3418
▁बिल्कुल	-3419
िद्ध	-3420
▁कहने	-3421
▁हजार	-3422
▁डिस	-3423
▁बाई	-3424
▁परिच	-3425
▁दर्शाता	-3426
▁एचसी	-3427
▁मनोरंजन	-3428
▁खाद्य	-3429
▁कमीशन	-3430
▁घरेलू	-3431
▁ठे	-3432
िकेट	-3433
्किल	-3434
▁भंड	-3435
ाये	-3436
▁अनुप्र	-3437
िनी	-3438
▁संबद्ध	-3439
▁शपथ	-3440
बाजी	-3441
▁उपभोक्ता	-3442
▁कल्पना	-3443
▁जम्म	-3444
▁केन्द्रीय	-3445
▁अवलोकन	-3446
▁काग	-3447
चार्य	-3448
▁मीटर	-3449
▁यूरो	-3450
ागत	-3451
▁आमत	-3452
▁रहना	-3453
ic	-3454
▁हासिल	-3455
▁जम्मू	-3456
▁जिले	-3457
▁चूक	-3458
▁प्रभार	-3459
जात	-3460
▁सरल	-3461
▁धोखाध	-3462
ूपी	-3463
▁शिक्षक	-3464
▁आंदोलन	-3465
▁अक्ट	-3466
▁किरायेदार	-3467
ोम	-3468
उट	-3469
▁परेश	-3470
▁वायु	-3471
▁अवधार	-3472
▁बनाना	-3473
▁आमतौर	-3474
▁अक्टूबर	-3475
▁धोखाधड़ी	-3476
िशन	-3477
▁सुश	-3478
▁सारे	-3479
▁दशा	-3480
▁असफल	-3481
घ्र	-3482
▁कविता	-3483
▁संसाधन	-3484
▁किन	-3485
▁मिन	-3486
▁महिलाओं	-3487
▁संस्कृत	-3488
▁फार	-3489
▁विशाल	-3490
▁टेली	-3491
जीव	-3492
▁मुश	-3493
व्यों	-3494
▁कठिना	-3495
▁सम्मिलित	-3496
डु	-3497
डल	-3498
▁निर्वाचन	-3499
▁इतनी	-3500
कल्प	-3501
▁विधेय	-3502
१३	-3503
ांकन	-3504
▁निष्क	-3505
ोग्राम	-3506
▁खंडन	-3507
▁प्रका	-3508
▁ट्रेड	-3509
▁अनुपस्थिति	-3510
ट्	-3511
सर्स	-3512
▁पाव	-3513
सायिक	-3514
▁महत्त	-3515
याँ	-3516
करार	-3517
िग	-3518
▁अंड	-3519
▁छुट्टी	-3520
▁f	-3521
ing	-3522
्यूट	-3523
▁सर्वेक्षण	-3524
▁पटना	-3525
▁ब्रिटिश	-3526
चीत	-3527
▁आशा	-3528
त्कार	-3529
▁बताए	-3530
▁प्रि	-3531
देन	-3532
िड	-3533
▁टाइ	-3534
▁मौलिक	-3535
▁जब्ती	-3536
▁प्रमाणपत्र	-3537
ॉट	-3538
▁आती	-3539
▁गरी	-3540
▁शाह	-3541
▁प्रविष्टि	-3542
▁संतोष	-3543
▁स्वामित्व	-3544
▁कार्ड	-3545
▁बुनिया	-3546
▁विधिवत	-3547
३०	-3548
▁प्रकाशन	-3549
▁साइ	-3550
▁बातचीत	-3551
ीप	-3552
▁कराने	-3553
▁आदमी	-3554
▁डिजा	-3555
▁गिरफ्तारी	-3556
▁चिंत	-3557
▁बकाया	-3558
▁स्टेट	-3559
▁विवादित	-3560
▁चा	-3561
▁ख़	-3562
▁अना	-3563
यम	-3564
▁सील	-3565
▁उपक्रम	-3566
▁बरकरार	-3567
▁अधिकृत	-3568
▁खात	-3569
▁चंद	-3570
▁किन्तु	-3571
▁सभ	-3572
▁अत्यंत	-3573
▁नेटवर्क	-3574
सभा	-3575
▁घट	-3576
न्य	-3577
▁आंक	-3578
स्लिम	-3579
▁कठिन	-3580
▁दंडनीय	-3581
▁बहन	-3582
्कृत	-3583
▁पहुंचा	-3584
▁मंच	-3585
▁अनुशासनात्मक	-3586
क्ष्म	-3587
क्शन	-3588
▁तमिल	-3589
र्या	-3590
▁सिक	-3591
▁जैन	-3592
फ्ट	-3593
▁मुस्लिम	-3594
ॉप	-3595
ोधित	-3596
▁उधार	-3597
▁कमरे	-3598
▁लाप	-3599
र्ज	-3600
▁औपचारिक	-3601
्रमण	-3602
▁मल	-3603
▁डाय	-3604
▁फ़ाइल	-3605
▁रोड	-3606
▁विजय	-3607
▁चरित्र	-3608
▁किराए	-3609
▁एनआईसी	-3610
धर	-3611
▁पहुंचे	-3612
AL	-3613
▁संज्ञान	-3614
▁टिक	-3615
▁ब्रह	-3616
▁साइट	-3617
▁नती	-3618
ारक	-3619
▁संस्कृति	-3620
ायिका	-3621
▁छोटा	-3622
▁कराया	-3623
▁प्रणब	-3624
▁बदलाव	-3625
्शन	-3626
▁000	-3627
▁तात	-3628
▁घंटे	-3629
▁ढां	-3630
कल्पिक	-3631
▁स्थानों	-3632
वेयर	-3633
▁गृह	-3634
▁हथियार	-3635
▁आपकी	-3636
▁अपराधी	-3637
▁वैकल्पिक	-3638
▁प्रसन्न	-3639
▁उत्पादों	-3640
▁नं	-3641
▁चले	-3642
लेक्ट	-3643
▁व्यावसायिक	-3644
▁लंबे	-3645
पात	-3646
▁नवंबर	-3647
देव	-3648
▁पुराने	-3649
▁तेजी	-3650
▁शुरुआत	-3651
▁साधन	-3652
▁तह	-3653
▁बनी	-3654
▁विद्यार्थ	-3655
्रेता	-3656
कर्ताओं	-3657
मूर्ति	-3658
▁संक्ष	-3659
▁समग्र	-3660
्राष्ट्रीय	-3661
▁खड़ा	-3662
▁बुलाया	-3663
PC	-3664
▁अध्या	-3665
▁अधिकरण	-3666
▁चुना	-3667
ग्ध	-3668
▁खन	-3669
ेंड	-3670
न्ना	-3671
शाली	-3672
▁घटनाओं	-3673
ोरी	-3674
▁संगीत	-3675
राज्य	-3676
ाइन	-3677
▁काउंस	-3678
▁प्रतिनिधि	-3679
▁आवश्यकताओं	-3680
्फ	-3681
▁श्रृंखला	-3682
ाकू	-3683
▁विनियमन	-3684
▁दर्शाया	-3685
चलित	-3686
▁कित	-3687
▁गठित	-3688
▁विद्युत	-3689
शनल	-3690
▁प्रचार	-3691
रम	-3692
▁हिन्दी	-3693
भाष	-3694
ित्त	-3695
सु	-3696
दारी	-3697
▁दिवस	-3698
▁बातों	-3699
▁पूर्वा	-3700
▁संचालित	-3701
▁उद्देश्यों	-3702
▁मेल	-3703
▁अपवाद	-3704
▁आदर्श	-3705
▁पीओ	-3706
बि	-3707
▁डिजाइन	-3708
▁मुंबई	-3709
▁आंध	-3710
▁पहलुओं	-3711
▁अदालतों	-3712
ठा	-3713
▁कोल	-3714
▁बध	-3715
▁कां	-3716
▁पाई	-3717
▁जोख	-3718
▁तरीका	-3719
▁स्वरूप	-3720
नक	-3721
▁बुनियादी	-3722
▁महाराष्ट्र	-3723
▁नेता	-3724
ंडी	-3725
▁स्थिर	-3726
▁घु	-3727
▁डाला	-3728
क्षणिक	-3729
un	-3730
▁हाउस	-3731
▁विभागीय	-3732
▁बौ	-3733
▁निपटने	-3734
▁बोझ	-3735
▁क्रमश	-3736
मों	-3737
▁कर्तव्यों	-3738
पास	-3739
▁मुश्किल	-3740
नु	-3741
राम	-3742
▁अतः	-3743
श्मीर	-3744
स्य	-3745
▁इलेक्ट	-3746
▁चै	-3747
ज्ञा	-3748
▁हृद	-3749
▁प्राचीन	-3750
▁अभिलेख	-3751
▁सुनी	-3752
त्तर	-3753
▁लो	-3754
पूर्ति	-3755
रख	-3756
▁खी	-3757
▁गौ	-3758
▁काउंटर	-3759
▁धारणा	-3760
▁अकेले	-3761
▁अवमान	-3762
▁शीघ्र	-3763
ैया	-3764
▁सॉ	-3765
▁इलाज	-3766
▁पैसे	-3767
बाल	-3768
▁शता	-3769
्याग	-3770
ोसिए	-3771
▁जोखिम	-3772
▁हाथों	-3773
▁विधेयक	-3774
▁निवार	-3775
▁दह	-3776
▁लेनदेन	-3777
▁टुक	-3778
िद	-3779
र्ते	-3780
ाउ	-3781
यू	-3782
मंडल	-3783
▁खुलती	-3784
▁केरल	-3785
▁ऑन	-3786
▁समानता	-3787
▁तट	-3788
▁गलती	-3789
▁अनुप्रयोग	-3790
▁बयानों	-3791
▁भागीदारी	-3792
▁फ्ल	-3793
ol	-3794
▁रिश्त	-3795
▁जाएंगे	-3796
▁संक्षिप्त	-3797
क्षिक	-3798
लाइन	-3799
▁संपत्तियों	-3800
▁जीवित	-3801
▁हस्तांतरण	-3802
▁वाक	-3803
▁ड्राइ	-3804
▁पहुंचने	-3805
▁आठ	-3806
ापि	-3807
▁गुजर	-3808
पु	-3809
▁बला	-3810
▁मकान	-3811
▁विंडों	-3812
▁b	-3813
▁अभिप	-3814
▁अट	-3815
ृष्ट	-3816
▁अंतरराष्ट्रीय	-3817
▁बश	-3818
▁अली	-3819
▁नाते	-3820
▁महत्त्व	-3821
▁वेतनमान	-3822
UD	-3823
ेश्वर	-3824
▁अनुलग्न	-3825
▁नष्ट	-3826
ya	-3827
क्सर	-3828
▁कृप	-3829
▁सिस्ट	-3830
▁शैक्षणिक	-3831
▁आंध्र	-3832
ंशिक	-3833
मानी	-3834
▁यादव	-3835
▁उपबंधों	-3836
▁आवंटित	-3837
▁सफ	-3838
▁बधाई	-3839
oc	-3840
▁हैः	-3841
▁आवास	-3842
▁निरा	-3843
▁जय	-3844
ंपरा	-3845
▁साक्षी	-3846
▁सेवाएं	-3847
▁परिश	-3848
न्हीं	-3849
▁सीपीसी	-3850
▁विधायिका	-3851
▁बढ़ावा	-3852
▁आंतरिक	-3853
▁आमंत्रित	-3854
et	-3855
वें	-3856
ाट	-3857
▁प्राथमिकी	-3858
▁सेवानिवृत्ति	-3859
▁गाय	-3860
▁सदन	-3861
▁हानि	-3862
नाम	-3863
▁शेय	-3864
▁अधी	-3865
▁द्वितीय	-3866
▁कमज	-3867
वो	-3868
▁संबोधित	-3869
्यक	-3870
व्यवस्था	-3871
▁अनुकूल	-3872
▁मिस	-3873
▁सुश्री	-3874
▁वज	-3875
▁इन्ह	-3876
▁ठेके	-3877
▁फिल्म	-3878
खे	-3879
▁सम्मेलन	-3880
लांग	-3881
ज्ञात	-3882
▁लेता	-3883
ानु	-3884
▁जटिल	-3885
▁लेखक	-3886
ौल	-3887
▁गुना	-3888
▁विरोधा	-3889
गो	-3890
म्बे	-3891
▁डाक	-3892
▁परंपरा	-3893
▁पश्चिमी	-3894
▁निलंब	-3895
▁समन्व	-3896
▁एसोसिए	-3897
▁निर्भरता	-3898
भास	-3899
▁पर्व	-3900
▁बैंकों	-3901
▁रिया	-3902
▁अवधारणा	-3903
▁चिंता	-3904
▁आयकर	-3905
▁प्री	-3906
▁अंततः	-3907
▁दर्शन	-3908
▁पाक	-3909
त्न	-3910
▁राव	-3911
ंत्रिक	-3912
▁परिक	-3913
▁तथापि	-3914
▁बशर्ते	-3915
ष्प	-3916
जाति	-3917
▁बनने	-3918
▁आख	-3919
▁जाया	-3920
▁सुनाई	-3921
▁प्रत्या	-3922
▁कलक	-3923
▁संतुल	-3924
▁अनुलग्नक	-3925
▁क्रमशः	-3926
ांग	-3927
▁स्थगित	-3928
स्ते	-3929
रखाव	-3930
इड	-3931
▁शे	-3932
▁अर्थव्यवस्था	-3933
▁घाव	-3934
विधि	-3935
तल	-3936
्वेषण	-3937
▁रखरखाव	-3938
▁ऑप	-3939
▁कब	-3940
▁करार	-3941
▁डिप	-3942
▁जोड़ा	-3943
▁टिप्पणियों	-3944
▁उपा	-3945
▁देखें	-3946
ाचार	-3947
▁क्रूर	-3948
▁अक्ष	-3949
▁विनिर्दिष्ट	-3950
▁नये	-3951
श्चात	-3952
ट्र	-3953
▁समृ	-3954
▁ग्रहण	-3955
▁लक्ष्म	-3956
▁आश्व	-3957
▁चुकी	-3958
▁संभावित	-3959
▁आसपास	-3960
रन	-3961
▁किश	-3962
▁कोय	-3963
धित	-3964
▁मिलती	-3965
▁दृढ़	-3966
▁डिग्री	-3967
णु	-3968
बूझ	-3969
▁अन्	-3970
▁बाधा	-3971
▁हिन्दू	-3972
िकरण	-3973
ख्त	-3974
व्र	-3975
▁दैनिक	-3976
▁आरक्षण	-3977
▁उत्स	-3978
काम	-3979
कस	-3980
िकाओं	-3981
▁कपड़े	-3982
▁कृपया	-3983
▁जिनका	-3984
▁गहरा	-3985
▁असाधारण	-3986
▁राजन	-3987
▁शराब	-3988
बत	-3989
▁पक्षकारों	-3990
▁जानता	-3991
▁शिक्षकों	-3992
▁सुंदर	-3993
▁पहा	-3994
▁हृदय	-3995
कला	-3996
▁गुप्ता	-3997
मीटर	-3998
ोदित	-3999
▁समाव	-4000
▁धम	-4001
▁गैस	-4002
▁गुरु	-4003
िपि	-4004
चित्र	-4005
▁आंशिक	-4006
▁एशिया	-4007
स्त्र	-4008
▁चश्म	-4009
▁तस्व	-4010
▁पूर्ववर्ती	-4011
▁अयोग	-4012
▁बताता	-4013
माग	-4014
▁युक्त	-4015
▁इलेक्ट्र	-4016
▁एपी	-4017
दिग्ध	-4018
▁ग्रेड	-4019
el	-4020
▁लापर	-4021
▁सुविधाओं	-4022
▁हिम	-4023
ॉन	-4024
▁Ch	-4025
्वा	-4026
▁भाषण	-4027
▁जल्द	-4028
ामा	-4029
▁विफलता	-4030
ज्ज	-4031
▁खींच	-4032
▁इच्छुक	-4033
्रय	-4034
म्मद	-4035
▁प्रयुक्त	-4036
▁शुभ	-4037
▁अपमान	-4038
▁आकस	-4039
कत	-4040
▁करीब	-4041
▁प्रयासों	-4042
▁तथ्यात्मक	-4043
बाज	-4044
▁गोली	-4045
▁वाता	-4046
▁संदिग्ध	-4047
▁संस्थाओं	-4048
शीट	-4049
▁न्यायमूर्ति	-4050
ुस्ता	-4051
▁नैतिक	-4052
▁रजिस्टर	-4053
थित	-4054
▁आकस्मिक	-4055
▁सिस्टम	-4056
ेबल	-4057
ानों	-4058
▁अधिसूचित	-4059
▁वजह	-4060
▁मिलकर	-4061
ियान	-4062
▁स्वीकृत	-4063
ब्दी	-4064
▁जानबूझ	-4065
▁विद्यमान	-4066
▁साक्ष्यों	-4067
भाविक	-4068
▁एक्सट	-4069
▁कक्षा	-4070
रता	-4071
▁नाटक	-4072
▁पूछा	-4073
▁खंडपीठ	-4074
▁विद्यालय	-4075
▁समर्प	-4076
शय	-4077
▁आवंटन	-4078
▁सूक्ष्म	-4079
▁अपनाया	-4080
▁यूपी	-4081
प्पा	-4082
▁बढ़ाया	-4083
्नों	-4084
▁अक्सर	-4085
▁चोटें	-4086
▁आरक्षित	-4087
▁सेवानिवृत्त	-4088
▁कॉर्प	-4089
▁निर्मा	-4090
▁बलात्कार	-4091
▁बहा	-4092
▁बनाता	-4093
बीआई	-4094
▁शैक्षिक	-4095
्रोल	-4096
सील	-4097
▁उत्क	-4098
ड़न	-4099
▁विषयों	-4100
▁असर	-4101
▁विशेषता	-4102
▁पैमाने	-4103
▁अनुमोदित	-4104
▁टन	-4105
▁आपका	-4106
▁ज्ञात	-4107
▁Ext	-4108
▁उपयोगी	-4109
▁फीस	-4110
ॉय	-4111
▁साफ	-4112
▁नागरिकों	-4113
करी	-4114
ill	-4115
▁बदले	-4116
▁सां	-4117
▁आँ	-4118
▁वीडियो	-4119
▁इत्या	-4120
▁बढ़ने	-4121
▁वीं	-4122
▁हिंदी	-4123
▁गर्इ	-4124
▁समुद्र	-4125
▁दिमाग	-4126
१४	-4127
▁मस	-4128
▁ईसा	-4129
▁दवा	-4130
▁समस्याओं	-4131
▁m	-4132
मार्ग	-4133
▁नामक	-4134
▁गौर	-4135
▁विमान	-4136
ENT	-4137
▁मनो	-4138
▁भागों	-4139
दीद	-4140
▁वातावरण	-4141
▁मुआवज़ा	-4142
▁n	-4143
▁रेखा	-4144
ॉर्ट	-4145
▁अस्पष्ट	-4146
▁पैर	-4147
▁कश्मीर	-4148
▁तल	-4149
र्डर	-4150
▁कलकत्ता	-4151
age	-4152
ॉल्ट	-4153
▁रुपए	-4154
▁अंतर्राष्ट्रीय	-4155
▁धारण	-4156
▁विकलांग	-4157
ताव	-4158
▁अनुवाद	-4159
▁दीवार	-4160
▁शैली	-4161
▁हितों	-4162
om	-4163
रान	-4164
▁ड्यू	-4165
▁अवमानना	-4166
▁एप	-4167
▁इजर	-4168
▁जहा	-4169
▁चश्मदीद	-4170
▁दबा	-4171
▁नारायण	-4172
्रित	-4173
▁खातों	-4174
▁जिनकी	-4175
▁बौद्ध	-4176
▁अरब	-4177
▁इंजीनियर	-4178
GM	-4179
दिक	-4180
▁हलफनामा	-4181
वेट	-4182
र्गी	-4183
▁समाय	-4184
▁सुख	-4185
▁रस	-4186
▁धारक	-4187
▁जानबूझकर	-4188
▁आंख	-4189
▁वरिष्ठता	-4190
्वे	-4191
▁शिक्षण	-4192
▁प्रोत्साहन	-4193
िने	-4194
▁त्याग	-4195
ैट	-4196
▁नामित	-4197
कालीन	-4198
▁अभिन	-4199
िसी	-4200
▁मिट्टी	-4201
▁कंट	-4202
▁कारक	-4203
▁प्रतिबद्ध	-4204
▁शताब्दी	-4205
▁फॉर्म	-4206
▁सारा	-4207
▁भ्रष्ट	-4208
▁वेद	-4209
▁गंगा	-4210
र्धन	-4211
्रीन	-4212
▁दबाव	-4213
्राज	-4214
निष्ठ	-4215
▁वापसी	-4216
us	-4217
▁बाग	-4218
▁देखना	-4219
▁दूसरों	-4220
▁तमिलना	-4221
▁परिवर्तित	-4222
▁प्रस्तुति	-4223
▁यौ	-4224
▁कानूनों	-4225
▁विधायी	-4226
तक	-4227
▁विवादों	-4228
▁आर्	-4229
श्विक	-4230
▁स्टैंड	-4231
▁सांस्कृत	-4232
▁प्ले	-4233
▁वारंट	-4234
खन	-4235
ोबार	-4236
▁सांस्कृतिक	-4237
धारी	-4238
▁लौट	-4239
▁बदलने	-4240
▁महाम	-4241
कृ	-4242
▁रहेगा	-4243
▁पट्टे	-4244
▁दहेज	-4245
▁बुद्धि	-4246
सीसी	-4247
▁अर्जित	-4248
ताब	-4249
▁पत्रों	-4250
▁शेयरों	-4251
▁द्र	-4252
ेक्टर	-4253
▁कुशल	-4254
▁कमजोर	-4255
▁स्कूलों	-4256
▁प्रसिद्ध	-4257
▁प्ला	-4258
▁प्रबंधक	-4259
त्व	-4260
▁लाइन	-4261
▁बताते	-4262
वाले	-4263
▁बताने	-4264
han	-4265
▁आलोक	-4266
▁चार्जशीट	-4267
▁प्रवर्तन	-4268
▁अनुसरण	-4269
▁पूजा	-4270
▁JUD	-4271
्वान	-4272
्यापी	-4273
▁रोगी	-4274
▁प्रभारी	-4275
▁ट्रांस	-4276
▁उपन्यास	-4277
▁चिकित्स	-4278
ोरेट	-4279
▁सें	-4280
▁किलो	-4281
▁भेजे	-4282
सीन	-4283
▁अवस	-4284
▁जल्दी	-4285
▁विरोधी	-4286
▁संबंधों	-4287
▁फूल	-4288
▁मंड	-4289
▁क्लॉज	-4290
▁कथा	-4291
umar	-4292
▁वर्गों	-4293
▁’	-4294
▁फसल	-4295
ियमित	-4296
▁प्रदू	-4297
▁स्थानांतरण	-4298
▁नियत	-4299
▁निरोध	-4300
▁तत्पश्चात	-4301
▁तहसील	-4302
कुल	-4303
▁यूनिट	-4304
hi	-4305
च्छिक	-4306
ai	-4307
ाइड	-4308
▁अंध	-4309
▁खराब	-4310
श्वास	-4311
▁ब्लॉक	-4312
▁इजरायल	-4313
▁क्रेड	-4314
▁लापरवाही	-4315
▁संगठ	-4316
ख़	-4317
▁भु	-4318
▁इत्यादि	-4319
▁भेदभाव	-4320
▁जिम्मेदारी	-4321
▁डर	-4322
्यव	-4323
▁विस	-4324
▁रुचि	-4325
▁पत्थ	-4326
▁कार्यवाह	-4327
▁द्वार	-4328
▁अधीनस्थ	-4329
▁सलाहकार	-4330
▁पथ	-4331
▁विवे	-4332
▁अन्तर्	-4333
▁मिनट	-4334
▁परेशान	-4335
▁श्रमिक	-4336
▁अनियमित	-4337
गु	-4338
राबाद	-4339
▁अतिक	-4340
▁g	-4341
▁इतने	-4342
▁आउट	-4343
▁टीम	-4344
▁HC	-4345
▁प्रधानमंत्री	-4346
▁तमिलनाडु	-4347
▁रजिस्ट्री	-4348
GMENT	-4349
▁आपने	-4350
▁JUDGMENT	-4351
▁एडवो	-4352
▁फी	-4353
ल्ला	-4354
िस्त	-4355
▁मजबूर	-4356
▁लक्षण	-4357
▁अमेरिक	-4358
ec	-4359
▁नवी	-4360
▁गुणों	-4361
ूस	-4362
ंतिम	-4363
▁इमार	-4364
▁लगाना	-4365
▁जोड़ने	-4366
▁एडवोकेट	-4367
िन्	-4368
▁सबम	-4369
▁सेल	-4370
ढ़ी	-4371
▁तिर	-4372
▁छत्त	-4373
▁ग्राहक	-4374
प्रिय	-4375
स्तिष्क	-4376
▁स्वाभाविक	-4377
▁ठेकेदार	-4378
नामा	-4379
▁पहुँच	-4380
▁पेटेंट	-4381
▁कार्यान्वयन	-4382
ेह	-4383
्टम	-4384
▁आईटी	-4385
▁बाकी	-4386
▁अनंतिम	-4387
▁राज्यपाल	-4388
▁ग्रे	-4389
▁दिये	-4390
▁देयता	-4391
▁जैव	-4392
▁इंस्प	-4393
▁ब्रह्म	-4394
▁गर्म	-4395
▁सेवक	-4396
लाल	-4397
मान्य	-4398
▁काव्य	-4399
▁क्रेडिट	-4400
▁चक्र	-4401
▁खुले	-4402
▁किराया	-4403
▁स्की	-4404
▁अर्ध	-4405
▁Rs	-4406
▁पावर	-4407
▁प्या	-4408
▁शहरी	-4409
त्तम	-4410
▁अवकाश	-4411
▁कार्यकाल	-4412
पान	-4413
▁Kumar	-4414
▁प्रचलित	-4415
▁विम	-4416
संख	-4417
▁गतिविधि	-4418
▁नवान	-4419
▁लोकतंत्र	-4420
▁एक्	-4421
▁अब्द	-4422
▁इन्हें	-4423
▁बीमारी	-4424
▁काउंसिल	-4425
▁आसानी	-4426
▁परिपत्र	-4427
▁रै	-4428
▁सिल	-4429
पोर्ट	-4430
▁पूर्वी	-4431
ूद	-4432
ज़र	-4433
जाम	-4434
्चर	-4435
ियत	-4436
▁सारी	-4437
▁समझने	-4438
▁सत्यापन	-4439
▁प्रतिस्प	-4440
यत	-4441
▁मांगी	-4442
शास्त्र	-4443
▁ठोस	-4444
▁प्राण	-4445
▁वस	-4446
▁मधु	-4447
▁कने	-4448
▁खड़े	-4449
▁आह्वान	-4450
ाब	-4451
चित्य	-4452
▁डिफ़	-4453
▁नीलामी	-4454
▁गणराज्य	-4455
रु	-4456
▁आवाज	-4457
ेंज	-4458
▁अपर	-4459
▁फार्म	-4460
▁सशक्त	-4461
▁प्रश्नों	-4462
सीद	-4463
वित्र	-4464
ूंगा	-4465
भावना	-4466
▁अचान	-4467
पक	-4468
र्देश	-4469
दर्शन	-4470
▁बीज	-4471
▁फंसा	-4472
▁अचानक	-4473
दोष	-4474
▁ठाक	-4475
हारिक	-4476
▁प्राइवेट	-4477
▁पाकिस्तान	-4478
र्घ	-4479
▁Cr	-4480
ेंडर	-4481
▁हवा	-4482
▁रास्ते	-4483
▁खुशी	-4484
▁अभियोजक	-4485
स्टेबल	-4486
▁बेचने	-4487
▁सहारा	-4488
▁वर्मा	-4489
▁डिफ़ॉल्ट	-4490
ूब	-4491
▁स्वै	-4492
▁सूचीबद्ध	-4493
▁गईं	-4494
▁मुसलमानों	-4495
▁साज	-4496
▁आश्च	-4497
▁ड्र	-4498
▁पृथ्वी	-4499
▁दृष्टया	-4500
▁प्रत	-4501
▁जाएं	-4502
िनल	-4503
डेंसी	-4504
कल	-4505
▁संतुष्टि	-4506
RA	-4507
्लो	-4508
▁चारों	-4509
▁स्नात	-4510
▁साम्राज	-4511
▁आतंकवाद	-4512
▁संसाधनों	-4513
▁सरकारों	-4514
▁e	-4515
▁ऑर्डर	-4516
II	-4517
▁काट	-4518
▁लंबी	-4519
▁ड्यूटी	-4520
▁अधिकारिता	-4521
▁तीव्र	-4522
▁भय	-4523
▁खेती	-4524
▁सुभाष	-4525
▁प्रवाह	-4526
▁आश्चर्य	-4527
आईटी	-4528
▁छत्तीस	-4529
▁अजी	-4530
▁इनके	-4531
▁दोहराया	-4532
रस	-4533
▁मेमो	-4534
▁लें	-4535
▁अक्षम	-4536
▁सर्वा	-4537
गण	-4538
▁शिकार	-4539
▁कठिनाई	-4540
▁पॉल	-4541
▁अफ्री	-4542
▁भेजने	-4543
▁जाह	-4544
हत्या	-4545
▁गुप्त	-4546
▁तत्कालीन	-4547
मय	-4548
▁आयोजन	-4549
ार्ट	-4550
▁आये	-4551
▁दावों	-4552
▁तात्काल	-4553
▁प्रोग्राम	-4554
▁बचने	-4555
▁झग	-4556
▁आक्रमण	-4557
▁मस्तिष्क	-4558
▁सम्मानित	-4559
▁क्व	-4560
▁पात्रता	-4561
▁प्रेष	-4562
▁निकालने	-4563
esid	-4564
▁खत्म	-4565
▁असंगत	-4566
▁आरोपित	-4567
▁प्रायः	-4568
िली	-4569
▁तात्कालिक	-4570
▁मानने	-4571
▁फें	-4572
▁कौशल	-4573
▁चीज़	-4574
▁मैदान	-4575
▁क्रूरता	-4576
▁विचारण	-4577
▁ज्यो	-4578
▁कुंजी	-4579
▁बीमार	-4580
▁सुनने	-4581
▁हिंसा	-4582
क्षेत्र	-4583
▁विभाजित	-4584
▁अमरी	-4585
▁इंस्पेक्टर	-4586
▁शर्तें	-4587
▁बू	-4588
सिंह	-4589
ड़ीसा	-4590
▁शत्रुता	-4591
▁उत्पी	-4592
▁प्रोट	-4593
मिक	-4594
▁पल	-4595
▁निरीक्षक	-4596
▁अतिक्रमण	-4597
थी	-4598
▁शो	-4599
▁शंकर	-4600
द्रास	-4601
नो	-4602
▁उठता	-4603
▁फोट	-4604
▁लेखों	-4605
मार्टम	-4606
▁औचित्य	-4607
▁अंतरण	-4608
▁एसोसिएशन	-4609
ादन	-4610
▁मजदूरी	-4611
क्क	-4612
नाएं	-4613
त्मिक	-4614
▁पूर्वाग्रह	-4615
जीवन	-4616
▁सतर्क	-4617
ंडा	-4618
बिट	-4619
▁वर	-4620
▁दर्श	-4621
▁पोस्टमार्टम	-4622
▁छत्तीसगढ़	-4623
जल	-4624
▁मीडिया	-4625
▁तुम्हें	-4626
लर	-4627
स्थल	-4628
▁पुनरी	-4629
▁वर्गीकरण	-4630
▁प्रतिस्पर्	-4631
तिहासिक	-4632
▁आत्महत्या	-4633
ेंद	-4634
▁शिश	-4635
▁दिला	-4636
ूली	-4637
जतन	-4638
▁अशोक	-4639
▁नतीजतन	-4640
्रदाय	-4641
▁विरोधाभास	-4642
▁सकारात्मक	-4643
▁होम	-4644
esident	-4645
▁चेतना	-4646
▁आध्या	-4647
▁देंगे	-4648
▁संगठनों	-4649
▁दिशानि	-4650
लेट	-4651
क्षी	-4652
ANo	-4653
र्नी	-4654
▁टिप्पणी	-4655
▁उत्कृष्ट	-4656
▁नवीन	-4657
▁दूध	-4658
▁स्वच्छ	-4659
▁दिशानिर्देश	-4660
▁हैद	-4661
▁आसान	-4662
▁भरने	-4663
▁चेन्न	-4664
ंभव	-4665
▁उड़ीसा	-4666
फर	-4667
नाश	-4668
▁अहमद	-4669
▁तोड़	-4670
▁उद्योगों	-4671
▁बताओ	-4672
त्ते	-4673
▁इन्	-4674
स्पर	-4675
▁नेहर	-4676
▁शुभकाम	-4677
▁सामग्र	-4678
▁किसानों	-4679
▁परियोजनाओं	-4680
ानिक	-4681
▁देर	-4682
दाताओं	-4683
▁शासित	-4684
▁स्मृति	-4685
▁मौसम	-4686
ड़ियों	-4687
▁कार्यक्रमों	-4688
▁ट्रै	-4689
्रण	-4690
▁फिट	-4691
▁सबमिशन	-4692
▁प्रसन्नता	-4693
▁लगाई	-4694
▁Pra	-4695
▁जाल	-4696
▁सुलझ	-4697
▁चेहरे	-4698
▁पवित्र	-4699
▁सख्त	-4700
▁पश्चात	-4701
ंपा	-4702
माना	-4703
▁शास्त	-4704
▁मिशन	-4705
▁खोलने	-4706
▁प्रदत्त	-4707
▁प्रविष्ट	-4708
▁NIC	-4709
▁स्वागत	-4710
▁फे	-4711
▁रण	-4712
िकेशन	-4713
▁व्यावहारिक	-4714
▁गोल	-4715
▁लड़की	-4716
▁छो	-4717
दर्शी	-4718
▁नकारात्मक	-4719
▁सुसंगत	-4720
▁सीट	-4721
ड़ाई	-4722
▁नमूना	-4723
▁रिटर्न	-4724
▁शक्तियां	-4725
▁अनि	-4726
▁सैनिक	-4727
▁उपायों	-4728
▁निवारण	-4729
▁धमकी	-4730
▁कारबार	-4731
▁निपटाया	-4732
▁बुरा	-4733
▁इंग्ल	-4734
▁समस्त	-4735
गाह	-4736
▁देखे	-4737
▁परिस्थित	-4738
▁बनता	-4739
धरी	-4740
▁परस्पर	-4741
▁अधीक्षक	-4742
▁हैदराबाद	-4743
ज्	-4744
रप	-4745
▁प्रतियोग	-4746
▁रसीद	-4747
▁करवा	-4748
कश	-4749
▁लाभों	-4750
▁सूर्य	-4751
▁राजस्थान	-4752
▁तलाश	-4753
▁आलो	-4754
▁कायम	-4755
फ्टवेयर	-4756
▁चैन	-4757
▁उन्नत	-4758
▁अभियंता	-4759
▁पक्षकार	-4760
ंदन	-4761
▁चाकू	-4762
▁ज्योति	-4763
▁प्रतिद्व	-4764
्द	-4765
▁भूल	-4766
पेक्ष	-4767
▁उत्तराधिकार	-4768
▁बेह	-4769
▁पर्यवे	-4770
▁आध्यात्मिक	-4771
▁सामग्रियों	-4772
▁SCA	-4773
▁महत्त्वपूर्ण	-4774
▁दीर्घ	-4775
▁प्रतीक	-4776
▁राजनैतिक	-4777
▁आल	-4778
▁विनियमों	-4779
ंदी	-4780
तीत	-4781
▁उत्पादित	-4782
श्त	-4783
▁रिहा	-4784
ंकिंग	-4785
hat	-4786
▁ऐतिहासिक	-4787
▁औष	-4788
ूद्ध	-4789
▁भागी	-4790
▁विशेषकर	-4791
▁प्रच	-4792
▁संगण	-4793
▁विधिक	-4794
▁अपीलों	-4795
▁संविदा	-4796
▁कारोबार	-4797
IN	-4798
▁अगली	-4799
▁गर्भ	-4800
वाली	-4801
▁अनुभाग	-4802
▁iii	-4803
▁खतरा	-4804
▁यूरोप	-4805
▁भरा	-4806
illage	-4807
किल	-4808
▁रम	-4809
▁जायेगा	-4810
▁होटल	-4811
▁लिखने	-4812
▁माइ	-4813
शीलता	-4814
ादित	-4815
▁हवाई	-4816
▁सब्	-4817
▁जनसं	-4818
▁संतुलन	-4819
▁आवेदकों	-4820
▁अनुकंपा	-4821
▁समितियों	-4822
▁नाथ	-4823
▁विद्यार्थियों	-4824
▁जुड़ा	-4825
▁छाप	-4826
▁कॉपी	-4827
▁बाबू	-4828
▁सेंट	-4829
▁रिश्तेदार	-4830
▁असह	-4831
▁दाह	-4832
ारों	-4833
▁किशोर	-4834
▁बचाने	-4835
▁छिप	-4836
▁लेखन	-4837
▁समन्वय	-4838
▁दिनांकित	-4839
▁अवश	-4840
▁लक	-4841
▁शुभकामनाएं	-4842
्मा	-4843
▁गरीब	-4844
▁in	-4845
▁दरवाजा	-4846
▁विमर्श	-4847
भोग	-4848
▁प्रोत्साहित	-4849
▁स्त्री	-4850
▁अभियान	-4851
▁प्राधिकार	-4852
▁मोहन	-4853
▁अमेरिकी	-4854
▁रिक्तियों	-4855
परी	-4856
▁फाय	-4857
▁वां	-4858
▁हार	-4859
▁आइ	-4860
▁पेशे	-4861
▁चौधरी	-4862
▁प्रथा	-4863
पुट	-4864
▁उभर	-4865
▁तस्वीर	-4866
▁निरस्त	-4867
पीट	-4868
हिम	-4869
▁पिछली	-4870
▁कांस्टेबल	-4871
▁फोर	-4872
द्दीन	-4873
▁गोद	-4874
▁गव	-4875
▁अयोग्य	-4876
▁प्रोफे	-4877
▁चीन	-4878
▁डील	-4879
भाग्य	-4880
▁उनको	-4881
क्का	-4882
▁दया	-4883
▁संयंत्र	-4884
▁लोकप्रिय	-4885
▁उत्पीड़न	-4886
१५	-4887
वीर	-4888
ल्ली	-4889
▁कक्ष	-4890
▁अवश्य	-4891
▁प्रशंसा	-4892
खास्त	-4893
▁तीनों	-4894
▁तीसरी	-4895
▁प्रारूप	-4896
▁आवासी	-4897
▁विश्वविद्यालयों	-4898
▁उदार	-4899
▁सूत्र	-4900
▁प्रतिद्वंद	-4901
▁चलने	-4902
▁लाइ	-4903
▁लीज	-4904
दास	-4905
▁एक्ज़	-4906
▁राजी	-4907
▁नेहरू	-4908
▁बाध्यकारी	-4909
▁निगर	-4910
▁ऑफिस	-4911
▁मरने	-4912
ग्रहित	-4913
▁श्रेणीः	-4914
कट	-4915
▁प्रतिबंधित	-4916
▁निचली	-4917
le	-4918
साइटी	-4919
▁खतरे	-4920
▁सौंपा	-4921
▁निगरानी	-4922
▁घात	-4923
▁पहुँ	-4924
स्टर	-4925
▁प्रेस	-4926
▁मेसर्स	-4927
▁रीति	-4928
▁सोसाइटी	-4929
▁चढ़	-4930
▁विधानमंडल	-4931
AM	-4932
ोरेशन	-4933
▁लिखी	-4934
▁संकट	-4935
घात	-4936
▁बाबत	-4937
▁हड्ड	-4938
िबिट	-4939
ुस्तान	-4940
वां	-4941
▁वंश	-4942
▁रिस	-4943
▁पेड़	-4944
▁नौकरी	-4945
▁वैश्विक	-4946
▁हवाला	-4947
▁योजनाओं	-4948
जु	-4949
▁आफ	-4950
ावली	-4951
▁मोहम्मद	-4952
▁मगर	-4953
▁विलंब	-4954
▁पशु	-4955
▁बातें	-4956
णिक	-4957
▁सीधी	-4958
▁नामांकन	-4959
पों	-4960
फोन	-4961
▁रवी	-4962
ation	-4963
▁एजेंट	-4964
ास्थिति	-4965
▁सीमाओं	-4966
नाक	-4967
▁मछ	-4968
च्छा	-4969
▁वैसे	-4970
▁मारपीट	-4971
▁पेंडेंसी	-4972
▁लिखे	-4973
▁चलाया	-4974
▁ठाकुर	-4975
▁आनन्द	-4976
▁एकता	-4977
▁भूखंड	-4978
▁छोड़ने	-4979
▁कृत्य	-4980
▁साक्षात्	-4981
ादा	-4982
▁टेक	-4983
कुमार	-4984
▁वहीं	-4985
णन	-4986
▁वजन	-4987
▁डिस्क	-4988
▁पुनरीक्षण	-4989
▁बुक	-4990
▁मांस	-4991
▁पोर्ट	-4992
▁राजेश	-4993
▁निभा	-4994
▁संसदीय	-4995
▁DW	-4996
▁स्वैच्छिक	-4997
ैव	-4998
ोने	-4999
▁दशक	-5000
▁मान्य	-5001
ाले	-5002
▁पेपर	-5003
▁वक्त	-5004
▁बर्खास्त	-5005
ंदाज	-5006
▁चलते	-5007
▁जाहिर	-5008
▁मानना	-5009
शे	-5010
▁चालक	-5011
▁जाकर	-5012
▁बहुमत	-5013
▁शह	-5014
ीकृत	-5015
▁हरि	-5016
▁साजिश	-5017
▁Bi	-5018
▁देखकर	-5019
▁वीर	-5020
कालिक	-5021
▁किनारे	-5022
न्ड	-5023
▁तीसरा	-5024
▁छत	-5025
▁यो	-5026
▁सन	-5027
▁भ्रम	-5028
▁सोने	-5029
ोत	-5030
िरा	-5031
▁सिरे	-5032
▁क्षतिपूर्ति	-5033
▁अनदे	-5034
ूहिक	-5035
▁पत्थर	-5036
▁अनुशासन	-5037
▁सृजन	-5038
▁द्वीप	-5039
न्धी	-5040
▁बताई	-5041
▁थोड़ा	-5042
▁कृत्यों	-5043
▁उड़	-5044
▁कदा	-5045
▁शोध	-5046
जीत	-5047
▁हालत	-5048
▁अभिप्रे	-5049
▁सामूहिक	-5050
▁कूट	-5051
▁जर्म	-5052
▁राजमार्ग	-5053
हता	-5054
▁नो	-5055
IL	-5056
▁स्कीम	-5057
▁अल्पसंख	-5058
पहर	-5059
▁हल्	-5060
▁रखें	-5061
▁बॉम्बे	-5062
▁समुचित	-5063
ैक्ट	-5064
कृष्ण	-5065
▁संसार	-5066
▁महामहिम	-5067
▁सप	-5068
▁दौरा	-5069
कानूनी	-5070
▁प्रेरण	-5071
चस्प	-5072
▁चयनित	-5073
▁विहित	-5074
ul	-5075
▁सेक	-5076
▁अन्याय	-5077
र्गीय	-5078
▁मुह	-5079
▁जितना	-5080
▁कारकों	-5081
वाहिक	-5082
▁राजपत्र	-5083
▁पटेल	-5084
▁मद्रास	-5085
र्जन	-5086
▁दर्द	-5087
▁गैरकानूनी	-5088
▁लु	-5089
▁नाट	-5090
▁खाना	-5091
▁मानता	-5092
▁विक्रेता	-5093
▁मात	-5094
ॉँ	-5095
▁सोसाय	-5096
▁निर्दोष	-5097
णों	-5098
▁खुश	-5099
▁घटा	-5100
▁जला	-5101
▁रास्ता	-5102
ंकर	-5103
▁साम्राज्य	-5104
▁न्यायपालिका	-5105
पत	-5106
▁आवासीय	-5107
ादेश	-5108
▁चीजों	-5109
▁विरूद्ध	-5110
▁घटक	-5111
▁कच्च	-5112
▁टेस्ट	-5113
▁पीड़िता	-5114
▁ज़र	-5115
▁एकड़	-5116
▁सीबीआई	-5117
▁जानने	-5118
▁ऑनलाइन	-5119
▁भंग	-5120
▁मानवीय	-5121
▁कराई	-5122
▁दिलचस्प	-5123
▁मूल्यों	-5124
रोज	-5125
▁घा	-5126
्राउ	-5127
▁अत	-5128
▁III	-5129
▁डब्ल्यू	-5130
▁इंद	-5131
▁झूठे	-5132
गोल	-5133
▁अत्या	-5134
▁पेशकश	-5135
▁विधियों	-5136
▁प्रतिष्ठा	-5137
▁ध्वनि	-5138
ुरा	-5139
▁खण्ड	-5140
केश	-5141
वारी	-5142
कसद	-5143
▁बेल	-5144
▁इकट्	-5145
▁ढांचे	-5146
▁दोपहर	-5147
▁इमारत	-5148
बालिग	-5149
▁मकसद	-5150
▁मिश्रा	-5151
ho	-5152
▁पैके	-5153
▁ट्रे	-5154
▁गवर्न	-5155
▁नाबालिग	-5156
ार्ज	-5157
▁चुने	-5158
खों	-5159
▁सेमी	-5160
▁पार्क	-5161
▁अवैधता	-5162
▁ओवर	-5163
▁बहस	-5164
▁उन्म	-5165
▁खरीदने	-5166
▁शत्रुतापूर्ण	-5167
▁प्रयोगशाला	-5168
▁एक्ज़िबिट	-5169
वत	-5170
▁अय	-5171
▁प्रयत्न	-5172
▁इंस्ट	-5173
▁नमूने	-5174
▁सोसायटी	-5175
▁आपत्तियों	-5176
ध्या	-5177
▁रवि	-5178
▁दुर्बल	-5179
तावनी	-5180
▁उत्तरी	-5181
ेजी	-5182
▁मुकदमेबाजी	-5183
ांकित	-5184
▁दलों	-5185
▁पूर्ति	-5186
▁पौध	-5187
▁दलीलों	-5188
▁चेतावनी	-5189
▁पाँच	-5190
▁किस्म	-5191
▁विकृत	-5192
▁अस्वीकृति	-5193
▁ताप	-5194
▁पुरानी	-5195
▁विभागों	-5196
▁प्रवृत्ति	-5197
स्स	-5198
▁स्वर	-5199
▁मार्क	-5200
▁साक्षात्कार	-5201
▁आधारों	-5202
▁रव	-5203
▁अचल	-5204
▁आकाश	-5205
▁उज	-5206
▁पंड	-5207
▁राजनीति	-5208
▁कव	-5209
▁साध	-5210
▁श्रेष्ठ	-5211
▁स्थितियों	-5212
▁पांडे	-5213
▁अफ्रीका	-5214
▁प्रोफेसर	-5215
सायनिक	-5216
स्थापन	-5217
▁सत्यापित	-5218
▁प्राधिकृत	-5219
ोचित	-5220
▁मुद्र	-5221
▁मेन	-5222
▁मोड	-5223
दिन	-5224
▁हट	-5225
बन्ध	-5226
▁देखी	-5227
▁मॉडल	-5228
▁प्रतिद्वंद्वी	-5229
▁जंग	-5230
▁इश	-5231
▁चेन्नई	-5232
▁आवेदनों	-5233
▁यंत्र	-5234
▁आरम्भ	-5235
▁समापन	-5236
रू	-5237
साद	-5238
▁डायरी	-5239
▁नगरपालिका	-5240
लाब	-5241
▁पक्षपात	-5242
▁कार्यरत	-5243
▁इकाइयों	-5244
क़्त	-5245
म्मत	-5246
▁जता	-5247
्यूल	-5248
▁तकनीक	-5249
▁मानकों	-5250
▁निः	-5251
निहित	-5252
▁मासिक	-5253
ir	-5254
▁करो	-5255
▁मानदंडों	-5256
▁व्याया	-5257
▁जगत	-5258
▁घातक	-5259
डीए	-5260
▁कं	-5261
▁खाने	-5262
▁निर्णायक	-5263
▁फैसलों	-5264
▁सर्वाधिक	-5265
▁आश्वासन	-5266
▁उपयोगकर्ता	-5267
ादक	-5268
▁पाता	-5269
▁बढ़ती	-5270
▁कीट	-5271
▁रुख	-5272
▁एआईआर	-5273
▁उच्चतर	-5274
▁यथा	-5275
▁चालू	-5276
▁हरिया	-5277
न्द्रनाथ	-5278
भारत	-5279
▁साझा	-5280
▁प्रदूषण	-5281
▁IPC	-5282
▁दंडित	-5283
▁सहज	-5284
क्सी	-5285
▁बंधक	-5286
▁नग	-5287
▁क्ला	-5288
▁चीनी	-5289
▁अनाव	-5290
विंद	-5291
▁डालने	-5292
अल	-5293
▁विपणन	-5294
▁उपकरणों	-5295
▁k	-5296
ंगति	-5297
▁रोका	-5298
र्कों	-5299
▁प्रतिव	-5300
▁दोस्त	-5301
▁नेशनल	-5302
▁स्वर्गीय	-5303
▁यथास्थिति	-5304
▁सॉफ्टवेयर	-5305
▁अपरि	-5306
▁ग्रंथ	-5307
▁अभिप्रेत	-5308
ari	-5309
लिंग	-5310
ut	-5311
▁आकर	-5312
▁यौन	-5313
▁अगला	-5314
▁दस्तावेजी	-5315
▁अकाद	-5316
▁कितना	-5317
▁संवाद	-5318
▁मशीनरी	-5319
▁मिलाकर	-5320
घर	-5321
िमय	-5322
▁गीत	-5323
▁अज्ञात	-5324
▁अब्दुल	-5325
▁अवसरों	-5326
▁चिप	-5327
▁प्रतिभा	-5328
ॉनिक	-5329
▁पूर्ववर्ष	-5330
▁बहि	-5331
▁हमले	-5332
जन्य	-5333
▁बुद्ध	-5334
▁बैंकिंग	-5335
ER	-5336
▁निर्माता	-5337
▁जड़	-5338
ल्डर	-5339
▁बढ़े	-5340
▁OS	-5341
▁वितरित	-5342
▁ताकत	-5343
कोर्ट	-5344
▁जनजाति	-5345
▁पैनल	-5346
▁निपटारा	-5347
ोई	-5348
मार्क	-5349
▁अजीब	-5350
पीय	-5351
सुर	-5352
▁नार	-5353
▁वचन	-5354
▁तरीकों	-5355
▁मंज	-5356
▁सटी	-5357
▁असाम	-5358
▁गोप	-5359
▁स्तंभ	-5360
त्तियां	-5361
टो	-5362
ेदी	-5363
▁चतु	-5364
▁मौका	-5365
▁रहित	-5366
वंश	-5367
▁सदा	-5368
▁सागर	-5369
▁बच्चा	-5370
▁निष्क्रिय	-5371
▁अंकित	-5372
▁सर्वोत्तम	-5373
ज़ी	-5374
▁ब्राह	-5375
▁रासायनिक	-5376
▁PO	-5377
▁भेजी	-5378
▁ईमान	-5379
▁सुविधाएं	-5380
▁गंभीरता	-5381
▁भंडारण	-5382
▁अल्	-5383
क्षीय	-5384
▁निर्वि	-5385
▁निलंबन	-5386
▁स्थगन	-5387
▁अंतराल	-5388
▁परिकल्पना	-5389
▁प्रक्रियाओं	-5390
▁अवगत	-5391
▁प्रिय	-5392
▁बनाते	-5393
▁वाणिज्य	-5394
़्य	-5395
हाबाद	-5396
▁उल्लेखनीय	-5397
यक	-5398
एगा	-5399
▁मैने	-5400
▁चिंतन	-5401
▁बजा	-5402
▁अन्तर	-5403
▁विरासत	-5404
▁सावधानीपूर्वक	-5405
▁l	-5406
▁the	-5407
▁उत्तराधिकारी	-5408
बीर	-5409
्रल	-5410
शक्ति	-5411
▁अकबर	-5412
▁पोषण	-5413
थे	-5414
ंजा	-5415
▁पैकेज	-5416
▁समावेश	-5417
▁नै	-5418
▁तैनात	-5419
▁परमाण	-5420
▁सर्वर	-5421
▁सिफारिशों	-5422
▁निधन	-5423
▁फेंक	-5424
▁ऑपरेट	-5425
्राव	-5426
▁इंटरनेट	-5427
▁नियोजित	-5428
ay	-5429
गमन	-5430
▁चम	-5431
▁परिसम	-5432
▁कुमारी	-5433
▁मनमाना	-5434
ab	-5435
पय	-5436
लित	-5437
▁धु	-5438
▁अन्दर	-5439
▁भाषाओं	-5440
छा	-5441
काब	-5442
▁किलोमीटर	-5443
ro	-5444
▁टू	-5445
▁पंचनामा	-5446
▁शेयरधार	-5447
▁समर्थित	-5448
▁समर्पित	-5449
▁झा	-5450
ष्णु	-5451
ोश	-5452
▁नयी	-5453
▁मेर	-5454
▁शेख	-5455
AD	-5456
▁हेड	-5457
▁लड़के	-5458
▁ग्राहकों	-5459
▁समझाया	-5460
▁शिख	-5461
▁आदान	-5462
▁प्रतिप	-5463
▁दान	-5464
एसएल	-5465
▁संरक्षित	-5466
▁नियमितीकरण	-5467
▁सतह	-5468
दों	-5469
ेटी	-5470
मेल	-5471
▁उपे	-5472
▁पड़ी	-5473
गामी	-5474
▁होंगी	-5475
पीएस	-5476
ब्लिक	-5477
▁कागज	-5478
▁क्यू	-5479
▁दावेदारों	-5480
पट	-5481
▁हाईकोर्ट	-5482
▁मण	-5483
▁जमी	-5484
ध्यक्ष	-5485
▁फ़िल	-5486
ak	-5487
▁आना	-5488
▁भावी	-5489
▁संगम	-5490
▁सिवाय	-5491
▁विनिर्माण	-5492
▁ऑफ़	-5493
▁महीनों	-5494
काता	-5495
▁ऊपरी	-5496
▁किताब	-5497
दाबाद	-5498
▁बहाल	-5499
▁गर्दन	-5500
ah	-5501
म्मा	-5502
▁अभियोगी	-5503
▁नवान्वेषण	-5504
▁सचे	-5505
▁शुक्र	-5506
वासियों	-5507
▁समूहों	-5508
▁डो	-5509
ोषित	-5510
▁परिणामी	-5511
िरी	-5512
▁कति	-5513
▁सरदार	-5514
▁खि	-5515
▁तद	-5516
धियों	-5517
▁अपनाने	-5518
▁कोशिका	-5519
▁सर्विस	-5520
▁उपलब्धता	-5521
घाटन	-5522
र्की	-5523
▁बैठे	-5524
वों	-5525
▁नकदी	-5526
▁कमेटी	-5527
▁आजीवन	-5528
▁वर्षा	-5529
▁त्वरित	-5530
▁विनियमित	-5531
्त्र	-5532
▁खनिज	-5533
▁तैयारी	-5534
▁नीतियों	-5535
मेन	-5536
▁भूत	-5537
▁Village	-5538
▁इलाहाबाद	-5539
ावट	-5540
▁लंबाई	-5541
▁भ्रष्टाचार	-5542
हल	-5543
यान	-5544
▁लड़ाई	-5545
▁गहरी	-5546
▁आखिर	-5547
▁असमान	-5548
▁कार्यवाहियों	-5549
▁जागर	-5550
▁असंभव	-5551
ज्ञेय	-5552
▁त्वचा	-5553
▁पुनर्वास	-5554
द्री	-5555
ग्रस्त	-5556
▁कितनी	-5557
▁प्रभाग	-5558
▁माध्यमिक	-5559
▁छि	-5560
▁पेट्रोल	-5561
▁वांछ	-5562
▁निश्चय	-5563
▁इंजीनियरिंग	-5564
वरों	-5565
▁मुला	-5566
▁चाय	-5567
▁एस्ट	-5568
िल्प	-5569
▁दुख	-5570
▁पैसा	-5571
▁इंकार	-5572
IT	-5573
ल्हा	-5574
▁एयर	-5575
▁सिंध	-5576
▁आलोचना	-5577
▁मामूली	-5578
▁जीत	-5579
ॉर्नी	-5580
▁लिंग	-5581
▁व्यवस्थित	-5582
▁हस्तांतरित	-5583
▁स्थिरता	-5584
▁झार	-5585
▁धात	-5586
▁विनिमय	-5587
भाषा	-5588
▁वसूल	-5589
▁स्वभाव	-5590
▁टेलीफोन	-5591
▁हरियाणा	-5592
▁चिंतित	-5593
▁अनिश्चित	-5594
▁सम्बन्धी	-5595
लीय	-5596
ोजी	-5597
▁जुड़	-5598
▁यूनियन	-5599
▁अख	-5600
▁and	-5601
▁कतिपय	-5602
खाने	-5603
▁पार्	-5604
▁सोचा	-5605
▁चाहती	-5606
▁कदाचार	-5607
▁अटॉर्नी	-5608
▁क्रमांक	-5609
▁प्रस्तुतियाँ	-5610
दियों	-5611
▁दायित्वों	-5612
▁लिंक	-5613
▁स्वस्थ	-5614
ब्र	-5615
्डी	-5616
ान्य	-5617
▁बोस	-5618
▁सुनील	-5619
▁जहाज	-5620
▁चू	-5621
▁सतर्कता	-5622
▁अधिनियमित	-5623
▁नोड	-5624
▁मृत्युदंड	-5625
ख्यात	-5626
▁प्रेरणा	-5627
स्फ	-5628
▁अधिरो	-5629
▁निर्विवाद	-5630
▁स्टॉक	-5631
▁प्रोवि	-5632
▁डीडब्ल्यू	-5633
▁विशेषाधिकार	-5634
▁डीड	-5635
▁आराम	-5636
▁हैंः	-5637
▁विंडो	-5638
▁मालिकों	-5639
▁साझेदारी	-5640
▁नेताओं	-5641
▁पुनर्वि	-5642
ंचाई	-5643
▁गहन	-5644
▁गेंद	-5645
▁उत्साह	-5646
▁प्रतिवाद	-5647
▁WPNo	-5648
▁वस्तुत	-5649
▁परिणामों	-5650
▁रानी	-5651
िपल	-5652
्याव	-5653
्यूम	-5654
▁अग्रणी	-5655
▁बांध	-5656
र्पण	-5657
▁फैला	-5658
▁मुंह	-5659
▁पड़ेगा	-5660
▁स्क्रीन	-5661
▁चली	-5662
▁प्रतिल	-5663
▁अधिग्रहित	-5664
▁छवि	-5665
▁इनका	-5666
▁सफेद	-5667
▁विक्रय	-5668
▁व्यायाम	-5669
▁घटनास्थल	-5670
▁शंकरा	-5671
▁रहें	-5672
▁अपनाई	-5673
▁अपह	-5674
▁अभिक	-5675
▁इलेक्ट्रॉनिक	-5676
▁धर	-5677
▁चाव	-5678
शिष्ट	-5679
▁कैडर	-5680
▁बारह	-5681
▁सिटी	-5682
विज्ञान	-5683
▁परमाणु	-5684
हान	-5685
्रीम	-5686
▁गांवों	-5687
▁कोलकाता	-5688
ुका	-5689
ेंशन	-5690
▁बारी	-5691
कीर्ण	-5692
▁बाह्य	-5693
▁वृक्ष	-5694
▁वैवाहिक	-5695
▁अंतः	-5696
▁CR	-5697
▁रुक	-5698
▁हेम	-5699
धारित	-5700
▁जरिए	-5701
▁अर्जी	-5702
▁जुड़ी	-5703
धिकृत	-5704
▁श्रेणियों	-5705
▁पूरक	-5706
▁पूर्वव्यापी	-5707
▁नकद	-5708
▁उपहार	-5709
▁पुस्तकों	-5710
क्व	-5711
▁पॉ	-5712
▁ट्यू	-5713
▁अल्पसंख्यक	-5714
ड़ब	-5715
▁समेक	-5716
▁सर्ट	-5717
▁ग्रस्त	-5718
अंदाज	-5719
▁काली	-5720
अर	-5721
▁अधिकतर	-5722
▁क्लब	-5723
▁१६	-5724
▁कोयला	-5725
▁मास्टर	-5726
▁संक्रमण	-5727
▁अंतर्निहित	-5728
ष्कार	-5729
▁टक	-5730
▁रिज	-5731
ोक्ति	-5732
▁मध्यम	-5733
▁तत्वों	-5734
▁चलो	-5735
चालित	-5736
▁आस्ति	-5737
▁अमान्य	-5738
▁याचिकाएं	-5739
▁संतोषजनक	-5740
▁चुप	-5741
▁एजेंस	-5742
▁दुश्म	-5743
▁महानि	-5744
▁इंडियन	-5745
बाई	-5746
▁नान	-5747
▁पाइ	-5748
▁दुखी	-5749
▁बंदूक	-5750
▁मारने	-5751
्ह	-5752
▁फैल	-5753
▁रिकॉर्डिंग	-5754
ायें	-5755
िज्ञ	-5756
िटल	-5757
▁कार्ब	-5758
शिप	-5759
▁दमन	-5760
▁रेड्डी	-5761
▁तहसीलदार	-5762
एमसी	-5763
ाजित	-5764
▁सिंचाई	-5765
▁अग्रवाल	-5766
▁सदस्यता	-5767
▁महात्मा	-5768
दात	-5769
UR	-5770
यल	-5771
▁प्रता	-5772
रेख	-5773
▁गज	-5774
▁सभ्यता	-5775
ate	-5776
▁ससुर	-5777
▁पोस्टम	-5778
▁कॉलेजों	-5779
ot	-5780
▁खनन	-5781
▁सोम	-5782
▁वक्फ	-5783
▁फंसाया	-5784
▁समृद्ध	-5785
यें	-5786
लिया	-5787
▁पोत	-5788
▁लोड	-5789
▁टिकट	-5790
▁सिक्	-5791
▁कितने	-5792
▁रियायत	-5793
▁विस्तारित	-5794
iv	-5795
राशि	-5796
▁सौर	-5797
▁मिलियन	-5798
▁विकलांगता	-5799
▁आस्त	-5800
▁चैनल	-5801
▁खट	-5802
▁भरे	-5803
▁In	-5804
ingh	-5805
▁सेन	-5806
▁पश	-5807
त्त्व	-5808
▁खुली	-5809
▁उन्	-5810
▁अखिल	-5811
▁आहार	-5812
▁स्वे	-5813
▁ब्राह्म	-5814
▁बेद	-5815
ॉर्टम	-5816
▁लखन	-5817
▁सर्क	-5818
▁आशंका	-5819
ंठ	-5820
▁शौ	-5821
▁प्यार	-5822
▁अन्तर्गत	-5823
▁प्रतिनिधियों	-5824
▁..	-5825
▁...	-5826
▁बचत	-5827
मैन	-5828
ुरु	-5829
▁अद्य	-5830
▁विनय	-5831
▁पर्यटन	-5832
एसआई	-5833
▁संभाल	-5834
▁पदार्थों	-5835
▁हार्	-5836
▁चन्द्र	-5837
▁h	-5838
डिट	-5839
▁लकड़ी	-5840
़्त	-5841
▁जिल	-5842
▁Bihar	-5843
▁प्रतियोगिता	-5844
▁बेटा	-5845
▁सदैव	-5846
▁नजरअंदाज	-5847
▁व्यक्तित्व	-5848
▁कैप	-5849
▁मेट	-5850
तरनाक	-5851
िवेश	-5852
▁स्वतः	-5853
▁खेत	-5854
▁मार्गदर्शन	-5855
AG	-5856
लभ	-5857
▁IA	-5858
▁तिल	-5859
▁पौधों	-5860
▁सम्पूर्ण	-5861
ैर	-5862
▁सर्टिफ	-5863
▁क्रिकेट	-5864
िर्	-5865
ेरे	-5866
▁परिचित	-5867
▁सच्चाई	-5868
दुर	-5869
▁बजट	-5870
▁हिमा	-5871
▁संवर्धन	-5872
ES	-5873
पण	-5874
िश्न	-5875
र्याप्त	-5876
ug	-5877
▁वार्ता	-5878
▁प्रतीक्षा	-5879
▁शंकराचार्य	-5880
मूल	-5881
▁IT	-5882
▁इक्व	-5883
▁साथी	-5884
▁प्रतिस्थापित	-5885
ud	-5886
▁राजधानी	-5887
▁प्रतिभूति	-5888
▁सीम	-5889
▁छे	-5890
▁सद्	-5891
▁परमिट	-5892
▁झारखंड	-5893
▁हिंदुस्तान	-5894
st	-5895
द्धा	-5896
सीटी	-5897
▁उपखंड	-5898
▁आर्बिट	-5899
▁एव	-5900
▁लगने	-5901
▁लेती	-5902
▁न्यायसंगत	-5903
ूर्त	-5904
▁शुरु	-5905
▁पोस्टमॉर्टम	-5906
▁दत्त	-5907
▁निर्वाचित	-5908
▁मुकाब	-5909
▁सुनाया	-5910
▁इकट्ठा	-5911
▁वास्तविकता	-5912
ुस	-5913
▁दुः	-5914
▁दरों	-5915
▁पीछा	-5916
▁वहन	-5917
▁सुदृ	-5918
▁फिली	-5919
▁विद्र	-5920
ौदा	-5921
▁अंजाम	-5922
▁मालूम	-5923
ॉम	-5924
▁उत्तेज	-5925
भेद	-5926
▁आइट	-5927
नगर	-5928
▁उतना	-5929
▁Singh	-5930
▁मरम्मत	-5931
▁अनावश्यक	-5932
डिंग	-5933
▁कोटा	-5934
▁अपर्याप्त	-5935
▁गुल	-5936
▁पंडित	-5937
▁निहितार्थ	-5938
ब्बे	-5939
▁घूम	-5940
ोब	-5941
्याम	-5942
▁असली	-5943
▁मिलते	-5944
▁खड़ी	-5945
▁सुपर	-5946
्राफ्ट	-5947
▁जनहित	-5948
▁मिटा	-5949
▁निरसन	-5950
▁लक्ष्मी	-5951
इश	-5952
▁सकल	-5953
▁चोरी	-5954
▁जवाह	-5955
▁समुद्री	-5956
▁शिकायतों	-5957
▁सल	-5958
▁पंक्ति	-5959
▁मिलेगा	-5960
ant	-5961
▁CO	-5962
ांतिक	-5963
ोल्डर	-5964
▁टाइम	-5965
▁हिमाचल	-5966
RI	-5967
▁विसंगति	-5968
▁रसाय	-5969
लक	-5970
▁विष्णु	-5971
▁इंग्लैंड	-5972
▁कोट	-5973
▁नौकर	-5974
▁प्लान	-5975
▁सना	-5976
▁चालान	-5977
▁बताती	-5978
शो	-5979
्सों	-5980
▁ब्यू	-5981
▁खतरनाक	-5982
▁मारा	-5983
▁टूट	-5984
▁बैग	-5985
▁श्व	-5986
▁पांड	-5987
▁मैसर्स	-5988
▁उद्घाटन	-5989
ांश	-5990
दु	-5991
▁सहन	-5992
▁प्रशास	-5993
▁संभवतः	-5994
▁नियंत्रक	-5995
ac	-5996
वायु	-5997
▁निस्स	-5998
▁पुष्प	-5999
वती	-6000
▁बॉक्स	-6001
तांत्रिक	-6002
▁कहान	-6003
▁विवेका	-6004
ानंद	-6005
▁पीडी	-6006
▁सटीक	-6007
कोश	-6008
▁डिफ	-6009
▁परिषद्	-6010
▁निवेदन	-6011
▁श्रमिकों	-6012
▁जाग	-6013
▁मूलभूत	-6014
▁रहेंगे	-6015
बो	-6016
▁बालक	-6017
▁कड़ी	-6018
▁कमिश्न	-6019
▁संवेदन	-6020
र्थी	-6021
▁इंत	-6022
▁बेश	-6023
▁ठहराने	-6024
▁शुद्धता	-6025
▁प्रस्तावों	-6026
▁देवता	-6027
▁भंडार	-6028
▁प्रतिदिन	-6029
▁स्वचालित	-6030
▁चार्ट	-6031
▁पब्लिक	-6032
▁मिथ	-6033
▁लौटा	-6034
▁हार्दिक	-6035
चलन	-6036
▁पाद	-6037
▁बौद्धिक	-6038
यंस	-6039
▁आइटम	-6040
▁एक्सप	-6041
▁धनराशि	-6042
चंद्र	-6043
▁डीलर	-6044
▁ताजा	-6045
्लिकेशन	-6046
▁जागरूक	-6047
▁पच	-6048
क्ष्य	-6049
▁अमर	-6050
▁कमा	-6051
▁अंकों	-6052
▁स्वर्ण	-6053
▁चिकित्सक	-6054
बन	-6055
क्राम	-6056
▁बनाकर	-6057
▁प्रिंट	-6058
▁फ़िल्म	-6059
▁फलस्वरूप	-6060
▁पुनर्विचार	-6061
gar	-6062
▁सूर	-6063
▁उतार	-6064
▁हड्डी	-6065
न्थ	-6066
▁शोर	-6067
▁न्यास	-6068
▁नीतिगत	-6069
▁फॉर	-6070
▁रहेगी	-6071
▁बताना	-6072
▁समायोजित	-6073
िमांड	-6074
▁शांत	-6075
▁विश्वसनीयता	-6076
ET	-6077
गोर	-6078
▁पढ़े	-6079
▁बाएं	-6080
▁निचले	-6081
▁विनाश	-6082
▁जातियों	-6083
ham	-6084
▁एमओ	-6085
▁प्रम	-6086
▁तदर्थ	-6087
ागर	-6088
▁शान	-6089
▁दिव्य	-6090
▁प्रतिलिपि	-6091
ेलना	-6092
▁हिस्सों	-6093
▁सर्टिफिकेट	-6094
av	-6095
्वत	-6096
▁हॉ	-6097
▁छुप	-6098
कात	-6099
▁डाटा	-6100
▁प्रिंस	-6101
▁परिचय	-6102
िकी	-6103
ंपरिक	-6104
▁इंजीनिय	-6105
▁तुम्हारे	-6106
▁घरों	-6107
▁शिखर	-6108
क्टरों	-6109
▁बनाये	-6110
▁प्रणाल	-6111
▁अप्रत्य	-6112
गन	-6113
चंद	-6114
▁मनी	-6115
▁चुनौ	-6116
▁संजय	-6117
▁विभिन्	-6118
▁प्रदर्शनी	-6119
▁सीन	-6120
▁कामगार	-6121
▁ब्रिटेन	-6122
▁टो	-6123
▁एक्सच	-6124
▁संदाय	-6125
▁समझते	-6126
▁गोपनीय	-6127
▁केंद्रित	-6128
▁व्यापारी	-6129
▁इंट	-6130
▁बर्खास्तगी	-6131
भु	-6132
▁निरंतरता	-6133
▁कष्ट	-6134
▁सीडी	-6135
▁शहरों	-6136
▁रायपुर	-6137
▁परिस्थितिजन्य	-6138
▁बाय	-6139
▁सुस	-6140
▁ऑडिट	-6141
▁टर्म	-6142
▁लेनदार	-6143
▁स्नातक	-6144
▁वर्गीकृत	-6145
▁बन्द	-6146
▁आजादी	-6147
▁पीड़ा	-6148
▁प्रेषित	-6149
re	-6150
ाउन	-6151
▁तृ	-6152
रद	-6153
▁गरीबी	-6154
▁doc	-6155
▁रेख	-6156
▁सांप	-6157
▁नेत्र	-6158
▁मतदान	-6159
▁हथिया	-6160
रिव	-6161
▁बैक	-6162
▁उतर	-6163
▁सीटों	-6164
▁स्त्र	-6165
▁अद्यतन	-6166
▁लिप	-6167
▁resident	-6168
पूर	-6169
जनन	-6170
▁टिका	-6171
▁शीट	-6172
▁झूठा	-6173
िवारिक	-6174
▁दक्षता	-6175
नीति	-6176
ापति	-6177
▁पौधे	-6178
▁दुर्बलता	-6179
▁दम	-6180
▁टाउन	-6181
▁सुदृढ़	-6182
▁उपायुक्त	-6183
ष्ठा	-6184
▁लॉग	-6185
▁पत्त	-6186
▁बोलने	-6187
▁दुर्भाग्य	-6188
OR	-6189
खल	-6190
दल	-6191
▁सोन	-6192
▁वाक्य	-6193
▁संप्र	-6194
▁एसटी	-6195
▁लॉर्ड	-6196
▁मूर्ति	-6197
▁अविश्वास	-6198
रिक्ष	-6199
▁पारिवारिक	-6200
बु	-6201
▁ष	-6202
▁कहां	-6203
▁क्षण	-6204
▁शिशु	-6205
▁जिनसे	-6206
▁प्रवृत्त	-6207
▁महाध	-6208
▁पारंपरिक	-6209
▁विधानसभा	-6210
▁अनियमितता	-6211
वै	-6212
बेट	-6213
▁डाउ	-6214
▁नृत	-6215
▁वास	-6216
▁इसील	-6217
▁फोटो	-6218
अप	-6219
विक	-6220
▁मनमानी	-6221
▁कनेक्शन	-6222
▁विविधता	-6223
▁इनकी	-6224
▁छाया	-6225
▁नेपाल	-6226
▁साधनों	-6227
▁कमिश्नर	-6228
▁वस्तुतः	-6229
▁भत्ता	-6230
▁आबंट	-6231
▁मनाया	-6232
▁इक्विटी	-6233
०क	-6234
▁अपहरण	-6235
▁जू	-6236
▁परिल	-6237
▁प्रबल	-6238
▁अध्यादेश	-6239
दीप	-6240
▁द्विप	-6241
▁नामों	-6242
▁परिवारों	-6243
pp	-6244
स्वती	-6245
▁देशी	-6246
▁समझता	-6247
▁दक्षिणी	-6248
▁अप्रत्यक्ष	-6249
▁CA	-6250
▁असामान्य	-6251
PA	-6252
▁जंगल	-6253
▁रूपांत	-6254
▁डीएन	-6255
जातियों	-6256
▁भरी	-6257
▁जलवायु	-6258
▁पुनर्ग	-6259
▁एप्लिकेशन	-6260
▁अदा	-6261
▁कम्पनी	-6262
▁अध्यक्षता	-6263
▁पड	-6264
▁मार्	-6265
दत्त	-6266
▁ज्व	-6267
▁dt	-6268
आरएस	-6269
▁एसी	-6270
▁क्लिक	-6271
▁भव	-6272
ास्ट	-6273
▁कही	-6274
▁गाड़ी	-6275
▁नर्स	-6276
▁परम्प	-6277
▁विवरणों	-6278
▁अहमदाबाद	-6279
र्ध	-6280
▁St	-6281
▁ग़	-6282
▁चां	-6283
्राफी	-6284
रेखा	-6285
▁उसको	-6286
सागर	-6287
▁बैल	-6288
▁रमेश	-6289
▁कीटना	-6290
▁क्रेता	-6291
▁विनिश्च	-6292
▁प्रतिष्ठित	-6293
▁अज	-6294
ment	-6295
▁आबादी	-6296
▁खरीदी	-6297
▁बल्ले	-6298
▁फुट	-6299
मर	-6300
ंस्क	-6301
हार्य	-6302
▁रहस्य	-6303
▁अभिलेखों	-6304
▁सड़	-6305
▁सेटिंग	-6306
▁अधिनियमों	-6307
▁लम्	-6308
▁अनधिकृत	-6309
esh	-6310
▁हड़	-6311
▁कहला	-6312
▁बंदर	-6313
▁झगड़ा	-6314
गाव	-6315
▁CW	-6316
▁त्रिप	-6317
▁लोह	-6318
कियों	-6319
▁कामका	-6320
▁संग्र	-6321
▁उपज	-6322
▁बीस	-6323
दृश्य	-6324
▁अग्न	-6325
▁खोला	-6326
▁रिश्वत	-6327
▁वाहनों	-6328
ोसी	-6329
▁हिसाब	-6330
▁पहुंचाने	-6331
▁प्रारम्भ	-6332
▁बढ़ते	-6333
▁दरवाजे	-6334
▁एंट	-6335
▁आपात	-6336
ुत्प	-6337
▁son	-6338
▁पते	-6339
▁भक्ति	-6340
न्दु	-6341
▁मूल्यवान	-6342
▁बीमाकर्ता	-6343
्सीय	-6344
▁तंत्रिका	-6345
▁निदेशकों	-6346
▁सरस्वती	-6347
ाजनक	-6348
▁भेंट	-6349
▁पॉलिसी	-6350
नेश	-6351
▁नाइ	-6352
▁शुक	-6353
टीकरण	-6354
▁पुष्ट	-6355
▁प्रतिर	-6356
▁लोकतांत्रिक	-6357
▁बुरी	-6358
ापक	-6359
▁खूब	-6360
ड़िया	-6361
▁अभ्य	-6362
▁ओं	-6363
▁भो	-6364
▁जना	-6365
▁धातु	-6366
▁प्रान्त	-6367
▁तिव	-6368
▁सीधा	-6369
▁गोपाल	-6370
▁निस्त	-6371
▁संध्या	-6372
फो	-6373
▁मस्	-6374
▁देगी	-6375
्रेषित	-6376
▁शक्तिशाली	-6377
▁कस	-6378
▁अवय	-6379
▁चिल	-6380
▁PS	-6381
▁रखकर	-6382
▁ग्रुप	-6383
▁कुल्हा	-6384
ीली	-6385
केशन	-6386
्रेम	-6387
▁फंड	-6388
▁सचेत	-6389
▁कॉर्पोरेट	-6390
▁गड़ब	-6391
▁भारतीयों	-6392
▁टैक्स	-6393
▁समृद्धि	-6394
▁ज़्या	-6395
▁फायदा	-6396
▁रूपों	-6397
निय	-6398
▁जाली	-6399
▁थोड़ी	-6400
▁बुलाने	-6401
▁कोष	-6402
▁मानी	-6403
▁बहादुर	-6404
न्या	-6405
▁किल	-6406
▁सीता	-6407
ंपी	-6408
िकता	-6409
▁उदा	-6410
▁मतदाता	-6411
im	-6412
ुश	-6413
फ़ी	-6414
▁१७	-6415
▁परिस्थितियां	-6416
▁फाइ	-6417
▁टाइप	-6418
▁तिवारी	-6419
▁पहुंची	-6420
प्ति	-6421
▁गहराई	-6422
▁SH	-6423
ट्टा	-6424
▁जीन	-6425
▁राह	-6426
▁परिश्रम	-6427
काने	-6428
▁तनाव	-6429
▁आत्मसम	-6430
▁परम्परा	-6431
▁सीआरपीसी	-6432
▁सिद्धान्त	-6433
▁घृ	-6434
▁वय	-6435
ेन्द्र	-6436
▁स्तरों	-6437
▁प्रकटीकरण	-6438
▁औस	-6439
ंदेह	-6440
बारा	-6441
▁लाए	-6442
▁अनुर	-6443
▁अभिला	-6444
▁सीनियर	-6445
ेक्स	-6446
▁नवा	-6447
▁रॉय	-6448
▁विघ	-6449
▁फ्लैट	-6450
पीए	-6451
▁उर्व	-6452
▁गुफा	-6453
▁जानें	-6454
▁पैकेट	-6455
▁प्रीम	-6456
▁स्तरीय	-6457
ोकन	-6458
नाइट	-6459
०वीं	-6460
▁रिज़	-6461
▁निकाले	-6462
ल्पित	-6463
र्माने	-6464
▁जितनी	-6465
▁जुर्माने	-6466
▁क्रियान्व	-6467
▁चिकित्सीय	-6468
kh	-6469
▁बिलकुल	-6470
▁मंदिरों	-6471
▁महाधिवक्ता	-6472
▁अक्त	-6473
रेटर	-6474
ाइयों	-6475
▁ऊंचाई	-6476
▁जोड़े	-6477
▁पट्टी	-6478
▁सकेगी	-6479
▁डिज	-6480
▁बाँ	-6481
▁रखती	-6482
▁वार्ड	-6483
▁मुक्ति	-6484
▁सामान्यतः	-6485
स्ट्रे	-6486
▁देखता	-6487
▁परिवी	-6488
▁मंजूर	-6489
▁ड्राफ्ट	-6490
▁याता	-6491
▁खासकर	-6492
▁मंजिल	-6493
▁टुकड़े	-6494
▁मुलाकात	-6495
▁दिशानिर्देशों	-6496
▁एक्सचेंज	-6497
ाफ	-6498
िमा	-6499
ूलन	-6500
्रु	-6501
▁अवर	-6502
▁कुट	-6503
▁पुण	-6504
मि	-6505
वाहा	-6506
▁समझे	-6507
▁नवीनी	-6508
▁उन्हीं	-6509
▁पुनराव	-6510
▁क्रांति	-6511
▁AP	-6512
▁अवह	-6513
▁लगती	-6514
▁वृद्ध	-6515
▁माइक्र	-6516
▁मिलेगी	-6517
ंगलोर	-6518
▁अतीत	-6519
▁औसतन	-6520
▁अनदेखी	-6521
▁यूरोपीय	-6522
▁नियुक्तियों	-6523
ूष	-6524
par	-6525
याल	-6526
▁MO	-6527
▁विलय	-6528
▁सूचक	-6529
▁वस्त्र	-6530
नर	-6531
▁झील	-6532
▁लाठी	-6533
▁इसीलिए	-6534
▁मनमाने	-6535
▁अपमानजनक	-6536
▁एजेंसियों	-6537
▁आत्मसमर्पण	-6538
▁सफलतापूर्वक	-6539
डीसी	-6540
▁OSNo	-6541
▁निलंबित	-6542
▁निस्संदेह	-6543
िपत्य	-6544
▁निदेशालय	-6545
▁खटख	-6546
▁डिक	-6547
▁हथियारों	-6548
्रोप	-6549
▁उठाई	-6550
▁भीड़	-6551
▁स्के	-6552
▁कीटनाश	-6553
▁तर्कों	-6554
▁प्रतियां	-6555
जिद	-6556
देशक	-6557
ज्जित	-6558
▁रिक्ति	-6559
▁प्रतिसाद	-6560
▁लखनऊ	-6561
▁अनुपस्थित	-6562
▁मरा	-6563
▁यातायात	-6564
साई	-6565
द्वी	-6566
▁जीवा	-6567
▁तलाक	-6568
▁निकलने	-6569
▁पंचाट	-6570
▁कुल्हाड़ी	-6571
भि	-6572
▁हानिक	-6573
▁परिवीक्षा	-6574
वाणी	-6575
▁वाइ	-6576
▁संपन्न	-6577
▁सुनकर	-6578
▁दुर्लभ	-6579
▁ब्यूरो	-6580
▁हस्ताक्षरित	-6581
रचना	-6582
▁विज	-6583
स्टिक	-6584
▁एमएस	-6585
▁प्रशंस	-6586
▁उपेक्षा	-6587
भौ	-6588
▁हुस	-6589
▁गुंजा	-6590
▁आरंभिक	-6591
▁देनदार	-6592
दायक	-6593
▁पीढ़ी	-6594
▁भाग्य	-6595
▁रसायन	-6596
▁मैत्री	-6597
डिश	-6598
वेल	-6599
सों	-6600
डेंट	-6601
▁द्वि	-6602
▁ऑफिसर	-6603
▁अनन्य	-6604
▁विधवा	-6605
garh	-6606
ेक्शन	-6607
▁आपसी	-6608
गान	-6609
ल्ह	-6610
▁बांग	-6611
ंधन	-6612
▁ओम	-6613
▁सांख	-6614
▁अंगूठ	-6615
▁चीजें	-6616
▁मतभेद	-6617
कथित	-6618
▁खरीदा	-6619
▁पारस्प	-6620
▁निकायों	-6621
▁रचनात्मक	-6622
ेंसिक	-6623
▁कॉन्	-6624
▁सेवन	-6625
▁संपदा	-6626
▁सहयोगी	-6627
▁मोटरसाइ	-6628
▁शास्त्र	-6629
▁उपभोग	-6630
▁जिलों	-6631
▁प्रांत	-6632
▁अक्तूबर	-6633
ुरी	-6634
▁फीट	-6635
▁तरल	-6636
▁पाउ	-6637
▁टा	-6638
▁कना	-6639
▁सकी	-6640
▁यथार्थ	-6641
▁पदोन्नत	-6642
▁कॉर्पोरेशन	-6643
ॉर	-6644
फ्र	-6645
▁रघु	-6646
▁हाइ	-6647
ांक्षा	-6648
▁हेक्ट	-6649
▁भया	-6650
▁हां	-6651
▁विशेषज्ञों	-6652
▁कू	-6653
hatt	-6654
इयां	-6655
्यूशन	-6656
▁मस्जिद	-6657
▁साहित्यिक	-6658
▁झट	-6659
्यवाद	-6660
▁स्टील	-6661
▁अवहेलना	-6662
▁बरामदगी	-6663
जाने	-6664
टीसी	-6665
▁कंध	-6666
▁मछली	-6667
त्रियों	-6668
▁माध्यस्थ	-6669
▁रवीन्द्रनाथ	-6670
▁एग	-6671
▁नज	-6672
ित्य	-6673
▁आधे	-6674
▁रेडियो	-6675
▁इस्लामी	-6676
▁अंतरिक्ष	-6677
▁जूनियर	-6678
▁स्वेच्छा	-6679
▁पारस्परिक	-6680
ुलर	-6681
▁उपर	-6682
▁कंस	-6683
▁खोजने	-6684
▁सौंपी	-6685
▁कार्मिक	-6686
▁उक	-6687
▁कहती	-6688
▁ग्री	-6689
स्वामी	-6690
▁अखबार	-6691
▁संस्थ	-6692
▁मोटरसाइकिल	-6693
..	-6694
ers	-6695
हीत	-6696
▁पुस्तिका	-6697
▁कार्यपालिका	-6698
▁छेड़	-6699
ंची	-6700
▁लंबा	-6701
▁उजागर	-6702
▁संयोजन	-6703
▁गुंजाइश	-6704
▁बैंगलोर	-6705
▁प्रसंस्क	-6706
्ध	-6707
▁vi	-6708
क्कर	-6709
▁तंब	-6710
▁गिरवी	-6711
▁बहाली	-6712
FA	-6713
anc	-6714
ांसी	-6715
▁गीता	-6716
▁निष्कासन	-6717
कै	-6718
▁एओ	-6719
▁नृत्य	-6720
▁तथाकथित	-6721
▁MA	-6722
▁गिन	-6723
▁बेशक	-6724
कारिता	-6725
▁काले	-6726
▁लाना	-6727
▁बनाती	-6728
▁पहाड़ी	-6729
ज़ो	-6730
▁शक	-6731
▁तारा	-6732
▁रोकना	-6733
▁अधिरोपित	-6734
▁द्विपक्षीय	-6735
▁बेई	-6736
▁प्रतिबि	-6737
▁फु	-6738
▁काला	-6739
▁भागीदार	-6740
ish	-6741
ल्फ	-6742
▁रेश	-6743
▁बिता	-6744
▁मोटे	-6745
्यौ	-6746
▁केश	-6747
▁बोध	-6748
▁रिला	-6749
▁इंद्र	-6750
▁पत्रिका	-6751
▁कैल	-6752
▁दाम	-6753
▁जताई	-6754
▁परिसंप	-6755
▁समझौतों	-6756
▁सदी	-6757
▁ट्रैक	-6758
▁उपलब्धि	-6759
▁आतंकवादी	-6760
यिक	-6761
▁थाने	-6762
▁पृथक	-6763
▁महाराजा	-6764
▁प्रिंसिपल	-6765
वास्त	-6766
दर्शिता	-6767
▁एफएसएल	-6768
▁रोम	-6769
▁दण्ड	-6770
▁लायक	-6771
▁उठाना	-6772
▁यात्री	-6773
▁आधिपत्य	-6774
▁कच	-6775
▁शरण	-6776
▁प्लस	-6777
▁समायोजन	-6778
रेज	-6779
जीसी	-6780
▁कर्ण	-6781
▁गायब	-6782
▁विनि	-6783
▁संगठित	-6784
▁व्यापारिक	-6785
▁ईसाई	-6786
▁निराश	-6787
▁रिलायंस	-6788
▁संज्ञेय	-6789
संच	-6790
ायण	-6791
र्ता	-6792
▁बीत	-6793
▁संधि	-6794
▁चित्रण	-6795
▁अपरिहार्य	-6796
ल्डिंग	-6797
▁स्रोतों	-6798
▁प्रतिबिंब	-6799
▁प्रयोज्यता	-6800
िणी	-6801
त्रिम	-6802
▁कामना	-6803
▁निर्देशिका	-6804
▁शोक	-6805
▁एकीकृत	-6806
▁खरीदार	-6807
▁पड़ोसी	-6808
▁लार	-6809
▁बाईं	-6810
कारियों	-6811
▁पेशेवर	-6812
्टा	-6813
▁पहन	-6814
▁युक्ति	-6815
▁दुश्मनी	-6816
▁शत्रु	-6817
▁अनुज्ञात	-6818
▁मोड़	-6819
▁खटखटा	-6820
▁ग्राफ	-6821
गाई	-6822
▁भत्ते	-6823
▁राजीव	-6824
ानुभूति	-6825
▁सम्पत्ति	-6826
ठे	-6827
▁चरम	-6828
▁पाप	-6829
▁उर्फ	-6830
▁नींव	-6831
▁प्लेट	-6832
▁मापदंड	-6833
▁नंद	-6834
▁डेवल	-6835
▁धरती	-6836
▁साहस	-6837
▁प्रतिस्पर्धा	-6838
▁स्वीकारोक्ति	-6839
up	-6840
ंदगी	-6841
▁रिव	-6842
▁चरणों	-6843
▁सारांश	-6844
मै	-6845
दातर	-6846
सिद्धि	-6847
▁अंगों	-6848
▁बिल्ड	-6849
▁पुनर्म	-6850
▁‘‘	-6851
▁एसआई	-6852
▁लेबल	-6853
▁लाई	-6854
▁असंत	-6855
▁हिमालय	-6856
▁अन्वेषण	-6857
ॉजी	-6858
▁राश	-6859
▁वीड	-6860
▁कराना	-6861
▁डीएनए	-6862
ंथी	-6863
▁मानो	-6864
▁लड़ने	-6865
▁ट्रेडमार्क	-6866
▁पैट	-6867
▁गौरव	-6868
▁कृत्रिम	-6869
▁पुनर्गठन	-6870
पेट	-6871
▁IV	-6872
▁इल	-6873
▁उभ	-6874
▁गू	-6875
▁बग	-6876
▁वरीय	-6877
▁जायें	-6878
ढ़े	-6879
बीन	-6880
न्हा	-6881
▁कमल	-6882
▁योनि	-6883
▁अनुक्रम	-6884
▁उन्मूलन	-6885
वकों	-6886
▁टेन	-6887
▁प्रीमियम	-6888
▁विद्यार्थी	-6889
रलाल	-6890
विंग	-6891
▁जनादेश	-6892
जिए	-6893
▁आबकारी	-6894
एसए	-6895
ुणा	-6896
▁टीवी	-6897
▁डाले	-6898
▁माने	-6899
▁तलवार	-6900
इज	-6901
स्फोट	-6902
▁डोमेन	-6903
▁सांवि	-6904
▁अमरीका	-6905
▁प्रसंस्करण	-6906
गंज	-6907
च्यु	-6908
▁पाठक	-6909
og	-6910
▁समाम	-6911
▁इनपुट	-6912
▁तापमान	-6913
ल्य	-6914
वर्ड	-6915
▁हाँ	-6916
▁अनिल	-6917
▁कोर्स	-6918
▁पुनर्व	-6919
▁शस्त्र	-6920
ुत्व	-6921
▁Chhatt	-6922
▁ज़्यादा	-6923
ष्म	-6924
▁कीं	-6925
ंद्रह	-6926
ig	-6927
िर्ण	-6928
▁खर्	-6929
▁गेट	-6930
▁युवाओं	-6931
▁विनिश्चय	-6932
कोट	-6933
▁हुसैन	-6934
▁आधारभूत	-6935
नेस	-6936
▁स्ल	-6937
▁स्ट्र	-6938
▁पंद्रह	-6939
▁y	-6940
न्दर	-6941
▁अड्ड	-6942
▁फायर	-6943
▁दुर्व	-6944
▁कपड़ों	-6945
▁प्रक्रियात्मक	-6946
कीन	-6947
मीन	-6948
भासी	-6949
▁ढूं	-6950
▁सेशन	-6951
od	-6952
▁आनु	-6953
▁खिल	-6954
▁पट्टा	-6955
▁सुरेश	-6956
प्राप्त	-6957
SH	-6958
शाह	-6959
सीआई	-6960
▁पोल	-6961
▁वोट	-6962
▁हरे	-6963
▁Chhattis	-6964
▁रजिस्ट्रीकरण	-6965
os	-6966
ाउंड	-6967
▁घास	-6968
▁लैस	-6969
▁राजू	-6970
▁सार्थ	-6971
▁हार्ड	-6972
▁खर्चों	-6973
▁सांख्यिक	-6974
▁लेट	-6975
▁कड़ाई	-6976
▁चिन्ह	-6977
▁हटाया	-6978
▁iv	-6979
▁पीपी	-6980
▁सेक्टर	-6981
ंसर	-6982
▁RE	-6983
▁मातृ	-6984
▁लेंगे	-6985
▁परिप्रे	-6986
end	-6987
▁कहे	-6988
▁रोश	-6989
▁मंगल	-6990
▁कोशिकाओं	-6991
▁Chhattisgarh	-6992
▁प्रस्तुतिकरण	-6993
र्दू	-6994
▁अस्थिर	-6995
▁प्रजनन	-6996
ुम	-6997
▁जुल	-6998
▁गणित	-6999
▁वनस्प	-7000
परक	-7001
ुड	-7002
िटर	-7003
▁जाओ	-7004
▁ड्रग	-7005
णि	-7006
तन्य	-7007
▁दुग	-7008
▁अनाज	-7009
▁भांति	-7010
▁ड्राइवर	-7011
पेश	-7012
▁आपस	-7013
▁झुक	-7014
▁बांड	-7015
▁बैठा	-7016
▁आंकड़े	-7017
▁रिकवरी	-7018
▁अधिनिर्ण	-7019
▁राजेंद्र	-7020
▁पर्वत	-7021
▁परिलक्षित	-7022
AK	-7023
ub	-7024
▁जानकर	-7025
▁कामकाज	-7026
▁व्यस्त	-7027
बारी	-7028
▁रेग	-7029
▁सकेंगे	-7030
▁अनुमानित	-7031
▁प्रोविज़ो	-7032
भूषण	-7033
स्ट्र	-7034
▁अर्ज	-7035
▁शोषण	-7036
▁उर्दू	-7037
▁संकाय	-7038
▁परीक्षक	-7039
▁व्युत्प	-7040
▁हेक्टेयर	-7041
▁अभिर	-7042
▁कार्यालयों	-7043
दू	-7044
▁धूम	-7045
▁सौंपने	-7046
स्ट्रेलिया	-7047
▁अभिव्यक्त	-7048
उंट	-7049
▁एनआई	-7050
▁प्रसारण	-7051
▁प्रविष्टियों	-7052
ंकी	-7053
ब्ब	-7054
▁उपय	-7055
▁उग्र	-7056
▁कच्चे	-7057
▁प्रोज	-7058
▁परिवेश	-7059
राइट	-7060
▁समन	-7061
विश्वास	-7062
▁फ्रांस	-7063
▁रिफ	-7064
▁ईंधन	-7065
▁किमी	-7066
▁चर्च	-7067
दायित्व	-7068
▁दाहिने	-7069
वायद	-7070
▁डिज़	-7071
▁लेबर	-7072
▁निस्तारण	-7073
▁परामर्शदाता	-7074
ia	-7075
इल	-7076
▁जॉ	-7077
रणीय	-7078
▁उत्तम	-7079
▁चैतन्य	-7080
▁अंग्रेज	-7081
▁नाक	-7082
▁पीने	-7083
▁समझना	-7084
ON	-7085
ao	-7086
िनेशन	-7087
क्षकों	-7088
▁बिंदुओं	-7089
▁समवर्ती	-7090
ेब	-7091
म्बई	-7092
▁कवायद	-7093
▁जापान	-7094
▁अत्यन्त	-7095
▁मुकदमों	-7096
फ़र	-7097
▁ढांचा	-7098
▁तलाशी	-7099
▁सेंटर	-7100
▁विद्रोह	-7101
▁पासपोर्ट	-7102
▁नज़र	-7103
▁स्टाफ	-7104
▁पुराना	-7105
▁दोषपूर्ण	-7106
▁किलोग्राम	-7107
▁सुशील	-7108
▁सैन्य	-7109
▁प्रतिभूत	-7110
वंत	-7111
▁ड़	-7112
▁उपाधि	-7113
▁बांग्ला	-7114
▁राजभाषा	-7115
▁केंद्रों	-7116
▁घो	-7117
▁इलाके	-7118
▁हानिकारक	-7119
▁बम	-7120
▁दाग	-7121
▁नास	-7122
▁चावल	-7123
▁दुःख	-7124
▁प्रतिष्ठान	-7125
झा	-7126
ीर्ण	-7127
▁कागजात	-7128
▁परिप्रेक्ष्य	-7129
़ी	-7130
▁एग्ज	-7131
▁पाइप	-7132
▁श्वे	-7133
▁सीखी	-7134
▁ट्यूब	-7135
▁मसौदा	-7136
▁सार्वभौ	-7137
▁बैच	-7138
▁सोल	-7139
गोलिक	-7140
▁उद्यान	-7141
ice	-7142
▁अमी	-7143
▁मंग	-7144
▁पोजी	-7145
▁मुझसे	-7146
▁फोरम	-7147
▁इंतजार	-7148
▁सहानुभूति	-7149
वण	-7150
▁दशकों	-7151
▁लगाते	-7152
▁प्रशिक्षित	-7153
▁खपत	-7154
▁नाल	-7155
▁कट्ट	-7156
▁पड़ती	-7157
▁ऑपर	-7158
▁शिल्प	-7159
ार्थियों	-7160
▁साहब	-7161
▁वादों	-7162
▁सीखने	-7163
▁समर्पण	-7164
▁वस्तुएं	-7165
▁संभावनाओं	-7166
▁AS	-7167
गांव	-7168
▁सुलह	-7169
िथ	-7170
ंती	-7171
▁Ad	-7172
▁नल	-7173
▁आधा	-7174
▁माला	-7175
▁मेरिट	-7176
▁संभोग	-7177
तापूर्वक	-7178
▁भौगोलिक	-7179
▁एसपी	-7180
▁मुहर	-7181
लास	-7182
संचार	-7183
▁दिखाए	-7184
▁बोलते	-7185
▁विस्फोट	-7186
▁संकीर्ण	-7187
th	-7188
्किक	-7189
▁चाचा	-7190
▁पशुओं	-7191
▁शानदार	-7192
हाई	-7193
▁पेट्रोलियम	-7194
▁सुधारने	-7195
▁प्रतिनिय	-7196
▁स्वप	-7197
▁मौजूदगी	-7198
ev	-7199
ईसी	-7200
बंदी	-7201
▁आरटी	-7202
▁निंदा	-7203
▁प्रपत्र	-7204
▁कर्मियों	-7205
थन	-7206
बली	-7207
चाना	-7208
िक्र	-7209
▁नोस	-7210
▁मैट्र	-7211
▁ईमानदारी	-7212
देह	-7213
▁छू	-7214
▁धान	-7215
▁टिप्पण	-7216
▁समेकित	-7217
▁यात्रियों	-7218
aya	-7219
ोज़	-7220
▁उतनी	-7221
▁लगते	-7222
▁विनोद	-7223
▁वरीयता	-7224
▁पाठ्यक्रमों	-7225
▁पुनरावृत्ति	-7226
▁Exh	-7227
▁घोर	-7228
▁अधिव	-7229
▁नायक	-7230
▁लंदन	-7231
▁छोड़ा	-7232
▁संशोधनों	-7233
▁उत्तरदायित्व	-7234
ID	-7235
▁क्	-7236
्रीज	-7237
▁अभिगम	-7238
▁संदेय	-7239
▁अमरीकी	-7240
▁घनिष्ठ	-7241
▁गड़बड़ी	-7242
▁ऑटो	-7243
▁औषध	-7244
▁डॉलर	-7245
▁बदला	-7246
▁रिकार्ड	-7247
प्रद	-7248
▁भाष	-7249
▁कैंसर	-7250
▁पड़ोस	-7251
िच	-7252
▁मरी	-7253
▁काल्प	-7254
▁तत्त्व	-7255
▁नवीकरण	-7256
▁पोजीशन	-7257
▁रिमांड	-7258
▁निर्वाह	-7259
दनी	-7260
▁भक्त	-7261
▁राधा	-7262
▁खंडों	-7263
▁जर्मनी	-7264
▁मानवता	-7265
▁फ़ोल्डर	-7266
▁रिजर्व	-7267
▁सेक्शन	-7268
▁पार्श्व	-7269
▁शिक्षित	-7270
▁Ram	-7271
▁पीठा	-7272
्रीट	-7273
▁Sec	-7274
▁नक्	-7275
▁स्ने	-7276
▁बढ़ता	-7277
▁बिस्त	-7278
▁यातना	-7279
ीट	-7280
सास	-7281
ावर	-7282
▁गुम	-7283
▁स्न	-7284
▁काटने	-7285
▁वकालत	-7286
द्दी	-7287
हारी	-7288
▁सतत	-7289
▁जबरन	-7290
▁नस्ल	-7291
▁मिसाल	-7292
▁दूरस्थ	-7293
▁सड़कों	-7294
▁पूर्णता	-7295
▁माय	-7296
▁जाएँ	-7297
▁बेहद	-7298
▁बोतल	-7299
▁बनना	-7300
▁महाभारत	-7301
म्र	-7302
▁ar	-7303
▁बृ	-7304
स्राव	-7305
▁एनडी	-7306
▁दौड़	-7307
▁आंखों	-7308
▁दांत	-7309
▁सुलझा	-7310
▁अभिप्र	-7311
▁परिपक्व	-7312
रीश	-7313
विजन	-7314
▁VII	-7315
▁गर्व	-7316
▁विकि	-7317
▁रोशनी	-7318
▁पिट	-7319
▁मेघ	-7320
▁दोनो	-7321
कलापों	-7322
र्तनीय	-7323
▁इस्ती	-7324
▁सुविध	-7325
▁भावनाओं	-7326
▁उधारकर्ता	-7327
▁साहू	-7328
▁उत्पादक	-7329
▁किरायेदारी	-7330
▁फस	-7331
▁कहकर	-7332
▁प्रभार्य	-7333
शोथ	-7334
▁पवन	-7335
▁बडी	-7336
▁लाह	-7337
▁सर्	-7338
▁उकसा	-7339
▁गर्मी	-7340
सेट	-7341
▁आएगा	-7342
▁पचास	-7343
▁संस्	-7344
▁पैटर्न	-7345
▁उन्होने	-7346
▁किन्हीं	-7347
ेडकर	-7348
▁फैक्ट	-7349
▁सवालों	-7350
▁सशस्त्र	-7351
ँग	-7352
▁एकत्रित	-7353
ांप	-7354
जीवी	-7355
▁अंब	-7356
▁नाज	-7357
▁भोग	-7358
▁कृति	-7359
▁देनी	-7360
ूण	-7361
मंद	-7362
▁न्	-7363
▁पुल	-7364
▁गहरे	-7365
▁महानिदेशक	-7366
▁घाट	-7367
▁अभिलाभ	-7368
▁मिश्रण	-7369
▁धन्यवाद	-7370
wan	-7371
सूर	-7372
क्तिक	-7373
संरचना	-7374
▁दुर्गा	-7375
▁सम्बंध	-7376
▁लेनदारों	-7377
▁मुर	-7378
▁जमींद	-7379
▁राकेश	-7380
▁अभिनिर्	-7381
▁ग्ल	-7382
▁चुनें	-7383
▁निभाई	-7384
▁पालिसी	-7385
▁पीड़ितों	-7386
नलोड	-7387
▁चौहान	-7388
▁जवाहरलाल	-7389
▁निष्पक्षता	-7390
▁रोट	-7391
▁मजदूर	-7392
AP	-7393
CC	-7394
▁इम	-7395
ष्णा	-7396
▁ईरान	-7397
▁याची	-7398
▁उपयोगिता	-7399
▁काल्पनिक	-7400
▁परिवर्तनों	-7401
मोहन	-7402
▁आयी	-7403
▁ब्राउ	-7404
▁भगवान्	-7405
▁१८	-7406
▁परिदृश्य	-7407
▁मॉड	-7408
िमंडल	-7409
▁हजारों	-7410
▁मिश्रित	-7411
▁लक्ष्मण	-7412
▁ब्राह्मण	-7413
▁समुदायों	-7414
▁चुनौतियों	-7415
किट	-7416
▁अजय	-7417
▁भरत	-7418
▁आपसे	-7419
▁तिरु	-7420
▁संयम	-7421
▁बेंगल	-7422
▁भारती	-7423
▁जायेगी	-7424
▁छोड	-7425
▁हसन	-7426
▁कहाँ	-7427
▁विच्छेद	-7428
▁सूजन	-7429
▁सख्ती	-7430
श्रे	-7431
▁पुरुषों	-7432
▁यांत्रिक	-7433
यु	-7434
▁अविभ	-7435
▁गणेश	-7436
▁at	-7437
▁अच	-7438
▁कौर	-7439
्यवहार	-7440
▁नोटों	-7441
▁सार्थक	-7442
▁अधिवक्ताओं	-7443
राने	-7444
▁मंशा	-7445
वाहाटी	-7446
▁सौहार	-7447
▁वर्जित	-7448
▁समझाने	-7449
▁बंदरगाह	-7450
खाना	-7451
▁परेड	-7452
▁सत्यता	-7453
▁एजी	-7454
▁रोगों	-7455
▁ज्यादातर	-7456
द्म	-7457
▁एका	-7458
▁पुरूष	-7459
▁वाद्य	-7460
▁शान्त	-7461
▁कुलपति	-7462
▁विवरणी	-7463
▁तर्कसंगत	-7464
▁विद्वानों	-7465
जनों	-7466
▁माध	-7467
▁सिम	-7468
नियां	-7469
▁एकदम	-7470
▁मुगल	-7471
▁अंतर्वि	-7472
▁जरूरतों	-7473
▁गुवाहाटी	-7474
▁दूरसंचार	-7475
▁ग्रामीणों	-7476
ef	-7477
▁चक	-7478
▁बेचा	-7479
▁समता	-7480
▁पहुँचा	-7481
▁प्रतिरक्षा	-7482
ैण्ड	-7483
▁अविश्व	-7484
▁ऑपरेशन	-7485
▁तू	-7486
▁एंटी	-7487
▁गुरू	-7488
▁पूर्णतः	-7489
▁प्रभावशाली	-7490
खर	-7491
ापित	-7492
▁निवेशकों	-7493
▁निर्माताओं	-7494
▁सम्भव	-7495
▁अज्ञान	-7496
ेस	-7497
ंत्रण	-7498
▁इशारा	-7499
▁सौंपे	-7500
▁पुनर्मूल	-7501
ील्ड	-7502
▁गार्ड	-7503
▁आंकड़ों	-7504
सेस	-7505
▁टाटा	-7506
व्यापी	-7507
▁अवरोध	-7508
▁वक्तव्य	-7509
ेज़	-7510
्यांश	-7511
▁कालेज	-7512
▁डिस्ट	-7513
▁दिलचस्पी	-7514
ुख	-7515
ूरों	-7516
▁जानवरों	-7517
▁निकालना	-7518
▁अपराधियों	-7519
▁बाइ	-7520
▁स्वाय	-7521
▁इंडस्ट	-7522
▁निष्ठा	-7523
▁मार्केट	-7524
▁उपभोक्ताओं	-7525
एसई	-7526
▁अपन	-7527
▁बंगल	-7528
▁प्रतिफल	-7529
▁विशेषताओं	-7530
▁Go	-7531
छाड़	-7532
▁तालाब	-7533
▁उद्धरण	-7534
▁धारकों	-7535
▁डिज़ाइन	-7536
▁पढ	-7537
▁घुस	-7538
▁पेय	-7539
▁शेड	-7540
र्वेद	-7541
▁कॉरप	-7542
ायुक्त	-7543
▁होल्डिंग	-7544
कर्म	-7545
▁महल	-7546
▁चुकता	-7547
▁बाधित	-7548
परा	-7549
▁Bha	-7550
▁डाउनलोड	-7551
▁बिग	-7552
द्रिक	-7553
▁नियोजन	-7554
▁अदालतें	-7555
▁परिचालन	-7556
▁कार्यान्वित	-7557
चाप	-7558
विधा	-7559
▁बेस	-7560
▁अरुण	-7561
▁बढ़कर	-7562
▁तंबाकू	-7563
▁दुर्व्यवहार	-7564
▁ऋष	-7565
कलाप	-7566
▁हेल	-7567
▁एसडी	-7568
▁जुटा	-7569
▁निया	-7570
▁पीएम	-7571
▁ब्रे	-7572
▁महाप्र	-7573
▁गह	-7574
▁फो	-7575
▁शर	-7576
ापरी	-7577
▁जवाबी	-7578
▁लोकसभा	-7579
▁to	-7580
▁ओपी	-7581
▁बुल	-7582
▁लोहे	-7583
▁फ्रेम	-7584
▁सौहार्द	-7585
▁सुसज्जित	-7586
ढ़ा	-7587
▁एल्	-7588
▁बिट	-7589
▁रैंक	-7590
▁निरूप	-7591
▁आश्रित	-7592
▁बिस्तर	-7593
▁दोषसिद्धि	-7594
▁प्लास्टिक	-7595
ैम	-7596
▁Rai	-7597
▁लिपि	-7598
▁तुर्की	-7599
▁तप	-7600
ण्डिक	-7601
▁पिछड़े	-7602
तृ	-7603
▁लल	-7604
च्युटी	-7605
▁CC	-7606
▁घाटी	-7607
▁दार्	-7608
▁परिसी	-7609
▁लड़कियों	-7610
▁शल्य	-7611
▁सामु	-7612
▁गवर्नर	-7613
▁पुनर्मूल्यांकन	-7614
डू	-7615
ast	-7616
कक्ष	-7617
▁मेज	-7618
▁ख्या	-7619
▁विवश	-7620
▁पार्स	-7621
▁सोचते	-7622
▁शाखाओं	-7623
▁दुकानों	-7624
▁विशुद्ध	-7625
▁आईओ	-7626
khand	-7627
▁गद्य	-7628
▁ऑडियो	-7629
▁गोविंद	-7630
▁प्रताप	-7631
ौज	-7632
विड	-7633
▁अमल	-7634
▁उपरा	-7635
▁चौथे	-7636
▁हाथी	-7637
वास्तव	-7638
▁टिकाऊ	-7639
▁सम्पर्क	-7640
्ण	-7641
▁चमक	-7642
▁एमपी	-7643
▁कोमल	-7644
▁बंबई	-7645
DD	-7646
▁नाय	-7647
▁एग्जाम	-7648
▁बढ़ाकर	-7649
▁उत्तीर्ण	-7650
▁पट्टेदार	-7651
▁बोलीदाता	-7652
▁Ka	-7653
▁समू	-7654
नेशनल	-7655
▁सर्ज	-7656
▁तृतीय	-7657
▁प्रजाति	-7658
▁अविश्वसनीय	-7659
वाना	-7660
▁सती	-7661
▁मजदूरों	-7662
▁पर्यवेक्षण	-7663
पुरा	-7664
▁तीर्थ	-7665
्थान	-7666
▁ग्या	-7667
▁सिन्हा	-7668
▁ग्रेच्युटी	-7669
▁प्रणालियों	-7670
▁मृ	-7671
▁पड़ने	-7672
▁पढ़ना	-7673
▁वयस्क	-7674
▁प्रतिरोध	-7675
▁मुख्यालय	-7676
▁अंग्रेजों	-7677
▁मुख्यमंत्री	-7678
्टे	-7679
▁असल	-7680
▁उदय	-7681
▁गुट	-7682
▁गौतम	-7683
▁भाइयों	-7684
▁श्रीवास्तव	-7685
▁प्रतिबद्धता	-7686
ंसक	-7687
ावी	-7688
▁चूँ	-7689
▁बलि	-7690
▁क्रांतिक	-7691
▁प्रोजेक्ट	-7692
बंद	-7693
▁एटी	-7694
agar	-7695
क्की	-7696
▁घाय	-7697
ख्यान	-7698
▁अमृत	-7699
▁दार्शन	-7700
▁गांधीजी	-7701
ियोग्राफी	-7702
▁उत्पत्ति	-7703
रेन	-7704
▁IO	-7705
▁मील	-7706
▁जबरद	-7707
▁मुना	-7708
▁अनुया	-7709
▁अस्थि	-7710
▁कीटों	-7711
▁संरक्षक	-7712
▁रिश्तेदारों	-7713
▁अभिनिर्धारित	-7714
तें	-7715
▁रोल	-7716
▁मारे	-7717
▁विजे	-7718
▁शासक	-7719
▁टेंडर	-7720
▁सम्मन	-7721
▁स्क्र	-7722
▁पीठासीन	-7723
▁उपक्रमों	-7724
र्तित	-7725
▁अवार्ड	-7726
▁विनिया	-7727
▁तार्किक	-7728
▁अवसंरचना	-7729
▁ST	-7730
▁अक्षर	-7731
्रदायिक	-7732
ोधन	-7733
▁घन	-7734
िप्ट	-7735
▁वॉल	-7736
▁छाती	-7737
▁निका	-7738
▁संगत	-7739
▁गुजरने	-7740
▁विपक्ष	-7741
▁स्त्रियों	-7742
▁रिवा	-7743
▁कराधान	-7744
▁योजनाएं	-7745
▁कन्व	-7746
▁जीवों	-7747
▁मांगा	-7748
▁निरपेक्ष	-7749
▁प्रतिपूर्ति	-7750
कू	-7751
यंती	-7752
▁रूस	-7753
▁चलाई	-7754
▁शुरूआ	-7755
▁घायलों	-7756
▁Prakhand	-7757
▁दुर्भावना	-7758
तो	-7759
मुच	-7760
शित	-7761
▁MP	-7762
द्वीप	-7763
▁टैंक	-7764
▁महतो	-7765
▁फसलों	-7766
▁वैदिक	-7767
▁सभापति	-7768
▁सेंट्रल	-7769
्सी	-7770
ड़ना	-7771
न्धन	-7772
▁सीएस	-7773
▁परिधि	-7774
▁कारखाने	-7775
▁परिसमापक	-7776
▁अप्रासंगिक	-7777
परि	-7778
▁Ra	-7779
▁कुटु	-7780
▁वादा	-7781
▁हाइड	-7782
▁स्वाधीन	-7783
▁पारदर्शिता	-7784
▁वैज्ञानिकों	-7785
वेश	-7786
ोरा	-7787
▁एह	-7788
▁आवि	-7789
▁स्तन	-7790
▁गर्भा	-7791
▁अपेक्षाकृत	-7792
▁अपरिव	-7793
▁दिनेश	-7794
▁नामांकित	-7795
▁सम्बन्धित	-7796
ED	-7797
सीम	-7798
▁An	-7799
▁चर	-7800
ांतर	-7801
▁अहि	-7802
▁ओपन	-7803
▁ग्व	-7804
ोलॉजी	-7805
▁इस्प	-7806
▁सचिवालय	-7807
▁विचारधारा	-7808
िंदर	-7809
▁अरो	-7810
▁गोर	-7811
▁लगाकर	-7812
▁लेखकों	-7813
▁अहं	-7814
▁आँख	-7815
न्त्र	-7816
▁तत्स	-7817
▁फर्जी	-7818
▁रिज़र्व	-7819
▁संस्थाप	-7820
▁स्वायत्त	-7821
▁माध्यस्थम्	-7822
▁बाप	-7823
▁हॉल	-7824
▁भाष्	-7825
▁गिराव	-7826
▁चूँकि	-7827
▁सहभाग	-7828
ंगों	-7829
▁चिर	-7830
▁स्मरण	-7831
▁सीमेंट	-7832
डन	-7833
▁रन	-7834
▁डिट	-7835
▁पाये	-7836
▁पहचाना	-7837
▁आखिरकार	-7838
▁विवेकाधीन	-7839
▁प्रासंगिकता	-7840
▁अश्व	-7841
▁दिखाता	-7842
▁उपाध्यक्ष	-7843
वीय	-7844
▁मठ	-7845
वर्ष	-7846
▁बडे	-7847
▁पीटा	-7848
धिकारी	-7849
▁व्याख्याता	-7850
JC	-7851
▁पन	-7852
▁कॉलम	-7853
▁अग्नि	-7854
▁प्लॉट	-7855
▁राष्ट्रों	-7856
▁शेयरधारकों	-7857
▁ऊतक	-7858
▁खदान	-7859
▁झूठी	-7860
▁प्रॉ	-7861
▁व्यथित	-7862
▁मित्रों	-7863
▁व्युत्पन्न	-7864
राग	-7865
▁AG	-7866
▁CH	-7867
▁बुध	-7868
▁मैन	-7869
▁अद्व	-7870
▁क्ले	-7871
▁चंडी	-7872
▁वन्य	-7873
▁लिखना	-7874
▁उद्यमों	-7875
▁मैच	-7876
▁आर्य	-7877
▁जगदी	-7878
▁कार्बन	-7879
▁सामान्यतया	-7880
ंजस्य	-7881
▁कुशलता	-7882
▁लाभांश	-7883
▁दार्शनिक	-7884
▁कण	-7885
सेना	-7886
लिस्ट	-7887
▁ध्वज	-7888
▁लौटने	-7889
▁श्याम	-7890
▁चौड़ाई	-7891
▁एग्जामिनेशन	-7892
ओएस	-7893
▁वाम	-7894
ैक्चर	-7895
्रमिक	-7896
क्रामक	-7897
▁पारिश	-7898
▁गिरावट	-7899
▁टाइम्स	-7900
▁लाभकारी	-7901
▁राजकुमार	-7902
त्स	-7903
पाई	-7904
▁हमे	-7905
▁सच्चे	-7906
▁गर्भपात	-7907
▁अग्रेषित	-7908
▁आपत्तियां	-7909
▁प्रयोक्ता	-7910
बिल	-7911
सरा	-7912
शाही	-7913
ारायण	-7914
▁आईडी	-7915
▁डिजिटल	-7916
CT	-7917
लि	-7918
दर्शक	-7919
▁एस्टेट	-7920
▁टुकड़ा	-7921
▁गरि	-7922
▁एसआर	-7923
▁आभूषण	-7924
▁कमांड	-7925
▁ज़मीन	-7926
▁आस्तियों	-7927
▁संबद्धता	-7928
ंचल	-7929
▁उलट	-7930
▁आजीव	-7931
▁स्टार	-7932
▁संस्थागत	-7933
ॉरिटी	-7934
▁पढ़ाई	-7935
▁आकांक्षा	-7936
▁छेड़छाड़	-7937
▁शास्त्री	-7938
▁सांविधिक	-7939
सो	-7940
मिन	-7941
▁घुट	-7942
▁वेश	-7943
▁किरण	-7944
▁ब्लैक	-7945
▁संविद	-7946
▁सारणी	-7947
▁बैठकों	-7948
▁अपशिष्ट	-7949
▁प्रोटोक	-7950
▁बक	-7951
ूनों	-7952
ma	-7953
▁बंदी	-7954
▁लड़ा	-7955
▁कनेक्ट	-7956
▁सूचनाओं	-7957
▁लक्ष्यों	-7958
ितु	-7959
▁पहने	-7960
▁मूर्	-7961
▁अर्जन	-7962
▁इस्पात	-7963
▁ससुराल	-7964
▁चाहूंगा	-7965
▁लाभार्थी	-7966
▁Sh	-7967
▁अंडर	-7968
▁अलगाव	-7969
▁चिट	-7970
▁गिना	-7971
▁देखो	-7972
▁आस्था	-7973
▁उठाते	-7974
▁संवेद	-7975
▁विनियामक	-7976
▁चट	-7977
▁खबर	-7978
▁वैय	-7979
▁अफगान	-7980
▁जयंती	-7981
▁मुफ्त	-7982
▁विघटन	-7983
▁मुकाबले	-7984
▁समकालीन	-7985
▁DI	-7986
▁लीग	-7987
▁सफाई	-7988
▁सिने	-7989
▁मिलना	-7990
▁वेंकट	-7991
▁सचमुच	-7992
▁बल्लेबाज	-7993
▁दायरा	-7994
▁दाण्डिक	-7995
▁संवेदनशील	-7996
▁पारिश्रमिक	-7997
▁जीओ	-7998
▁अधिश	-7999
▁जगदीश	-8000
▁दिखाते	-8001
▁नदियों	-8002
▁निपटाने	-8003
▁परिकल्पित	-8004
ैस	-8005
▁षड	-8006
ाराम	-8007
▁ताज	-8008
▁गोरा	-8009
▁टर्मिनल	-8010
▁सामंजस्य	-8011
war	-8012
▁एन्	-8013
▁चरस	-8014
▁हिल	-8015
▁चट्ट	-8016
▁सूरत	-8017
▁बढ़ाना	-8018
▁कोर	-8019
▁पढ़ता	-8020
श्रेष्ठ	-8021
▁अनुप्रयोगों	-8022
ँस	-8023
▁संकलन	-8024
▁Raipur	-8025
▁अथॉरिटी	-8026
▁गले	-8027
▁बसव	-8028
▁किंग	-8029
▁सहेज	-8030
▁जानना	-8031
▁दिसम्बर	-8032
▁नरेंद्र	-8033
▁विनिधान	-8034
▁विन्यास	-8035
▁निवासियों	-8036
OM	-8037
एटी	-8038
जान	-8039
▁वित्तप	-8040
▁कंट्रोल	-8041
▁मौद्रिक	-8042
जाल	-8043
कारा	-8044
▁परत	-8045
▁पेर	-8046
▁बड़	-8047
▁मित	-8048
▁शेर	-8049
▁नंगे	-8050
▁माँग	-8051
▁गरिमा	-8052
▁पक्षी	-8053
▁अत्याचार	-8054
ेग	-8055
चिक	-8056
▁बिस	-8057
▁बढ़ी	-8058
▁विधा	-8059
▁सम्रा	-8060
▁जाएंगी	-8061
▁पार्सल	-8062
जो	-8063
पूरक	-8064
▁मज़	-8065
▁सुद	-8066
▁ईमेल	-8067
▁गिनती	-8068
रिवर्तन	-8069
▁कठिनाइयों	-8070
बेस	-8071
्रू	-8072
▁ठहर	-8073
▁अंडे	-8074
▁डीआर	-8075
▁ज़रूर	-8076
▁हल्के	-8077
▁यूजीसी	-8078
एमई	-8079
न्ने	-8080
▁आईं	-8081
▁घों	-8082
▁ढेर	-8083
दायिक	-8084
ोरिया	-8085
▁वैसा	-8086
▁निकलता	-8087
▁जायेंगे	-8088
AS	-8089
est	-8090
▁झु	-8091
ोनें	-8092
▁सूरज	-8093
▁सौंद	-8094
▁ग्रन्थ	-8095
रीब	-8096
▁उत्	-8097
▁डिली	-8098
▁बाज़	-8099
▁मानस	-8100
▁तुच्छ	-8101
▁दुर्ग	-8102
▁सृजित	-8103
▁वनस्पति	-8104
नीत	-8105
स्कर	-8106
▁रेट	-8107
▁नर्म	-8108
▁सकने	-8109
▁हुईं	-8110
▁पंजाबी	-8111
▁एक्सप्रेस	-8112
क्तता	-8113
▁आजाद	-8114
▁क्रय	-8115
▁इंदिरा	-8116
▁नवम्बर	-8117
▁आजीविका	-8118
▁आश्वस्त	-8119
बरा	-8120
▁पाग	-8121
▁मादा	-8122
▁वैष्ण	-8123
▁श्वेत	-8124
▁मुख्यतः	-8125
▁वीडियोग्राफी	-8126
BI	-8127
ल्लू	-8128
▁गंध	-8129
▁टीका	-8130
▁अपूर्ण	-8131
▁अभिभाव	-8132
▁वाक्यांश	-8133
▁MD	-8134
▁बट	-8135
▁सज	-8136
▁मदन	-8137
▁निबंध	-8138
▁वृत्त	-8139
▁शुरूआत	-8140
▁स्पर्श	-8141
▁मांसपेश	-8142
▁संकल्पना	-8143
▁पुस्तकालय	-8144
तृक	-8145
ावन	-8146
▁वाज	-8147
्रामक	-8148
▁मोदी	-8149
▁लेगा	-8150
▁स्नेह	-8151
▁ब्रांड	-8152
कोष	-8153
▁मक	-8154
▁कोण	-8155
तन्त्र	-8156
▁कनाडा	-8157
▁जिसको	-8158
▁अनुदेश	-8159
▁स्टांप	-8160
▁कार्यकर्ता	-8161
म्बा	-8162
रियर	-8163
▁टेप	-8164
▁मक्	-8165
▁संविदात्मक	-8166
विट	-8167
▁वध	-8168
▁सैक	-8169
सूत्र	-8170
हीनता	-8171
▁मनोज	-8172
▁स्पॉट	-8173
▁एससीआर	-8174
▁ट्रस्टी	-8175
▁प्रतियों	-8176
▁दंत	-8177
▁बेची	-8178
▁ग्रीन	-8179
▁अर्जुन	-8180
▁ग्यारह	-8181
ूर्व	-8182
▁आबंटन	-8183
▁दृढ़ता	-8184
▁रामायण	-8185
▁बाध्यता	-8186
▁आयुर्वेद	-8187
▁रिपोर्टों	-8188
▁बाबा	-8189
▁संको	-8190
▁ध्वस्त	-8191
▁निरर्थ	-8192
▁प्रक्रम	-8193
ff	-8194
वाँ	-8195
गांठ	-8196
▁कोने	-8197
▁निकला	-8198
▁पुस्तकें	-8199
नस	-8200
▁SL	-8201
त्रि	-8202
्षेप	-8203
▁गला	-8204
▁दीप	-8205
▁विड	-8206
▁प्रभु	-8207
▁अधिनियमन	-8208
ास्प	-8209
▁Exs	-8210
▁थाना	-8211
▁हर्ष	-8212
▁विकासशील	-8213
▁भागीदारों	-8214
sad	-8215
मिया	-8216
▁पान	-8217
▁माहौल	-8218
▁आकर्षक	-8219
▁प्राइमा	-8220
ock	-8221
▁शार	-8222
▁सास	-8223
मूल्य	-8224
▁श्रो	-8225
▁असाइन	-8226
▁बढ़ना	-8227
▁चित्रित	-8228
▁संतुलित	-8229
▁Resident	-8230
▁जागरूकता	-8231
▁सर्वश्रेष्ठ	-8232
शुदा	-8233
▁पठन	-8234
▁इंस्टीट	-8235
▁देवताओं	-8236
▁प्रतिस्थापन	-8237
ath	-8238
ंडर	-8239
गरी	-8240
राई	-8241
▁जानती	-8242
▁लिखते	-8243
▁लिप्त	-8244
▁वारिस	-8245
▁अभ्याव	-8246
▁चिल्ला	-8247
▁बिर	-8248
▁नरेश	-8249
▁अनन्त	-8250
▁रूपांतरण	-8251
▁पर्यावरणीय	-8252
▁बाढ़	-8253
▁कुरान	-8254
▁संयोग	-8255
▁क्लर्क	-8256
▁न्यायशास्त्र	-8257
१९	-8258
स्तु	-8259
▁चौक	-8260
▁बिन	-8261
▁सिग	-8262
क़्ति	-8263
▁पैतृक	-8264
▁अभिन्न	-8265
▁कृष्णा	-8266
▁वांछित	-8267
▁संस्कार	-8268
▁संग्रहालय	-8269
▁सहयोगियों	-8270
नम	-8271
▁बटन	-8272
▁कन्न	-8273
▁थोड़े	-8274
▁निकले	-8275
▁अकादमी	-8276
▁यथोचित	-8277
▁पारदर्शी	-8278
▁हिस्सेदारी	-8279
ht	-8280
▁ऊँ	-8281
▁लोप	-8282
▁घृणा	-8283
कोत्तर	-8284
▁अपनाए	-8285
ee	-8286
दाई	-8287
लीन	-8288
▁छीन	-8289
▁आगामी	-8290
बेन	-8291
▁तारीखों	-8292
▁प्रचालन	-8293
▁समस्याएं	-8294
▁सामुदायिक	-8295
▁ढल	-8296
▁ड्राइविंग	-8297
ेत	-8298
ट्स	-8299
मंड	-8300
▁कराए	-8301
▁अनुकरण	-8302
▁डिप्टी	-8303
▁दिखाना	-8304
▁रूपरेखा	-8305
▁विदेशों	-8306
▁प्रक्षेप	-8307
▁इंटरनेशनल	-8308
▁सिफारिशें	-8309
▁आत्मविश्वास	-8310
ga	-8311
बान	-8312
▁एक्स्ट	-8313
▁पूर्वगामी	-8314
िडे	-8315
्को	-8316
क्चर	-8317
▁आशी	-8318
▁हनु	-8319
▁कृपा	-8320
▁उत्सुक	-8321
▁संग्रहण	-8322
▁टॉ	-8323
ाग्र	-8324
▁एजु	-8325
▁फेफ	-8326
न्नाथ	-8327
▁एसएच	-8328
▁जलने	-8329
▁ट्रक	-8330
▁पुरी	-8331
▁बेगम	-8332
▁सिंगा	-8333
्रेताओं	-8334
▁पकड़ने	-8335
▁प्रोटीन	-8336
▁उत्कृष्टता	-8337
▁Bl	-8338
बर्ट	-8339
बीसी	-8340
ानाथ	-8341
▁चिन	-8342
▁हेर	-8343
▁मूर्त	-8344
▁लम्बे	-8345
▁सैनिकों	-8346
वैज्ञानिक	-8347
PS	-8348
ांडिक	-8349
▁नकार	-8350
▁सन्न	-8351
▁उन्नयन	-8352
▁प्राणी	-8353
डो	-8354
▁ऋणों	-8355
▁एसएस	-8356
▁कबीर	-8357
▁आश्रय	-8358
▁भरोसे	-8359
▁अभिकरण	-8360
▁जटिलता	-8361
ow	-8362
▁पाना	-8363
▁दर्जा	-8364
▁धब्बे	-8365
▁प्रतिनियुक्ति	-8366
पड़ी	-8367
▁यान	-8368
ोग्राफ	-8369
▁पैरों	-8370
▁स्नातकोत्तर	-8371
▁राज्यक्षेत्र	-8372
▁नवीनीकरण	-8373
na	-8374
▁बचे	-8375
▁विट	-8376
▁अर्थों	-8377
▁वांछनीय	-8378
वर्	-8379
▁परा	-8380
▁पागल	-8381
▁सीपी	-8382
▁पराजित	-8383
▁सौंदर्य	-8384
▁संप्रदाय	-8385
न्नी	-8386
▁यहू	-8387
▁केबल	-8388
नाइटेड	-8389
▁निकासी	-8390
▁चुनावों	-8391
घन	-8392
▁तंग	-8393
▁कस्ट	-8394
▁घटित	-8395
▁टेक्न	-8396
▁व्यास	-8397
▁प्रामा	-8398
▁भ्रामक	-8399
ोडा	-8400
▁पठ	-8401
▁पुणे	-8402
▁तेलंग	-8403
▁डाक्टर	-8404
▁विडियो	-8405
▁संगणना	-8406
्रेषण	-8407
ियुक्त	-8408
▁इन्द्र	-8409
▁देखरेख	-8410
▁किरायेदारों	-8411
ंटा	-8412
जारी	-8413
▁मेहन	-8414
▁लाखों	-8415
▁धाराओं	-8416
▁नवीनतम	-8417
▁तुम्हारी	-8418
EL	-8419
▁Ma	-8420
▁हंस	-8421
▁ऊंची	-8422
▁संगणक	-8423
▁संचित	-8424
▁जगन्नाथ	-8425
▁नियमावली	-8426
थाम	-8427
भाषण	-8428
ॉर्म	-8429
ास्पद	-8430
▁नियमन	-8431
▁लेखापरी	-8432
▁संग्राम	-8433
षक	-8434
▁ठहराए	-8435
▁दवाओं	-8436
र्थियों	-8437
▁परंपरागत	-8438
▁असु	-8439
▁अखंड	-8440
▁ओडिश	-8441
▁करों	-8442
▁अन्तिम	-8443
▁घोषणाओं	-8444
▁सितम्बर	-8445
▁वसीयतकर्ता	-8446
▁शांतिपूर्ण	-8447
थिल	-8448
दूत	-8449
▁भीम	-8450
▁साई	-8451
▁कीटनाशक	-8452
▁डिलीवरी	-8453
▁उत्तेजित	-8454
▁Prasad	-8455
▁उन्नति	-8456
▁कानपुर	-8457
▁नियामक	-8458
▁भिन्नता	-8459
रीन	-8460
सायी	-8461
▁सिख	-8462
▁समकक्ष	-8463
▁फ्रैक्चर	-8464
▁अभ्यावेदन	-8465
▁कों	-8466
▁शिम	-8467
▁तालुका	-8468
▁दांडिक	-8469
▁पहुँचे	-8470
▁कॉपीराइट	-8471
▁सुविधाजनक	-8472
▁इंच	-8473
▁आपदा	-8474
▁इसको	-8475
▁डेवलप	-8476
▁बेकार	-8477
▁कंपनियां	-8478
▁पुनर्निर्	-8479
ंगन	-8480
ष्टा	-8481
▁पदा	-8482
▁ध्रु	-8483
▁रोगियों	-8484
▁रक्तस्राव	-8485
किम	-8486
▁बं	-8487
▁भै	-8488
▁वाई	-8489
▁हरा	-8490
▁क़्यों	-8491
▁पालिका	-8492
▁संवर्ग	-8493
▁सिंगापुर	-8494
हाल	-8495
न्तर	-8496
लैंड	-8497
्वरी	-8498
▁आदर	-8499
▁छेद	-8500
▁जस्ट	-8501
▁ओडिशा	-8502
▁मेहता	-8503
▁संकोच	-8504
▁स्वप्न	-8505
▁बेंगलुरु	-8506
ांट	-8507
शंकर	-8508
▁आगमन	-8509
▁डाली	-8510
▁उदासीन	-8511
▁उपग्रह	-8512
▁अकादमिक	-8513
▁शिकायतें	-8514
▁इंजीनियरी	-8515
▁कोयले	-8516
▁कवियों	-8517
▁उच्चारण	-8518
चु	-8519
१क	-8520
▁दीपक	-8521
▁कामों	-8522
▁असफलता	-8523
▁अधिवेशन	-8524
▁u	-8525
िटन	-8526
वाड़	-8527
▁असुर	-8528
▁गुणा	-8529
▁वरन्	-8530
▁भागने	-8531
▁कनिष्ठ	-8532
MC	-8533
गीर	-8534
▁एने	-8535
▁मण्ड	-8536
▁वासी	-8537
▁ट्रेन	-8538
▁विचलन	-8539
▁रचनाओं	-8540
▁चंडीगढ़	-8541
▁सार्वभौमिक	-8542
रेशन	-8543
शब्द	-8544
ासित	-8545
द्धार	-8546
▁आगरा	-8547
▁समाह	-8548
▁मार्ज	-8549
▁सावधान	-8550
▁तस्वीरें	-8551
वट	-8552
ंडे	-8553
डीएस	-8554
बंधक	-8555
▁रवाना	-8556
▁सिरों	-8557
▁ऑपरेटर	-8558
▁तेलंगाना	-8559
ापुर	-8560
ार्म	-8561
▁ह्र	-8562
्रेटर	-8563
▁जंगली	-8564
▁जिक्र	-8565
▁तस्वी	-8566
▁प्रां	-8567
▁प्रतिबिंबित	-8568
कन	-8569
ाध	-8570
बोध	-8571
▁आदत	-8572
▁ऊंचे	-8573
▁दबाया	-8574
▁अंतरित	-8575
▁क्रिस्ट	-8576
▁राशियों	-8577
▁बसे	-8578
चन्द्र	-8579
▁प्रोफ	-8580
▁शुक्ला	-8581
▁फोरेंसिक	-8582
▁विवेकपूर्ण	-8583
ॉड	-8584
▁पिल	-8585
▁रेत	-8586
▁सैय	-8587
▁जैविक	-8588
▁अर्हता	-8589
▁सम्राट	-8590
▁उत्पादकता	-8591
एक	-8592
ुरत	-8593
▁आइए	-8594
▁सवार	-8595
▁अकेला	-8596
▁हड़ताल	-8597
▁क्रियान्वयन	-8598
▁गेह	-8599
▁नमक	-8600
▁तात्प	-8601
▁फांसी	-8602
▁यहूदी	-8603
रोल	-8604
▁फू	-8605
ुपात	-8606
▁बडा	-8607
▁रोकथाम	-8608
रहित	-8609
▁जीआर	-8610
▁आकृति	-8611
▁बिलों	-8612
▁लगाता	-8613
▁तालिका	-8614
▁अनुज्ञा	-8615
▁मुहम्मद	-8616
▁प्रतिवर्ष	-8617
▁मंत्रियों	-8618
▁नाव	-8619
▁नोक	-8620
स्तीन	-8621
▁कैदी	-8622
▁बहुल	-8623
▁हटाए	-8624
▁कर्ता	-8625
▁सिंगल	-8626
▁विचित्र	-8627
▁पूर्णतया	-8628
▁प्रामाणिक	-8629
म्य	-8630
ुर्द	-8631
ूँगा	-8632
▁अनंत	-8633
▁मोती	-8634
▁रसोई	-8635
▁रहीं	-8636
▁अव्यव	-8637
▁आवाज़	-8638
▁संघीय	-8639
क्तियों	-8640
▁सुधारों	-8641
▁ढूंढ	-8642
▁रखेगा	-8643
▁कीमतों	-8644
▁प्राधिकारियों	-8645
ोदय	-8646
▁श्ल	-8647
बार्ड	-8648
▁कबूल	-8649
▁अवलंब	-8650
▁दिखाएँ	-8651
▁निवारक	-8652
दह	-8653
रिफ	-8654
▁घड़ी	-8655
▁स्था	-8656
सीएल	-8657
▁कपड़ा	-8658
▁स्वाद	-8659
▁प्लांट	-8660
▁समावेशी	-8661
TC	-8662
ज़ार	-8663
रानी	-8664
▁गिरा	-8665
स्तीनी	-8666
▁अभिनय	-8667
▁अरोड़ा	-8668
▁इलाकों	-8669
▁कलाकार	-8670
▁निषिद्ध	-8671
▁वैयक्तिक	-8672
ँव	-8673
गोश	-8674
ियस	-8675
▁बर्फ	-8676
▁अपितु	-8677
▁करीबी	-8678
▁प्राप	-8679
▁श्रेय	-8680
▁अनिवासी	-8681
▁निरर्थक	-8682
▁शुरुआती	-8683
IM	-8684
र्फ़	-8685
ब्ध	-8686
ंकित	-8687
ायती	-8688
▁देह	-8689
▁तुमने	-8690
▁दलीलें	-8691
▁प्रेषण	-8692
▁कविताओं	-8693
▁परिशिष्ट	-8694
▁आधी	-8695
▁जोशी	-8696
▁अनुमत	-8697
इंट	-8698
विन	-8699
ोषक	-8700
▁PR	-8701
▁चुक	-8702
▁छान	-8703
▁रूम	-8704
▁एण्ड	-8705
▁सबके	-8706
▁आश्रम	-8707
▁दरबार	-8708
▁रणनीति	-8709
▁पत्राचार	-8710
▁MC	-8711
नीतिक	-8712
▁असंव	-8713
▁आघात	-8714
▁समित	-8715
▁पिस्त	-8716
▁बहाने	-8717
▁मांगे	-8718
▁दंडात्मक	-8719
▁अधिनिर्णय	-8720
▁विशेषज्ञता	-8721
ap	-8722
आउट	-8723
लोनी	-8724
▁कैम	-8725
▁झिल	-8726
▁सोचने	-8727
▁आकर्षण	-8728
▁प्रसारित	-8729
▁आचार	-8730
▁कर्ज	-8731
▁एपीपी	-8732
▁मैसूर	-8733
▁आनुवंश	-8734
▁साइकिल	-8735
▁आदिवासी	-8736
▁सम्पन्न	-8737
▁महाविद्यालय	-8738
मेह	-8739
ामिन	-8740
▁चलती	-8741
्रिक्स	-8742
▁मापने	-8743
▁अवशोषण	-8744
▁विनम्र	-8745
▁क्रांतिकारी	-8746
▁ढाल	-8747
▁लाहौर	-8748
▁वृत्ति	-8749
▁विधियां	-8750
▁उल्लेखित	-8751
▁अंग्रेज़ी	-8752
▁न्यायोचित	-8753
खण्ड	-8754
▁अनुबंधों	-8755
▁अफ़	-8756
▁भगत	-8757
▁सादे	-8758
▁अभिभाषण	-8759
▁सांख्यिकी	-8760
लाश	-8761
▁व्	-8762
▁परित	-8763
▁क्रिम	-8764
▁पेड़ों	-8765
▁सीआईटी	-8766
▁स्वदेश	-8767
▁गणतंत्र	-8768
▁महेंद्र	-8769
▁उन्होनें	-8770
▁स्वाधीनता	-8771
▁थै	-8772
▁डंप	-8773
▁देहा	-8774
▁मंडप	-8775
▁महाक	-8776
▁सरोज	-8777
▁आखिरी	-8778
▁उत्सव	-8779
▁स्कोर	-8780
▁स्थूल	-8781
▁गुजरना	-8782
▁मिथ्या	-8783
ज़े	-8784
ायन	-8785
▁टेल	-8786
▁फर्	-8787
▁अभिव	-8788
▁फायदे	-8789
▁ड्रग्स	-8790
▁सुन्दर	-8791
▁उदाहरणों	-8792
▁तस्वीरों	-8793
▁तात्पर्य	-8794
वृ	-8795
▁छोर	-8796
▁यों	-8797
▁लूट	-8798
▁अल्ट	-8799
▁जानवर	-8800
▁सदनों	-8801
▁इन्हीं	-8802
▁खटखटाया	-8803
▁व्याख्यान	-8804
▁पंख	-8805
▁आवरण	-8806
▁गोवा	-8807
▁आमदनी	-8808
▁शॉर्ट	-8809
▁प्रकरण	-8810
▁नाबार्ड	-8811
▁आश्चर्यजनक	-8812
ंशी	-8813
▁रथ	-8814
▁छिपा	-8815
▁एग्री	-8816
▁वॉल्यूम	-8817
झी	-8818
▁भट्ट	-8819
▁बलराम	-8820
▁बेदखल	-8821
▁रूपये	-8822
▁फिलीस्तीनी	-8823
रोधी	-8824
िडेविट	-8825
▁पिस्तौल	-8826
▁अयोग्यता	-8827
▁स्वच्छता	-8828
▁विक्रेताओं	-8829
लेखन	-8830
लियों	-8831
ुक़्त	-8832
▁किस्त	-8833
▁चुनने	-8834
▁रांची	-8835
▁समामेलन	-8836
▁विशेषताएं	-8837
टरी	-8838
▁RP	-8839
▁फा	-8840
▁लड	-8841
▁कॉम	-8842
▁शाल	-8843
▁आरआई	-8844
▁Block	-8845
▁संदत्त	-8846
▁अक्षमता	-8847
ग़	-8848
झे	-8849
▁ः	-8850
ect	-8851
कना	-8852
पार	-8853
▁गठ	-8854
ड़की	-8855
▁चौकी	-8856
▁यहीं	-8857
▁लेवी	-8858
▁सीएम	-8859
▁उत्तरा	-8860
▁दर्शाती	-8861
▁एफिडेविट	-8862
▁यूनाइटेड	-8863
▁जॉन	-8864
▁नकली	-8865
▁स्टै	-8866
टीए	-8867
तिया	-8868
▁माफ	-8869
▁औषधि	-8870
▁खरीदे	-8871
ार्टमेंट	-8872
▁डॉक्टरों	-8873
ch	-8874
लेस	-8875
आईएल	-8876
जातीय	-8877
▁शर्म	-8878
▁स्या	-8879
▁उपदेश	-8880
▁असंतोष	-8881
▁कब्ज़ा	-8882
मुखी	-8883
ृश्य	-8884
▁संभ	-8885
▁ईस्ट	-8886
▁समाहित	-8887
▁मेट्रोप	-8888
ani	-8889
▁VI	-8890
एफसी	-8891
बाबू	-8892
▁सद्भावना	-8893
▁आर्बिट्रेटर	-8894
▁बढा	-8895
▁IANo	-8896
▁स्टोर	-8897
▁अवधारण	-8898
▁एशियाई	-8899
▁इस्तीफा	-8900
▁कम्प्यूटर	-8901
ओसी	-8902
राक	-8903
रोग	-8904
्वित	-8905
▁डीए	-8906
▁झटका	-8907
▁शर्ट	-8908
▁स्पी	-8909
▁कारगर	-8910
▁आचार्य	-8911
▁बहिष्कार	-8912
▁मध्यस्थों	-8913
▁नियुक्तियां	-8914
▁भिन्	-8915
▁कराता	-8916
▁बैठने	-8917
▁नवान्वेष	-8918
▁विरोधाभासी	-8919
em	-8920
und	-8921
ृंग	-8922
तियां	-8923
▁उपनि	-8924
▁गोला	-8925
▁बोला	-8926
▁नमूनों	-8927
▁अध्यापक	-8928
▁उपनिवेश	-8929
▁विवाहित	-8930
▁परिस्थितियाँ	-8931
तूस	-8932
रण्य	-8933
▁फरार	-8934
▁महास	-8935
▁लोगो	-8936
▁मराठी	-8937
▁पक्षियों	-8938
▁लोकायुक्त	-8939
▁प्रतिभूतियों	-8940
ज़न	-8941
मिल	-8942
चेरी	-8943
िस्टर	-8944
्साइड	-8945
▁फर्क	-8946
▁बचपन	-8947
▁प्रवी	-8948
व्यवहार	-8949
▁दोबारा	-8950
▁माइक्रो	-8951
▁व्याकरण	-8952
ेरा	-8953
▁नु	-8954
▁तिलक	-8955
▁सिगरेट	-8956
▁जनजातियों	-8957
▁एमएम	-8958
▁द्रव	-8959
▁हिला	-8960
नेश्वर	-8961
▁देखिए	-8962
▁भरपूर	-8963
▁मूत्र	-8964
▁अंगूठे	-8965
▁पूंजीगत	-8966
▁परिसमापन	-8967
all	-8968
▁बाब	-8969
▁मत्स	-8970
▁उठाकर	-8971
▁ग्वाल	-8972
▁निधियों	-8973
्टन	-8974
▁फेड	-8975
िवेदी	-8976
▁अरबी	-8977
▁आजकल	-8978
▁कंधे	-8979
▁सौदे	-8980
▁पकड़ा	-8981
▁लड़का	-8982
▁शिष्ट	-8983
▁कारतूस	-8984
▁साथियों	-8985
▁बांग्लादेश	-8986
दय	-8987
▁Ba	-8988
▁अंस	-8989
▁उगा	-8990
▁मैथ	-8991
▁उन्हे	-8992
▁नोटरी	-8993
ेंच	-8994
▁गर	-8995
र्सी	-8996
▁चित	-8997
▁घंटों	-8998
▁फाउंड	-8999
▁सर्वप्र	-9000
▁उत्सर्जन	-9001
▁प्रस्तावना	-9002
▁अमान	-9003
▁आन्द	-9004
▁डालर	-9005
▁लम्बी	-9006
▁मापदंडों	-9007
▁उठे	-9008
▁रतन	-9009
▁कृषक	-9010
▁क्षम	-9011
▁नजदी	-9012
▁बंधन	-9013
▁कर्मों	-9014
▁मार्जिन	-9015
▁मार्गदर्शक	-9016
ॉग	-9017
▁Aug	-9018
▁भती	-9019
▁जीओएम	-9020
▁स्नान	-9021
▁ड्राइव	-9022
▁समीकरण	-9023
▁वसा	-9024
▁हुक	-9025
▁इराक	-9026
▁दिल्	-9027
▁लौटे	-9028
िपूर्ण	-9029
▁भ्रूण	-9030
▁प्रशांत	-9031
▁ट्रांसपोर्ट	-9032
्शा	-9033
टकों	-9034
देवी	-9035
पीएल	-9036
▁राउ	-9037
▁Cham	-9038
▁मणिप	-9039
▁विषा	-9040
▁सच्ची	-9041
▁आउटपुट	-9042
▁श्रद्धा	-9043
▁उत्तराधिकारियों	-9044
२०	-9045
▁बत	-9046
शिंग	-9047
▁इसल	-9048
▁आयाम	-9049
▁ऊंचा	-9050
▁प्रब	-9051
▁अनदेखा	-9052
▁मानचित्र	-9053
▁प्रतिपादन	-9054
LA	-9055
गें	-9056
वाट	-9057
िस्थ	-9058
▁व्ह	-9059
▁सुग	-9060
▁मैनु	-9061
▁आपूर्त	-9062
▁जोड़ें	-9063
▁दर्शाने	-9064
िएट	-9065
▁PC	-9066
▁st	-9067
्तान	-9068
▁नकल	-9069
▁दादा	-9070
▁पद्म	-9071
▁अभिने	-9072
▁जर्मन	-9073
▁वैष्णव	-9074
▁व्यर्थ	-9075
▁असमानता	-9076
▁वादियों	-9077
▁महाप्रबंधक	-9078
▁अफगानिस्तान	-9079
लपुर	-9080
▁अवशेष	-9081
▁चेहरा	-9082
▁मिस्र	-9083
▁स्मारक	-9084
▁गर्भाशय	-9085
▁प्रदाता	-9086
▁अभिप्राय	-9087
▁इंस्टीट्यूट	-9088
माला	-9089
▁Son	-9090
▁दार	-9091
▁दुबे	-9092
▁उपलब्धियों	-9093
ैप	-9094
ind	-9095
िकस	-9096
णुओं	-9097
माही	-9098
▁एमसी	-9099
्लेक्स	-9100
▁न्यूज	-9101
▁श्लोक	-9102
▁अपनाना	-9103
▁बंगाली	-9104
▁व्यष्टि	-9105
खार	-9106
ंसिल	-9107
न्दा	-9108
▁com	-9109
▁अनिय	-9110
▁प्लग	-9111
▁इंदौर	-9112
▁आंकड़ा	-9113
▁प्रवीण	-9114
▁चाहेंगे	-9115
▁प्रोबेट	-9116
▁राष्ट्री	-9117
▁भूख	-9118
चरिता	-9119
िवर्स	-9120
▁बेईमानी	-9121
▁व्यापारियों	-9122
ोला	-9123
▁यश	-9124
पंथी	-9125
▁बंट	-9126
▁कॉन्ट	-9127
▁जोड़ी	-9128
▁नेताजी	-9129
TH	-9130
GAL	-9131
सराय	-9132
▁कैन	-9133
▁टाल	-9134
▁बही	-9135
शुल्क	-9136
▁पिटी	-9137
▁यथास	-9138
▁गिरने	-9139
▁स्वर्ग	-9140
▁नैतिकता	-9141
▁चिकित्सकीय	-9142
लोड	-9143
षेक	-9144
्ति	-9145
ीलाल	-9146
▁मेम	-9147
▁साख	-9148
सिद्ध	-9149
ढ़ियों	-9150
▁संजीव	-9151
गणना	-9152
▁फूलों	-9153
▁सुचरिता	-9154
▁फर्द	-9155
▁आक्षेप	-9156
▁बाज़ार	-9157
▁स्थलों	-9158
▁कन्वेंशन	-9159
▁पार्टियां	-9160
पल	-9161
टिक	-9162
▁Pol	-9163
▁उपस	-9164
▁सबको	-9165
▁उत्पा	-9166
▁मानती	-9167
▁जस्टिस	-9168
▁निगमों	-9169
▁अधीक्षण	-9170
▁साक्षरता	-9171
▁प्राधिकरणों	-9172
हानि	-9173
▁दीन	-9174
▁चौथा	-9175
▁टेनिस	-9176
▁विभेद	-9177
▁सब्सि	-9178
▁सुदूर	-9179
▁अवज्ञा	-9180
▁कॉलोनी	-9181
▁सामानों	-9182
▁आविष्कार	-9183
▁पंचायतों	-9184
▁गतिविधियां	-9185
ND	-9186
षद	-9187
▁साठ	-9188
बिनेट	-9189
▁अस्व	-9190
▁तालुक	-9191
▁म्यूट	-9192
▁अतिमान	-9193
विर	-9194
धारक	-9195
स्सी	-9196
▁एडी	-9197
▁CWJC	-9198
▁आर्म	-9199
▁कीजिए	-9200
▁तिहाई	-9201
▁सौभाग्य	-9202
हो	-9203
ैत	-9204
▁टैब	-9205
▁पतन	-9206
▁परो	-9207
▁एमबी	-9208
▁सतीश	-9209
▁क्राइ	-9210
▁डिस्च	-9211
▁अधीनता	-9212
▁तुलनात्मक	-9213
PL	-9214
ुतोष	-9215
्रिक	-9216
▁बिछ	-9217
▁मोर	-9218
▁मेहर	-9219
▁रोज़	-9220
▁आवश्य	-9221
▁इकबाल	-9222
▁टैगोर	-9223
▁विकृति	-9224
▁लाभदायक	-9225
▁व्यवसायी	-9226
यालय	-9227
endra	-9228
ोरेंस	-9229
▁डेस्क	-9230
▁भोपाल	-9231
▁अभिरक्षा	-9232
▁डिस्चार्ज	-9233
▁इंडस्ट्रीज	-9234
op	-9235
पटल	-9236
▁कूद	-9237
▁इंजन	-9238
▁कमाई	-9239
▁अंतरा	-9240
▁एससीए	-9241
▁कॉम्प	-9242
▁स्विच	-9243
▁प्रशासक	-9244
▁धोखे	-9245
▁पूछे	-9246
▁चतुर्थ	-9247
▁गोपनीयता	-9248
आईए	-9249
महल	-9250
▁चीफ	-9251
प्रति	-9252
▁डब्ल	-9253
▁बचना	-9254
▁अरविंद	-9255
▁श्रद्ध	-9256
भुत	-9257
▁खर	-9258
▁वॉ	-9259
्वाइ	-9260
▁हाज	-9261
ंताओं	-9262
▁अभेद	-9263
▁सब्ज	-9264
▁सोना	-9265
घट	-9266
ter	-9267
▁छः	-9268
रियल	-9269
▁जेब	-9270
ख़्या	-9271
▁आरसी	-9272
▁साइन	-9273
▁शिष्य	-9274
ear	-9275
मेर	-9276
▁कैद	-9277
▁युग्म	-9278
▁सालों	-9279
▁खोपड़ी	-9280
▁निराशा	-9281
▁पुत्री	-9282
▁बंगलौर	-9283
▁मुहैया	-9284
▁मैनुअल	-9285
▁कामगारों	-9286
▁प्रभुत्व	-9287
ृहीत	-9288
▁अर्क	-9289
▁प्रसंग	-9290
▁क्रिमिनल	-9291
▁प्रख्यात	-9292
▁समाजवादी	-9293
▁सर्वप्रथम	-9294
▁पुनर	-9295
▁प्रजा	-9296
▁ललिता	-9297
▁वेस्ट	-9298
▁इंडिका	-9299
▁असमर्थता	-9300
ey	-9301
ड्	-9302
बाग	-9303
लाइ	-9304
यंत्र	-9305
▁बैंड	-9306
▁दिखता	-9307
▁ऑपरेटिव	-9308
▁आपूर्तिक	-9309
AV	-9310
रुप	-9311
मुना	-9312
ल्लाह	-9313
▁गर्भव	-9314
▁दुग्ध	-9315
है	-9316
फ्फ	-9317
▁ओब	-9318
▁घुम	-9319
▁सौदा	-9320
क्सीजन	-9321
▁अवतार	-9322
▁बदनाम	-9323
▁अहिंसा	-9324
▁कर्मकार	-9325
▁प्रोटोकॉल	-9326
स्म	-9327
बीएस	-9328
बूती	-9329
▁पेशी	-9330
▁सिखा	-9331
▁हफ्त	-9332
▁असंतु	-9333
▁प्रसव	-9334
▁बीडीए	-9335
ुरू	-9336
ौली	-9337
▁Ro	-9338
▁बोले	-9339
▁मेगा	-9340
कृष्णन	-9341
▁सोचता	-9342
▁आशुतोष	-9343
▁जजमेंट	-9344
▁जैसाकि	-9345
▁दीवारों	-9346
EC	-9347
र्टी	-9348
▁DIST	-9349
▁परवाह	-9350
▁इस्लामवादी	-9351
▁मंत्रालयों	-9352
डम	-9353
खली	-9354
्युन	-9355
▁डिम	-9356
▁निदान	-9357
▁धर्मों	-9358
▁बिन्दु	-9359
▁मुद्रित	-9360
▁स्ट्रीट	-9361
▁फाउंडेशन	-9362
▁परीक्षणों	-9363
तकों	-9364
पुरम	-9365
र्षण	-9366
ालों	-9367
▁बाला	-9368
▁मानवा	-9369
िरपेक्ष	-9370
▁प्रहार	-9371
▁परियोजनाएं	-9372
जुट	-9373
▁or	-9374
र्तक	-9375
▁अपार	-9376
▁पूछने	-9377
▁विवादास्पद	-9378
ep	-9379
▁ऑल	-9380
▁जगा	-9381
▁डीडी	-9382
▁षड्य	-9383
▁रियासत	-9384
▁क़्योंकि	-9385
ँह	-9386
ीदा	-9387
िंगर	-9388
▁गढ़	-9389
▁उड़ान	-9390
▁क्षमा	-9391
▁पुराण	-9392
▁बंगला	-9393
▁निर्देशन	-9394
▁काय	-9395
▁एमडी	-9396
▁भव्य	-9397
▁सोनी	-9398
▁अनजाने	-9399
▁क्रमिक	-9400
▁जमानती	-9401
▁रिश्ते	-9402
▁गुजराती	-9403
▁प्रशंसनीय	-9404
▁लाइसेंसधारी	-9405
पद	-9406
gan	-9407
ोगे	-9408
टिंग	-9409
▁उधर	-9410
▁जहर	-9411
▁पित	-9412
▁फर्श	-9413
▁गाँधी	-9414
▁सच्चा	-9415
▁लिखावट	-9416
▁सिनेमा	-9417
▁प्रतिमा	-9418
▁कहानियों	-9419
पै	-9420
▁समझी	-9421
ेश्वरी	-9422
▁आज्ञा	-9423
▁चिपका	-9424
▁बालों	-9425
▁शिमला	-9426
▁कैबिनेट	-9427
▁शेयरधारक	-9428
ta	-9429
लत	-9430
ुद	-9431
ION	-9432
सात	-9433
▁इट	-9434
▁एएस	-9435
▁गंग	-9436
▁क्षै	-9437
▁रॉयल	-9438
▁एएसआई	-9439
▁एमिकस	-9440
▁ओआरएस	-9441
▁डालते	-9442
▁महान्	-9443
▁हमलावर	-9444
▁असंतुष्ट	-9445
▁प्रदेशों	-9446
▁सांप्रदायिक	-9447
▁ऋतु	-9448
▁कंक	-9449
▁पिन	-9450
▁शीत	-9451
▁लेनी	-9452
▁मायने	-9453
▁प्रचुर	-9454
▁सीरिया	-9455
▁सेवकों	-9456
▁हिंदुओं	-9457
▁प्रत्यर्थी	-9458
नाई	-9459
ब्दिक	-9460
▁लीला	-9461
▁गीतों	-9462
▁स्कैन	-9463
▁निर्गम	-9464
▁संव्यवहार	-9465
ुगु	-9466
▁खेतों	-9467
▁इसलिये	-9468
▁मांगने	-9469
▁संभालने	-9470
▁अन्यायपूर्ण	-9471
ोंग	-9472
adav	-9473
दण्ड	-9474
▁उज्ज	-9475
▁चलकर	-9476
▁जिंदगी	-9477
▁सब्सिडी	-9478
AME	-9479
गुण	-9480
फेर	-9481
त्ती	-9482
▁इंक	-9483
▁डाइ	-9484
्रेशन	-9485
▁चलना	-9486
▁चलाए	-9487
▁फाइन	-9488
▁हुये	-9489
▁भेजें	-9490
▁करूंगा	-9491
▁अनुभूति	-9492
▁अवस्थित	-9493
ंय	-9494
000	-9495
ary	-9496
घोष	-9497
तने	-9498
▁एए	-9499
तरफा	-9500
िलास	-9501
▁खाम	-9502
▁राइट	-9503
▁सेटल	-9504
▁एकजुट	-9505
▁मानकर	-9506
▁मुकेश	-9507
▁उर्वरक	-9508
▁पिटीशन	-9509
▁Station	-9510
▁चर्चाओं	-9511
▁एनडीपीएस	-9512
▁Pat	-9513
▁गंत	-9514
▁थोक	-9515
▁वाहक	-9516
▁सादा	-9517
▁बदलना	-9518
▁बस्ती	-9519
▁मूर्ख	-9520
▁संतान	-9521
▁राजाओं	-9522
▁ईमानदार	-9523
▁निपटारे	-9524
▁धूल	-9525
▁शिप	-9526
▁पादप	-9527
▁ब्यौ	-9528
▁बम्बई	-9529
▁संचयी	-9530
▁मधुमेह	-9531
▁शब्दकोश	-9532
▁शाब्दिक	-9533
▁मनुष्यों	-9534
▁असाइनमेंट	-9535
▁बोलीदाताओं	-9536
▁भेदभावपूर्ण	-9537
गिक	-9538
ण्ट	-9539
नाल	-9540
▁उपास	-9541
▁कारी	-9542
▁सुगम	-9543
▁मुंशी	-9544
▁स्त्रो	-9545
▁गर्भवती	-9546
▁त्रुटिः	-9547
▁निमित्त	-9548
▁सुझावों	-9549
▁प्रबंधित	-9550
सेन	-9551
▁WA	-9552
▁as	-9553
▁पाय	-9554
▁रेस	-9555
▁सोव	-9556
▁छात्रा	-9557
▁राजपत्रित	-9558
ंसी	-9559
पना	-9560
▁छु	-9561
▁जस	-9562
▁काफ़ी	-9563
▁डालना	-9564
▁स्पेश	-9565
▁अखंडता	-9566
▁अनुष्ठ	-9567
▁झिल्ली	-9568
▁मत्स्य	-9569
▁फिल्मों	-9570
▁बिख	-9571
▁आवेग	-9572
लावरों	-9573
ोर्टियम	-9574
र्षि	-9575
▁कंड	-9576
▁वैट	-9577
▁गोयल	-9578
▁घटकों	-9579
▁दीक्ष	-9580
▁शिथिल	-9581
▁नाटकों	-9582
▁निगमित	-9583
▁मेमोरी	-9584
▁विटामिन	-9585
▁हमलावरों	-9586
ity	-9587
rom	-9588
▁शम	-9589
▁कटक	-9590
वर्तन	-9591
▁एमएल	-9592
▁सभ्य	-9593
▁बचाया	-9594
▁Police	-9595
▁अधिशेष	-9596
▁मशीनों	-9597
▁महाराज	-9598
▁सिर्फ़	-9599
▁महासागर	-9600
▁पूर्वोत्तर	-9601
२क	-9602
▁नहर	-9603
▁फ़ॉ	-9604
▁लॉज	-9605
मुक्त	-9606
ुल्ला	-9607
▁अन्न	-9608
ावस्था	-9609
▁खुदरा	-9610
▁साकार	-9611
▁असिस्ट	-9612
▁कौंसिल	-9613
▁वकीलों	-9614
▁प्रबन्ध	-9615
▁नाप	-9616
▁त्रि	-9617
▁मेहनत	-9618
▁उपनियम	-9619
▁विकिरण	-9620
▁निक्षेप	-9621
▁गोलीबारी	-9622
▁तुम्हारा	-9623
टीई	-9624
ब्ज	-9625
िफ्ट	-9626
वाड़ा	-9627
▁रोचक	-9628
▁कमियों	-9629
▁डिप्लो	-9630
▁बादशाह	-9631
▁सातवीं	-9632
▁सामर्थ	-9633
▁बहुमूल्य	-9634
तिज	-9635
बरी	-9636
▁अँ	-9637
▁अघ	-9638
▁आड़	-9639
▁एजे	-9640
▁गम्	-9641
▁नरम	-9642
▁बगल	-9643
▁बान	-9644
्यूपी	-9645
▁चौदह	-9646
▁बनती	-9647
▁क्लेम	-9648
▁झगड़े	-9649
▁रोकता	-9650
▁बिहारी	-9651
▁धर्मार्थ	-9652
▁क्षेत्रफल	-9653
▁फिलीस्तीन	-9654
ाश	-9655
ांच	-9656
▁कहें	-9657
▁अनुरक्षण	-9658
▁मैत्रीपूर्ण	-9659
लाप	-9660
▁दौरे	-9661
▁रेंज	-9662
▁कैलाश	-9663
▁उपबंधित	-9664
▁परेशानी	-9665
▁षड्यंत्र	-9666
▁केन्द्रों	-9667
च्य	-9668
▁कसौ	-9669
▁भोज	-9670
▁विरा	-9671
▁कंसोर्टियम	-9672
IV	-9673
वह	-9674
खान	-9675
ेयी	-9676
१वीं	-9677
▁अलंक	-9678
▁नानक	-9679
▁रहकर	-9680
▁गोदाम	-9681
▁चित्त	-9682
▁पीछला	-9683
▁पुकार	-9684
▁अभिदाय	-9685
▁उद्भूत	-9686
▁ग्वालियर	-9687
▁दीर्घकालिक	-9688
भावी	-9689
▁क्षु	-9690
▁संकु	-9691
▁अंतर्व	-9692
▁अनुमेय	-9693
▁आनुपात	-9694
▁जोरदार	-9695
▁पहुंचाई	-9696
▁विवेचना	-9697
▁डिप्लोमा	-9698
▁असंवैधानिक	-9699
▁मानवाधिकार	-9700
▁थल	-9701
▁रंगम	-9702
▁ऊतकों	-9703
▁जीवाणु	-9704
▁AR	-9705
▁टि	-9706
बंधन	-9707
ॉल्व	-9708
▁गर्ग	-9709
▁दिलाने	-9710
▁बहिष्क	-9711
▁सेकेंड	-9712
▁प्रत्यक्षदर्शी	-9713
ंसे	-9714
जलि	-9715
कर्स	-9716
▁भड़	-9717
▁महेश	-9718
▁बुराई	-9719
▁ज़रूरत	-9720
▁आन्दोलन	-9721
▁यूनिवर्स	-9722
भिक	-9723
ूला	-9724
र्नल	-9725
▁अनौ	-9726
▁जरा	-9727
▁परव	-9728
▁कैंट	-9729
▁खसरा	-9730
▁चुंब	-9731
▁यकीन	-9732
▁बेहोश	-9733
▁निरोधक	-9734
▁विसंगत	-9735
▁विख्यात	-9736
▁क्षमताओं	-9737
▁याचिकाएँ	-9738
▁सेटलमेंट	-9739
तुल	-9740
▁क्ली	-9741
▁वर्न	-9742
पीसीएल	-9743
▁खींचा	-9744
▁परिमाण	-9745
▁संपादक	-9746
▁मित्रता	-9747
▁संस्थाएं	-9748
डि	-9749
ंबा	-9750
ालक	-9751
▁on	-9752
एचसी	-9753
प्रण	-9754
▁बोर	-9755
▁मेह	-9756
▁माया	-9757
▁क्राइम	-9758
▁नर्सिंग	-9759
▁पर्यटकों	-9760
▁विशिष्टता	-9761
वाया	-9762
▁सगाई	-9763
▁द्वारक	-9764
▁निरसित	-9765
▁निर्धन	-9766
▁पारिस्थ	-9767
▁दीक्षांत	-9768
▁बिल्डिंग	-9769
▁अनियंत्रित	-9770
▁अपरिवर्तनीय	-9771
▁लेखापरीक्षा	-9772
जाज	-9773
▁ऋषि	-9774
▁जीने	-9775
धारकों	-9776
▁श्रील	-9777
▁चार्टर	-9778
▁कैदियों	-9779
पो	-9780
बयान	-9781
वर्ग	-9782
▁अपू	-9783
▁दबाने	-9784
▁साइंस	-9785
▁एंट्री	-9786
▁सुरेंद्र	-9787
▁विनिर्देश	-9788
्ठ	-9789
ितरण	-9790
▁नारी	-9791
▁मुँह	-9792
▁अजीबोग	-9793
▁अभेद्य	-9794
▁संवेदना	-9795
▁सम्बद्ध	-9796
▁साझेदार	-9797
▁टेलीविजन	-9798
▁हिन्दुओं	-9799
▁प्रायोजित	-9800
▁वित्तपोषण	-9801
ंर	-9802
▁Ar	-9803
ंतुक	-9804
रेस्ट	-9805
▁रंजन	-9806
▁चलाना	-9807
▁रिहाई	-9808
▁स्थाई	-9809
▁त्रिपा	-9810
▁वादकारियों	-9811
▁विद्यालयों	-9812
वश	-9813
kar	-9814
जूर	-9815
्तर	-9816
ब्बा	-9817
प्राइ	-9818
▁गूगल	-9819
▁ग्लो	-9820
▁जादू	-9821
▁दरें	-9822
च्छेदन	-9823
▁नाराज	-9824
▁विलियम	-9825
▁खिलाड़ी	-9826
▁प्रवर्ग	-9827
▁प्रतिशोध	-9828
▁प्रांतीय	-9829
▁प्रगतिशील	-9830
if	-9831
शियन	-9832
▁आज़	-9833
▁कड़	-9834
▁जुट	-9835
▁हैस	-9836
▁ब्ला	-9837
▁प्रेरक	-9838
▁कन	-9839
▁कमरा	-9840
मेंट्स	-9841
▁गेहूं	-9842
▁बेरोज	-9843
▁अधिकाधिक	-9844
▁तन	-9845
आरसी	-9846
▁अद्	-9847
▁भुव	-9848
तालों	-9849
▁ITAT	-9850
▁किशन	-9851
ोंडेंट	-9852
्राउंड	-9853
▁तम्बा	-9854
▁सर्कल	-9855
▁छानबीन	-9856
▁प्रवास	-9857
▁समर्थक	-9858
▁कंप्यूट	-9859
▁त्रिपाठी	-9860
▁संस्थापक	-9861
▁असुरक्षित	-9862
▁प्रतिवेदन	-9863
हि	-9864
ग्रा	-9865
ड़ित	-9866
▁डकै	-9867
ेशनों	-9868
▁गुलाम	-9869
▁पहाड़	-9870
▁भेजना	-9871
▁निरूपित	-9872
▁अजीबोगरीब	-9873
्मी	-9874
ॉक्स	-9875
▁फिंगर	-9876
▁बच्चन	-9877
▁मर्या	-9878
▁लार्ड	-9879
▁मजबूती	-9880
▁क्षैतिज	-9881
▁सुपुर्द	-9882
eg	-9883
ढे	-9884
ang	-9885
ंचन	-9886
▁ha	-9887
▁अठ	-9888
एलआर	-9889
▁Mad	-9890
▁डेल	-9891
▁दीं	-9892
▁पेन	-9893
▁सज्	-9894
▁हिट	-9895
▁बुरे	-9896
▁लिखत	-9897
▁विध्व	-9898
▁अनुभवों	-9899
▁साझीदारी	-9900
▁त्रुटियों	-9901
our	-9902
मलव	-9903
ादर	-9904
▁उछ	-9905
बंधी	-9906
▁भूक	-9907
▁कपास	-9908
▁पाठकों	-9909
▁मांगों	-9910
▁उपयोक्ता	-9911
▁सर्वोपरि	-9912
गाम	-9913
▁wp	-9914
पेयी	-9915
▁SLP	-9916
▁भूट	-9917
▁अमीर	-9918
▁आईसी	-9919
▁चौथी	-9920
▁पाती	-9921
▁साझी	-9922
▁प्रगा	-9923
▁सनातन	-9924
▁सीटें	-9925
▁चुकाने	-9926
▁सत्याग्रह	-9927
धक	-9928
एलए	-9929
▁बास	-9930
▁खर्चे	-9931
श्योरेंस	-9932
▁कॉन्ट्र	-9933
▁संस्थापित	-9934
क्ल	-9935
िमी	-9936
▁एसई	-9937
▁अभिल	-9938
▁एसिड	-9939
वृत्ति	-9940
▁दत्तक	-9941
▁मिनटों	-9942
▁मुकाबला	-9943
▁सीडब्ल्यू	-9944
य्या	-9945
▁Sat	-9946
▁अका	-9947
▁रेशम	-9948
▁वारा	-9949
▁देसाई	-9950
▁पकड़े	-9951
▁बेटों	-9952
▁प्रदाह	-9953
▁पसंदीदा	-9954
▁एक्सटेंशन	-9955
केल	-9956
ेली	-9957
▁क्री	-9958
▁विषम	-9959
▁ओबामा	-9960
▁दशमलव	-9961
▁विकार	-9962
▁हटाना	-9963
▁गंतव्य	-9964
▁गम्भीर	-9965
▁शेड्यूल	-9966
▁पवित्रता	-9967
▁प्रजातियों	-9968
२१	-9969
ार्इ	-9970
ियाई	-9971
▁बादल	-9972
▁लाइट	-9973
▁खेलने	-9974
▁दिलीप	-9975
▁नतीजा	-9976
▁लगेगा	-9977
▁प्रस्थान	-9978
▁श्रीलंका	-9979
▁विसंगतियों	-9980
ंख्य	-9981
ाम्प	-9982
ावधि	-9983
▁इधर	-9984
▁कोह	-9985
▁डूब	-9986
▁नित	-9987
▁सरा	-9988
▁आरएस	-9989
▁किले	-9990
▁कार्ट	-9991
▁डालता	-9992
रेन्द्र	-9993
थु	-9994
▁PDD	-9995
▁खेप	-9996
रूपता	-9997
▁तमाम	-9998
▁परिन	-9999
▁जीवंत	-10000
▁एल्गोर	-10001
▁गतिशील	-10002
▁गरीबों	-10003
▁रंगमंच	-10004
▁शासकीय	-10005
▁शास्ति	-10006
▁महिलाएं	-10007
नद	-10008
चिव	-10009
टकर	-10010
भगत	-10011
▁Ws	-10012
▁आओ	-10013
धर्म	-10014
राइड	-10015
र्चा	-10016
▁चंप	-10017
▁पिक	-10018
चियों	-10019
▁धीमी	-10020
▁पिटाई	-10021
▁विषयक	-10022
▁नियन्त	-10023
▁अल्ट्रा	-10024
▁ट्रेडिंग	-10025
▁फर्दबयान	-10026
गरों	-10027
▁con	-10028
▁फौज	-10029
▁राध	-10030
▁लची	-10031
▁शौच	-10032
▁समीप	-10033
▁मास्ट	-10034
▁सभाओं	-10035
▁बाजारों	-10036
▁सूचकांक	-10037
▁निर्देशक	-10038
▁भरोसेमंद	-10039
▁रेखांकित	-10040
▁प्राणियों	-10041
▁गली	-10042
▁गुज	-10043
▁घेर	-10044
▁पंक	-10045
▁हरी	-10046
▁यज्ञ	-10047
▁वर्क	-10048
▁अतिथि	-10049
▁अरुणा	-10050
▁एहसास	-10051
▁दत्ता	-10052
▁तत्परता	-10053
▁प्रभावों	-10054
▁केन्द्रित	-10055
िंट	-10056
▁औरत	-10057
▁घूं	-10058
▁दादी	-10059
▁बनकर	-10060
▁बीएस	-10061
▁किसने	-10062
▁भागवत	-10063
▁स्केल	-10064
▁अपूरणीय	-10065
▁चार्टर्ड	-10066
टॉप	-10067
ाहट	-10068
▁AGE	-10069
▁BAN	-10070
▁पढ़ी	-10071
▁फ्री	-10072
▁जितने	-10073
▁टैरिफ	-10074
▁जोड़ना	-10075
▁निकाली	-10076
▁सहभागिता	-10077
▁अर्थशास्त्र	-10078
▁सौहार्दपूर्ण	-10079
ीत	-10080
शिला	-10081
▁Mah	-10082
▁अजन	-10083
▁ह्य	-10084
स्कृत	-10085
▁मिलन	-10086
▁श्वसन	-10087
▁सर्जन	-10088
▁दिशाओं	-10089
▁सृष्टि	-10090
▁प्रतियोगी	-10091
▁देशवासियों	-10092
▁मंत्रिमंडल	-10093
EE	-10094
SA	-10095
न्च	-10096
शेर	-10097
ुलन	-10098
▁रच	-10099
ताबिक	-10100
▁अण्ड	-10101
▁एचपी	-10102
▁सैंट	-10103
प्रदेश	-10104
▁एसएचओ	-10105
▁करवाने	-10106
▁मणिपुर	-10107
▁महर्षि	-10108
▁बीमारियों	-10109
▁मैट्रिक्स	-10110
▁शास्त्रीय	-10111
डऋ	-10112
▁नॉ	-10113
चन्द	-10114
▁खाल	-10115
▁फेर	-10116
▁अय्य	-10117
▁नाना	-10118
▁गन्ने	-10119
▁विहार	-10120
▁रघुनाथ	-10121
▁तम्बाकू	-10122
▁हाउसिंग	-10123
OD	-10124
▁कत	-10125
न्ता	-10126
▁खरा	-10127
▁फुल	-10128
निवास	-10129
वर्धन	-10130
पत्रों	-10131
▁सिंधु	-10132
▁सेंटी	-10133
▁अवधारित	-10134
▁प्रवाहित	-10135
▁सामर्थ्य	-10136
डों	-10137
्कर	-10138
विता	-10139
▁कुश	-10140
▁दयाल	-10141
ुद्दीन	-10142
▁कसौटी	-10143
▁जॉर्ज	-10144
▁तिमाही	-10145
▁प्रगाढ़	-10146
▁भूखंडों	-10147
ध्व	-10148
▁जह	-10149
पीएफ	-10150
▁कुर	-10151
▁खोलें	-10152
▁भवनों	-10153
▁विराम	-10154
▁करेंगी	-10155
▁दर्शाते	-10156
▁मुताबिक	-10157
णित	-10158
धीर	-10159
▁Mo	-10160
▁जौ	-10161
कांत	-10162
ड्डी	-10163
▁Ind	-10164
▁दां	-10165
▁पटल	-10166
▁मैप	-10167
▁विय	-10168
▁शाक	-10169
▁अम्ल	-10170
▁पीडीएफ	-10171
▁मतदाताओं	-10172
▁पारिस्थित	-10173
थाई	-10174
▁नद	-10175
▁पीए	-10176
▁जगत्	-10177
▁मंडी	-10178
▁मादक	-10179
▁प्रमोट	-10180
▁कैलेंडर	-10181
her	-10182
▁गत	-10183
ल्ले	-10184
▁ईंट	-10185
▁ऑयल	-10186
▁कुं	-10187
▁ज़ि	-10188
▁मौन	-10189
▁बलों	-10190
▁खिड़की	-10191
▁बेदखली	-10192
▁विजेता	-10193
▁एजुकेशन	-10194
▁इंजेक्शन	-10195
रथ	-10196
▁लट	-10197
स्वी	-10198
▁अनो	-10199
▁कमर	-10200
▁ताम	-10201
▁सरो	-10202
वाड़ी	-10203
▁एमओयू	-10204
निर्देश	-10205
▁तुरन्त	-10206
▁प्रदीप	-10207
▁अनुपूरक	-10208
▁ट्रांसफर	-10209
AI	-10210
LI	-10211
td	-10212
साम	-10213
ोत्स	-10214
▁उलझ	-10215
▁कटाई	-10216
▁बनते	-10217
▁बीबी	-10218
▁स्ना	-10219
▁आँखों	-10220
▁दर्शक	-10221
▁प्रॉप	-10222
▁अर्पित	-10223
▁नर्मदा	-10224
▁स्वतन्त्र	-10225
▁हार्डवेयर	-10226
तरी	-10227
विस	-10228
▁AD	-10229
क्यू	-10230
▁Sar	-10231
▁इनसे	-10232
▁मरीज	-10233
▁मुस्क	-10234
▁साधना	-10235
▁बलिदान	-10236
▁संचिका	-10237
▁निराधार	-10238
▁कार्यकलापों	-10239
▁पुनर्निर्माण	-10240
UM	-10241
ँजी	-10242
पंच	-10243
▁आलम	-10244
▁गौण	-10245
▁भूप	-10246
तीकरण	-10247
▁काशी	-10248
▁सीटी	-10249
▁छिद्र	-10250
▁एकतरफा	-10251
▁एकीकरण	-10252
▁कठोरता	-10253
▁फंसाने	-10254
▁मुद्रण	-10255
▁हैसियत	-10256
▁जमींदार	-10257
▁व्याप्त	-10258
▁समन्वित	-10259
▁सापेक्ष	-10260
▁अन्तर्राष्ट्रीय	-10261
ess	-10262
ापनों	-10263
▁चारा	-10264
▁भयानक	-10265
▁कहलाता	-10266
▁प्रिवी	-10267
▁महावीर	-10268
▁सर्किट	-10269
▁चित्रों	-10270
▁मिलीभगत	-10271
▁सरकारें	-10272
▁अस्वीकृत	-10273
▁उद्यमियों	-10274
▁प्रतिपादित	-10275
▁मनोवैज्ञानिक	-10276
▁IS	-10277
▁पण	-10278
पुरी	-10279
▁गिल	-10280
▁मधुर	-10281
▁समीचीन	-10282
▁कुटुम्ब	-10283
▁ऑस्ट्रेलिया	-10284
▁The	-10285
▁आँक	-10286
▁मैक	-10287
paran	-10288
▁कपूर	-10289
▁माफी	-10290
▁रत्न	-10291
▁प्रभा	-10292
रूद्दीन	-10293
▁हनुमान	-10294
▁रामचंद्र	-10295
▁भुवनेश्वर	-10296
▁कार्यात्मक	-10297
OC	-10298
ासा	-10299
▁एके	-10300
ुलेशन	-10301
▁गुहा	-10302
▁मैक्स	-10303
▁अशुद्ध	-10304
▁घटनाएं	-10305
▁अप्रत्या	-10306
▁Champaran	-10307
▁डेवलपमेंट	-10308
▁स्वीकार्यता	-10309
ोव	-10310
पने	-10311
▁दाई	-10312
▁संल	-10313
▁बस्त	-10314
▁शवों	-10315
साधारण	-10316
▁दोषों	-10317
▁ठहराते	-10318
ik	-10319
थल	-10320
जाक	-10321
बुक	-10322
▁छंद	-10323
▁बेज	-10324
▁साउ	-10325
▁उड़ा	-10326
▁मनोहर	-10327
▁बनर्जी	-10328
▁शासकों	-10329
▁अवशोषित	-10330
▁पृष्ठों	-10331
▁डेस्कटॉप	-10332
डेट	-10333
्योर	-10334
▁तित	-10335
▁राइ	-10336
▁रेज	-10337
▁सीई	-10338
▁उतने	-10339
▁रिसी	-10340
▁शाही	-10341
क्साइड	-10342
▁प्रको	-10343
धारियों	-10344
▁लड़कों	-10345
▁रूपान्त	-10346
▁पद्धतियों	-10347
▁प्रतिस्पर्धी	-10348
ैश	-10349
▁ओह	-10350
देही	-10351
▁आंब	-10352
▁गों	-10353
▁क्राल	-10354
▁दीवान	-10355
▁असुविधा	-10356
▁अद्वितीय	-10357
▁पुरस्कारों	-10358
एव	-10359
्की	-10360
थियों	-10361
प्रकाश	-10362
▁ठहराव	-10363
▁तुलसी	-10364
▁लापता	-10365
▁नारियल	-10366
▁परीक्षाओं	-10367
▁परिसंपत्तियों	-10368
थर	-10369
्राब	-10370
▁धनी	-10371
▁भाज	-10372
▁वात	-10373
▁आलेख	-10374
▁एसके	-10375
▁मवेश	-10376
▁माइन	-10377
▁रूचि	-10378
▁जिसमे	-10379
▁धूम्र	-10380
▁रस्सी	-10381
▁राहुल	-10382
▁एनसीटी	-10383
▁प्रौढ़	-10384
▁प्रादेश	-10385
▁आनुवंशिक	-10386
▁As	-10387
एमएस	-10388
▁जोन	-10389
▁ढाँ	-10390
▁मौल	-10391
▁गयीं	-10392
▁लीटर	-10393
▁मिश्र	-10394
▁डिक्शन	-10395
▁संप्रभु	-10396
▁कार्यपाल	-10397
शंस	-10398
▁तौल	-10399
▁नॉन	-10400
▁अभिया	-10401
▁जगहों	-10402
▁मानों	-10403
▁लेआउट	-10404
▁हिंसक	-10405
▁विश्राम	-10406
ंगली	-10407
▁अनभ	-10408
▁पैक	-10409
▁औजार	-10410
▁लैंड	-10411
▁सीबी	-10412
▁अन्तः	-10413
▁अप्रा	-10414
▁उपद्र	-10415
▁बदलते	-10416
▁सेकंड	-10417
▁ग्राउंड	-10418
▁संपादित	-10419
▁संक्रिया	-10420
▁DR	-10421
▁धूप	-10422
मानों	-10423
▁टकराव	-10424
▁असहमति	-10425
▁विचलित	-10426
▁उत्तरार्	-10427
ंगर	-10428
बिन	-10429
सनी	-10430
▁ओल	-10431
▁ढी	-10432
,000	-10433
फीति	-10434
जीवित	-10435
▁डीवी	-10436
▁पच्च	-10437
▁समझती	-10438
▁पूर्वक	-10439
▁लक्षणों	-10440
ंथि	-10441
▁ऋणी	-10442
▁बदलें	-10443
▁तेलुगु	-10444
▁बैलेंस	-10445
▁डिक्शनरी	-10446
eal	-10447
ंटू	-10448
्तन	-10449
▁कछ	-10450
▁CPC	-10451
▁अधू	-10452
▁पैदल	-10453
▁मनीष	-10454
▁सन्त	-10455
▁पाण्ड	-10456
▁सोचना	-10457
▁छोड़ना	-10458
▁पक्षीय	-10459
ty	-10460
रोस	-10461
लब्ध	-10462
ोजकों	-10463
▁सांठ	-10464
▁पढ़ें	-10465
▁अंशदान	-10466
▁अभिभावक	-10467
▁प्रत्याय	-10468
▁व्यक्तिपरक	-10469
ew	-10470
uri	-10471
प्ट	-10472
▁पस	-10473
लापन	-10474
वेली	-10475
▁एंव	-10476
▁जनक	-10477
ालैंड	-10478
▁छुपा	-10479
▁फैली	-10480
ेंडेंट	-10481
▁बर्तन	-10482
▁शुष्क	-10483
▁आरपीसी	-10484
▁प्रचलन	-10485
▁पहुँचने	-10486
▁पांचवें	-10487
▁प्रवासी	-10488
▁शीघ्रता	-10489
▁साक्षियों	-10490
▁अप्रत्याशित	-10491
aw	-10492
जुए	-10493
▁डेन	-10494
▁मला	-10495
▁शैल	-10496
बोर्ड	-10497
▁गहने	-10498
▁क्लास	-10499
▁रिस्प	-10500
▁निकटता	-10501
▁अविभाजित	-10502
▁विचारणीय	-10503
▁क्रियाकलाप	-10504
▁निष्क्रियता	-10505
OP	-10506
▁Ltd	-10507
राबरी	-10508
▁आर्ट	-10509
▁विगत	-10510
ापूर्ण	-10511
▁जोड़कर	-10512
▁पासवर्ड	-10513
▁जबरदस्ती	-10514
डोर	-10515
बेल	-10516
िगर	-10517
▁पग	-10518
ड़ने	-10519
ार्क	-10520
▁अवध	-10521
▁एम्ब	-10522
▁Distt	-10523
▁गन्ना	-10524
▁घोड़े	-10525
▁मल्टी	-10526
▁श्वास	-10527
▁सुलझाने	-10528
▁परिपूर्ण	-10529
▁बुद्धिमान	-10530
ैर्य	-10531
▁SAR	-10532
▁फूट	-10533
▁मीन	-10534
▁बांस	-10535
▁सीसी	-10536
▁गर्भाव	-10537
▁परजीवी	-10538
▁डेटाबेस	-10539
▁स्मार्ट	-10540
▁संभावनाएं	-10541
▁नट	-10542
ब्रे	-10543
▁तरा	-10544
▁नरस	-10545
वृत्त	-10546
▁गुर्	-10547
▁घर्षण	-10548
▁वर्षो	-10549
▁विक्रम	-10550
▁प्रादेशिक	-10551
▁श्रीनिवास	-10552
▁उदाहरणार्थ	-10553
किक	-10554
धाना	-10555
▁गाल	-10556
▁जीप	-10557
▁एनसी	-10558
▁सुने	-10559
▁वापिस	-10560
▁एनआईटी	-10561
▁रिफाइन	-10562
▁वायर्स	-10563
▁इमारतों	-10564
▁प्रॉपर्टी	-10565
▁बदरूद्दीन	-10566
▁आस्ट्रेलिया	-10567
गाल	-10568
ड्स	-10569
ायगी	-10570
▁बुश	-10571
▁साँ	-10572
▁फलों	-10573
▁सैयद	-10574
▁एनएसई	-10575
▁संचरण	-10576
▁रात्रि	-10577
▁कलात्मक	-10578
▁मानहानि	-10579
▁नागरिकता	-10580
▁प्रत्यारो	-10581
▁प्रस्तावक	-10582
▁देनदारियों	-10583
▁विसंगतियां	-10584
नन	-10585
▁कैश	-10586
▁टांग	-10587
▁नींद	-10588
▁राशन	-10589
▁वादे	-10590
▁सूखे	-10591
▁वीर्य	-10592
▁अवयवों	-10593
▁नाटकीय	-10594
▁फ़ॉन्ट	-10595
▁स्वराज	-10596
▁हेरफेर	-10597
▁दर्शकों	-10598
▁प्रतिकर	-10599
▁बोलियों	-10600
▁प्रमुखों	-10601
dl	-10602
घाट	-10603
▁जूट	-10604
▁होश	-10605
युद्ध	-10606
▁पैंट	-10607
▁मेनन	-10608
▁घूंघट	-10609
▁असंख्य	-10610
▁सोवियत	-10611
ष्ट्रपति	-10612
▁दोस्तों	-10613
▁निरन्तर	-10614
▁स्वदेशी	-10615
▁एकाधिकार	-10616
▁युक्तियुक्त	-10617
ATE	-10618
िसा	-10619
्रत	-10620
▁अड़	-10621
▁तंज	-10622
▁अवयव	-10623
▁बेचे	-10624
▁सुलभ	-10625
▁पोर्टल	-10626
▁प्रमोद	-10627
▁विचारक	-10628
▁शुक्रा	-10629
▁प्रमाणन	-10630
▁आकाशवाणी	-10631
▁निःशुल्क	-10632
▁अस्पतालों	-10633
AND	-10634
कने	-10635
क्य	-10636
दिर	-10637
ौला	-10638
्विक	-10639
▁बगी	-10640
पल्ली	-10641
▁पर्चे	-10642
▁लिपिक	-10643
▁अद्भुत	-10644
▁उद्यमी	-10645
▁दीक्षा	-10646
▁मृतकों	-10647
▁सैंट्रो	-10648
▁पर्यवेक्षी	-10649
ce	-10650
दाद	-10651
▁नाश	-10652
क्रेट	-10653
▁बंधे	-10654
▁लाता	-10655
▁साहा	-10656
▁समेकन	-10657
ुस्तानी	-10658
▁दंडादेश	-10659
▁संकेतों	-10660
▁स्वयंसे	-10661
▁भूतपूर्व	-10662
SR	-10663
▁संश	-10664
्वाइंट	-10665
▁जांचा	-10666
▁सांसद	-10667
▁कुर्की	-10668
▁निवेशक	-10669
▁प्रेमी	-10670
▁महाकाव	-10671
▁कार्यभार	-10672
▁धूम्रपान	-10673
▁समितियां	-10674
▁औपचारिकता	-10675
लेन	-10676
▁फि	-10677
▁वेल	-10678
▁भलाई	-10679
▁प्रोफ़	-10680
▁टुकड़ों	-10681
▁परिसीमा	-10682
▁स्वार्थ	-10683
▁अनौपचारिक	-10684
▁अस्पष्टता	-10685
बों	-10686
आईडी	-10687
▁ऊंट	-10688
▁फास	-10689
डियों	-10690
▁देशभ	-10691
▁यूएस	-10692
▁इशारे	-10693
▁सशर्त	-10694
▁निभाने	-10695
▁पहचानने	-10696
NA	-10697
टेन	-10698
णसी	-10699
ोरम	-10700
घोषणा	-10701
▁एंटर	-10702
▁वनों	-10703
▁अपीलें	-10704
▁द्रव्य	-10705
▁आंबेडकर	-10706
▁विवेकाधिकार	-10707
SL	-10708
▁vii	-10709
▁चोर	-10710
▁वान	-10711
▁रूसी	-10712
▁ललित	-10713
▁आंखें	-10714
▁चक्कर	-10715
▁अर्द्ध	-10716
▁स्थानाप	-10717
▁ऑपरेटरों	-10718
्पर	-10719
क्के	-10720
सम्म	-10721
▁डेम	-10722
फोर्ड	-10723
ांजलि	-10724
▁फैले	-10725
▁भर्त	-10726
▁क्रोध	-10727
▁ट्रां	-10728
▁धारित	-10729
तापूर्ण	-10730
▁डंपिंग	-10731
▁मुखिया	-10732
▁राज़्य	-10733
▁रवींद्र	-10734
कीर	-10735
शेष	-10736
एससी	-10737
ंक्शन	-10738
▁अतएव	-10739
▁आरके	-10740
▁इनाम	-10741
▁कोटि	-10742
▁दुरा	-10743
▁रोटी	-10744
▁रोने	-10745
▁कमाने	-10746
▁भूटान	-10747
▁पंजीयक	-10748
▁किनारों	-10749
▁क्रियाओं	-10750
▁मध्यवर्ती	-10751
▁द्वारकानाथ	-10752
▁कार्यकर्ताओं	-10753
ip	-10754
हाद	-10755
ावे	-10756
▁करण	-10757
चिकित	-10758
▁लेटर	-10759
ंगाबाद	-10760
क्रमित	-10761
▁अनैतिक	-10762
▁प्रोफाइल	-10763
▁हिन्दुस्तान	-10764
la	-10765
एनएल	-10766
िप्र	-10767
▁SCR	-10768
▁झलक	-10769
▁धीर	-10770
▁बूट	-10771
▁रूक	-10772
▁जीडी	-10773
▁जूते	-10774
▁स्टी	-10775
र्निया	-10776
▁कदमों	-10777
▁आयातित	-10778
▁चुपचाप	-10779
▁एमएसएमई	-10780
▁कार्यवाहियां	-10781
ारत	-10782
▁अटल	-10783
▁भली	-10784
▁खिंच	-10785
▁राणा	-10786
▁अपलोड	-10787
▁भित्त	-10788
▁कैरियर	-10789
▁बालकों	-10790
▁भौतिकी	-10791
▁विनाशकारी	-10792
▁क्षतिग्रस्त	-10793
ea	-10794
ोगा	-10795
▁Sa	-10796
चाने	-10797
फ़्ट	-10798
▁टैग	-10799
▁नली	-10800
▁पडे	-10801
▁अर्ह	-10802
▁आच्छ	-10803
▁गुस्	-10804
▁त्यो	-10805
▁नोडल	-10806
ष्णुता	-10807
▁चाहें	-10808
▁नागपुर	-10809
▁वाशिंग	-10810
▁तीव्रता	-10811
▁वाराणसी	-10812
▁मास्टर्स	-10813
▁काउंसलिंग	-10814
eri	-10815
माल	-10816
ायु	-10817
िम्	-10818
▁AT	-10819
न्दन	-10820
ालाल	-10821
▁आरा	-10822
▁चेन	-10823
▁पंथ	-10824
▁पंप	-10825
▁पदक	-10826
▁वेग	-10827
▁भाभी	-10828
▁एक्से	-10829
▁राजपू	-10830
▁खुलासे	-10831
▁वसीयतना	-10832
▁ज्योतिर्म	-10833
▁प्रतिष्ठानों	-10834
मास	-10835
ारस	-10836
ारह	-10837
▁PIL	-10838
▁लौह	-10839
▁बजाए	-10840
▁हमसे	-10841
्रीकरण	-10842
▁चौथाई	-10843
▁डालकर	-10844
▁बनायी	-10845
▁उत्थान	-10846
▁जनजातीय	-10847
▁यथासंभव	-10848
▁निमंत्रण	-10849
▁पहुंचाया	-10850
CL	-10851
मरी	-10852
ुवा	-10853
▁NE	-10854
▁लू	-10855
ेयरी	-10856
▁रबर	-10857
▁एफटी	-10858
▁पारे	-10859
▁शासी	-10860
▁एआईसी	-10861
▁डेविड	-10862
▁शिविर	-10863
िष्णुता	-10864
▁लक्षित	-10865
▁कूटशब्द	-10866
▁सिक्किम	-10867
▁सहकारिता	-10868
ोपै	-10869
▁सऋ	-10870
▁app	-10871
▁खैर	-10872
▁बीयर	-10873
▁बुलाई	-10874
▁लाभप्रद	-10875
▁स्टाम्प	-10876
▁गुणसूत्र	-10877
hak	-10878
असल	-10879
्का	-10880
▁SA	-10881
▁हू	-10882
ापत्र	-10883
▁आईएस	-10884
▁एलपी	-10885
▁वक्र	-10886
▁सर्प	-10887
▁चांदी	-10888
▁बारिश	-10889
▁सरलता	-10890
प्रणाली	-10891
▁टिकटों	-10892
▁संपादन	-10893
ार्श्विक	-10894
▁हलफनामों	-10895
▁मांसपेशियों	-10896
तीक	-10897
▁बसा	-10898
▁सने	-10899
▁चाहा	-10900
▁पांव	-10901
▁डेयरी	-10902
▁निर्म	-10903
▁फास्ट	-10904
िफिकेशन	-10905
▁अलार्म	-10906
▁शान्ति	-10907
▁कंट्राब	-10908
▁संख़्या	-10909
▁परिचालित	-10910
▁प्रमाणीकरण	-10911
२२	-10912
नेल	-10913
वत्	-10914
▁डू	-10915
पानी	-10916
▁निब	-10917
▁महज	-10918
ार्टर	-10919
▁अंतत	-10920
▁सत्त	-10921
▁खतरों	-10922
▁घुमाव	-10923
▁महंगा	-10924
▁तोड़ने	-10925
▁पीडीडी	-10926
▁वसूलने	-10927
▁सेवाएँ	-10928
ेट्रिक्स	-10929
▁प्वाइंट	-10930
▁विलक्षण	-10931
▁समयबद्ध	-10932
▁पोस्टिंग	-10933
▁सम्भावना	-10934
▁सेंटीमीटर	-10935
▁यूनिवर्सिटी	-10936
▁प्रौद्योगिकियों	-10937
सिले	-10938
▁अनर	-10939
▁जुड	-10940
▁Panc	-10941
▁ऊर्ध	-10942
▁क्षे	-10943
▁मदों	-10944
▁बिलियन	-10945
▁त्योहार	-10946
SS	-10947
फु	-10948
III	-10949
ali	-10950
ंड़	-10951
लीम	-10952
▁एट	-10953
वाने	-10954
▁पोषक	-10955
▁तुर्क	-10956
▁बाधाओं	-10957
▁नीतियां	-10958
▁संसाधित	-10959
▁परंपराओं	-10960
▁स्पष्टता	-10961
▁टिप्पणियां	-10962
ईटी	-10963
ग्ण	-10964
ोटो	-10965
▁मथ	-10966
एफआर	-10967
द्वार	-10968
शास्त	-10969
▁आएगी	-10970
▁टीआई	-10971
▁मदुर	-10972
▁अवसाद	-10973
▁ध्रुव	-10974
▁रक्षक	-10975
▁श्रवण	-10976
▁हेमंत	-10977
िस्तानी	-10978
▁पर्यटक	-10979
हे	-10980
hay	-10981
ंदे	-10982
ुखी	-10983
▁Al	-10984
ल्यू	-10985
▁थोप	-10986
▁पायी	-10987
▁वाणी	-10988
▁छोड़े	-10989
▁टेक्स	-10990
▁दरअसल	-10991
▁पिछला	-10992
▁हालात	-10993
▁अनुयाय	-10994
▁जुटाने	-10995
▁तयशुदा	-10996
▁रिसीवर	-10997
▁सीमाएं	-10998
▁इंस्ट्रू	-10999
▁शब्दावली	-11000
▁अंतर्विष्ट	-11001
▁गर्भावस्था	-11002
वेन	-11003
बिया	-11004
ियॉँ	-11005
▁पैन	-11006
▁अनुभ	-11007
▁खोले	-11008
▁एरिया	-11009
▁जमाने	-11010
▁मिलान	-11011
▁संजाल	-11012
▁अग्रसर	-11013
▁ग्लोबल	-11014
▁प्रतिष	-11015
▁प्रिंटर	-11016
▁समानांतर	-11017
ti	-11018
ोली	-11019
▁मुंस	-11020
▁उंगली	-11021
▁महाले	-11022
▁सुप्र	-11023
▁अंसारी	-11024
▁काश्मीर	-11025
▁अप्राकृतिक	-11026
▁पर्यवेक्षक	-11027
hu	-11028
क्षर	-11029
▁उमा	-11030
▁आशीष	-11031
▁कुंद	-11032
▁केवी	-11033
▁मतों	-11034
▁मोनो	-11035
▁करुणा	-11036
▁बोलता	-11037
▁साइटों	-11038
▁एनएसईएल	-11039
▁प्लानिंग	-11040
aul	-11041
▁अनी	-11042
▁दाल	-11043
▁मता	-11044
▁WANo	-11045
▁नागर	-11046
▁पीएच	-11047
▁कोष्ठ	-11048
▁जिज्ञ	-11049
▁सश्रम	-11050
▁आबंटित	-11051
▁मुख़्य	-11052
▁राजकीय	-11053
नीस	-11054
रीद	-11055
▁बख	-11056
शेखर	-11057
ालीस	-11058
▁प्रात	-11059
▁नामकरण	-11060
▁व्यतीत	-11061
▁बेटियों	-11062
▁जवाबदेही	-11063
▁परिवीक्षाधीन	-11064
फ़ा	-11065
▁भि	-11066
▁कस्	-11067
▁दखल	-11068
▁नूर	-11069
▁भटक	-11070
▁क्लॉ	-11071
▁गुला	-11072
▁ब्ले	-11073
▁शिवा	-11074
ान्वित	-11075
▁यमुना	-11076
▁यौगिक	-11077
▁जहाजों	-11078
▁रखेंगे	-11079
हृ	-11080
रात	-11081
ुना	-11082
देशीय	-11083
▁अम्ब	-11084
▁जजों	-11085
▁नीला	-11086
▁सीएल	-11087
▁सोलह	-11088
▁अजनबी	-11089
▁स्राव	-11090
▁हिम्म	-11091
▁उपरांत	-11092
▁वर्ल्ड	-11093
▁सर्वथा	-11094
▁आक्रामक	-11095
▁बागवानी	-11096
▁मेगावाट	-11097
▁मॉड्यूल	-11098
▁विकल्पों	-11099
▁व्यवहार्य	-11100
▁कल्याणकारी	-11101
▁भविष्यवाणी	-11102
▁दुर्भावनापूर्ण	-11103
०ख	-11104
▁is	-11105
▁Sun	-11106
▁बेक	-11107
िश्रण	-11108
▁Addl	-11109
▁एनआर	-11110
▁कचरे	-11111
▁हीरा	-11112
▁आलिया	-11113
▁खातून	-11114
▁दोहरे	-11115
▁रंगों	-11116
▁स्टाक	-11117
विल	-11118
▁आभ	-11119
▁सउ	-11120
वर्ण	-11121
▁ढूँ	-11122
तानों	-11123
श्यों	-11124
▁किला	-11125
▁मोटी	-11126
▁मूलतः	-11127
▁लिस्ट	-11128
▁किराये	-11129
▁स्पेशल	-11130
यता	-11131
प्पल	-11132
▁घटी	-11133
ट्रिक	-11134
▁नीले	-11135
दृष्टि	-11136
▁पढ़ते	-11137
▁दाहिनी	-11138
▁कंस्ट्र	-11139
▁भावनात्मक	-11140
▁राधाकृष्णन	-11141
aa	-11142
ंकि	-11143
बुल	-11144
ोदरा	-11145
▁एफए	-11146
▁एमए	-11147
ग्राम	-11148
▁अनवर	-11149
▁असहाय	-11150
▁खाड़ी	-11151
▁खुलने	-11152
▁बहाना	-11153
▁बेसिक	-11154
▁भीतरी	-11155
▁वाष्प	-11156
▁औरंगाबाद	-11157
MP	-11158
ढा	-11159
ैड	-11160
ati	-11161
▁AB	-11162
▁अछ	-11163
ावार	-11164
िज्म	-11165
▁खाई	-11166
वालों	-11167
▁बगैर	-11168
▁खजाने	-11169
▁पुर्त	-11170
▁प्रथाओं	-11171
▁अनुमानों	-11172
▁कॉरपोरेट	-11173
▁कॉरपोरेशन	-11174
▁टेस्टेट्रिक्स	-11175
वात	-11176
▁उग	-11177
घाती	-11178
र्शी	-11179
▁जन्	-11180
▁नवल	-11181
▁निभ	-11182
▁वेट	-11183
▁आन्त	-11184
▁कोटे	-11185
▁क्षय	-11186
▁खोजा	-11187
▁अतिशय	-11188
▁एकांत	-11189
▁एलपीए	-11190
▁दिलाया	-11191
▁चुंबकीय	-11192
▁सिलसिले	-11193
▁रेगिस्तान	-11194
▁प्रतिबंधों	-11195
▁संपार्श्विक	-11196
डक	-11197
ort	-11198
▁OA	-11199
चनों	-11200
दर्य	-11201
ेम्प	-11202
ोतरी	-11203
▁लहर	-11204
▁सान	-11205
▁ऑब्ज	-11206
▁मीना	-11207
▁हरित	-11208
▁जरुरी	-11209
▁मेमोर	-11210
▁संदीप	-11211
▁हल्का	-11212
्लीकेशन	-11213
▁चंद्रा	-11214
▁लार्वा	-11215
▁सीमांत	-11216
▁छुटकारा	-11217
OL	-11218
ुए	-11219
ram	-11220
ॉपी	-11221
▁वड	-11222
▁खुर	-11223
▁जनस	-11224
▁बाघ	-11225
▁वैन	-11226
लीकरण	-11227
▁अमीन	-11228
▁कुंज	-11229
▁धुंध	-11230
▁लगीं	-11231
▁वृहत	-11232
▁समेत	-11233
▁अड्डे	-11234
▁खाद्या	-11235
▁निर्मल	-11236
▁पत्थरों	-11237
▁प्रैक्ट	-11238
▁अज्ञानता	-11239
▁एआईसीटीई	-11240
WP	-11241
▁शत	-11242
▁मेध	-11243
ित्री	-11244
▁दायी	-11245
▁गोल्ड	-11246
▁नजदीक	-11247
▁कट्टरप	-11248
▁बेईमान	-11249
▁लागतों	-11250
▁ट्रैक्टर	-11251
▁सांठगांठ	-11252
▁अनुयायियों	-11253
आइ	-11254
एनओ	-11255
रोह	-11256
रकों	-11257
▁गाज	-11258
▁जयपुर	-11259
▁नाट्य	-11260
▁वैद्य	-11261
▁करवाया	-11262
▁मंत्रि	-11263
▁समुच्च	-11264
▁विलंबित	-11265
▁कार्यशाला	-11266
▁At	-11267
्लाई	-11268
▁पडा	-11269
▁बुझ	-11270
▁अभया	-11271
▁ख्याल	-11272
▁गांजा	-11273
▁भयावह	-11274
▁अंडमान	-11275
▁देखेंगे	-11276
हम	-11277
श्र	-11278
▁भट	-11279
▁निध	-11280
▁मन्	-11281
ाइलों	-11282
▁आंगन	-11283
▁जंतु	-11284
▁तटीय	-11285
▁पहना	-11286
▁पारस	-11287
▁मामा	-11288
▁रिली	-11289
▁जरुरत	-11290
▁पिल्ल	-11291
▁सेक्स	-11292
▁कैंटीन	-11293
गै	-11294
▁कलम	-11295
▁जोड	-11296
▁ध्य	-11297
▁नां	-11298
▁कैसा	-11299
▁बीघा	-11300
▁भूतल	-11301
▁शाहज	-11302
▁सिया	-11303
रीक्षक	-11304
▁निवेद	-11305
▁भयंकर	-11306
▁विकेट	-11307
▁साम्य	-11308
▁चटर्जी	-11309
▁अपवादों	-11310
▁प्रतिरूप	-11311
ँगा	-11312
ंजक	-11313
गर्	-11314
भीत	-11315
▁शशि	-11316
▁छड़ी	-11317
▁मुहा	-11318
निर्भर	-11319
▁कन्या	-11320
▁नाजुक	-11321
▁बनाएँ	-11322
▁अंतरंग	-11323
▁लैंगिक	-11324
▁अनभिज्ञ	-11325
▁प्रतिभाग	-11326
▁आधुनिकीकरण	-11327
वधि	-11328
▁Sc	-11329
▁ww	-11330
ogle	-11331
▁Nar	-11332
▁पों	-11333
ालिया	-11334
▁खादी	-11335
▁मंदी	-11336
▁सुझा	-11337
ुतीकरण	-11338
▁ग्रिड	-11339
▁धैर्य	-11340
▁अकाउंट	-11341
▁मुनाफे	-11342
ue	-11343
और	-11344
▁IC	-11345
▁मग	-11346
फिया	-11347
▁मोल	-11348
र्मित	-11349
▁एमआर	-11350
▁ज़ोन	-11351
▁दागी	-11352
▁रूल्स	-11353
▁कोरिया	-11354
▁बराबरी	-11355
▁सुधारा	-11356
▁village	-11357
▁ग्रंथों	-11358
▁वाजपेयी	-11359
▁प्रभारित	-11360
▁व्यापकता	-11361
▁उत्पादकों	-11362
▁नियन्त्रण	-11363
▁संरचनात्मक	-11364
▁प्रविष्टियां	-11365
ase	-11366
फान	-11367
▁AN	-11368
▁रिए	-11369
त्तूर	-11370
द्रता	-11371
▁बहने	-11372
▁सदमे	-11373
▁स्का	-11374
ज्ञानी	-11375
▁Nagar	-11376
▁इंसान	-11377
▁जीतने	-11378
▁मलयाल	-11379
▁सुधीर	-11380
▁अंतररा	-11381
▁अनुज्ञ	-11382
▁निकटतम	-11383
▁प्रधाना	-11384
▁शक्तियाँ	-11385
लयन	-11386
....	-11387
▁धरा	-11388
▁शिल	-11389
▁बन्ध	-11390
▁रेंट	-11391
▁लाला	-11392
▁स्टे	-11393
▁बैठकर	-11394
▁पासवान	-11395
▁स्त्रोत	-11396
▁द्वितीयक	-11397
▁कॉम्प्लेक्स	-11398
▁इर	-11399
▁SRI	-11400
▁असी	-11401
भावित	-11402
▁केशव	-11403
▁मापन	-11404
▁असत्य	-11405
▁झुकाव	-11406
▁पर्दा	-11407
▁मदुरै	-11408
▁संघों	-11409
▁निपटना	-11410
▁सीरियल	-11411
▁चमत्कार	-11412
▁प्रत्यु	-11413
▁सीमांकन	-11414
▁संपूर्णता	-11415
▁रिपोर्टिंग	-11416
▁उत्परिवर्तन	-11417
ash	-11418
गुना	-11419
नामी	-11420
न्सी	-11421
िपरि	-11422
▁CBI	-11423
▁आरएफ	-11424
▁कमला	-11425
▁डिवा	-11426
▁युवक	-11427
▁रोशन	-11428
▁सूखा	-11429
▁मुल्क	-11430
▁मैनेज	-11431
▁रंगीन	-11432
▁निकलते	-11433
▁मैनेजर	-11434
▁संवितरण	-11435
▁विज्ञापित	-11436
▁दुर्भाग्यपूर्ण	-11437
ंकार	-11438
बर्ग	-11439
बिंद	-11440
▁पलट	-11441
▁मदर	-11442
▁रूट	-11443
ॉलिटन	-11444
▁भूषण	-11445
▁सिंघ	-11446
▁सिवा	-11447
फ्रेंस	-11448
▁घुटने	-11449
▁पाटिल	-11450
▁सुचार	-11451
▁पुनर्भ	-11452
▁नागालैंड	-11453
▁पूर्वजों	-11454
▁पुनर्जीवित	-11455
फू	-11456
सस	-11457
▁ऊँच	-11458
ंडिंग	-11459
▁गुणक	-11460
▁घेरे	-11461
▁युसु	-11462
▁लिफा	-11463
▁वल्ल	-11464
▁आँखें	-11465
▁पूँजी	-11466
▁ब्रेक	-11467
▁कमजोरी	-11468
▁सेनाओं	-11469
▁Panchay	-11470
▁अखबारों	-11471
▁जल्दबाजी	-11472
▁अब्दुल्ला	-11473
ीठ	-11474
ICT	-11475
ागार	-11476
०वें	-11477
▁www	-11478
मुश्त	-11479
▁रूढ़	-11480
▁लगाव	-11481
▁घटाकर	-11482
▁बोलना	-11483
स्थापना	-11484
▁एनेक्स	-11485
▁जांचने	-11486
▁मेधावी	-11487
▁लाइनों	-11488
▁इकाइयां	-11489
▁एसोसिएट	-11490
▁मर्यादा	-11491
▁एप्लीकेशन	-11492
▁स्टेटमेंट	-11493
खने	-11494
दगी	-11495
न्दी	-11496
फ़्त	-11497
▁ओएस	-11498
▁घोल	-11499
▁लॉक	-11500
▁सदर	-11501
arpur	-11502
▁क्यो	-11503
▁दस्त	-11504
लेरिया	-11505
▁डिस्प	-11506
▁पावती	-11507
▁बैटरी	-11508
▁विस्म	-11509
▁दिखायी	-11510
▁सदियों	-11511
▁सर्जरी	-11512
▁Panchayat	-11513
▁मंत्रिपरि	-11514
▁इंश्योरेंस	-11515
ोच	-11516
ुगत	-11517
इयाँ	-11518
्यवश	-11519
▁उदर	-11520
▁डबल	-11521
▁RERA	-11522
▁डेढ़	-11523
▁तरंग	-11524
▁ताना	-11525
▁चालीस	-11526
▁मनगढ़	-11527
▁वैश्व	-11528
▁साहिब	-11529
▁सैद्ध	-11530
▁सुनीता	-11531
▁डब्ल्यूपी	-11532
▁क्रियाकलापों	-11533
▁LW	-11534
एक्स	-11535
▁बिश	-11536
▁मुज	-11537
रोहित	-11538
▁खानों	-11539
▁नायडू	-11540
▁पड़ते	-11541
▁मंचों	-11542
▁स्केच	-11543
▁पहुंचना	-11544
▁पूर्वानु	-11545
▁सुभाषबाबू	-11546
▁आवश्यकताएं	-11547
▁प्रारम्भिक	-11548
▁मेट्रोपॉलिटन	-11549
DA	-11550
ard	-11551
▁कोच	-11552
वस्था	-11553
▁अंडा	-11554
▁डिपो	-11555
▁दुखद	-11556
▁शिरा	-11557
▁भ्रमण	-11558
▁Google	-11559
▁हिम्मत	-11560
▁पंचायती	-11561
▁संक्रमित	-11562
▁आर्बिट्रल	-11563
▁कार्यपालक	-11564
▁गवर्नमेंट	-11565
▁अंतःस्थापित	-11566
TA	-11567
▁डु	-11568
ऊंगा	-11569
िथ्म	-11570
▁दुस	-11571
▁मुक	-11572
रेक्ट	-11573
▁पायल	-11574
▁बैठी	-11575
▁तारों	-11576
▁परिपथ	-11577
▁बुखार	-11578
▁रियाय	-11579
▁सिंधी	-11580
▁क्लॉज़	-11581
▁खींचने	-11582
▁जमीनों	-11583
▁अरुणाचल	-11584
▁आवृत्ति	-11585
▁कक्षाओं	-11586
▁विध्वंस	-11587
▁न्यायपीठ	-11588
▁स्टेशनों	-11589
२३	-11590
ख्ता	-11591
▁पला	-11592
▁वजी	-11593
ेट्टी	-11594
▁ग्रा	-11595
▁जवान	-11596
▁मेनू	-11597
▁दर्जे	-11598
▁फारसी	-11599
ब्दियों	-11600
ोल्यूशन	-11601
▁दांतों	-11602
▁मलयालम	-11603
▁अनुपलब्ध	-11604
▁ठेकेदारों	-11605
पीओ	-11606
लता	-11607
▁Am	-11608
सिया	-11609
हाली	-11610
▁छठे	-11611
▁सघन	-11612
ष्टिक	-11613
ृद्धि	-11614
▁अभिम	-11615
▁तेजा	-11616
ापूर्व	-11617
▁जमीनी	-11618
▁डकैती	-11619
▁बैंकर	-11620
▁यार्ड	-11621
▁व्यंग	-11622
▁अप्रति	-11623
▁क्यूरी	-11624
▁चट्टान	-11625
▁रोस्टर	-11626
▁शौचालय	-11627
▁आदर्शों	-11628
▁इस्लामिक	-11629
▁पड़ोसियों	-11630
िओ	-11631
▁GO	-11632
वांछ	-11633
▁Par	-11634
▁उपाध	-11635
▁वेंक	-11636
▁अंकुश	-11637
▁खुराक	-11638
▁बनाएं	-11639
▁सावधि	-11640
▁स्टेज	-11641
▁डीलरों	-11642
▁नवाचार	-11643
▁पाएंगे	-11644
▁मनगढ़ंत	-11645
▁क्वार्टर	-11646
ंछ	-11647
बड़	-11648
▁लय	-11649
▁हता	-11650
रलैंड	-11651
▁घिरा	-11652
▁चाबी	-11653
▁तेज़	-11654
▁पीले	-11655
▁भेड़	-11656
▁वैसी	-11657
▁मार्श	-11658
▁स्थाय	-11659
▁हास्य	-11660
▁तकनीकों	-11661
रणी	-11662
▁रॉ	-11663
▁MAN	-11664
▁Man	-11665
▁बिम	-11666
▁रोब	-11667
▁दाईं	-11668
▁लोकल	-11669
▁सुमन	-11670
▁कारित	-11671
▁फैलाव	-11672
▁मनाने	-11673
▁गुमराह	-11674
▁ज़िम्म	-11675
▁ताजमहल	-11676
▁नवीनीकृत	-11677
▁आपत्तिजनक	-11678
▁आतंकवादियों	-11679
डियम	-11680
पकों	-11681
श्री	-11682
ृष्ठ	-11683
▁झेल	-11684
▁दाँ	-11685
▁नक़	-11686
▁मोन	-11687
▁Shri	-11688
▁एमवी	-11689
▁गाने	-11690
▁पल्ल	-11691
▁सुखद	-11692
पतियों	-11693
▁बढ़ाते	-11694
▁ऑक्सीजन	-11695
▁पहुंचता	-11696
▁हड्डियों	-11697
▁असिस्टेंट	-11698
CR	-11699
मस	-11700
ARA	-11701
ust	-11702
▁for	-11703
▁हज़	-11704
▁अमित	-11705
▁मृदा	-11706
▁वर्षीय	-11707
▁अपमानित	-11708
रिज	-11709
िती	-11710
▁ae	-11711
▁अड	-11712
▁ढा	-11713
गाँव	-11714
ष्मा	-11715
हाउस	-11716
▁थलग	-11717
्यकों	-11718
▁कारप	-11719
▁ज्वर	-11720
▁त्या	-11721
▁भद्र	-11722
▁विका	-11723
▁विज़	-11724
कुमारी	-11725
▁क्रोम	-11726
▁चौड़ी	-11727
▁पाउडर	-11728
▁पृथक्	-11729
▁हफ्ते	-11730
▁दीक्षित	-11731
▁महासचिव	-11732
▁उद्घोषणा	-11733
▁परिष्कृत	-11734
▁कॉन्ट्रैक्ट	-11735
▁ताक	-11736
▁मरण	-11737
नागरी	-11738
▁नौका	-11739
▁बीजी	-11740
▁भण्ड	-11741
▁समनु	-11742
लिसिटर	-11743
▁चलेगा	-11744
▁बहनों	-11745
▁लिखें	-11746
▁सहारे	-11747
▁नौसेना	-11748
▁वास्तु	-11749
▁किताबें	-11750
▁अभयारण्य	-11751
▁हस्ताक्षरकर्ता	-11752
ुकला	-11753
ोग्य	-11754
▁जले	-11755
▁बृज	-11756
▁कुला	-11757
▁परमा	-11758
▁सउदी	-11759
▁हरीश	-11760
ानियों	-11761
▁भयभीत	-11762
▁भूकंप	-11763
▁जापानी	-11764
▁पच्चीस	-11765
▁ब्रिता	-11766
▁शृंखला	-11767
▁परिसरों	-11768
▁देवेंद्र	-11769
▁मालिकाना	-11770
▁आकांक्षाओं	-11771
▁पुनर्प्राप्त	-11772
▁करन	-11773
▁कपिल	-11774
▁क़ुर	-11775
▁गाली	-11776
▁पेंट	-11777
▁कम्युन	-11778
▁मणीलाल	-11779
▁उत्तेजना	-11780
▁सर्विसेज	-11781
▁परिपक्वता	-11782
▁विस्थापित	-11783
उन	-11784
▁बछ	-11785
▁टोक	-11786
▁निज	-11787
▁हीन	-11788
▁अनूप	-11789
▁बाँध	-11790
▁बोनस	-11791
▁साधु	-11792
▁सीने	-11793
▁बैठता	-11794
▁मक्का	-11795
▁निकोबार	-11796
▁निविदाओं	-11797
▁समाविष्ट	-11798
▁कार्मिकों	-11799
▁आत्मनिर्भर	-11800
ेंग	-11801
ोन्	-11802
▁छल	-11803
▁अफस	-11804
▁उकस	-11805
▁नशे	-11806
▁लिस	-11807
▁Bhag	-11808
▁डीएस	-11809
▁दाएं	-11810
▁मुड़	-11811
▁सतत्	-11812
क्ष्मी	-11813
▁समूचे	-11814
▁उकसाने	-11815
▁मुम्बई	-11816
▁सुल्तान	-11817
▁देवनागरी	-11818
▁अभ्यर्थियों	-11819
ala	-11820
ive	-11821
मेट	-11822
लीफ	-11823
वेद	-11824
ैनी	-11825
▁फट	-11826
साजी	-11827
सूरत	-11828
फार्म	-11829
बंधित	-11830
यार्क	-11831
वश्यक	-11832
▁बहुप	-11833
पीडिया	-11834
▁कच्चा	-11835
▁दिखने	-11836
▁दीजिए	-11837
▁पत्तन	-11838
▁फील्ड	-11839
▁लम्बा	-11840
▁अंधेरे	-11841
▁दोषियों	-11842
▁प्रोसेस	-11843
▁बोर्डों	-11844
▁अस्वीकार्य	-11845
▁उपराष्ट्रपति	-11846
ताई	-11847
िनो	-11848
िकार	-11849
▁घसी	-11850
▁मृद	-11851
▁भैंस	-11852
▁खेलों	-11853
▁फ्रेंच	-11854
▁उत्प्रे	-11855
▁एकमुश्त	-11856
▁प्रमोटर	-11857
▁महत्वाक	-11858
▁इन्होंने	-11859
▁खरीदारों	-11860
▁त्रिपुरा	-11861
हू	-11862
▁उब	-11863
▁जघ	-11864
▁कपट	-11865
▁रत्	-11866
▁लिट	-11867
▁एचएल	-11868
▁एमटी	-11869
▁कच्छ	-11870
▁गोरख	-11871
▁क्लिन	-11872
▁मण्डल	-11873
▁हैंडल	-11874
▁संरचनाओं	-11875
▁ज्योतिष्प	-11876
ov	-11877
ING	-11878
▁अनार	-11879
▁टायर	-11880
▁पत्न	-11881
▁क्षेञ	-11882
▁गुलाब	-11883
▁ध्येय	-11884
▁संसद्	-11885
▁मेट्रो	-11886
▁राजकोष	-11887
▁सहेजें	-11888
▁ग्रेजुए	-11889
▁निर्दोषता	-11890
▁सम्बन्धों	-11891
TP	-11892
अली	-11893
जेड	-11894
ट्ठ	-11895
द्घ	-11896
▁ढ़	-11897
▁गरम	-11898
बुद्ध	-11899
▁समया	-11900
▁सौन्	-11901
▁धक्का	-11902
▁फीसदी	-11903
▁मंडली	-11904
▁विशेन	-11905
▁फर्मों	-11906
▁फॉरेंसिक	-11907
▁ब्रितानी	-11908
ank	-11909
गेट	-11910
▁लख	-11911
ेन्ट	-11912
▁खिस	-11913
▁लाज	-11914
▁असीम	-11915
▁ताला	-11916
▁बदलती	-11917
▁मित्त	-11918
▁सरपंच	-11919
▁खनिजों	-11920
▁नियोजक	-11921
▁एकरूपता	-11922
▁कलाकारों	-11923
▁सॉलिसिटर	-11924
▁रजिस्ट्रीकृत	-11925
ण्	-11926
्ये	-11927
ेंटल	-11928
▁रची	-11929
▁राठ	-11930
ृत्ता	-11931
▁अराज	-11932
▁उभरा	-11933
▁एनएच	-11934
▁विलो	-11935
वर्षीय	-11936
▁बिलास	-11937
▁डिवाइस	-11938
▁मुंसिफ	-11939
▁राजदूत	-11940
धिकारियों	-11941
▁संप्रेषण	-11942
▁एल्गोरिथ्म	-11943
▁विरोधाभासों	-11944
फलक	-11945
िसे	-11946
▁ex	-11947
वारे	-11948
▁एएम	-11949
▁बृहत	-11950
▁सिंड	-11951
▁SARFA	-11952
▁अठारह	-11953
▁अवांछ	-11954
▁किसके	-11955
▁निकली	-11956
▁शिफ्ट	-11957
▁संवर्	-11958
▁उपासना	-11959
▁कुर्सी	-11960
▁चिन्ता	-11961
▁रिवाजों	-11962
▁पुनर्विल	-11963
sa	-11964
चाल	-11965
▁गे	-11966
▁धा	-11967
भोगी	-11968
▁डिब	-11969
▁हकी	-11970
▁उठने	-11971
▁टीएस	-11972
▁शंका	-11973
र्नीचर	-11974
▁बैठकें	-11975
▁कृतियों	-11976
▁चिंताओं	-11977
▁विधिज्ञ	-11978
▁संलिप्त	-11979
▁गोस्वामी	-11980
▁वाशिंगटन	-11981
▁उपन्यासों	-11982
ESI	-11983
हमी	-11984
नामे	-11985
राहट	-11986
र्धा	-11987
▁Cri	-11988
▁खुदाई	-11989
▁परिकल	-11990
▁अदायगी	-11991
▁भ्रमित	-11992
▁द्वीपों	-11993
▁स्ट्रिंग	-11994
▁पंक्तियों	-11995
▁सुपुर्दगी	-11996
HI	-11997
इंग	-11998
लाभ	-11999
देड़	-12000
लाइट	-12001
ेम्स	-12002
▁जोग	-12003
▁सेठ	-12004
▁अभिस	-12005
▁मानद	-12006
▁मेला	-12007
▁साफ़	-12008
▁हैंड	-12009
▁मोहित	-12010
▁लीजिए	-12011
▁हिमनद	-12012
▁फाइलों	-12013
▁राजवंश	-12014
▁अनुयायी	-12015
▁पर्वतीय	-12016
▁सैकड़ों	-12017
▁वसीयतनामा	-12018
▁जिम्मेदारियों	-12019
गौ	-12020
ेटर	-12021
ोटा	-12022
▁De	-12023
श्रम	-12024
हरों	-12025
▁कॉफी	-12026
▁निवल	-12027
▁मैरी	-12028
▁रावण	-12029
▁चौड़ा	-12030
▁जिंदा	-12031
▁नोड्स	-12032
▁पक्का	-12033
▁पदनाम	-12034
▁फ्रां	-12035
▁भिक्ष	-12036
▁हममें	-12037
▁निपटाए	-12038
▁रुकावट	-12039
▁रॉयल्टी	-12040
▁एमबीबीएस	-12041
▁घटनाक्रम	-12042
▁संभाव्यता	-12043
rd	-12044
प्पी	-12045
ाउंट	-12046
▁अपव	-12047
▁इण्ड	-12048
▁कांच	-12049
▁डीआई	-12050
▁डीपी	-12051
▁शोधन	-12052
▁घटिया	-12053
▁यूएसए	-12054
▁रुग्ण	-12055
▁अधिष्ठ	-12056
▁जनगणना	-12057
▁ज़रूरी	-12058
▁रिक्शा	-12059
▁कित्तूर	-12060
▁शुक्राणु	-12061
▁एंटरप्राइ	-12062
▁कार्यप्रणाली	-12063
MA	-12064
RL	-12065
ob	-12066
ana	-12067
भंग	-12068
ेनर	-12069
कुशल	-12070
▁छठी	-12071
▁राख	-12072
▁स्फ	-12073
▁लाते	-12074
▁वाटर	-12075
▁ईरानी	-12076
▁ऊँचाई	-12077
▁बहनोई	-12078
▁समतुल	-12079
▁अमूर्त	-12080
▁जंगलों	-12081
▁समग्रता	-12082
▁अभ्यर्थी	-12083
▁उदासीनता	-12084
▁नवान्वेषी	-12085
▁उपयोगकर्ताओं	-12086
GA	-12087
ोसिस	-12088
▁शिष	-12089
▁खोली	-12090
▁तेरह	-12091
▁माधव	-12092
▁डेबिट	-12093
▁पत्रक	-12094
▁पुण्य	-12095
▁बयानी	-12096
▁अनुभवी	-12097
▁स्थावर	-12098
▁वास्तुकला	-12099
▁RO	-12100
▁Un	-12101
ited	-12102
टिया	-12103
▁अनप	-12104
▁एसए	-12105
▁कटि	-12106
▁पौधा	-12107
▁पौरा	-12108
▁बीआई	-12109
▁अयस्क	-12110
▁निजाम	-12111
▁शाश्व	-12112
▁हाजिर	-12113
▁आईसीटी	-12114
▁ग्रंथि	-12115
▁समुच्चय	-12116
▁अभिलिखित	-12117
▁महाकाव्य	-12118
▁राष्ट्रीयता	-12119
दो	-12120
ोत्त	-12121
▁अनूठ	-12122
▁अभिश	-12123
▁ज़ोर	-12124
▁मोटा	-12125
▁आसन्न	-12126
▁किश्त	-12127
▁जायगा	-12128
▁दोहरी	-12129
▁प्ररूप	-12130
▁मूल्या	-12131
▁करोड़ों	-12132
▁निष्पादक	-12133
▁कार्यकलाप	-12134
▁पक्षपातपूर्ण	-12135
to	-12136
▁RA	-12137
▁रौ	-12138
मपुर	-12139
▁CAV	-12140
▁Com	-12141
▁उठी	-12142
▁जिम	-12143
ुलेंस	-12144
▁कलाम	-12145
▁घंटा	-12146
▁भरना	-12147
▁ममता	-12148
▁लेगी	-12149
▁क्रिस	-12150
▁फर्स्ट	-12151
▁रिसर्च	-12152
▁सत्तार	-12153
▁हाइड्र	-12154
▁गेंदबाज	-12155
▁बुद्धिम	-12156
▁सुंदरता	-12157
▁पत्तियों	-12158
▁संक्रामक	-12159
▁श्रीकृष्ण	-12160
▁अनियमितताओं	-12161
CO	-12162
फन	-12163
▁छंट	-12164
▁नीर	-12165
शिल्प	-12166
▁्याय	-12167
▁कार्प	-12168
▁जघन्य	-12169
▁रिव्यू	-12170
▁ब्रह्मा	-12171
▁वीरेंद्र	-12172
▁अतिमानसिक	-12173
▁न्यूयार्क	-12174
▁सशक्तीकरण	-12175
▁प्राप्तकर्ता	-12176
गृह	-12177
चों	-12178
सेफ	-12179
ाजन	-12180
ॉर्क	-12181
▁बेन	-12182
फॉर्म	-12183
▁आहरण	-12184
▁सोनू	-12185
र्ताओं	-12186
▁माणिक	-12187
▁मेहरा	-12188
▁अभिषेक	-12189
▁गुलाबी	-12190
▁परंतुक	-12191
▁बढ़ाता	-12192
▁वीआरएस	-12193
▁आस्तियां	-12194
▁क्षेत्रक	-12195
▁निर्वाचक	-12196
▁प्रत्युत्तर	-12197
URU	-12198
arb	-12199
ग्व	-12200
जना	-12201
िनस	-12202
िवि	-12203
गरीय	-12204
ोत्सव	-12205
▁अष्ट	-12206
▁टेबल	-12207
▁स्कू	-12208
▁क़्या	-12209
▁कामया	-12210
▁लगाये	-12211
▁म्यूटेशन	-12212
▁इलेक्ट्रॉनिक्स	-12213
नरी	-12214
▁Dr	-12215
▁छी	-12216
▁थक	-12217
ंसित	-12218
ोगिक	-12219
▁आगम	-12220
▁भरण	-12221
▁कड़े	-12222
▁कलंक	-12223
▁म्यू	-12224
▁उपनिष	-12225
▁कस्टम	-12226
▁नतीजे	-12227
▁वृक्क	-12228
▁वेदों	-12229
▁शारदा	-12230
▁चंपारण	-12231
▁प्रतिब	-12232
▁संभाला	-12233
▁समाजों	-12234
▁पहाड़ियों	-12235
तुर	-12236
फिक	-12237
वित	-12238
गारी	-12239
▁इंप	-12240
▁कुद	-12241
▁झोप	-12242
▁तैर	-12243
स्करी	-12244
्समैन	-12245
▁इनको	-12246
▁ग्ला	-12247
▁थैली	-12248
▁मारी	-12249
▁भगवती	-12250
▁जीवनकाल	-12251
▁घुमावदार	-12252
▁प्रमाणों	-12253
▁रामकृष्ण	-12254
▁अपेक्षाओं	-12255
▁प्रतिज्ञा	-12256
has	-12257
iya	-12258
ोर्स	-12259
▁फेश	-12260
▁लैब	-12261
▁क्रू	-12262
▁लर्न	-12263
▁शेखर	-12264
▁अंशों	-12265
▁औषधीय	-12266
▁तत्सं	-12267
▁बीजों	-12268
▁ख्याति	-12269
▁कार्रवा	-12270
▁फर्नीचर	-12271
ara	-12272
ंसल	-12273
बैक	-12274
ंजित	-12275
▁तीर	-12276
▁नोए	-12277
▁मिड	-12278
▁साओ	-12279
कर्मी	-12280
▁दशरथ	-12281
▁दाता	-12282
▁भावा	-12283
फार्मा	-12284
▁मार्शल	-12285
▁संकलित	-12286
▁मैट्रिक	-12287
▁अनुबंधित	-12288
▁आनुपातिक	-12289
▁बिलासपुर	-12290
▁कीटनाशकों	-12291
▁स्थानापन्न	-12292
▁कार्यक्षेत्र	-12293
ोभ	-12294
▁PM	-12295
ावती	-12296
▁Sam	-12297
▁एंथ	-12298
▁चचे	-12299
▁राघ	-12300
▁लाद	-12301
▁्या	-12302
निर्ण	-12303
▁डीसी	-12304
▁पतली	-12305
▁पराग	-12306
▁रखाव	-12307
▁केलिए	-12308
▁बीतने	-12309
ानुक्रम	-12310
▁अन्वेष	-12311
▁व्यतिक	-12312
▁सम्मुख	-12313
▁सर्किल	-12314
▁अक्षरों	-12315
▁तर्कहीन	-12316
▁प्रॉक्सी	-12317
▁अंतरात्मा	-12318
▁लाभान्वित	-12319
▁उद्देश्यपूर्ण	-12320
ट्टे	-12321
तदार	-12322
बानी	-12323
ाप्र	-12324
▁असं	-12325
▁खां	-12326
▁पूल	-12327
▁भाँ	-12328
▁मुल	-12329
गाड़ी	-12330
▁Page	-12331
▁कब्र	-12332
▁गाइड	-12333
▁सपने	-12334
▁रिवाज	-12335
▁सवारी	-12336
▁सद्भाव	-12337
ृत्तियों	-12338
▁जालसाजी	-12339
▁दुर्भाग	-12340
▁राजेन्द्र	-12341
tt	-12342
आन	-12343
ण्य	-12344
दरी	-12345
ध्द	-12346
ुला	-12347
्वल	-12348
▁पीट	-12349
विन्द	-12350
▁ज्यू	-12351
▁मोचन	-12352
▁सपना	-12353
ड़ियां	-12354
▁आठवीं	-12355
▁सेवार	-12356
▁कर्त्त	-12357
▁परिवाद	-12358
▁भूमिगत	-12359
▁पौराणिक	-12360
▁संस्थापन	-12361
▁डिस्ट्रिक	-12362
▁उत्तरवर्ती	-12363
▁प्रोफार्मा	-12364
▁औपचारिकताओं	-12365
ge	-12366
▁अलम	-12367
▁थाः	-12368
▁नाख	-12369
▁इटली	-12370
▁ढलान	-12371
▁नवाब	-12372
▁मप्र	-12373
▁लगों	-12374
▁विशा	-12375
्वेस्ट	-12376
▁उदारी	-12377
▁बनारस	-12378
▁बहुधा	-12379
▁तस्करी	-12380
▁नरसिंह	-12381
▁मारुति	-12382
▁संकेतक	-12383
▁आन्तरिक	-12384
▁प्रशस्त	-12385
▁परित्याग	-12386
▁पत्रिकाओं	-12387
▁सहिष्णुता	-12388
▁साधारणतया	-12389
▁अत्यावश्यक	-12390
▁आपूर्तिकर्ता	-12391
▁विमानक्षेत्र	-12392
▁प्रतिनिधिमंडल	-12393
तौर	-12394
ूढ़	-12395
ोगी	-12396
▁co	-12397
▁बेग	-12398
योग्य	-12399
ामीटर	-12400
▁अन्ध	-12401
▁कन्ह	-12402
▁कुएं	-12403
▁कॉमन	-12404
▁ठंडा	-12405
▁पतला	-12406
▁बदली	-12407
▁मेले	-12408
▁श्ले	-12409
▁उपद्रव	-12410
▁तालमेल	-12411
क्षात्मक	-12412
▁अभिनेता	-12413
▁निर्यातक	-12414
▁रिक्तियां	-12415
▁प्रोग्रामिंग	-12416
SE	-12417
ंपल	-12418
▁Mu	-12419
नायक	-12420
▁Bal	-12421
ोनिया	-12422
▁आभास	-12423
▁चालुक	-12424
▁नाभिक	-12425
▁बदलता	-12426
▁बूढ़े	-12427
▁रवैया	-12428
▁सविता	-12429
▁निकलती	-12430
▁बहुसंख	-12431
▁वियतना	-12432
▁विलम्ब	-12433
▁शाश्वत	-12434
▁अवशिष्ट	-12435
▁सौन्दर्य	-12436
▁अनिश्चितता	-12437
▁विज्ञापनों	-12438
▁मंत्रिपरिषद	-12439
▁व्याख्याताओं	-12440
ok	-12441
ावि	-12442
िएबल	-12443
्तिक	-12444
▁बाउ	-12445
▁मिठ	-12446
ियनों	-12447
▁अमूल	-12448
▁आक्र	-12449
▁इष्ट	-12450
▁गलतफ	-12451
▁जीता	-12452
▁बॉडी	-12453
▁स्ला	-12454
श्चात्	-12455
तानुसार	-12456
▁उकसाया	-12457
▁ग्रीवा	-12458
▁प्रातः	-12459
▁दिखाएगा	-12460
▁पहुंचती	-12461
▁लाइब्रे	-12462
▁समझदारी	-12463
▁ब्राउज़र	-12464
▁सब्जियों	-12465
▁पंचवर्षीय	-12466
▁विश्वव्यापी	-12467
पाट	-12468
ेरी	-12469
▁Ac	-12470
एंगे	-12471
सूची	-12472
ोत्प	-12473
▁आदम	-12474
▁दाद	-12475
▁बृह	-12476
कार्ब	-12477
ांतरण	-12478
▁कचरा	-12479
▁केएस	-12480
▁दलित	-12481
▁माउस	-12482
▁अय्यर	-12483
▁ओसीसी	-12484
▁पेरिस	-12485
▁मुर्ग	-12486
▁एकाग्र	-12487
▁दुबारा	-12488
▁मुद्रक	-12489
▁एनआईओएस	-12490
▁मार्गों	-12491
▁स्तंभों	-12492
▁प्रशिक्षु	-12493
▁परिसंपत्ति	-12494
▁डिस्ट्रिक्ट	-12495
EG	-12496
’’	-12497
ैंट	-12498
▁RF	-12499
डीआर	-12500
▁एमई	-12501
▁फंस	-12502
▁भला	-12503
▁मों	-12504
▁शॉप	-12505
▁अतुल	-12506
▁गिरि	-12507
▁जीएस	-12508
▁लम्ब	-12509
▁समतल	-12510
▁तटस्थ	-12511
▁मिल्स	-12512
▁सज्जन	-12513
▁उन्मुख	-12514
▁रसीदें	-12515
▁पात्रों	-12516
▁मार्क्स	-12517
▁ज्योतिर्मठ	-12518
▁क्रियान्वित	-12519
▁प्रक्रियाएं	-12520
२४	-12521
ोकर	-12522
▁OP	-12523
ipur	-12524
प्पू	-12525
वारा	-12526
▁आरओ	-12527
▁चीख	-12528
खानों	-12529
दाश्त	-12530
▁पंकज	-12531
▁मुर्	-12532
▁व्रत	-12533
▁उल्टी	-12534
▁एनओसी	-12535
▁नवजात	-12536
▁नोएडा	-12537
▁पीड़क	-12538
▁अस्त्र	-12539
▁नोकिया	-12540
▁SARFAESI	-12541
▁तत्संबंधी	-12542
रां	-12543
▁लघ	-12544
ॉजिट	-12545
▁डीम	-12546
▁दुब	-12547
▁एसएल	-12548
▁खेला	-12549
▁चंदर	-12550
▁ट्रा	-12551
▁पीके	-12552
▁वृंद	-12553
मुक्ति	-12554
▁कीमती	-12555
▁दशाओं	-12556
▁रेस्प	-12557
▁व्हिप	-12558
▁स्पेन	-12559
▁जिन्ना	-12560
▁यूनानी	-12561
▁जबरदस्त	-12562
▁द्विवेदी	-12563
▁प्रेमचन्द	-12564
▁नामनिर्देश	-12565
ide	-12566
ुनी	-12567
▁कद	-12568
ब्बी	-12569
▁Dev	-12570
▁एबी	-12571
▁वाउ	-12572
त्रिक	-12573
▁उभार	-12574
▁पद्य	-12575
▁सजीव	-12576
▁निष्ठ	-12577
▁किस्मों	-12578
▁दुकानें	-12579
व्यवस्थित	-12580
▁एग्रीमेंट	-12581
▁शताब्दियों	-12582
त्थ	-12583
मयी	-12584
ेषण	-12585
▁अरे	-12586
▁पैद	-12587
▁पोट	-12588
▁रोह	-12589
▁गायक	-12590
▁मामल	-12591
▁होस्ट	-12592
▁अधिमान	-12593
▁मित्रा	-12594
▁मुर्गी	-12595
▁एजेंटों	-12596
▁पत्रकार	-12597
▁सैद्धांतिक	-12598
▁पुनर्विलोकन	-12599
▁लाभार्थियों	-12600
गिर	-12601
ारसी	-12602
▁बहू	-12603
कार्य	-12604
गृहीत	-12605
▁ईश्व	-12606
▁कशेर	-12607
▁घोषण	-12608
▁माथे	-12609
▁स्लम	-12610
▁अहसास	-12611
▁कराते	-12612
▁फोटोक	-12613
▁मथुरा	-12614
▁मियां	-12615
▁लॉन्च	-12616
▁संज्ञा	-12617
▁पीएमएलए	-12618
▁वचनबद्ध	-12619
▁समनुदेश	-12620
▁समाजवाद	-12621
▁उपेक्षित	-12622
▁अनुपयुक्त	-12623
▁प्रत्यायोजित	-12624
ance	-12625
शोधन	-12626
स्तर	-12627
▁उषा	-12628
▁एआर	-12629
▁धरो	-12630
▁लिक	-12631
▁सिड	-12632
▁काटा	-12633
▁कैंप	-12634
▁चढ़ा	-12635
▁डिजी	-12636
▁त्यौ	-12637
▁निःश	-12638
▁मच्छ	-12639
▁हरेक	-12640
न्यासी	-12641
▁चावला	-12642
▁बंदोब	-12643
▁भावों	-12644
▁लिखकर	-12645
गोशिएबल	-12646
▁खुफिया	-12647
▁ईआर	-12648
▁रवै	-12649
▁सफ़	-12650
ग्रही	-12651
▁चपरा	-12652
▁वसंत	-12653
्यूटरी	-12654
▁कथनों	-12655
▁कालाव	-12656
▁पहलों	-12657
▁शिश्न	-12658
▁वैल्यू	-12659
▁पुत्रों	-12660
▁प्राप्य	-12661
▁चक्रवर्ती	-12662
▁उम्मीदवारी	-12663
एफए	-12664
थिक	-12665
देय	-12666
▁ओज	-12667
▁मय	-12668
सर्ग	-12669
▁जेन	-12670
स्टोन	-12671
ेंट्स	-12672
▁कतार	-12673
▁भूरे	-12674
▁छिड़क	-12675
▁धरोहर	-12676
▁नम्बर	-12677
▁सियार	-12678
▁स्क्व	-12679
▁पंचांग	-12680
▁फैलाने	-12681
▁वडोदरा	-12682
▁सेवारत	-12683
▁इंग्लिश	-12684
▁दोहराते	-12685
▁आच्छादित	-12686
▁करनेवाले	-12687
▁प्रेमचंद	-12688
▁फैक्ट्री	-12689
▁महाद्वीप	-12690
▁उपयुक्तता	-12691
ore	-12692
ॉयस	-12693
▁राग	-12694
भागीय	-12695
▁उठते	-12696
▁ऑर्स	-12697
▁छत्र	-12698
▁जमाव	-12699
▁सोशल	-12700
▁अनुरुप	-12701
▁अमृतसर	-12702
▁अलंकरण	-12703
▁बहुलता	-12704
▁अपार्टमेंट	-12705
▁न्यायपूर्ण	-12706
▁श्रद्धांजलि	-12707
ॉं	-12708
ट्ठी	-12709
तत्व	-12710
▁आइस	-12711
▁पिर	-12712
▁बाण	-12713
alpur	-12714
▁अन्र	-12715
▁टोकन	-12716
▁नायर	-12717
▁यूके	-12718
▁विंग	-12719
▁डालें	-12720
▁रहमान	-12721
▁उन्नीस	-12722
▁एक्सपी	-12723
▁एलपीजी	-12724
▁पार्टनर	-12725
▁पुरोहित	-12726
▁सुप्रीम	-12727
▁पार्किंग	-12728
▁रिफाइनरी	-12729
UN	-12730
सक	-12731
महा	-12732
▁GA	-12733
किया	-12734
▁ईएम	-12735
▁शां	-12736
▁सला	-12737
▁गोपी	-12738
▁ट्रॉ	-12739
▁बसंत	-12740
ास्ट्र	-12741
▁आंत्र	-12742
▁कथाओं	-12743
▁प्रसि	-12744
▁बढाने	-12745
▁मुंडा	-12746
▁फिटनेस	-12747
▁बारीकी	-12748
▁निर्वास	-12749
▁अनुशंसित	-12750
▁अवस्थाओं	-12751
▁संन्यासी	-12752
▁अव्यवस्था	-12753
▁खाद्यान्न	-12754
▁ज्योतिष्पीठ	-12755
हण	-12756
फीक	-12757
शों	-12758
▁वफ	-12759
ावरी	-12760
१वें	-12761
▁टूल	-12762
▁नेप	-12763
▁जेएन	-12764
▁वीणा	-12765
▁कट्टर	-12766
▁पत्ते	-12767
▁माउंट	-12768
▁मिलों	-12769
▁वर्गा	-12770
▁चपरासी	-12771
▁दिखाती	-12772
▁निकलना	-12773
▁स्नायु	-12774
▁स्वरुप	-12775
▁वृक्षों	-12776
▁समतुल्य	-12777
▁अधिकरणों	-12778
▁धर्मशाला	-12779
▁बहिष्करण	-12780
▁एक्सट्रीम	-12781
▁विवेकानंद	-12782
ढी	-12783
mis	-12784
चड़	-12785
झान	-12786
टाइ	-12787
▁LJ	-12788
▁लती	-12789
▁लेब	-12790
ल्कों	-12791
्रियल	-12792
▁क्षी	-12793
▁डीजल	-12794
▁जवाहर	-12795
▁महाजन	-12796
▁तत्समय	-12797
▁फेंकने	-12798
▁महाजार	-12799
▁महासभा	-12800
▁विधायक	-12801
▁समामेल	-12802
▁अधिकथित	-12803
▁खुशहाली	-12804
▁फेफड़ों	-12805
▁साप्ताह	-12806
▁पैकेजिंग	-12807
▁प्रोफ़ाइल	-12808
▁सुव्यवस्थित	-12809
बाध	-12810
भवन	-12811
चकों	-12812
ज्जा	-12813
तमंद	-12814
▁MFA	-12815
▁बीर	-12816
िंग्स	-12817
▁गांठ	-12818
▁फ़िर	-12819
▁रेणु	-12820
▁जिनको	-12821
▁द्वेष	-12822
▁नक्शे	-12823
▁सक्से	-12824
▁सुनते	-12825
कर्त्ता	-12826
▁अल्लाह	-12827
▁कैपिटल	-12828
▁क्योकि	-12829
▁निम्नतर	-12830
▁युग्मित	-12831
▁साम्राज्यवाद	-12832
ैब	-12833
ORE	-12834
▁खेद	-12835
▁अंगी	-12836
▁एलसी	-12837
▁मेजर	-12838
▁Chrom	-12839
▁कुष्ठ	-12840
▁कोनों	-12841
▁बनेगा	-12842
▁महोदय	-12843
▁दर्शित	-12844
▁दिवंगत	-12845
▁प्रकटन	-12846
▁अवरुद्ध	-12847
▁पैदावार	-12848
▁स्ट्रीम	-12849
▁संलिप्तता	-12850
▁साप्ताहिक	-12851
▁एंटरप्राइज	-12852
ans	-12853
ine	-12854
टित	-12855
ड्र	-12856
ेतन	-12857
्गो	-12858
्ना	-12859
मुझे	-12860
िकोड	-12861
▁गान	-12862
▁बकर	-12863
▁बोत	-12864
▁सृज	-12865
▁गुड़	-12866
▁तरफ़	-12867
▁महार	-12868
▁यानि	-12869
▁साउथ	-12870
स्तरीय	-12871
▁उभरती	-12872
▁कोल्ह	-12873
▁जीवनी	-12874
▁दुष्प	-12875
▁हुबली	-12876
▁असीमित	-12877
▁उदारता	-12878
▁बढ़िया	-12879
▁मित्तल	-12880
▁राजपूत	-12881
▁लेक्चर	-12882
▁अनुशंसा	-12883
▁त्यौहार	-12884
▁दुराचार	-12885
▁राजनयिक	-12886
▁प्रक्षेपण	-12887
▁टेक्नोलॉजी	-12888
▁प्रयोगशालाओं	-12889
wa	-12890
िष	-12891
ोही	-12892
▁al	-12893
पाती	-12894
▁कटे	-12895
▁चाइ	-12896
ंबद्ध	-12897
र्जित	-12898
▁इजाज	-12899
▁सबका	-12900
ान्तरण	-12901
▁उठाता	-12902
▁जरिये	-12903
▁लुप्त	-12904
▁वायरस	-12905
▁आरबीआई	-12906
▁सांसार	-12907
▁स्कूली	-12908
फ्रास्ट्र	-12909
▁आत्मघाती	-12910
▁ऑपरेटिंग	-12911
▁शुक्रवार	-12912
▁इंजीनियरों	-12913
▁कंस्ट्रक्शन	-12914
फिट	-12915
यास	-12916
्ती	-12917
खोरी	-12918
▁उपच	-12919
▁जीएम	-12920
▁बापू	-12921
▁बोना	-12922
▁मैथुन	-12923
▁रेस्त	-12924
▁एकाउंट	-12925
▁बर्बाद	-12926
▁श्रव्य	-12927
▁पाश्चात	-12928
▁राज्यसभा	-12929
LR	-12930
बै	-12931
काए	-12932
रिश	-12933
▁खज	-12934
ूलाल	-12935
▁हनी	-12936
ानिया	-12937
▁एजें	-12938
▁बरती	-12939
▁संसू	-12940
▁अधूरा	-12941
▁कवरेज	-12942
▁कालीन	-12943
▁भूगोल	-12944
▁समरूप	-12945
▁कॉन्फ़	-12946
▁चीज़ों	-12947
▁स्टार्ट	-12948
▁कट्टरपंथी	-12949
▁उत्तरार्द्ध	-12950
ng	-12951
्इ	-12952
▁sa	-12953
दानी	-12954
ेंडम	-12955
▁चाँ	-12956
क्ष्ण	-12957
चर्या	-12958
विष्ट	-12959
▁बहती	-12960
▁रखनी	-12961
नारायण	-12962
िज्ञान	-12963
▁अधिनयम	-12964
▁गणितीय	-12965
▁डिमांड	-12966
▁रीडिंग	-12967
▁कन्हैया	-12968
▁किताबों	-12969
▁निर्बाध	-12970
▁सर्कुलर	-12971
▁उत्तराखंड	-12972
▁सांख्यिकीय	-12973
▁संवेदनशीलता	-12974
aoM	-12975
▁Co	-12976
▁शन	-12977
चरित	-12978
ीयों	-12979
ोल्ट	-12980
▁नबी	-12981
तावास	-12982
▁क्रे	-12983
▁गाथा	-12984
▁दराज	-12985
▁फ़ोन	-12986
▁अनजान	-12987
▁उपवास	-12988
▁कंकाल	-12989
▁सीखना	-12990
▁सीलबंद	-12991
▁परिजनों	-12992
▁फोटोकॉपी	-12993
▁वर्गाकार	-12994
टूर	-12995
▁केन	-12996
वस्तु	-12997
▁उंगल	-12998
▁पेटी	-12999
▁बर्न	-13000
▁लपेट	-13001
▁अमिता	-13002
▁रेडिय	-13003
▁चैनलों	-13004
▁फिरौती	-13005
▁फोल्डर	-13006
▁हालिया	-13007
▁रोज़गार	-13008
▁अंशकालिक	-13009
▁पीढ़ियों	-13010
▁छात्रावास	-13011
▁डिफेंडेंट	-13012
तनी	-13013
ादे	-13014
ीयर	-13015
ुली	-13016
▁चब	-13017
▁सीओ	-13018
्लेषण	-13019
▁East	-13020
▁आईपी	-13021
▁जांघ	-13022
▁मुवक	-13023
▁अभ्या	-13024
▁आवधिक	-13025
▁इजाजत	-13026
▁कुप्र	-13027
▁डालती	-13028
▁पप्पू	-13029
▁पित्त	-13030
▁मुरली	-13031
▁वर्गम	-13032
▁अधिभोग	-13033
▁पारम्प	-13034
निरपेक्ष	-13035
▁गलतफहमी	-13036
▁रामलिंग	-13037
▁स्टैम्प	-13038
▁वर्षगांठ	-13039
▁निगोशिएबल	-13040
▁त्रुटिपूर्ण	-13041
SC	-13042
कुम	-13043
डित	-13044
षाण	-13045
ामस	-13046
▁’’	-13047
ंजलि	-13048
▁गड्	-13049
▁नज़	-13050
▁फोक	-13051
कर्षण	-13052
त्तों	-13053
▁इन्स	-13054
▁उमेश	-13055
▁एलडी	-13056
▁बेतु	-13057
▁खर्चा	-13058
▁राक्ष	-13059
▁सुनाए	-13060
▁जोड़ता	-13061
▁बेलगाम	-13062
▁ग्रीष्म	-13063
▁संस्थित	-13064
▁साफ्टवेयर	-13065
▁मान्यताप्राप्त	-13066
लिन	-13067
ापी	-13068
ुकता	-13069
्रास	-13070
▁खली	-13071
▁जुग	-13072
▁नाच	-13073
विंदर	-13074
ोलनों	-13075
▁एलएल	-13076
▁चेतन	-13077
▁टिकी	-13078
▁नामं	-13079
▁प्रज	-13080
▁भीषण	-13081
▁मीरा	-13082
▁रियल	-13083
▁नगरों	-13084
▁पसन्द	-13085
▁एकान्त	-13086
▁कानूनन	-13087
▁कुत्ते	-13088
▁जबलपुर	-13089
▁पुरस्कृत	-13090
▁सांसारिक	-13091
धिप	-13092
ेकर	-13093
hara	-13094
ions	-13095
ादान	-13096
▁जलन	-13097
▁अंचल	-13098
▁आरेख	-13099
▁उपजा	-13100
▁घाटे	-13101
▁वफाद	-13102
▁ब्राज	-13103
▁भागते	-13104
▁वायदा	-13105
▁न्यासी	-13106
▁प्रलेख	-13107
▁साहसिक	-13108
▁शपथपत्र	-13109
▁संभवतया	-13110
▁प्रशासित	-13111
▁विश्लेषक	-13112
▁व्यक़्ति	-13113
फ्रास्ट्रक्चर	-13114
KA	-13115
कोड	-13116
पंथ	-13117
ौड़	-13118
▁खल	-13119
▁गन	-13120
फाइड	-13121
▁एलए	-13122
▁कैट	-13123
▁बदलकर	-13124
▁रोबोट	-13125
▁उल्लास	-13126
▁डेवलपर	-13127
▁उच्छेदन	-13128
▁उपनियमों	-13129
▁केन्द्री	-13130
▁ग्लोरिया	-13131
▁प्रत्याशा	-13132
▁रिटर्निंग	-13133
▁NI	-13134
▁लव	-13135
टीएस	-13136
▁KAR	-13137
▁खाट	-13138
▁खोद	-13139
▁मनु	-13140
▁रमन	-13141
▁देसी	-13142
▁फ्रै	-13143
▁मधुम	-13144
▁मल्ल	-13145
▁यकृत	-13146
▁स्वत	-13147
▁गायों	-13148
▁बढावा	-13149
▁रिफंड	-13150
▁जुड़ने	-13151
▁शिवाजी	-13152
▁फाइनेंस	-13153
▁कार्यशील	-13154
▁समारोहों	-13155
▁प्रामाणिकता	-13156
कूट	-13157
धना	-13158
▁we	-13159
abad	-13160
▁ढोल	-13161
▁लसी	-13162
पृष्ठ	-13163
▁करोड	-13164
▁डीजी	-13165
▁धनुष	-13166
▁बालू	-13167
▁मैके	-13168
▁रीढ़	-13169
▁लाये	-13170
▁वक्ष	-13171
▁अपडेट	-13172
▁जड़ें	-13173
▁डेंटल	-13174
▁परिणत	-13175
▁पर्ची	-13176
▁पोषित	-13177
▁विक्ष	-13178
▁वीरता	-13179
▁सुझाए	-13180
▁चेष्टा	-13181
▁मानसून	-13182
▁तीक्ष्ण	-13183
▁मैदानों	-13184
▁शिष्यों	-13185
▁सराहनीय	-13186
▁झाड़ियों	-13187
▁ट्रैकिंग	-13188
▁सिद्धदोष	-13189
▁प्राचार्य	-13190
▁फोटोग्राफ	-13191
▁हस्तशिल्प	-13192
▁स्वायत्तता	-13193
ऑफ	-13194
तेह	-13195
ावत	-13196
िनम	-13197
िफ़	-13198
ौना	-13199
▁cr	-13200
गण्य	-13201
ूंगी	-13202
▁REV	-13203
▁असे	-13204
▁पीर	-13205
िचेरी	-13206
▁अनाप	-13207
▁घुड़	-13208
▁टकरा	-13209
▁बुजु	-13210
▁DISTR	-13211
▁WPNos	-13212
▁छोड़ी	-13213
▁मिलें	-13214
▁परोक्ष	-13215
▁मुन्ना	-13216
▁विकिपीडिया	-13217
▁न्यायाधिकरणों	-13218
ell	-13219
्गी	-13220
▁NO	-13221
बाज़	-13222
शियल	-13223
ोन्म	-13224
▁Lal	-13225
▁एडम	-13226
▁कैथ	-13227
▁जनन	-13228
भाषित	-13229
▁एनबी	-13230
▁चुनि	-13231
▁यहूद	-13232
▁रोना	-13233
▁श्या	-13234
▁हमास	-13235
▁अकेली	-13236
▁जार्ज	-13237
▁एमएलसी	-13238
▁महानगर	-13239
▁मुनाफा	-13240
▁परक्राम	-13241
▁फेडरेशन	-13242
▁वर्गमूल	-13243
▁आवंटियों	-13244
▁कहानियां	-13245
ere	-13246
मैं	-13247
शाक	-13248
ुंध	-13249
▁नृ	-13250
कुलर	-13251
समूह	-13252
साइड	-13253
▁अशु	-13254
▁एनई	-13255
▁पेड	-13256
▁वरन	-13257
▁शिर	-13258
शासित	-13259
▁घुमा	-13260
▁प्रह	-13261
▁रंगा	-13262
▁रिंग	-13263
eshwar	-13264
▁ओबीसी	-13265
▁नियति	-13266
▁योगेश	-13267
▁विक्ट	-13268
ॉल्यूशन	-13269
ोनेशिया	-13270
▁मिस्टर	-13271
▁अफ्रीकी	-13272
▁कविताएं	-13273
▁कालावधि	-13274
▁क्लिनिक	-13275
▁वियतनाम	-13276
▁सरोजिनी	-13277
▁प्रबन्धन	-13278
▁मुवक्किल	-13279
▁व्यवहार्यता	-13280
घ्न	-13281
▁AC	-13282
▁US	-13283
▁FIR	-13284
▁कंब	-13285
▁फलक	-13286
▁बिक	-13287
▁मसू	-13288
▁NAME	-13289
▁इसमे	-13290
▁कमोड	-13291
▁फकीर	-13292
▁फिनल	-13293
▁फ्लै	-13294
▁आभासी	-13295
▁खरगोश	-13296
▁जर्नल	-13297
▁देखती	-13298
▁विलास	-13299
▁कन्नड़	-13300
▁नर्सरी	-13301
▁पत्तों	-13302
▁जातियां	-13303
▁फ़ाइलें	-13304
▁समयावधि	-13305
▁अध्यापकों	-13306
▁तत्पश्चात्	-13307
ESH	-13308
ौरी	-13309
▁Lim	-13310
▁जमश	-13311
▁पिप	-13312
▁बेड	-13313
▁बेर	-13314
▁कांट	-13315
▁चुनी	-13316
▁निंद	-13317
▁परिम	-13318
ांक्षी	-13319
ियाबाद	-13320
▁कैमरा	-13321
▁क्षीण	-13322
▁गलिया	-13323
▁जागरण	-13324
▁पार्व	-13325
▁वंशान	-13326
▁दिवसीय	-13327
▁बढ़ेगा	-13328
▁कोशिकाएं	-13329
▁विधेयकों	-13330
▁महानिरीक्षक	-13331
LJ	-13332
ड़ो	-13333
रिस	-13334
ोहक	-13335
▁धाग	-13336
▁भाल	-13337
▁हें	-13338
्यूलर	-13339
▁अभूत	-13340
▁डाउन	-13341
▁मुक़	-13342
▁सचिन	-13343
ोरेटरी	-13344
▁अंकगण	-13345
▁कराती	-13346
▁गिर्द	-13347
▁पार्ष	-13348
▁शरारत	-13349
▁समझदार	-13350
▁आमंत्रण	-13351
▁वंशानुगत	-13352
▁गारंटीकृत	-13353
ईस	-13354
काई	-13355
लीस	-13356
िंद	-13357
ोरो	-13358
▁aa	-13359
hool	-13360
ुलिप	-13361
ेंदर	-13362
▁ओएम	-13363
▁धर्	-13364
▁यदु	-13365
▁कड़ा	-13366
▁जूरी	-13367
▁व्हा	-13368
▁कच्ची	-13369
▁जमशेद	-13370
▁बागान	-13371
▁मानकी	-13372
ानात्मक	-13373
▁कृषकों	-13374
▁योद्धा	-13375
▁अनुकूलन	-13376
▁परिषदों	-13377
▁साझीदार	-13378
▁अनुज्ञेय	-13379
▁ट्रांसफ़	-13380
▁परमात्मा	-13381
▁बस्तियों	-13382
▁यात्राओं	-13383
▁कॉन्फ़िगर	-13384
▁पाश्चात्य	-13385
▁मार्केटिंग	-13386
▁स्क्रीनिंग	-13387
इटर	-13388
▁ID	-13389
▁Po	-13390
एसएस	-13391
ाप्य	-13392
ुष्प	-13393
▁कोत	-13394
▁मूक	-13395
▁सैल	-13396
ोत्तम	-13397
▁असम्	-13398
▁एलजे	-13399
▁टर्न	-13400
▁मेरठ	-13401
▁लाकर	-13402
▁सीजे	-13403
▁कमरों	-13404
▁क्लाज	-13405
▁निकास	-13406
▁पढ़कर	-13407
▁परिशि	-13408
▁पहनने	-13409
▁महिमा	-13410
▁विशाख	-13411
▁ऋणदाता	-13412
▁निपटते	-13413
▁पहचाने	-13414
▁बिजनेस	-13415
▁सुचारू	-13416
▁आत्मसात	-13417
▁आभूषणों	-13418
▁बुजुर्ग	-13419
▁मलेरिया	-13420
▁सन्दर्भ	-13421
▁सूचनाएं	-13422
धाम	-13423
ोंक	-13424
▁SR	-13425
पाही	-13426
▁औपन	-13427
▁कोठ	-13428
▁चलन	-13429
▁चैर	-13430
▁पसी	-13431
▁सीए	-13432
खेड़ा	-13433
▁अंकन	-13434
▁इंसो	-13435
▁बाली	-13436
▁गिरीश	-13437
▁चिंटू	-13438
▁जेम्स	-13439
▁सेल्स	-13440
▁पुजारी	-13441
▁मौलाना	-13442
▁महादेवी	-13443
▁स्पेक्ट	-13444
▁उपाध्याय	-13445
▁प्रवर्तक	-13446
▁सावित्री	-13447
▁प्रायोगिक	-13448
▁संयंत्रों	-13449
▁गतिविधियाँ	-13450
भन	-13451
ond	-13452
भान	-13453
▁by	-13454
ated	-13455
▁शकु	-13456
▁शरद	-13457
▁अजीत	-13458
▁इन्फ	-13459
▁मुसी	-13460
▁युगल	-13461
विद्या	-13462
▁त्रास	-13463
▁शालीन	-13464
▁सिन्ध	-13465
▁हजारी	-13466
▁हाथाप	-13467
▁ह्रास	-13468
▁इलैक्ट	-13469
▁तुम्हे	-13470
▁पर्याय	-13471
▁वर्क्स	-13472
▁शिशुओं	-13473
▁लेखांकन	-13474
▁विजेताओं	-13475
▁अंतर्विरोध	-13476
दीन	-13477
समी	-13478
▁हौ	-13479
ुप्त	-13480
▁Sri	-13481
▁झाँ	-13482
▁फाल	-13483
▁वगै	-13484
र्वाद	-13485
शियों	-13486
ेंबली	-13487
ेशिया	-13488
▁कस्त	-13489
▁कुंड	-13490
▁चार्	-13491
▁तर्ज	-13492
िक्षित	-13493
▁अड्डा	-13494
▁रूढ़ि	-13495
▁विखंड	-13496
▁Chrome	-13497
▁इन्कार	-13498
▁डीआरटी	-13499
▁गोलियां	-13500
▁नांदेड़	-13501
▁हाथापाई	-13502
▁DISTRICT	-13503
▁माइक्रोस	-13504
▁निश्चितता	-13505
▁सृजनात्मक	-13506
▁ट्रस्टियों	-13507
▁ड्राफ्ट्समैन	-13508
▁धर्मनिरपेक्ष	-13509
बख	-13510
मेव	-13511
part	-13512
र्चे	-13513
िप्स	-13514
▁Shi	-13515
▁डॉक	-13516
▁फेल	-13517
▁आदिम	-13518
▁उष्ण	-13519
▁एचटी	-13520
▁घोड़	-13521
▁वाचा	-13522
▁वॉयस	-13523
▁अंदाज	-13524
▁खोलना	-13525
▁चढ़ाव	-13526
▁पारसी	-13527
द्धार्थ	-13528
▁मेघालय	-13529
▁असंगतता	-13530
▁इच्छाओं	-13531
▁फार्मास	-13532
▁रिश्तों	-13533
▁वैचारिक	-13534
▁एवोल्यूशन	-13535
▁अधिसूचनाओं	-13536
▁पूर्वानुमान	-13537
tr	-13538
मणि	-13539
िंक	-13540
▁टच	-13541
ोष्ठ	-13542
▁सरस	-13543
▁सहस	-13544
▁इर्द	-13545
▁पाचन	-13546
▁पीजी	-13547
▁विकट	-13548
▁Chand	-13549
▁इन्टर	-13550
▁डाकघर	-13551
▁पॉइंट	-13552
▁वाउचर	-13553
▁श्रेण	-13554
▁हवाले	-13555
▁अदृश्य	-13556
▁अपनाते	-13557
▁डिजीटल	-13558
▁पुनर्न	-13559
▁फेफड़े	-13560
▁महादेव	-13561
▁सॉफ़्ट	-13562
▁यहूदियों	-13563
▁रेस्पोंडेंट	-13564
HAR	-13565
दित	-13566
▁ईओ	-13567
लेखा	-13568
व्रत	-13569
स्पद	-13570
ान्स	-13571
▁बेव	-13572
▁भास	-13573
▁माउ	-13574
िकाने	-13575
ीलैंड	-13576
ोध्या	-13577
्फीति	-13578
▁इजरा	-13579
▁एड्स	-13580
▁कोरम	-13581
▁चिट्	-13582
▁करेंः	-13583
▁जमारा	-13584
▁देहाती	-13585
▁जवाबदेह	-13586
▁मतभेदों	-13587
▁मुद्रास	-13588
▁क्रमादेश	-13589
▁बहुसंख्यक	-13590
▁मैनेजमेंट	-13591
▁कंट्राबेंड	-13592
▁कम्युनिस्ट	-13593
▁राष्ट्रवादी	-13594
▁हस्ताक्षरों	-13595
यह	-13596
२५	-13597
ौजी	-13598
ंगनी	-13599
▁काव	-13600
▁थॉम	-13601
▁परह	-13602
▁भजन	-13603
च्युत	-13604
▁थर्म	-13605
▁रोमन	-13606
▁अभिनव	-13607
▁उद्गम	-13608
▁दसवीं	-13609
▁सुस्प	-13610
▁होम्य	-13611
▁एसबीआई	-13612
▁कंटेनर	-13613
▁चिन्तन	-13614
▁लेटर्स	-13615
▁विरचित	-13616
▁विराट्	-13617
▁सिपाही	-13618
▁सीलिंग	-13619
▁डिपॉजिट	-13620
▁रियायती	-13621
▁पैरामीटर	-13622
TPA	-13623
िले	-13624
ोपण	-13625
चेतन	-13626
▁एसओ	-13627
▁काठ	-13628
▁चाप	-13629
▁दूत	-13630
▁पेप	-13631
▁महम	-13632
▁सटे	-13633
नीकरण	-13634
▁दांव	-13635
▁बायो	-13636
▁साधक	-13637
प्रसाद	-13638
▁कर्मी	-13639
▁जातीय	-13640
▁द्रुत	-13641
▁रणजीत	-13642
▁एक्सटी	-13643
▁छुपाया	-13644
▁सूर्या	-13645
▁ड्राइंग	-13646
▁दूतावास	-13647
▁नजरबंदी	-13648
▁नामंजूर	-13649
▁पार्वती	-13650
▁वार्तालाप	-13651
▁दुर्भाग्यवश	-13652
▁वृद्धावस्था	-13653
▁इंस्ट्रूमेंट्स	-13654
IF	-13655
▁LA	-13656
ंजना	-13657
यनगर	-13658
यनों	-13659
्रमी	-13660
▁चैक	-13661
▁जीभ	-13662
▁फीड	-13663
▁लात	-13664
पात्र	-13665
ोत्तर	-13666
▁उपगत	-13667
▁एचयू	-13668
▁खगोल	-13669
▁ठरोग	-13670
▁द्रो	-13671
▁भुला	-13672
▁सेतु	-13673
▁आएंगे	-13674
▁कप्ता	-13675
▁चलाते	-13676
▁बेलार	-13677
▁भाँति	-13678
▁सन्नि	-13679
▁हटाकर	-13680
▁करेंसी	-13681
▁चीज़ें	-13682
▁पुरातन	-13683
▁किस्तों	-13684
▁श्लोकों	-13685
▁अनुकरणीय	-13686
▁दिवालिया	-13687
▁निवेदिता	-13688
▁सर्वसम्म	-13689
▁निष्कासित	-13690
▁प्रताड़ित	-13691
▁इच्छाशक्ति	-13692
शरण	-13693
▁NH	-13694
सवाल	-13695
्यूप	-13696
▁कास	-13697
▁दोग	-13698
▁बूझ	-13699
▁हिज	-13700
न्दगी	-13701
ेलनों	-13702
▁एसबी	-13703
▁वरुण	-13704
▁उत्खन	-13705
▁चलाता	-13706
▁टेम्प	-13707
▁दूंगा	-13708
▁दूषित	-13709
▁बुलेट	-13710
▁राजने	-13711
▁कृतज्ञ	-13712
▁गार्डन	-13713
▁स्याही	-13714
▁अमेरिकन	-13715
▁अयोध्या	-13716
▁प्रयोगों	-13717
▁सिद्धार्थ	-13718
▁दुर्घटनाओं	-13719
UT	-13720
ii	-13721
षी	-13722
ंगम	-13723
पाद	-13724
रोन	-13725
ासु	-13726
▁CS	-13727
ावुर	-13728
▁BEN	-13729
▁Bar	-13730
▁कौश	-13731
▁पिच	-13732
▁शेल	-13733
यॉर्क	-13734
वलोकन	-13735
ुपालन	-13736
▁फरसा	-13737
▁मर्म	-13738
▁मस्त	-13739
▁महाभ	-13740
▁होली	-13741
क्षमता	-13742
▁ट्रैप	-13743
▁निपुण	-13744
▁पार्थ	-13745
▁मारना	-13746
▁रवैये	-13747
▁अन्वेषक	-13748
▁एचएलईसी	-13749
▁गोरखपुर	-13750
▁परवर्ती	-13751
▁मेहरअली	-13752
▁उद्यमिता	-13753
▁उर्वरकों	-13754
▁रेस्तरां	-13755
▁सक्रियता	-13756
▁संप्रेषित	-13757
▁पदाधिकारियों	-13758
माइ	-13759
ोनी	-13760
▁मट	-13761
ंडों	-13762
ोलिक	-13763
▁LIN	-13764
▁अँग	-13765
रियों	-13766
वाहित	-13767
स्तान	-13768
ॉजिकल	-13769
▁आप्र	-13770
▁छापा	-13771
▁धमनी	-13772
▁पाकर	-13773
यात्रा	-13774
ायद्वी	-13775
▁कमलेश	-13776
▁ज्वार	-13777
▁साम्प	-13778
▁कुलदीप	-13779
▁महंगाई	-13780
▁वर्तनी	-13781
▁अस्वस्थ	-13782
▁सिक्योर	-13783
▁प्रतिषेध	-13784
▁प्रदर्शक	-13785
▁बेरोजगार	-13786
▁गाजियाबाद	-13787
▁MM	-13788
▁एर	-13789
▁घी	-13790
क्से	-13791
ल्लम	-13792
▁अपद	-13793
▁डुप	-13794
▁सता	-13795
ग्रेड	-13796
▁निम्	-13797
▁संचय	-13798
▁घनत्व	-13799
▁बगीचे	-13800
▁मौर्य	-13801
▁वेटेज	-13802
▁वेल्स	-13803
▁सब्जी	-13804
▁साढ़े	-13805
▁School	-13806
▁निभाता	-13807
▁वृत्ता	-13808
▁सिद्धि	-13809
कर्मियों	-13810
▁अंबेडकर	-13811
▁अनुष्ठान	-13812
▁कार्यकरण	-13813
▁प्रतिमान	-13814
▁प्रायद्वी	-13815
▁सम्प्रदाय	-13816
▁विश्वयुद्ध	-13817
▁शल्यक्रिया	-13818
ंधा	-13819
बनी	-13820
काशी	-13821
ग्ने	-13822
ब्बत	-13823
रपुर	-13824
रेली	-13825
ावान	-13826
▁एकक	-13827
▁बची	-13828
जीभाई	-13829
▁छपाई	-13830
▁निशा	-13831
▁रजनी	-13832
▁रेफर	-13833
▁चाहने	-13834
▁ज़मान	-13835
▁डीटीए	-13836
▁परमार	-13837
▁डेल्टा	-13838
▁पिछड़ा	-13839
▁बालिका	-13840
▁बुकिंग	-13841
▁सोमनाथ	-13842
▁पौष्टिक	-13843
▁फ़ाइलों	-13844
▁हाइड्रो	-13845
▁नाममात्र	-13846
▁परमेश्वर	-13847
▁धारावाहिक	-13848
▁लाइसेंसिंग	-13849
▁सर्वसम्मति	-13850
▁अल्पसंख्यकों	-13851
ाइट	-13852
▁टां	-13853
▁साय	-13854
पट्टी	-13855
फील्ड	-13856
ुगतान	-13857
▁पर्ण	-13858
▁प्ली	-13859
▁अनीता	-13860
▁तामील	-13861
▁नोट्स	-13862
▁पाउंड	-13863
▁फरमान	-13864
▁मार्ट	-13865
▁सीतार	-13866
▁एन्क्र	-13867
▁गुर्दे	-13868
▁भाषणों	-13869
▁राज्या	-13870
▁निर्वचन	-13871
▁बेहतरीन	-13872
▁राममोहन	-13873
▁अभूतपूर्व	-13874
▁लोकप्रियता	-13875
िआ	-13876
art	-13877
▁झर	-13878
र्धक	-13879
▁एनी	-13880
▁जोश	-13881
▁थिर	-13882
▁फ़र	-13883
▁शरा	-13884
लीकृत	-13885
ियाला	-13886
▁कम्ब	-13887
▁चतुर	-13888
▁बारा	-13889
▁सोया	-13890
▁हर्ज	-13891
ंस्कृत	-13892
कात्मक	-13893
▁फैक्स	-13894
▁00,000	-13895
▁अद्वैत	-13896
▁अलमस्त	-13897
▁एक्सेस	-13898
▁पड़ताल	-13899
▁खूबसूरत	-13900
▁चुनिंदा	-13901
▁नानालाल	-13902
▁फायरिंग	-13903
▁मिलेंगे	-13904
▁कार्यकार	-13905
▁संग्रहीत	-13906
▁आपातकालीन	-13907
▁क्रियाशील	-13908
▁न्यूयॉर्क	-13909
▁फ्रांसीसी	-13910
▁सम्मेलनों	-13911
▁साम्राज़्य	-13912
HA	-13913
ex	-13914
०ग	-13915
VAT	-13916
्टू	-13917
▁CM	-13918
▁he	-13919
ण्डल	-13920
▁ईडी	-13921
▁पिघ	-13922
▁मोक	-13923
▁शोथ	-13924
▁ROAD	-13925
▁कमान	-13926
▁चादर	-13927
▁झुका	-13928
▁देवे	-13929
▁नंदा	-13930
▁विदा	-13931
▁सूअर	-13932
▁अंगुल	-13933
▁दुष्ट	-13934
▁निर्ब	-13935
▁नैदान	-13936
▁स्टेड	-13937
▁अहंकार	-13938
▁ठिकाने	-13939
▁पुख्ता	-13940
▁मन्त्र	-13941
▁युसुफ़	-13942
▁संगणित	-13943
▁परिसीमन	-13944
▁लेक्चरर	-13945
▁वामपंथी	-13946
▁एम्बुलेंस	-13947
▁मुद्रास्फीति	-13948
sh	-13949
्ज़	-13950
▁ऐल	-13951
कांड	-13952
ोटिक	-13953
▁Col	-13954
▁बसु	-13955
▁West	-13956
▁आर्क	-13957
▁एनएस	-13958
▁केके	-13959
▁खोजे	-13960
▁चाची	-13961
▁बंसल	-13962
स्वरुप	-13963
▁एकत्व	-13964
▁बढ़ाई	-13965
▁रद्दी	-13966
▁समाधि	-13967
▁हुर्इ	-13968
▁आयोजना	-13969
▁कीमतें	-13970
▁चाहिएं	-13971
▁जोड़ों	-13972
▁दुश्मन	-13973
▁प्रीति	-13974
▁भवभूति	-13975
▁फिनलैंड	-13976
▁निविदाएं	-13977
्यम	-13978
▁ऋस	-13979
aria	-13980
चुअल	-13981
िकों	-13982
▁तान	-13983
▁मकर	-13984
▁हतो	-13985
ेरिया	-13986
▁टोपी	-13987
▁डेमो	-13988
▁तारे	-13989
▁ज्यों	-13990
▁पुनरु	-13991
▁लगाती	-13992
▁अघोषित	-13993
▁बोतलों	-13994
▁औपनिवेश	-13995
▁चंद्रमा	-13996
▁बढ़ोतरी	-13997
▁आश्रितों	-13998
▁पूर्णकालिक	-13999
▁प्राप्तियों	-14000
RC	-14001
एमए	-14002
गिन	-14003
फेस	-14004
▁शू	-14005
कारक	-14006
स्टन	-14007
▁टाव	-14008
▁पुत	-14009
▁यंग	-14010
▁शॉट	-14011
द्दाम	-14012
▁उठती	-14013
▁उपकर	-14014
▁एसएन	-14015
▁खाती	-14016
▁पारा	-14017
▁साइड	-14018
▁सूखी	-14019
▁आबद्ध	-14020
▁क्वाल	-14021
▁ग्रेट	-14022
▁लॉगिन	-14023
▁हेल्थ	-14024
▁अनिच्छ	-14025
▁उत्तरो	-14026
▁पिताजी	-14027
▁अंगीकार	-14028
▁अध्यापन	-14029
▁तंजावुर	-14030
▁श्रीराम	-14031
▁कारखानों	-14032
▁त्यागपत्र	-14033
▁पर्याप्तता	-14034
▁प्रतिक्रियाओं	-14035
uk	-14036
ूफ	-14037
sil	-14038
जनी	-14039
रोड	-14040
ोहन	-14041
▁ऑट	-14042
त्रय	-14043
स्को	-14044
िएटर	-14045
▁आति	-14046
▁आरई	-14047
▁नीम	-14048
▁बुन	-14049
▁OANo	-14050
▁अनुष	-14051
▁आवेश	-14052
▁जीपी	-14053
▁परिर	-14054
▁शिला	-14055
ग्रन्थ	-14056
ियोजित	-14057
▁अंकुर	-14058
▁घटाने	-14059
▁नब्बे	-14060
▁नित्य	-14061
▁पड़ना	-14062
▁सुमित	-14063
▁पुनर्ज	-14064
▁फेशियल	-14065
▁कंडक्टर	-14066
▁रक्तचाप	-14067
▁संप्रतीक	-14068
▁विधिमान्य	-14069
▁स्थितियां	-14070
▁दीर्घकालीन	-14071
RAD	-14072
नाद	-14073
ेला	-14074
गिरी	-14075
▁कैव	-14076
▁टॉम	-14077
▁बैर	-14078
▁मर्	-14079
▁रिच	-14080
▁हिच	-14081
किनार	-14082
स्वाम	-14083
▁रीडर	-14084
▁सम्य	-14085
▁अस्सी	-14086
▁ढूंढ़	-14087
▁नलिका	-14088
▁फुफ्फ	-14089
▁वार्म	-14090
▁सैंपल	-14091
त्साहित	-14092
▁अपदस्थ	-14093
▁दरकिनार	-14094
▁प्राणिक	-14095
▁वारिसों	-14096
▁आधारशिला	-14097
▁ऑब्जेक्ट	-14098
▁मातृभूमि	-14099
VI	-14100
mp	-14101
णक	-14102
ंसू	-14103
ठों	-14104
सना	-14105
▁ढु	-14106
▁सँ	-14107
ANAG	-14108
ंहार	-14109
वाहक	-14110
ुराम	-14111
▁घिन	-14112
▁सैर	-14113
तमाला	-14114
नीयता	-14115
न्नों	-14116
ियाना	-14117
ुक्ता	-14118
ोपैथी	-14119
▁दफ्त	-14120
▁पीला	-14121
▁बंडल	-14122
▁रेज़	-14123
▁हरिजन	-14124
ोग्राफी	-14125
▁आरोग्य	-14126
▁उत्तरः	-14127
▁पागलपन	-14128
▁मेजबान	-14129
▁सुझाया	-14130
▁अशक्तता	-14131
▁चौकीदार	-14132
▁नैदानिक	-14133
▁संदेशों	-14134
▁जरूरतमंद	-14135
▁प्रकोष्ठ	-14136
▁मवेशियों	-14137
▁संदर्भों	-14138
▁प्रतिबन्ध	-14139
▁प्रधानाचार्य	-14140
▁इस्लामवादियों	-14141
▁शिकायतकर्ताओं	-14142
ly	-14143
ret	-14144
भुज	-14145
ानक	-14146
▁Sy	-14147
pura	-14148
ाहार	-14149
▁OCC	-14150
▁घने	-14151
कार्ड	-14152
ानन्द	-14153
ान्ति	-14154
▁अप्प	-14155
▁दाने	-14156
▁फतेह	-14157
▁भृंग	-14158
▁रंजी	-14159
▁एटीएम	-14160
▁प्राग	-14161
▁सचेतन	-14162
▁सॉल्व	-14163
▁पैकिंग	-14164
▁क्लाइंट	-14165
▁यूनिकोड	-14166
▁लेखाकार	-14167
▁सूचियों	-14168
▁एफटीआईएल	-14169
▁प्रकाशनों	-14170
▁प्रतिभागियों	-14171
ib	-14172
काय	-14173
थ्य	-14174
फिल	-14175
▁LR	-14176
ल्हे	-14177
▁दुल	-14178
▁लटक	-14179
्रेसी	-14180
▁Naya	-14181
▁छिपे	-14182
▁छूने	-14183
▁फायद	-14184
▁शाला	-14185
▁अंडों	-14186
▁अंधाध	-14187
▁मोक्ष	-14188
▁सीआरए	-14189
▁सुगंध	-14190
राष्ट्र	-14191
▁कुटुंब	-14192
▁चुनावी	-14193
▁तात्या	-14194
▁पूर्वज	-14195
▁रविवार	-14196
▁विवेचन	-14197
▁ओवरराइड	-14198
▁पांचवीं	-14199
▁मछलियों	-14200
▁वार्षिकी	-14201
▁प्रदाताओं	-14202
▁व्यवसायों	-14203
▁कॉन्स्टेबल	-14204
▁बुद्धिमत्ता	-14205
सै	-14206
कर्ण	-14207
जीएस	-14208
०में	-14209
▁Cha	-14210
▁dtd	-14211
▁रमण	-14212
आधारी	-14213
वाड़े	-14214
▁एक्ज	-14215
▁कैसी	-14216
▁पारी	-14217
▁भरती	-14218
GALURU	-14219
सात्मक	-14220
▁Patna	-14221
▁जानकी	-14222
▁बर्बर	-14223
ोगात्मक	-14224
▁एसआईटी	-14225
▁पिल्लई	-14226
▁बर्ताव	-14227
▁यदुनाथ	-14228
▁जनशक्ति	-14229
▁मोहल्ला	-14230
▁लापरवाह	-14231
▁आंदोलनों	-14232
▁प्रतीकात्मक	-14233
▁प्रवृत्तियों	-14234
ial	-14235
धीय	-14236
▁xx	-14237
वियर	-14238
ालतू	-14239
िस्म	-14240
▁RFA	-14241
▁pro	-14242
▁गजट	-14243
▁छाव	-14244
▁अफसर	-14245
▁काबू	-14246
▁वासु	-14247
▁विला	-14248
▁हावी	-14249
मास्टर	-14250
▁अपीली	-14251
▁डिटेन	-14252
▁बिगड़	-14253
▁संचलन	-14254
▁स्टेन	-14255
▁अस्थाई	-14256
▁कार्बो	-14257
▁छिपाने	-14258
▁नाइट्र	-14259
▁यूनिटों	-14260
▁विशेषतः	-14261
▁आशीर्वाद	-14262
▁त्रिवेदी	-14263
▁कर्त्तव्य	-14264
▁सॉफ़्टवेयर	-14265
PP	-14266
खला	-14267
टिन	-14268
लाट	-14269
▁EE	-14270
▁चह	-14271
▁LPA	-14272
▁डैक	-14273
▁मॉन	-14274
देश्य	-14275
मेन्ट	-14276
ानिकी	-14277
ोरियम	-14278
▁जनमत	-14279
▁पठान	-14280
▁पिंज	-14281
▁फैशन	-14282
▁ब्यो	-14283
▁महंत	-14284
▁मापा	-14285
▁यूसु	-14286
▁साझे	-14287
▁प्रमो	-14288
▁रिलीज	-14289
▁हुक्म	-14290
▁अनुराग	-14291
▁डीपीसी	-14292
▁नालंदा	-14293
▁पकड़ना	-14294
▁फिल्टर	-14295
▁एससीआरए	-14296
▁कमोडिटी	-14297
▁अंधाधुंध	-14298
▁पर्वतमाला	-14299
▁पांडिचेरी	-14300
▁पारम्परिक	-14301
▁वार्ताकार	-14302
▁प्रदर्शनों	-14303
PF	-14304
UL	-14305
श्	-14306
िण	-14307
भ्र	-14308
ल्ट	-14309
वुड	-14310
भाजन	-14311
र्मी	-14312
▁यूट	-14313
▁रेम	-14314
पुत्र	-14315
ाहारी	-14316
▁इम्प	-14317
▁कांत	-14318
▁जीते	-14319
▁जेएम	-14320
▁नक़ल	-14321
▁पडता	-14322
▁शीतल	-14323
▁गुच्छ	-14324
▁प्रसू	-14325
▁अप्रिय	-14326
▁करवाना	-14327
▁पुष्पा	-14328
▁अपराह्न	-14329
▁पहुंचते	-14330
▁अभिकर्ता	-14331
▁पूर्णांक	-14332
▁प्रायोजन	-14333
▁स्टेडियम	-14334
▁शिष्टमंडल	-14335
▁संपत्तियां	-14336
▁अभियांत्रिक	-14337
▁पुनर्भुगतान	-14338
ऊं	-14339
adi	-14340
क्ख	-14341
रणा	-14342
वेज	-14343
ौनी	-14344
▁th	-14345
▁उच	-14346
मिली	-14347
▁PWs	-14348
▁तले	-14349
▁दाब	-14350
▁पीई	-14351
▁मरु	-14352
▁सिं	-14353
▁एजीए	-14354
▁जुडी	-14355
▁पीबी	-14356
▁लड़ी	-14357
▁अनपढ़	-14358
▁आसमान	-14359
▁जैकेट	-14360
▁दबाकर	-14361
▁परवीन	-14362
▁बेजबर	-14363
▁भाजपा	-14364
▁साड़ी	-14365
ापूर्वक	-14366
▁अधिवास	-14367
▁जाएँगे	-14368
▁अमानवीय	-14369
▁असेंबली	-14370
▁मातृत्व	-14371
▁शॉर्टकट	-14372
▁सर्वत्र	-14373
▁अनुवर्ती	-14374
▁अस्पृश्य	-14375
▁बैंककारी	-14376
▁सेकेंडरी	-14377
▁निर्यातकों	-14378
▁पत्रकारिता	-14379
DS	-14380
MS	-14381
xx	-14382
गिरि	-14383
▁खरे	-14384
▁बीओ	-14385
▁सनी	-14386
▁टीपी	-14387
▁टूटी	-14388
▁धीमा	-14389
▁बंजर	-14390
▁विभू	-14391
▁उभरता	-14392
▁चचेरे	-14393
▁जोसेफ	-14394
▁तकलीफ	-14395
▁बर्मा	-14396
▁भतीजे	-14397
▁विनती	-14398
▁सुनना	-14399
▁एसआरआई	-14400
▁गारंटर	-14401
▁ग्रेटर	-14402
▁परीक्ष	-14403
▁मन्दिर	-14404
▁सद्दाम	-14405
▁औषधियों	-14406
▁कार्टून	-14407
▁अप्राप्य	-14408
▁किराएदार	-14409
▁प्रदूषित	-14410
▁राजकोषीय	-14411
▁सर्वांगी	-14412
▁BENGALURU	-14413
▁परक्राम्य	-14414
▁विरोधियों	-14415
हट	-14416
ज्य	-14417
ोदर	-14418
ोमा	-14419
प्पन	-14420
ोपाय	-14421
▁आरए	-14422
▁गैल	-14423
▁ठंड	-14424
▁मुय	-14425
▁रेफ	-14426
▁कुसु	-14427
▁दोहन	-14428
▁धोने	-14429
▁मजाक	-14430
▁मुखर	-14431
▁मोहर	-14432
▁रचित	-14433
▁लड़क	-14434
▁संकर	-14435
▁सुधा	-14436
ष्ट्री	-14437
▁ईएसआई	-14438
▁जुलूस	-14439
▁अंगूठी	-14440
▁निरूपण	-14441
विज्ञानी	-14442
▁क्रीड़ा	-14443
▁निकालते	-14444
▁प्रभाकर	-14445
▁विपक्षी	-14446
▁अत्याधिक	-14447
▁अप्रभावी	-14448
▁विस्फोटक	-14449
▁हितधारकों	-14450
▁राष्ट्रमंडल	-14451
IA	-14452
PW	-14453
तिर	-14454
ापा	-14455
▁pr	-14456
▁शश	-14457
▁उखा	-14458
▁केक	-14459
▁केर	-14460
▁सबक	-14461
▁Madh	-14462
▁काना	-14463
▁कृमि	-14464
▁गौरी	-14465
▁जोकि	-14466
▁परोप	-14467
▁पौंड	-14468
▁रोपण	-14469
▁व्यप	-14470
▁उल्टा	-14471
▁कहावत	-14472
▁छुट्ट	-14473
▁पेशाब	-14474
▁फ्लोर	-14475
▁उदारीकरण	-14476
▁कार्यकारिणी	-14477
▁प्रौद्योगिकीय	-14478
छी	-14479
डीह	-14480
मनी	-14481
ोडे	-14482
▁et	-14483
▁ठा	-14484
ayan	-14485
जीपी	-14486
शासन	-14487
ौकिक	-14488
▁थिय	-14489
▁धुन	-14490
▁मिर	-14491
▁सहय	-14492
त्नों	-14493
▁पीयू	-14494
▁बतला	-14495
▁ब्रज	-14496
▁मद्य	-14497
▁माडल	-14498
▁वायर	-14499
▁हटकर	-14500
▁पलायन	-14501
▁फसलें	-14502
▁बलवंत	-14503
▁माइनस	-14504
▁विफलः	-14505
▁कहेंगे	-14506
▁सिखाया	-14507
शास्त्री	-14508
▁निवृत्त	-14509
▁भागलपुर	-14510
▁महालेखा	-14511
▁रणनीतिक	-14512
▁विवाहों	-14513
▁अनापत्ति	-14514
▁डिपार्टमेंट	-14515
▁संस्कृतियों	-14516
▁प्रविष्टियाँ	-14517
UK	-14518
ताप	-14519
ब्स	-14520
▁SE	-14521
▁हज	-14522
कोहल	-14523
नाथन	-14524
र्ना	-14525
▁हाव	-14526
▁आरडी	-14527
▁एनाल	-14528
▁एलआर	-14529
▁काया	-14530
▁गोबर	-14531
▁बांट	-14532
ंजीकृत	-14533
जीरिया	-14534
▁असहमत	-14535
▁उभरते	-14536
▁दर्पण	-14537
▁भरपाई	-14538
▁रोकते	-14539
▁सीढ़ी	-14540
▁चुकौती	-14541
▁ब्यौरे	-14542
▁मिटाने	-14543
▁सामरिक	-14544
▁विधानों	-14545
▁सक्सेना	-14546
▁समावेशन	-14547
▁रामेश्वर	-14548
▁वर्गमीटर	-14549
▁औपनिवेशिक	-14550
▁कम्पनियों	-14551
▁द्विआधारी	-14552
▁प्रैक्टिस	-14553
▁सम्मानजनक	-14554
झक	-14555
२६	-14556
ERE	-14557
ODU	-14558
खले	-14559
्जा	-14560
्रह	-14561
▁बँ	-14562
एमएल	-14563
▁गेल	-14564
▁ठिक	-14565
▁वृह	-14566
शीघ्र	-14567
▁पीना	-14568
▁बाड़	-14569
▁लगान	-14570
▁हायर	-14571
क्षत्र	-14572
▁COTPA	-14573
▁कीड़े	-14574
▁परहेज	-14575
▁पोशाक	-14576
▁मौकों	-14577
▁मौसमी	-14578
पेक्षित	-14579
▁जिम्मे	-14580
▁निशाना	-14581
▁फ़ारसी	-14582
▁मुट्ठी	-14583
▁Limited	-14584
▁अराजकता	-14585
▁तिथियों	-14586
▁पदाधिकारी	-14587
▁अनिवार्यता	-14588
▁राष्ट्रवाद	-14589
▁सिक्योरिटी	-14590
▁संक्षिप्तता	-14591
ँघ	-14592
तरा	-14593
▁NC	-14594
ासाह	-14595
▁आलू	-14596
▁जोध	-14597
▁मिज	-14598
▁मोज	-14599
▁लां	-14600
▁VIII	-14601
▁एडवा	-14602
▁कणों	-14603
▁घबरा	-14604
▁चंदन	-14605
▁तंतु	-14606
▁पुरः	-14607
▁बनें	-14608
▁लिहा	-14609
▁तेज़ी	-14610
▁नगण्य	-14611
▁बुलाए	-14612
▁सस्ता	-14613
▁सिडबी	-14614
▁हज़ार	-14615
▁अपनाकर	-14616
▁इकट्ठे	-14617
▁एपेक्स	-14618
▁रिटायर	-14619
▁अन्यत्र	-14620
▁कारखाना	-14621
▁पोतन्ना	-14622
▁बेलारूस	-14623
▁व्यवधान	-14624
▁इकबालिया	-14625
▁परिचर्चा	-14626
▁भुगतानों	-14627
▁वार्मिंग	-14628
▁सुस्पष्ट	-14629
▁विषयवस्तु	-14630
UB	-14631
लु	-14632
शर	-14633
गों	-14634
संव	-14635
▁an	-14636
▁टु	-14637
वेरी	-14638
श्मी	-14639
्राण	-14640
▁ईसी	-14641
▁डाई	-14642
▁हंग	-14643
गुप्त	-14644
ब्बों	-14645
▁आरती	-14646
▁एनजी	-14647
▁सलाम	-14648
▁साँस	-14649
▁घावों	-14650
▁नाकाम	-14651
▁फेंका	-14652
▁बताये	-14653
▁बैकअप	-14654
▁राउंड	-14655
▁वजीफा	-14656
▁आउटलेट	-14657
▁सिक्के	-14658
▁अधिरोपण	-14659
▁स्वराज्य	-14660
▁प्रबंधकों	-14661
▁अभिप्राप्त	-14662
▁प्रतिभूतिकरण	-14663
अन	-14664
शै	-14665
ith	-14666
टेक	-14667
▁इज	-14668
द्वि	-14669
चारित	-14670
धारणा	-14671
▁अनुत	-14672
▁आयरन	-14673
▁एफसी	-14674
▁कुचल	-14675
▁बल्ल	-14676
▁लगना	-14677
▁सींग	-14678
▁खन्ना	-14679
▁तकिया	-14680
▁तत्पर	-14681
▁दामाद	-14682
▁प्रोड	-14683
▁बढ़ें	-14684
▁महमूद	-14685
▁सस्ती	-14686
▁अन्तरा	-14687
▁कामयाब	-14688
▁कुल्लू	-14689
▁असंबद्ध	-14690
▁कारागार	-14691
▁खूबियों	-14692
▁प्रत्यय	-14693
▁मीट्रिक	-14694
▁वाक्यों	-14695
▁विशाखाप	-14696
▁सम्मिलन	-14697
▁सीताराम	-14698
▁चुनौतियां	-14699
▁उत्तरोत्तर	-14700
▁नोटिफिकेशन	-14701
▁संवैधानिकता	-14702
CS	-14703
ax	-14704
यो	-14705
सऋ	-14706
are	-14707
ttp	-14708
ंकू	-14709
जिक	-14710
युग	-14711
ादि	-14712
▁it	-14713
गंगा	-14714
ाधीन	-14715
▁कवक	-14716
▁छड़	-14717
▁दुम	-14718
▁सुष	-14719
▁चोटी	-14720
▁दिवा	-14721
▁पितृ	-14722
▁बुढ़	-14723
▁सरमा	-14724
▁अक्षय	-14725
▁उभरने	-14726
▁चैत्य	-14727
▁दुर्य	-14728
▁द्रवि	-14729
▁द्रीय	-14730
▁पाएगा	-14731
▁पीठों	-14732
▁आकृष्ट	-14733
▁आरएफपी	-14734
▁कप्तान	-14735
▁कार्गो	-14736
▁जानकार	-14737
▁नवीनता	-14738
▁अनुग्रह	-14739
▁मैकेनिक	-14740
▁जनसाधारण	-14741
▁परम्परागत	-14742
▁हतोत्साहित	-14743
▁पारिस्थितिकी	-14744
▁अभिव्यक्तियों	-14745
जै	-14746
़ा	-14747
संक	-14748
ौने	-14749
▁MS	-14750
भंगा	-14751
ाम्ब	-14752
▁डोम	-14753
▁फिस	-14754
▁मणि	-14755
▁शूट	-14756
केशनल	-14757
गमेंट	-14758
ास्थि	-14759
▁अतिर	-14760
▁गायन	-14761
▁जहरी	-14762
▁जिया	-14763
▁ढूँढ	-14764
▁नारे	-14765
▁पावन	-14766
▁पीटर	-14767
▁रोके	-14768
▁विरल	-14769
▁सज़ा	-14770
▁घुसपै	-14771
▁घोड़ा	-14772
▁मर्जी	-14773
▁सीनेट	-14774
▁मिलाया	-14775
▁संकुचन	-14776
▁ज्योतिष	-14777
▁व्यंग्य	-14778
▁संकुचित	-14779
▁संभाव्य	-14780
▁अपंजीकृत	-14781
▁ग्रेजुएट	-14782
▁सर्वांगीण	-14783
OS	-14784
VC	-14785
ugh	-14786
थुर	-14787
फली	-14788
शान	-14789
▁आड	-14790
▁डब	-14791
▁Off	-14792
▁चिह	-14793
▁जुन	-14794
िलिंग	-14795
▁इब्र	-14796
▁उभरे	-14797
▁किसे	-14798
▁बदमा	-14799
▁समेट	-14800
ग्राही	-14801
▁काबुल	-14802
▁निगमन	-14803
▁फिक्स	-14804
▁बनावट	-14805
▁मलखान	-14806
▁सत्रह	-14807
▁दिलाता	-14808
▁सेलुलर	-14809
▁इस्तीफे	-14810
ैच	-14811
ुक्	-14812
▁ऊन	-14813
ज़ोर	-14814
टीपी	-14815
बख्श	-14816
स्टल	-14817
▁आहत	-14818
▁काँ	-14819
इजेशन	-14820
धिपति	-14821
▁अनाथ	-14822
▁ऑक्स	-14823
▁कुंभ	-14824
▁तिरू	-14825
▁बीसी	-14826
▁मिनी	-14827
▁हथकर	-14828
ाध्याय	-14829
▁पूछना	-14830
▁आदित्य	-14831
▁फैमिली	-14832
▁रेटिंग	-14833
▁संचालक	-14834
▁समस्ती	-14835
▁हेमराज	-14836
▁चलचित्र	-14837
▁निकालकर	-14838
▁पदच्युत	-14839
▁रियासतों	-14840
▁अतिरिक़्त	-14841
▁अल्पकालिक	-14842
▁अवधारणाओं	-14843
▁लाइब्रेरी	-14844
▁प्रभावकारी	-14845
▁स्वतन्त्रता	-14846
de	-14847
ोथ	-14848
▁ं	-14849
सिस	-14850
जिये	-14851
▁Pur	-14852
▁निल	-14853
▁रजत	-14854
▁रहस	-14855
▁सेब	-14856
ODUCT	-14857
▁धकेल	-14858
▁माली	-14859
▁शोभा	-14860
ुत्थान	-14861
▁उठाये	-14862
▁घूमने	-14863
▁ट्रीय	-14864
▁हल्की	-14865
णाधिकार	-14866
▁अधिप्र	-14867
▁अनेकों	-14868
▁उपस्कर	-14869
▁एनालॉग	-14870
▁घुटनों	-14871
▁पीसीआर	-14872
▁मोर्चे	-14873
▁सारवान	-14874
ोपाध्याय	-14875
▁PRODUCT	-14876
▁चिड़िया	-14877
▁बंटवारे	-14878
▁वृंदावन	-14879
▁सियाराम	-14880
▁इलैक्ट्र	-14881
▁एनेक्सचर	-14882
▁गतिशीलता	-14883
▁परिवर्धन	-14884
▁बलपूर्वक	-14885
▁निर्माणों	-14886
▁राजमार्गों	-14887
▁वस्तुनिष्ठ	-14888
da	-14889
मू	-14890
दून	-14891
य्य	-14892
▁cl	-14893
▁कफ	-14894
RISH	-14895
भाष्	-14896
यामी	-14897
योगी	-14898
ारित	-14899
िताब	-14900
▁एनए	-14901
▁जीए	-14902
▁पीस	-14903
▁सूख	-14904
्मीकि	-14905
▁आंका	-14906
▁ईर्ष	-14907
▁जुडे	-14908
▁थॉमस	-14909
▁द्यो	-14910
▁धड़क	-14911
▁सतही	-14912
▁सुशी	-14913
ारियों	-14914
▁मधुकर	-14915
▁सहदेव	-14916
▁ब्रांच	-14917
▁लोकहित	-14918
▁विमानन	-14919
▁हरिश्च	-14920
▁सन्निहित	-14921
▁सम्पादित	-14922
▁विकासात्मक	-14923
▁विद्यासागर	-14924
▁प्रत्यक्षतः	-14925
ua	-14926
ach	-14927
नें	-14928
▁चढ	-14929
ार्ग	-14930
ास्व	-14931
िकीय	-14932
▁कुच	-14933
▁कोक	-14934
▁घोट	-14935
▁युव	-14936
▁लीं	-14937
▁काटे	-14938
▁सीएफ	-14939
▁घुड़स	-14940
▁ठहरने	-14941
▁नक्शा	-14942
▁सपनों	-14943
▁ज़मानत	-14944
▁ज़रुरत	-14945
▁दरभंगा	-14946
▁निभाते	-14947
▁सोनवीर	-14948
चिकित्सा	-14949
▁अपरिचित	-14950
▁उत्तरों	-14951
▁जोखिमों	-14952
▁निधियां	-14953
▁पशुपालन	-14954
▁विमानों	-14955
▁श्रीनगर	-14956
▁समावेदन	-14957
▁हर्जाना	-14958
▁परामर्शी	-14959
▁पहुंचाना	-14960
▁एजेंसियां	-14961
▁समस्तीपुर	-14962
ATH	-14963
कंठ	-14964
ूमत	-14965
▁AO	-14966
▁उध	-14967
▁तस	-14968
ंदरी	-14969
स्टी	-14970
्राह	-14971
▁अणु	-14972
▁काक	-14973
▁कॉज	-14974
▁छुआ	-14975
▁टोप	-14976
▁सरी	-14977
धीनगर	-14978
▁औरंग	-14979
▁कलाई	-14980
▁धीरज	-14981
▁बिगा	-14982
▁रोगा	-14983
GALORE	-14984
ंटियों	-14985
द्वारा	-14986
▁पंचों	-14987
▁पाषाण	-14988
▁ब्रॉड	-14989
▁रुपया	-14990
▁शुक्ल	-14991
▁कीर्ति	-14992
▁टीडीएस	-14993
▁बनाएगा	-14994
▁सटीकता	-14995
▁पाइपलाइन	-14996
▁बीआईएफआर	-14997
▁भर्तियों	-14998
▁मानसिकता	-14999
▁असंतोषजनक	-15000
▁प्रतिधारण	-15001
▁मूर्तियों	-15002
▁नर्मदाशंकर	-15003
▁ट्रांसफ़ेरे	-15004
▁अभियांत्रिकी	-15005
तलब	-15006
िकट	-15007
▁Si	-15008
▁ईस	-15009
ियरी	-15010
▁ADV	-15011
▁अटक	-15012
▁गोध	-15013
▁जूझ	-15014
▁टोल	-15015
▁लता	-15016
▁शैव	-15017
▁सल्	-15018
न्तुक	-15019
ादेवी	-15020
▁LINK	-15021
▁आभार	-15022
▁कांड	-15023
▁देवर	-15024
▁फ्ला	-15025
▁मूवी	-15026
▁वैभव	-15027
▁सौते	-15028
मिकल्स	-15029
ाहियों	-15030
▁क्रॉल	-15031
▁जलाने	-15032
▁पकाने	-15033
▁वेदना	-15034
▁सिक्ख	-15035
▁अमिताभ	-15036
▁गठबंधन	-15037
▁चुप्पी	-15038
▁भक्तों	-15039
▁उत्कीर्ण	-15040
▁कोल्हटकर	-15041
▁तत्त्वों	-15042
▁महाभियोग	-15043
▁विनिर्दि	-15044
▁इलेक्ट्रिकल	-15045
बस	-15046
ोइ	-15047
ुलु	-15048
भुता	-15049
ासिक	-15050
ुकूल	-15051
▁PWD	-15052
▁मल्	-15053
ज्ञों	-15054
संदेह	-15055
▁गुंट	-15056
▁पराज	-15057
▁बकरी	-15058
▁सूरी	-15059
तत्त्व	-15060
▁यूसुफ	-15061
▁वरदान	-15062
▁Bhawan	-15063
▁जोड़ते	-15064
▁नकदीकरण	-15065
▁पुराणों	-15066
▁मोतीलाल	-15067
▁रिएक्टर	-15068
▁तानाशाही	-15069
▁कांग्रेसी	-15070
▁संस्करणों	-15071
▁हिन्दुस्तानी	-15072
MI	-15073
मह	-15074
PSC	-15075
नित	-15076
ोपेल	-15077
▁डोर	-15078
विदित	-15079
ार्जन	-15080
ोत्रा	-15081
▁टीटी	-15082
▁दैवी	-15083
▁पीएल	-15084
▁पूंछ	-15085
▁मजूम	-15086
▁लेखे	-15087
▁वहॉँ	-15088
दर्शित	-15089
▁उतरने	-15090
▁ग्लास	-15091
▁चौंका	-15092
▁रंजीत	-15093
▁रोकती	-15094
▁स्टोन	-15095
▁अतिचार	-15096
▁असंगति	-15097
▁एचयूएफ	-15098
▁दिखाएं	-15099
▁परिसंघ	-15100
▁फिलहाल	-15101
▁बनवाया	-15102
▁ब्यौरा	-15103
▁सातवें	-15104
partment	-15105
▁जन्मजात	-15106
▁प्रवृति	-15107
▁अनिच्छुक	-15108
▁कहानियाँ	-15109
▁पुरातत्व	-15110
▁प्रतिकृति	-15111
▁मुकदमेबाज	-15112
▁पाकिस्तानी	-15113
▁छात्रवृत्ति	-15114
▁सिद्धान्तों	-15115
आरए	-15116
रेक	-15117
लीक	-15118
हॉक	-15119
▁ee	-15120
कृमि	-15121
तिथि	-15122
मनगर	-15123
रियन	-15124
ावटी	-15125
▁Hig	-15126
▁अम्	-15127
▁अरा	-15128
▁टूर	-15129
▁दरा	-15130
▁दीव	-15131
▁मोम	-15132
▁लवण	-15133
आईएडी	-15134
▁CCNo	-15135
▁ईसाइ	-15136
▁उदास	-15137
▁दरार	-15138
▁लाइफ	-15139
▁स्वय	-15140
च्छन्न	-15141
▁करियर	-15142
▁खोजें	-15143
▁गैसों	-15144
▁अधिकता	-15145
▁आयोगों	-15146
▁छोड़ते	-15147
▁रिश्ता	-15148
▁सन्देश	-15149
▁गांधीनगर	-15150
▁जमशेदपुर	-15151
▁यूरोपियन	-15152
▁BANGALORE	-15153
▁लेबोरेटरी	-15154
▁सर्वव्यापी	-15155
▁एंटरप्राइजेज	-15156
LC	-15157
लेम	-15158
वली	-15159
ुमा	-15160
▁Th	-15161
▁छव	-15162
पालन	-15163
रहाल	-15164
▁URL	-15165
▁खंभ	-15166
▁पुट	-15167
▁पैग	-15168
▁मसौ	-15169
▁अधिर	-15170
▁जनना	-15171
▁झुंड	-15172
▁नाज़	-15173
▁पॉली	-15174
▁यादृ	-15175
▁वंशज	-15176
▁जसवंत	-15177
▁तूफान	-15178
▁प्लेस	-15179
▁इंट्रा	-15180
▁उत्खनन	-15181
▁एकाधिक	-15182
▁गाँवों	-15183
▁जेएनयू	-15184
▁पड़ेगी	-15185
▁मकानों	-15186
▁यन्त्र	-15187
▁स्थापन	-15188
▁मजूमदार	-15189
▁दोषमुक्त	-15190
▁प्रतिवेद	-15191
▁स्क्रिप्ट	-15192
▁इलेक्ट्रिक	-15193
▁ब्रह्मानंद	-15194
▁संपरिवर्तन	-15195
eb	-15196
पच	-15197
▁gu	-15198
▁गम	-15199
डब्ल	-15200
लेटर	-15201
▁Kar	-15202
▁कुक	-15203
▁जेट	-15204
▁फिज	-15205
▁ममल	-15206
▁मसल	-15207
▁मेस	-15208
▁युन	-15209
▁शुग	-15210
▁Gaya	-15211
▁जलीय	-15212
▁नुस्	-15213
▁ब्रा	-15214
▁म्या	-15215
▁रुके	-15216
▁सेबी	-15217
▁कल्लू	-15218
▁छंटनी	-15219
▁तालिब	-15220
▁त्रिव	-15221
▁वक़्त	-15222
▁संगति	-15223
▁क्षत्र	-15224
▁भावनगर	-15225
▁सोडियम	-15226
▁कार्तिक	-15227
▁त्रिकोण	-15228
▁प्रमुखता	-15229
▁सम्बंधित	-15230
▁नाइट्रोजन	-15231
▁प्रयत्नों	-15232
▁बेरोजगारी	-15233
▁रूपांतरित	-15234
▁होल्डिंग्स	-15235
▁प्रमाणपत्रों	-15236
ARS	-15237
ेगा	-15238
आरएल	-15239
माता	-15240
▁CRA	-15241
▁चंग	-15242
▁डीन	-15243
▁लाश	-15244
▁हिर	-15245
ान्तर	-15246
▁ऑप्ट	-15247
▁चौबी	-15248
▁झटके	-15249
▁डंडा	-15250
▁सरणी	-15251
▁सूती	-15252
पराइटर	-15253
▁उद्भव	-15254
▁खींची	-15255
▁चालित	-15256
▁दुहरा	-15257
▁बयाना	-15258
▁लौटते	-15259
▁सांके	-15260
▁स्वात	-15261
▁हैरान	-15262
▁Kumari	-15263
▁उदात्त	-15264
▁एनसीसी	-15265
▁ज्ञानी	-15266
▁महत्तर	-15267
▁श्रृंग	-15268
▁सुशासन	-15269
▁इकाइयाँ	-15270
▁प्रोन्न	-15271
▁फैक्टरी	-15272
▁महाद्वी	-15273
▁सुब्रमण	-15274
▁कुंजीपटल	-15275
▁जितेंद्र	-15276
▁यादृच्छिक	-15277
▁आर्बिट्रेशन	-15278
DC	-15279
ord	-15280
कथा	-15281
गति	-15282
गना	-15283
िगे	-15284
▁ko	-15285
ाहिम	-15286
्टिव	-15287
▁कतर	-15288
▁तने	-15289
▁परभ	-15290
▁लोन	-15291
▁सजग	-15292
▁एम्प	-15293
▁लाती	-15294
▁सरला	-15295
▁काटना	-15296
▁सोचकर	-15297
▁स्वंय	-15298
▁उकसावे	-15299
▁नदियां	-15300
▁निबन्ध	-15301
▁परिणति	-15302
▁निराकरण	-15303
▁प्रसूति	-15304
▁शत्रुओं	-15305
▁स्ट्रेट	-15306
▁रूपान्तर	-15307
▁ब्रह्मांड	-15308
▁तात्कालिकता	-15309
प्स	-15310
ोशी	-15311
▁हठ	-15312
जवान	-15313
रांत	-15314
ष्कर	-15315
िम्ब	-15316
्कों	-15317
▁कवच	-15318
▁टिन	-15319
▁हँस	-15320
न्दरी	-15321
▁अब्ब	-15322
▁लॉरी	-15323
▁शिका	-15324
▁सीवी	-15325
▁Mahto	-15326
▁अनादर	-15327
▁कीचड़	-15328
▁कुंवर	-15329
▁फोर्ट	-15330
▁लेफ्ट	-15331
▁विपुल	-15332
▁शुभार	-15333
▁एमसीआई	-15334
▁करूँगा	-15335
▁बिछाने	-15336
▁अविभक्त	-15337
▁केआईएडी	-15338
▁दृश्यों	-15339
▁नागेंद्र	-15340
▁प्राइमरी	-15341
▁वायुसेना	-15342
▁सांकेतिक	-15343
▁सामान्यत	-15344
▁इंडोनेशिया	-15345
णे	-15346
रीज	-15347
▁Na	-15348
▁वश	-15349
शीली	-15350
ैक्स	-15351
▁ढाई	-15352
▁दंप	-15353
▁धाम	-15354
▁भाप	-15355
▁संध	-15356
▁केपी	-15357
▁ज्ये	-15358
▁थोडा	-15359
▁फेरी	-15360
▁मेरु	-15361
▁वाकई	-15362
▁कुछेक	-15363
▁गुटों	-15364
▁बक्से	-15365
▁बरतने	-15366
▁बरसात	-15367
▁बांटा	-15368
▁मक्खन	-15369
▁मक्खी	-15370
क्षोपाय	-15371
▁किंगडम	-15372
▁ग्रामो	-15373
▁भुगतने	-15374
ॉल्वेंसी	-15375
▁इमारतें	-15376
▁विलुप्त	-15377
▁कांफ्रेंस	-15378
▁कार्यनीति	-15379
▁अपर्याप्तता	-15380
▁प्रस्तुतीकरण	-15381
ंन	-15382
UDA	-15383
VII	-15384
use	-15385
कां	-15386
खोर	-15387
डि़	-15388
दशा	-15389
मीम	-15390
▁CE	-15391
चर्य	-15392
ुलित	-15393
ेस्ट	-15394
▁किफ	-15395
▁कोऑ	-15396
▁जेड	-15397
▁पाश	-15398
लियां	-15399
▁चंचल	-15400
▁टीके	-15401
▁फोकस	-15402
▁भड़क	-15403
▁लोहा	-15404
यात्मक	-15405
्रीकृत	-15406
▁अशक्त	-15407
▁गुरुत	-15408
▁घुसपैठ	-15409
▁बरामदे	-15410
▁सिक्का	-15411
▁सुपारी	-15412
▁स्वीडन	-15413
▁ईश्वरीय	-15414
▁सक्षमता	-15415
▁सादृश्य	-15416
▁सेनापति	-15417
▁प्रतिध्व	-15418
▁जमींदारों	-15419
▁स्टैंडर्ड	-15420
▁प्रतिस्पर्ध	-15421
▁प्रार्थनाओं	-15422
▁स्थानान्तरण	-15423
गि	-15424
षऋ	-15425
र्र	-15426
वाड	-15427
ोबा	-15428
▁IN	-15429
▁ND	-15430
▁गड	-15431
▁जख	-15432
गुरु	-15433
त्सा	-15434
िश्व	-15435
▁अवा	-15436
▁उमर	-15437
▁काफ	-15438
▁डोग	-15439
▁पाम	-15440
▁रहो	-15441
▁हैल	-15442
रेटिव	-15443
्वाधर	-15444
▁NEET	-15445
▁छिपी	-15446
▁मूंग	-15447
▁एडहॉक	-15448
▁पत्ती	-15449
▁सौदों	-15450
नेलवेली	-15451
▁अंधकार	-15452
▁अलीगढ़	-15453
▁कार्यो	-15454
▁खासतौर	-15455
▁चतुर्व	-15456
▁विषाणु	-15457
▁हुकूमत	-15458
▁उग्रवादी	-15459
▁जिज्ञासा	-15460
▁विज्ञप्ति	-15461
▁अतिशयोक्ति	-15462
▁प्रजातियां	-15463
▁प्रोपराइटर	-15464
▁साम्प्रदायिक	-15465
▁प्रत्यक्षीकरण	-15466
▁सामंजस्यपूर्ण	-15467
कोण	-15468
ज्ह	-15469
सला	-15470
ुचि	-15471
ूले	-15472
ोजर	-15473
ण्डी	-15474
र्मन	-15475
ायीं	-15476
िएंट	-15477
▁अवन	-15478
▁एग्	-15479
▁किट	-15480
▁टंक	-15481
▁ट्व	-15482
▁दिक	-15483
▁सडक	-15484
▁http	-15485
▁आज्ञ	-15486
▁जरुर	-15487
▁पूरन	-15488
▁मुकु	-15489
▁लटका	-15490
▁हिरण	-15491
▁चुम्ब	-15492
▁तेजाब	-15493
▁दुसरे	-15494
▁परमान	-15495
▁पायलट	-15496
▁बच्ची	-15497
▁बढ़ाए	-15498
▁बहुता	-15499
▁योंकि	-15500
▁वर्सस	-15501
▁ह्रदय	-15502
▁तिब्बत	-15503
▁व्हाइट	-15504
▁संबधित	-15505
▁आदमियों	-15506
▁चार्ल्स	-15507
▁संरक्षा	-15508
▁इब्राहिम	-15509
▁एस्टोपेल	-15510
▁प्रांतों	-15511
▁मताधिकार	-15512
▁शत्रुघ्न	-15513
▁स्त्रियां	-15514
▁कार्यनीतिक	-15515
▁वर्णनात्मक	-15516
▁व्यवस्थाओं	-15517
रोप	-15518
ाइप	-15519
ासी	-15520
िनि	-15521
▁pp	-15522
▁झं	-15523
गाली	-15524
ड्डा	-15525
दिरा	-15526
▁अगु	-15527
▁आईए	-15528
▁डाँ	-15529
▁भान	-15530
▁मचा	-15531
▁साब	-15532
ंगठित	-15533
वल्ली	-15534
विजनल	-15535
ोलिटन	-15536
▁Roht	-15537
▁आईएफ	-15538
▁उठकर	-15539
▁खाया	-15540
▁छुरा	-15541
▁मलिक	-15542
▁रूपए	-15543
कोशिका	-15544
▁पराजय	-15545
▁फ्रंट	-15546
▁बीमित	-15547
▁बैठते	-15548
▁भेजकर	-15549
▁आरटीआई	-15550
▁घोड़ों	-15551
▁त्यागी	-15552
▁नेपाली	-15553
▁बड़ौदा	-15554
▁शिलाले	-15555
▁प्रमोशन	-15556
▁फुफ्फुस	-15557
▁गुणात्मक	-15558
▁डायरेक्ट	-15559
▁बल्लेबाजी	-15560
▁राजकुमारी	-15561
▁प्रोसेसिंग	-15562
▁कार्रवाइयों	-15563
aff	-15564
ain	-15565
नोट	-15566
र्ब	-15567
▁af	-15568
▁नख	-15569
ical	-15570
आईएस	-15571
▁दाख	-15572
▁नजी	-15573
▁सिव	-15574
स्टेट	-15575
ोजनों	-15576
▁करीम	-15577
▁नर्इ	-15578
▁भूरा	-15579
▁मिमी	-15580
▁आहरित	-15581
▁कथानक	-15582
▁कानों	-15583
▁क्लिप	-15584
▁जिहाद	-15585
▁जीर्ण	-15586
▁ट्राइ	-15587
▁नशीली	-15588
▁नोबेल	-15589
▁बन्धन	-15590
▁संभवत	-15591
▁साँचा	-15592
▁इजराइल	-15593
▁क्लबों	-15594
▁गुस्से	-15595
▁गौरतलब	-15596
▁दर्शाए	-15597
▁पटवारी	-15598
▁बोलचाल	-15599
▁मददगार	-15600
▁मीटिंग	-15601
▁वर्धित	-15602
▁संवेदी	-15603
▁कंपाउंड	-15604
▁गोवर्धन	-15605
▁नक्षत्र	-15606
▁बताएंगे	-15607
▁ममलतदार	-15608
▁शाहजहाँ	-15609
▁करनेवाला	-15610
▁दूरदर्शन	-15611
▁रिपब्लिक	-15612
▁सिंडिकेट	-15613
▁कठिनाइयां	-15614
▁ब्राह्मणों	-15615
ातु	-15616
ेसी	-15617
▁On	-15618
▁हृ	-15619
प्सा	-15620
रांव	-15621
लेपन	-15622
षकों	-15623
्लेट	-15624
▁App	-15625
▁SHO	-15626
▁कंद	-15627
▁भगा	-15628
▁माई	-15629
▁विह	-15630
▁शही	-15631
▁शाप	-15632
िविटी	-15633
▁अकाल	-15634
▁अपंग	-15635
▁कमां	-15636
▁कोला	-15637
▁गाजा	-15638
▁जनित	-15639
▁झाड़	-15640
▁नाला	-15641
▁मल्ह	-15642
बुद्धि	-15643
[...]
