<unk>	0
<s>	0
</s>	0
UuRrLl	0
DdAaTtEe	0
NnUuMm	0
▁क	-0
▁स	-1
▁ह	-2
▁प	-3
▁म	-4
्र	-5
ार	-6
▁के	-7
▁अ	-8
▁व	-9
या	-10
▁है	-11
ें	-12
▁ज	-13
▁न	-14
▁।	-15
ों	-16
▁ब	-17
र्	-18
▁द	-19
▁,	-20
्य	-21
▁में	-22
ता	-23
▁उ	-24
▁ल	-25
▁र	-26
ान	-27
▁प्र	-28
िक	-29
▁की	-30
▁आ	-31
▁औ	-32
ने	-33
▁त	-34
▁कि	-35
▁कर	-36
्त	-37
▁और	-38
ित	-39
▁का	-40
▁को	-41
▁भ	-42
▁से	-43
ना	-44
▁ग	-45
▁इ	-46
▁वि	-47
▁.	-48
्व	-49
▁ए	-50
▁पर	-51
▁य	-52
▁हो	-53
▁सं	-54
▁श	-55
िय	-56
▁-	-57
था	-58
िए	-59
ाल	-60
्ष	-61
▁च	-62
▁इस	-63
्या	-64
ति	-65
्ट	-66
▁हैं	-67
▁एक	-68
▁सम	-69
ही	-70
न्	-71
▁जा	-72
ती	-73
▁लिए	-74
ाम	-75
ते	-76
ास	-77
▁नि	-78
के	-79
स्	-80
ड़	-81
त्र	-82
िया	-83
▁अप	-84
वा	-85
▁यह	-86
क्ष	-87
▁अध	-88
ोग	-89
▁अन	-90
से	-91
▁रा	-92
ां	-93
ेश	-94
िल	-95
हीं	-96
सी	-97
▁या	-98
▁)	-99
▁भी	-100
▁(	-101
▁ख	-102
▁नहीं	-103
ाह	-104
ारा	-105
नी	-106
कार	-107
री	-108
रा	-109
▁जो	-110
▁किया	-111
ष्ट	-112
क्त	-113
▁ने	-114
त्	-115
▁करने	-116
ाय	-117
िन	-118
▁दे	-119
का	-120
▁फ	-121
▁कार	-122
▁स्	-123
▁उस	-124
ंग	-125
▁उप	-126
▁सा	-127
▁थ	-128
िस	-129
द्	-130
ियों	-131
▁हम	-132
▁रह	-133
कर	-134
ाद	-135
ले	-136
▁मु	-137
▁सक	-138
▁तथा	-139
▁ध	-140
ाव	-141
ूप	-142
्री	-143
की	-144
▁उन	-145
▁था	-146
▁भार	-147
▁ही	-148
ूर्	-149
गा	-150
▁अनु	-151
ला	-152
▁हु	-153
ाने	-154
ंध	-155
्च	-156
▁सु	-157
▁द्व	-158
ंद	-159
▁कु	-160
ओं	-161
मा	-162
▁गया	-163
▁वह	-164
▁ले	-165
▁ऐ	-166
▁अधिक	-167
सा	-168
स्त	-169
वि	-170
▁ड	-171
▁स्व	-172
▁राज	-173
ाग	-174
▁निर्	-175
द्ध	-176
▁आप	-177
ंत	-178
ारी	-179
ल्	-180
▁किसी	-181
▁तो	-182
▁रूप	-183
▁व्य	-184
▁द्वारा	-185
▁विश	-186
ैं	-187
म्	-188
ाप	-189
ीन	-190
ोज	-191
न्ह	-192
िव	-193
बंध	-194
ंड	-195
ली	-196
▁अपने	-197
▁प्रति	-198
त्त	-199
ुर	-200
▁पह	-201
देश	-202
▁वाल	-203
▁वर्	-204
धार	-205
▁मह	-206
रे	-207
▁ट	-208
▁वे	-209
ात	-210
▁घ	-211
भी	-212
▁चाह	-213
योग	-214
▁साथ	-215
▁छ	-216
▁जिस	-217
ार्	-218
▁कार्य	-219
रण	-220
▁कह	-221
▁न्या	-222
▁तक	-223
▁क्ष	-224
▁भारत	-225
ाना	-226
क्ति	-227
जी	-228
ंत्र	-229
में	-230
ारे	-231
िर	-232
क्र	-233
▁स्थ	-234
▁उन्ह	-235
कि	-236
▁राष्ट	-237
▁जाता	-238
▁सह	-239
दि	-240
द्य	-241
▁अव	-242
ष्	-243
▁करना	-244
ियम	-245
ूल	-246
▁दो	-247
▁सर	-248
▁बह	-249
ाज	-250
लय	-251
ुत	-252
ृत	-253
▁मे	-254
चार	-255
▁थे	-256
िश	-257
▁'	-258
▁कुछ	-259
न्द	-260
गी	-261
ढ़	-262
ब्	-263
▁सि	-264
▁साम	-265
नों	-266
▁कोई	-267
▁/	-268
▁थी	-269
▁सी	-270
च्च	-271
▁पु	-272
मान	-273
▁मैं	-274
▁विक	-275
खा	-276
▁होता	-277
▁जी	-278
्ञ	-279
▁दिया	-280
्यों	-281
दा	-282
ीय	-283
्रे	-284
▁सकता	-285
्छ	-286
स्थ	-287
▁जब	-288
ूर्ण	-289
ेत्र	-290
▁दू	-291
▁अभ	-292
ाइ	-293
▁;	-294
गे	-295
न्न	-296
िप	-297
▁मान	-298
ाप्त	-299
▁कम	-300
क्	-301
▁बी	-302
िका	-303
र्थ	-304
▁इन	-305
ये	-306
धि	-307
▁समय	-308
▁क्षेत्र	-309
▁न्याया	-310
▁संबंध	-311
▁मिल	-312
ाध	-313
▁सू	-314
▁करते	-315
दी	-316
ंच	-317
▁जै	-318
▁हुए	-319
▁बना	-320
कों	-321
▁पू	-322
▁करता	-323
▁अंत	-324
▁सरकार	-325
▁अन्य	-326
र्म	-327
वे	-328
च्छ	-329
▁लोग	-330
▁राष्ट्र	-331
िम	-332
भाव	-333
▁जाए	-334
स्था	-335
ेष	-336
वन	-337
▁अपनी	-338
▁उत्	-339
▁पा	-340
▁देश	-341
क्षा	-342
▁चाहिए	-343
▁राज्य	-344
्रीय	-345
ोट	-346
ोक	-347
▁तर	-348
त्य	-349
▁परि	-350
दान	-351
▁रहे	-352
▁रख	-353
▁विश्व	-354
▁गु	-355
▁उनके	-356
▁वर्ष	-357
▁:	-358
▁रहा	-359
ानी	-360
ज्ञ	-361
ूर्व	-362
▁ओ	-363
चना	-364
ाई	-365
▁सम्	-366
▁बहुत	-367
को	-368
▁?	-369
▁होने	-370
र्श	-371
▁गई	-372
▁पी	-373
▁वाले	-374
▁हि	-375
▁बाद	-376
तीय	-377
▁बात	-378
▁प्राप्त	-379
▁करें	-380
▁दी	-381
िक्ष	-382
नि	-383
▁कहा	-384
श्य	-385
▁विभ	-386
जा	-387
▁बन	-388
करण	-389
ुल	-390
▁सभी	-391
गर	-392
ेल	-393
ौर	-394
▁जाने	-395
वं	-396
पति	-397
▁प्रकार	-398
्ल	-399
▁सब	-400
▁उसके	-401
ुक्त	-402
▁न्यायालय	-403
▁ऊ	-404
धान	-405
▁आय	-406
ज़	-407
रो	-408
ोंने	-409
िख	-410
िति	-411
▁होती	-412
▁ऐसे	-413
एं	-414
▁व्यक्ति	-415
▁आव	-416
ड़ी	-417
▁भारतीय	-418
▁देख	-419
▁चु	-420
▁कारण	-421
ंप	-422
िट	-423
स्ता	-424
▁लग	-425
पूर्ण	-426
ोल	-427
श्च	-428
▁अधिन	-429
▁प्रश	-430
▁तरह	-431
त्म	-432
▁जन	-433
भा	-434
ग्र	-435
ड़ा	-436
▁जि	-437
▁होगा	-438
ाँ	-439
▁श्री	-440
▁विकास	-441
▁हुआ	-442
▁व्या	-443
▁गए	-444
र्त	-445
द्योग	-446
▁इसके	-447
▁राष्ट्रपति	-448
धी	-449
▁क्र	-450
▁पूर्व	-451
▁एवं	-452
▁अधिनियम	-453
▁उसे	-454
मी	-455
ड़े	-456
▁सकते	-457
▁किए	-458
▁अनुस	-459
▁उत्प	-460
र्व	-461
▁माम	-462
रिक	-463
जन	-464
▁उन्हें	-465
ंब	-466
▁भाग	-467
▁उन्होंने	-468
▁नी	-469
▁ला	-470
▁मूल	-471
▁ग्र	-472
सर	-473
्यू	-474
गत	-475
▁यदि	-476
ंक	-477
▁क्या	-478
▁दु	-479
▁धारा	-480
िये	-481
▁काम	-482
▁नाम	-483
▁पहले	-484
तिक	-485
किन	-486
▁स्थान	-487
▁उच्च	-488
िता	-489
वी	-490
▁जान	-491
वाद	-492
तर	-493
ोजना	-494
▁विचार	-495
त्व	-496
▁लेकिन	-497
▁ता	-498
क्रम	-499
▁ऐसा	-500
▁विशेष	-501
▁जह	-502
मे	-503
माण	-504
▁हू	-505
▁सद	-506
▁अस	-507
▁ई	-508
▁मुख	-509
▁परिव	-510
ुद्ध	-511
ास्त	-512
▁दूस	-513
चित	-514
ाली	-515
▁बि	-516
न्त	-517
टी	-518
झे	-519
वल	-520
्ड	-521
िला	-522
▁स्त	-523
श्यक	-524
▁जाती	-525
▁ऐसी	-526
वर्	-527
कृत	-528
ूर	-529
ष्ठ	-530
▁आधार	-531
▁बढ़	-532
▁अब	-533
▁बे	-534
▁लोगों	-535
ूम	-536
▁पै	-537
िंग	-538
▁स्था	-539
▁अधिकार	-540
ोर	-541
ील	-542
▁बारे	-543
▁निक	-544
▁निय	-545
▁जीवन	-546
▁हमारे	-547
▁ये	-548
्स	-549
यी	-550
▁सेवा	-551
▁आवश्यक	-552
▁वै	-553
षण	-554
ोर्	-555
▁उनकी	-556
द्र	-557
प्र	-558
ियां	-559
▁भा	-560
▁अधीन	-561
▁प्रभाव	-562
▁उत्त	-563
▁शिक्ष	-564
▁समझ	-565
▁आर	-566
▁जैसे	-567
ख्या	-568
▁तु	-569
टर	-570
क्षण	-571
लों	-572
▁मन	-573
ुप	-574
▁होते	-575
बर	-576
िन्न	-577
निक	-578
▁उपयोग	-579
धन	-580
▁बार	-581
▁व्यव	-582
▁हुई	-583
▁दिन	-584
▁मुझे	-585
ार्थ	-586
▁क्यों	-587
▁केवल	-588
▁कृ	-589
ची	-590
▁ओर	-591
कृ	-592
पर	-593
▁फिर	-594
ेत	-595
ेद	-596
ल्प	-597
▁जाना	-598
टा	-599
▁अल	-600
▁रही	-601
▁ठ	-602
क्रिया	-603
ेक	-604
षा	-605
▁अथ	-606
▁प्रयोग	-607
ंभ	-608
▁जिन	-609
▁बीच	-610
▁बाह	-611
▁प्रदान	-612
▁सो	-613
▁चल	-614
वाह	-615
्म	-616
कारी	-617
ताओं	-618
ून	-619
▁सहाय	-620
▁मा	-621
▁प्रा	-622
▁ढ	-623
दार	-624
विध	-625
मु	-626
▁पार	-627
▁पास	-628
▁दृ	-629
यन	-630
▁पुर	-631
पित	-632
▁प्रत्य	-633
▁देने	-634
▁अथवा	-635
▁हों	-636
तः	-637
कर्	-638
तम	-639
ज्ञान	-640
▁लोक	-641
▁वाली	-642
▁“	-643
▁कंप	-644
पी	-645
ब्द	-646
्न	-647
▁उत्पाद	-648
▁प्रक्रिया	-649
हार	-650
▁जिसमें	-651
्यालय	-652
▁कै	-653
▁निर्धार	-654
शन	-655
फल	-656
▁अपना	-657
▁जहां	-658
धिक	-659
दर्श	-660
▁उपल	-661
▁ब्र	-662
भव	-663
युक्त	-664
▁दोनों	-665
ित्र	-666
चा	-667
▁सकती	-668
▁न्याय	-669
▁राष्ट्रीय	-670
▁s	-671
स्ट	-672
▁झ	-673
ुक	-674
▁लगा	-675
त्ता	-676
ांत	-677
▁इसे	-678
णी	-679
▁स्प	-680
▁उपलब्	-681
्यान	-682
▁प्रस	-683
▁पर्	-684
▁करती	-685
▁आज	-686
रों	-687
▁पश्च	-688
▁तब	-689
▁विधि	-690
त्मक	-691
▁व्याप	-692
ेज	-693
▁होना	-694
▁पुन	-695
▁महत्व	-696
▁हर	-697
▁बैं	-698
▁उसकी	-699
▁पहु	-700
▁बद	-701
फ़	-702
ोह	-703
व्य	-704
▁योजना	-705
द्योगिक	-706
▁विष	-707
▁प्रण	-708
▁संग	-709
▁%	-710
▁सके	-711
▁सदस	-712
▁ऑ	-713
▁मौ	-714
ंह	-715
▁सामान	-716
दाय	-717
▁करे	-718
▁पद	-719
बी	-720
ंज	-721
▁अर्थ	-722
▁प्रे	-723
▁लिया	-724
▁सबसे	-725
▁पत्र	-726
ूत	-727
▁वृ	-728
चे	-729
▁अर्	-730
▁अच्छ	-731
ोड़	-732
▁बै	-733
▁उपलब्ध	-734
▁फ़	-735
▁वित	-736
▁क्योंकि	-737
▁ना	-738
ण्ड	-739
न्द्र	-740
▁शिक्षा	-741
ेय	-742
▁स्ट	-743
मिक	-744
▁संप	-745
ामी	-746
▁अंतर	-747
▁शुर	-748
▁हमें	-749
▁जाते	-750
श्व	-751
▁बच्च	-752
▁छोट	-753
▁सूचना	-754
त्रा	-755
▁संबंधित	-756
ंतु	-757
▁नियम	-758
▁उद्	-759
▁हूं	-760
▁जर	-761
ेट	-762
ोजन	-763
ाध्य	-764
िज	-765
रूप	-766
▁स्थिति	-767
दन	-768
▁मुख्य	-769
▁वा	-770
▁निव	-771
▁अंग	-772
▁दौर	-773
▁केंद	-774
▁लाग	-775
▁कभी	-776
▁अति	-777
▁खु	-778
▁एस	-779
▁मध	-780
▁लिख	-781
▁वस्त	-782
▁यू	-783
▁प्रव	-784
िल्	-785
िखा	-786
▁शब्द	-787
▁सुर	-788
कृति	-789
▁योग	-790
▁अध्य	-791
▁विषय	-792
वरण	-793
▁जु	-794
▁अनुसार	-795
तंत्र	-796
▁उत्तर	-797
▁तै	-798
▁शाम	-799
ासन	-800
र्क	-801
ष्टि	-802
ित्व	-803
▁मै	-804
▁इसल	-805
▁उठ	-806
▁सहायता	-807
काश	-808
ाला	-809
▁वास्त	-810
डी	-811
▁सर्व	-812
▁0	-813
▁यु	-814
▁कई	-815
िस्ट	-816
▁विन	-817
▁लिये	-818
▁शक्ति	-819
शा	-820
स्थान	-821
▁भूम	-822
क्ट	-823
▁व्यक्त	-824
▁ऋ	-825
▁उद	-826
त्ति	-827
▁विभिन्न	-828
▁जाएगा	-829
काल	-830
▁मंत्र	-831
▁मामले	-832
▁दूसरे	-833
ंट	-834
▁सामान्य	-835
हर	-836
फी	-837
▁अगर	-838
▁अलग	-839
ास्	-840
▁संघ	-841
मत	-842
मार	-843
▁स्वी	-844
▁आई	-845
दे	-846
ांग	-847
▁इत	-848
▁भाषा	-849
▁लाभ	-850
▁दौरान	-851
▁इसलिए	-852
▁उसका	-853
▁उनका	-854
▁बु	-855
मुख	-856
नल	-857
▁अने	-858
▁संख्या	-859
▁पूर्ण	-860
▁इसका	-861
▁जल	-862
▁ज्ञ	-863
▁सुन	-864
▁>	-865
▁गो	-866
▁कान	-867
पाल	-868
▁"	-869
▁बा	-870
▁साह	-871
ंजी	-872
▁वाला	-873
ारों	-874
▁भाव	-875
▁पक्ष	-876
▁शामिल	-877
वान	-878
गम	-879
▁&	-880
ाधिक	-881
▁तैय	-882
▁वास्तव	-883
▁संस	-884
▁अनेक	-885
ोड	-886
ूह	-887
▁समु	-888
▁उसने	-889
र्तन	-890
▁अवसर	-891
म्ब	-892
टना	-893
▁हा	-894
ेड	-895
ाइल	-896
ुष	-897
▁कल	-898
▁दर	-899
्यु	-900
▁सिंह	-901
▁विध	-902
▁अं	-903
▁गये	-904
ोर्ट	-905
▁तीन	-906
▁माध्य	-907
▁पहुंच	-908
▁उपबंध	-909
स्व	-910
नीय	-911
िष्ट	-912
▁गां	-913
▁रुप	-914
▁आदि	-915
ुट	-916
▁बता	-917
यं	-918
▁सिद्ध	-919
▁जिसे	-920
▁प्रत्येक	-921
ेंगे	-922
सल	-923
▁पृ	-924
▁प्रौ	-925
▁विर	-926
▁दूर	-927
▁निर्माण	-928
न्तु	-929
▁मानव	-930
शो	-931
द्यालय	-932
शत	-933
ालय	-934
▁प्रया	-935
स्थित	-936
▁समाज	-937
▁उद्योग	-938
कट	-939
र्इ	-940
▁प्रय	-941
▁यहां	-942
▁संर	-943
थ्य	-944
▁धर्म	-945
▁राम	-946
प्त	-947
▁वित्त	-948
▁कार्यक्रम	-949
▁ध्यान	-950
▁बनाने	-951
▁संस्था	-952
क्षित	-953
▁मध्य	-954
पन	-955
र्ष	-956
ोन	-957
▁संस्	-958
▁नई	-959
▁बैंक	-960
▁होगी	-961
▁स्पष्ट	-962
▁महत्वपूर्ण	-963
▁संवि	-964
▁मत	-965
▁अग	-966
▁आपको	-967
ंस	-968
▁रोग	-969
ग्रह	-970
▁विदेश	-971
▁तैयार	-972
▁अंतर्	-973
▁आर्थ	-974
▁ची	-975
▁प्रयास	-976
▁पि	-977
▁स्तर	-978
▁जिसके	-979
एस	-980
णा	-981
ूट	-982
▁सार	-983
▁वस्तु	-984
▁हेत	-985
▁पड़	-986
वादी	-987
▁बिना	-988
णय	-989
▁शु	-990
▁शुरू	-991
▁विभाग	-992
▁आदेश	-993
▁‘	-994
▁बाहर	-995
▁समान	-996
▁पता	-997
न्ध	-998
▁बदल	-999
▁हमारी	-1000
▁प्रतिशत	-1001
▁देता	-1002
▁विद्य	-1003
▁आर्थिक	-1004
▁श्र	-1005
▁आध	-1006
▁मृत	-1007
▁प्रौद्योगिक	-1008
▁जनता	-1009
निया	-1010
तन	-1011
▁ली	-1012
▁शी	-1013
स्या	-1014
▁हेतु	-1015
▁#	-1016
▁कर्म	-1017
▁प्रार	-1018
▁लेख	-1019
▁अन्त	-1020
▁माल	-1021
स्प	-1022
ोष	-1023
▁संस्थान	-1024
▁प्रो	-1025
इट	-1026
▁सौ	-1027
म्प	-1028
▁सां	-1029
मित	-1030
▁इससे	-1031
▁परिण	-1032
▁हिन्द	-1033
शि	-1034
▁”	-1035
ठन	-1036
▁चि	-1037
▁आगे	-1038
ूर्ति	-1039
्टी	-1040
▁मार्	-1041
▁खा	-1042
▁करके	-1043
▁गति	-1044
▁भर	-1045
▁वी	-1046
▁आवश्यकता	-1047
▁a	-1048
ेन	-1049
▁मज	-1050
▁पर्या	-1051
तों	-1052
▁बल्	-1053
▁देना	-1054
▁निर्धारित	-1055
▁प्रकाश	-1056
धारा	-1057
धीश	-1058
त्या	-1059
▁समस्या	-1060
ेशन	-1061
▁खंड	-1062
षि	-1063
▁हाल	-1064
▁वहां	-1065
▁तुम	-1066
▁प्रमुख	-1067
▁इसी	-1068
▁डा	-1069
शी	-1070
▁रिप	-1071
▁इसमें	-1072
▁क्षेत्रों	-1073
▁i	-1074
▁विस्त	-1075
मता	-1076
▁स्क	-1077
▁नियंत्र	-1078
्यता	-1079
▁विश्वास	-1080
▁निर्णय	-1081
▁लागू	-1082
▁उल्	-1083
▁निम्	-1084
▁कंपनी	-1085
हास	-1086
▁ती	-1087
र्भ	-1088
▁स्वयं	-1089
▁निर	-1090
ाजिक	-1091
▁उद्देश	-1092
▁नीति	-1093
▁गयी	-1094
▁आस	-1095
▁जारी	-1096
ियो	-1097
▁ज़	-1098
▁गुण	-1099
द्धि	-1100
▁पूरी	-1101
▁सामाजिक	-1102
्रा	-1103
▁मी	-1104
यात	-1105
दिष्ट	-1106
▁आपके	-1107
▁प्रबंध	-1108
ालन	-1109
▁प्रणाली	-1110
▁मेरे	-1111
▁प्रस्त	-1112
▁काफी	-1113
िश्च	-1114
▁प्रस्ता	-1115
▁स्वतंत्र	-1116
▁परिणाम	-1117
टक	-1118
▁सीमा	-1119
साय	-1120
▁आयोग	-1121
▁सुधार	-1122
ासी	-1123
▁प्रौद्योगिकी	-1124
▁पूरा	-1125
ियन	-1126
न्म	-1127
▁अपे	-1128
▁कवि	-1129
हत	-1130
▁गै	-1131
▁प्राधिक	-1132
ूद	-1133
ॉल	-1134
▁समूह	-1135
च्छेद	-1136
▁अम	-1137
▁हिंद	-1138
▁न्यायाधीश	-1139
▁घर	-1140
पि	-1141
भग	-1142
तिहास	-1143
▁मद	-1144
▁प्रस्ताव	-1145
▁ज्ञान	-1146
▁माध्यम	-1147
▁भवन	-1148
चन	-1149
एँ	-1150
रोध	-1151
▁दिखा	-1152
▁बैठ	-1153
▁स्थापित	-1154
▁मूल्य	-1155
▁व्यवस्था	-1156
बद्ध	-1157
सं	-1158
▁लगभग	-1159
▁टी	-1160
▁स्वीकार	-1161
▁मामलों	-1162
वेदन	-1163
▁हाथ	-1164
क्ष्य	-1165
▁क्रिया	-1166
▁वर्ग	-1167
▁रिपोर्ट	-1168
विद्यालय	-1169
▁कठ	-1170
▁आम	-1171
▁पुस्त	-1172
▁दक्ष	-1173
▁सर्	-1174
विधा	-1175
▁सम्म	-1176
▁सदस्य	-1177
▁जैसा	-1178
▁बो	-1179
▁हूँ	-1180
ंदर	-1181
▁विश्वविद्यालय	-1182
▁ऋण	-1183
▁सूची	-1184
▁निष्	-1185
▁गण	-1186
▁अधिकारी	-1187
▁अपरा	-1188
द्व	-1189
ुग	-1190
▁सभा	-1191
▁केंद्र	-1192
▁मैंने	-1193
हित	-1194
▁जानकारी	-1195
ीक	-1196
▁अवधि	-1197
▁कौ	-1198
▁सुरक्षा	-1199
र्य	-1200
▁सहयोग	-1201
वाई	-1202
▁श्रे	-1203
▁कृषि	-1204
▁बड़ी	-1205
▁मृत्यु	-1206
क्ता	-1207
▁डी	-1208
▁फै	-1209
लेख	-1210
ाया	-1211
▁!	-1212
▁नाग	-1213
तान	-1214
▁बाल	-1215
▁रंग	-1216
्ले	-1217
▁संविधान	-1218
▁डे	-1219
▁दर्श	-1220
▁एन	-1221
▁पं	-1222
▁अत्य	-1223
ारण	-1224
▁डि	-1225
▁काल	-1226
▁सफल	-1227
▁किस	-1228
निर्	-1229
▁धन	-1230
▁अर	-1231
आई	-1232
▁त्र	-1233
▁समाप्त	-1234
ान्त	-1235
▁देशों	-1236
पुर	-1237
▁चिक	-1238
▁परी	-1239
▁विज्ञान	-1240
▁व्यापार	-1241
▁रो	-1242
▁अमे	-1243
▁कुल	-1244
▁स्थित	-1245
ित्य	-1246
धारण	-1247
▁जिन्ह	-1248
ष्ण	-1249
शील	-1250
▁बाज	-1251
▁शरी	-1252
▁इसकी	-1253
▁अभी	-1254
पना	-1255
▁संबंधी	-1256
▁जिससे	-1257
▁जिसका	-1258
त्स	-1259
ेर	-1260
▁समर्थ	-1261
वाल	-1262
▁परिवर्तन	-1263
प्	-1264
▁जग	-1265
▁समिति	-1266
स्तान	-1267
▁ठीक	-1268
▁रखने	-1269
▁कोश	-1270
▁देते	-1271
▁आन	-1272
▁तरी	-1273
राज	-1274
▁उत्पादन	-1275
▁संसद	-1276
▁महिला	-1277
ात्	-1278
▁सुविधा	-1279
▁अतिरिक	-1280
ांति	-1281
▁छोड़	-1282
▁शै	-1283
वर	-1284
▁अंतर्गत	-1285
▁परिय	-1286
▁विशिष्ट	-1287
▁ज्या	-1288
▁लड़	-1289
▁पिछ	-1290
▁रे	-1291
▁प्रस्तुत	-1292
▁उपधारा	-1293
▁जाये	-1294
टन	-1295
▁बड़े	-1296
▁परियोजना	-1297
भार	-1298
क्स	-1299
▁बल	-1300
▁उद्देश्य	-1301
ोषण	-1302
▁अनुम	-1303
▁मंद	-1304
▁ऊपर	-1305
▁<	-1306
▁प्रदेश	-1307
बा	-1308
थम	-1309
▁संशो	-1310
सित	-1311
▁चार	-1312
्रो	-1313
▁रखा	-1314
सू	-1315
रित	-1316
▁चौ	-1317
▁बल्कि	-1318
▁पां	-1319
▁निश्च	-1320
▁राशि	-1321
▁साल	-1322
हरा	-1323
हन	-1324
िखित	-1325
▁शिक	-1326
▁स्वास्	-1327
▁चिकित	-1328
▁अंग्रे	-1329
▁मेरी	-1330
▁शरीर	-1331
▁चाहते	-1332
▁सै	-1333
▁संक	-1334
तियों	-1335
▁सच	-1336
िल्ली	-1337
ष्ट्रीय	-1338
▁अतिरिक्त	-1339
क़	-1340
▁आद	-1341
▁अभि	-1342
लो	-1343
▁बच	-1344
दारी	-1345
▁एम	-1346
ण्	-1347
▁क्षमता	-1348
▁आने	-1349
ुओं	-1350
▁डाल	-1351
यर	-1352
▁प्रमाण	-1353
चान	-1354
▁वर्त	-1355
▁सही	-1356
▁स्वास्थ्य	-1357
▁जीव	-1358
▁वेब	-1359
ंधान	-1360
▁पाठ	-1361
▁रु	-1362
▁निर्देश	-1363
ीकरण	-1364
▁पश्चिम	-1365
रोप	-1366
▁अनुच्छेद	-1367
▁देखा	-1368
▁कॉ	-1369
▁इं	-1370
▁संद	-1371
▁सामने	-1372
▁अप्र	-1373
▁मार्ग	-1374
▁यहाँ	-1375
▁मार	-1376
▁नीचे	-1377
▁अपराध	-1378
▁आरंभ	-1379
ंगा	-1380
ाहरण	-1381
▁युद्ध	-1382
▁दृष्टि	-1383
▁कहते	-1384
ूरी	-1385
यों	-1386
▁अपील	-1387
कृतिक	-1388
▁सम्ब	-1389
▁प्रदर्श	-1390
कर्ता	-1391
▁उदाहरण	-1392
▁प्रशिक्ष	-1393
▁अनुभव	-1394
▁प्रश्न	-1395
▁अनुसंधान	-1396
▁यात्रा	-1397
▁लेने	-1398
▁वर्षों	-1399
जे	-1400
▁पुल	-1401
▁वर्ण	-1402
▁परंतु	-1403
बार	-1404
▁जरूर	-1405
▁लंब	-1406
▁साहित्य	-1407
▁वर्तमान	-1408
▁दक्षि	-1409
▁निवेश	-1410
▁पानी	-1411
▁संयुक्त	-1412
जों	-1413
पत्र	-1414
▁महान	-1415
▁दिए	-1416
ँच	-1417
▁छोटे	-1418
ादी	-1419
म्ह	-1420
▁पढ़	-1421
▁बंग	-1422
बल	-1423
श्	-1424
▁विवाह	-1425
ानों	-1426
▁विदेशी	-1427
रल	-1428
▁निर्धारण	-1429
िश्चित	-1430
▁राजनी	-1431
र्स	-1432
ेम	-1433
तिम	-1434
ेंट	-1435
आर	-1436
दम	-1437
▁उसी	-1438
▁चला	-1439
▁रचना	-1440
▁करेगा	-1441
डा	-1442
लाह	-1443
▁दिव	-1444
▁नियंत्रण	-1445
▁थीं	-1446
▁भू	-1447
▁बच्चों	-1448
भर	-1449
ट्ट	-1450
▁बनाम	-1451
▁व्यक्तियों	-1452
▁दंड	-1453
▁उससे	-1454
▁बहु	-1455
▁प्रधान	-1456
▁सरकारी	-1457
ोर्ड	-1458
▁कोर्इ	-1459
▁प्रती	-1460
▁होंगे	-1461
▁भीतर	-1462
▁शा	-1463
जरा	-1464
▁संच	-1465
▁परन्तु	-1466
▁बड़ा	-1467
▁आधारित	-1468
वार	-1469
▁प्रथम	-1470
▁भूमि	-1471
▁रहने	-1472
▁सार्व	-1473
नाथ	-1474
▁तौर	-1475
पण	-1476
▁उच्चतम	-1477
▁पीछ	-1478
्रेस	-1479
▁कला	-1480
▁चुन	-1481
▁हिस्	-1482
▁अध्या	-1483
▁आश	-1484
▁बस	-1485
▁लाख	-1486
▁मंदिर	-1487
▁इतिहास	-1488
▁संभव	-1489
▁तुम्ह	-1490
▁A	-1491
जर	-1492
▁प्रेम	-1493
कता	-1494
▁खोज	-1495
▁रहते	-1496
er	-1497
▁जमा	-1498
▁नही	-1499
▁अपेक्षा	-1500
▁लगता	-1501
▁अग्र	-1502
पट	-1503
▁यही	-1504
▁मांग	-1505
्यास	-1506
▁दिश	-1507
▁ज्यादा	-1508
▁वृद्धि	-1509
▁वाप	-1510
▁जांच	-1511
▁प्रारंभ	-1512
▁वित्तीय	-1513
▁दूसरी	-1514
▁जन्म	-1515
▁याद	-1516
▁विकसित	-1517
▁इस्ल	-1518
▁पे	-1519
▁ट्र	-1520
▁कमी	-1521
ष्य	-1522
▁न्यू	-1523
ावा	-1524
र्जी	-1525
▁नए	-1526
▁दिल्ली	-1527
▁अंतिम	-1528
▁अध्ययन	-1529
द्द	-1530
▁संसा	-1531
▁रू	-1532
▁कांग	-1533
ग्री	-1534
शल	-1535
▁घटना	-1536
चल	-1537
▁मदद	-1538
▁करेंगे	-1539
▁गांधी	-1540
यां	-1541
▁टे	-1542
ंख	-1543
्ष्	-1544
▁पैदा	-1545
▁प्रकृति	-1546
▁अह	-1547
श्छ	-1548
▁स्थापना	-1549
▁राय	-1550
ार्ड	-1551
▁विंड	-1552
▁चित्र	-1553
जूद	-1554
र्द	-1555
▁प्रग	-1556
▁उत्पन्न	-1557
▁विधान	-1558
▁विस्तार	-1559
▁संत	-1560
▁एक्स	-1561
▁ऊण्	-1562
श्छ्ष्	-1563
▁संभाव	-1564
▁ऊण्श्छ्ष्	-1565
▁पेश	-1566
▁भूमिका	-1567
▁आवेदन	-1568
▁कर्	-1569
▁लेकर	-1570
▁कैसे	-1571
▁किंतु	-1572
ोजित	-1573
▁विवरण	-1574
▁ते	-1575
वीं	-1576
▁सदस्यों	-1577
ोस	-1578
ांश	-1579
▁राज्यों	-1580
▁संदेश	-1581
▁मिला	-1582
▁किये	-1583
▁बंद	-1584
▁पुलिस	-1585
▁आया	-1586
र्जा	-1587
क्षम	-1588
▁पुनः	-1589
▁दाय	-1590
▁रोक	-1591
▁हमने	-1592
▁भावना	-1593
▁नागरिक	-1594
▁गिर	-1595
▁बरा	-1596
▁मुद्र	-1597
्रम	-1598
▁वाय	-1599
▁स्वतंत्रता	-1600
ल्क	-1601
भूत	-1602
▁आत्म	-1603
▁मात्रा	-1604
िना	-1605
लू	-1606
▁हित	-1607
▁परिवार	-1608
▁नौ	-1609
▁उल्लेख	-1610
िले	-1611
▁देव	-1612
▁माना	-1613
तार	-1614
▁कानून	-1615
पा	-1616
▁प्रतिक	-1617
▁पौ	-1618
र्ग	-1619
▁विनिर्	-1620
▁तकनी	-1621
▁मो	-1622
धा	-1623
्वी	-1624
▁इंड	-1625
▁शासन	-1626
▁बाहरी	-1627
रि	-1628
▁मिश	-1629
पूर्व	-1630
▁तंत्र	-1631
▁नव	-1632
षित	-1633
▁अध्यक्ष	-1634
▁दिशा	-1635
▁बाजार	-1636
▁संगठन	-1637
नाव	-1638
र्च	-1639
साइट	-1640
▁सहित	-1641
▁मंत्रालय	-1642
▁भुग	-1643
▁चिकित्	-1644
ायत	-1645
▁फिल	-1646
▁बनाया	-1647
▁भेज	-1648
▁भिन्न	-1649
गार	-1650
ुस	-1651
ोध	-1652
▁धी	-1653
▁डॉ	-1654
▁पृष्ठ	-1655
▁बिल	-1656
▁उचित	-1657
▁जाय	-1658
▁आत	-1659
▁चे	-1660
▁निदेश	-1661
▁ब्रिट	-1662
▁प्रशिक्षण	-1663
▁सुनिश्चित	-1664
ैंड	-1665
▁कुमार	-1666
▁सिद्धांत	-1667
▁प्रगति	-1668
▁ताकि	-1669
▁अच्छी	-1670
▁अच्छा	-1671
पाद	-1672
कल	-1673
▁केन्द्र	-1674
▁भुगतान	-1675
स्थिति	-1676
▁पिता	-1677
▁राजा	-1678
▁बनाए	-1679
ंडल	-1680
▁अर्था	-1681
ेंस	-1682
▁दक्षिण	-1683
ाइन	-1684
▁गल	-1685
▁मां	-1686
▁वाद	-1687
▁जोड़	-1688
▁बीमा	-1689
▁स्थानीय	-1690
▁रहता	-1691
त्त्व	-1692
▁सत	-1693
▁सोच	-1694
▁जाएगी	-1695
ुनिक	-1696
मन	-1697
▁सत्ता	-1698
▁दुनिया	-1699
▁खेल	-1700
▁जबकि	-1701
र्फ	-1702
भू	-1703
ंबर	-1704
▁परिष	-1705
▁खुल	-1706
भाग	-1707
डे	-1708
▁संशोधन	-1709
▁विरुद्ध	-1710
▁उसमें	-1711
▁तहत	-1712
▁इस्त	-1713
▁कट	-1714
▁कांग्रेस	-1715
▁तुल	-1716
रिका	-1717
्रिय	-1718
▁प्रबंधन	-1719
▁वास्तविक	-1720
ज्ञानिक	-1721
▁कित	-1722
▁पहचान	-1723
▁बोर्ड	-1724
▁होकर	-1725
डर	-1726
▁क्ल	-1727
बू	-1728
जनिक	-1729
▁स्कूल	-1730
ैतिक	-1731
▁श्रेणी	-1732
▁लक्ष्य	-1733
▁मुसल	-1734
ियाँ	-1735
▁व्यापक	-1736
▁निर्दिष्ट	-1737
त्मा	-1738
कम	-1739
▁जगह	-1740
स्क	-1741
▁केंद्रीय	-1742
▁उनमें	-1743
▁बराबर	-1744
▁सेना	-1745
▁सार्वजनिक	-1746
▁बच्चे	-1747
▁पत्	-1748
▁पीछे	-1749
▁अला	-1750
▁अमेरिका	-1751
▁व्यवहार	-1752
▁प्रभावित	-1753
▁गुर	-1754
▁लाल	-1755
▁मुसलमान	-1756
ज्	-1757
▁मनुष	-1758
ूं	-1759
▁अफ	-1760
वास	-1761
श्वर	-1762
▁वेबसाइट	-1763
▁पर्याप्त	-1764
▁मि	-1765
▁आकार	-1766
▁बेह	-1767
▁उद्य	-1768
▁आधुनिक	-1769
▁जिला	-1770
्यूटर	-1771
▁क्रम	-1772
▁दिनों	-1773
नलिखित	-1774
फार	-1775
▁सत्य	-1776
▁पुस्तक	-1777
ोप	-1778
ाधान	-1779
▁पश्चात्	-1780
▁लगे	-1781
ंसा	-1782
▁उपकरण	-1783
ांक	-1784
▁निम्नलिखित	-1785
▁प्रवेश	-1786
▁पूंजी	-1787
ंथ	-1788
ायद	-1789
▁जरूरत	-1790
▁चाहिये	-1791
र्चा	-1792
िवार	-1793
क्रमण	-1794
▁पिछले	-1795
▁प्राय	-1796
दय	-1797
▁भवि	-1798
ौती	-1799
ल्पना	-1800
एम	-1801
▁आतंक	-1802
▁रोज	-1803
▁गैर	-1804
ड़ों	-1805
▁पहली	-1806
ामीण	-1807
वरी	-1808
भीर	-1809
कु	-1810
▁यथा	-1811
म्म	-1812
▁ग्रामीण	-1813
▁औद्योगिक	-1814
▁रज	-1815
▁प्रतिनि	-1816
हरी	-1817
▁वार	-1818
▁विवाद	-1819
स्ल	-1820
▁सन्	-1821
▁निकाल	-1822
▁भविष्य	-1823
▁मित्र	-1824
▁सर्वो	-1825
on	-1826
▁दिख	-1827
ेप	-1828
▁कहीं	-1829
▁आयु	-1830
▁सम्मान	-1831
▁शब्दों	-1832
▁कार्यालय	-1833
▁भग	-1834
फारिश	-1835
▁अभिय	-1836
▁सक्रिय	-1837
त्साह	-1838
▁खरी	-1839
▁अलावा	-1840
▁पद्ध	-1841
▁निश्चित	-1842
िको	-1843
बे	-1844
▁प्रकट	-1845
धे	-1846
▁सिफारिश	-1847
र्ट	-1848
ंश	-1849
सि	-1850
▁लौ	-1851
▁निकल	-1852
▁चाहे	-1853
▁अनुमति	-1854
▁निर्यात	-1855
▁दल	-1856
▁उपाय	-1857
▁पुरुष	-1858
न्व	-1859
स्कार	-1860
▁]	-1861
मंत्र	-1862
ानि	-1863
▁उत्स	-1864
▁ऊर्जा	-1865
▁पांच	-1866
▁समर्थन	-1867
▁अधिव	-1868
▁[	-1869
▁ढंग	-1870
▁नदी	-1871
▁दिल	-1872
वस्था	-1873
म्भ	-1874
जित	-1875
सन	-1876
▁संदर्भ	-1877
स्ति	-1878
▁इस्लाम	-1879
ुआ	-1880
▁कप	-1881
▁चै	-1882
▁जिन्हें	-1883
णिज	-1884
▁पंच	-1885
▁लिखा	-1886
▁प्रद	-1887
▁फल	-1888
▁दस्ता	-1889
ेमाल	-1890
▁केन्द	-1891
▁न्यायिक	-1892
▁जे	-1893
▁तारी	-1894
बाद	-1895
▁शायद	-1896
▁देती	-1897
▁रि	-1898
र्घ	-1899
▁इस्तेमाल	-1900
▁राजनीतिक	-1901
▁बर	-1902
▁ऑफ	-1903
▁लि	-1904
सिक	-1905
▁गी	-1906
▁जम	-1907
▁मिले	-1908
ाचार	-1909
▁पृथ	-1910
▁मुखर्जी	-1911
▁योग्य	-1912
▁पदार्थ	-1913
र्ण	-1914
णिज्य	-1915
गल	-1916
▁वैज्ञानिक	-1917
▁एल	-1918
▁बज	-1919
ाये	-1920
्राम	-1921
▁संके	-1922
्वेष	-1923
▁मोह	-1924
▁नेट	-1925
▁S	-1926
▁निर्वा	-1927
▁पाया	-1928
▁जिनमें	-1929
▁सम्बन्ध	-1930
▁चिकित्सा	-1931
▁मश	-1932
▁संरचना	-1933
▁खाद	-1934
सम	-1935
▁इतना	-1936
▁गं	-1937
▁दृष्ट	-1938
▁करोड़	-1939
▁न्यायालयों	-1940
▁गांव	-1941
▁मही	-1942
ंद्र	-1943
▁संग्रह	-1944
▁वो	-1945
▁फाइल	-1946
▁सहायक	-1947
चक	-1948
▁संरक्षण	-1949
▁नगर	-1950
▁भौ	-1951
▁पूछ	-1952
ेशा	-1953
ोलन	-1954
▁वाणिज्य	-1955
▁बां	-1956
▁लेखा	-1957
▁समाधान	-1958
▁सक्षम	-1959
▁मेरा	-1960
▁सामग्री	-1961
ृति	-1962
▁इच्छ	-1963
यल	-1964
शु	-1965
▁बंगाल	-1966
▁हमारा	-1967
▁प्रोत्साह	-1968
▁जैसी	-1969
▁नया	-1970
▁उद्यम	-1971
▁उठा	-1972
▁निजी	-1973
▁तारीख	-1974
▁रक्षा	-1975
▁मुक्त	-1976
▁चाहता	-1977
म्बर	-1978
▁पूरे	-1979
खी	-1980
▁मनुष्य	-1981
ंगे	-1982
▁दश	-1983
डियो	-1984
▁सलाह	-1985
▁सृ	-1986
▁संय	-1987
▁बढ	-1988
▁अद	-1989
▁री	-1990
ृह	-1991
▁मॉ	-1992
▁यद्य	-1993
▁वापस	-1994
थमिक	-1995
▁छा	-1996
▁पो	-1997
▁जाति	-1998
▁दस्तावे	-1999
▁खो	-2000
▁रक्त	-2001
▁अभिव	-2002
मारी	-2003
▁पुरस्कार	-2004
▁प्रकाशित	-2005
▁साधारण	-2006
घु	-2007
▁यद्यपि	-2008
इन	-2009
कुल	-2010
टल	-2011
▁मास	-2012
▁बुद्ध	-2013
▁तत्	-2014
▁तत्व	-2015
▁प्राथमिक	-2016
▁वन	-2017
▁बने	-2018
▁कम्प	-2019
▁थो	-2020
वाही	-2021
▁सफलता	-2022
कीय	-2023
क्षर	-2024
▁स्म	-2025
▁शांति	-2026
▁इनमें	-2027
▁अनुप	-2028
▁शीर्ष	-2029
▁दें	-2030
ायी	-2031
▁रखना	-2032
▁अवस्था	-2033
▁उत	-2034
▁समझौ	-2035
▁समक्ष	-2036
▁विप	-2037
▁पालन	-2038
▁रेल	-2039
मती	-2040
▁हमेशा	-2041
▁चर्चा	-2042
▁सिर्फ	-2043
▁रकम	-2044
▁मंत्री	-2045
▁युवा	-2046
▁सेवाओं	-2047
▁शक्त	-2048
▁रखते	-2049
▁विल	-2050
ाक	-2051
ड़क	-2052
▁फी	-2053
चीन	-2054
वर्ती	-2055
▁@	-2056
▁दशा	-2057
▁आत्मा	-2058
▁सकेगा	-2059
ल्ल	-2060
▁ईश्वर	-2061
ar	-2062
र्ज	-2063
▁रिक	-2064
▁देखने	-2065
मक	-2066
तया	-2067
टे	-2068
▁शेय	-2069
▁समुदाय	-2070
शिया	-2071
▁केन्द्रीय	-2072
▁संपत्ति	-2073
त्री	-2074
▁परीक्षा	-2075
▁महारा	-2076
ठित	-2077
ोक्ता	-2078
ैल	-2079
▁उपन	-2080
धनों	-2081
▁धीरे	-2082
राष्ट्रीय	-2083
▁तीस	-2084
▁सुझ	-2085
▁चाल	-2086
at	-2087
▁सम्प	-2088
▁निगम	-2089
▁कानू	-2090
▁बताया	-2091
▁अंक	-2092
क्टर	-2093
▁सिव	-2094
▁चयन	-2095
्टर	-2096
▁प्रशासन	-2097
▁पाल	-2098
▁गंभीर	-2099
▁पर्य	-2100
▁योगदान	-2101
▁जिसकी	-2102
▁किन्तु	-2103
▁मर	-2104
▁छोटी	-2105
▁अधिकांश	-2106
▁कंप्यूटर	-2107
▁चुका	-2108
▁लागत	-2109
लाई	-2110
हा	-2111
िकोण	-2112
▁प्ल	-2113
▁कदम	-2114
▁धार	-2115
फ्ट	-2116
ियर	-2117
▁शहर	-2118
▁पर्यावरण	-2119
▁संभावना	-2120
फा	-2121
▁करा	-2122
पूर्वक	-2123
▁दूसरा	-2124
प्ता	-2125
▁सम्मिल	-2126
वेद	-2127
en	-2128
▁दिखाई	-2129
▁बेहतर	-2130
▁पद्धति	-2131
▁क़	-2132
▁दोष	-2133
ार्मिक	-2134
पे	-2135
▁कविता	-2136
▁निर्भर	-2137
कान	-2138
वर्क	-2139
▁धार्मिक	-2140
ताल	-2141
▁सीमित	-2142
▁वही	-2143
▁प्रणब	-2144
फ्त	-2145
▁आंद	-2146
▁सेट	-2147
ृत्त	-2148
▁बोल	-2149
▁ऊंच	-2150
▁तुलना	-2151
न्दर	-2152
▁वहाँ	-2153
मंत्री	-2154
र्ड	-2155
हीन	-2156
▁कोशिश	-2157
▁निधि	-2158
ीप	-2159
तक	-2160
जार	-2161
▁जित	-2162
▁विभाज	-2163
▁हृ	-2164
भूति	-2165
▁तरीके	-2166
▁यूरोप	-2167
▁ति	-2168
▁ब्रिटिश	-2169
ृत्ति	-2170
▁संगी	-2171
▁शर्त	-2172
▁शिकायत	-2173
in	-2174
ैन	-2175
▁तेल	-2176
▁व्यवसाय	-2177
▁प्रभावी	-2178
चर	-2179
▁देवी	-2180
क्ष्म	-2181
▁रजिस्ट	-2182
▁सिविल	-2183
▁खर्च	-2184
▁युग	-2185
संद	-2186
▁इका	-2187
▁चर	-2188
▁संपर्क	-2189
▁मशीन	-2190
▁भे	-2191
▁वायु	-2192
▁सारे	-2193
ोषणा	-2194
▁अंग्रेजी	-2195
▁हे	-2196
▁विरोध	-2197
▁रहती	-2198
▁अनिवार	-2199
वत्ता	-2200
्यो	-2201
▁डेटा	-2202
▁हिन्दी	-2203
▁पक	-2204
▁उपचार	-2205
▁उनसे	-2206
वर्ष	-2207
▁नर	-2208
▁असम	-2209
▁ख़	-2210
कद	-2211
▁विद्यार्थ	-2212
▁विशाल	-2213
नेट	-2214
▁प्राकृतिक	-2215
ारोह	-2216
▁कार्र	-2217
▁मजब	-2218
▁अनुसू	-2219
▁मोट	-2220
▁आता	-2221
▁निम्न	-2222
▁गुणवत्ता	-2223
ुन	-2224
▁संस्कृति	-2225
ापन	-2226
▁लघु	-2227
भाल	-2228
▁ग्रह	-2229
्प	-2230
▁एज	-2231
▁विधेय	-2232
an	-2233
▁मुद्रा	-2234
▁सम्मिलित	-2235
▁बध	-2236
▁सभ	-2237
▁जहाँ	-2238
▁C	-2239
▁सकें	-2240
▁स्रो	-2241
न्स	-2242
▁आशा	-2243
▁देखते	-2244
▁अधिकारियों	-2245
▁दस	-2246
ेलन	-2247
▁परिस्थित	-2248
▁परिप	-2249
▁उपभ	-2250
▁मिट	-2251
▁अस्त	-2252
▁ब्या	-2253
चारी	-2254
▁संह	-2255
तु	-2256
स्वरूप	-2257
▁कथ	-2258
▁संस्कृत	-2259
▁अनिवार्य	-2260
▁आए	-2261
पु	-2262
▁खुलती	-2263
▁अस्प	-2264
▁विचारों	-2265
ग्	-2266
रीय	-2267
▁व्यक्तिगत	-2268
ंगत	-2269
▁परिषद	-2270
▁समारोह	-2271
▁गा	-2272
राज्य	-2273
▁अध्याय	-2274
▁हिस्सा	-2275
▁आपकी	-2276
त्तर	-2277
▁विंडों	-2278
▁मिलता	-2279
खंड	-2280
▁नेटवर्क	-2281
▁भोजन	-2282
वेयर	-2283
▁करनी	-2284
▁त्रुट	-2285
▁संहिता	-2286
िकी	-2287
▁आकर्	-2288
▁दिवस	-2289
टों	-2290
▁शास्त	-2291
▁शाखा	-2292
▁अत्यंत	-2293
कारों	-2294
▁शुल्क	-2295
▁d	-2296
▁हैः	-2297
▁शता	-2298
स्लिम	-2299
▁खिला	-2300
▁प्रयोजन	-2301
▁अतः	-2302
▁निर्धारिती	-2303
▁भंड	-2304
▁समझा	-2305
▁पंजी	-2306
चि	-2307
▁दायित्व	-2308
▁महत्त्व	-2309
क्षी	-2310
▁उपयुक्त	-2311
▁ग्राम	-2312
ार्क	-2313
▁बधाई	-2314
▁निकट	-2315
▁लेना	-2316
क्षक	-2317
▁भागी	-2318
ोम	-2319
▁लॉ	-2320
▁मुस्लिम	-2321
न्त्र	-2322
▁संघर्ष	-2323
▁जिनके	-2324
▁I	-2325
म्मे	-2326
▁विकल्प	-2327
वै	-2328
ूँ	-2329
▁नेता	-2330
एल	-2331
डिया	-2332
▁खास	-2333
▁दृष्टिकोण	-2334
▁घट	-2335
▁विद्व	-2336
▁नियमों	-2337
▁उपबंधों	-2338
▁प्राचीन	-2339
▁अश	-2340
▁संगीत	-2341
▁आंदोलन	-2342
ंगी	-2343
▁इजरा	-2344
▁बौ	-2345
▁पंजा	-2346
दृ	-2347
▁संस्थानों	-2348
▁भारी	-2349
घा	-2350
▁खरीद	-2351
▁खोल	-2352
▁c	-2353
वाब	-2354
▁अभिव्य	-2355
किंग	-2356
▁संसाधन	-2357
▁जल्	-2358
▁आदर्श	-2359
▁पराम	-2360
▁पहल	-2361
▁पर्व	-2362
▁गरी	-2363
▁विविध	-2364
ोग्राम	-2365
▁महा	-2366
▁व्याव	-2367
घ्र	-2368
▁तथापि	-2369
▁आयोजित	-2370
▁मल	-2371
ायक	-2372
▁नये	-2373
▁नोट	-2374
▁पड़ा	-2375
▁प्रशास	-2376
कालीन	-2377
▁घोषणा	-2378
त्न	-2379
ांड	-2380
▁ईसा	-2381
▁पाने	-2382
▁वर्णन	-2383
▁आते	-2384
▁विनिर्दिष्ट	-2385
▁अर्थव्य	-2386
बत	-2387
▁जोर	-2388
▁जानी	-2389
▁परिस	-2390
▁कार्यवाही	-2391
▁फ़ाइल	-2392
▁–	-2393
▁अर्थात्	-2394
क्षेप	-2395
▁विनियम	-2396
▁शि	-2397
्वेषण	-2398
▁चीज	-2399
▁स्वरूप	-2400
▁परिवर्त	-2401
▁हस्ता	-2402
▁हिन्दू	-2403
▁याच	-2404
▁कीमत	-2405
▁ii	-2406
▁अक	-2407
▁भगवान	-2408
ब्दी	-2409
▁अंश	-2410
▁कार्रवाई	-2411
▁खाते	-2412
▁प्राण	-2413
▁सुझाव	-2414
ंतर	-2415
▁शास	-2416
▁कार्यों	-2417
▁क्षति	-2418
▁विधेयक	-2419
मीर	-2420
▁पड़े	-2421
धित	-2422
▁जिसने	-2423
▁जानते	-2424
▁निपट	-2425
जय	-2426
▁चुनाव	-2427
▁श्रीमती	-2428
ंबई	-2429
ोजनों	-2430
▁परामर्श	-2431
ठी	-2432
▁अल्प	-2433
▁जरूरी	-2434
▁एच	-2435
▁तम	-2436
▁ध्व	-2437
▁व्यय	-2438
▁सुरक्षित	-2439
▁प्रदर्शन	-2440
▁संकेत	-2441
▁अंतरराष्ट्रीय	-2442
▁अंदर	-2443
ंपरा	-2444
▁ग्राह	-2445
▁प्रसन्न	-2446
▁कठिन	-2447
राधिक	-2448
▁अच्छे	-2449
▁छात्र	-2450
▁पारित	-2451
दंड	-2452
शाली	-2453
्वर	-2454
▁लेते	-2455
▁बनाना	-2456
▁गतिविध	-2457
▁खुद	-2458
मेंट	-2459
▁पेट	-2460
▁तकनीकी	-2461
भाषा	-2462
▁ब्याज	-2463
ख़	-2464
▁पड़ता	-2465
▁मात्र	-2466
कला	-2467
▁सदन	-2468
एफ	-2469
or	-2470
िनी	-2471
▁खत	-2472
▁कहना	-2473
▁राजन	-2474
ोद	-2475
न्ट	-2476
▁अना	-2477
▁आग	-2478
पालिका	-2479
्रिया	-2480
▁खाद्य	-2481
▁परंपरा	-2482
ल्ड	-2483
▁समृ	-2484
▁बाव	-2485
▁आदमी	-2486
▁अधिकारों	-2487
▁इच्छा	-2488
▁सिर	-2489
▁भ्र	-2490
▁हटा	-2491
▁वाणिज्यिक	-2492
▁घोष	-2493
वाय	-2494
ल्स	-2495
▁दा	-2496
▁लाइ	-2497
▁नियुक्त	-2498
▁कृत	-2499
ड्ड	-2500
▁अर्थव्यवस्था	-2501
▁एशिया	-2502
▁गर्इ	-2503
▁होनी	-2504
▁टै	-2505
▁शुभ	-2506
▁प्राधिकरण	-2507
राव	-2508
▁इन्ह	-2509
▁मिली	-2510
भाष	-2511
▁छोटा	-2512
es	-2513
म्र	-2514
▁सम्मेलन	-2515
▁स्थायी	-2516
▁उपस्थित	-2517
▁कृप	-2518
▁अभिप	-2519
▁माता	-2520
▁P	-2521
▁परिच	-2522
▁हृदय	-2523
▁तट	-2524
मय	-2525
▁उल्ल	-2526
▁संपूर्ण	-2527
▁लगाया	-2528
▁आतंकवाद	-2529
▁व्याख्या	-2530
▁प्रत्यक्ष	-2531
▁गलत	-2532
न्हीं	-2533
३०	-2534
▁तर्क	-2535
▁पहला	-2536
काम	-2537
ादेश	-2538
▁इंग	-2539
▁कोशिका	-2540
▁अनुक	-2541
▁नाटक	-2542
▁याचिका	-2543
▁कौन	-2544
▁भाई	-2545
▁सश	-2546
िक्	-2547
▁जिम्मे	-2548
▁पट	-2549
▁कहानी	-2550
▁इंटर	-2551
▁शेष	-2552
▁एफ	-2553
▁प्रसि	-2554
थि	-2555
▁मौजूद	-2556
▁परीक्षण	-2557
▁लिम	-2558
▁लगी	-2559
▁पार्टी	-2560
▁तेजी	-2561
▁अप्रैल	-2562
▁दि	-2563
▁दर्शन	-2564
▁बंध	-2565
▁पश्चिमी	-2566
▁खाता	-2567
▁मार्च	-2568
ग्न	-2569
ून्य	-2570
व्र	-2571
▁तरफ	-2572
▁त्व	-2573
▁कर्मचार	-2574
▁मूल्या	-2575
▁कार्यान	-2576
▁विद्यमान	-2577
्राष्ट्रीय	-2578
▁हिम	-2579
▁वार्ष	-2580
धानी	-2581
▁वाता	-2582
▁महिलाओं	-2583
▁बिज	-2584
ार्म	-2585
▁सरल	-2586
▁हट	-2587
▁फ्र	-2588
▁शीघ्र	-2589
▁कल्या	-2590
▁सका	-2591
▁प्रयोजनों	-2592
▁अवि	-2593
▁अरब	-2594
सूस	-2595
रिया	-2596
▁कार्यान्व	-2597
▁दौ	-2598
▁त्रुटि	-2599
र्न	-2600
▁द्वार	-2601
▁अनुप्र	-2602
▁बनी	-2603
▁रहना	-2604
ुसार	-2605
जह	-2606
▁आयात	-2607
▁मानसिक	-2608
▁सात	-2609
▁सित	-2610
िटी	-2611
िक्री	-2612
▁हस्त	-2613
▁f	-2614
▁हास	-2615
ंकन	-2616
ष्ट्र	-2617
▁चुके	-2618
▁पाकि	-2619
ितीय	-2620
स्य	-2621
▁लिमिट	-2622
▁अनुज्ञ	-2623
▁आपका	-2624
▁p	-2625
▁कृपया	-2626
▁गुना	-2627
्ति	-2628
रक	-2629
▁मजबूत	-2630
▁शताब्दी	-2631
्राज	-2632
▁आंक	-2633
▁उन्न	-2634
▁अधि	-2635
▁t	-2636
▁अंड	-2637
▁चरण	-2638
▁इंज	-2639
▁महसूस	-2640
▁विस्तृत	-2641
▁समाचार	-2642
बि	-2643
▁रेड	-2644
ष्क	-2645
▁इंडिया	-2646
▁समुद्र	-2647
मल	-2648
▁वस्तुओं	-2649
▁बैठक	-2650
▁लाने	-2651
▁वातावरण	-2652
ंघ	-2653
▁कर्मचारियों	-2654
▁ढां	-2655
▁शिव	-2656
▁पात्र	-2657
▁वेतन	-2658
▁बढ़ा	-2659
▁ब्रह	-2660
▁मंज	-2661
लेज	-2662
्रेड	-2663
▁सांस्	-2664
▁आयुक्त	-2665
▁अभिक	-2666
▁तय	-2667
▁अन्तर्	-2668
▁कानूनी	-2669
पक	-2670
▁ग्रहण	-2671
▁बौद्ध	-2672
▁लिमिटेड	-2673
▁प्रतिनिध	-2674
▁रखे	-2675
▁T	-2676
▁संकल्प	-2677
िन्	-2678
▁इजरायल	-2679
▁कल्पना	-2680
▁अत्यधिक	-2681
▁प्राप्ति	-2682
▁जिन्होंने	-2683
दों	-2684
▁प्रतिष्ठ	-2685
▁वर	-2686
▁नियमित	-2687
▁रात	-2688
▁जवाब	-2689
▁भौतिक	-2690
▁परिस्थितियों	-2691
▁संब	-2692
▁पहा	-2693
▁अदाल	-2694
▁रोजगार	-2695
▁निर्मित	-2696
▁प्राव	-2697
▁कथा	-2698
▁संचार	-2699
▁शून्य	-2700
▁हल	-2701
▁कर्त	-2702
▁विश्ले	-2703
टिल	-2704
कृष्ट	-2705
▁तथ्य	-2706
▁सूक्ष्म	-2707
सों	-2708
▁अगले	-2709
▁सिस्ट	-2710
स्ती	-2711
ृत्व	-2712
▁मिलने	-2713
▁दिये	-2714
▁इत्या	-2715
▁क्षेत्रीय	-2716
▁प्रधानमंत्री	-2717
म्मी	-2718
▁आती	-2719
▁उपन्यास	-2720
▁काव्य	-2721
▁महाम	-2722
▁कल्याण	-2723
▁मू	-2724
▁किन	-2725
▁जंग	-2726
▁अनुमान	-2727
ांकि	-2728
▁अधिकरण	-2729
▁चेत	-2730
▁समस्याओं	-2731
▁वाह	-2732
▁असफल	-2733
▁सामना	-2734
▁भाषण	-2735
▁स्वामी	-2736
▁द्र	-2737
शाला	-2738
▁स्रोत	-2739
▁इतनी	-2740
▁विमान	-2741
लिक	-2742
▁सच्च	-2743
▁B	-2744
al	-2745
▁निर्वाचन	-2746
ागत	-2747
▁पत्नी	-2748
▁शुद्ध	-2749
▁नवान	-2750
▁विवे	-2751
▁w	-2752
स्म	-2753
▁आंत	-2754
▁आवा	-2755
▁दावा	-2756
▁सांस्कृतिक	-2757
रोधी	-2758
▁बढ़ाने	-2759
▁खे	-2760
लि	-2761
▁इला	-2762
▁शेयर	-2763
▁कराने	-2764
रत	-2765
▁मान्यता	-2766
णु	-2767
लब	-2768
00	-2769
▁पुत्र	-2770
इयों	-2771
दिक	-2772
▁तुर	-2773
▁हालांकि	-2774
रान	-2775
▁अधिवक्ता	-2776
▁कर्मचारी	-2777
▁सुंदर	-2778
्याग	-2779
▁सॉ	-2780
▁प्रयासों	-2781
it	-2782
▁निरंतर	-2783
▁परम	-2784
▁अनुवाद	-2785
▁समाव	-2786
▁उल	-2787
▁मामला	-2788
नाएं	-2789
हरे	-2790
▁हिंदू	-2791
ंका	-2792
शय	-2793
▁लेखक	-2794
▁आरोप	-2795
▁सफ	-2796
▁सीख	-2797
▁नम	-2798
▁साम्राज	-2799
▁नामक	-2800
▁युक्त	-2801
▁दब	-2802
▁आये	-2803
▁बावजूद	-2804
▁माह	-2805
▁पेज	-2806
िर्	-2807
▁आनंद	-2808
▁वैश्व	-2809
▁टिप	-2810
▁दृश्य	-2811
▁गणराज्य	-2812
▁सचिव	-2813
ोरी	-2814
लन	-2815
राब	-2816
▁आँ	-2817
▁सुना	-2818
▁लक्षण	-2819
▁दुर्	-2820
▁अभिया	-2821
▁वार्षिक	-2822
जात	-2823
▁विद्युत	-2824
▁गहरा	-2825
ाउ	-2826
▁मुसलमानों	-2827
▁निकाय	-2828
▁प्रायः	-2829
▁गृह	-2830
▁महीने	-2831
डल	-2832
वाधिक	-2833
ालित	-2834
▁इनके	-2835
▁हिंदी	-2836
▁प्रतिक्रिया	-2837
▁बिजली	-2838
▁प्रसिद्ध	-2839
सत	-2840
वाले	-2841
▁पाकिस्तान	-2842
ंता	-2843
▁टन	-2844
▁डिज	-2845
बाज	-2846
▁समी	-2847
यान	-2848
▁रुपये	-2849
▁अधिकतम	-2850
किल	-2851
क्ट्र	-2852
▁मूल्यांकन	-2853
▁कृष्ण	-2854
▁साव	-2855
▁आब	-2856
▁अनुकूल	-2857
▁संस्थाओं	-2858
वक	-2859
▁अधिकारिता	-2860
▁करार	-2861
▁अभिन	-2862
गु	-2863
▁गठन	-2864
▁सारी	-2865
▁इत्यादि	-2866
पों	-2867
प्रिय	-2868
▁प्रभार	-2869
▁डाक	-2870
▁सीधे	-2871
वेक्षण	-2872
र्मा	-2873
▁जिनका	-2874
▁e	-2875
पादन	-2876
ेंद्र	-2877
▁पसंद	-2878
▁तुम्हें	-2879
▁शैली	-2880
▁अफ्री	-2881
▁हानि	-2882
▁उत्तरदाय	-2883
▁प्रोग्राम	-2884
▁लौट	-2885
▁लगाने	-2886
ुम	-2887
ियत	-2888
▁किरा	-2889
गो	-2890
▁पाए	-2891
प्ताह	-2892
▁अख	-2893
▁उम्मी	-2894
ंकर	-2895
लाइन	-2896
▁साफ	-2897
▁सिस्टम	-2898
▁श्व	-2899
दूर	-2900
▁मिलती	-2901
▁समर्	-2902
▁अंतरण	-2903
re	-2904
▁प्रावधान	-2905
▁समन्व	-2906
▁अमरी	-2907
▁जल्दी	-2908
▁शुभकाम	-2909
रीक्षण	-2910
सान	-2911
▁दीर्घ	-2912
▁तभी	-2913
▁एंड	-2914
▁फूल	-2915
श्मीर	-2916
▁प्रचार	-2917
ूक	-2918
संगत	-2919
▁देखभाल	-2920
लीय	-2921
्रेट	-2922
▁गुजरा	-2923
▁आक्रमण	-2924
त्मिक	-2925
▁जनसं	-2926
▁नक	-2927
ुक्ति	-2928
ंटी	-2929
▁आपने	-2930
▁उक्त	-2931
▁न्यायाधीशों	-2932
्याय	-2933
वें	-2934
▁पाठ्य	-2935
▁E	-2936
▁मेल	-2937
▁कारबार	-2938
▁पत्त	-2939
▁प्रवि	-2940
▁जून	-2941
▁मुकद	-2942
▁स्थल	-2943
▁करी	-2944
▁दै	-2945
▁रुपए	-2946
▁पुराने	-2947
कर्ष	-2948
▁सवाल	-2949
▁पंजाब	-2950
▁समस्त	-2951
ाफ	-2952
एन	-2953
▁लो	-2954
▁अस्तित्व	-2955
उट	-2956
▁नेत	-2957
▁विषयों	-2958
▁प्रयुक्त	-2959
▁लोकतंत्र	-2960
ठा	-2961
▁उड़	-2962
▁घरे	-2963
भूम	-2964
्ला	-2965
क्षेत्र	-2966
▁बिक्री	-2967
ारात्मक	-2968
ीर	-2969
ंदा	-2970
▁पथ	-2971
िकल	-2972
्रय	-2973
▁आध्या	-2974
▁वितरण	-2975
▁जनवरी	-2976
▁प्राधिकारी	-2977
▁शिश	-2978
▁बुद्धि	-2979
▁साधन	-2980
▁सर्वोच्च	-2981
ांतर	-2982
▁ड्र	-2983
▁कलक	-2984
▁गि	-2985
▁शारी	-2986
▁साझ	-2987
▁न्यून	-2988
▁पश्चात	-2989
▁मानते	-2990
▁अमेरिक	-2991
मात्र	-2992
▁विशेषज्ञ	-2993
▁महत्त्वपूर्ण	-2994
▁कंपन	-2995
▁भागों	-2996
▁बढ़ावा	-2997
▁स्थानों	-2998
▁इन्हें	-2999
जू	-3000
▁बाध	-3001
ोने	-3002
▁नजर	-3003
▁प्रभ	-3004
▁तीव्र	-3005
▁राजनैतिक	-3006
▁चले	-3007
▁फिल्म	-3008
▁उम्मीद	-3009
▁कुंजी	-3010
▁नेतृत्व	-3011
▁गतिविधियों	-3012
▁जायेगा	-3013
▁रखी	-3014
▁कटौती	-3015
▁गाँ	-3016
चित्र	-3017
▁घा	-3018
▁शाह	-3019
▁संगण	-3020
▁प्रेरित	-3021
जनक	-3022
▁बातों	-3023
▁साक्ष्य	-3024
▁g	-3025
जीव	-3026
▁रोगी	-3027
▁चेतना	-3028
▁विद्यार्थियों	-3029
रेट	-3030
▁निदेशक	-3031
▁जोख	-3032
▁मुह	-3033
▁फसल	-3034
▁नेहर	-3035
▁बैंकों	-3036
▁कठिना	-3037
▁घरेलू	-3038
▁संगठ	-3039
ृंख	-3040
मूर्ति	-3041
पान	-3042
ैक	-3043
▁टाइ	-3044
▁मौसम	-3045
▁शुभकामनाएं	-3046
▁o	-3047
▁पीड़	-3048
कत	-3049
मर	-3050
▁मिश्र	-3051
▁मंड	-3052
धानिक	-3053
तिहासिक	-3054
▁अदालत	-3055
▁चलता	-3056
▁नैतिक	-3057
▁खुशी	-3058
सीय	-3059
▁प्रदर्शित	-3060
▁गर्	-3061
▁कुशल	-3062
▁शारीरिक	-3063
▁गुरु	-3064
▁सत्र	-3065
▁अनुप्रयोग	-3066
▁बनाई	-3067
▁पहुँच	-3068
यण	-3069
ॉँ	-3070
नु	-3071
▁आध्यात्मिक	-3072
▁कार्यक्रमों	-3073
▁जोखिम	-3074
▁स्वागत	-3075
▁R	-3076
▁तेज	-3077
▁लिखित	-3078
▁बुनिया	-3079
▁उनको	-3080
▁स्पष्टीकरण	-3081
▁G	-3082
▁इले	-3083
▁मंच	-3084
▁सुख	-3085
▁पूजा	-3086
▁इंजीन	-3087
▁हजार	-3088
▁खान	-3089
▁तरीका	-3090
भूमि	-3091
▁देखें	-3092
▁प्रदू	-3093
▁आक	-3094
▁अपेक्षित	-3095
▁प्रसन्नता	-3096
▁अंतर्राष्ट्रीय	-3097
ेंशन	-3098
▁बाबत	-3099
▁श्रेणीः	-3100
इड	-3101
विक	-3102
▁घोषित	-3103
▁निवास	-3104
▁सैनिक	-3105
▁मंडल	-3106
▁शक्तियों	-3107
धर	-3108
▁शे	-3109
▁इकाई	-3110
▁मानक	-3111
िलेख	-3112
ेंद	-3113
▁प्रतीत	-3114
▁ब्ल	-3115
ह्न	-3116
▁नष्ट	-3117
▁प्रोत्साहन	-3118
सभा	-3119
▁अहम	-3120
▁प्रच	-3121
▁संवर्	-3122
ic	-3123
ाब	-3124
▁फर	-3125
▁दिस	-3126
▁ग्रंथ	-3127
्यार	-3128
▁गर्म	-3129
▁सेवाएं	-3130
▁अधिस	-3131
▁हवा	-3132
▁मुंबई	-3133
▁अक्ष	-3134
▁v	-3135
▁वकी	-3136
▁मिलकर	-3137
दाता	-3138
धारित	-3139
▁मिशन	-3140
▁अस्थ	-3141
▁प्रशासनिक	-3142
▁माँ	-3143
▁त्याग	-3144
▁सहकारी	-3145
▁उत्कृष्ट	-3146
न्ना	-3147
▁मगर	-3148
चरण	-3149
▁आफ	-3150
▁लेता	-3151
▁छह	-3152
क्शन	-3153
▁प्रसार	-3154
▁आवास	-3155
▁जटिल	-3156
ताब	-3157
▁अवश्य	-3158
▁साब	-3159
▁विधिक	-3160
देव	-3161
▁आइ	-3162
▁चीन	-3163
ढ़ी	-3164
ांस	-3165
▁निहित	-3166
▁विरोधी	-3167
▁स्मृति	-3168
न्य	-3169
▁चारों	-3170
िड	-3171
▁कठोर	-3172
शास्त	-3173
नो	-3174
िप्त	-3175
क्षिक	-3176
▁प्ले	-3177
गढ़	-3178
न्धी	-3179
▁स्त्री	-3180
▁चुकी	-3181
▁प्रमाणपत्र	-3182
▁m	-3183
▁b	-3184
▁विजय	-3185
ानु	-3186
▁फीस	-3187
ृंखला	-3188
▁प्रोट	-3189
▁सौंप	-3190
▁वीडियो	-3191
मति	-3192
▁अक्	-3193
▁करेगी	-3194
▁अभिव्यक्ति	-3195
ुस्तान	-3196
▁ऐतिहासिक	-3197
चलित	-3198
ियोग	-3199
र्ती	-3200
▁लें	-3201
फ्टवेयर	-3202
▁वालों	-3203
▁घंट	-3204
▁मतलब	-3205
ियल	-3206
▁आंतरिक	-3207
▁संसाधनों	-3208
▁कूट	-3209
▁मस्ति	-3210
▁परिणामस्वरूप	-3211
▁बीज	-3212
कालिक	-3213
▁स्वा	-3214
▁अगस्त	-3215
गण	-3216
▁औष	-3217
कर्ताओं	-3218
▁एड	-3219
▁संबंधों	-3220
▁श्रम	-3221
▁रेखा	-3222
▁अभिलेख	-3223
▁लगातार	-3224
▁जनसंख्या	-3225
िद	-3226
▁ज़र	-3227
▁वजह	-3228
म्मद	-3229
▁छूट	-3230
▁पति	-3231
▁विश्लेषण	-3232
▁चीज़	-3233
▁चक्र	-3234
▁सत्या	-3235
▁रखता	-3236
फे	-3237
▁जय	-3238
▁हथ	-3239
▁उपयोगी	-3240
ूंगा	-3241
▁नेहरू	-3242
▁स्थिर	-3243
्रीन	-3244
▁बाग	-3245
▁न्यूनतम	-3246
▁सुभाष	-3247
▁सरकारों	-3248
▁संचालन	-3249
▁बातें	-3250
▁सप्ताह	-3251
▁वैश्विक	-3252
▁भूल	-3253
▁उम्र	-3254
▁आठ	-3255
▁सूर्	-3256
▁नागरिकों	-3257
बन	-3258
▁दाव	-3259
▁मना	-3260
हिम	-3261
त्तम	-3262
▁कोल	-3263
▁परिश	-3264
ूबर	-3265
काशन	-3266
▁कलकत्ता	-3267
चारिक	-3268
करी	-3269
लग्न	-3270
▁जेल	-3271
▁द्वीप	-3272
▁साम्राज्य	-3273
▁विफल	-3274
▁स्वर	-3275
▁प्रवाह	-3276
▁नियुक्ति	-3277
▁मई	-3278
वाली	-3279
▁जाएं	-3280
▁हासिल	-3281
नाम	-3282
▁फैल	-3283
▁विम	-3284
ाइट	-3285
▁स्की	-3286
▁सड़क	-3287
▁संसार	-3288
▁बनने	-3289
▁कमज	-3290
▁दस्तावेज	-3291
ेह	-3292
▁लेन	-3293
▁अधिसू	-3294
▁आह	-3295
▁प्रयत्न	-3296
▁कौशल	-3297
▁स्वच्छ	-3298
▁पृथ्वी	-3299
▁प्रसाद	-3300
१०	-3301
बन्ध	-3302
▁संबद्ध	-3303
ख्य	-3304
सु	-3305
णों	-3306
▁आलो	-3307
स्त्र	-3308
▁विहित	-3309
▁ऑन	-3310
▁विद	-3311
▁नाट	-3312
▁महामहिम	-3313
▁खिलाफ	-3314
▁प्रकाशन	-3315
▁आपूर्ति	-3316
▁कोड	-3317
▁संगठनों	-3318
रीत	-3319
▁काट	-3320
▁निरा	-3321
▁छोड़कर	-3322
▁एकता	-3323
▁प्रतीक	-3324
▁आसान	-3325
▁लक्ष	-3326
▁बीमारी	-3327
ॉक	-3328
▁सर्वाधिक	-3329
▁शुरुआ	-3330
स्पर	-3331
▁गंगा	-3332
▁अन्तर	-3333
ैव	-3334
▁विशेषकर	-3335
▁लोकप्रिय	-3336
ियार	-3337
▁काय	-3338
is	-3339
ामा	-3340
▁बू	-3341
▁सुल	-3342
▁नारा	-3343
▁कार्यवाह	-3344
▁वैसे	-3345
▁मीडिया	-3346
▁उद्योगों	-3347
ेश्वर	-3348
दर्शन	-3349
लम	-3350
▁बॉ	-3351
सरों	-3352
▁रीति	-3353
▁पूर्वी	-3354
▁L	-3355
▁M	-3356
ion	-3357
देह	-3358
प्रदाय	-3359
▁अनुरूप	-3360
▁दवा	-3361
▁आरम्भ	-3362
चीत	-3363
▁अके	-3364
▁समझौता	-3365
ज़ी	-3366
▁माप	-3367
▁महाराष्ट्र	-3368
▁रस	-3369
▁विपरीत	-3370
▁अंध	-3371
▁सृजन	-3372
स्थापित	-3373
▁निष्कर्ष	-3374
le	-3375
▁तार	-3376
▁चलते	-3377
▁बदलाव	-3378
खे	-3379
▁x	-3380
र्या	-3381
▁विचारण	-3382
▁जुड़े	-3383
▁परिवहन	-3384
▁जाँच	-3385
▁निः	-3386
▁अस्पताल	-3387
ूब	-3388
▁शह	-3389
▁पीड़ित	-3390
▁जमीन	-3391
ॉन	-3392
रणा	-3393
उस	-3394
▁बातचीत	-3395
षक	-3396
▁गैस	-3397
▁टेली	-3398
▁इलेक्ट्र	-3399
▁बुनियादी	-3400
▁गिरफ्त	-3401
▁समुचित	-3402
▁प्रतिनिधित्व	-3403
▁अभियान	-3404
वाला	-3405
▁h	-3406
▁ताप	-3407
▁दूध	-3408
▁संविदा	-3409
▁न्यायमूर्ति	-3410
▁गौ	-3411
▁कने	-3412
▁दास	-3413
▁अफ्रीका	-3414
साधारण	-3415
▁N	-3416
ध्य	-3417
▁स्ना	-3418
▁पुनर्	-3419
▁n	-3420
▁किसानों	-3421
▁विशेषता	-3422
न्द्रनाथ	-3423
▁खी	-3424
▁संकट	-3425
▁लै	-3426
▁पुरा	-3427
▁आश्च	-3428
▁तमिल	-3429
▁परस्पर	-3430
ूद्ध	-3431
▁आंख	-3432
▁मुद्	-3433
▁पशु	-3434
भारत	-3435
▁अभिप्रे	-3436
▁मस्तिष्क	-3437
सायिक	-3438
▁करो	-3439
▁बचा	-3440
▁पूर्ववर्ष	-3441
▁मनो	-3442
▁नंबर	-3443
▁फाय	-3444
▁इन्	-3445
▁हत्या	-3446
▁पीठ	-3447
▁कार्ड	-3448
▁विभाजन	-3449
▁गुप्त	-3450
▁आनन्द	-3451
▁मीटर	-3452
ाइड	-3453
▁फॉ	-3454
▁धारण	-3455
▁आश्चर्य	-3456
▁प्रस्तावित	-3457
▁कीट	-3458
▁बर्	-3459
▁भेद	-3460
▁कथन	-3461
▁अनुरोध	-3462
वित्र	-3463
▁दशक	-3464
▁समित	-3465
म्स	-3466
▁कर्तव्य	-3467
▁उत्पादों	-3468
पय	-3469
▁एकल	-3470
▁लिप	-3471
▁बेच	-3472
मंडल	-3473
ंगिक	-3474
राम	-3475
्लो	-3476
तल	-3477
▁जाएंगे	-3478
ंदन	-3479
जाति	-3480
▁चढ़	-3481
▁पकड़	-3482
▁मूल्यों	-3483
िकेट	-3484
▁गौर	-3485
▁दृढ़	-3486
▁उपभोक्ता	-3487
ोकन	-3488
▁नुक	-3489
▁शर्मा	-3490
▁हस्ताक्षर	-3491
ित्त	-3492
▁भेजा	-3493
▁एकत्र	-3494
▁राज्यपाल	-3495
▁पत्थ	-3496
▁अक्सर	-3497
▁इतने	-3498
▁अन्दर	-3499
▁संसदीय	-3500
▁कश्मीर	-3501
▁दूरी	-3502
▁चुनौती	-3503
▁टीम	-3504
om	-3505
▁काग	-3506
▁नयी	-3507
▁गीत	-3508
▁सूर्य	-3509
ाधीन	-3510
▁कक्ष	-3511
▁वरि	-3512
▁सर्वेक्षण	-3513
्वा	-3514
▁अली	-3515
▁दर्शा	-3516
▁अमेरिकी	-3517
▁चम	-3518
▁यंत्र	-3519
▁हिंसा	-3520
घात	-3521
़्य	-3522
▁जिले	-3523
ॉप	-3524
▁अभियुक्त	-3525
▁औसत	-3526
▁जहाज	-3527
▁भागीदारी	-3528
▁मस	-3529
▁माइ	-3530
▁करीब	-3531
सीसी	-3532
▁यून	-3533
▁रजिस्ट्री	-3534
डु	-3535
▁परमाण	-3536
▁कारणों	-3537
▁राजनीति	-3538
▁आउट	-3539
▁शिख	-3540
▁परेश	-3541
▁संस्करण	-3542
▁उपर	-3543
निष्ठ	-3544
▁साबित	-3545
▁नवान्वेषण	-3546
▁D	-3547
जूदा	-3548
▁गरीब	-3549
▁लिखी	-3550
▁अनुपात	-3551
▁डर	-3552
▁देगा	-3553
▁वहीं	-3554
▁आपराधिक	-3555
ैर	-3556
▁अभाव	-3557
▁सशक्त	-3558
ताव	-3559
▁शो	-3560
▁अर्थात	-3561
▁बिल्	-3562
▁मछ	-3563
▁साइ	-3564
▁अभिप्रेत	-3565
▁प्रारंभिक	-3566
ात्मक	-3567
▁डिस्क	-3568
▁गठित	-3569
▁परिवर्तित	-3570
▁अत	-3571
▁नमू	-3572
▁प्रत	-3573
▁मौजूदा	-3574
ुता	-3575
ज्ञा	-3576
▁कति	-3577
▁चिंता	-3578
िसी	-3579
▁पौध	-3580
भाषित	-3581
▁बजाय	-3582
▁चिह्न	-3583
▁पल	-3584
बाइल	-3585
▁नियत	-3586
▁आख	-3587
▁समीक्षा	-3588
▁आमत	-3589
▁सूत्र	-3590
पास	-3591
▁किलो	-3592
▁लम्ब	-3593
गोल	-3594
ज़र	-3595
▁गाय	-3596
▁वकील	-3597
▁द्वितीय	-3598
▁अन्यथा	-3599
▁शहरी	-3600
▁हिस्से	-3601
▁मिन	-3602
▁वर्षा	-3603
▁सुविधाओं	-3604
ंत्रिक	-3605
ब्र	-3606
▁बिंद	-3607
ोजी	-3608
▁अल्	-3609
▁कोर्ट	-3610
▁भाषाओं	-3611
▁शैक्षिक	-3612
▁जर्म	-3613
▁ब्राह	-3614
▁समाप्ति	-3615
थी	-3616
▁खुश	-3617
▁सिक्	-3618
▁समग्र	-3619
▁संतुल	-3620
▁पहुंचा	-3621
▁परियोजनाओं	-3622
▁महास	-3623
▁मैदान	-3624
▁सम्बन्धी	-3625
इस	-3626
▁यूनि	-3627
▁सर्वर	-3628
▁उपक्रम	-3629
▁वक्त	-3630
त्प	-3631
▁हक	-3632
▁आचरण	-3633
धिकार	-3634
ात्मा	-3635
▁मुद्द	-3636
वंश	-3637
▁देय	-3638
नन	-3639
▁फ़िल	-3640
▁सदा	-3641
▁लिखने	-3642
▁प्रतिभा	-3643
▁पवित्र	-3644
▁अनुसूचित	-3645
ूंकि	-3646
▁पाई	-3647
▁जुलाई	-3648
ौल	-3649
▁आमतौर	-3650
▁संपाद	-3651
ार्थी	-3652
▁हैंः	-3653
▁रोकने	-3654
▁अनुश	-3655
पचारिक	-3656
▁प्रवृत्त	-3657
तीत	-3658
▁तल	-3659
▁कतिपय	-3660
दास	-3661
▁प्रोत्साहित	-3662
▁देखकर	-3663
▁चूंकि	-3664
▁शुरुआत	-3665
▁आकर्षित	-3666
मार्	-3667
▁वीर	-3668
ास्ता	-3669
▁अकबर	-3670
▁रखें	-3671
▁ब्रह्म	-3672
▁पाठ्यक्रम	-3673
▁तथ	-3674
▁रास्त	-3675
▁भय	-3676
▁रवी	-3677
▁निवासी	-3678
▁व्यावसायिक	-3679
वत	-3680
क्का	-3681
▁आशय	-3682
▁हवाई	-3683
ज़ा	-3684
श्त	-3685
श्किल	-3686
▁खाने	-3687
ादा	-3688
▁आंध	-3689
▁साध	-3690
▁प्रिय	-3691
▁सुसंगत	-3692
▁अपन	-3693
▁मांस	-3694
ंजन	-3695
▁शिकार	-3696
▁गुजरात	-3697
▁आयोजन	-3698
▁वरिष्ठ	-3699
नाश	-3700
▁मिस	-3701
▁विद्यालय	-3702
▁केरल	-3703
नात्मक	-3704
▁जानता	-3705
▁तकनीक	-3706
▁बिल्कुल	-3707
▁खाना	-3708
▁देकर	-3709
▁हार्	-3710
▁सॉफ्टवेयर	-3711
▁प्री	-3712
▁विंडो	-3713
खों	-3714
▁रहेगा	-3715
▁चरित्र	-3716
▁सरदार	-3717
▁उधार	-3718
▁देर	-3719
धारी	-3720
ड़ियों	-3721
et	-3722
ंव	-3723
▁यथ	-3724
▁जैन	-3725
▁रिश	-3726
▁बाधा	-3727
क्षीय	-3728
▁आस्ति	-3729
▁संलग्न	-3730
ोल्	-3731
ायें	-3732
▁बुरा	-3733
▁नियंत्रित	-3734
▁प्रतिनिधि	-3735
शीलता	-3736
▁इंग्ल	-3737
▁निश्चय	-3738
▁सहज	-3739
्ता	-3740
्यूट	-3741
▁जीवित	-3742
▁तुरंत	-3743
▁अधिकतर	-3744
▁मिट्टी	-3745
त्कार	-3746
▁परमाणु	-3747
▁मुद्दों	-3748
▁कितना	-3749
▁छिप	-3750
▁मुझ	-3751
▁संध	-3752
▁कमजोर	-3753
▁मानवीय	-3754
▁पंजीकरण	-3755
ot	-3756
वां	-3757
▁इरा	-3758
▁जितना	-3759
▁नवीन	-3760
▁पैरा	-3761
▁मुश्किल	-3762
▁आग्रह	-3763
नर	-3764
▁कारा	-3765
▁बाह्य	-3766
▁स्तंभ	-3767
▁पुनर्व	-3768
मीटर	-3769
▁गोल	-3770
▁चलो	-3771
▁खुले	-3772
▁दबाव	-3773
▁चंद्र	-3774
▁उत्तरी	-3775
केट	-3776
▁आसानी	-3777
▁प्रेष	-3778
▁राजस्व	-3779
बह	-3780
▁ग्राहक	-3781
▁मात	-3782
▁लाया	-3783
▁निष्पादन	-3784
▁लाइन	-3785
णिक	-3786
▁साक्षी	-3787
क्व	-3788
ग्ध	-3789
▁तिर	-3790
▁घंटे	-3791
▁अनुदान	-3792
▁प्रारूप	-3793
▁स्कीम	-3794
▁इंटरनेट	-3795
▁वंश	-3796
भाविक	-3797
▁जाकर	-3798
▁सहमति	-3799
▁एकमात्र	-3800
▁प्रार्थ	-3801
▁आसपास	-3802
▁उत्साह	-3803
▁समझौते	-3804
▁अन्तर्गत	-3805
▁थोड़ा	-3806
▁घटनाओं	-3807
▁सिल	-3808
▁इनका	-3809
▁विरूद्ध	-3810
▁जिनकी	-3811
▁सांस	-3812
▁कंपनियों	-3813
पुट	-3814
यें	-3815
▁आवाज	-3816
▁रिया	-3817
ेक्ट	-3818
▁प्रेरणा	-3819
▁पाद	-3820
▁दर्ज	-3821
▁बढ़ती	-3822
▁महात्मा	-3823
▁दूसरों	-3824
▁विमर्श	-3825
▁रेलवे	-3826
▁लंबे	-3827
▁नेताओं	-3828
▁प्रत्या	-3829
घाटन	-3830
▁ज्ञात	-3831
▁नुकसान	-3832
▁सभ्यता	-3833
▁छुट	-3834
▁फैस	-3835
▁खेती	-3836
▁सदैव	-3837
▁सहमत	-3838
▁चिकित्स	-3839
िरो	-3840
▁टुक	-3841
▁कार्	-3842
▁कव	-3843
▁मोबाइल	-3844
▁श्रृंखला	-3845
▁नै	-3846
▁बाध्य	-3847
▁चोट	-3848
▁संक्ष	-3849
▁जनरल	-3850
ंडी	-3851
माने	-3852
▁अंतः	-3853
११	-3854
▁शुरु	-3855
▁विश्वविद्यालयों	-3856
िमय	-3857
▁बाबू	-3858
▁काउ	-3859
पूर्ति	-3860
▁कार्यान्वयन	-3861
▁शोध	-3862
▁बिहार	-3863
▁अग्रिम	-3864
ोबार	-3865
▁स्वाम	-3866
शास्त्र	-3867
▁प्रतिकूल	-3868
▁लक	-3869
▁रास्ता	-3870
िक्स	-3871
▁प्रथा	-3872
▁प्रार्थना	-3873
जिए	-3874
▁आहार	-3875
▁कितनी	-3876
▁प्रचलित	-3877
▁असमर्थ	-3878
▁फिली	-3879
▁इसने	-3880
▁गेंद	-3881
▁पेड़	-3882
▁भावी	-3883
▁वृक्ष	-3884
▁अनुसूची	-3885
▁संयंत्र	-3886
▁टिक	-3887
▁समझने	-3888
गाह	-3889
वों	-3890
▁खतरा	-3891
▁लेखन	-3892
ुरी	-3893
▁लिखे	-3894
▁हार	-3895
▁संगम	-3896
रू	-3897
दिन	-3898
द्धा	-3899
▁मालूम	-3900
▁नोड	-3901
▁रण	-3902
▁सराह	-3903
▁उठाने	-3904
जल	-3905
▁समन्वय	-3906
दर	-3907
▁फोन	-3908
▁जरिए	-3909
▁जाल	-3910
▁दुः	-3911
▁सिंध	-3912
▁आंध्र	-3913
ेंसी	-3914
▁सतह	-3915
▁प्रि	-3916
▁वर्गों	-3917
ोदन	-3918
▁जीत	-3919
▁पत	-3920
लिया	-3921
▁दुर्घ	-3922
▁बीमार	-3923
▁हितों	-3924
▁गार	-3925
▁खींच	-3926
▁निर्व	-3927
▁शर्तों	-3928
▁विधियों	-3929
ल्ला	-3930
▁जैव	-3931
▁राजस्थान	-3932
▁अवै	-3933
▁छवि	-3934
ुण	-3935
क्सी	-3936
▁निरीक्षण	-3937
ंगल	-3938
▁गर्भ	-3939
▁उद्ध	-3940
▁हाथों	-3941
▁वाक	-3942
िब	-3943
▁परिषद्	-3944
▁सागर	-3945
▁संदेह	-3946
▁किनारे	-3947
▁पुरानी	-3948
▁स्वीकृति	-3949
▁धर	-3950
▁सौर	-3951
▁चलाने	-3952
▁ताल	-3953
▁दुख	-3954
▁कॉलेज	-3955
ीस	-3956
ंचित	-3957
▁किसान	-3958
▁दुर्घटना	-3959
▁पोषण	-3960
▁वेद	-3961
ोल्डर	-3962
ष्प	-3963
▁सें	-3964
▁किस्म	-3965
हल	-3966
शक्ति	-3967
▁समृद्ध	-3968
▁धात	-3969
▁स्त्र	-3970
▁विभिन्	-3971
▁प्रतिस्प	-3972
▁आल	-3973
▁सुदृ	-3974
▁मालिक	-3975
▁भंडारण	-3976
कृष्ण	-3977
िकाओं	-3978
फर	-3979
▁दिना	-3980
▁फरवरी	-3981
▁कहान	-3982
विधि	-3983
▁पूर्ति	-3984
▁स्वस्थ	-3985
गन	-3986
▁अद्य	-3987
पंथ	-3988
ब्ल	-3989
म्मत	-3990
ोधित	-3991
ूस	-3992
तें	-3993
पेक्ष	-3994
▁लंबी	-3995
▁चन्द्र	-3996
▁भु	-3997
▁देंगे	-3998
▁उपस्थिति	-3999
▁सर्वोत्तम	-4000
▁प्रदूषण	-4001
▁समर्पित	-4002
▁सब्	-4003
▁आकर	-4004
▁पूछा	-4005
▁होम	-4006
▁धारणा	-4007
▁फार्म	-4008
▁रास्ते	-4009
▁मृत्युदंड	-4010
▁अका	-4011
▁आस्त	-4012
▁परिक	-4013
▁शत्र	-4014
नक	-4015
▁मूर्	-4016
▁अनुसरण	-4017
▁सम्पूर्ण	-4018
न्ड	-4019
▁देन	-4020
िरा	-4021
▁पाते	-4022
▁बोस	-4023
▁अब्द	-4024
▁चालू	-4025
▁संदाय	-4026
द्री	-4027
दारों	-4028
▁पर्यटन	-4029
▁पूर्वो	-4030
▁परिभाषित	-4031
▁सुनवाई	-4032
ीकृत	-4033
▁नेश	-4034
▁विद्र	-4035
वायु	-4036
▁योजनाओं	-4037
▁१	-4038
▁गवर्	-4039
▁शिखर	-4040
▁शीर्षक	-4041
▁आवश्यकताओं	-4042
▁श्रेष्ठ	-4043
▁तुम्हारे	-4044
▁असर	-4045
▁डाटा	-4046
▁संक्रमण	-4047
▁मध्यम	-4048
▁प्राथमिकता	-4049
▁नीतियों	-4050
ायर	-4051
▁पैर	-4052
▁खड़ा	-4053
▁फर्म	-4054
▁दिनांक	-4055
▁क्रिकेट	-4056
▁नद	-4057
▁सुश	-4058
▁ऑनलाइन	-4059
▁विनिमय	-4060
▁पश	-4061
क्रिय	-4062
▁उदार	-4063
वैधानिक	-4064
ing	-4065
▁धो	-4066
▁फ़िल्म	-4067
पो	-4068
ैया	-4069
वश	-4070
ख्यात	-4071
▁बनाये	-4072
▁बाकी	-4073
▁दीवार	-4074
▁चा	-4075
▁अचान	-4076
▁..	-4077
▁...	-4078
▁रिट	-4079
▁अर्ध	-4080
▁विनय	-4081
▁सारा	-4082
▁अस्था	-4083
▁चलने	-4084
▁आलोचना	-4085
▁मजिस्ट	-4086
गोर	-4087
▁जड़	-4088
▁बदले	-4089
▁स्टेशन	-4090
▁हार्दिक	-4091
▁निश	-4092
▁ढांचे	-4093
▁मण	-4094
ंसिल	-4095
▁अचानक	-4096
▁बिंदु	-4097
▁यौ	-4098
▁बदलने	-4099
▁प्रतियोग	-4100
▁स्वतः	-4101
▁सिद्धांतों	-4102
र्की	-4103
ज्ज	-4104
▁पढ़ने	-4105
▁प्रशंसा	-4106
▁मिलियन	-4107
▁तला	-4108
▁वचन	-4109
▁विभाजित	-4110
क्क	-4111
लेट	-4112
्नों	-4113
▁आकाश	-4114
▁शिक्षक	-4115
रु	-4116
▁वर्मा	-4117
▁परे	-4118
▁आजादी	-4119
▁यथास्थिति	-4120
ासत	-4121
▁राव	-4122
▁पट्ट	-4123
▁मजदूर	-4124
थित	-4125
▁मॉडल	-4126
▁त्वचा	-4127
लित	-4128
▁उन्म	-4129
▁पार्	-4130
▁रहें	-4131
▁पत्थर	-4132
्मी	-4133
▁अय	-4134
▁छो	-4135
▁विज्ञ	-4136
▁सुविधाएं	-4137
▁प्रतिभूति	-4138
▁पंड	-4139
▁दर्द	-4140
विज्ञान	-4141
▁कम्पनी	-4142
▁संशोधित	-4143
▁प्रवृत्ति	-4144
▁संक्षिप्त	-4145
पथ	-4146
धारणा	-4147
▁जागर	-4148
▁निच	-4149
▁नृत	-4150
▁जवाह	-4151
▁कितने	-4152
▁दिव्य	-4153
▁विद्या	-4154
▁ब्राह्म	-4155
▁विनिश्च	-4156
काब	-4157
क़्त	-4158
▁पक्षकार	-4159
गमन	-4160
रम	-4161
▁किताब	-4162
▁समूहों	-4163
▁अस्वी	-4164
नाटक	-4165
ांतिक	-4166
▁निवारण	-4167
▁समानता	-4168
▁कैं	-4169
▁उल्लेखनीय	-4170
▁देखना	-4171
▁सुदृढ़	-4172
▁प्राधिकार	-4173
▁हल्	-4174
▁उसको	-4175
▁तोड़	-4176
▁स्वाभाविक	-4177
स्फ	-4178
ांतरण	-4179
▁इनकी	-4180
▁पूर्	-4181
▁मकान	-4182
▁अत्या	-4183
▁प्रारम्भ	-4184
▁ट्यू	-4185
▁तिथि	-4186
▁प्रेस	-4187
▁बल्ले	-4188
▁अनुमोदन	-4189
▁राजधानी	-4190
▁झु	-4191
व्या	-4192
▁छात्रों	-4193
ानिक	-4194
▁तत्काल	-4195
०क	-4196
▁नील	-4197
सेंस	-4198
ट्र	-4199
ेंज	-4200
▁अवैध	-4201
▁पौधों	-4202
▁वर्णित	-4203
परी	-4204
िल्प	-4205
▁गहन	-4206
▁नेपाल	-4207
▁औपचारिक	-4208
▁जिम्मेदारी	-4209
▁दैनिक	-4210
न्दु	-4211
▁ठोस	-4212
अर	-4213
▁विपण	-4214
▁उद्घाटन	-4215
▁बालक	-4216
▁प्रान्त	-4217
ेंड	-4218
▁संवर्धन	-4219
ट्	-4220
ार्ज	-4221
▁ज़्या	-4222
▁प्रतिस्पर्	-4223
ाले	-4224
▁बौद्धिक	-4225
▁रानी	-4226
▁संवाद	-4227
वासियों	-4228
as	-4229
▁जलवायु	-4230
▁कब	-4231
म्परा	-4232
▁रसाय	-4233
▁समावेश	-4234
▁समुद्री	-4235
▁पीओ	-4236
मार्ग	-4237
ाधिकार	-4238
कलन	-4239
▁दान	-4240
▁लिंग	-4241
▁हालत	-4242
▁कच्च	-4243
▁ब्रिटेन	-4244
कल्प	-4245
ग्रस्त	-4246
▁हस्तक्षेप	-4247
पीठ	-4248
▁विपणन	-4249
▁फे	-4250
▁बजट	-4251
▁चुने	-4252
▁अद्यतन	-4253
▁उच्चतर	-4254
▁ग़	-4255
▁मृ	-4256
▁फ्ल	-4257
▁सामूह	-4258
०वीं	-4259
वादियों	-4260
▁भारतीयों	-4261
काव	-4262
▁करवा	-4263
▁खत्म	-4264
▁गहरी	-4265
यत	-4266
म्मू	-4267
▁खाली	-4268
▁निभ	-4269
▁अक्त	-4270
▁क्लिक	-4271
▁वस्तुत	-4272
▁कर्नाटक	-4273
▁पड	-4274
▁चुनौ	-4275
▁कष्ट	-4276
▁गरीबी	-4277
▁नौकरी	-4278
▁तत्वों	-4279
बाजी	-4280
▁गाँव	-4281
▁भेंट	-4282
▁जम्मू	-4283
▁द्विप	-4284
▁वर्गी	-4285
ांकन	-4286
▁प्रणाल	-4287
▁सामूहिक	-4288
ूष	-4289
▁डाय	-4290
▁शिशु	-4291
▁मिलाकर	-4292
▁भले	-4293
▁मिनट	-4294
▁भंडार	-4295
▁सितंबर	-4296
▁गुफा	-4297
▁समृद्धि	-4298
▁नेशनल	-4299
ावल	-4300
▁बचाव	-4301
▁सिद्धान्त	-4302
ावली	-4303
▁मिलते	-4304
▁परम्परा	-4305
ॉट	-4306
फ़ी	-4307
▁भक्ति	-4308
ोटो	-4309
▁अपर	-4310
▁आदान	-4311
▁सोचा	-4312
▁कुमारी	-4313
▁सामान्यतः	-4314
▁उत्तरदायी	-4315
बु	-4316
याँ	-4317
वाना	-4318
▁बुला	-4319
▁k	-4320
▁आना	-4321
मि	-4322
▁खतर	-4323
भावना	-4324
▁कमरे	-4325
ंदी	-4326
▁उन्	-4327
▁रद्द	-4328
क्ताओं	-4329
▁महाद	-4330
▁रेडियो	-4331
▁असह	-4332
▁असाधारण	-4333
▁संवैधानिक	-4334
▁राहत	-4335
▁सकेगी	-4336
ुति	-4337
चार्य	-4338
▁गांवों	-4339
▁हद	-4340
्रमण	-4341
राबाद	-4342
▁कहने	-4343
▁हज	-4344
▁गणना	-4345
▁ताकत	-4346
▁अग्रणी	-4347
▁विद्वान	-4348
न्थ	-4349
ास्ट	-4350
▁चिंत	-4351
िवेश	-4352
▁खण्ड	-4353
▁कराया	-4354
पत	-4355
▁प्रविष्टि	-4356
▁अभिला	-4357
मूल	-4358
▁निगर	-4359
▁मजिस्ट्रेट	-4360
▁हिंदुस्तान	-4361
▁सन	-4362
▁पाव	-4363
▁सफेद	-4364
▁यूरोपीय	-4365
ारक	-4366
▁चीनी	-4367
▁ज्यो	-4368
ed	-4369
▁क्व	-4370
▁जुड़	-4371
▁शंकर	-4372
▁निपटान	-4373
▁निगरानी	-4374
▁गू	-4375
▁चाय	-4376
▁अक्तूबर	-4377
▁डाला	-4378
▁पक्षों	-4379
▁क्रांति	-4380
▁अज	-4381
▁शान	-4382
ोब	-4383
पालन	-4384
▁सेल	-4385
टु	-4386
जनन	-4387
ॉर्ड	-4388
▁कब्	-4389
▁कठिनाई	-4390
▁कार्यवाहियों	-4391
▁लाइसेंस	-4392
▁व्यक्तित्व	-4393
ent	-4394
▁नेत्र	-4395
▁यो	-4396
▁आश्व	-4397
▁यूनिट	-4398
▁परिभाषा	-4399
▁माध्यस्थ	-4400
ोजक	-4401
▁तथ्यों	-4402
▁घु	-4403
▁उभर	-4404
▁लड़के	-4405
▁मैत्री	-4406
▁बैंकिंग	-4407
▁पदार्थों	-4408
▁बग	-4409
▁सप	-4410
सिंह	-4411
▁सुबह	-4412
▁रवीन्द्रनाथ	-4413
▁औषध	-4414
▁पड़ी	-4415
▁बाँ	-4416
▁लड़ाई	-4417
▁भंग	-4418
▁मधु	-4419
▁मोड	-4420
▁शहरों	-4421
▁न्यायपालिका	-4422
साइ	-4423
▁बेल	-4424
▁भूत	-4425
▁सीमाओं	-4426
▁स्वर्ण	-4427
नाक	-4428
▁शल	-4429
▁बांग	-4430
▁चीजों	-4431
▁आरंभिक	-4432
▁विविधता	-4433
ॉनिक	-4434
▁लगाना	-4435
▁योग्यता	-4436
▁प्रतिबंध	-4437
पात	-4438
▁मक	-4439
▁कामना	-4440
▁न्यास	-4441
▁माननीय	-4442
▁क्	-4443
▁देशी	-4444
▁मुक्ति	-4445
▁इस्लामी	-4446
▁जातियों	-4447
▁शिक्षण	-4448
▁कारावास	-4449
▁कहता	-4450
▁खड़े	-4451
▁खराब	-4452
▁रहस्य	-4453
▁अधिसूचना	-4454
▁खतरे	-4455
▁वस्त्र	-4456
▁संध्या	-4457
▁मिथ	-4458
▁पौधे	-4459
▁अवमान	-4460
▁प्यार	-4461
▁अपनाया	-4462
▁वैध	-4463
▁पाँच	-4464
▁उपे	-4465
▁उन्नत	-4466
▁नृत्य	-4467
▁नारायण	-4468
नीति	-4469
▁कोट	-4470
▁मुकाब	-4471
लक	-4472
▁खेत	-4473
▁यादव	-4474
▁परिचय	-4475
▁डिजाइन	-4476
▁मोहम्मद	-4477
ao	-4478
्रोल	-4479
▁नान	-4480
ावि	-4481
▁लु	-4482
▁आवेद	-4483
ामान	-4484
▁देवता	-4485
्यवाद	-4486
▁जीवा	-4487
▁शौ	-4488
▁अवल	-4489
▁उतर	-4490
▁सूर	-4491
िस्त	-4492
▁कोय	-4493
▁पंक्ति	-4494
▁सेटिंग	-4495
ग्रहण	-4496
▁ट्रै	-4497
▁उपखंड	-4498
▁प्रसं	-4499
▁सावधानी	-4500
▁प्रक्रियाओं	-4501
▁दरवा	-4502
▁मुद्दे	-4503
▁युक्ति	-4504
▁डाउ	-4505
▁वंचित	-4506
१२	-4507
रेखा	-4508
▁रेश	-4509
▁लेती	-4510
▁मूलभूत	-4511
▁स्क्रीन	-4512
▁अनुज्ञात	-4513
िरी	-4514
▁जानने	-4515
▁प्रश्नों	-4516
el	-4517
ंशिक	-4518
▁निर्मा	-4519
▁उपकरणों	-4520
दर्शी	-4521
▁मैने	-4522
▁टिप्प	-4523
ङ्	-4524
▁वसू	-4525
▁मोटर	-4526
▁अवसरों	-4527
▁अंतरिक्ष	-4528
▁साहित्यिक	-4529
▁सजा	-4530
▁तीसरे	-4531
▁प्राधिकृत	-4532
दु	-4533
▁उतना	-4534
शे	-4535
लाब	-4536
▁साझी	-4537
▁उपायों	-4538
▁बिलकुल	-4539
▁प्रतिबद्ध	-4540
क्रो	-4541
▁ध्वनि	-4542
▁पंडित	-4543
▁पेंशन	-4544
▁पोर्ट	-4545
▁विरासत	-4546
▁अपराधों	-4547
श्म	-4548
▁‘‘	-4549
ष्ठा	-4550
▁दुर	-4551
▁पैसे	-4552
▁मंदिरों	-4553
▁00	-4554
वरों	-4555
▁द्वि	-4556
▁मानना	-4557
▁शक्तिशाली	-4558
▁मौलिक	-4559
▁अर्जित	-4560
▁विक्रय	-4561
हारिक	-4562
▁मध्यस्थ	-4563
▁y	-4564
▁उठाया	-4565
▁जायें	-4566
▁स्मार	-4567
ंघन	-4568
िनल	-4569
▁बनाता	-4570
▁वस	-4571
ापति	-4572
▁नार	-4573
ागर	-4574
▁जिल	-4575
कुमार	-4576
▁पैमाने	-4577
पादित	-4578
▁टिप्पणी	-4579
▁अधिरो	-4580
▁स्वभाव	-4581
▁छि	-4582
▁संतोष	-4583
▁इंद	-4584
▁व्यु	-4585
▁ज़्यादा	-4586
ॉलर	-4587
र्जन	-4588
▁चतु	-4589
▁इसील	-4590
स्ट्रे	-4591
▁कक्षा	-4592
▁विनिश्चय	-4593
▁प्रतियोगिता	-4594
मान्य	-4595
▁पृथक	-4596
▁इंडियन	-4597
▁हिमालय	-4598
▁अनुचित	-4599
▁प्रवर्तन	-4600
▁तंत्रिका	-4601
▁जीन	-4602
▁कहला	-4603
▁खिल	-4604
▁बजे	-4605
घर	-4606
ंभव	-4607
▁चाहती	-4608
▁ज्योति	-4609
▁तिल	-4610
▁रेख	-4611
▁आराम	-4612
राय	-4613
ंचाई	-4614
▁अमरीका	-4615
षे	-4616
ूली	-4617
▁हरि	-4618
▁हैद	-4619
▁गुजर	-4620
▁पहुँ	-4621
▁मूर्ति	-4622
्यौ	-4623
▁अगला	-4624
▁पहुंचने	-4625
▁स्वामित्व	-4626
▁आर्	-4627
▁प्रभाग	-4628
▁संचालित	-4629
▁विनिर्माण	-4630
कोश	-4631
सनीय	-4632
▁घटा	-4633
▁भरा	-4634
▁शक्तियां	-4635
▁सम्पत्ति	-4636
▁उद्देश्यों	-4637
भि	-4638
▁घूम	-4639
▁पीएस	-4640
वर्ग	-4641
▁शोक	-4642
▁अस्थायी	-4643
ेंक	-4644
▁घटक	-4645
▁बजा	-4646
▁दण्ड	-4647
▁मनोर	-4648
▁रास	-4649
▁सदी	-4650
▁द्विपक्षीय	-4651
़्त	-4652
▁बच्चा	-4653
▁झा	-4654
▁भेजे	-4655
▁गुल	-4656
▁उपय	-4657
▁साइट	-4658
▁संबोधित	-4659
ुरा	-4660
▁रिज	-4661
▁साहस	-4662
▁निकाला	-4663
▁सराहना	-4664
▁कोष	-4665
द्दीन	-4666
▁पहलू	-4667
▁तमिलना	-4668
फोन	-4669
▁यथार्थ	-4670
ol	-4671
▁उपर्	-4672
▁दिमा	-4673
▁उपलब्धि	-4674
▁उर्व	-4675
▁ग्री	-4676
▁अन्वेषण	-4677
शः	-4678
िकों	-4679
▁श्रमिक	-4680
▁भांति	-4681
▁आभ	-4682
▁कायम	-4683
▁ग्राफ	-4684
▁पीढ़ी	-4685
▁विभागों	-4686
▁पृष्ठभूमि	-4687
▁जाग	-4688
धीन	-4689
▁लॉग	-4690
▁मानो	-4691
▁महाराजा	-4692
▁पर्वत	-4693
▁तापमान	-4694
▁अंग्रेज	-4695
ठे	-4696
▁विद्यार्थी	-4697
अप	-4698
▁चू	-4699
रचना	-4700
▁पॉल	-4701
▁पोत	-4702
▁वसूली	-4703
▁संतुलन	-4704
▁l	-4705
ष्णु	-4706
▁छाप	-4707
▁दया	-4708
ंपरिक	-4709
▁तस्व	-4710
▁सकेंगे	-4711
▁पत्रिका	-4712
▁शास्त्र	-4713
▁पच	-4714
▁दिसंबर	-4715
▁जिनसे	-4716
▁अत्यन्त	-4717
▁ड़	-4718
▁कॉल	-4719
कीर्ण	-4720
▁कोशिकाओं	-4721
▁उत्तराधिक	-4722
▁रजिस्ट्रीकरण	-4723
▁ईसाई	-4724
▁प्रतिदिन	-4725
▁समितियों	-4726
▁रोम	-4727
ड़िया	-4728
▁पोजी	-4729
il	-4730
▁’	-4731
▁बहस	-4732
▁बनाकर	-4733
▁इंजीनिय	-4734
▁खात	-4735
▁धु	-4736
▁सल	-4737
▁खनि	-4738
▁ठहरा	-4739
▁दक्षिणी	-4740
ou	-4741
▁खि	-4742
▁संग्र	-4743
ेयर	-4744
▁तरीकों	-4745
▁समझते	-4746
▁मुकदमे	-4747
▁हैदराबाद	-4748
िश्र	-4749
▁विनि	-4750
ब्ल्यू	-4751
▁युवाओं	-4752
▁प्रतिवादी	-4753
वहार	-4754
▁अदा	-4755
▁मरा	-4756
▁दुःख	-4757
▁बहाद	-4758
▁सिंचाई	-4759
क्तिक	-4760
▁हटाने	-4761
▁समाय	-4762
▁सूचक	-4763
▁अवधारणा	-4764
▁चैतन	-4765
जातियों	-4766
▁राजभाषा	-4767
म्बई	-4768
▁देह	-4769
▁गौरव	-4770
▁बोली	-4771
▁गिरफ्तार	-4772
ac	-4773
▁उपयोगकर्ता	-4774
▁वादी	-4775
▁झील	-4776
▁कारक	-4777
▁उपर्युक्त	-4778
▁कू	-4779
▁देखे	-4780
▁लंबित	-4781
▁मिलेगी	-4782
▁क्रियान्व	-4783
▁न्	-4784
▁नाते	-4785
स्तानी	-4786
▁जितनी	-4787
शोथ	-4788
▁चिप	-4789
▁बचत	-4790
▁चैनल	-4791
▁दिलच	-4792
▁संदेय	-4793
▁कारोबार	-4794
्पण	-4795
▁वय	-4796
र्गी	-4797
▁आरो	-4798
▁जाओ	-4799
▁निभा	-4800
▁तत्त्व	-4801
▁पारंपरिक	-4802
▁मार्गदर्शन	-4803
▁व्यावहारिक	-4804
तरी	-4805
▁दाख	-4806
द्रास	-4807
▁रहेंगे	-4808
▁आनु	-4809
▁राह	-4810
▁मानी	-4811
▁गारंटी	-4812
▁जिम्मेदार	-4813
एच	-4814
रुप	-4815
▁हाँ	-4816
▁क्षण	-4817
▁बारह	-4818
▁फार	-4819
▁लगती	-4820
▁आबादी	-4821
▁स्टेट	-4822
▁परिवेश	-4823
क्राम	-4824
िवासी	-4825
▁उतार	-4826
▁धातु	-4827
▁चैतन्य	-4828
▁O	-4829
▁भर्ती	-4830
▁होंगी	-4831
▁मिलेगा	-4832
▁विनियमन	-4833
▁पक्षकारों	-4834
ायल	-4835
▁खूब	-4836
▁पोस्ट	-4837
▁दिखाया	-4838
▁पोजीशन	-4839
िर्धारित	-4840
पद	-4841
वानी	-4842
▁इलाज	-4843
▁प्रास	-4844
▁झू	-4845
▁फु	-4846
▁कराना	-4847
▁संवेदन	-4848
▁iii	-4849
▁कां	-4850
▁फ़ोल्डर	-4851
भेद	-4852
ल्ह	-4853
▁बीस	-4854
▁बन्द	-4855
▁रुचि	-4856
कलापों	-4857
▁सकारात्मक	-4858
▁सद्	-4859
च्छिक	-4860
▁चुना	-4861
▁इलेक्ट्रॉनिक	-4862
▁इल	-4863
बारा	-4864
▁बाई	-4865
▁अकेले	-4866
▁उद्यान	-4867
▁गुप्ता	-4868
▁पंजीकृत	-4869
ंडा	-4870
▁अभिगम	-4871
▁इसीलिए	-4872
▁महीनों	-4873
▁स्तरों	-4874
▁रिकार्ड	-4875
▁आतंकवादी	-4876
मो	-4877
▁r	-4878
▁वां	-4879
▁अज्ञ	-4880
▁आपात	-4881
ड्य	-4882
▁समझे	-4883
▁विवेक	-4884
▁हकदार	-4885
▁केंद्रित	-4886
ग़	-4887
▁लड़की	-4888
दोष	-4889
पंथी	-4890
▁निध	-4891
▁दोनो	-4892
ामान्य	-4893
▁रसायन	-4894
वासी	-4895
▁मद्रास	-4896
▁अकाद	-4897
ंत्रित	-4898
▁निष्क्रिय	-4899
जु	-4900
▁ढूं	-4901
▁सहन	-4902
▁ट्रे	-4903
▁बिता	-4904
▁बनाते	-4905
▁पुष्टि	-4906
▁प्रांत	-4907
तांत्रिक	-4908
▁उन्होने	-4909
▁प्रयोगशाला	-4910
▁कर्ण	-4911
▁दोहरा	-4912
▁पट्टी	-4913
▁पंचायत	-4914
रस	-4915
ासा	-4916
▁बडी	-4917
▁पेशे	-4918
▁हड्ड	-4919
▁जोड़ने	-4920
▁विद्रोह	-4921
▁संभावित	-4922
ोहन	-4923
त्ते	-4924
र्थी	-4925
▁बांध	-4926
िली	-4927
्राव	-4928
▁महाभारत	-4929
्ह	-4930
टिक	-4931
मानी	-4932
▁भरे	-4933
▁आकलन	-4934
▁कट्ट	-4935
▁ऊंचाई	-4936
▁अभिलाभ	-4937
्रु	-4938
न्या	-4939
ांक्षा	-4940
▁पड़ती	-4941
▁पालिसी	-4942
लिंग	-4943
▁धरती	-4944
▁बारी	-4945
▁चुनें	-4946
डि	-4947
जीवन	-4948
ेदार	-4949
▁डालने	-4950
▁परिसर	-4951
▁पशुओं	-4952
▁भगवान्	-4953
▁आधारभूत	-4954
▁हिस	-4955
क्षणिक	-4956
▁स्मरण	-4957
▁सम्बंध	-4958
▁रवि	-4959
▁रहित	-4960
▁संतु	-4961
▁बढ़ने	-4962
▁जायेगी	-4963
▁ग्राहकों	-4964
▁कं	-4965
▁याची	-4966
▁संपदा	-4967
ाज़	-4968
▁तृ	-4969
▁भरी	-4970
▁जाएँ	-4971
▁पार्क	-4972
▁प्रेषित	-4973
▁वस्तुतः	-4974
▁चली	-4975
▁जमी	-4976
▁लार	-4977
▁इमार	-4978
▁कहां	-4979
▁छाया	-4980
▁रूपों	-4981
▁परिवारों	-4982
प्ट	-4983
▁वार्	-4984
▁जानकर	-4985
▁मातृ	-4986
▁उत्तरदायित्व	-4987
ूरत	-4988
रलाल	-4989
्रीम	-4990
स्ट्रेलिया	-4991
ार्ट	-4992
▁पाप	-4993
यक	-4994
▁ऊपरी	-4995
▁मोहन	-4996
▁आंशिक	-4997
▁उल्लंघन	-4998
▁निकालने	-4999
▁छोड	-5000
▁टूट	-5001
▁जमान	-5002
▁पहाड़ी	-5003
दात	-5004
शाह	-5005
▁शिक्षकों	-5006
ेंच	-5007
▁कस	-5008
▁बहुमत	-5009
▁भ्रष्ट	-5010
ंदगी	-5011
ायतों	-5012
▁पदों	-5013
▁फैसला	-5014
▁in	-5015
▁मुंह	-5016
▁सेन	-5017
▁मानता	-5018
▁अमरीकी	-5019
▁व्यापारी	-5020
खन	-5021
बीर	-5022
कल्पिक	-5023
▁प्रतीक्षा	-5024
am	-5025
जीवी	-5026
▁कागज	-5027
▁प्लस	-5028
काता	-5029
▁जापान	-5030
▁घृ	-5031
▁एकदम	-5032
▁कृति	-5033
▁साझा	-5034
ैण्ड	-5035
▁अखिल	-5036
▁जुड़ा	-5037
▁u	-5038
▁अहमद	-5039
▁कपड़े	-5040
▁पुरूष	-5041
▁पहुंचे	-5042
▁बुल	-5043
▁स्वीकृत	-5044
▁तमिलनाडु	-5045
श्वास	-5046
▁ईरान	-5047
▁गुरू	-5048
▁मुगल	-5049
▁देखता	-5050
▁सम्भव	-5051
▁अमर	-5052
▁आयी	-5053
▁ठाक	-5054
▁थोड़ी	-5055
▁मुकदमा	-5056
राशि	-5057
▁पूर्णतः	-5058
▁दस्तावेजों	-5059
बान	-5060
▁अच	-5061
व्यों	-5062
▁कड़ी	-5063
▁लकड़ी	-5064
▁प्रजनन	-5065
▁मानवता	-5066
▁वैकल्पिक	-5067
▁साहब	-5068
ांतरित	-5069
▁शान्त	-5070
▁विवरणी	-5071
▁दिला	-5072
प्रदायिक	-5073
▁किन्हीं	-5074
ुत्व	-5075
▁दुर्भ	-5076
▁जर्मनी	-5077
▁किलोमीटर	-5078
ंधन	-5079
तावनी	-5080
▁जोड़ा	-5081
▁सुश्री	-5082
▁इंजीनियर	-5083
गि	-5084
▁फैला	-5085
▁पुस्तकों	-5086
दल	-5087
१३	-5088
थान	-5089
▁एल्	-5090
▁हां	-5091
▁लगते	-5092
▁शांत	-5093
▁सिवाय	-5094
▁जवाहरलाल	-5095
▁एव	-5096
र्दू	-5097
▁तदन	-5098
▁पैके	-5099
▁हाथी	-5100
▁प्राइ	-5101
▁धन्यवाद	-5102
ायण	-5103
दायक	-5104
▁चेक	-5105
▁एसोस	-5106
▁वापसी	-5107
▁समझता	-5108
▁फ्रांस	-5109
बो	-5110
निंग	-5111
▁दार्	-5112
▁गहराई	-5113
▁टिप्पण	-5114
▁शेख	-5115
▁सिक	-5116
▁स्वप	-5117
▁चेतावनी	-5118
दनी	-5119
सेना	-5120
▁जुल	-5121
▁चिन्ह	-5122
▁ड्राइ	-5123
▁रिक्त	-5124
ेतन	-5125
▁गईं	-5126
▁उग्र	-5127
▁रोगों	-5128
कलाप	-5129
▁चुप	-5130
▁उल्लिखित	-5131
िटल	-5132
ेरे	-5133
▁एयर	-5134
▁बैठे	-5135
▁संगठित	-5136
शेष	-5137
िएशन	-5138
▁वास	-5139
▁लिंक	-5140
▁सूचित	-5141
▁उन्हीं	-5142
विंद	-5143
▁मछली	-5144
▁उर्दू	-5145
ँग	-5146
▁खड़ी	-5147
▁पाता	-5148
▁उत्तेज	-5149
▁पहलुओं	-5150
हाई	-5151
▁कही	-5152
▁सेक	-5153
▁गाड़ी	-5154
▁दुकान	-5155
▁साधनों	-5156
▁सम्पर्क	-5157
▁चंद	-5158
▁गद्य	-5159
▁कुशलता	-5160
▁मेन	-5161
संरचना	-5162
▁प्रोफे	-5163
▁नज	-5164
वर्ड	-5165
▁बाय	-5166
▁माने	-5167
▁ब्राउ	-5168
▁तुर्की	-5169
▁संभवतः	-5170
▁प्रसंस्	-5171
▁इंग्लैंड	-5172
▁प्रतिष्ठित	-5173
पल	-5174
▁शोर	-5175
▁साझे	-5176
▁मान्य	-5177
▁नकारात्मक	-5178
▁अम्	-5179
▁शपथ	-5180
▁दक्षता	-5181
▁कानूनों	-5182
ण्ट	-5183
▁टो	-5184
▁पढ	-5185
नलोड	-5186
्वान	-5187
▁अपी	-5188
▁समा	-5189
▁शल्य	-5190
▁सीता	-5191
▁चुकता	-5192
▁भेजने	-5193
यु	-5194
्ण	-5195
▁नं	-5196
▁आखिर	-5197
▁जू	-5198
▁यानी	-5199
▁उत्तम	-5200
▁फलस्वरूप	-5201
▁एजेंसी	-5202
▁अंग्रेजों	-5203
ंटर	-5204
▁लोड	-5205
▁पड़ेगा	-5206
टो	-5207
वाने	-5208
▁आपस	-5209
▁प्रतिबि	-5210
ec	-5211
रेख	-5212
▁सीधा	-5213
▁चयनित	-5214
▁गांधीजी	-5215
्नि	-5216
▁अवय	-5217
▁ज्व	-5218
▁गीता	-5219
▁अक्षम	-5220
▁अभिनिर्धारित	-5221
▁हरे	-5222
▁एजेंस	-5223
▁निरसन	-5224
▁स्ट्र	-5225
वारी	-5226
▁सतत	-5227
ड़ीसा	-5228
▁उतनी	-5229
▁रखकर	-5230
▁संधि	-5231
गरी	-5232
प्ति	-5233
▁भाष	-5234
▁सड़	-5235
▁आबंट	-5236
▁प्रबल	-5237
पक्ष	-5238
▁उपा	-5239
▁भरो	-5240
▁डॉलर	-5241
▁शानदार	-5242
▁क्रांतिक	-5243
▁याता	-5244
▁कनेक्शन	-5245
▁स्त्रियों	-5246
पूर	-5247
▁विनाश	-5248
▁तैयारी	-5249
▁व्यवस्थित	-5250
▁नवं	-5251
▁स्वाधीन	-5252
विष्ट	-5253
▁चीजें	-5254
▁रिश्त	-5255
▁एकीकृत	-5256
▁सिख	-5257
▁अंतराल	-5258
▁चिकित्सक	-5259
ेस	-5260
लिप	-5261
▁पोल	-5262
▁देखी	-5263
▁अपमान	-5264
▁व्युत्प	-5265
जीत	-5266
▁घो	-5267
▁अभ्य	-5268
▁अफग	-5269
ब्लिक	-5270
▁तीनों	-5271
▁दोस्त	-5272
▁पत्रों	-5273
▁अपनाने	-5274
▁ष	-5275
▁गुणों	-5276
▁मुझसे	-5277
▁सम्बन्धित	-5278
▁पहन	-5279
▁वृद्ध	-5280
▁दुर्भाग	-5281
▁माध्यस्थम्	-5282
ख्त	-5283
लांग	-5284
▁काले	-5285
▁सकल	-5286
▁पाये	-5287
वित	-5288
ुणा	-5289
▁बोध	-5290
▁भाष्	-5291
▁हिसाब	-5292
▁चुनौतियों	-5293
प्रद	-5294
▁अहि	-5295
▁गोद	-5296
▁हाउस	-5297
▁वाद्य	-5298
▁सतर्क	-5299
▁सैन्य	-5300
ad	-5301
गां	-5302
्वे	-5303
▁खून	-5304
▁गर्व	-5305
▁अंततः	-5306
▁नवंबर	-5307
▁गतिविधि	-5308
ापरी	-5309
▁अनाज	-5310
▁कीटों	-5311
▁अपराधी	-5312
▁डिग्री	-5313
▁कोलकाता	-5314
▁यातायात	-5315
ध्व	-5316
न्तर	-5317
ोदित	-5318
▁घनिष्ठ	-5319
▁अनुपालन	-5320
▁चिकित्सीय	-5321
▁विश्वसनीय	-5322
ुप्त	-5323
ष्कार	-5324
▁कट्टर	-5325
▁खोलने	-5326
▁जीवों	-5327
▁रहेगी	-5328
▁क्रमशः	-5329
▁मिश्रण	-5330
▁डाउनलोड	-5331
अल	-5332
▁शत्रु	-5333
▁मशीनरी	-5334
▁विवादों	-5335
▁उज	-5336
▁पैसा	-5337
▁लाना	-5338
▁संपन्न	-5339
iv	-5340
वेट	-5341
▁मेघ	-5342
भौ	-5343
ब्ब	-5344
शोर	-5345
▁रम	-5346
शनिक	-5347
▁पोष	-5348
▁लोह	-5349
वारों	-5350
▁बहादुर	-5351
▁तह	-5352
▁हमे	-5353
▁कार्म	-5354
▁प्रदत्त	-5355
▁शैक्षणिक	-5356
ड़ना	-5357
▁हिमा	-5358
▁दाखिल	-5359
▁आरक्षित	-5360
▁कार्यान्वित	-5361
▁वैज्ञानिकों	-5362
ोज़	-5363
▁बडे	-5364
▁अंकित	-5365
▁मंजूर	-5366
▁रजिस्टर	-5367
इयां	-5368
▁दावे	-5369
▁प्रतिर	-5370
▁विष्णु	-5371
▁मित्रों	-5372
थे	-5373
ज़े	-5374
▁लोकतांत्रिक	-5375
ापुर	-5376
▁महल	-5377
यक्तिक	-5378
▁ढांचा	-5379
▁परिचित	-5380
▁कार्यपालिका	-5381
जो	-5382
वती	-5383
काया	-5384
▁तस्वीर	-5385
▁अस्वीकार	-5386
▁फस	-5387
▁जला	-5388
▁दोषी	-5389
▁किराये	-5390
▁प्रोफेसर	-5391
▁स्थितियों	-5392
ावधि	-5393
▁डिप	-5394
कियों	-5395
▁ध्वज	-5396
▁भक्त	-5397
▁सहारा	-5398
ैट	-5399
▁इकट	-5400
▁घास	-5401
शिष्ट	-5402
▁विलंब	-5403
▁सभापति	-5404
▁प्रतिफल	-5405
▁बढ़ते	-5406
▁दार्शनिक	-5407
▁रचनात्मक	-5408
ंसक	-5409
▁दर्	-5410
▁आपसे	-5411
▁उठाए	-5412
▁कुटु	-5413
▁दिमाग	-5414
मुच	-5415
▁ट्यूब	-5416
▁ब्राह्मण	-5417
id	-5418
परि	-5419
गामी	-5420
▁ठाकुर	-5421
▁प्रमाणित	-5422
ाहट	-5423
त्रिम	-5424
दाताओं	-5425
▁सहभाग	-5426
▁हजारों	-5427
▁क्षतिपूर्ति	-5428
यिक	-5429
▁घाटी	-5430
▁वांछ	-5431
▁इंस्ट	-5432
▁आह्वान	-5433
▁स्तरीय	-5434
▁उभ	-5435
▁आस्था	-5436
▁राष्ट्रों	-5437
साइटी	-5438
▁वाहन	-5439
▁अस्थि	-5440
▁मानकों	-5441
▁व्यापारिक	-5442
्द	-5443
मेन	-5444
▁पुण	-5445
▁समेक	-5446
▁चेहरे	-5447
▁अधिरोपित	-5448
▁बल्लेबाज	-5449
▁नवी	-5450
▁उड़ीसा	-5451
▁लोकसभा	-5452
थन	-5453
▁विनिधान	-5454
ाट	-5455
ब्ध	-5456
विदा	-5457
्रेता	-5458
▁किमी	-5459
▁फोटो	-5460
▁कालेज	-5461
तो	-5462
िमा	-5463
▁डो	-5464
लाका	-5465
▁मेम	-5466
▁जुड़ी	-5467
▁बढ़कर	-5468
▁सोसाइटी	-5469
पू	-5470
▁जमानत	-5471
▁सहयोगी	-5472
▁प्रजाति	-5473
▁धम	-5474
▁फौ	-5475
▁चां	-5476
▁बिट	-5477
▁अपरि	-5478
▁घरों	-5479
▁संभाल	-5480
▁समुदायों	-5481
▁प्रतिष्ठा	-5482
▁ख्या	-5483
▁देखो	-5484
▁धनराशि	-5485
▁जायेंगे	-5486
▁दिसम्बर	-5487
▁शिक्षित	-5488
ME	-5489
कन	-5490
सार	-5491
▁तू	-5492
▁हार्ड	-5493
▁गवर्नर	-5494
▁कार्यरत	-5495
▁वस्तुएं	-5496
▁पुस्तिका	-5497
▁प्रासंगिक	-5498
क़्	-5499
▁भव	-5500
ोनें	-5501
▁रिस	-5502
▁सचमुच	-5503
▁सेवान	-5504
▁निर्देशिका	-5505
▁टू	-5506
ार्इ	-5507
▁नकद	-5508
गोलिक	-5509
▁अर्ज	-5510
▁विचारधारा	-5511
og	-5512
▁असली	-5513
▁पढ़ा	-5514
▁बंदर	-5515
▁क्रेड	-5516
▁कृत्रिम	-5517
▁विद्वानों	-5518
क्की	-5519
ासीन	-5520
▁अभिर	-5521
▁कथित	-5522
▁श्वेत	-5523
▁नवम्बर	-5524
ितु	-5525
िकीय	-5526
▁कना	-5527
▁पाइ	-5528
▁रूस	-5529
▁अंडे	-5530
▁काली	-5531
▁नस्ल	-5532
▁रिकॉर्ड	-5533
▁गणित	-5534
▁आदेशों	-5535
▁उत्पादक	-5536
▁सलाहकार	-5537
वृ	-5538
लाल	-5539
स्पति	-5540
▁आपसी	-5541
▁चट्ट	-5542
▁इकट्	-5543
▁स्तन	-5544
▁भावनाओं	-5545
हता	-5546
▁परिवर्तनों	-5547
चालित	-5548
▁ईंधन	-5549
▁हिमाचल	-5550
▁भौगोलिक	-5551
▁सामान्यतया	-5552
he	-5553
▁लीग	-5554
क़्ति	-5555
▁जिसको	-5556
▁मतदान	-5557
▁अधीनस्थ	-5558
▁बम	-5559
▁सेवानिव	-5560
▁संकल्पना	-5561
▁दुर्भाग्य	-5562
ढ़े	-5563
▁चुक	-5564
▁छत्त	-5565
ोक्ताओं	-5566
▁उपलब्धता	-5567
▁परिस्थिति	-5568
▁प्रभावशाली	-5569
धक	-5570
बेस	-5571
आईआर	-5572
▁दबा	-5573
▁सुन्दर	-5574
▁आईटी	-5575
▁शासक	-5576
▁मासिक	-5577
▁अज्ञात	-5578
▁लेखकों	-5579
▁प्रक्रम	-5580
िफ	-5581
यालय	-5582
▁आयुर्	-5583
▁अभ्यास	-5584
हीत	-5585
दातर	-5586
▁पाठक	-5587
▁अपवाद	-5588
IN	-5589
▁नाब	-5590
▁लंदन	-5591
▁लिपि	-5592
तन्त्र	-5593
▁तीसरा	-5594
▁प्लेट	-5595
▁वैदिक	-5596
▁शुक्र	-5597
▁संवेद	-5598
▁अनुदेश	-5599
▁असामान्य	-5600
स्फोट	-5601
▁तलाश	-5602
▁बनता	-5603
▁लेंगे	-5604
▁खतरनाक	-5605
▁चमक	-5606
▁बेर	-5607
▁वाम	-5608
▁गुणा	-5609
▁जंगल	-5610
न्धन	-5611
▁ऊतक	-5612
▁आयकर	-5613
▁ईमान	-5614
चन्द्र	-5615
▁ऑडियो	-5616
▁दर्शाता	-5617
नाइट	-5618
▁अर्जन	-5619
▁शासित	-5620
▁उपेक्षा	-5621
▁जॉ	-5622
ांसी	-5623
▁राजी	-5624
▁सेक्टर	-5625
▁कार्यकारी	-5626
▁पूर्ववर्ती	-5627
▁निबंध	-5628
▁लंबाई	-5629
▁इकाइयों	-5630
म्बी	-5631
▁अपेक्षाकृत	-5632
▁प्रसंस्करण	-5633
▁अतीत	-5634
▁रिजर्व	-5635
▁शेयरों	-5636
डन	-5637
पेश	-5638
ायन	-5639
▁मस्	-5640
▁कहाँ	-5641
▁अनुक्रम	-5642
ष्म	-5643
▁दाम	-5644
▁गहरे	-5645
▁सुनी	-5646
▁पैकेज	-5647
▁सुनने	-5648
▁अभिप्र	-5649
▁नदियों	-5650
▁प्रचालन	-5651
च्छा	-5652
ड़ाई	-5653
संख्य	-5654
▁गोरा	-5655
▁टिकट	-5656
▁सेंट	-5657
▁अध्यक्षता	-5658
टने	-5659
मंड	-5660
वाँ	-5661
ानिस्तान	-5662
▁योजनाएं	-5663
वण	-5664
ूण	-5665
ॉम	-5666
▁नल	-5667
क्सा	-5668
स्टर	-5669
ोचित	-5670
ation	-5671
▁खनिज	-5672
▁ग्रे	-5673
ानुसार	-5674
▁पारस्प	-5675
जाल	-5676
साद	-5677
▁दत्त	-5678
▁हरिया	-5679
▁क्रेडिट	-5680
▁प्रसारण	-5681
▁मुख्यतः	-5682
सूत्र	-5683
ांडिक	-5684
▁निधन	-5685
▁जुर्म	-5686
▁शिल्प	-5687
▁प्रणालियों	-5688
णित	-5689
▁परत	-5690
▁चेन्न	-5691
▁केंद्रों	-5692
▁संग्रहालय	-5693
ेन्द्र	-5694
▁त्वरित	-5695
▁दिखाने	-5696
▁ताज	-5697
▁अगली	-5698
▁चावल	-5699
▁साथी	-5700
▁पेट्रोल	-5701
्टा	-5702
▁ब्यू	-5703
▁सोने	-5704
▁सज	-5705
पीसी	-5706
▁तनाव	-5707
▁बंबई	-5708
▁बुरी	-5709
▁पिछली	-5710
▁मतभेद	-5711
▁रामायण	-5712
▁आस्तियों	-5713
▁निर्णयों	-5714
▁मेड	-5715
▁साँ	-5716
ायनिक	-5717
▁नकदी	-5718
▁कुरान	-5719
▁पक्षी	-5720
▁सीखने	-5721
▁अभिकरण	-5722
▁राज्यक्षेत्र	-5723
झा	-5724
क्कर	-5725
▁जगत	-5726
▁काला	-5727
▁सौंद	-5728
▁कैंसर	-5729
▁आमंत्रित	-5730
इल	-5731
▁ढल	-5732
▁फाइ	-5733
▁यान	-5734
▁रखती	-5735
▁पुष्प	-5736
▁इन्द्र	-5737
▁विनिया	-5738
▁प्रबंधक	-5739
▁संक्षेप	-5740
▁व्युत्पन्न	-5741
▁तदनुसार	-5742
▁प्रोटोक	-5743
दूरी	-5744
स्तु	-5745
▁ऑफ़	-5746
▁आजाद	-5747
▁लंबा	-5748
▁बोलते	-5749
▁डाक्टर	-5750
▁परेशान	-5751
▁मंजूरी	-5752
▁मानदंड	-5753
▁वार्ता	-5754
▁किल	-5755
▁अनुमोदित	-5756
सेस	-5757
▁खर्	-5758
▁मोटे	-5759
▁पारस्परिक	-5760
णि	-5761
कीन	-5762
▁विजे	-5763
▁तीर्थ	-5764
▁अहं	-5765
▁शरण	-5766
▁फेंक	-5767
▁मादा	-5768
▁मौका	-5769
कारिता	-5770
▁कच	-5771
▁खर	-5772
▁मं	-5773
ांकित	-5774
▁बयान	-5775
▁समर्पण	-5776
▁तुम्हारी	-5777
tr	-5778
र्फ़	-5779
▁बचने	-5780
▁बाज़	-5781
▁संगणक	-5782
ानुभूति	-5783
भाषण	-5784
▁केश	-5785
▁नर्म	-5786
▁किशोर	-5787
▁दशकों	-5788
▁लिखते	-5789
▁व्यस्त	-5790
▁अवसंरचना	-5791
▁लक्ष्यों	-5792
▁असल	-5793
▁खबर	-5794
▁धान	-5795
▁लोप	-5796
▁क्यू	-5797
▁टेक्	-5798
▁बचाने	-5799
▁अन्तिम	-5800
▁दांडिक	-5801
चाप	-5802
▁बलि	-5803
▁राधा	-5804
▁स्वै	-5805
▁भाग्य	-5806
▁मुलाका	-5807
एमई	-5808
श्र	-5809
▁वजन	-5810
▁उपरो	-5811
▁बनना	-5812
▁हथियार	-5813
▁विन्यास	-5814
▁वैयक्तिक	-5815
ेदन	-5816
▁खुला	-5817
▁दौड़	-5818
▁होटल	-5819
ियुक्त	-5820
▁अनन्त	-5821
▁चलाया	-5822
▁फायदा	-5823
▁क़्यों	-5824
▁सितम्बर	-5825
लभ	-5826
फ्र	-5827
मेल	-5828
▁पन	-5829
ाबाद	-5830
▁आदर	-5831
▁पूर्वा	-5832
▁उद्यमों	-5833
ाग्र	-5834
▁गोप	-5835
▁गर्मी	-5836
प्राप्त	-5837
▁विकासशील	-5838
▁टीका	-5839
▁पंजाबी	-5840
▁रासायनिक	-5841
▁इंजीनियरी	-5842
१४	-5843
ूपी	-5844
▁छत	-5845
▁आर्य	-5846
▁टर्म	-5847
▁पाना	-5848
▁पैनल	-5849
▁वरन्	-5850
▁कमीशन	-5851
▁सम्रा	-5852
▁पुराना	-5853
▁संगणना	-5854
▁चाहूंगा	-5855
▁आकांक्षा	-5856
▁ऊँ	-5857
▁जुट	-5858
▁हाई	-5859
▁पीड़ा	-5860
▁शाखाओं	-5861
▁नियंत्रक	-5862
▁परंपरागत	-5863
मिन	-5864
ामिन	-5865
▁गलती	-5866
▁लगाए	-5867
▁वैष्ण	-5868
▁अब्दुल	-5869
▁यहू	-5870
▁वासी	-5871
▁सहेज	-5872
साई	-5873
ुरत	-5874
▁सोम	-5875
▁रिज़	-5876
▁सबूत	-5877
षेध	-5878
ानाथ	-5879
▁अद्व	-5880
▁आंकड़े	-5881
▁स्वप्न	-5882
▁पुस्तकाल	-5883
ैंक	-5884
▁रन	-5885
▁मौत	-5886
▁विज	-5887
व्यापी	-5888
▁त्रिप	-5889
▁सृजित	-5890
▁अंतरित	-5891
▁कवियों	-5892
▁अभियोजन	-5893
▁अभिव्यक्त	-5894
▁प्रशिक्षित	-5895
चंद	-5896
▁फुट	-5897
▁ऊंची	-5898
▁रचनाओं	-5899
▁एक्	-5900
▁देवताओं	-5901
aa	-5902
िवी	-5903
▁हड़	-5904
▁अशोक	-5905
▁इसको	-5906
▁छत्तीस	-5907
फ्	-5908
ुश	-5909
▁अट	-5910
▁इक	-5911
▁अजी	-5912
▁आवि	-5913
▁नाथ	-5914
ार्थियों	-5915
▁स्कूलों	-5916
१क	-5917
▁निकलने	-5918
▁संयोजन	-5919
▁उपरोक्त	-5920
ृंग	-5921
▁शर	-5922
▁दमन	-5923
▁समू	-5924
▁निरूप	-5925
▁सम्मानित	-5926
िथ	-5927
ेडकर	-5928
▁धूम	-5929
▁तारा	-5930
▁मानस	-5931
▁अक्षर	-5932
▁शस्त्र	-5933
▁संग्रहण	-5934
▁कम्प्यूटर	-5935
िक्र	-5936
्रेम	-5937
▁पुस्तकें	-5938
रन	-5939
रानी	-5940
स्तीन	-5941
▁अनुया	-5942
▁संचित	-5943
▁प्रोटीन	-5944
ूँगा	-5945
▁विट	-5946
▁हिल	-5947
▁पचास	-5948
▁वन्य	-5949
▁लाभों	-5950
▁लिखना	-5951
▁अधिवेशन	-5952
▁विकलांग	-5953
▁लल	-5954
▁उपज	-5955
▁आवेदक	-5956
श्रे	-5957
▁कौर	-5958
▁मेज	-5959
▁वेश	-5960
▁संभ	-5961
शुल्क	-5962
ाइयों	-5963
▁श्रो	-5964
▁तीसरी	-5965
▁शर्तें	-5966
▁विनियामक	-5967
▁नती	-5968
▁बडा	-5969
▁निष्ठा	-5970
▁जानवरों	-5971
▁दांत	-5972
स्तीनी	-5973
▁विधायी	-5974
▁at	-5975
▁पॉ	-5976
▁जाह	-5977
▁नर्स	-5978
▁उपग्रह	-5979
▁स्पर्श	-5980
सेट	-5981
▁घन	-5982
▁अग्नि	-5983
▁अपितु	-5984
▁दिखाएँ	-5985
▁संतुष्ट	-5986
▁पेर	-5987
▁बहि	-5988
▁एण्ड	-5989
▁भिन्	-5990
▁तुमने	-5991
▁पूर्णता	-5992
▁सौंदर्य	-5993
▁सोल	-5994
▁पारि	-5995
▁कविताओं	-5996
▁मुहम्मद	-5997
्मा	-5998
ेनिस	-5999
▁फसलों	-6000
▁मरम्मत	-6001
▁परिश्रम	-6002
uot	-6003
▁रॉ	-6004
ल्ली	-6005
▁ऊंचे	-6006
▁जाया	-6007
▁संप्र	-6008
ूकता	-6009
▁लगने	-6010
▁हमला	-6011
▁ट्रेड	-6012
▁आकर्षण	-6013
▁छुट्टी	-6014
▁निष्पक्ष	-6015
▁परिकल्पना	-6016
▁कार्यालयों	-6017
विन	-6018
यंती	-6019
र्मी	-6020
▁कंट	-6021
▁केस	-6022
▁साक्षा	-6023
▁परिपक्व	-6024
▁पूर्णतया	-6025
▁स्वाधीनता	-6026
ैस	-6027
ूनी	-6028
▁ह्र	-6029
▁कराई	-6030
▁बताते	-6031
▁सैनिकों	-6032
दूत	-6033
जनों	-6034
ण्डल	-6035
▁कहे	-6036
▁दलों	-6037
▁कृत्य	-6038
▁सम्पन्न	-6039
▁राजकुमार	-6040
ावन	-6041
▁सबके	-6042
▁निचले	-6043
▁ब्लॉक	-6044
▁यहूदी	-6045
▁प्रभार्य	-6046
चिक	-6047
ांज	-6048
पोषण	-6049
▁तरल	-6050
▁ग्रस्त	-6051
▁चित्रण	-6052
▁लेखापरी	-6053
▁अंग्रेज़ी	-6054
im	-6055
▁ज़ि	-6056
▁तंग	-6057
▁टेलीफोन	-6058
▁सार्वभौ	-6059
▁प्रतिस्पर्धा	-6060
गें	-6061
▁चक	-6062
हारी	-6063
क्षरता	-6064
▁डब्ल्यू	-6065
▁उन्होनें	-6066
▁प्रतिरोध	-6067
एक	-6068
डो	-6069
▁सूजन	-6070
▁लम्बे	-6071
▁प्रसंग	-6072
▁अभिभाषण	-6073
▁विधियां	-6074
▁विस्फोट	-6075
द्दी	-6076
▁असी	-6077
▁बटन	-6078
▁साक्ष	-6079
▁क्रांतिकारी	-6080
▁अमल	-6081
▁इंत	-6082
▁विदेशों	-6083
तना	-6084
्वीप	-6085
▁इंस	-6086
▁बसव	-6087
▁मील	-6088
▁रोड	-6089
▁अवकाश	-6090
दर्शिता	-6091
▁सहानुभूति	-6092
▁वास्तविकता	-6093
▁सफलतापूर्वक	-6094
प्ल	-6095
▁of	-6096
▁तप	-6097
वाणी	-6098
्लादेश	-6099
▁कनाडा	-6100
▁लक्ष्मी	-6101
▁समर्थित	-6102
▁फिलीस्तीनी	-6103
ख़्या	-6104
लियों	-6105
रीन	-6106
हाल	-6107
शाही	-6108
▁क्रय	-6109
▁बनाती	-6110
खिक	-6111
हान	-6112
▁कारख	-6113
▁सकने	-6114
▁स्ने	-6115
▁वृत्ति	-6116
▁संदत्त	-6117
▁शास्त्री	-6118
ल्फ	-6119
ूलन	-6120
▁घात	-6121
ायिका	-6122
▁ज्ञापन	-6123
▁प्राणी	-6124
▁अनुशासन	-6125
▁नमक	-6126
▁एमएस	-6127
▁शादी	-6128
▁सार्थ	-6129
▁प्रावधानों	-6130
ष्टा	-6131
▁अव्य	-6132
▁मिटा	-6133
शनल	-6134
▁नो	-6135
▁बहन	-6136
▁भत्ता	-6137
▁इन्हीं	-6138
द्म	-6139
शित	-6140
ेटी	-6141
ोरम	-6142
र्ता	-6143
▁आधे	-6144
▁बुक	-6145
▁विघ	-6146
▁पीने	-6147
▁भरने	-6148
▁जानना	-6149
▁वनस्पति	-6150
▁जागरूकता	-6151
▁ठे	-6152
हवीं	-6153
▁निपटने	-6154
▁अनुज्ञा	-6155
▁मुकाबले	-6156
क्ल	-6157
▁पंख	-6158
▁वृत्त	-6159
▁कलाकार	-6160
▁वितरित	-6161
▁हिन्दुस्तान	-6162
▁जयंती	-6163
▁बढ़ता	-6164
▁समस्याएं	-6165
चेंज	-6166
▁आपदा	-6167
▁मंडप	-6168
▁थोड़े	-6169
▁मुलाकात	-6170
▁नवान्वेष	-6171
▁उत्पादकता	-6172
▁एजेंसियों	-6173
्चर	-6174
▁आधा	-6175
▁पाउ	-6176
▁मंग	-6177
▁स्न	-6178
▁अड्ड	-6179
▁सोचते	-6180
▁तत्कालीन	-6181
os	-6182
ुड	-6183
स्कर	-6184
▁जल्द	-6185
व्यवहार	-6186
▁भागीदार	-6187
किम	-6188
धरी	-6189
डीएफ	-6190
ासित	-6191
▁ग्ल	-6192
▁चिर	-6193
▁बदला	-6194
वीय	-6195
▁vi	-6196
▁संगत	-6197
▁इनपुट	-6198
▁पार्ट	-6199
▁भरोसा	-6200
▁यूनियन	-6201
▁अवमानना	-6202
▁रिज़र्व	-6203
खर	-6204
▁छुप	-6205
▁नौकर	-6206
▁मोड़	-6207
▁कारगर	-6208
तापूर्वक	-6209
▁मिश्रित	-6210
▁रूपरेखा	-6211
▁राजमार्ग	-6212
ंकी	-6213
▁आन्द	-6214
▁नमूने	-6215
▁निर्ण	-6216
▁पुनर्ग	-6217
▁गिरफ्तारी	-6218
▁प्रयोक्ता	-6219
भु	-6220
यू	-6221
▁रै	-6222
कारा	-6223
▁दंत	-6224
▁बाप	-6225
▁मज़	-6226
तियां	-6227
▁अनाव	-6228
▁बाढ़	-6229
▁मानने	-6230
▁अपीलार्थी	-6231
▁लड	-6232
▁बेस	-6233
▁सज्	-6234
नीतिक	-6235
भाग्य	-6236
▁नोटिस	-6237
▁भरपूर	-6238
निर्देश	-6239
▁प्रविष्ट	-6240
▁स्वचालित	-6241
▁छत्तीसगढ़	-6242
▁उत्कृष्टता	-6243
घन	-6244
लैंड	-6245
▁कॉर्	-6246
▁वैसा	-6247
▁आमदनी	-6248
▁देखिए	-6249
us	-6250
▁ढेर	-6251
▁अतिक	-6252
▁एक्ट	-6253
▁रूपये	-6254
रोग	-6255
▁बड़	-6256
▁मैच	-6257
▁दिल्	-6258
▁स्वि	-6259
▁स्थूल	-6260
▁कनेक्ट	-6261
▁नाबार्ड	-6262
▁सर्वप्र	-6263
िकता	-6264
▁क्लब	-6265
▁खुली	-6266
▁बैठा	-6267
▁जिलों	-6268
ोधन	-6269
▁अफ़	-6270
▁विधा	-6271
▁हर्ष	-6272
▁उन्हे	-6273
▁पड़ने	-6274
▁किराया	-6275
▁डिजिटल	-6276
▁मजदूरी	-6277
▁अप्रत्य	-6278
िट्	-6279
्याम	-6280
▁000	-6281
▁सकी	-6282
चंद्र	-6283
▁कोमल	-6284
▁कमेटी	-6285
▁नु	-6286
पश्च	-6287
▁फ़ॉ	-6288
▁यों	-6289
▁अरबी	-6290
▁किरण	-6291
▁चौथा	-6292
▁समता	-6293
▁सदनों	-6294
▁कार्बन	-6295
मेह	-6296
राक	-6297
▁दह	-6298
ाजनक	-6299
▁लाह	-6300
संचार	-6301
▁इस्प	-6302
▁प्रब	-6303
▁अवरोध	-6304
▁मिलना	-6305
▁लाखों	-6306
▁परिणामों	-6307
▁वर्गीकरण	-6308
गित	-6309
ुक़्त	-6310
▁सामु	-6311
▁उपभोग	-6312
▁जंगली	-6313
▁जरूरतों	-6314
▁संग्राम	-6315
नीत	-6316
▁माध	-6317
▁मस्ज	-6318
▁मोर्	-6319
▁आवश्य	-6320
▁उठाना	-6321
▁परिसी	-6322
म्मा	-6323
▁उदय	-6324
▁एका	-6325
▁शुरूआ	-6326
▁बढ़ाना	-6327
▁व्यष्टि	-6328
▁अधिसूचित	-6329
▁राष्ट्री	-6330
▁आजकल	-6331
▁सम्राट	-6332
▁अवर	-6333
▁अमृत	-6334
▁आईसी	-6335
▁इराक	-6336
▁इलाह	-6337
▁बर्फ	-6338
ay	-6339
ोसी	-6340
टकों	-6341
शंकर	-6342
चरिता	-6343
▁शोषण	-6344
▁हाइड	-6345
▁उपदेश	-6346
▁हानिक	-6347
▁अधिकृत	-6348
▁दूरस्थ	-6349
▁गणतंत्र	-6350
▁अफगानिस्तान	-6351
वत्	-6352
▁टक	-6353
स्को	-6354
▁नाल	-6355
▁यहीं	-6356
▁एकत्रित	-6357
मित्त	-6358
▁मराठी	-6359
▁मिस्र	-6360
▁इस्पात	-6361
▁माइक्रो	-6362
▁विज्ञापन	-6363
▁सिफारिशों	-6364
दू	-6365
▁परा	-6366
▁पान	-6367
▁सफाई	-6368
▁आनुवंश	-6369
▁पार्श्व	-6370
▁पहुंचाने	-6371
बरा	-6372
▁गज	-6373
▁ओपन	-6374
▁नाक	-6375
दृश्य	-6376
▁भ्रम	-6377
▁विलय	-6378
▁सीधी	-6379
▁कराता	-6380
▁स्वदेश	-6381
▁सुचरिता	-6382
▁प्राइवेट	-6383
▁नायक	-6384
▁वाक्य	-6385
▁समझना	-6386
▁इलाकों	-6387
▁जोड़ें	-6388
मुखी	-6389
▁सुप	-6390
▁औषधि	-6391
▁चिंतन	-6392
▁यात्री	-6393
▁स्रोतों	-6394
▁दस्तावेज़	-6395
▁आँख	-6396
▁कंध	-6397
▁गोली	-6398
▁डाले	-6399
▁इंकार	-6400
▁इंदिरा	-6401
▁हरियाणा	-6402
ड्	-6403
एगा	-6404
बिल	-6405
▁वें	-6406
▁सबको	-6407
क्रामक	-6408
▁बताने	-6409
▁नियोजन	-6410
▁बांग्लादेश	-6411
सास	-6412
स्मिक	-6413
त्रियों	-6414
▁अतिमान	-6415
▁व्याख्यान	-6416
शनी	-6417
▁भो	-6418
▁सेशन	-6419
▁वैष्णव	-6420
मह	-6421
▁छू	-6422
सिद्ध	-6423
▁एससी	-6424
▁आंखों	-6425
▁खरीदने	-6426
▁दुर्लभ	-6427
▁सौभाग्य	-6428
▁एसोसिएशन	-6429
▁ज्यादातर	-6430
▁सीम	-6431
ंबेडकर	-6432
▁विडियो	-6433
▁निर्वाचित	-6434
▁ः	-6435
्यक	-6436
तकों	-6437
▁वाइ	-6438
▁टाइप	-6439
▁आकृति	-6440
▁प्रजा	-6441
▁एशियाई	-6442
▁एससीसी	-6443
▁बुलाया	-6444
▁सशस्त्र	-6445
▁निवेशकों	-6446
ताप	-6447
ताएं	-6448
▁कीजिए	-6449
▁पढ़ाई	-6450
खाव	-6451
▁दम	-6452
▁भूख	-6453
च्छेदन	-6454
▁तालाब	-6455
▁उपलब्धियों	-6456
किट	-6457
िणी	-6458
ैक्ट	-6459
▁बैक	-6460
स्थापन	-6461
▁दूरसंचार	-6462
क्षे	-6463
शब्द	-6464
▁अंगों	-6465
▁टेनिस	-6466
▁टैगोर	-6467
▁अकादमी	-6468
▁खज	-6469
ृश्य	-6470
▁बिर	-6471
▁प्लग	-6472
▁भव्य	-6473
क्तियों	-6474
▁आकस्मिक	-6475
ur	-6476
छा	-6477
▁बेटे	-6478
▁वरीय	-6479
कना	-6480
न्दा	-6481
▁गंध	-6482
▁चरम	-6483
निहित	-6484
▁सर्वप्रथम	-6485
१५	-6486
लील	-6487
▁an	-6488
णुओं	-6489
▁बोझ	-6490
▁रुक	-6491
▁नजदी	-6492
▁सिरे	-6493
▁प्राप	-6494
▁पब्लिक	-6495
▁उपनिवेश	-6496
▁काउंसिल	-6497
▁प्रतिनिधियों	-6498
▁बत	-6499
▁मेहन	-6500
▁दुर्ग	-6501
ढ़ा	-6502
त्रि	-6503
▁खार	-6504
▁स्वर्ग	-6505
पार	-6506
▁जानवर	-6507
▁आकर्षक	-6508
▁समकालीन	-6509
ंचल	-6510
▁नवा	-6511
▁कबीर	-6512
▁निक्ष	-6513
▁सुदूर	-6514
▁अनुकरण	-6515
▁अन्याय	-6516
▁जैसाकि	-6517
▁समीकरण	-6518
▁पुस्तकालय	-6519
▁इस्लामवादी	-6520
दीप	-6521
▁खासकर	-6522
▁लम्बी	-6523
▁संस्थागत	-6524
▁कर्तव्यों	-6525
ter	-6526
बीन	-6527
▁सुपु	-6528
▁भारती	-6529
▁सच्चे	-6530
▁स्वाद	-6531
▁इलाहाबाद	-6532
ोश	-6533
▁गुट	-6534
▁ऊंचा	-6535
▁ढूंढ	-6536
▁बचपन	-6537
▁क़्योंकि	-6538
▁चिन	-6539
▁शेर	-6540
▁ग्रन्थ	-6541
▁अप्रत्यक्ष	-6542
▁पेट्रोलियम	-6543
▁अटल	-6544
▁बीत	-6545
▁मक्	-6546
▁सेवक	-6547
▁सुधारने	-6548
▁इंजीनियरिंग	-6549
▁पाग	-6550
▁पेय	-6551
▁यौन	-6552
▁डालर	-6553
▁नज़र	-6554
▁बेटी	-6555
▁असंभव	-6556
▁उत्सुक	-6557
▁बिन्दु	-6558
▁प्रतिवर्ष	-6559
ंबित	-6560
▁जोड़े	-6561
▁अहिंसा	-6562
▁अवस्थित	-6563
▁श्रद्धा	-6564
ब्बे	-6565
वकों	-6566
▁हज़	-6567
▁महाप	-6568
▁माँग	-6569
▁इनकार	-6570
▁उत्सव	-6571
▁फूलों	-6572
▁कृत्यों	-6573
▁प्रतिलिप	-6574
भुत	-6575
▁फू	-6576
▁अभिने	-6577
▁महान्	-6578
▁संकलन	-6579
▁संघीय	-6580
▁टाइम्स	-6581
▁प्रत्यर्थी	-6582
ab	-6583
याल	-6584
▁घाव	-6585
▁हंस	-6586
पोर्ट	-6587
्यूशन	-6588
▁मंगल	-6589
▁विकि	-6590
▁अपूर्ण	-6591
▁समेकित	-6592
▁राजपत्र	-6593
AME	-6594
भाशय	-6595
▁पते	-6596
▁भीड़	-6597
▁उन्नयन	-6598
▁वक्तव्य	-6599
▁पुनरीक्षण	-6600
▁पूर्वोक्त	-6601
▁ठहर	-6602
▁पीड	-6603
ुपयोग	-6604
▁हुये	-6605
क्साइड	-6606
▁माहौल	-6607
▁इसलिये	-6608
▁सड़कों	-6609
▁गठ	-6610
परिव	-6611
▁कोने	-6612
▁दरबार	-6613
▁नमूना	-6614
▁संव्यवहार	-6615
▁ओब	-6616
▁हॉ	-6617
▁घृणा	-6618
▁चौधरी	-6619
▁निर्गम	-6620
▁परिसंप	-6621
▁सदस्यता	-6622
▁क्रूर	-6623
▁इज	-6624
▁घुट	-6625
▁टैब	-6626
▁मुक	-6627
▁वसा	-6628
द्वीप	-6629
ोरेशन	-6630
▁टि	-6631
▁निल	-6632
▁आवरण	-6633
▁देनी	-6634
▁आधिकार	-6635
▁अनिवासी	-6636
▁अनुभूति	-6637
▁सुधारों	-6638
▁कहानियों	-6639
▁मनी	-6640
पोरेट	-6641
▁निस्	-6642
▁बम्बई	-6643
▁सोचने	-6644
▁स्त्रो	-6645
▁उत्तराधिकार	-6646
शक	-6647
दण्ड	-6648
▁नाव	-6649
▁कच्चे	-6650
▁गाँधी	-6651
▁शिष्ट	-6652
▁समापन	-6653
श्रेष्ठ	-6654
केश	-6655
टित	-6656
▁उग	-6657
ेन्ट	-6658
▁गेह	-6659
▁वाज	-6660
▁पेशी	-6661
▁मारे	-6662
▁निमित्त	-6663
▁सांप्रदायिक	-6664
▁छः	-6665
खण्ड	-6666
▁विच	-6667
प्रति	-6668
▁तरंग	-6669
▁मूत्र	-6670
▁लाभांश	-6671
▁त्रुटिः	-6672
कोष	-6673
जाम	-6674
ट्स	-6675
भूषण	-6676
▁बिन	-6677
▁अश्व	-6678
▁भेजी	-6679
▁विधवा	-6680
▁अवधारण	-6681
▁नेताजी	-6682
▁पेटेंट	-6683
▁मिथ्या	-6684
▁शुरूआत	-6685
▁श्रद्ध	-6686
▁सिर्फ़	-6687
▁सत्यापन	-6688
▁हरी	-6689
▁नाटकों	-6690
▁लक्ष्म	-6691
▁भ्रष्टाचार	-6692
▁प्रतिबद्धता	-6693
ाश	-6694
डों	-6695
▁गरि	-6696
▁किंग	-6697
▁सन्द	-6698
▁पुराण	-6699
▁विभेद	-6700
▁उन्मूलन	-6701
▁हस्तांत	-6702
▁पुनर्वास	-6703
▁प्रतिरक्षा	-6704
ोगे	-6705
स्थल	-6706
▁शराब	-6707
▁हमले	-6708
राष्ट्र	-6709
▁मंत्रियों	-6710
▁विधानमंडल	-6711
२क	-6712
▁माउ	-6713
▁रसी	-6714
▁काफ़ी	-6715
▁गोपनीय	-6716
▁नियन्त्र	-6717
▁क्रियान्वयन	-6718
▁याचिकाकर्ता	-6719
मों	-6720
वर्त	-6721
▁गिन	-6722
▁घाट	-6723
▁विस	-6724
▁सोव	-6725
▁रहीं	-6726
▁अपनाई	-6727
▁असफलता	-6728
▁आउटपुट	-6729
▁उद्भूत	-6730
▁भेदभाव	-6731
▁निर्देशों	-6732
ंय	-6733
▁असंत	-6734
▁हड्डी	-6735
▁कौंसिल	-6736
▁राजाओं	-6737
▁फिलीस्तीन	-6738
hr	-6739
ठार	-6740
▁छप	-6741
▁प्य	-6742
▁वहन	-6743
मूल्य	-6744
वृत्ति	-6745
▁ग्रीन	-6746
▁सांख्य	-6747
▁प्रबन्ध	-6748
▁विटामिन	-6749
▁साक्षरता	-6750
▁केन्द्रों	-6751
ंर	-6752
बरी	-6753
१वीं	-6754
▁सारणी	-6755
विश्वास	-6756
▁अभिदाय	-6757
▁सच्चाई	-6758
▁एक्सचेंज	-6759
▁माध्यमिक	-6760
▁साक्षात्कार	-6761
ँह	-6762
सो	-6763
▁अपार	-6764
▁पादप	-6765
▁ट्रस्ट	-6766
▁स्नातक	-6767
▁तुम्हारा	-6768
▁समाजवादी	-6769
ैत	-6770
िप्ट	-6771
▁बेश	-6772
दर्शक	-6773
▁अक्ट	-6774
▁पांड	-6775
▁जाहिर	-6776
▁न्यूय	-6777
▁पीछला	-6778
▁आंकड़ों	-6779
▁मजदूरों	-6780
▁आयुर्वेद	-6781
भाई	-6782
ावी	-6783
▁अँ	-6784
▁घुस	-6785
▁बुर	-6786
▁शीत	-6787
▁हाइ	-6788
संदेह	-6789
▁एनआई	-6790
▁ध्रु	-6791
▁बंगल	-6792
▁बताता	-6793
▁बताना	-6794
▁अज्ञान	-6795
▁अधिनिर्	-6796
▁आन्दोलन	-6797
▁निकायों	-6798
▁अधिनियमित	-6799
▁बिग	-6800
▁भरत	-6801
दाबाद	-6802
▁अजीब	-6803
▁ब्यौ	-6804
त्तियों	-6805
▁जिंदगी	-6806
▁पक्षियों	-6807
▁मुख्यालय	-6808
बाल	-6809
▁वध	-6810
ुतोष	-6811
▁आचार	-6812
▁त्रि	-6813
▁सर्विस	-6814
▁पुनर्गठन	-6815
ंटा	-6816
मैन	-6817
▁क्री	-6818
▁परित	-6819
▁जनजाति	-6820
▁हिस्सों	-6821
▁संवेदनशील	-6822
गीर	-6823
सैन	-6824
▁iv	-6825
मोहन	-6826
▁रंगम	-6827
तापूर्ण	-6828
▁रोगियों	-6829
▁आधिकारिक	-6830
▁विस्तारित	-6831
हृ	-6832
ज़न	-6833
▁ar	-6834
▁उधर	-6835
▁गम्	-6836
▁नोक	-6837
▁आश्रम	-6838
▁प्रसव	-6839
▁प्रवर्त	-6840
▁शिकायतों	-6841
▁लाई	-6842
▁नींव	-6843
▁पागल	-6844
ाध्यक्ष	-6845
खार	-6846
रखाव	-6847
▁अंद	-6848
▁रोचक	-6849
▁खोजने	-6850
▁पृथक्	-6851
▁सार्थक	-6852
बूझ	-6853
ाजन	-6854
भक्त	-6855
ॉल्ट	-6856
योग्य	-6857
▁चलती	-6858
▁वर्न	-6859
▁कर्ता	-6860
▁कीटना	-6861
▁गरिमा	-6862
▁महानि	-6863
▁महासागर	-6864
महल	-6865
▁अंज	-6866
▁जरा	-6867
▁पहच	-6868
▁भगत	-6869
▁मुल	-6870
▁सोन	-6871
▁अनुर	-6872
▁देगी	-6873
▁पराज	-6874
▁उत्पा	-6875
▁दीक्ष	-6876
▁स्नेह	-6877
▁आश्वासन	-6878
प्पा	-6879
▁गड़	-6880
▁असमान	-6881
▁कोयला	-6882
▁बकाया	-6883
▁संकाय	-6884
▁स्टार	-6885
▁रखरखाव	-6886
▁सामर्थ	-6887
▁हिन्दुओं	-6888
▁दाह	-6889
▁नक्	-6890
▁उठता	-6891
▁निभाई	-6892
▁रोशनी	-6893
▁धर्मों	-6894
▁निर्धन	-6895
▁मनोरंजन	-6896
▁किलोग्राम	-6897
▁पूर्वोत्तर	-6898
▁मैत्रीपूर्ण	-6899
▁बृह	-6900
▁स्वाय	-6901
भूतियों	-6902
▁अपीलीय	-6903
▁मुहैया	-6904
▁अक्टूबर	-6905
▁सम्बद्ध	-6906
कोर	-6907
▁कमा	-6908
▁व्र	-6909
▁सना	-6910
▁गूगल	-6911
▁पटेल	-6912
▁सन्न	-6913
▁उपाधि	-6914
▁इकट्ठा	-6915
▁डॉक्टर	-6916
▁निरसित	-6917
▁मधुमेह	-6918
▁मामूली	-6919
▁अनिश्चित	-6920
▁प्रस्तावों	-6921
ce	-6922
ावर	-6923
▁स्वे	-6924
▁कमांड	-6925
▁सोसाय	-6926
▁स्क्र	-6927
▁विकिरण	-6928
▁महानिदेश	-6929
▁कठिनाइयों	-6930
मीन	-6931
लाइ	-6932
▁बट	-6933
▁पटना	-6934
▁कामका	-6935
▁आशुतोष	-6936
▁निर्वहन	-6937
▁प्रवर्ग	-6938
▁निर्देशित	-6939
गों	-6940
चलन	-6941
मिया	-6942
स्पी	-6943
▁कैद	-6944
ष्कृत	-6945
▁सिखा	-6946
क्टरों	-6947
▁गोपाल	-6948
▁अभियोग	-6949
▁स्मारक	-6950
▁गर्भाशय	-6951
▁अधिकाधिक	-6952
▁सर्वश्रेष्ठ	-6953
oc	-6954
▁ऑप	-6955
▁बेहद	-6956
▁विषा	-6957
▁समाह	-6958
▁श्रेण	-6959
▁पुरुषों	-6960
▁समायोजन	-6961
▁झग	-6962
▁कदा	-6963
▁लखन	-6964
जातीय	-6965
▁गोवा	-6966
▁अंतर्व	-6967
▁जीवाणु	-6968
▁कॉपी	-6969
▁रेगि	-6970
▁गीतों	-6971
▁मौखिक	-6972
▁लार्ड	-6973
▁सौंपा	-6974
▁ब्यूरो	-6975
▁मनुष्यों	-6976
▁सत्याग्रह	-6977
कोट	-6978
हरण	-6979
शिंग	-6980
▁जॉन	-6981
▁सिने	-6982
▁कब्जा	-6983
▁प्रगा	-6984
▁बच्चन	-6985
▁प्रदाह	-6986
▁उपबंधित	-6987
▁स्थिरता	-6988
▁उपयोक्ता	-6989
▁निर्माता	-6990
▁गंग	-6991
▁समझी	-6992
▁झिल्ली	-6993
▁मस्जिद	-6994
▁साझीदारी	-6995
देन	-6996
▁अद्	-6997
▁अभिल	-6998
▁दरों	-6999
▁इंगित	-7000
▁बाज़ार	-7001
▁मांसपेश	-7002
ut	-7003
▁मरी	-7004
गारों	-7005
स्वती	-7006
▁क्षम	-7007
▁ओबामा	-7008
▁गम्भीर	-7009
▁संवेदना	-7010
▁उत्सर्जन	-7011
▁स्वीकार्य	-7012
ग्रा	-7013
▁बही	-7014
▁हैस	-7015
दायिक	-7016
शियों	-7017
▁कन्न	-7018
▁तृतीय	-7019
▁नीतिगत	-7020
▁उपयोगिता	-7021
▁दीक्षांत	-7022
▁स्वच्छता	-7023
पटल	-7024
सन्द	-7025
▁पतन	-7026
▁दौरा	-7027
▁विरा	-7028
▁इंद्र	-7029
▁मनाया	-7030
▁श्रील	-7031
▁हुसैन	-7032
▁शास्ति	-7033
वैज्ञानिक	-7034
▁विधानसभा	-7035
ेरा	-7036
▁छे	-7037
▁शंक	-7038
▁आगमन	-7039
▁चुंब	-7040
▁खर्चे	-7041
▁दुग्ध	-7042
▁स्टॉक	-7043
▁संस्थापित	-7044
रता	-7045
▁नास	-7046
▁भूक	-7047
▁माय	-7048
▁हेम	-7049
▁सालों	-7050
▁छोड़ने	-7051
▁तत्पश्च	-7052
▁हिंदुओं	-7053
▁सूचीबद्ध	-7054
▁उपास	-7055
▁द्रव	-7056
▁परिन	-7057
▁बोला	-7058
▁सुलझ	-7059
▁निंदा	-7060
▁पुत्री	-7061
▁अनुभवों	-7062
▁सचिवालय	-7063
▁प्रोटोकॉल	-7064
▁पण	-7065
▁ह्य	-7066
त्स्य	-7067
▁तमाम	-7068
▁नारी	-7069
▁रहकर	-7070
▁सर्ज	-7071
▁तिहाई	-7072
▁मुद्दा	-7073
▁वरीयता	-7074
▁संकीर्ण	-7075
▁माद	-7076
क्तता	-7077
्रेषण	-7078
▁बढ़े	-7079
▁आशंका	-7080
▁विषयक	-7081
▁बादशाह	-7082
परक	-7083
बाबू	-7084
▁कम्	-7085
▁फेफ	-7086
▁अनंत	-7087
▁आगामी	-7088
▁साकार	-7089
▁चौड़ाई	-7090
▁ज़रूरत	-7091
▁विख्यात	-7092
ow	-7093
▁पवन	-7094
▁जगत्	-7095
▁रेशम	-7096
▁ग्यार	-7097
▁मजबूर	-7098
▁स्नान	-7099
▁एल्गोर	-7100
▁पेशेवर	-7101
त्ती	-7102
▁डिवी	-7103
▁डेस्	-7104
▁सब्ज	-7105
▁हफ्त	-7106
▁बेचने	-7107
▁सोचता	-7108
▁उन्नति	-7109
▁नवीकरण	-7110
▁निरन्तर	-7111
▁स्वैच्छिक	-7112
▁विशेषज्ञों	-7113
गृह	-7114
जुट	-7115
र्ते	-7116
▁गले	-7117
▁मोन	-7118
▁चर्च	-7119
▁मुँह	-7120
▁आजीवन	-7121
▁किराए	-7122
▁जैविक	-7123
▁अध्यापक	-7124
▁पर्यटकों	-7125
▁सामुदायिक	-7126
हम	-7127
पेट	-7128
ाकू	-7129
िज़	-7130
ोटी	-7131
▁इम	-7132
लेखन	-7133
ाउंड	-7134
वृत्त	-7135
▁आघात	-7136
▁यूपी	-7137
▁पूछता	-7138
▁रंगमंच	-7139
▁निधियों	-7140
▁लड़कियों	-7141
ेंडर	-7142
▁आदत	-7143
▁कों	-7144
▁सुगम	-7145
▁उड़ान	-7146
▁फायदे	-7147
▁लौटने	-7148
▁देशवासियों	-7149
नें	-7150
ालों	-7151
▁धूल	-7152
▁घटित	-7153
▁सेवन	-7154
▁अर्जुन	-7155
▁प्रगाढ़	-7156
▁सहभागिता	-7157
▁विशेषाधिकार	-7158
ब्लू	-7159
▁अनि	-7160
▁कोर	-7161
▁जर्मन	-7162
▁दुर्गा	-7163
केल	-7164
वेल	-7165
दिता	-7166
▁रोज़	-7167
▁समाम	-7168
▁अवधारित	-7169
▁सुपुर्द	-7170
▁श्रीलंका	-7171
डऋ	-7172
मेर	-7173
▁निप	-7174
▁सटी	-7175
▁कर्ज	-7176
▁कहती	-7177
▁मणिप	-7178
▁रोका	-7179
▁सूरज	-7180
▁सुनकर	-7181
▁स्थलों	-7182
▁सोसायटी	-7183
मै	-7184
▁आश्रय	-7185
▁बॉक्स	-7186
▁तुरन्त	-7187
▁पीडीएफ	-7188
▁स्वतन्त्र	-7189
न्ता	-7190
ार्द	-7191
ूर्त	-7192
▁अण्ड	-7193
ढ़ियों	-7194
संख्यक	-7195
▁उपहार	-7196
▁कपड़ा	-7197
▁मेहनत	-7198
▁आपत्ति	-7199
▁निविदा	-7200
▁प्रवास	-7201
▁सृष्टि	-7202
▁विनियमित	-7203
▁परियोजनाएं	-7204
▁कार्यकलापों	-7205
मलव	-7206
बाज़	-7207
स्तर	-7208
ोहित	-7209
▁कड़	-7210
▁पावर	-7211
▁टर्मिनल	-7212
▁सतर्कता	-7213
▁अन्तर्राष्ट्रीय	-7214
डू	-7215
ंचन	-7216
याम	-7217
याव	-7218
ाणु	-7219
▁इट	-7220
चित्य	-7221
▁मन्द	-7222
▁हटाया	-7223
▁लक्ष्मण	-7224
▁परिदृश्य	-7225
▁केन्द्रित	-7226
▁दायित्वों	-7227
ख्	-7228
▁औरत	-7229
ड्यूल	-7230
ान्तर	-7231
▁सुविध	-7232
▁संचिका	-7233
▁साथियों	-7234
▁लेखापरीक्षा	-7235
▁गत	-7236
▁भूट	-7237
▁बनकर	-7238
▁खारिज	-7239
▁व्यास	-7240
▁अवलोकन	-7241
▁कुटुम्ब	-7242
▁निर्दोष	-7243
▁दार	-7244
न्नाथ	-7245
▁एकजुट	-7246
▁डेस्कट	-7247
▁मंत्रालयों	-7248
नद	-7249
टकर	-7250
िने	-7251
▁पटल	-7252
▁दशमलव	-7253
▁निकले	-7254
रूद्दीन	-7255
चन्द	-7256
बूती	-7257
ोर्स	-7258
▁टेल	-7259
▁रिवा	-7260
▁सिंग	-7261
▁खोलें	-7262
▁निदान	-7263
▁प्रोफ	-7264
▁परिचालन	-7265
▁सरस्वती	-7266
▁दुरुपयोग	-7267
निष	-7268
▁मुआ	-7269
▁सैक	-7270
▁लोगो	-7271
▁कार्यकाल	-7272
▁गोर	-7273
▁मैस	-7274
▁डिफ़	-7275
▁पहुँचा	-7276
▁मेमोरी	-7277
▁रणनीति	-7278
▁मूल्यवान	-7279
टरी	-7280
राई	-7281
▁किले	-7282
▁यज्ञ	-7283
र्याप्त	-7284
▁अंतरिम	-7285
▁दीवारों	-7286
▁सामर्थ्य	-7287
चु	-7288
▁घोर	-7289
▁खातों	-7290
▁पूर्वक	-7291
▁ईमानदारी	-7292
▁प्रगतिशील	-7293
हि	-7294
हे	-7295
▁ऋतु	-7296
▁सुग	-7297
हीनता	-7298
▁अन्न	-7299
▁योनि	-7300
▁बोलने	-7301
▁अध्यादेश	-7302
▁डेस्कटॉप	-7303
▁पद्धतियों	-7304
▁In	-7305
▁गर	-7306
▁आलेख	-7307
▁इनसे	-7308
▁नानक	-7309
▁जिसमे	-7310
▁जीवंत	-7311
▁प्रचुर	-7312
▁गंभीरता	-7313
ैम	-7314
चों	-7315
ांट	-7316
पादक	-7317
रेशन	-7318
▁समाहित	-7319
▁निर्वाह	-7320
▁संक्रिया	-7321
▁शक	-7322
▁कमल	-7323
▁नाज	-7324
▁अभिन्न	-7325
▁जगन्नाथ	-7326
▁मित्रता	-7327
▁स्थानांतरित	-7328
ir	-7329
न्च	-7330
्डी	-7331
▁आओ	-7332
▁उछ	-7333
▁मैथ	-7334
▁वसूल	-7335
स्वामी	-7336
▁अन्तः	-7337
▁सभाओं	-7338
▁खिलाड़ी	-7339
▁संतुलित	-7340
▁कण	-7341
बर्ट	-7342
▁लची	-7343
▁लाए	-7344
▁गयीं	-7345
▁ड्रग	-7346
▁मानों	-7347
▁कहलाता	-7348
▁डिवीजन	-7349
▁निक्षेप	-7350
ीट	-7351
▁re	-7352
▁गेट	-7353
▁छेद	-7354
▁नरम	-7355
▁बदलें	-7356
▁हैसियत	-7357
▁व्याकरण	-7358
▁गतिविधियां	-7359
ैड	-7360
ित्	-7361
▁१६	-7362
र्षि	-7363
▁खपत	-7364
▁कॉन्	-7365
▁नामों	-7366
सेल	-7367
मार्क	-7368
▁बहुल	-7369
▁मेहर	-7370
▁अस्पष्ट	-7371
▁विचित्र	-7372
एव	-7373
ाजा	-7374
ियस	-7375
ुलर	-7376
सागर	-7377
ृहीत	-7378
▁आधी	-7379
▁मुर	-7380
▁बंधन	-7381
▁स्या	-7382
▁फॉर्म	-7383
▁सेंटर	-7384
▁मेडिकल	-7385
▁यात्रियों	-7386
▁आवं	-7387
▁जबर	-7388
वर्तन	-7389
िकेशन	-7390
▁चलना	-7391
धारकों	-7392
▁पंद्र	-7393
▁लाहौर	-7394
▁निकालना	-7395
▁संरक्षित	-7396
▁क्रियाकलाप	-7397
▁निर्माताओं	-7398
ंठ	-7399
▁अनो	-7400
▁गौण	-7401
स्ट्र	-7402
▁घड़ी	-7403
▁टीवी	-7404
▁जितने	-7405
▁लड़का	-7406
▁परजीवी	-7407
▁पाठकों	-7408
▁अतिक्रमण	-7409
▁हार्डवेयर	-7410
ओएस	-7411
बड़	-7412
ोदय	-7413
▁II	-7414
▁आँक	-7415
▁केल	-7416
▁ग्लो	-7417
▁आवाज़	-7418
▁तेलुग	-7419
▁मूर्ख	-7420
▁स्टाफ	-7421
▁प्रभुत्व	-7422
▁विनियमों	-7423
▁निष्पादित	-7424
▁प्रजातियों	-7425
ँजी	-7426
▁थै	-7427
स्सी	-7428
▁सुस	-7429
▁पड़ोस	-7430
▁संतान	-7431
▁निराशा	-7432
▁प्रौढ़	-7433
▁बंदरगाह	-7434
▁हानिकारक	-7435
ॉय	-7436
ोई	-7437
ोनी	-7438
द्रा	-7439
▁एंव	-7440
▁चूक	-7441
▁फौज	-7442
▁सती	-7443
▁दौरे	-7444
▁वर्षो	-7445
▁गतिशील	-7446
▁विच्छेद	-7447
▁शास्त्रीय	-7448
▁उपभोक्ताओं	-7449
▁आस्ट्रेलिया	-7450
▁गवाह	-7451
▁नाइट	-7452
▁निरी	-7453
▁प्रीम	-7454
▁वापिस	-7455
▁संयोग	-7456
▁आंकड़ा	-7457
▁ड्राइव	-7458
▁बढ़ाया	-7459
▁चिह्नित	-7460
▁बदरूद्दीन	-7461
िसा	-7462
▁नाय	-7463
ांजलि	-7464
▁आगरा	-7465
▁पुणे	-7466
▁मधुर	-7467
▁डोमेन	-7468
▁द्वारक	-7469
▁स्वायत्त	-7470
▁उदाहरणार्थ	-7471
▁दीर्घकालिक	-7472
लाप	-7473
▁तन	-7474
ment	-7475
▁वाई	-7476
▁वान	-7477
डियों	-7478
▁प्रक	-7479
▁संकु	-7480
▁पाण्ड	-7481
▁अर्पित	-7482
▁प्राणियों	-7483
ंतुक	-7484
तिया	-7485
▁आज़	-7486
▁धूप	-7487
्रोजन	-7488
▁रूचि	-7489
▁निर्ब	-7490
▁उर्वरक	-7491
▁दोबारा	-7492
▁प्रतिकर	-7493
विर	-7494
▁अधी	-7495
▁कैम	-7496
▁बचे	-7497
▁अतिथि	-7498
▁अनन्य	-7499
▁पड़ोसी	-7500
▁दंडादेश	-7501
▁प्रख्यात	-7502
ॉग	-7503
▁ओह	-7504
▁चट	-7505
▁भ्रूण	-7506
▁ललिता	-7507
▁कारकों	-7508
▁जाएंगी	-7509
▁वांछित	-7510
▁विपक्ष	-7511
▁संस्थाएं	-7512
▁अपर्याप्त	-7513
▁उद्यमियों	-7514
विद	-7515
शुदा	-7516
▁ढाल	-7517
▁रिव	-7518
िस्टर	-7519
▁लौटा	-7520
कृष्णन	-7521
▁ग्रुप	-7522
▁पैरों	-7523
▁श्रेय	-7524
▁अधिनियमों	-7525
ावत	-7526
सीआई	-7527
▁उपस	-7528
▁छंद	-7529
▁रिफ	-7530
दिग्ध	-7531
▁घायल	-7532
▁सख्त	-7533
▁मास्ट	-7534
▁सच्ची	-7535
▁मास्टर	-7536
▁सोवियत	-7537
▁क्रिस्ट	-7538
▁गुजराती	-7539
▁क्षमताओं	-7540
ुख	-7541
ोगी	-7542
्वित	-7543
▁किस्	-7544
▁मलया	-7545
▁इमारत	-7546
▁बलराम	-7547
्यात्मक	-7548
▁प्रतिमा	-7549
▁अधिग्रहण	-7550
▁निर्णायक	-7551
वेश	-7552
▁मृतक	-7553
▁सन्त	-7554
▁अकेला	-7555
▁बेकार	-7556
▁महादे	-7557
▁कीमतों	-7558
▁दिलचस्प	-7559
▁अनावश्यक	-7560
▁डिफ़ॉल्ट	-7561
▁संप्रदाय	-7562
कस	-7563
ity	-7564
नाल	-7565
▁उम	-7566
▁नॉ	-7567
वाया	-7568
विजन	-7569
▁उगा	-7570
▁गिल	-7571
▁फॉर	-7572
▁बान	-7573
▁तात्	-7574
▁दायर	-7575
▁पहाड़	-7576
िरपेक्ष	-7577
▁परिसीमा	-7578
▁निदेशालय	-7579
▁युक्तियुक्त	-7580
ig	-7581
op	-7582
ियाई	-7583
▁फूट	-7584
▁हरा	-7585
ोग्रा	-7586
▁इंजन	-7587
▁टांग	-7588
▁साधना	-7589
▁हेक्ट	-7590
▁शासकों	-7591
ंडे	-7592
▁हँ	-7593
▁दीप	-7594
▁मोर	-7595
हत्या	-7596
▁क्षे	-7597
▁धारक	-7598
▁पाती	-7599
▁राज़्य	-7600
▁आंबेडकर	-7601
▁डेटाबेस	-7602
ुलिप	-7603
ोत्स	-7604
▁कूद	-7605
▁सौह	-7606
विधिक	-7607
▁नाट्य	-7608
▁उद्धृत	-7609
▁संपरिव	-7610
▁निःशुल्क	-7611
ड़न	-7612
ुलन	-7613
▁जज	-7614
स्वी	-7615
▁ऊंट	-7616
▁जर्	-7617
▁झुक	-7618
▁बुश	-7619
युद्ध	-7620
▁अतएव	-7621
▁जादू	-7622
पोरेशन	-7623
ियारों	-7624
▁जमींद	-7625
ाटी	-7626
▁बश	-7627
▁फर्	-7628
▁बाइ	-7629
▁कहकर	-7630
▁घातक	-7631
▁विगत	-7632
▁सीडी	-7633
▁एआईआर	-7634
▁तात्प	-7635
▁मुस्क	-7636
▁सनातन	-7637
ुस्तानी	-7638
▁सावधान	-7639
▁संपादित	-7640
▁साक्षियों	-7641
▁इधर	-7642
▁मोती	-7643
▁लखनऊ	-7644
क्षकों	-7645
▁अद्भुत	-7646
▁पिछड़े	-7647
▁महाद्वीप	-7648
▁विधायिका	-7649
▁द्वारकानाथ	-7650
▁पारदर्शिता	-7651
▁प्राधिकारियों	-7652
ers	-7653
्तन	-7654
▁बिख	-7655
विचार	-7656
▁सरोज	-7657
िवारिक	-7658
▁जानती	-7659
▁भागवत	-7660
▁टुकड़े	-7661
▁प्रेमी	-7662
▁रेड्डी	-7663
▁पासवर्ड	-7664
▁प्रपत्र	-7665
▁प्रशांत	-7666
▁we	-7667
▁नकल	-7668
▁पडे	-7669
▁भली	-7670
ंतव्य	-7671
▁मिलन	-7672
▁क्षमा	-7673
▁चेहरा	-7674
▁अनुबंध	-7675
▁उत्तरा	-7676
▁जानबूझ	-7677
▁अपशिष्ट	-7678
▁कूटशब्द	-7679
▁कार्यवाहियां	-7680
शिप	-7681
▁भि	-7682
कार्	-7683
ष्णा	-7684
िकरण	-7685
ुल्ला	-7686
▁तत्स	-7687
▁नर्मदा	-7688
▁कंपनियां	-7689
आरएस	-7690
▁असं	-7691
▁कन्व	-7692
▁कोटि	-7693
▁चारा	-7694
▁भयान	-7695
▁माया	-7696
▁भूटान	-7697
▁आरक्षण	-7698
▁बालकों	-7699
▁आनुवंशिक	-7700
िपी	-7701
षकों	-7702
▁आइए	-7703
▁शिल	-7704
▁संश	-7705
▁छिपा	-7706
▁एक्सट	-7707
▁एजेंट	-7708
▁लगाकर	-7709
▁लड़ने	-7710
▁सिंधु	-7711
▁परेशानी	-7712
▁विवेकान	-7713
▁संख़्या	-7714
▁पर्यवेक्षण	-7715
ज्ह	-7716
▁तद	-7717
▁सऋ	-7718
ियॉँ	-7719
▁मौल	-7720
▁वेग	-7721
▁ऊतकों	-7722
▁दायरे	-7723
▁प्रां	-7724
▁दुर्बल	-7725
▁शान्ति	-7726
▁निरपेक्ष	-7727
रेटर	-7728
ायती	-7729
▁बेज	-7730
▁चलकर	-7731
▁भट्ट	-7732
▁टेस्ट	-7733
▁भेजें	-7734
डक	-7735
▁टा	-7736
▁बक	-7737
ैर्य	-7738
▁छोर	-7739
िल्ला	-7740
▁सीखा	-7741
▁बनायी	-7742
▁अर्द्ध	-7743
▁औचित्य	-7744
▁हड़ताल	-7745
▁समावेशी	-7746
▁अनुमानित	-7747
▁अभिप्राय	-7748
▁दिलचस्पी	-7749
▁पारिवारिक	-7750
गुण	-7751
▁अवयव	-7752
▁गिराव	-7753
▁धारित	-7754
▁नवीनतम	-7755
▁चुनावों	-7756
ढे	-7757
वाट	-7758
सनी	-7759
ॉजी	-7760
्वत	-7761
मुना	-7762
▁फेड	-7763
▁फलों	-7764
▁बदलना	-7765
▁महर्षि	-7766
▁प्रदेशों	-7767
धर्म	-7768
▁शाल	-7769
वर्धन	-7770
▁शाही	-7771
▁तत्पर	-7772
▁गरीबों	-7773
▁मत्स्य	-7774
▁एमएसएमई	-7775
▁गुणसूत्र	-7776
दाई	-7777
फ़ा	-7778
डिंग	-7779
ेलना	-7780
▁पदक	-7781
धिकरण	-7782
यंत्र	-7783
▁काटने	-7784
▁निकला	-7785
▁मजबूती	-7786
▁समर्थक	-7787
▁लक्षणों	-7788
▁सत्यापित	-7789
ag	-7790
▁or	-7791
शिला	-7792
ियमित	-7793
▁धोखा	-7794
▁विकृत	-7795
▁उदासीन	-7796
▁संपादक	-7797
▁परिपूर्ण	-7798
▁विक्रेता	-7799
▁श्रमिकों	-7800
▁वित्तपोषण	-7801
▁अंतर्विष्ट	-7802
बुल	-7803
ालक	-7804
नेशनल	-7805
▁मेगा	-7806
▁दावों	-7807
▁संजाल	-7808
▁इच्छुक	-7809
▁बंगाली	-7810
नाई	-7811
रेन	-7812
ुल्य	-7813
▁मेर	-7814
▁ईमेल	-7815
▁दादा	-7816
▁निराश	-7817
▁शिष्य	-7818
▁अनुभाग	-7819
▁आरोपों	-7820
▁काश्मीर	-7821
▁मंत्रिम	-7822
▁वृह	-7823
▁चोरी	-7824
▁वनों	-7825
▁विवश	-7826
▁अस्थिर	-7827
▁निवेदन	-7828
▁मुख़्य	-7829
▁आश्चर्यजनक	-7830
RO	-7831
ef	-7832
ैंट	-7833
न्दन	-7834
पेयी	-7835
▁निब	-7836
ारण्य	-7837
▁अन्ध	-7838
▁अम्ल	-7839
▁आजीव	-7840
▁पांव	-7841
▁बजाए	-7842
▁माला	-7843
▁अभिनय	-7844
▁सर्वथा	-7845
▁संदिग्ध	-7846
ul	-7847
ुद	-7848
यित	-7849
राग	-7850
▁उलझ	-7851
▁एन्	-7852
▁जिह	-7853
काव्य	-7854
ताबिक	-7855
तीकरण	-7856
र्कों	-7857
▁ईस्ट	-7858
▁जबरद	-7859
▁दर्जा	-7860
▁निशान	-7861
▁श्वसन	-7862
▁प्रत्यु	-7863
▁प्रवासी	-7864
▁क्रियाओं	-7865
०ख	-7866
नेस	-7867
▁कन	-7868
▁कैल	-7869
▁भाज	-7870
▁पायी	-7871
▁जमाने	-7872
▁संचरण	-7873
▁गिरावट	-7874
▁तात्पर्य	-7875
▁जनजातियों	-7876
▁प्रतिभूतियों	-7877
▁भोज	-7878
▁रेट	-7879
▁गोला	-7880
▁परिधि	-7881
▁फांसी	-7882
▁भयानक	-7883
▁द्रव्य	-7884
▁प्रौद्योगिकियों	-7885
बंद	-7886
शेर	-7887
ारो	-7888
्रल	-7889
▁सउ	-7890
कक्ष	-7891
▁तित	-7892
▁आबंटन	-7893
▁चरणों	-7894
▁स्टाक	-7895
▁निरूपित	-7896
▁मुताबिक	-7897
ारिक	-7898
▁टेप	-7899
▁डाइ	-7900
▁अनदे	-7901
▁कराए	-7902
▁गणेश	-7903
▁पूरक	-7904
▁बाबा	-7905
▁अरुणा	-7906
▁स्थाई	-7907
▁अनुष्ठ	-7908
▁एकीकरण	-7909
▁सूचनाओं	-7910
ap	-7911
▁बं	-7912
बंदी	-7913
▁दाँ	-7914
▁लेबल	-7915
वस्थित	-7916
▁आचार्य	-7917
▁मंत्रि	-7918
▁अभिरक्षा	-7919
▁बहुमूल्य	-7920
▁आत्महत्या	-7921
▁तात्कालिक	-7922
▁विशेषताओं	-7923
▁संभावनाओं	-7924
▁रच	-7925
▁आश्र	-7926
▁क्ला	-7927
▁रसीद	-7928
▁कोष्ठ	-7929
▁साम्य	-7930
▁दंडनीय	-7931
▁दरवाजे	-7932
▁पर्यावरणीय	-7933
थल	-7934
ँगा	-7935
▁Go	-7936
्रीट	-7937
▁अमीर	-7938
▁लेगा	-7939
नाइटेड	-7940
▁जरुरी	-7941
▁मारने	-7942
▁मूलतः	-7943
▁चित्रों	-7944
▁सौहार्द	-7945
▁रजिस्ट्र	-7946
िग	-7947
तको	-7948
ाजत	-7949
▁लायक	-7950
▁आभूषण	-7951
▁गवर्न	-7952
▁वयस्क	-7953
▁वाशिंग	-7954
▁व्यर्थ	-7955
▁स्थानांतरण	-7956
un	-7957
वट	-7958
्क	-7959
ome	-7960
थाम	-7961
बों	-7962
▁टॉ	-7963
▁अवगत	-7964
▁उतने	-7965
▁सुपर	-7966
▁गेहूं	-7967
▁घोड़े	-7968
▁बिस्त	-7969
▁मार्क	-7970
र्थियों	-7971
▁कामकाज	-7972
▁नाटकीय	-7973
▁फ़ॉन्ट	-7974
▁संस्कार	-7975
िती	-7976
▁पग	-7977
▁हाज	-7978
▁पाइप	-7979
▁दवाओं	-7980
▁सुनाई	-7981
▁उद्यमी	-7982
▁मणिपुर	-7983
▁क्रमांक	-7984
▁स्वदेशी	-7985
डम	-7986
पानी	-7987
▁ध्य	-7988
▁रत्न	-7989
▁सोना	-7990
▁पीड़क	-7991
▁आवासीय	-7992
▁सिनेमा	-7993
▁महिलाएं	-7994
▁मास्टर्स	-7995
कश	-7996
वंत	-7997
फ़्ट	-7998
फीति	-7999
ष्मा	-8000
▁खैर	-8001
▁मीन	-8002
▁पुरी	-8003
▁वाणी	-8004
▁सटीक	-8005
▁विनोद	-8006
▁अग्रवाल	-8007
▁नियोजित	-8008
▁सुप्रीम	-8009
▁मार्गदर्शक	-8010
▁ढूँ	-8011
र्ध्व	-8012
▁लगाई	-8013
▁छोड़ा	-8014
▁जरुरत	-8015
▁मुफ्त	-8016
▁यातना	-8017
▁सोचना	-8018
▁बलिदान	-8019
▁मिश्रा	-8020
▁प्रतिवेदन	-8021
भावी	-8022
स्ते	-8023
ापित	-8024
▁एपी	-8025
▁ओवर	-8026
▁जोड	-8027
▁पडा	-8028
▁जंतु	-8029
▁पद्म	-8030
▁क्रोध	-8031
▁छिद्र	-8032
▁बुराई	-8033
▁सच्चा	-8034
▁पंद्रह	-8035
▁बढ़ाकर	-8036
▁नगरपालिका	-8037
एनए	-8038
रात	-8039
ोला	-8040
यंकर	-8041
▁खनन	-8042
▁खाल	-8043
▁डेल	-8044
▁नली	-8045
▁पाय	-8046
▁बैल	-8047
▁आन्त	-8048
▁एकड़	-8049
▁बोले	-8050
▁समीप	-8051
▁जोड़ी	-8052
▁फ्रेम	-8053
▁उपरांत	-8054
▁पूछताछ	-8055
▁बिलियन	-8056
▁बाजारों	-8057
्ली	-8058
ड़की	-8059
▁उठे	-8060
▁घुम	-8061
▁मौके	-8062
▁स्पी	-8063
▁असंगत	-8064
▁आँखों	-8065
▁उपनिष	-8066
▁कम्पन	-8067
▁कम्यु	-8068
▁खंडों	-8069
▁बनाएँ	-8070
▁विलियम	-8071
▁सार्वभौमिक	-8072
दह	-8073
लत	-8074
पहर	-8075
▁कसौ	-8076
ारायण	-8077
▁इण्ड	-8078
▁कारी	-8079
ास्टिक	-8080
▁आज्ञा	-8081
▁खेतों	-8082
▁गार्ड	-8083
▁चार्ट	-8084
▁चाहें	-8085
▁पंचाट	-8086
▁विकार	-8087
▁विकेट	-8088
▁राजकीय	-8089
▁चुंबकीय	-8090
▁सरकारें	-8091
▁रूपांतरण	-8092
आइ	-8093
ताई	-8094
वीर	-8095
▁धनी	-8096
▁भोग	-8097
▁डाली	-8098
▁नींद	-8099
दृष्टि	-8100
▁नजदीक	-8101
▁निषेध	-8102
▁करवाने	-8103
▁ठहराया	-8104
▁सूचकांक	-8105
मेट	-8106
सात	-8107
िवे	-8108
चनों	-8109
िल्ल	-8110
▁अभय	-8111
ल्पित	-8112
ल्लाह	-8113
श्यों	-8114
▁प्रॉ	-8115
▁बगैर	-8116
▁यथास	-8117
▁समेत	-8118
▁उठाकर	-8119
▁खाड़ी	-8120
▁प्रोज	-8121
▁अंतररा	-8122
ate	-8123
जान	-8124
▁इश	-8125
▁शम	-8126
लापन	-8127
▁जूट	-8128
बोर्ड	-8129
▁अस्व	-8130
प्रदेश	-8131
▁चित्त	-8132
▁स्राव	-8133
▁पेड़ों	-8134
▁लार्वा	-8135
▁अनियमित	-8136
▁स्त्रोत	-8137
▁प्रस्तुति	-8138
सील	-8139
िप्र	-8140
ॉर्ट	-8141
द्रता	-8142
▁मेनन	-8143
ष्णुता	-8144
▁प्रको	-8145
▁भूकंप	-8146
▁लेखों	-8147
▁विघटन	-8148
▁गंतव्य	-8149
▁तेलुगु	-8150
▁रोकथाम	-8151
▁प्रवाहित	-8152
ीश	-8153
दाद	-8154
नगर	-8155
▁झट	-8156
माला	-8157
▁पित	-8158
▁बूट	-8159
▁मजा	-8160
▁लहर	-8161
▁साख	-8162
वाहिक	-8163
▁पेपर	-8164
▁लिखत	-8165
▁पुकार	-8166
▁भयंकर	-8167
▁निरस्त	-8168
▁संपादन	-8169
▁बीमाकर्ता	-8170
▁१७	-8171
कावट	-8172
ट्टा	-8173
ंजस्य	-8174
▁जीने	-8175
▁ड्यू	-8176
▁वक्र	-8177
▁बालों	-8178
▁समुच्च	-8179
▁अद्वितीय	-8180
▁ऑस्ट्रेलिया	-8181
वो	-8182
०वें	-8183
▁रिए	-8184
▁कैसा	-8185
▁दायी	-8186
▁प्रम	-8187
▁अवतार	-8188
▁पुर्त	-8189
▁लगेगा	-8190
िष्णुता	-8191
▁अग्रसर	-8192
▁कार्मिक	-8193
▁प्रतिलिपि	-8194
▁महानिदेशक	-8195
▁क्रियाकलापों	-8196
▁रोब	-8197
ानिर्	-8198
▁बेहत	-8199
▁मुल्क	-8200
▁सर्वा	-8201
▁उद्धरण	-8202
▁बैठकों	-8203
▁आजीविका	-8204
▁चाहेंगे	-8205
▁स्नातको	-8206
▁सम्भावना	-8207
▁सिफारिशें	-8208
लेस	-8209
▁ऋषि	-8210
▁शार	-8211
▁असंख	-8212
▁हटाए	-8213
्रीकरण	-8214
▁ट्रैक	-8215
▁हटाना	-8216
▁ट्रांस	-8217
▁दिखायी	-8218
▁रात्रि	-8219
▁वाजपेयी	-8220
▁प्रभावों	-8221
▁बीमारियों	-8222
AT	-8223
ंजाइ	-8224
िथ्म	-8225
▁जोशी	-8226
▁बदलते	-8227
▁राजीव	-8228
▁हल्के	-8229
▁अंडमान	-8230
▁आत्मनि	-8231
▁चमत्कार	-8232
▁नियन्त्रण	-8233
▁सुभाषबाबू	-8234
▁अंतःस्थापित	-8235
ch	-8236
▁उब	-8237
आईटी	-8238
कर्म	-8239
ात्य	-8240
▁फेर	-8241
▁बढ़ो	-8242
▁मुआव	-8243
क्षमता	-8244
▁शासकीय	-8245
▁नीतियां	-8246
▁व्याप्त	-8247
▁उत्पादित	-8248
▁प्रारम्भिक	-8249
▁विशेषज्ञता	-8250
्ज	-8251
सेन	-8252
ेली	-8253
ंकित	-8254
आईसी	-8255
न्हा	-8256
▁मेनू	-8257
▁पांडे	-8258
▁सरलता	-8259
िश्रमिक	-8260
▁दृढ़ता	-8261
▁मुद्रण	-8262
▁सेनाओं	-8263
▁चित्रित	-8264
um	-8265
लु	-8266
बोध	-8267
▁शत	-8268
न्सी	-8269
▁बनती	-8270
▁सांप	-8271
▁सौदे	-8272
▁परिपथ	-8273
▁शुष्क	-8274
▁स्विच	-8275
▁विजेता	-8276
▁फिल्मों	-8277
▁मुद्रित	-8278
▁मानचित्र	-8279
▁उपाध्यक्ष	-8280
▁राधाकृष्णन	-8281
▁प्रतिस्थापित	-8282
ंड़	-8283
बुद	-8284
ोडा	-8285
▁लू	-8286
ुग्ण	-8287
▁साठ	-8288
▁स्फ	-8289
▁चलाए	-8290
▁ब्रे	-8291
▁सभ्य	-8292
▁स्टी	-8293
▁अर्जी	-8294
▁भीतरी	-8295
▁लाभदायक	-8296
▁दिनांकित	-8297
▁पारिश्रमिक	-8298
ीलाल	-8299
▁बला	-8300
▁किला	-8301
▁ज्वर	-8302
▁सूखे	-8303
▁तार्क	-8304
▁क्षेत्रफल	-8305
▁सेवानिवृत्त	-8306
माही	-8307
▁अलं	-8308
▁क्यो	-8309
▁बलों	-8310
▁अरविंद	-8311
▁प्रामा	-8312
▁मशीनों	-8313
▁तीव्रता	-8314
▁दर्शाया	-8315
▁स्वर्गी	-8316
▁प्रीमियम	-8317
▁स्नातकोत्तर	-8318
ia	-8319
▁ताक	-8320
▁पोषक	-8321
▁मुना	-8322
▁वकाल	-8323
▁तालिका	-8324
▁दिलाने	-8325
▁शांतिपूर्ण	-8326
बर्ग	-8327
राइट	-8328
▁लेट	-8329
▁वात	-8330
▁साई	-8331
▁क्षय	-8332
▁लीला	-8333
▁सिलस	-8334
▁प्रभु	-8335
▁चिंतित	-8336
▁प्रिंट	-8337
▁सिक्किम	-8338
▁वर्गीकृत	-8339
▁समितियां	-8340
▁पुनर्निर्	-8341
▁विशेषताएं	-8342
▁संभावनाएं	-8343
▁हस्तांतरण	-8344
▁अंतर्निहित	-8345
▁अनुपस्थिति	-8346
▁थल	-8347
▁पंथ	-8348
▁लाप	-8349
त्तूर	-8350
▁टिका	-8351
▁ड्रा	-8352
▁बढ़ी	-8353
▁अवशेष	-8354
▁पड़ते	-8355
▁पुर्तग	-8356
▁बिहारी	-8357
▁स्थगित	-8358
▁स्वर्गीय	-8359
▁हेक्टेयर	-8360
म्य	-8361
ैंस	-8362
▁ae	-8363
▁कमर	-8364
▁कोण	-8365
▁सीए	-8366
▁खादी	-8367
▁चंडी	-8368
▁फैले	-8369
▁हमसे	-8370
▁डालना	-8371
▁स्वयंसे	-8372
▁आविष्कार	-8373
▁उत्पत्ति	-8374
▁रेगिस्तान	-8375
ER	-8376
पृ	-8377
▁नह	-8378
▁रथ	-8379
बिया	-8380
▁खोला	-8381
▁शिरा	-8382
▁हरित	-8383
▁हुईं	-8384
▁अवसाद	-8385
▁आंखें	-8386
▁कारित	-8387
▁तुर्क	-8388
▁फ्रां	-8389
▁ब्रिता	-8390
▁ग्रंथों	-8391
▁व्यायाम	-8392
▁fe	-8393
▁लय	-8394
▁इंच	-8395
▁कीं	-8396
▁तिव	-8397
▁सघन	-8398
नागरी	-8399
▁धमकी	-8400
▁धीमी	-8401
▁फर्क	-8402
▁युवक	-8403
▁सिवा	-8404
▁दर्शक	-8405
▁पूँजी	-8406
▁सुप्र	-8407
▁जनजातीय	-8408
▁संशोधनों	-8409
▁पारिस्थित	-8410
▁प्लास्टिक	-8411
किक	-8412
लीफ	-8413
विल	-8414
▁the	-8415
▁पुत	-8416
मुक्त	-8417
▁कुर्	-8418
▁तिलक	-8419
▁बन्ध	-8420
▁महाव	-8421
▁ट्रिब	-8422
▁भ्रमण	-8423
▁व्यंग	-8424
▁श्वास	-8425
▁अंशदान	-8426
▁मणीलाल	-8427
▁सर्किट	-8428
▁हथियारों	-8429
▁प्रदर्शनी	-8430
फु	-8431
णीत	-8432
वात	-8433
▁ढी	-8434
ogle	-8435
बंधन	-8436
▁com	-8437
▁अखंड	-8438
▁क़ुर	-8439
▁गिरा	-8440
▁बेशक	-8441
▁यकीन	-8442
▁सउदी	-8443
▁समनु	-8444
फ्रेंस	-8445
▁चलाना	-8446
▁निरोध	-8447
▁चुपचाप	-8448
▁ताजमहल	-8449
▁नारियल	-8450
▁भौतिकी	-8451
▁सीरिया	-8452
▁विश्राम	-8453
▁उपक्रमों	-8454
▁समाविष्ट	-8455
▁सहयोगियों	-8456
ङ्ग	-8457
बाई	-8458
▁लेनी	-8459
▁सुलह	-8460
▁दोपहर	-8461
▁ग्लोबल	-8462
▁मुकाबला	-8463
▁न्यायपीठ	-8464
▁सामंजस्य	-8465
▁उत्तराधिकारी	-8466
जिन	-8467
ोन्	-8468
▁मठ	-8469
न्दी	-8470
प्रण	-8471
▁नाप	-8472
▁अमान	-8473
▁अष्ट	-8474
▁बंदी	-8475
▁साइन	-8476
▁उत्पी	-8477
▁कार्ट	-8478
▁चक्कर	-8479
▁धैर्य	-8480
▁महावि	-8481
▁मानकर	-8482
▁पर्यटक	-8483
▁प्रिंटर	-8484
▁नियोक्ता	-8485
od	-8486
te	-8487
▁ओल	-8488
ड़ने	-8489
ब्बा	-8490
▁आवे	-8491
▁गढ़	-8492
▁झलक	-8493
▁ढाँ	-8494
▁हॉल	-8495
द्वार	-8496
▁बताए	-8497
▁मंदी	-8498
ावस्था	-8499
▁पत्तन	-8500
▁समझती	-8501
▁समूचे	-8502
ब्दियों	-8503
▁लैंगिक	-8504
▁शृंखला	-8505
▁मॉड्यूल	-8506
▁समन्वित	-8507
▁प्रसारित	-8508
▁यश	-8509
न्नी	-8510
▁ताजा	-8511
▁बुरे	-8512
▁मापन	-8513
▁सतत्	-8514
▁आखिरी	-8515
▁जगहों	-8516
▁पढ़ना	-8517
▁करूंगा	-8518
▁निमंत्र	-8519
▁नैतिकता	-8520
▁इन्होंने	-8521
▁बंट	-8522
▁अम्ब	-8523
▁बेटा	-8524
▁मोटी	-8525
▁क्षेञ	-8526
▁तुलसी	-8527
▁नतीजा	-8528
▁विशेन	-8529
▁संसद्	-8530
▁सौन्द	-8531
▁हिमनद	-8532
▁निकोबार	-8533
▁परिप्रे	-8534
▁पारदर्शी	-8535
▁ब्रितानी	-8536
डब	-8537
द्घ	-8538
पाट	-8539
रेज	-8540
िमी	-8541
ुवा	-8542
▁वॉ	-8543
गणना	-8544
नामा	-8545
बारी	-8546
्यूम	-8547
▁गौतम	-8548
▁दीजिए	-8549
▁ध्येय	-8550
▁फारसी	-8551
▁मलयालम	-8552
▁परंपराओं	-8553
▁सम्बन्धों	-8554
▁एल्गोरिथ्म	-8555
▁रजिस्ट्रीकृत	-8556
शियन	-8557
▁जन्	-8558
स्कृत	-8559
हार्य	-8560
▁चाहा	-8561
▁देरी	-8562
▁नाना	-8563
▁बहुप	-8564
▁भण्ड	-8565
▁फाउंड	-8566
▁रंगों	-8567
ंत्रिकी	-8568
▁कानपुर	-8569
▁तयशुदा	-8570
▁रिश्वत	-8571
▁श्रेणियों	-8572
▁आधुनिकीकरण	-8573
भास	-8574
लोक	-8575
▁AR	-8576
फ़्त	-8577
▁तंब	-8578
क्टरी	-8579
क्सीजन	-8580
▁घटकों	-8581
▁जॉर्ज	-8582
▁जापानी	-8583
अली	-8584
फलक	-8585
वाड़	-8586
▁गुस्	-8587
▁दिखता	-8588
▁सिंधी	-8589
▁अपनाना	-8590
▁आबंटित	-8591
▁निकाले	-8592
▁पोर्टल	-8593
▁सदियों	-8594
ूति	-8595
▁जौ	-8596
▁ढ़	-8597
ब्रे	-8598
▁उदर	-8599
▁गरम	-8600
▁फंड	-8601
▁सफ़	-8602
वस्तु	-8603
▁पद्य	-8604
▁सिटी	-8605
▁काल्प	-8606
▁कोल्ह	-8607
▁सहारे	-8608
▁बिस्तर	-8609
▁आदर्शों	-8610
▁शब्दावली	-8611
जि	-8612
विड	-8613
▁बृ	-8614
▁डूब	-8615
▁पिट	-8616
▁पैट	-8617
▁बसे	-8618
▁युसु	-8619
क्षेपण	-8620
▁गर्भव	-8621
धारियों	-8622
▁तिवारी	-8623
▁प्रदाता	-8624
▁टेलीविजन	-8625
▁निवासियों	-8626
डिश	-8627
लेन	-8628
्टे	-8629
पकों	-8630
▁खिस	-8631
▁भीम	-8632
▁क्षु	-8633
▁दुश्म	-8634
▁विराम	-8635
▁Google	-8636
▁अधिष्ठ	-8637
▁स्थावर	-8638
▁विधिज्ञ	-8639
▁ट्रिब्यू	-8640
▁देवनागरी	-8641
ुका	-8642
▁sa	-8643
गरीय	-8644
ावार	-8645
ॉक्स	-8646
▁इंट	-8647
▁कवर	-8648
▁मता	-8649
▁रवै	-8650
दायगी	-8651
▁आयाम	-8652
▁कहें	-8653
▁चालक	-8654
▁बनते	-8655
िपूर्ण	-8656
▁पुष्ट	-8657
▁मण्डल	-8658
▁हास्य	-8659
ोल्यूशन	-8660
▁चट्टान	-8661
▁निगमित	-8662
▁सारांश	-8663
▁भागीदारों	-8664
णता	-8665
नीस	-8666
ोरा	-8667
हाली	-8668
▁अवध	-8669
▁वाहक	-8670
▁सुखद	-8671
▁यूनिक	-8672
▁लिखें	-8673
▁प्रशासक	-8674
▁संस्थापक	-8675
▁उपन्यासों	-8676
▁मुख्यमंत्री	-8677
रीद	-8678
गांव	-8679
▁जनक	-8680
वश्यक	-8681
ेशनों	-8682
▁कामों	-8683
कारियों	-8684
▁कृतियों	-8685
▁अब्दुल्ला	-8686
▁महाविद्यालय	-8687
पै	-8688
ैश	-8689
ंजर	-8690
ीयर	-8691
ोग्य	-8692
▁Chr	-8693
▁अमी	-8694
▁नाभ	-8695
▁शाक	-8696
रलैंड	-8697
▁कृषक	-8698
▁पल्ल	-8699
▁भेड़	-8700
क्रमित	-8701
▁क्रोम	-8702
▁गुलाम	-8703
▁धाराओं	-8704
▁सेवाएँ	-8705
▁कित्तूर	-8706
▁पर्वतीय	-8707
▁भूतपूर्व	-8708
se	-8709
ुए	-8710
ध्द	-8711
▁pr	-8712
▁एह	-8713
▁किर	-8714
▁नित	-8715
▁अभिम	-8716
▁तैना	-8717
▁बांस	-8718
▁बादल	-8719
▁रावण	-8720
▁्याय	-8721
ध्यक्ष	-8722
ापूर्ण	-8723
▁जिज्ञ	-8724
▁नोड्स	-8725
▁युग्म	-8726
▁वकालत	-8727
▁हल्का	-8728
▁चिन्ता	-8729
▁नौसेना	-8730
▁प्रताप	-8731
▁नवान्वेषी	-8732
कै	-8733
ंकि	-8734
खाना	-8735
चेरी	-8736
▁चौक	-8737
िलोकन	-8738
▁फैली	-8739
▁जायगा	-8740
▁फैसले	-8741
▁उपासना	-8742
▁प्ररूप	-8743
▁प्रेरक	-8744
▁स्वार्थ	-8745
▁कार्यपाल	-8746
▁वाशिंगटन	-8747
गिक	-8748
थिल	-8749
बेट	-8750
ुखी	-8751
ीयों	-8752
▁खुर	-8753
▁दाल	-8754
▁हनु	-8755
▁गर्दन	-8756
▁रवाना	-8757
▁क्रमिक	-8758
▁चेन्नई	-8759
▁नामांकन	-8760
▁परिपत्र	-8761
▁अभिलिखित	-8762
▁फाउंडेशन	-8763
▁महाकाव्य	-8764
ub	-8765
मस	-8766
▁शव	-8767
िवास	-8768
▁अनू	-8769
▁घों	-8770
▁व्ह	-8771
▁ऋणों	-8772
पतियों	-8773
▁रोमां	-8774
▁वादों	-8775
▁बशर्ते	-8776
▁न्यूयार्क	-8777
▁व्यापारियों	-8778
आन	-8779
प्प	-8780
धारक	-8781
ल्ले	-8782
ितों	-8783
▁परो	-8784
▁मदर	-8785
▁मेह	-8786
▁शैल	-8787
बारों	-8788
▁परिल	-8789
▁लगाये	-8790
▁श्याम	-8791
▁उत्थान	-8792
▁विद्वत	-8793
▁किनारों	-8794
▁द्वीपों	-8795
▁जुर्माना	-8796
▁निर्भरता	-8797
▁अतिमानसिक	-8798
aoM	-8799
सीन	-8800
्ये	-8801
्वल	-8802
▁फो	-8803
▁छान	-8804
▁राजप	-8805
▁रुग्ण	-8806
▁परंतुक	-8807
▁राजवंश	-8808
▁सीमेंट	-8809
▁प्रत्युत्तर	-8810
नम	-8811
नियों	-8812
मियों	-8813
▁अविल	-8814
▁गाने	-8815
वर्षीय	-8816
▁क़्या	-8817
▁जीतने	-8818
▁परमिट	-8819
▁मंजिल	-8820
▁मुम्बई	-8821
▁दर्शकों	-8822
▁आस्तियां	-8823
▁अनुप्रयोगों	-8824
ंसी	-8825
रणीय	-8826
▁रघु	-8827
▁सीट	-8828
▁मृदा	-8829
▁अखबार	-8830
▁ख्याल	-8831
▁ग्रिड	-8832
▁दंडित	-8833
▁फीसदी	-8834
▁उल्लास	-8835
▁यूनाइटेड	-8836
▁कार्मिकों	-8837
▁कार्यकलाप	-8838
▁प्रामाणिक	-8839
▁सुपुर्दगी	-8840
न्ने	-8841
ागार	-8842
ुकला	-8843
▁एजे	-8844
▁गुर्	-8845
▁डिज़	-8846
▁खुराक	-8847
▁खेलने	-8848
▁बेरोज	-8849
▁मंडली	-8850
▁मैसूर	-8851
▁हममें	-8852
▁कोरिया	-8853
▁तार्किक	-8854
▁देखेंगे	-8855
▁क्षेत्रक	-8856
▁सांविधिक	-8857
तू	-8858
कने	-8859
रिव	-8860
िटर	-8861
▁कुर	-8862
▁्या	-8863
ज्जित	-8864
परेशन	-8865
▁औजार	-8866
▁नरेश	-8867
▁पच्च	-8868
▁महार	-8869
▁सुलभ	-8870
▁सूखा	-8871
पत्रों	-8872
▁प्रात	-8873
▁बनाएं	-8874
▁अनुयाय	-8875
▁ग्रंथि	-8876
▁व्यतिक	-8877
▁समनुदेश	-8878
▁सद्भावना	-8879
▁एक्सटेंशन	-8880
▁आतंकवादियों	-8881
ोंग	-8882
ौदा	-8883
▁डू	-8884
▁जाऊ	-8885
▁भाँ	-8886
▁मोल	-8887
▁बंधक	-8888
▁रसोई	-8889
▁सोशल	-8890
ीट्यूट	-8891
▁अंतरा	-8892
▁कसौटी	-8893
▁इंतजार	-8894
▁डिक्री	-8895
▁राजदूत	-8896
▁सम्मुख	-8897
▁उत्प्रे	-8898
▁बागवानी	-8899
▁विशुद्ध	-8900
▁संरक्षक	-8901
▁अप्रत्या	-8902
▁नागरिकता	-8903
▁मानवाधिक	-8904
ॉस	-8905
▁पठ	-8906
▁फा	-8907
टिंग	-8908
▁मौन	-8909
▁अभिश	-8910
▁उज्ज	-8911
▁तटीय	-8912
▁भावा	-8913
▁हिला	-8914
लेरिया	-8915
▁केलिए	-8916
▁बुखार	-8917
▁मर्या	-8918
▁आक्षेप	-8919
▁निकलता	-8920
▁महाराज	-8921
▁विचारा	-8922
▁यथासंभव	-8923
▁लाभकारी	-8924
▁वैधानिक	-8925
▁सौन्दर्य	-8926
▁विमानक्षेत्र	-8927
रहित	-8928
▁चोर	-8929
▁थाः	-8930
▁वॉल	-8931
संबंध	-8932
ास्पद	-8933
▁अभिस	-8934
▁शर्म	-8935
ुतीकरण	-8936
▁खुलने	-8937
▁प्रोफ़	-8938
▁समुच्चय	-8939
▁अर्थशास्त्र	-8940
माल	-8941
ुरु	-8942
▁झार	-8943
▁एंटी	-8944
▁कृपा	-8945
▁दहेज	-8946
▁मदों	-8947
▁वियत	-8948
▁वैसी	-8949
ाध्याय	-8950
▁कर्त्त	-8951
▁परिमाण	-8952
▁प्रेषण	-8953
▁गर्भवती	-8954
▁उत्तेजित	-8955
▁निदेशकों	-8956
सूरत	-8957
▁असीम	-8958
▁आलोक	-8959
▁लगों	-8960
▁कोयले	-8961
▁बहुधा	-8962
▁राहुल	-8963
प्लिकेशन	-8964
▁आन्तरिक	-8965
▁प्रमाणन	-8966
▁अहमदाबाद	-8967
▁व्यवसायी	-8968
▁संस्थापन	-8969
▁साझेदारी	-8970
▁साधारणतया	-8971
▁आगम	-8972
▁ऊँच	-8973
▁कैप	-8974
▁दीन	-8975
▁सृज	-8976
ट्रिक	-8977
न्नति	-8978
▁फ़िर	-8979
▁कन्या	-8980
▁यमुना	-8981
▁असंख्य	-8982
▁आईसीटी	-8983
▁देखरेख	-8984
▁नवाचार	-8985
ानिर्देश	-8986
▁ब्राउज़र	-8987
▁स्ट्रिंग	-8988
▁मनोवैज्ञानिक	-8989
षी	-8990
ाम्	-8991
ालेख	-8992
िश्न	-8993
▁सान	-8994
नीकरण	-8995
▁इनको	-8996
▁पौरा	-8997
▁अनुमत	-8998
▁समरूप	-8999
▁निवेशक	-9000
▁पॉलिसी	-9001
▁विनम्र	-9002
दायी	-9003
▁मॉड	-9004
▁सिम	-9005
▁करों	-9006
▁ग्रा	-9007
▁बाँध	-9008
▁मरने	-9009
▁वल्ल	-9010
▁ईरानी	-9011
▁पाश्च	-9012
▁ग्यारह	-9013
▁एनआईओएस	-9014
▁सिंगापुर	-9015
ंशी	-9016
ादन	-9017
क्के	-9018
वेदी	-9019
▁अलम	-9020
▁आशी	-9021
▁खरा	-9022
▁उद्घ	-9023
▁माउस	-9024
▁ग्रेड	-9025
▁तारों	-9026
▁भिक्ष	-9027
▁रोकना	-9028
▁खाद्या	-9029
▁सुंदरता	-9030
▁जानबूझकर	-9031
▁आकांक्षाओं	-9032
’’	-9033
लाभ	-9034
ियान	-9035
▁तिरु	-9036
▁पौधा	-9037
▁सचेत	-9038
▁साफ़	-9039
▁उजागर	-9040
▁बर्तन	-9041
▁शाश्व	-9042
▁विक्रम	-9043
▁सहेजें	-9044
▁नामनिर्देश	-9045
▁परिप्रेक्ष्य	-9046
जील	-9047
िगर	-9048
क्रेट	-9049
▁चार्	-9050
▁निवल	-9051
▁सपना	-9052
▁उर्वर	-9053
▁ज़रूरी	-9054
▁प्रेमचन्द	-9055
▁दिशानिर्देश	-9056
▁विश्वव्यापी	-9057
▁परिस्थितियां	-9058
tt	-9059
ज़्	-9060
सेफ	-9061
▁टाल	-9062
▁इलाके	-9063
▁खतरों	-9064
▁चालुक	-9065
▁जयपुर	-9066
▁परवाह	-9067
▁लम्बा	-9068
▁दुबारा	-9069
▁संप्रती	-9070
▁काल्पनिक	-9071
▁प्रतिमान	-9072
▁प्रोग्रामिंग	-9073
▁ओं	-9074
▁१८	-9075
य्या	-9076
▁अरे	-9077
▁बाघ	-9078
▁ठेके	-9079
▁फ्री	-9080
▁सपने	-9081
▁दशाओं	-9082
▁नामित	-9083
▁विक्ष	-9084
▁पकड़ने	-9085
▁पुनराव	-9086
▁वर्ल्ड	-9087
▁पात्रों	-9088
▁रजिस्ट्रार	-9089
▁पुनर्विलोकन	-9090
▁कस्	-9091
कार्य	-9092
▁तेजा	-9093
▁नौका	-9094
▁शंका	-9095
▁सजीव	-9096
▁मल्टी	-9097
▁स्पेन	-9098
▁घटनाएं	-9099
▁जिन्ना	-9100
▁मुद्रक	-9101
▁स्नायु	-9102
▁कन्वेंशन	-9103
▁भविष्यवाणी	-9104
▁प्रतिपूर्ति	-9105
th	-9106
हण	-9107
वाक	-9108
ालीस	-9109
▁अड़	-9110
त्थान	-9111
िवर्स	-9112
▁कपास	-9113
▁बताई	-9114
▁म्यू	-9115
▁हरेक	-9116
▁अंकुर	-9117
▁डीएनए	-9118
▁पट्टे	-9119
▁बंगला	-9120
▁हफ्ते	-9121
▁अस्त्र	-9122
▁विलम्ब	-9123
▁बाध्यता	-9124
▁अत्याचार	-9125
▁वास्तुकला	-9126
माइ	-9127
ीदा	-9128
ालाल	-9129
ुपात	-9130
▁जगा	-9131
▁झेल	-9132
▁मला	-9133
▁वीं	-9134
▁कटाई	-9135
▁घेरे	-9136
▁बैंड	-9137
▁विषम	-9138
▁खेलों	-9139
▁पक्का	-9140
▁माणिक	-9141
▁दिखाना	-9142
▁निरर्थ	-9143
▁आवृत्ति	-9144
▁अनुरक्षण	-9145
▁अप्रत्याशित	-9146
दो	-9147
▁कछ	-9148
▁छल	-9149
▁खाम	-9150
▁मर्	-9151
▁सैय	-9152
निस्ट	-9153
ोत्सव	-9154
▁ढलान	-9155
▁श्ले	-9156
▁डालता	-9157
▁डालते	-9158
▁शिश्न	-9159
▁ख्याति	-9160
▁माइक्र	-9161
▁मुखिया	-9162
▁वर्षीय	-9163
▁व्यतीत	-9164
▁अरुणाचल	-9165
▁पौराणिक	-9166
▁करनेवाले	-9167
▁मध्यवर्ती	-9168
▁अनुयायियों	-9169
बिट	-9170
▁छु	-9171
कथित	-9172
जिये	-9173
१वें	-9174
▁नंद	-9175
▁श्ल	-9176
▁सत्	-9177
▁ऑफिस	-9178
▁गायब	-9179
▁पीछा	-9180
▁पुष्	-9181
▁धूम्र	-9182
▁बैठकर	-9183
▁आदिवासी	-9184
▁कलाकारों	-9185
▁प्रायोजित	-9186
इंट	-9187
मयी	-9188
▁अछ	-9189
सराय	-9190
▁कंक	-9191
▁खां	-9192
▁निम	-9193
▁बिछ	-9194
▁लाज	-9195
▁लौह	-9196
▁समन	-9197
स्राव	-9198
ोरिया	-9199
▁निःश	-9200
▁दीवान	-9201
▁सब्सि	-9202
▁मतदाता	-9203
▁पासपोर्ट	-9204
▁कार्यशाला	-9205
▁कार्यकर्ताओं	-9206
ॉं	-9207
भीत	-9208
स्स	-9209
दत्त	-9210
ोगिक	-9211
▁आरा	-9212
▁एटी	-9213
▁टेक	-9214
▁मैन	-9215
▁रुख	-9216
षिद्ध	-9217
▁दस्त	-9218
▁परमा	-9219
▁खुदरा	-9220
▁बढाने	-9221
▁शाहजह	-9222
▁दिशाओं	-9223
▁आश्वस्त	-9224
▁उत्तेजना	-9225
▁यांत्रिक	-9226
च्य	-9227
ंगों	-9228
▁कैर	-9229
▁नाइ	-9230
▁भला	-9231
▁मिज	-9232
▁इटली	-9233
▁घंटा	-9234
▁रूसी	-9235
▁ऑपरेट	-9236
▁क्लास	-9237
▁जिक्र	-9238
▁गोविंद	-9239
▁जोरदार	-9240
▁तकनीकों	-9241
▁संदर्भित	-9242
▁आत्मनिर्भ	-9243
▁इंटरनेशनल	-9244
ob	-9245
सक	-9246
ंगर	-9247
डेट	-9248
ड्र	-9249
ूरक	-9250
▁कत	-9251
र्ति	-9252
बिनेट	-9253
ुद्धि	-9254
▁आईडी	-9255
▁धुंध	-9256
▁पराग	-9257
▁मेले	-9258
▁रूढ़	-9259
▁अपवर्	-9260
▁लगाते	-9261
▁जंगलों	-9262
▁लक्षित	-9263
▁विवेका	-9264
▁अधिकथित	-9265
▁राष्ट्रीयता	-9266
फुस	-9267
मिल	-9268
ोलॉजी	-9269
▁कम्ब	-9270
▁जवान	-9271
▁पारे	-9272
▁पहलों	-9273
▁रक्षक	-9274
▁समाजवाद	-9275
▁पत्तियों	-9276
राष्ट्रपति	-9277
▁पंचवर्षीय	-9278
▁श्रीकृष्ण	-9279
गोश	-9280
मील	-9281
ल्थ	-9282
िशन	-9283
▁करण	-9284
▁अरुण	-9285
▁चिट्	-9286
▁मुर्ग	-9287
▁वेस्ट	-9288
▁क्योकि	-9289
▁भाइयों	-9290
▁स्वरुप	-9291
▁कंप्यूट	-9292
▁कलात्मक	-9293
▁खुशहाली	-9294
ाउन	-9295
▁aa	-9296
▁धरो	-9297
▁बढा	-9298
िश्रण	-9299
▁चौदह	-9300
▁दुष्	-9301
▁बस्त	-9302
रेन्द्र	-9303
▁नियोजक	-9304
▁शाश्वत	-9305
▁अवस्थाओं	-9306
▁पंचायतों	-9307
▁पीड़ितों	-9308
▁अपरिहार्य	-9309
है	-9310
गांठ	-9311
▁असु	-9312
▁अंगी	-9313
▁ब्रा	-9314
ानियों	-9315
्रेषित	-9316
▁कार्ब	-9317
▁जीवनी	-9318
▁निष्क	-9319
▁मक्का	-9320
▁तत्समय	-9321
▁पंचांग	-9322
▁मन्दिर	-9323
▁छुटकारा	-9324
▁प्रादेश	-9325
▁शताब्दियों	-9326
▁साम्राज्यवाद	-9327
ेब	-9328
ारस	-9329
▁ओम	-9330
चकों	-9331
म्बे	-9332
ाँकि	-9333
्यूल	-9334
▁खाई	-9335
▁घेर	-9336
▁डिब	-9337
▁नक़	-9338
▁बगी	-9339
▁चौथे	-9340
▁तरफ़	-9341
▁मादक	-9342
▁मेला	-9343
▁रोटी	-9344
▁अहसास	-9345
▁एक्सप	-9346
▁जिनको	-9347
▁नाजुक	-9348
▁बस्ती	-9349
▁ऑपरेशन	-9350
▁जागरूक	-9351
▁अभिनेता	-9352
▁निम्नतर	-9353
▁वृक्षों	-9354
▁इस्लामिक	-9355
▁जुर्माने	-9356
▁समायोजित	-9357
EE	-9358
थर	-9359
यो	-9360
करे	-9361
ावट	-9362
पीएस	-9363
मुझे	-9364
▁नेप	-9365
▁मेट	-9366
त्रिक	-9367
▁अनवर	-9368
▁दरें	-9369
▁पूछे	-9370
▁सबका	-9371
▁कब्जे	-9372
▁बढ़ना	-9373
▁बढ़िया	-9374
▁हालाँकि	-9375
▁प्रतिबंधित	-9376
फान	-9377
सीए	-9378
ोही	-9379
ज़ार	-9380
सूची	-9381
▁साज	-9382
त्नों	-9383
▁सौदा	-9384
▁आंत्र	-9385
▁चुनने	-9386
▁निपटा	-9387
▁दर्शित	-9388
▁लाभप्रद	-9389
षद	-9390
गरों	-9391
▁इलै	-9392
▁गली	-9393
▁रेत	-9394
ोत्तर	-9395
▁निया	-9396
▁चौथाई	-9397
▁दर्जे	-9398
▁विधिव	-9399
▁पहचाना	-9400
▁मुर्गी	-9401
▁सापेक्ष	-9402
▁त्रिपुरा	-9403
काई	-9404
डीए	-9405
ेरी	-9406
बिंद	-9407
▁अनौ	-9408
▁टूल	-9409
▁दुक	-9410
भक्ति	-9411
विन्द	-9412
▁डिजी	-9413
▁भृंग	-9414
▁संसू	-9415
▁सर्प	-9416
▁साहा	-9417
▁जातीय	-9418
▁डेविड	-9419
▁दुर्व	-9420
▁ऊर्ध्व	-9421
▁प्रचलन	-9422
▁महाप्र	-9423
▁बांग्ला	-9424
▁प्रतिरूप	-9425
▁प्रेमचंद	-9426
▁अपेक्षाओं	-9427
▁कार्यकर्ता	-9428
ढा	-9429
▁हौ	-9430
शोधन	-9431
▁गाथा	-9432
▁मनोह	-9433
▁मामल	-9434
▁क्रिस	-9435
▁लॉर्ड	-9436
▁हनुमान	-9437
▁संकेतों	-9438
▁संस्थित	-9439
▁स्मार्ट	-9440
▁निरीक्षक	-9441
खल	-9442
ढी	-9443
ist	-9444
ंदे	-9445
तौर	-9446
▁ओज	-9447
ोषित	-9448
▁झूठ	-9449
▁मदन	-9450
ोनिया	-9451
▁अंडा	-9452
▁आएगा	-9453
▁कलाम	-9454
▁प्रवी	-9455
▁अल्लाह	-9456
▁ड्रग्स	-9457
▁राजपूत	-9458
▁इकाइयां	-9459
▁परिपक्वता	-9460
▁विशिष्टता	-9461
▁सशक्तीकरण	-9462
ओआर	-9463
कोच	-9464
लीम	-9465
माना	-9466
▁चैन	-9467
▁फ़र	-9468
▁अनुभ	-9469
▁पीले	-9470
कुमारी	-9471
▁ओआरएस	-9472
▁नगरों	-9473
▁नम्बर	-9474
▁बैटरी	-9475
▁वैद्य	-9476
▁स्टील	-9477
▁कराधान	-9478
▁फोल्डर	-9479
▁पहुँचने	-9480
▁स्तंभों	-9481
▁प्रादेशिक	-9482
▁भावनात्मक	-9483
▁साफ्टवेयर	-9484
▁आत्मविश्वास	-9485
ण्य	-9486
परा	-9487
बली	-9488
ायम	-9489
ज्जा	-9490
▁सिग	-9491
मेन्ट	-9492
▁उभार	-9493
▁त्यो	-9494
▁वृंद	-9495
▁अपहरण	-9496
▁कथाओं	-9497
▁बूढ़े	-9498
▁सीखना	-9499
▁कृष्णा	-9500
▁जुटाने	-9501
▁स्टार्ट	-9502
▁वर्षगांठ	-9503
गंज	-9504
राइड	-9505
ाराम	-9506
ूंगी	-9507
त्विक	-9508
▁दादी	-9509
▁प्या	-9510
▁तुल्य	-9511
▁नामंज	-9512
▁वेदों	-9513
िवर्सिटी	-9514
▁उच्छेदन	-9515
▁धूम्रपान	-9516
▁प्रॉक्सी	-9517
▁व्यक़्ति	-9518
▁प्रतिष्ठान	-9519
▁श्रद्धांजलि	-9520
▁सेवानिवृत्ति	-9521
िंट	-9522
▁तैर	-9523
▁नहर	-9524
▁बाण	-9525
▁नोडल	-9526
▁लोहे	-9527
▁व्रत	-9528
▁करुणा	-9529
▁खर्चा	-9530
▁पसन्द	-9531
▁बढावा	-9532
▁लीजिए	-9533
▁गर्भाव	-9534
▁जोड़ना	-9535
▁सिन्हा	-9536
▁अखबारों	-9537
▁पूंजीगत	-9538
▁सैकड़ों	-9539
▁प्रतिभाग	-9540
▁प्रोफाइल	-9541
▁बुद्धिमान	-9542
▁सहिष्णुता	-9543
▁इंस्टीट्यूट	-9544
कूट	-9545
ठों	-9546
डोर	-9547
ादर	-9548
▁पैद	-9549
▁लां	-9550
▁सूख	-9551
▁हिर	-9552
द्रिक	-9553
नीयता	-9554
लीकरण	-9555
▁मारा	-9556
▁कराते	-9557
▁जरिये	-9558
▁वर्गम	-9559
िपीडिया	-9560
▁करवाया	-9561
▁मेगावाट	-9562
▁केन्द्री	-9563
▁सब्जियों	-9564
▁सिद्धदोष	-9565
▁अधिनिर्णय	-9566
ey	-9567
यह	-9568
ंजक	-9569
ख्श	-9570
बिन	-9571
▁बछ	-9572
केशन	-9573
▁ग्व	-9574
▁दुस	-9575
▁नाश	-9576
▁बेन	-9577
▁लूट	-9578
▁क्षै	-9579
▁पुनर	-9580
मुक्ति	-9581
▁ऊँचाई	-9582
▁चार्ज	-9583
▁भयभीत	-9584
▁चेष्टा	-9585
▁पाएंगे	-9586
▁गेंदबाज	-9587
▁वर्गमूल	-9588
▁कामगारों	-9589
▁निर्देशक	-9590
▁संक्रामक	-9591
उन	-9592
रज	-9593
कोण	-9594
ेषण	-9595
▁डु	-9596
▁लह	-9597
देही	-9598
ास्थ	-9599
ुकता	-9600
▁नाच	-9601
पृष्ठ	-9602
▁इसमे	-9603
▁चाचा	-9604
▁ज़ोर	-9605
▁दलील	-9606
▁साम्	-9607
▁उठाते	-9608
▁तलवार	-9609
▁सेकंड	-9610
▁पहुँचे	-9611
▁प्रकटन	-9612
▁यूनानी	-9613
▁किस्मों	-9614
▁ब्रह्मा	-9615
▁अभयारण्य	-9616
ct	-9617
▁गान	-9618
▁गों	-9619
▁भटक	-9620
▁साय	-9621
▁सॉल	-9622
▁हुक	-9623
▁परिर	-9624
▁पैदल	-9625
▁ब्ला	-9626
▁हमास	-9627
ड़ियां	-9628
▁गिनती	-9629
▁चालीस	-9630
▁झुकाव	-9631
▁पर्दा	-9632
▁वर्गा	-9633
▁तिमाही	-9634
▁दिखाता	-9635
▁रियासत	-9636
▁पक्षपात	-9637
▁वियतनाम	-9638
▁विलक्षण	-9639
▁कट्टरपंथी	-9640
▁अत्यावश्यक	-9641
मैं	-9642
षाण	-9643
साम	-9644
ेंग	-9645
ादित	-9646
▁चित	-9647
▁जनन	-9648
▁सिड	-9649
▁हर्	-9650
वालों	-9651
▁NAME	-9652
▁अनिल	-9653
▁करोड	-9654
▁पतली	-9655
▁फायर	-9656
▁फिनल	-9657
▁लाये	-9658
ानुमान	-9659
▁कार्प	-9660
▁तहसील	-9661
▁रोबोट	-9662
▁एकाग्र	-9663
▁मापदंड	-9664
▁समकक्ष	-9665
▁अनुयायी	-9666
▁कविताएं	-9667
▁किताबें	-9668
▁पृष्ठों	-9669
▁वचनबद्ध	-9670
▁प्रबन्धन	-9671
▁प्रभारित	-9672
▁अल्पसंख्यक	-9673
▁ट्रिब्यूनल	-9674
▁प्रतिबिम्ब	-9675
ेबल	-9676
गारी	-9677
▁PRO	-9678
▁आंग	-9679
▁लसी	-9680
▁अंचल	-9681
▁असुर	-9682
▁केबल	-9683
▁यहूद	-9684
▁विस्	-9685
▁कुष्ठ	-9686
▁डालें	-9687
▁धरोहर	-9688
▁वृक्क	-9689
त्तियां	-9690
▁नीलामी	-9691
▁अभियोजक	-9692
▁कालावधि	-9693
▁ड्राफ्ट	-9694
▁त्योहार	-9695
▁संक्रमित	-9696
▁अपराधियों	-9697
▁न्यायोचित	-9698
▁सांख्यिकी	-9699
ip	-9700
and	-9701
झान	-9702
भवन	-9703
समूह	-9704
िपरि	-9705
▁आलम	-9706
▁टोक	-9707
▁सरो	-9708
विवाह	-9709
▁जीता	-9710
▁मानद	-9711
▁अंकों	-9712
▁आँखें	-9713
▁इंसान	-9714
▁जार्ज	-9715
▁ध्रुव	-9716
▁बारिश	-9717
▁स्थाय	-9718
▁होस्ट	-9719
▁भूमिगत	-9720
▁महावीर	-9721
▁तथाकथित	-9722
▁नरेंद्र	-9723
▁पात्रता	-9724
▁बुद्धिम	-9725
▁शीघ्रता	-9726
भ्र	-9727
ोटा	-9728
▁तीर	-9729
▁वोट	-9730
शिल्प	-9731
ाइलों	-9732
्लेषण	-9733
णात्मक	-9734
स्तरीय	-9735
▁अपनाए	-9736
▁अभ्या	-9737
▁खरगोश	-9738
▁परिशि	-9739
▁वायदा	-9740
▁वकीलों	-9741
▁स्वराज	-9742
▁अकादमिक	-9743
▁शब्दकोश	-9744
▁संतोषजनक	-9745
▁पहाड़ियों	-9746
▁पाश्चात्य	-9747
▁प्रोजेक्ट	-9748
▁मध्यस्थता	-9749
अन	-9750
▁टैग	-9751
▁पदो	-9752
▁फीट	-9753
तालों	-9754
▁इष्ट	-9755
▁डिवा	-9756
वेदिता	-9757
▁छोड़े	-9758
▁बदलती	-9759
▁प्रशंस	-9760
▁प्रिंस	-9761
▁फ़ाइलें	-9762
▁सब्सिडी	-9763
▁कहानियां	-9764
षेक	-9765
्टन	-9766
ीर्ण	-9767
▁उठी	-9768
▁उदा	-9769
▁बगल	-9770
▁वरन	-9771
▁आप्र	-9772
▁क्षी	-9773
▁तालम	-9774
▁पहने	-9775
▁ज़मीन	-9776
▁निष्ठ	-9777
▁सिन्ध	-9778
▁दिवसीय	-9779
▁नोकिया	-9780
▁पारम्प	-9781
▁महासभा	-9782
▁हिम्मत	-9783
▁कैबिनेट	-9784
▁निरर्थक	-9785
▁परिष्कृत	-9786
▁प्रतिवाद	-9787
▁मानदंडों	-9788
▁रिपोर्टों	-9789
▁मंत्रिमंडल	-9790
और	-9791
१९	-9792
▁एप	-9793
▁पिर	-9794
▁पैन	-9795
क्ष्ण	-9796
फोर्ड	-9797
▁अय्य	-9798
▁इक्व	-9799
▁घिरा	-9800
▁चरित	-9801
▁ठंडा	-9802
▁फर्श	-9803
▁फ़ोन	-9804
▁ललित	-9805
▁संजय	-9806
सिद्धि	-9807
▁इजाजत	-9808
▁नियति	-9809
▁परिवी	-9810
▁पेरिस	-9811
▁सेक्स	-9812
ोनेशिया	-9813
▁पत्थरों	-9814
▁पैदावार	-9815
▁वर्गाकार	-9816
▁मंत्रिपरि	-9817
▁तत्पश्चात्	-9818
ंबन	-9819
मेव	-9820
ाधर	-9821
▁ऑटो	-9822
▁तरा	-9823
▁लाद	-9824
याधीश	-9825
▁आच्छ	-9826
▁कशेर	-9827
▁टाटा	-9828
▁डेवल	-9829
▁दुखद	-9830
▁नागर	-9831
▁बेंच	-9832
▁मधुम	-9833
▁अनधिक	-9834
▁इन्टर	-9835
▁मैथुन	-9836
▁Chrome	-9837
▁कॉन्फ़	-9838
▁तुम्हे	-9839
▁पैटर्न	-9840
▁सुलझाने	-9841
▁कोशिकाएं	-9842
▁विचाराधीन	-9843
▁सृजनात्मक	-9844
▁विकिपीडिया	-9845
CT	-9846
▁एर	-9847
▁’’	-9848
दमों	-9849
▁दां	-9850
▁शिष	-9851
▁हें	-9852
▁त्यौ	-9853
▁नवाब	-9854
▁सुल्	-9855
ारियों	-9856
▁शिविर	-9857
▁शॉर्ट	-9858
▁हालात	-9859
▁अपीलों	-9860
▁अमान्य	-9861
▁उन्नीस	-9862
▁तालमेल	-9863
▁पराजित	-9864
▁योद्धा	-9865
▁विरचित	-9866
▁सेकेंड	-9867
▁विकल्पों	-9868
▁सहकारिता	-9869
▁एप्लिकेशन	-9870
▁निस्संदेह	-9871
सद	-9872
तुर	-9873
ोन्म	-9874
▁फंस	-9875
▁फलक	-9876
▁रूट	-9877
ूर्वक	-9878
▁असंग	-9879
▁वर्क	-9880
▁आरोपी	-9881
▁रंगीन	-9882
▁अनुरुप	-9883
▁ग्रीवा	-9884
▁असमानता	-9885
▁ग्रीष्म	-9886
▁ट्रैकिंग	-9887
▁एवोल्यूशन	-9888
ov	-9889
ंछ	-9890
est	-9891
▁बैर	-9892
▁खिंच	-9893
▁वक्ष	-9894
▁टकराव	-9895
▁बैठने	-9896
▁सज्जन	-9897
▁सांसद	-9898
▁श्रव्य	-9899
▁दुकानों	-9900
▁निमंत्रण	-9901
▁पीढ़ियों	-9902
ग्व	-9903
मंद	-9904
चालय	-9905
फिया	-9906
ोसिस	-9907
▁अंब	-9908
▁थोक	-9909
फार्म	-9910
▁ईश्व	-9911
▁उपगत	-9912
▁दुखी	-9913
▁ब्ले	-9914
▁करेंः	-9915
▁चौहान	-9916
▁इन्कार	-9917
▁विराट्	-9918
▁अफ्रीकी	-9919
▁पसंदीदा	-9920
▁संभवतया	-9921
▁क्रमादेश	-9922
▁विजेताओं	-9923
▁प्रक्षेपण	-9924
ND	-9925
रिश	-9926
ेता	-9927
▁अवह	-9928
▁खली	-9929
▁डेन	-9930
▁पेंट	-9931
▁बीबी	-9932
▁लीटर	-9933
▁टेक्न	-9934
▁दिखने	-9935
▁भाँति	-9936
▁वास्तु	-9937
▁जातियां	-9938
▁यहूदियों	-9939
▁राज्यसभा	-9940
▁उपराष्ट्रपति	-9941
चिव	-9942
▁वग	-9943
ग्राफ	-9944
▁अठार	-9945
▁उष्ण	-9946
▁छाती	-9947
▁ठरोग	-9948
▁मुसी	-9949
▁जमारा	-9950
▁द्रुत	-9951
▁पारसी	-9952
▁आधारों	-9953
▁जनगणना	-9954
▁नामंजूर	-9955
▁कम्युनिस्ट	-9956
▁पूर्वानुमान	-9957
गिन	-9958
ारसी	-9959
▁पठन	-9960
▁फोट	-9961
थियों	-9962
ान्ति	-9963
▁क्रे	-9964
ब्रेरी	-9965
▁रियास	-9966
▁लुप्त	-9967
▁खिड़की	-9968
▁निकलना	-9969
▁विफलता	-9970
▁डिज़ाइन	-9971
▁त्यौहार	-9972
▁मेहरअली	-9973
if	-9974
ड़ो	-9975
तिज	-9976
लिन	-9977
▁खट	-9978
ण्डे	-9979
▁कैन	-9980
▁कॉम	-9981
▁चाँ	-9982
▁पंक	-9983
▁मरण	-9984
ालैंड	-9985
▁नीले	-9986
▁भलाई	-9987
▁नवजात	-9988
▁असंतोष	-9989
▁चीज़ें	-9990
▁छोड़ना	-9991
▁निकासी	-9992
▁शिशुओं	-9993
▁दोहराया	-9994
▁किरायेदार	-9995
▁तुलनात्मक	-9996
▁पंक्तियों	-9997
▁सुविधाजनक	-9998
▁संरचनात्मक	-9999
काय	-10000
भंग	-10001
ापक	-10002
ौली	-10003
▁लट	-10004
र्पण	-10005
▁LIN	-10006
▁con	-10007
▁कपट	-10008
▁पसी	-10009
▁समत	-10010
ेक्टर	-10011
▁आईएस	-10012
▁खगोल	-10013
▁बांड	-10014
▁मीना	-10015
▁साहू	-10016
▁उद्गम	-10017
▁निर्म	-10018
▁पित्त	-10019
▁बेलार	-10020
▁सुनते	-10021
▁कमिश्न	-10022
▁विकृति	-10023
▁तीक्ष्ण	-10024
▁विश्वयुद्ध	-10025
ोंक	-10026
हाउस	-10027
▁कुश	-10028
▁दीं	-10029
▁फास	-10030
दुनाथ	-10031
ोजकों	-10032
▁खोले	-10033
▁वसीय	-10034
▁किस्त	-10035
▁पत्ते	-10036
▁बनारस	-10037
▁कमजोरी	-10038
▁साहसिक	-10039
▁अक्षमता	-10040
▁अक्षरों	-10041
▁कार्यकरण	-10042
▁शल्यक्रिया	-10043
िष	-10044
मेज	-10045
▁गह	-10046
पुरी	-10047
▁कटि	-10048
▁आहरण	-10049
▁उड़ा	-10050
▁देवे	-10051
▁मोटा	-10052
▁वादा	-10053
▁उपद्र	-10054
▁कराती	-10055
▁पेशकश	-10056
▁मांगी	-10057
▁सियार	-10058
▁बाधाओं	-10059
▁अधीक्षक	-10060
▁दर्शाती	-10061
▁अधिकरणों	-10062
▁निवेदिता	-10063
▁प्रायोगिक	-10064
उथ	-10065
जन्य	-10066
तत्व	-10067
ोल्ट	-10068
▁एकक	-10069
▁शोथ	-10070
▁श्लो	-10071
▁इरादा	-10072
▁औषधीय	-10073
▁राक्ष	-10074
▁हाजिर	-10075
▁अवज्ञा	-10076
▁चीज़ों	-10077
▁रामलिंग	-10078
▁प्रतियां	-10079
▁विधेयकों	-10080
▁पत्रिकाओं	-10081
▁साम्राज़्य	-10082
नेश	-10083
रणी	-10084
करों	-10085
▁हसन	-10086
▁हीन	-10087
न्दगी	-10088
▁कपूर	-10089
▁कांच	-10090
▁तेज़	-10091
▁सर्क	-10092
▁भत्ते	-10093
▁मनाने	-10094
▁रखेगा	-10095
▁सुस्प	-10096
▁हिंसक	-10097
प्रणाली	-10098
▁अलमस्त	-10099
▁आयोजना	-10100
▁संज्ञा	-10101
▁निर्वचन	-10102
▁श्लोकों	-10103
▁एकाधिकार	-10104
▁परमात्मा	-10105
▁प्रबंधित	-10106
▁राष्ट्रवादी	-10107
ial	-10108
सना	-10109
▁औपन	-10110
▁गुम	-10111
▁सता	-10112
ोलनों	-10113
▁बहती	-10114
▁अमिता	-10115
▁ज्यों	-10116
▁तामील	-10117
▁भूगोल	-10118
▁वारंट	-10119
▁सैद्ध	-10120
▁चिन्तन	-10121
▁प्रातः	-10122
▁संगणित	-10123
▁खूबसूरत	-10124
▁चंडीगढ़	-10125
▁सम्प्रदाय	-10126
▁मांसपेशियों	-10127
०ग	-10128
दगी	-10129
सेज	-10130
िपल	-10131
कारक	-10132
कुशल	-10133
▁अँग	-10134
▁जनस	-10135
देशीय	-10136
लियां	-10137
ष्टिक	-10138
▁कपिल	-10139
▁जुटा	-10140
▁शिवा	-10141
▁स्का	-10142
▁एकत्व	-10143
▁चांदी	-10144
▁हुर्इ	-10145
▁ह्रास	-10146
▁क्रेता	-10147
▁नरसिंह	-10148
▁मानसून	-10149
▁अदालतों	-10150
▁दर्शाने	-10151
▁मलेरिया	-10152
▁सरोजिनी	-10153
▁साझीदार	-10154
▁कार्यपालक	-10155
▁गर्भावस्था	-10156
ैनी	-10157
▁ऋस	-10158
▁कफ	-10159
ब्बत	-10160
▁एंट	-10161
▁जेर	-10162
▁तेर	-10163
▁दाब	-10164
▁आभास	-10165
▁चढ़ा	-10166
▁बैठी	-10167
▁सुने	-10168
▁ढूंढ़	-10169
▁स्पर्	-10170
▁डिजीटल	-10171
▁युसुफ़	-10172
▁नानालाल	-10173
▁प्रयोगों	-10174
सिस	-10175
काने	-10176
चरित	-10177
सर्ग	-10178
▁सम्य	-10179
▁सूअर	-10180
ग्राही	-10181
▁पुण्य	-10182
▁मिलान	-10183
▁पहुंची	-10184
▁प्रकरण	-10185
▁रियायत	-10186
▁अभिलेखों	-10187
▁जवाबदेही	-10188
▁उम्मीदवार	-10189
▁कॉन्फ़िगर	-10190
▁न्यायाधिकरण	-10191
यता	-10192
ोकस	-10193
▁अघ	-10194
▁झर	-10195
▁अपल	-10196
▁चूह	-10197
▁पिन	-10198
▁मद्	-10199
▁रोल	-10200
▁यानि	-10201
▁कच्चा	-10202
▁घंटों	-10203
▁प्रभा	-10204
▁मेहता	-10205
▁राजेश	-10206
▁शिथिल	-10207
▁श्लोक	-10208
▁निकाली	-10209
▁परवर्ती	-10210
▁प्रशस्त	-10211
▁वामपंथी	-10212
▁उद्यमिता	-10213
▁क्रियान्वित	-10214
तृ	-10215
ाका	-10216
▁चह	-10217
ान्स	-10218
▁गुज	-10219
ोध्या	-10220
▁एड्स	-10221
▁कचरा	-10222
▁केशव	-10223
▁चलाई	-10224
▁त्या	-10225
▁पाचन	-10226
▁मल्ल	-10227
▁सिया	-10228
पीसीएल	-10229
▁रियाय	-10230
▁स्थाप	-10231
▁अमृतसर	-10232
▁कृतज्ञ	-10233
▁डेल्टा	-10234
▁पिताजी	-10235
▁प्रलेख	-10236
▁मांगों	-10237
▁साप्ताह	-10238
▁कार्यभार	-10239
▁प्रस्थान	-10240
▁क्रियाशील	-10241
ie	-10242
सस	-10243
ूढ़	-10244
ूरा	-10245
व्रत	-10246
ारित	-10247
▁चाइ	-10248
▁राग	-10249
▁मतों	-10250
▁सैयद	-10251
▁आबद्ध	-10252
▁एकरूप	-10253
▁देसाई	-10254
▁पिछला	-10255
▁चाहिएं	-10256
▁तोड़ने	-10257
▁नमूनों	-10258
▁भवभूति	-10259
▁रायपुर	-10260
▁रिफाइन	-10261
▁प्राणिक	-10262
▁हस्ताक्ष	-10263
▁विधिमान्य	-10264
▁प्रस्तावना	-10265
pp	-10266
ोत	-10267
पाई	-10268
ुमा	-10269
टिया	-10270
पुरा	-10271
यामी	-10272
▁कुं	-10273
▁परख	-10274
▁बोन	-10275
▁हकी	-10276
ांत्र	-10277
▁आईपी	-10278
▁कैसी	-10279
▁छिड़	-10280
▁विवा	-10281
▁शोधन	-10282
▁अतिशय	-10283
▁तुच्छ	-10284
▁नित्य	-10285
▁बीजों	-10286
▁लॉगिन	-10287
▁उत्तरः	-10288
▁करेंगी	-10289
▁वाहनों	-10290
▁समझाने	-10291
▁सिद्धि	-10292
▁कर्मियों	-10293
▁संप्रतीक	-10294
▁विवेकानंद	-10295
▁दीर्घकालीन	-10296
▁मान्यताप्राप्त	-10297
ुज	-10298
यास	-10299
▁कद	-10300
▁लघ	-10301
्याव	-10302
▁बाब	-10303
▁बूझ	-10304
▁भरण	-10305
▁हेल	-10306
ग्राम	-10307
रियों	-10308
▁आर्ट	-10309
▁कंधे	-10310
▁चौथी	-10311
▁बेगम	-10312
▁रमेश	-10313
▁सादा	-10314
▁सोनी	-10315
▁गोदाम	-10316
▁कर्मों	-10317
▁कुर्सी	-10318
▁झारखंड	-10319
▁तात्या	-10320
▁प्रहार	-10321
▁वृत्ता	-10322
▁अंगीकार	-10323
▁फिनलैंड	-10324
▁अधिवक्ताओं	-10325
▁प्रतिस्थापन	-10326
▁इस्लामवादियों	-10327
धना	-10328
▁रौ	-10329
▁सँ	-10330
एससी	-10331
०में	-10332
▁डेय	-10333
▁दाद	-10334
आधारी	-10335
तमाला	-10336
▁काशी	-10337
▁कॉफी	-10338
▁दीपक	-10339
▁नीला	-10340
रीक्षा	-10341
▁भवनों	-10342
▁मायने	-10343
▁वेंकट	-10344
▁कुटुंब	-10345
▁यदुनाथ	-10346
▁संकेतक	-10347
▁अयोध्या	-10348
▁फ़ाइलों	-10349
▁मैदानों	-10350
▁बहिष्कार	-10351
▁साप्ताहिक	-10352
ृश	-10353
दित	-10354
लता	-10355
ार्ध	-10356
▁कलम	-10357
▁काठ	-10358
्रेसी	-10359
▁सूरत	-10360
▁मुंशी	-10361
▁मैक्स	-10362
▁पुनर्ज	-10363
▁पीठासीन	-10364
▁प्रभारी	-10365
▁बेहतरीन	-10366
▁यूनिकोड	-10367
▁सन्दर्भ	-10368
▁कर्त्तव्य	-10369
▁प्रायद्वीप	-10370
▁इलेक्ट्रॉनिक्स	-10371
RL	-10372
चय	-10373
भाज	-10374
▁वफ	-10375
गुना	-10376
पुरम	-10377
▁उलट	-10378
▁टॉम	-10379
ोरेंस	-10380
▁कैदी	-10381
▁पहना	-10382
▁फोरम	-10383
▁ब्रॉ	-10384
▁लगीं	-10385
▁निजाम	-10386
▁मेहरा	-10387
▁विहार	-10388
▁सचेतन	-10389
▁सौंपे	-10390
▁परिवर्	-10391
▁फैलाने	-10392
▁मौलाना	-10393
▁सातवीं	-10394
▁सॉफ़्ट	-10395
▁अमेरिकन	-10396
▁विशेषतः	-10397
▁कॉर्पोरेशन	-10398
av	-10399
ttp	-10400
ंबा	-10401
▁CO	-10402
▁जस	-10403
स्टन	-10404
▁अचल	-10405
▁कले	-10406
▁कुद	-10407
▁चिं	-10408
▁धाग	-10409
▁सैर	-10410
▁लगाव	-10411
▁सीबी	-10412
▁अंडों	-10413
▁आभासी	-10414
▁कालीन	-10415
▁पुनरु	-10416
▁स्थगन	-10417
▁अवहेलना	-10418
▁क्रूरता	-10419
▁प्रतिद्व	-10420
▁शिकायतें	-10421
▁प्रयोगशालाओं	-10422
सोस	-10423
▁EE	-10424
ष्ठी	-10425
▁अजय	-10426
▁चाप	-10427
▁चैक	-10428
▁मिठ	-10429
▁हृद	-10430
▁द्रो	-10431
▁पडता	-10432
▁षड्य	-10433
ज्ञानी	-10434
▁डेयरी	-10435
▁भोपाल	-10436
▁मोक्ष	-10437
▁वार्म	-10438
▁सर्वस	-10439
▁आश्रित	-10440
▁उच्चारण	-10441
▁चंद्रमा	-10442
▁रिश्तों	-10443
▁बैंककारी	-10444
▁रामकृष्ण	-10445
▁पर्वतमाला	-10446
▁विश्वसनीयता	-10447
फॉ	-10448
असल	-10449
गिर	-10450
ोपर	-10451
▁ऋष	-10452
िज्म	-10453
ोपाय	-10454
▁हमल	-10455
दान्त	-10456
र्जित	-10457
साध्य	-10458
▁अवशो	-10459
▁उपजा	-10460
▁घुड़	-10461
▁झुंड	-10462
▁पाकर	-10463
ष्ट्री	-10464
▁नाराज	-10465
▁अनुशास	-10466
▁आयातित	-10467
▁आरोग्य	-10468
▁डिवाइस	-10469
▁आक्रामक	-10470
▁कारखाने	-10471
▁पारम्परिक	-10472
▁शिष्टमंडल	-10473
▁औस	-10474
▁नट	-10475
▁मथ	-10476
आरआई	-10477
ट्टे	-10478
ादान	-10479
▁जता	-10480
ख्यान	-10481
भावित	-10482
शासित	-10483
▁अधिश	-10484
▁अनुष	-10485
▁गिरी	-10486
▁गुहा	-10487
▁छुपा	-10488
▁तारे	-10489
▁तिरू	-10490
▁नक़ल	-10491
▁बापू	-10492
▁भरती	-10493
▁रखनी	-10494
▁दुष्ट	-10495
▁समाधि	-10496
▁पुरातन	-10497
▁मन्त्र	-10498
▁सीमांत	-10499
▁सर्वत्र	-10500
▁इलैक्ट्र	-10501
▁संप्रेषण	-10502
▁खाद्यान्न	-10503
▁प्रौद्योगिकीय	-10504
टि	-10505
यम	-10506
्ध	-10507
२०	-10508
are	-10509
ind	-10510
वहन	-10511
▁ww	-10512
बानी	-10513
▁धरा	-10514
▁मुय	-10515
▁रोह	-10516
▁बचना	-10517
▁रिहा	-10518
▁सतीश	-10519
धिकारी	-10520
▁एकांत	-10521
▁बाधित	-10522
▁बोलना	-10523
▁माउंट	-10524
▁लसीका	-10525
▁विफलः	-10526
▁पच्चीस	-10527
▁लड़कों	-10528
▁विरोधा	-10529
▁क्षैतिज	-10530
▁राममोहन	-10531
▁व्यंग्य	-10532
▁हाइड्रो	-10533
▁अभिकर्ता	-10534
▁राजेन्द्र	-10535
फो	-10536
सऋ	-10537
समी	-10538
▁डैक	-10539
▁फकी	-10540
▁मैक	-10541
▁राश	-10542
▁सहस	-10543
नुसार	-10544
▁अग्न	-10545
▁जोकि	-10546
▁पौंड	-10547
▁मच्छ	-10548
▁माडल	-10549
▁समतल	-10550
स्वरुप	-10551
▁जेम्स	-10552
▁निकलती	-10553
▁बर्ताव	-10554
▁औपनिवेश	-10555
▁फेफड़ों	-10556
▁मछलियों	-10557
▁सक्रियता	-10558
▁सांसारिक	-10559
▁अनौपचारिक	-10560
▁कम्पनियों	-10561
▁हस्तशिल्प	-10562
▁फि	-10563
▁गला	-10564
▁परव	-10565
▁पोट	-10566
तावास	-10567
र्मित	-10568
▁गाइड	-10569
▁टाइम	-10570
▁सवार	-10571
▁सेतु	-10572
▁घनत्व	-10573
▁मिलें	-10574
▁कुत्ते	-10575
▁जाएँगे	-10576
▁टुकड़ा	-10577
▁परोक्ष	-10578
▁मेघालय	-10579
▁औषधियों	-10580
▁कार्रवा	-10581
▁क्रीड़ा	-10582
▁पीडब्लू	-10583
▁शुद्धता	-10584
▁द्विआधारी	-10585
▁संस्कृतियों	-10586
▁साम्प्रदायिक	-10587
ँव	-10588
झी	-10589
art	-10590
▁st	-10591
खोरी	-10592
र्डर	-10593
▁रिच	-10594
गुप्त	-10595
▁एओआर	-10596
▁फायद	-10597
▁दरअसल	-10598
▁देखती	-10599
▁मार्ट	-10600
▁वायरस	-10601
▁निकलते	-10602
▁भाषणों	-10603
▁रिश्ते	-10604
▁लेनदेन	-10605
▁महादेवी	-10606
▁प्रवृत्तियों	-10607
ोव	-10608
फेस	-10609
ादि	-10610
एसएस	-10611
चियों	-10612
ास्थि	-10613
▁कतार	-10614
▁कृमि	-10615
▁रचित	-10616
▁लौटे	-10617
▁गुच्छ	-10618
▁वार्ड	-10619
▁अखंडता	-10620
▁अदायगी	-10621
▁अनुपूरक	-10622
▁पोतन्ना	-10623
▁लोकप्रियता	-10624
▁प्रक्रियाएं	-10625
▁उपयोगकर्ताओं	-10626
गेट	-10627
फिक	-10628
बुक	-10629
संग	-10630
ृष्ट	-10631
▁एसी	-10632
▁कैश	-10633
▁पाश	-10634
▁भाल	-10635
▁लिट	-10636
▁होश	-10637
▁पढ़े	-10638
▁पुरः	-10639
▁फुफ्	-10640
▁रोमन	-10641
▁शाला	-10642
▁द्रीय	-10643
▁जटिलता	-10644
▁पत्तों	-10645
▁संकलित	-10646
▁अध्यापन	-10647
▁जबरदस्त	-10648
▁पत्रकार	-10649
▁बढ़ोतरी	-10650
▁बेलारूस	-10651
▁मार्केट	-10652
▁यूनिटों	-10653
▁ऑपरेटिंग	-10654
▁मातृभूमि	-10655
▁रेखांकित	-10656
▁वार्षिकी	-10657
▁विद्यालयों	-10658
ak	-10659
उंड	-10660
बैक	-10661
▁St	-10662
▁इर	-10663
द्वि	-10664
विंग	-10665
्रमी	-10666
▁दूत	-10667
▁फें	-10668
▁यंग	-10669
कर्षण	-10670
देश्य	-10671
ेशिया	-10672
▁चुनी	-10673
▁जीते	-10674
▁मद्य	-10675
जीरिया	-10676
▁चैत्य	-10677
▁तलाशी	-10678
▁त्रास	-10679
▁बेजबर	-10680
▁विलेख	-10681
▁चिल्ला	-10682
▁मधुमक्	-10683
▁प्रांतीय	-10684
▁सर्वांगी	-10685
▁स्वराज्य	-10686
▁अभिप्राप्त	-10687
▁पत्रकारिता	-10688
▁यूनिवर्सिटी	-10689
ib	-10690
कथा	-10691
हनी	-10692
▁as	-10693
▁छी	-10694
गणित	-10695
ब्बी	-10696
▁आइट	-10697
▁बें	-10698
▁अभूत	-10699
▁टैंक	-10700
▁माइन	-10701
▁संयम	-10702
▁उदारी	-10703
▁गिरवी	-10704
▁ज्वार	-10705
▁पाउंड	-10706
▁बताये	-10707
▁भेजना	-10708
▁साहिब	-10709
▁अद्वैत	-10710
▁अशुद्ध	-10711
▁नागपुर	-10712
▁बराबरी	-10713
▁समझाया	-10714
▁प्राप्य	-10715
▁महत्वाक	-10716
▁वार्मिंग	-10717
▁त्यागपत्र	-10718
▁फ्रांसीसी	-10719
ोत्	-10720
▁उच	-10721
▁अंस	-10722
▁मुज	-10723
र्तित	-10724
▁खेला	-10725
▁टेलि	-10726
▁वफाद	-10727
क्षत्र	-10728
▁अपडेट	-10729
▁भित्त	-10730
ास्फीति	-10731
▁निर्मल	-10732
▁साइकिल	-10733
▁सीमाएं	-10734
▁स्कूली	-10735
▁विभागीय	-10736
▁अत्याधिक	-10737
▁तर्कसंगत	-10738
टोम	-10739
ब्ज	-10740
लाश	-10741
शरण	-10742
िकट	-10743
ions	-10744
ाधीश	-10745
ावरी	-10746
▁फुल	-10747
▁लटक	-10748
▁गायक	-10749
ान्वित	-10750
▁अवलंब	-10751
▁आसमान	-10752
▁उपवास	-10753
▁कैमरा	-10754
▁तेज़ी	-10755
▁नलिका	-10756
▁पूछने	-10757
▁वेल्स	-10758
▁अर्थों	-10759
▁गुंजाइ	-10760
▁निपटारा	-10761
▁भिन्नता	-10762
▁जनसाधारण	-10763
ah	-10764
▁se	-10765
▁ऐल	-10766
कृमि	-10767
▁जोग	-10768
▁डील	-10769
▁पंज	-10770
▁बुन	-10771
▁अमूल	-10772
▁कब्र	-10773
▁घण्ट	-10774
▁लापर	-10775
▁क्षीण	-10776
▁सिडबी	-10777
▁नियामक	-10778
▁ब्यौरे	-10779
▁रखेंगे	-10780
▁विवेचन	-10781
▁शॉर्टकट	-10782
▁परित्याग	-10783
▁सुसज्जित	-10784
▁सुस्पष्ट	-10785
▁अतिरिक़्त	-10786
▁परम्परागत	-10787
▁स्वतन्त्रता	-10788
▁्	-10789
थिक	-10790
सिड	-10791
लाइट	-10792
वर्ण	-10793
▁www	-10794
▁ईंट	-10795
▁धंध	-10796
▁बढे	-10797
▁हता	-10798
▁कुंज	-10799
▁वीणा	-10800
वृद्धि	-10801
▁कमाने	-10802
▁चढ़ाव	-10803
▁जानें	-10804
▁निचली	-10805
▁पट्टा	-10806
▁शंकरा	-10807
▁समयाव	-10808
ान्तरित	-10809
▁उन्मुख	-10810
▁नेटवर्	-10811
▁समामेल	-10812
शास्त्री	-10813
▁कार्टून	-10814
▁प्रोसेस	-10815
▁उर्वरकों	-10816
▁रियासतों	-10817
षऋ	-10818
ड्स	-10819
्ती	-10820
नीचर	-10821
भाष्	-10822
्वरी	-10823
▁ऋणी	-10824
▁काँ	-10825
▁खेद	-10826
▁घने	-10827
▁फिट	-10828
ाहारी	-10829
▁PROD	-10830
▁पीना	-10831
संबंधी	-10832
ायुक्त	-10833
▁उठाये	-10834
▁जवाहर	-10835
▁ट्रीय	-10836
▁बचाया	-10837
▁सुव्य	-10838
▁रिसर्च	-10839
▁सारवान	-10840
▁चलचित्र	-10841
▁सूचनाएं	-10842
▁पवित्रता	-10843
▁प्रतिषेध	-10844
▁प्रतिबन्ध	-10845
▁प्रत्यक्षतः	-10846
ae	-10847
मुक	-10848
ोली	-10849
▁ठा	-10850
न्थि	-10851
स्की	-10852
▁चाव	-10853
▁फाल	-10854
वास्त	-10855
▁सींग	-10856
ान्तरण	-10857
▁अड्डा	-10858
▁आवधिक	-10859
▁गुलाब	-10860
▁डिम्ब	-10861
▁दूंगा	-10862
▁पत्रक	-10863
▁बर्मा	-10864
▁अनेकों	-10865
▁ज़रुरत	-10866
▁सामरिक	-10867
▁दोस्तों	-10868
▁निवृत्त	-10869
▁विवाहों	-10870
▁स्वेच्छा	-10871
▁प्रतिबिंबित	-10872
▁कार्यक्षेत्र	-10873
तीस	-10874
▁उक	-10875
ावान	-10876
▁अणु	-10877
▁तान	-10878
▁सरी	-10879
पमेंट	-10880
ार्जन	-10881
▁घुमा	-10882
▁मुड़	-10883
▁चौड़ा	-10884
▁दूषित	-10885
▁बदलता	-10886
▁संभोग	-10887
▁सपनों	-10888
▁स्टोर	-10889
▁अदृश्य	-10890
▁उपस्कर	-10891
▁दिलाया	-10892
▁निधियां	-10893
▁मुकदमों	-10894
▁समावेदन	-10895
▁अस्पृश्य	-10896
▁परिचर्चा	-10897
▁सम्पादित	-10898
▁नर्मदाशंकर	-10899
▁क्षतिग्रस्त	-10900
▁हिन्दुस्तानी	-10901
ञ्	-10902
चाल	-10903
जिक	-10904
ण्डी	-10905
▁जोश	-10906
▁पिघ	-10907
▁बुझ	-10908
तानों	-10909
दाश्त	-10910
▁आरेख	-10911
▁कड़ा	-10912
▁कमरा	-10913
▁खंडन	-10914
▁छपाई	-10915
▁जनमत	-10916
▁निपु	-10917
▁बांट	-10918
▁मास्	-10919
▁मुल्	-10920
▁जमीनी	-10921
▁तकलीफ	-10922
▁रस्सी	-10923
▁सिक्ख	-10924
▁करवाना	-10925
▁कमिश्नर	-10926
▁असमर्थता	-10927
▁परमेश्वर	-10928
▁समानांतर	-10929
▁पाठ्यक्रमों	-10930
ूमत	-10931
▁de	-10932
बड़ी	-10933
्विक	-10934
▁मोक	-10935
▁युव	-10936
ारोपण	-10937
ृद्धि	-10938
▁गुरब	-10939
▁तम्ब	-10940
▁पिंड	-10941
▁मर्म	-10942
▁वहॉँ	-10943
▁साधक	-10944
ांक्षी	-10945
▁पढ़ते	-10946
▁वेदना	-10947
▁श्रवण	-10948
▁सुगंध	-10949
▁अंधेरे	-10950
▁एकाधिक	-10951
▁ड्यूटी	-10952
▁संकुचन	-10953
▁रिएक्टर	-10954
▁उद्घोषणा	-10955
▁कोल्हटकर	-10956
▁तत्त्वों	-10957
▁विनिर्दि	-10958
▁अनुपस्थित	-10959
▁औपनिवेशिक	-10960
▁ऊन	-10961
▁दाग	-10962
▁भूप	-10963
ंत्रण	-10964
गाड़ी	-10965
न्तुक	-10966
▁जस्ट	-10967
▁टोकन	-10968
▁ढूँढ	-10969
▁तंतु	-10970
▁पिंज	-10971
▁बराम	-10972
▁भड़क	-10973
▁ममता	-10974
▁साधु	-10975
▁सीआर	-10976
तत्त्व	-10977
▁आवंटन	-10978
▁गिरने	-10979
▁टैक्स	-10980
▁महोदय	-10981
▁विखंड	-10982
▁विलास	-10983
▁हरिजन	-10984
▁उदारता	-10985
▁फ़ारसी	-10986
▁चिड़िया	-10987
▁वैवाहिक	-10988
▁संभाव्य	-10989
▁समयावधि	-10990
▁समारोहों	-10991
▁सॉफ़्टवेयर	-10992
▁मंत्रिपरिषद	-10993
▁मुद्रास्फीति	-10994
ect	-10995
टलर	-10996
याब	-10997
ानक	-10998
▁चढ	-10999
त्रय	-11000
▁आलू	-11001
▁नज़	-11002
▁नोब	-11003
▁बास	-11004
▁राध	-11005
चर्या	-11006
ोरियम	-11007
▁औरंग	-11008
▁मौर्य	-11009
▁राजने	-11010
▁लिखकर	-11011
क्षाधीन	-11012
▁अनुभवी	-11013
▁आवेदनों	-11014
▁प्रवृति	-11015
▁संभालने	-11016
▁समतुल्य	-11017
▁सुझावों	-11018
▁स्थानाप	-11019
▁अधिनियमन	-11020
▁अनुज्ञेय	-11021
▁अविश्वास	-11022
▁नियमावली	-11023
▁कांग्रेसी	-11024
▁प्रोफ़ाइल	-11025
हो	-11026
दरी	-11027
▁गे	-11028
कर्स	-11029
कांड	-11030
त्सा	-11031
द्दा	-11032
र्शी	-11033
वेली	-11034
श्री	-11035
िश्व	-11036
▁कप्	-11037
▁बकर	-11038
▁शैव	-11039
▁चेतन	-11040
▁महाभ	-11041
▁महिल	-11042
दर्शित	-11043
▁कोर्स	-11044
▁जड़ें	-11045
▁तैनात	-11046
▁संकोच	-11047
▁संजीव	-11048
▁सवारी	-11049
▁दीक्षा	-11050
▁सन्देश	-11051
▁अवरुद्ध	-11052
▁गुंजाइश	-11053
▁कहानियाँ	-11054
▁सर्वांगीण	-11055
ुं	-11056
ोभ	-11057
ess	-11058
ज्य	-11059
ुली	-11060
▁gu	-11061
▁आड	-11062
▁एट	-11063
▁शन	-11064
ानंद	-11065
ाहार	-11066
ॉर्क	-11067
▁and	-11068
▁आति	-11069
▁ऑयल	-11070
▁जेब	-11071
▁थलग	-11072
▁पदा	-11073
▁लती	-11074
▁लवण	-11075
▁शिर	-11076
ज्ञों	-11077
ेलनों	-11078
▁कचरे	-11079
▁जमाव	-11080
▁तालि	-11081
▁दैवी	-11082
▁पर्ण	-11083
▁राजू	-11084
▁लाला	-11085
▁वारा	-11086
▁कच्ची	-11087
▁कीड़े	-11088
▁जिहाद	-11089
▁पड़ना	-11090
▁मनोहर	-11091
▁कठोरता	-11092
▁पर्यवे	-11093
▁फिल्टर	-11094
▁अन्यत्र	-11095
▁कीटनाशक	-11096
▁शिष्यों	-11097
▁संरक्षा	-11098
▁आधारशिला	-11099
▁व्यवहार्य	-11100
▁विद्यासागर	-11101
▁संपरिवर्तन	-11102
टेन	-11103
पने	-11104
ोडे	-11105
एमएस	-11106
हानि	-11107
▁पूर	-11108
▁मकर	-11109
▁शिम	-11110
▁हेड	-11111
ग्रंथ	-11112
▁उठती	-11113
▁औसतन	-11114
▁लाकर	-11115
▁लेखे	-11116
स्ट्री	-11117
▁पाषाण	-11118
▁अमिताभ	-11119
▁कपड़ों	-11120
▁प्रेरण	-11121
▁पुराणों	-11122
▁कुंजीपटल	-11123
▁यूरोपियन	-11124
▁उत्तराखंड	-11125
▁प्रयत्नों	-11126
▁राष्ट्रमंडल	-11127
▁अभियांत्रिकी	-11128
mp	-11129
ंन	-11130
िआ	-11131
▁AT	-11132
▁मय	-11133
ंकृत	-11134
कर्ण	-11135
▁vii	-11136
▁पिच	-11137
▁बसा	-11138
▁भाप	-11139
▁रमण	-11140
खियों	-11141
न्दरी	-11142
स्कों	-11143
▁एसिड	-11144
▁एस्ट	-11145
▁लाते	-11146
▁विलो	-11147
▁दर्पण	-11148
▁वक़्त	-11149
▁अप्रति	-11150
▁महत्तर	-11151
▁यन्त्र	-11152
▁दर्शाते	-11153
▁वांछनीय	-11154
▁विमानों	-11155
▁आंदोलनों	-11156
▁घटनाक्रम	-11157
▁रूपान्तर	-11158
▁षड्यंत्र	-11159
▁सम्बंधित	-11160
▁वार्तालाप	-11161
▁विषयवस्तु	-11162
▁संयंत्रों	-11163
▁तस	-11164
▁बँ	-11165
नायक	-11166
लेखा	-11167
वलोकन	-11168
▁आर्क	-11169
▁किशन	-11170
▁धमनी	-11171
▁परिम	-11172
▁पारी	-11173
▁प्ला	-11174
▁युगल	-11175
▁होली	-11176
ास्त्र	-11177
▁चलेगा	-11178
▁राकेश	-11179
▁संघों	-11180
▁आकृष्ट	-11181
▁दरवाजा	-11182
▁नदियां	-11183
▁पड़ताल	-11184
▁श्रृंग	-11185
▁अनुकूलन	-11186
▁अविभक्त	-11187
▁प्रथाओं	-11188
▁रोज़गार	-11189
▁द्वितीयक	-11190
गति	-11191
▁ee	-11192
▁फं	-11193
▁कश्	-11194
▁जेन	-11195
▁बैच	-11196
▁आईएफ	-11197
▁ज्ये	-11198
▁फ़्र	-11199
▁मजाक	-11200
▁लोकल	-11201
यात्रा	-11202
▁न्यूज	-11203
▁परिणत	-11204
▁वैधता	-11205
▁स्वात	-11206
▁चार्टर	-11207
▁दिखाते	-11208
▁परिवाद	-11209
▁वर्जित	-11210
▁शत्रुओं	-11211
▁अभूतपूर्व	-11212
▁कार्यनीति	-11213
▁विवेकाधिकार	-11214
▁सिद्धान्तों	-11215
हू	-11216
oun	-11217
खले	-11218
▁झं	-11219
NAME	-11220
जवान	-11221
फ़ोन	-11222
▁झाँ	-11223
▁दुब	-11224
त्तों	-11225
ोक्ति	-11226
▁उठते	-11227
▁परिभ	-11228
▁वृहत	-11229
▁संगो	-11230
▁कुछेक	-11231
▁गिर्द	-11232
▁गोल्ड	-11233
▁दोहरी	-11234
▁नायडू	-11235
▁नोटों	-11236
▁मौसमी	-11237
▁दांतों	-11238
▁राजकोष	-11239
▁क्लाइंट	-11240
▁समावेशन	-11241
▁उदाहरणों	-11242
▁अस्पतालों	-11243
▁पार्टियों	-11244
our	-11245
्तर	-11246
▁hO	-11247
▁फट	-11248
दिरा	-11249
ाप्र	-11250
▁जोन	-11251
▁पिप	-11252
▁बोर	-11253
▁राख	-11254
खास्त	-11255
▁कणों	-11256
▁कान्	-11257
▁घोड़	-11258
▁जरुर	-11259
▁डेमो	-11260
▁थोडा	-11261
▁बाइट	-11262
▁म्या	-11263
▁हटकर	-11264
चिकित्	-11265
▁ट्रेन	-11266
▁बनावट	-11267
▁बागान	-11268
▁भगवती	-11269
क्रिप्ट	-11270
▁कदाचार	-11271
▁कप्तान	-11272
▁निकटतम	-11273
▁फ्रेंच	-11274
▁दूतावास	-11275
▁उदासीनता	-11276
▁परामर्शी	-11277
▁सर्वोपरि	-11278
▁हड्डियों	-11279
▁चुनौतियां	-11280
▁सम्मेलनों	-11281
▁पाकिस्तानी	-11282
ant	-11283
गान	-11284
रोन	-11285
ातु	-11286
▁शू	-11287
यनों	-11288
शेखर	-11289
▁जोध	-11290
▁ढोल	-11291
▁बिक	-11292
▁पावन	-11293
▁मेरु	-11294
▁वाकई	-11295
▁साँस	-11296
प्रकाश	-11297
िक्षित	-11298
िस्तान	-11299
▁टिड्ड	-11300
▁बहाना	-11301
▁मक्खी	-11302
▁योंकि	-11303
▁रुपया	-11304
▁स्वंय	-11305
विधानिक	-11306
▁निबन्ध	-11307
▁ब्यौरा	-11308
▁मेजबान	-11309
▁इंग्लिश	-11310
▁परीक्षक	-11311
▁सेंट्रल	-11312
▁पदोन्नति	-11313
▁सामान्यत	-11314
▁स्त्रियां	-11315
▁कार्यनीतिक	-11316
ँघ	-11317
▁ं	-11318
ावे	-11319
्टू	-11320
▁थक	-11321
▁पैग	-11322
ोपड़ी	-11323
▁उल्टी	-11324
▁वारिस	-11325
▁अन्तरा	-11326
▁आरोपित	-11327
▁स्वीडन	-11328
▁हुकूमत	-11329
▁फर्नीचर	-11330
▁मर्यादा	-11331
▁कार्यकार	-11332
▁अध्यापकों	-11333
▁प्रजातियां	-11334
▁दुर्भाग्यवश	-11335
शै	-11336
ाकार	-11337
▁नवल	-11338
▁सडक	-11339
▁अराज	-11340
▁एसटी	-11341
▁गुला	-11342
▁नर्इ	-11343
▁पूंछ	-11344
▁विरल	-11345
▁आपूर्	-11346
▁ग्रेट	-11347
▁सस्ता	-11348
▁अभिभाव	-11349
▁अमूर्त	-11350
▁इजराइल	-11351
▁कमियों	-11352
▁दिखाएं	-11353
▁लोकहित	-11354
▁संबधित	-11355
▁उपेक्षित	-11356
▁गोपनीयता	-11357
▁बल्लेबाजी	-11358
लर	-11359
िएट	-11360
ऊंगा	-11361
▁डाँ	-11362
▁महम	-11363
▁सुष	-11364
▁हेन	-11365
पुत्र	-11366
▁घबरा	-11367
▁चमकी	-11368
▁मरीज	-11369
▁लड़ा	-11370
प्रभाव	-11371
▁ऊष्मा	-11372
▁नोबेल	-11373
▁पैकेट	-11374
▁रूढ़ि	-11375
क्षोपाय	-11376
▁अंधकार	-11377
▁उदात्त	-11378
▁कार्यो	-11379
▁चतुर्थ	-11380
▁छानबीन	-11381
▁जानकार	-11382
▁अस्वीकृत	-11383
▁नाइट्रोजन	-11384
▁पूर्वाग्रह	-11385
▁प्रतिपादित	-11386
इज	-11387
प्रे	-11388
ास्व	-11389
▁कण्	-11390
▁मों	-11391
▁हिज	-11392
▁असम्	-11393
▁बदली	-11394
▁मुहर	-11395
▁लगना	-11396
▁लड़क	-11397
▁शीतल	-11398
▁दुसरे	-11399
▁धक्का	-11400
▁फसलें	-11401
▁बनेगा	-11402
▁यौगिक	-11403
▁साँचा	-11404
त्साहित	-11405
स्थापना	-11406
▁अधिप्र	-11407
▁जुड़ने	-11408
▁तिब्बत	-11409
▁निभाने	-11410
▁नर्सिंग	-11411
▁महासचिव	-11412
▁राशियों	-11413
▁वॉल्यूम	-11414
▁क्रोमियम	-11415
▁नागालैंड	-11416
▁कांफ्रेंस	-11417
▁इंडोनेशिया	-11418
▁प्रमाणीकरण	-11419
▁पुनर्निर्माण	-11420
her	-11421
▁घि	-11422
रिटी	-11423
वाहक	-11424
▁मसू	-11425
िक्षा	-11426
▁बाएं	-11427
▁हथकर	-11428
▁अवक्ष	-11429
▁घटाने	-11430
▁चौड़ी	-11431
▁मंचों	-11432
▁शुभार	-11433
ापूर्वक	-11434
▁खर्चों	-11435
▁बॉम्बे	-11436
▁शिवाजी	-11437
▁टुकड़ों	-11438
▁अभिलाभों	-11439
▁शंकराचार्य	-11440
ल्म	-11441
िनि	-11442
▁मग	-11443
घाती	-11444
जारी	-11445
नामी	-11446
सिया	-11447
▁ओड़	-11448
▁कें	-11449
▁तने	-11450
▁दीख	-11451
▁लिह	-11452
▁शकु	-11453
ारिटी	-11454
▁काबू	-11455
▁काया	-11456
▁क्ले	-11457
▁चोटी	-11458
▁जलीय	-11459
▁भरना	-11460
▁सूखी	-11461
▁औरतों	-11462
▁कायदा	-11463
▁गुवाह	-11464
▁घोड़ा	-11465
▁चुम्ब	-11466
▁पकड़ा	-11467
▁भाजपा	-11468
▁शारदा	-11469
▁कामगार	-11470
▁घुटनों	-11471
▁ब्रांड	-11472
▁अध्यधीन	-11473
▁करोड़ों	-11474
▁निलंबित	-11475
▁भंडारित	-11476
▁करनेवाला	-11477
▁निर्धनता	-11478
▁प्रतिबिंब	-11479
▁ब्रह्मांड	-11480
▁वृद्धावस्था	-11481
▁प्रतिक्रियाओं	-11482
आप	-11483
णसी	-11484
नेल	-11485
ाइम	-11486
ीयू	-11487
▁धा	-11488
डीपी	-11489
मिति	-11490
▁नस्	-11491
▁निज	-11492
▁मनु	-11493
▁हेर	-11494
कार्ड	-11495
▁अकसर	-11496
▁इर्द	-11497
▁जनित	-11498
▁जुडे	-11499
▁जूते	-11500
▁सल्ल	-11501
न्त्री	-11502
▁घुटने	-11503
▁जाग्र	-11504
▁दुहरा	-11505
▁बताती	-11506
▁ब्लैक	-11507
▁करूँगा	-11508
▁दुश्मन	-11509
▁परिसंघ	-11510
▁बंगलौर	-11511
▁बनवाया	-11512
▁बैठकें	-11513
▁सद्भाव	-11514
▁सिखाया	-11515
▁स्तम्भ	-11516
▁अधिरोपण	-11517
▁नक्षत्र	-11518
▁देशभक्ति	-11519
▁प्रत्यर्थियों	-11520
ST	-11521
ud	-11522
२ख	-11523
तिर	-11524
लीस	-11525
ापा	-11526
▁र्	-11527
▁लव	-11528
efit	-11529
पाही	-11530
माता	-11531
ोज्य	-11532
▁org	-11533
▁अवन	-11534
▁कंस	-11535
▁कोच	-11536
▁सजग	-11537
गृहीत	-11538
र्करा	-11539
संहार	-11540
िपत्य	-11541
▁आवेग	-11542
▁गांठ	-11543
▁छेड़	-11544
▁मकसद	-11545
▁मोचन	-11546
▁स्वय	-11547
▁एटीएम	-11548
▁डायरी	-11549
▁रिवाज	-11550
▁कृषकों	-11551
▁निवारक	-11552
▁सिक्के	-11553
▁दृश्यों	-11554
▁मानवाधिकार	-11555
ard	-11556
ैंप	-11557
▁ko	-11558
▁मिड	-11559
कीकरण	-11560
▁अकाल	-11561
▁आइटम	-11562
▁कुला	-11563
▁रीढ़	-11564
▁संकर	-11565
▁अपरिव	-11566
▁उभरते	-11567
▁निकली	-11568
▁कैरियर	-11569
▁नौजवान	-11570
▁रचनाएं	-11571
▁आरम्भिक	-11572
▁पुरूषों	-11573
▁मार्क्स	-11574
▁मालिकों	-11575
▁मौद्रिक	-11576
▁वाराणसी	-11577
▁वृंदावन	-11578
▁समामेलन	-11579
▁सुल्तान	-11580
▁अपमानजनक	-11581
▁उन्मुक्त	-11582
▁कॉपीराइट	-11583
▁निर्यातक	-11584
▁यात्राओं	-11585
▁राजेंद्र	-11586
▁शुक्राणु	-11587
▁पड़ोसियों	-11588
▁परिलक्षित	-11589
▁निष्कर्षों	-11590
▁ब्राह्मणों	-11591
ep	-11592
झक	-11593
२१	-11594
कटि	-11595
भोग	-11596
सलम	-11597
▁लख	-11598
गण्य	-11599
ज़ोर	-11600
▁जलन	-11601
▁डाई	-11602
▁तड़	-11603
▁रहो	-11604
▁लॉक	-11605
▁विव	-11606
्मीकि	-11607
▁अधिर	-11608
▁फिल्	-11609
▁भीषण	-11610
▁मनोम	-11611
▁राणा	-11612
▁हिरण	-11613
बुद्धि	-11614
िस्ट्र	-11615
▁आलोचक	-11616
▁खोजें	-11617
▁गैसों	-11618
▁तटस्थ	-11619
▁वरदान	-11620
कर्त्ता	-11621
डब्ल्यू	-11622
▁असहमति	-11623
▁जहाजों	-11624
▁प्रवीण	-11625
▁प्राक्	-11626
▁सम्यक्	-11627
▁स्थापन	-11628
▁हरिश्च	-11629
▁रणनीतिक	-11630
▁राजशाही	-11631
▁रिवाजों	-11632
▁संदेशों	-11633
▁गतिशीलता	-11634
▁प्रकोष्ठ	-11635
▁एक्सप्रेस	-11636
▁न्यायनिर्	-11637
▁प्रतिपादन	-11638
▁शेयरधारकों	-11639
▁सैद्धांतिक	-11640
▁परिवीक्षाधीन	-11641
इए	-11642
रथ	-11643
गना	-11644
जना	-11645
फिल	-11646
ौरन	-11647
ज्जु	-11648
▁गें	-11649
आयामी	-11650
▁अब्ब	-11651
▁छन्द	-11652
▁ताना	-11653
▁पीला	-11654
▁सोया	-11655
enefit	-11656
रेनियम	-11657
ेश्वरी	-11658
▁अंशों	-11659
▁अठारह	-11660
▁अलगाव	-11661
▁कलाओं	-11662
▁काबुल	-11663
▁जर्नल	-11664
▁दिखाए	-11665
▁पेशाब	-11666
▁हज़ार	-11667
▁ह्रदय	-11668
▁दूरभाष	-11669
▁सामग्र	-11670
▁पहुंचना	-11671
▁विवाहित	-11672
▁व्यक़्त	-11673
▁स्ट्रीम	-11674
▁हाथियों	-11675
▁राजकुमारी	-11676
▁उपलब्धियां	-11677
▁परिसंपत्ति	-11678
िं	-11679
ide	-11680
बिक	-11681
ोकर	-11682
्रक	-11683
▁मच	-11684
▁हठ	-11685
▁केक	-11686
▁खडे	-11687
▁मित	-11688
▁मेग	-11689
▁आज्ञ	-11690
▁उठकर	-11691
▁कमान	-11692
▁गाजा	-11693
▁दोहन	-11694
▁रिली	-11695
▁लपेट	-11696
▁अपीली	-11697
▁कीमती	-11698
▁चाहने	-11699
▁भावों	-11700
▁सस्ती	-11701
▁सुनील	-11702
▁कांस्ट	-11703
▁खासतौर	-11704
▁मिटाएँ	-11705
▁ईश्वरीय	-11706
▁किताबों	-11707
▁जन्मजात	-11708
▁दीक्षित	-11709
▁पर्वतों	-11710
▁पुरोहित	-11711
▁प्रत्ये	-11712
▁करनेवाली	-11713
aI	-11714
ाख	-11715
ive	-11716
ंडर	-11717
नित	-11718
ोचन	-11719
▁्ट	-11720
चुअल	-11721
▁कवक	-11722
▁ठंड	-11723
▁रूक	-11724
ित्ति	-11725
▁तुलन	-11726
▁बतला	-11727
▁बाली	-11728
▁बालू	-11729
▁रोपण	-11730
▁विदा	-11731
▁खातून	-11732
▁पराजय	-11733
▁माइनस	-11734
▁असीमित	-11735
▁आनुपात	-11736
▁गुर्दे	-11737
▁जूनियर	-11738
▁नामकरण	-11739
▁भेड़ों	-11740
▁मुसीबत	-11741
▁शक़्ति	-11742
▁मार्जिन	-11743
▁वैचारिक	-11744
▁स्ट्रीट	-11745
▁बस्तियों	-11746
▁बेजबरुवा	-11747
▁कठिनाइयां	-11748
▁अधिनिर्णीत	-11749
▁राष्ट्रवाद	-11750
▁प्रतिभाशाली	-11751
▁हस्ताक्षरित	-11752
▁देवेन्द्रनाथ	-11753
फन	-11754
बरे	-11755
रीब	-11756
सला	-11757
ोमा	-11758
▁AP	-11759
▁जक	-11760
iver	-11761
नाशी	-11762
ल्लम	-11763
शियम	-11764
स्तक	-11765
ांतक	-11766
ावती	-11767
▁छीन	-11768
▁दीव	-11769
▁रहस	-11770
योजित	-11771
▁आएगी	-11772
▁आवेश	-11773
▁एनएस	-11774
▁कच्छ	-11775
▁गायन	-11776
▁मैनु	-11777
▁रखाव	-11778
▁अंकुश	-11779
▁एहसास	-11780
▁परिकल	-11781
▁पन्द्र	-11782
▁भाषाएँ	-11783
▁चार्ल्स	-11784
▁डाटाबेस	-11785
▁गुवाहाटी	-11786
▁मानसिकता	-11787
▁उन्नीसवीं	-11788
▁न्यायसंगत	-11789
▁रूपांतरित	-11790
▁लाइब्रेरी	-11791
▁सुप्रसिद्ध	-11792
लिफ	-11793
सुर	-11794
ह्म	-11795
▁दं	-11796
▁नूर	-11797
▁फलन	-11798
▁मिर	-11799
▁रिल	-11800
▁रूख	-11801
▁हँस	-11802
्रामक	-11803
▁अफसर	-11804
▁आदिम	-11805
▁आभार	-11806
▁आरटी	-11807
▁कस्ट	-11808
▁कांट	-11809
▁घाना	-11810
▁चतुर	-11811
▁जाली	-11812
▁जूरी	-11813
▁ध्या	-11814
▁बेचा	-11815
▁भूषण	-11816
▁राजग	-11817
▁साउथ	-11818
▁सोलह	-11819
▁अड्डे	-11820
▁पत्ती	-11821
▁हल्की	-11822
▁कहलाती	-11823
▁कीमिया	-11824
▁जोड़ता	-11825
▁पड़ेगी	-11826
▁बहियों	-11827
▁विषाणु	-11828
▁सन्देह	-11829
▁सिपाही	-11830
▁सुशासन	-11831
▁स्टैंड	-11832
▁निकालकर	-11833
▁सेनापति	-11834
▁दूरदर्शन	-11835
▁प्रक्षेप	-11836
▁अंतर्वलित	-11837
▁प्रत्याशा	-11838
शर	-11839
▁ण	-11840
वुड	-11841
▁घी	-11842
▁झी	-11843
ंजित	-11844
डियम	-11845
▁गाल	-11846
▁घुल	-11847
▁नशी	-11848
▁ऑप्ट	-11849
▁जबतक	-11850
▁बुजु	-11851
▁भूरे	-11852
▁माधव	-11853
▁यकृत	-11854
▁अभिनव	-11855
▁उद्दी	-11856
▁जिंदा	-11857
▁पार्थ	-11858
▁काव्या	-11859
▁ज्ञानी	-11860
▁अनुषंगी	-11861
▁एकरूपता	-11862
▁परिषदों	-11863
▁शुरुआती	-11864
▁अनुष्ठान	-11865
▁परिचालित	-11866
▁प्रदर्शक	-11867
▁तत्संबंधी	-11868
▁बुद्धिमत्ता	-11869
िओ	-11870
आउट	-11871
य्य	-11872
करार	-11873
किसी	-11874
▁for	-11875
▁अरा	-11876
▁एम्	-11877
▁खोद	-11878
▁गड्	-11879
▁घोल	-11880
▁जीभ	-11881
▁जूझ	-11882
▁मोज	-11883
▁विह	-11884
▁सल्	-11885
िकाएं	-11886
▁अर्ह	-11887
▁आफिस	-11888
▁इन्स	-11889
▁छिपे	-11890
▁नर्त	-11891
▁बाला	-11892
▁मोदी	-11893
▁यूएस	-11894
▁रोके	-11895
▁लाता	-11896
▁लेबन	-11897
निकेतन	-11898
▁असहाय	-11899
▁आठवीं	-11900
▁आत्मक	-11901
▁रद्दी	-11902
▁वाष्प	-11903
▁सुचार	-11904
▁कीर्ति	-11905
▁लम्बाई	-11906
▁सिक्का	-11907
चिकित्सा	-11908
▁विवरणों	-11909
▁उत्कीर्ण	-11910
▁अनुज्ञप्ति	-11911
▁कार्यकारिणी	-11912
▁कार्यप्रणाली	-11913
..	-11914
ाइज	-11915
▁Al	-11916
▁on	-11917
▁वश	-11918
िप्स	-11919
▁अरु	-11920
▁खडा	-11921
▁पिक	-11922
▁पूल	-11923
▁पैक	-11924
▁फंच	-11925
▁यहा	-11926
▁राइ	-11927
▁रेज	-11928
▁शशि	-11929
▁सुभ	-11930
ियाना	-11931
िवेदी	-11932
▁टाउन	-11933
▁पायल	-11934
▁प्रज	-11935
▁बनें	-11936
▁भयाव	-11937
▁राज़	-11938
▁सूती	-11939
▁अकेली	-11940
▁उद्भव	-11941
▁चालित	-11942
▁दसवीं	-11943
▁बरसात	-11944
▁बिलों	-11945
▁महमूद	-11946
▁शुक्ल	-11947
▁सम्यक	-11948
▁स्कैन	-11949
▁उत्तरो	-11950
▁बनर्जी	-11951
▁संवेदी	-11952
▁साँचाः	-11953
▁मार्गों	-11954
▁उग्रवादी	-11955
▁निर्देशन	-11956
▁पांडुलिप	-11957
▁रिपब्लिक	-11958
▁प्रणालियां	-11959
▁पारिस्थितिकी	-11960
हट	-11961
नाद	-11962
बूत	-11963
▁to	-11964
▁दय	-11965
▁भट	-11966
गर्भ	-11967
▁कतर	-11968
▁कुच	-11969
▁कैथ	-11970
▁कोऋ	-11971
▁घटी	-11972
पल्ली	-11973
▁नकार	-11974
▁पितृ	-11975
▁पोशा	-11976
▁बहने	-11977
▁मीरा	-11978
▁सोनू	-11979
▁स्टे	-11980
▁अनगिन	-11981
▁कैम्प	-11982
▁जागरण	-11983
▁दबाने	-11984
▁ब्रह्	-11985
▁विध्व	-11986
न्त्रिक	-11987
▁आँकड़ा	-11988
▁गणितीय	-11989
▁फिलहाल	-11990
▁विधिवत	-11991
▁उदारीकरण	-11992
▁जिज्ञासा	-11993
▁निर्वाचक	-11994
▁विज्ञानी	-11995
AR	-11996
रव	-11997
्ग	-11998
रिफ	-11999
▁नख	-12000
आईएस	-12001
क्से	-12002
वेरी	-12003
ानेक	-12004
ुकूल	-12005
▁आईए	-12006
▁छठी	-12007
▁बरत	-12008
▁सीप	-12009
▁कोटा	-12010
▁द्यो	-12011
▁नकली	-12012
▁रवैया	-12013
▁विक्ट	-12014
▁सुनना	-12015
▁अनदेखी	-12016
▁आवंटित	-12017
▁आदमियों	-12018
▁वाद्यों	-12019
▁समझौतों	-12020
▁प्रतिज्ञा	-12021
माय	-12022
सिन	-12023
▁टु	-12024
चर्य	-12025
प्सा	-12026
▁III	-12027
▁किफ	-12028
▁कौम	-12029
मान्त	-12030
वाड़ा	-12031
्लैंड	-12032
▁उठाई	-12033
▁उभरे	-12034
▁फोकस	-12035
▁राइट	-12036
▁विज़	-12037
▁खरीदी	-12038
▁डालती	-12039
▁द्रवि	-12040
▁बिगड़	-12041
▁सब्जी	-12042
▁सावधि	-12043
▁देखिये	-12044
▁एजेन्सी	-12045
▁चिंताओं	-12046
▁पहचानने	-12047
▁फुफ्फुस	-12048
▁मिलेंगे	-12049
▁वायुयान	-12050
▁यूरेनियम	-12051
▁संभाव्यता	-12052
▁सांविधानिक	-12053
▁शिकायतकर्ता	-12054
ON	-12055
ine	-12056
प्स	-12057
मास	-12058
▁Aa	-12059
▁कऋ	-12060
▁बङ	-12061
ंगनी	-12062
तमंद	-12063
र्मर	-12064
ासाह	-12065
ैनिक	-12066
▁चीफ	-12067
▁बरस	-12068
र्वाद	-12069
ामंडल	-12070
्यांश	-12071
▁ईर्ष	-12072
▁सद्द	-12073
▁सुकर	-12074
वास्तव	-12075
▁अपलोड	-12076
▁काटना	-12077
▁खोलना	-12078
▁जोज़े	-12079
▁तुमसे	-12080
▁पंखों	-12081
▁पढ़कर	-12082
▁महिमा	-12083
कृतियों	-12084
स्वार्थ	-12085
▁काउंटर	-12086
▁चुकौती	-12087
▁बिल्ली	-12088
▁मुनाफा	-12089
▁वर्तनी	-12090
▁विचलित	-12091
▁गुरबख्श	-12092
▁जनशक्ति	-12093
▁पहाड़ों	-12094
▁प्रांतों	-12095
▁संश्लेषण	-12096
▁तत्पश्चात	-12097
▁हाइड्रोजन	-12098
▁प्रतिस्पर्धी	-12099
ies	-12100
फली	-12101
मरी	-12102
युग	-12103
शान	-12104
▁ऑल	-12105
▁व्	-12106
खाने	-12107
गोचर	-12108
योगी	-12109
ार्ग	-12110
▁जात	-12111
▁जिम	-12112
▁पाक	-12113
▁पिल	-12114
▁बुध	-12115
▁मरु	-12116
▁मोम	-12117
▁रजत	-12118
▁लोम	-12119
▁सप्	-12120
▁सास	-12121
ंडिंग	-12122
▁उभरा	-12123
▁टेबल	-12124
▁डेढ़	-12125
▁नासा	-12126
▁मुर्	-12127
कात्मक	-12128
▁इशारा	-12129
▁इस्ती	-12130
▁एकाएक	-12131
▁घुड़स	-12132
▁पोषित	-12133
▁बांटा	-12134
▁सिद्व	-12135
प्रतिशत	-12136
▁कीमतें	-12137
▁निशाना	-12138
▁नेपाली	-12139
▁सिगरेट	-12140
▁बुजुर्ग	-12141
▁अनेकानेक	-12142
▁सार्वभौम	-12143
▁सेटिंग्स	-12144
▁विकासात्मक	-12145
▁प्रतिभागियों	-12146
योजन	-12147
लेटर	-12148
ौकिक	-12149
्यूब	-12150
▁इंक	-12151
▁चर्	-12152
▁शहद	-12153
ालिया	-12154
▁कुचल	-12155
▁चुनि	-12156
▁धनुष	-12157
▁निता	-12158
▁डब्लू	-12159
▁डालकर	-12160
▁मानती	-12161
▁विजयी	-12162
▁सेंटी	-12163
जीवियों	-12164
ोर्निया	-12165
▁नैसर्ग	-12166
▁अवशिष्ट	-12167
▁पहुंचते	-12168
▁समयबद्ध	-12169
▁सिलसिले	-12170
▁प्रक्रमण	-12171
▁मतदाताओं	-12172
▁वायुसेना	-12173
▁मुर्गियों	-12174
▁संवेदनशीलता	-12175
ma	-12176
ort	-12177
णाम	-12178
▁ओस	-12179
▁पलट	-12180
▁फीड	-12181
▁हिच	-12182
रेक्ट	-12183
ेरिया	-12184
्यस्त	-12185
▁उड़न	-12186
▁ऐक्ट	-12187
▁गिरि	-12188
▁जुडी	-12189
▁देसी	-12190
स्थायी	-12191
▁खजाने	-12192
▁निगाह	-12193
▁पार्व	-12194
▁मंगोल	-12195
▁सेमिन	-12196
किस्तान	-12197
▁कुर्की	-12198
▁प्रवर्	-12199
▁सहभागी	-12200
▁ऋणात्मक	-12201
▁प्रदूषक	-12202
▁ब्राजील	-12203
▁सियाराम	-12204
▁उत्तीर्ण	-12205
▁कम्प्यूट	-12206
▁ट्रेडिंग	-12207
▁संख्याओं	-12208
▁संतुष्टि	-12209
▁स्टेशनों	-12210
▁सुव्यवस्थित	-12211
ुकत	-12212
▁उर	-12213
▁गन	-12214
ंचना	-12215
वारा	-12216
ोस्ट	-12217
▁अन्	-12218
▁मुस	-12219
▁ऑटोम	-12220
▁कड़े	-12221
▁क्रू	-12222
▁ख़ान	-12223
▁चारे	-12224
▁परिध	-12225
▁फार्	-12226
▁बुढ़	-12227
▁भुला	-12228
▁मुक़	-12229
▁लंका	-12230
▁वाटर	-12231
▁वैभव	-12232
▁सादे	-12233
ियोजित	-12234
▁अक्षय	-12235
▁कैलाश	-12236
▁मनोमय	-12237
▁रुझान	-12238
▁सॉल्व	-12239
▁कहलाते	-12240
▁गंधर्व	-12241
▁गुलाबी	-12242
▁निरूपण	-12243
▁परिजनों	-12244
▁पुत्रों	-12245
▁संकुचित	-12246
▁अनुदेशों	-12247
▁उत्साहित	-12248
▁महाभियोग	-12249
▁श्रीवास्तव	-12250
▁पुनरावृत्ति	-12251
कू	-12252
ill	-12253
गीत	-12254
श्क	-12255
्य्	-12256
▁रत	-12257
गम्य	-12258
जियम	-12259
वांछ	-12260
▁अथक	-12261
▁कंद	-12262
▁कटक	-12263
▁कवच	-12264
▁केन	-12265
▁कौश	-12266
▁चलन	-12267
▁भगव	-12268
▁वेल	-12269
ग्रही	-12270
ियनों	-12271
▁कमला	-12272
▁कैल्	-12273
▁डीपी	-12274
▁दफ्त	-12275
▁मोनो	-12276
▁यत्न	-12277
र्तनीय	-12278
▁घटिया	-12279
▁जीनों	-12280
▁तूफान	-12281
▁पुर्न	-12282
▁भूभाग	-12283
▁वीरता	-12284
▁संवित	-12285
ानात्मक	-12286
▁जोधपुर	-12287
▁निभाता	-12288
▁भ्रामक	-12289
▁रुकावट	-12290
▁रेटिंग	-12291
▁विमानन	-12292
▁सद्दाम	-12293
▁तालिबान	-12294
▁परिपाटी	-12295
▁बुनियाद	-12296
▁एचपीसीएल	-12297
▁होनेवाली	-12298
▁त्रुटियों	-12299
▁व्यवस्थाओं	-12300
क्य	-12301
टिन	-12302
पदी	-12303
▁द्	-12304
▁भत	-12305
एंगे	-12306
▁एनी	-12307
▁डबल	-12308
▁माई	-12309
▁हिट	-12310
द्रोह	-12311
▁चंचल	-12312
▁नैगम	-12313
▁समाध	-12314
यात्मक	-12315
▁पकड़े	-12316
▁रक़्त	-12317
▁सांके	-12318
▁अहंकार	-12319
▁खुफिया	-12320
▁ग्रामो	-12321
▁चटर्जी	-12322
▁पदधारी	-12323
▁भ्रमित	-12324
▁शाखाएं	-12325
▁सुनाया	-12326
▁सोनिया	-12327
▁हथकरघा	-12328
▁पुर्तगाली	-12329
▁छात्रवृत्ति	-12330
▁परामर्शदाता	-12331
ऐं	-12332
ठर	-12333
ैप	-12334
ink	-12335
ञ्च	-12336
ैरह	-12337
▁IS	-12338
ण्डा	-12339
निधि	-12340
महाद	-12341
ुलिन	-12342
▁कंड	-12343
▁पों	-12344
▁मनप	-12345
▁शाप	-12346
▁स्ल	-12347
विहीन	-12348
▁बहाव	-12349
▁बोनस	-12350
▁मेजर	-12351
▁यहॉँ	-12352
▁वसंत	-12353
▁वाक्	-12354
च्छन्न	-12355
▁उभरती	-12356
▁खरीदा	-12357
▁देयता	-12358
▁पल्लव	-12359
▁बर्बर	-12360
▁संचलन	-12361
▁सुरेश	-12362
▁स्कंध	-12363
▁अनदेखा	-12364
▁अफ़्री	-12365
▁बालिका	-12366
▁लेखाओं	-12367
▁शिकारी	-12368
▁शेयर्स	-12369
▁सवालों	-12370
▁अवक्षयण	-12371
▁परन्तुक	-12372
▁सराहनीय	-12373
▁इन्द्रिय	-12374
▁जानेवाले	-12375
▁नवीकरणीय	-12376
▁नैसर्गिक	-12377
▁पुरातत्व	-12378
▁मातृभाषा	-12379
▁उत्पादकों	-12380
फू	-12381
ौज	-12382
दून	-12383
मनी	-12384
▁af	-12385
ल्लू	-12386
विता	-12387
▁आसन	-12388
▁टंक	-12389
▁रूम	-12390
▁सूट	-12391
त्सना	-12392
▁अन्व	-12393
▁चौकी	-12394
▁महाक	-12395
▁शोभा	-12396
▁संचय	-12397
▁सप्त	-12398
जीलैंड	-12399
▁अनवरत	-12400
▁आपमें	-12401
▁कदमों	-12402
▁गुम्ब	-12403
▁ठहराव	-12404
▁हिटलर	-12405
▁जोड़कर	-12406
▁सूरदास	-12407
▁आत्मकथा	-12408
▁इमारतों	-12409
▁कैदियों	-12410
▁निषिद्ध	-12411
▁प्रारुप	-12412
▁समवर्ती	-12413
▁अंग्रेज़	-12414
▁व्याप्ति	-12415
▁सांकेतिक	-12416
▁पूर्वगामी	-12417
▁साम्यवादी	-12418
▁अन्तरराष्ट्रीय	-12419
ऋर	-12420
भन	-12421
ैग	-12422
िनस	-12423
ुरू	-12424
ंजना	-12425
एसआई	-12426
्तिक	-12427
▁एआर	-12428
▁क्य	-12429
▁छठे	-12430
▁ज्ह	-12431
▁दोन	-12432
▁फेल	-12433
▁यूर	-12434
▁शौक	-12435
न्नों	-12436
बाज़ी	-12437
िक्षण	-12438
▁खयाल	-12439
▁घोषण	-12440
▁डीवी	-12441
▁पीटर	-12442
▁भाषी	-12443
▁सलाम	-12444
ण्डेकर	-12445
▁गुज़र	-12446
▁घटाना	-12447
▁चलाते	-12448
▁तदर्थ	-12449
▁धब्बे	-12450
▁नाड़ी	-12451
▁पक्षा	-12452
▁भागतः	-12453
▁कहेंगे	-12454
▁गठबंधन	-12455
▁मेट्रो	-12456
▁संबोधन	-12457
▁पन्द्रह	-12458
▁प्रशंसक	-12459
▁फैक्टरी	-12460
▁शुभारंभ	-12461
▁अध्ययनों	-12462
▁खाण्डेकर	-12463
▁निबंधनों	-12464
▁स्थापत्य	-12465
▁बेरोजगारी	-12466
▁हिंदुस्तानी	-12467
खड़	-12468
गुल	-12469
डिय	-12470
▁ढु	-12471
ंद्व	-12472
काशी	-12473
निटर	-12474
न्नत	-12475
ावास	-12476
िदास	-12477
▁आहत	-12478
▁उखा	-12479
▁खड़	-12480
▁थें	-12481
वाड़ी	-12482
ुपालन	-12483
▁आकडा	-12484
▁खाती	-12485
▁थैली	-12486
▁धड़क	-12487
▁बायो	-12488
▁लेंस	-12489
▁सावर	-12490
▁कथानक	-12491
▁घूमने	-12492
▁वीर्य	-12493
▁क़ुरआन	-12494
▁मिजोरम	-12495
▁तंत्रिक	-12496
▁दिखायें	-12497
▁रक्तचाप	-12498
▁विश्वभर	-12499
▁चट्टानों	-12500
▁प्रतिभाव	-12501
▁प्रोत्सा	-12502
▁रिफाइनरी	-12503
▁विकलांगता	-12504
▁प्रस्तुतीकरण	-12505
२२	-12506
वने	-12507
्जा	-12508
वसाय	-12509
ागरण	-12510
ातों	-12511
ुलकर	-12512
▁जना	-12513
▁धाम	-12514
ब्दिक	-12515
शीघ्र	-12516
ेक्शन	-12517
▁ऊँची	-12518
▁गाते	-12519
▁जहॉँ	-12520
▁तेरह	-12521
▁पीसी	-12522
▁फौरन	-12523
▁बंधे	-12524
▁मंडी	-12525
ेदारों	-12526
▁कोलंब	-12527
▁प्राग	-12528
▁सौदों	-12529
रिवर्तन	-12530
▁अनगिनत	-12531
▁शौचालय	-12532
▁आलोचकों	-12533
▁ईमानदार	-12534
▁ज्येष्ठ	-12535
▁पुनर्जी	-12536
▁प्रसूति	-12537
▁आशीर्वाद	-12538
▁अव्यवस्था	-12539
▁प्रतीकात्मक	-12540
ew	-12541
खलन	-12542
त्था	-12543
ध्या	-12544
यिता	-12545
श्रम	-12546
▁उनह	-12547
▁कंठ	-12548
▁चिल	-12549
▁डोम	-12550
▁धर्	-12551
▁नें	-12552
▁माफ	-12553
त्म्य	-12554
▁http	-12555
▁एनसी	-12556
▁सकाः	-12557
▁सीसी	-12558
▁खुदाई	-12559
▁घटाकर	-12560
▁मथुरा	-12561
ऑक्साइड	-12562
▁अन्तरण	-12563
▁कन्नड़	-12564
▁जोड़ों	-12565
▁मिटाने	-12566
▁अपरिचित	-12567
▁इण्डिया	-12568
▁तात्विक	-12569
▁दुर्व्य	-12570
▁पार्वती	-12571
▁व्यवधान	-12572
▁समन्वयन	-12573
▁कारपोरेट	-12574
▁संग्रहित	-12575
▁समनुदेशन	-12576
yp	-12577
खला	-12578
तित	-12579
नोट	-12580
सिल	-12581
▁er	-12582
▁ex	-12583
▁छव	-12584
मापी	-12585
ावटी	-12586
ूकोज	-12587
ोलिक	-12588
▁अवत	-12589
▁ट्व	-12590
▁दुम	-12591
▁शही	-12592
▁अमित	-12593
▁एनाल	-12594
▁खिलौ	-12595
▁झूठे	-12596
▁बसंत	-12597
▁मिज़	-12598
▁राशन	-12599
▁वायर	-12600
विद्या	-12601
▁ज़रूर	-12602
▁पडेगा	-12603
▁मारना	-12604
▁वल्लभ	-12605
▁वसीयत	-12606
▁रिचर्ड	-12607
▁विक्रे	-12608
▁स्तुति	-12609
▁जीवाश्म	-12610
▁मार्टिन	-12611
▁विंडोज़	-12612
▁सम्भवतः	-12613
▁जानेवाली	-12614
▁अल्पकालिक	-12615
▁बहुपक्षीय	-12616
▁पुनर्विचार	-12617
st	-12618
फ़ल	-12619
ब्स	-12620
सरत	-12621
ालु	-12622
▁cl	-12623
मंडप	-12624
२वीं	-12625
▁अनी	-12626
▁एप्	-12627
▁पंप	-12628
▁पैं	-12629
▁भैं	-12630
▁सबक	-12631
▁सुम	-12632
ूपयोग	-12633
▁एडवो	-12634
▁कभार	-12635
▁निशा	-12636
▁मनोज	-12637
▁व्यप	-12638
▁उल्टा	-12639
▁कानों	-12640
▁काष्ठ	-12641
▁तितली	-12642
▁दोषों	-12643
▁दोहरे	-12644
▁अयोग्य	-12645
▁कमज़ोर	-12646
▁परिनद्	-12647
▁महत्ता	-12648
▁मुलायम	-12649
▁मोर्चे	-12650
▁व्यथित	-12651
▁शर्करा	-12652
▁सम्पदा	-12653
▁सुधारक	-12654
निरपेक्ष	-12655
▁अतिमानस	-12656
▁इक्विटी	-12657
▁आपूर्तिक	-12658
▁फोटोग्रा	-12659
▁बहुआयामी	-12660
▁श्रेष्ठता	-12661
▁सम्मिश्रण	-12662
▁पुरस्कारों	-12663
▁मुकदमेबाजी	-12664
▁नवान्वेषकों	-12665
▁हरिश्चन्द्र	-12666
ra	-12667
ंए	-12668
बम	-12669
२३	-12670
ईसी	-12671
न्ज	-12672
वली	-12673
ायु	-12674
जीपी	-12675
भाषी	-12676
र्दी	-12677
▁आपे	-12678
▁कहल	-12679
▁चोल	-12680
▁पेन	-12681
▁सफर	-12682
माण्ड	-12683
शीर्ष	-12684
▁गोबर	-12685
▁दाता	-12686
▁दुरा	-12687
▁पम्प	-12688
▁यूएन	-12689
ग्रन्थ	-12690
प्रसाद	-12691
मंडलों	-12692
ृतियों	-12693
▁चलाता	-12694
▁चूर्ण	-12695
▁तेजाब	-12696
▁पहलें	-12697
▁प्रता	-12698
▁बैकअप	-12699
▁भागने	-12700
▁मसौदा	-12701
▁मिर्च	-12702
▁मिसाल	-12703
▁साइंस	-12704
▁अविश्व	-12705
▁लाइनों	-12706
▁देशभक्त	-12707
▁रहस्यमय	-12708
▁राजनयिक	-12709
▁निःसंदेह	-12710
▁प्रदूषित	-12711
▁शक्तियाँ	-12712
▁विरोधाभास	-12713
▁उत्तरोत्तर	-12714
▁विवेकपूर्ण	-12715
▁शांतिनिकेतन	-12716
MA	-12717
ee	-12718
१ख	-12719
ंती	-12720
तेह	-12721
▁घू	-12722
भाजन	-12723
र्षण	-12724
सेसर	-12725
▁अनज	-12726
▁पॉप	-12727
▁शिप	-12728
ोबारी	-12729
▁कल्प	-12730
▁ग़लत	-12731
▁गुदा	-12732
▁झुका	-12733
▁धागे	-12734
▁नवयु	-12735
▁भूरा	-12736
▁मनीष	-12737
▁यादृ	-12738
▁विशि	-12739
न्दराम	-12740
स्थानी	-12741
▁आरोहण	-12742
▁पूछें	-12743
▁शिमला	-12744
▁संतति	-12745
▁सोचकर	-12746
▁अभिषेक	-12747
▁अस्थाई	-12748
▁जस्टिस	-12749
▁परिक्र	-12750
▁प्रीति	-12751
▁मैनुअल	-12752
▁विभक्त	-12753
▁अभिकल्प	-12754
▁अस्वस्थ	-12755
▁टेक्स्ट	-12756
▁शाब्दिक	-12757
▁दुरूपयोग	-12758
▁मूर्तियों	-12759
ेण	-12760
३क	-12761
ick	-12762
कोड	-12763
िप्	-12764
ुनी	-12765
ैरा	-12766
म्बल	-12767
▁लाय	-12768
र्भाव	-12769
▁इन्फ	-12770
▁उठने	-12771
▁ठंडे	-12772
▁मूंग	-12773
▁लाती	-12774
▁सूरी	-12775
▁छुट्ट	-12776
▁निकास	-12777
▁पलायन	-12778
▁बैठते	-12779
▁समेकन	-12780
▁सर्वे	-12781
▁सस्ते	-12782
▁स्क्व	-12783
▁पासवान	-12784
▁प्रोद्	-12785
▁प्लगिन	-12786
▁रिटर्न	-12787
▁कंट्रोल	-12788
▁स्पर्धा	-12789
▁आईएफसीआई	-12790
▁कारखानों	-12791
▁कार्यशील	-12792
▁प्रवर्तक	-12793
▁ग्रीनहाउस	-12794
▁मूर्तियां	-12795
▁निम्नानुसार	-12796
तट	-12797
han	-12798
शोध	-12799
संघ	-12800
ालो	-12801
्ना	-12802
ट्ठी	-12803
शकों	-12804
▁नमी	-12805
▁सीर	-12806
▁सैल	-12807
क्रोश	-12808
ताकार	-12809
धुनिक	-12810
विदों	-12811
▁किसे	-12812
▁चकित	-12813
▁छत्र	-12814
▁जीना	-12815
▁टीके	-12816
▁डाउन	-12817
▁दिक्	-12818
▁बूंद	-12819
▁भुजा	-12820
▁रूपी	-12821
▁लड़ी	-12822
▁व्यक	-12823
▁सपाट	-12824
▁सबकी	-12825
▁सुवि	-12826
▁कम्यू	-12827
▁खजाना	-12828
▁छोड़ी	-12829
▁दत्तक	-12830
▁नोट्स	-12831
▁खनिजों	-12832
▁ग्रसनी	-12833
▁मकानों	-12834
▁रिव्यू	-12835
▁समांतर	-12836
▁गर्भपात	-12837
▁पहुंचता	-12838
▁तुल्यकाल	-12839
▁अधिकांशतः	-12840
▁प्रवर्तित	-12841
▁यादृच्छिक	-12842
▁टिप्पणियों	-12843
▁सर्जनात्मक	-12844
▁सियारामशरण	-12845
▁हिन्दुस्तानियों	-12846
मीद	-12847
शों	-12848
हों	-12849
▁ईस	-12850
▁नग	-12851
चिकर	-12852
वाहन	-12853
विद्	-12854
्ट्र	-12855
▁कॉर	-12856
▁जेट	-12857
▁टाई	-12858
▁फ़ी	-12859
▁भड़	-12860
▁भान	-12861
त्तरी	-12862
रीकरण	-12863
▁अवरो	-12864
▁उदास	-12865
▁ऊँचा	-12866
▁कोले	-12867
▁नामे	-12868
▁निषे	-12869
▁मारी	-12870
▁लाइट	-12871
▁सुझा	-12872
▁अरबों	-12873
▁खांसी	-12874
▁खानों	-12875
▁छोडकर	-12876
▁टनभार	-12877
▁फेडरल	-12878
▁फैलने	-12879
▁बायोग	-12880
▁समझकर	-12881
▁सहदेव	-12882
▁अंसारी	-12883
▁अवार्ड	-12884
▁उदयपुर	-12885
▁उपद्रव	-12886
▁कनिष्ठ	-12887
▁घोड़ों	-12888
▁टांगों	-12889
▁परिणति	-12890
▁प्रमोद	-12891
▁मनमाने	-12892
▁साइटों	-12893
▁सेवकों	-12894
संख्यकों	-12895
▁एडवोकेट	-12896
▁माइक्रोस	-12897
▁इंडस्ट्री	-12898
▁चेन्नम्मा	-12899
▁व्यवसायिक	-12900
▁प्रतिभावान	-12901
ुना	-12902
गिरि	-12903
ताना	-12904
▁पेड	-12905
▁भर्	-12906
▁रहन	-12907
▁लता	-12908
▁लिय	-12909
▁संव	-12910
▁सेव	-12911
ियोजन	-12912
▁ओडिश	-12913
▁किशो	-12914
▁दीदी	-12915
▁बोतल	-12916
▁सूफी	-12917
▁कश्मी	-12918
▁खलीफा	-12919
▁पकाने	-12920
▁पशुधन	-12921
▁पाएगा	-12922
▁प्यूप	-12923
▁प्लान	-12924
▁बदलकर	-12925
▁वगैरह	-12926
▁कावेरी	-12927
▁क्षणों	-12928
▁गुलामी	-12929
▁पर्याय	-12930
▁प्रयाग	-12931
▁भाषाएं	-12932
▁महानता	-12933
▁मिशनरी	-12934
▁व्हाइट	-12935
▁सर्जरी	-12936
विज्ञानी	-12937
▁गुरुदेव	-12938
▁डिपार्ट	-12939
▁प्रास्थ	-12940
▁ब्राउज़	-12941
▁मानदण्ड	-12942
▁यंत्रों	-12943
▁सिक्कों	-12944
▁आच्छादित	-12945
▁वाल्मीकि	-12946
▁स्पष्टतः	-12947
▁ग्राफिक्स	-12948
▁प्रकाशनों	-12949
▁स्क्रिप्ट	-12950
▁इंजीनियरों	-12951
▁अर्थव्यवस्थाओं	-12952
फिर	-12953
▁गॉ	-12954
▁नस	-12955
द्धन	-12956
मूलक	-12957
▁उमर	-12958
▁कुस	-12959
▁तंज	-12960
▁नाख	-12961
▁महज	-12962
▁शरा	-12963
बंधित	-12964
िंग्स	-12965
▁क़ान	-12966
▁कैंप	-12967
▁खिलफ	-12968
▁मिथक	-12969
▁रूपए	-12970
▁सचिन	-12971
▁अंगुल	-12972
▁आभारी	-12973
▁जिसपर	-12974
▁डिस्प	-12975
▁पंक्त	-12976
▁पहनने	-12977
▁प्रखर	-12978
▁रोकता	-12979
▁लिपिक	-12980
▁सर्जन	-12981
▁सर्दी	-12982
राज्यों	-12983
▁चाइल्ड	-12984
▁दिलाता	-12985
▁दिलाना	-12986
▁निकलकर	-12987
▁निगमों	-12988
▁परिधीय	-12989
▁मोर्चा	-12990
▁वेश्या	-12991
▁सावरकर	-12992
▁सुझाया	-12993
▁त्रासदी	-12994
▁त्रिकोण	-12995
▁निवेशों	-12996
▁बायोगैस	-12997
▁वायसराय	-12998
▁अभ्यर्थी	-12999
▁उत्पीड़न	-13000
▁शुक्रवार	-13001
▁श्रोताओं	-13002
▁आवेदनपत्र	-13003
▁इस्लामवाद	-13004
▁संबंधियों	-13005
▁हिस्सेदारी	-13006
▁पूर्वावलोकन	-13007
▁सावधानीपूर्वक	-13008
ऊं	-13009
क्म	-13010
टिफ	-13011
▁em	-13012
▁sp	-13013
गंगा	-13014
भूषा	-13015
लेपन	-13016
िव्य	-13017
ेष्ट	-13018
▁END	-13019
▁अजन	-13020
▁कोइ	-13021
▁जहर	-13022
▁बया	-13023
▁मजह	-13024
▁शुक	-13025
▁हाव	-13026
बंधीय	-13027
ुन्टू	-13028
▁एमएम	-13029
▁गिना	-13030
▁गोपी	-13031
▁पैतृ	-13032
▁बीते	-13033
▁वंशज	-13034
▁सोचे	-13035
कोशिका	-13036
्वर्ती	-13037
▁अधूरा	-13038
▁बंकिम	-13039
▁लगाता	-13040
▁विलयन	-13041
पेक्षित	-13042
▁कीर्तन	-13043
▁कुलपति	-13044
▁भित्ति	-13045
▁मद्देन	-13046
▁युवकों	-13047
▁संकेतन	-13048
▁समाजों	-13049
▁इंटरफेस	-13050
▁ईर्ष्या	-13051
▁चुनिंदा	-13052
▁जोखिमों	-13053
▁तत्परता	-13054
▁परिसरों	-13055
▁महारानी	-13056
▁शत्रुता	-13057
▁शाहजहाँ	-13058
▁समझदारी	-13059
▁पत्तियां	-13060
▁पुर्तगाल	-13061
▁स्वातंत्र	-13062
▁राज्यपालों	-13063
▁सर्वसाधारण	-13064
▁सांख्यिकीय	-13065
▁आयुर्विज्ञान	-13066
ik	-13067
कंठ	-13068
डान	-13069
यार	-13070
▁BE	-13071
▁पङ	-13072
र्मन	-13073
▁चिह	-13074
▁चीख	-13075
▁चूस	-13076
▁नसी	-13077
▁मशी	-13078
▁विड	-13079
रेस्ट	-13080
स्कोप	-13081
ास्कर	-13082
▁अश्म	-13083
▁आयोड	-13084
▁उद्व	-13085
▁कमोड	-13086
▁कांड	-13087
▁टोपी	-13088
▁बिगा	-13089
▁ब्रज	-13090
नारायण	-13091
▁अनुपम	-13092
▁अवांछ	-13093
▁गुटों	-13094
▁चुनना	-13095
▁तेलंग	-13096
▁द्वेष	-13097
▁महाजन	-13098
▁समज्ह	-13099
▁होतीं	-13100
पंथियों	-13101
▁धारकों	-13102
▁समीचीन	-13103
▁हिन्दु	-13104
▁आक्सीजन	-13105
▁आखिरकार	-13106
▁ज़िम्मे	-13107
▁पंचायती	-13108
▁स्थानिक	-13109
▁वायुमंडल	-13110
▁असुरक्षित	-13111
▁इतिहासकार	-13112
▁कांस्टेबल	-13113
▁मृत्युदण्ड	-13114
याप	-13115
विस	-13116
ाहा	-13117
ेगा	-13118
नुमा	-13119
ियरी	-13120
▁अबु	-13121
▁एडी	-13122
▁करन	-13123
▁काज	-13124
▁चूँ	-13125
▁चों	-13126
▁टोप	-13127
▁नाद	-13128
▁पीर	-13129
▁बढो	-13130
▁मशह	-13131
▁रिह	-13132
▁वलय	-13133
ण्डित	-13134
ाइटिस	-13135
ृत्यु	-13136
ॉर्डन	-13137
▁उमीद	-13138
▁गाना	-13139
▁ढाका	-13140
▁नीड़	-13141
▁बकरी	-13142
▁सत्त	-13143
▁सुमन	-13144
त्राशय	-13145
वादिता	-13146
▁खर्ची	-13147
▁जयदेव	-13148
▁भारित	-13149
▁सुपरि	-13150
▁अब्बास	-13151
▁न्यासी	-13152
▁बादलों	-13153
▁लेबनान	-13154
▁सामयिक	-13155
▁उपधारणा	-13156
▁जमींदार	-13157
▁नाभिकीय	-13158
▁संचारित	-13159
▁अल्पावधि	-13160
▁आक्रमणों	-13161
▁आनन्दराम	-13162
▁पूर्वजों	-13163
▁कॉर्पोरेट	-13164
▁गवर्नमेंट	-13165
▁न्यूयॉर्क	-13166
▁प्रशंसनीय	-13167
▁आत्मनिर्भर	-13168
ice	-13169
सीड	-13170
▁इज़	-13171
▁कोह	-13172
▁छंट	-13173
▁दूं	-13174
▁पुट	-13175
▁बची	-13176
▁गौरी	-13177
प्रधान	-13178
▁चिपका	-13179
▁जीर्ण	-13180
▁टिकाऊ	-13181
▁पोशाक	-13182
▁फील्ड	-13183
▁मूर्त	-13184
▁मोहित	-13185
▁सौंपी	-13186
▁अर्हता	-13187
▁किनारा	-13188
▁कोष्ठक	-13189
▁निभाते	-13190
▁पारेषण	-13191
▁फायदों	-13192
▁मॉनिटर	-13193
▁इंस्टॉल	-13194
▁इच्छाओं	-13195
▁जिलाधीश	-13196
▁पाठशाला	-13197
▁कीमियागर	-13198
▁प्रमुखता	-13199
▁विशेषतया	-13200
▁लाभान्वित	-13201
▁ग्रामोद्योग	-13202
▁अंतरराष्ट्री	-13203
RE	-13204
खान	-13205
खोर	-13206
टोल	-13207
डेल	-13208
कांत	-13209
न्ती	-13210
पाती	-13211
स्टी	-13212
ासिक	-13213
▁जगम	-13214
▁तले	-13215
▁मसल	-13216
▁मृग	-13217
▁शंख	-13218
धर्मी	-13219
▁इंग़	-13220
▁क्रो	-13221
▁गुड़	-13222
▁जगदी	-13223
▁दलित	-13224
▁श्या	-13225
▁सदृश	-13226
▁सुखी	-13227
▁हलचल	-13228
▁अनोखा	-13229
▁अनोखी	-13230
▁क्लिप	-13231
▁ख़त्म	-13232
▁चिल्ल	-13233
▁बैक्ट	-13234
▁मस्ती	-13235
▁माइकल	-13236
▁लॉन्च	-13237
▁विरूप	-13238
▁संकुल	-13239
▁सिखों	-13240
▁खींचने	-13241
▁तंबाकू	-13242
▁निन्दा	-13243
▁विस्मय	-13244
प्राप्ति	-13245
ाविज्ञान	-13246
▁अनुशंसा	-13247
▁गड़बड़ी	-13248
▁जन्मदिन	-13249
▁निःशक्त	-13250
▁महेंद्र	-13251
▁स्क्रॉल	-13252
▁तारामंडल	-13253
▁प्रबुद्ध	-13254
▁संपर्कों	-13255
▁अनुक्रिया	-13256
▁कीटनाशकों	-13257
▁रूपान्तरित	-13258
▁इलेक्ट्रानिक	-13259
ge	-13260
बक	-13261
ोथ	-13262
२४	-13263
भिक	-13264
विष	-13265
वेज	-13266
ोदर	-13267
्पर	-13268
▁रग	-13269
स्थि	-13270
ालाम	-13271
िन्ट	-13272
्वाइ	-13273
▁पाम	-13274
▁मत्	-13275
वार्इ	-13276
▁ऊँचे	-13277
▁एम्ब	-13278
▁कॉले	-13279
▁जन्त	-13280
▁टकरा	-13281
▁दाने	-13282
▁पतला	-13283
▁प्रध	-13284
▁बंजर	-13285
▁सेमी	-13286
▁हीरा	-13287
डिचेरी	-13288
▁उपजाऊ	-13289
▁उर्जा	-13290
▁कोनों	-13291
▁घूमते	-13292
▁दिखती	-13293
▁दौरों	-13294
▁पीडित	-13295
▁पूछना	-13296
▁अलंकृत	-13297
▁ओड़िया	-13298
▁गुम्बद	-13299
▁तपस्या	-13300
▁ताकतों	-13301
▁पोलियो	-13302
▁मिलाने	-13303
▁सिन्धु	-13304
▁अभिकथित	-13305
▁ऑक्सीजन	-13306
▁चाहूंगी	-13307
▁रूपांतर	-13308
▁विवाद्य	-13309
▁संयोजित	-13310
▁सक्षमता	-13311
▁सम्पादन	-13312
▁अग्रेषित	-13313
▁क्रिस्टल	-13314
▁मुख्यतया	-13315
▁संगमर्मर	-13316
▁सुविधाएँ	-13317
▁स्वरयंत्र	-13318
▁आवश्यकताएं	-13319
▁केंद्रशासित	-13320
▁पश्चात्वर्ती	-13321
▁प्रविष्टियों	-13322
▁ञ	-13323
ुला	-13324
▁वज	-13325
गीता	-13326
प्रा	-13327
यनगर	-13328
▁अटक	-13329
▁पीट	-13330
▁बेव	-13331
▁सेठ	-13332
▁अपंग	-13333
▁धुरी	-13334
▁मुखर	-13335
▁लोहा	-13336
ाहियों	-13337
▁आज़ाद	-13338
▁उगाने	-13339
▁ओडिशा	-13340
▁कहावत	-13341
▁ढाँचा	-13342
▁पैतृक	-13343
▁भावुक	-13344
▁मापने	-13345
▁साइबर	-13346
▁कुत्ता	-13347
▁गवाहों	-13348
▁चैनलों	-13349
▁निकटता	-13350
▁पुनर्भ	-13351
▁मांगने	-13352
▁रविवार	-13353
▁श्रोणि	-13354
महाद्वीप	-13355
▁कारखाना	-13356
▁गर्भगृह	-13357
▁जीवनकाल	-13358
▁ड्राइवर	-13359
▁बैंकनोट	-13360
▁अभिकरणों	-13361
▁उपनिषदों	-13362
▁चरितार्थ	-13363
▁कार्यसूची	-13364
▁पैराग्राफ	-13365
▁प्रोसेसिंग	-13366
▁समाचारपत्र	-13367
ii	-13368
बै	-13369
रिस	-13370
▁al	-13371
क्कन	-13372
शैली	-13373
सन्न	-13374
ूसलम	-13375
▁अश्	-13376
▁एनई	-13377
▁केर	-13378
▁मसी	-13379
▁वधू	-13380
▁पथरी	-13381
▁पराव	-13382
▁बनवा	-13383
▁बाईं	-13384
▁बिंब	-13385
▁वृषण	-13386
▁समेट	-13387
▁सिंड	-13388
▁सिकु	-13389
▁टेम्प	-13390
▁वहनीय	-13391
▁स्पेश	-13392
▁हमलों	-13393
च्छिन्न	-13394
▁खिलाफत	-13395
▁नर्सरी	-13396
▁बिताने	-13397
▁संवर्ग	-13398
▁क्षुद्र	-13399
▁अपवर्जित	-13400
▁जीवाणुओं	-13401
▁प्रतिदाय	-13402
▁लापरवाही	-13403
▁होनेवाले	-13404
▁अभिवृद्धि	-13405
▁प्रियव्रत	-13406
▁विनिश्चित	-13407
▁सामग्रियों	-13408
गाम	-13409
पीए	-13410
ौरी	-13411
ance	-13412
दिनी	-13413
पिंग	-13414
रिंग	-13415
लब्ध	-13416
सिका	-13417
्राण	-13418
▁अशु	-13419
▁उमा	-13420
▁एंग	-13421
▁एके	-13422
▁धुन	-13423
▁मणि	-13424
▁मरे	-13425
मर्रा	-13426
विवाद	-13427
ित्री	-13428
▁अनभि	-13429
▁काटा	-13430
▁पुर्	-13431
▁मक़्	-13432
▁महेश	-13433
▁यक्ष	-13434
्लेक्स	-13435
▁एग्री	-13436
▁निर्द	-13437
▁मसलों	-13438
▁शेक्स	-13439
▁संहार	-13440
▁सल्फर	-13441
▁स्तूप	-13442
▁अलंकरण	-13443
▁तन्त्र	-13444
▁परिसमा	-13445
▁महादेव	-13446
▁सत्कार	-13447
▁अनुग्रह	-13448
▁आधिपत्य	-13449
▁द्रविड़	-13450
▁विपक्षी	-13451
▁गाड़ियों	-13452
▁प्रबंधकों	-13453
▁प्रोद्भूत	-13454
▁निष्क्रियता	-13455
▁धर्मनिरपेक्ष	-13456
all	-13457
ase	-13458
दिव	-13459
वचन	-13460
▁Pr	-13461
▁ढक	-13462
able	-13463
क्यू	-13464
ल्हे	-13465
▁उपश	-13466
▁कुट	-13467
▁ठिक	-13468
▁दखल	-13469
▁पीस	-13470
▁लंग	-13471
▁लुट	-13472
▁सीन	-13473
▁सेब	-13474
▁हान	-13475
दियों	-13476
▁उलझन	-13477
▁काजी	-13478
▁दवाई	-13479
▁धोखे	-13480
▁पठार	-13481
▁प्रह	-13482
▁बताओ	-13483
▁बानो	-13484
▁लतीफ	-13485
▁आदतों	-13486
▁इंस्प	-13487
▁उड़ने	-13488
▁जलाने	-13489
▁जागृत	-13490
▁नियमन	-13491
▁फ़ोटो	-13492
▁बैठता	-13493
▁भयावह	-13494
▁भाड़ा	-13495
▁मकबरा	-13496
▁मशहूर	-13497
▁वोल्ट	-13498
▁हेनरी	-13499
▁अनामता	-13500
▁नायिका	-13501
▁उबुन्टू	-13502
▁किस्में	-13503
▁जेरूसलम	-13504
▁पौष्टिक	-13505
▁मलेशिया	-13506
▁डेनमार्क	-13507
▁संरचनाओं	-13508
▁अनुशासनिक	-13509
▁दृष्टिगोचर	-13510
▁उम्मीदवारों	-13511
▁फिलीस्तीनियों	-13512
इक	-13513
ासु	-13514
▁en	-13515
ड्डी	-13516
बंधक	-13517
यरोग	-13518
शासन	-13519
ांगण	-13520
▁एंज	-13521
▁एजु	-13522
▁करू	-13523
▁थाई	-13524
▁थॉम	-13525
▁दृढ	-13526
▁बेद	-13527
फुल्ल	-13528
ापत्र	-13529
ोनियम	-13530
▁कुंड	-13531
▁जादा	-13532
▁रोशन	-13533
त्मकता	-13534
न्यासी	-13535
▁कुलीन	-13536
▁गद्दी	-13537
▁नगण्य	-13538
▁बहनों	-13539
▁बिल्ड	-13540
▁मलाशय	-13541
▁संघटक	-13542
▁हिमाल	-13543
▁अपूर्व	-13544
▁असमिया	-13545
▁क्षिति	-13546
▁दूरबीन	-13547
▁दोस्ती	-13548
▁नजदीकी	-13549
▁पागलपन	-13550
▁पुनर्म	-13551
▁बिजनेस	-13552
▁राक्षस	-13553
▁सड़कें	-13554
▁कविताएँ	-13555
▁गाँधीजी	-13556
▁गोलाकार	-13557
▁ट्रान्स	-13558
▁परिशिष्ट	-13559
▁बंगलादेश	-13560
▁बुराइयों	-13561
▁वैश्वीकरण	-13562
▁उपमहाद्वीप	-13563
▁प्रास्थिति	-13564
▁अल्पसंख्यकों	-13565
RI	-13566
xx	-13567
ईस	-13568
ंगम	-13569
घाट	-13570
चड़	-13571
तिन	-13572
हिक	-13573
ाता	-13574
▁धू	-13575
ल्सन	-13576
▁शरद	-13577
न्ध्र	-13578
फॉर्म	-13579
स्मार	-13580
▁चयाप	-13581
▁पढ़ी	-13582
▁बढती	-13583
▁बढने	-13584
▁ह्यू	-13585
ब्रह्म	-13586
ार्श्व	-13587
▁जड़ों	-13588
▁दिनेश	-13589
▁भरोसे	-13590
▁हारान	-13591
▁गुस्से	-13592
▁चुकाने	-13593
▁जंतुओं	-13594
▁मनपसंद	-13595
▁कूटनीति	-13596
▁परिकलित	-13597
▁प्रैक्ट	-13598
▁स्टेट्स	-13599
▁स्वेच्छ	-13600
▁अनुकरणीय	-13601
▁अनुक्रमण	-13602
▁पूर्णिमा	-13603
▁दोषसिद्धि	-13604
▁बहुसंख्यक	-13605
▁स्थायित्व	-13606
▁निर्यातकों	-13607
▁प्रभावकारी	-13608
▁प्रक्रियात्मक	-13609
ँस	-13610
▁AB	-13611
एफसी	-13612
चक्र	-13613
लाइड	-13614
ल्हा	-13615
▁कटु	-13616
▁गुड	-13617
▁चौर	-13618
▁छपा	-13619
▁डिस	-13620
▁पना	-13621
▁मेध	-13622
▁यूट	-13623
▁लीन	-13624
▁वक्	-13625
▁सिप	-13626
मानों	-13627
▁अनुत	-13628
▁करूँ	-13629
▁घारा	-13630
▁जादु	-13631
▁दशरथ	-13632
▁नॉर्	-13633
▁बार्	-13634
▁संवी	-13635
▁सरणी	-13636
▁अय्यर	-13637
▁उतरने	-13638
▁गोखले	-13639
▁बेतार	-13640
▁साहसी	-13641
▁स्टेड	-13642
▁अन्ततः	-13643
▁अपनाते	-13644
▁कम्बन्	-13645
▁ध्वस्त	-13646
▁महानगर	-13647
▁मेन्यू	-13648
▁अराजकता	-13649
▁पहुंचती	-13650
▁मातृत्व	-13651
▁मौजूदगी	-13652
▁वृत्तिक	-13653
▁अभिदायों	-13654
▁कारीगरों	-13655
▁गोस्वामी	-13656
▁भारतवर्ष	-13657
▁माध्यमों	-13658
▁मूत्राशय	-13659
▁उत्प्रेरक	-13660
▁विनाशकारी	-13661
▁प्रयोगकर्ता	-13662
ंसू	-13663
ग़ल	-13664
पोष	-13665
बाग	-13666
भुज	-13667
ादे	-13668
ामय	-13669
ितल	-13670
्यय	-13671
▁्त	-13672
ंकार	-13673
ंतिम	-13674
कोटा	-13675
ल्यू	-13676
▁अमन	-13677
▁आड़	-13678
▁घृण	-13679
▁जुड	-13680
▁भोल	-13681
▁रखो	-13682
भक्षी	-13683
म्मति	-13684
▁अंतत	-13685
▁कस्त	-13686
▁खाया	-13687
▁खासी	-13688
▁छिपी	-13689
▁जब्त	-13690
▁तेंद	-13691
▁दयाल	-13692
▁दोहर	-13693
▁मवेश	-13694
▁मिनी	-13695
▁शिल्	-13696
▁सज़ा	-13697
▁हंसी	-13698
ोन्मुख	-13699
▁एरिया	-13700
▁कंधों	-13701
▁ग्रीक	-13702
▁तस्वी	-13703
▁त्यों	-13704
▁महीना	-13705
▁समसाम	-13706
▁हार्म	-13707
▁एनालॉग	-13708
▁करारों	-13709
▁डीवीडी	-13710
▁भण्डार	-13711
▁मंडलों	-13712
▁महानतम	-13713
▁मार्शल	-13714
ोपाध्याय	-13715
▁अमानवीय	-13716
▁आत्मसात	-13717
▁ज्वालाम	-13718
▁नाटककार	-13719
▁प्रज्ञा	-13720
▁प्रत्यय	-13721
▁अर्थात्ः	-13722
▁साधारणतः	-13723
▁चिकित्सकों	-13724
ट्ठ	-13725
▁खस	-13726
ंस्य	-13727
ड़ित	-13728
स्लो	-13729
▁are	-13730
▁कत्	-13731
▁काक	-13732
▁ख़ु	-13733
▁खुज	-13734
▁झों	-13735
▁मुम	-13736
▁मूक	-13737
काण्ड	-13738
फ्तार	-13739
▁आसीन	-13740
▁केले	-13741
▁दाया	-13742
▁परोप	-13743
▁बद्ध	-13744
▁रबड़	-13745
▁संबध	-13746
ायेंगे	-13747
▁क्रास	-13748
▁गवाही	-13749
▁चतुर्	-13750
▁चमड़े	-13751
▁जहाज़	-13752
▁पड़ाव	-13753
▁पालतू	-13754
▁बन्दर	-13755
▁मज्जा	-13756
▁मुकेश	-13757
▁साध्य	-13758
▁हवेली	-13759
परीक्षा	-13760
▁असहयोग	-13761
▁करोड़े	-13762
▁क़ुरान	-13763
▁त्रिपा	-13764
▁निभानी	-13765
▁पादपों	-13766
▁पुजारी	-13767
▁पूर्वज	-13768
▁प्लेयर	-13769
▁वानिकी	-13770
▁संचालक	-13771
▁इस्तीफा	-13772
▁उज्ज्वल	-13773
▁कक्षाओं	-13774
▁निर्बाध	-13775
▁वर्माजी	-13776
▁कारोबारी	-13777
▁तस्वीरें	-13778
▁पांडिचेरी	-13779
▁पुनर्वित्त	-13780
▁परिवीक्षाधीनों	-13781
NT	-13782
ai	-13783
of	-13784
छी	-13785
िच	-13786
दिश	-13787
फ़र	-13788
संप	-13789
साह	-13790
▁tr	-13791
▁यी	-13792
तनगर	-13793
बेटन	-13794
सेवक	-13795
▁The	-13796
▁कोठ	-13797
▁गुह	-13798
▁जोत	-13799
▁दाई	-13800
▁नीच	-13801
▁पका	-13802
▁बैग	-13803
▁मचा	-13804
▁मरो	-13805
नियाँ	-13806
बन्धु	-13807
ापनों	-13808
▁अँधे	-13809
▁कमाई	-13810
▁गोरख	-13811
▁तादा	-13812
▁भैंस	-13813
▁मर्द	-13814
▁मलिक	-13815
▁यापन	-13816
▁लिफा	-13817
▁स्के	-13818
▁हावी	-13819
नेस्को	-13820
▁अजमेर	-13821
▁कर्सर	-13822
▁क्वाल	-13823
▁ग्वाल	-13824
▁जनहित	-13825
▁त्रिक	-13826
▁देहरा	-13827
▁परात्	-13828
▁बेचैन	-13829
▁मच्छर	-13830
▁मध्या	-13831
▁मीनार	-13832
▁युगों	-13833
▁विशाख	-13834
▁शालीन	-13835
▁संचयन	-13836
▁सम्मत	-13837
▁अवयवों	-13838
▁आपरेशन	-13839
▁गुस्सा	-13840
▁जीविका	-13841
▁जॉर्डन	-13842
▁तरक्की	-13843
▁बारीकी	-13844
▁बिताया	-13845
▁मनोनीत	-13846
▁सुधारा	-13847
▁महोत्सव	-13848
▁मोतीलाल	-13849
▁बर्खास्त	-13850
▁मानकीकरण	-13851
▁संग्रहीत	-13852
▁संन्यासी	-13853
▁मध्यकालीन	-13854
▁उद्यमशीलता	-13855
IC	-13856
up	-13857
ऊँ	-13858
ढि	-13859
ंजा	-13860
दीय	-13861
मेय	-13862
▁भै	-13863
चागत	-13864
प्पी	-13865
ल्पी	-13866
▁अनप	-13867
▁तना	-13868
▁फली	-13869
▁लगन	-13870
▁वाट	-13871
▁सूत	-13872
▁अप्प	-13873
▁आसाम	-13874
▁गिनी	-13875
▁जहरी	-13876
▁बतौर	-13877
▁भद्र	-13878
▁मैरी	-13879
द्वारा	-13880
र्योधन	-13881
▁अफवाह	-13882
▁आवर्त	-13883
▁कार्ल	-13884
▁क्रॉस	-13885
▁खेलते	-13886
▁जगदीश	-13887
▁पहनते	-13888
▁प्रीत	-13889
▁बन्धक	-13890
▁मैनेज	-13891
▁लिप्त	-13892
▁सामंत	-13893
▁हज़रत	-13894
▁हेतुक	-13895
▁भक्तों	-13896
▁कार्तिक	-13897
▁ठेकेदार	-13898
▁निकालें	-13899
▁निपटाने	-13900
▁परात्पर	-13901
▁सम्पादक	-13902
▁सिलसिला	-13903
▁तेलंगाना	-13904
▁पक्षाघात	-13905
▁प्रकीर्ण	-13906
▁प्रमुखों	-13907
▁शिक्षावि	-13908
▁सहनशीलता	-13909
▁अनुपयुक्त	-13910
▁इंग्लैण्ड	-13911
▁उत्सर्जित	-13912
▁माइक्रोसॉ	-13913
▁अत्याधुनिक	-13914
▁कार्रवाइयों	-13915
▁प्राप्तकर्ता	-13916
LE	-13917
टीर	-13918
धीर	-13919
सें	-13920
ियॉ	-13921
ोशी	-13922
▁et	-13923
▁त्	-13924
▁नृ	-13925
क्षि	-13926
प्रस	-13927
▁खाँ	-13928
▁फिज	-13929
▁मनम	-13930
▁राघ	-13931
▁लीज	-13932
▁सूअ	-13933
▁सूझ	-13934
ब्बों	-13935
ानिया	-13936
▁आनुष	-13937
▁आयतन	-13938
▁ख़ास	-13939
▁थर्म	-13940
▁दाँत	-13941
▁नीरस	-13942
▁पिक्	-13943
▁बहाल	-13944
▁शिया	-13945
▁सैनी	-13946
र्ताओं	-13947
▁अयस्क	-13948
▁इरादे	-13949
▁देशभर	-13950
▁पैलेस	-13951
▁बायोम	-13952
▁विसंग	-13953
▁अभिभूत	-13954
▁अवयस्क	-13955
▁एक्सेस	-13956
▁गुजरना	-13957
▁चिट्ठी	-13958
▁तरंगों	-13959
▁द्योतक	-13960
▁निबंधन	-13961
▁विरचना	-13962
िवासियों	-13963
▁छिड़काव	-13964
▁तम्बाकू	-13965
▁बीमाकृत	-13966
▁विजयनगर	-13967
▁विलुप्त	-13968
▁सम्मिलन	-13969
▁त्रिपाठी	-13970
▁नरेन्द्र	-13971
▁प्रीतनगर	-13972
▁मद्देनजर	-13973
▁राष्ट्रप	-13974
▁डेवलपमेंट	-13975
▁दीर्घावधि	-13976
▁परीक्षाओं	-13977
▁प्रान्तीय	-13978
▁स्टार्टअप	-13979
▁कंप्यूटिंग	-13980
▁चिकित्सकीय	-13981
▁निर्वाचनों	-13982
▁न्यूजीलैंड	-13983
▁व्यतिक्रमी	-13984
▁प्रयोजनार्थ	-13985
ans	-13986
ear	-13987
र्प	-13988
्ते	-13989
▁जं	-13990
▁वऋ	-13991
चालन	-13992
सेवा	-13993
ुरूप	-13994
्विन	-13995
▁निष	-13996
▁मृद	-13997
▁मॉँ	-13998
▁वाग	-13999
▁शमन	-14000
▁सुथ	-14001
▁हतो	-14002
▁ह्व	-14003
ामीटर	-14004
▁कर्क	-14005
▁चर्म	-14006
▁ज़रा	-14007
▁दन्त	-14008
▁दौलत	-14009
▁फाइन	-14010
▁बाधक	-14011
▁बेवक	-14012
▁हस्प	-14013
निष्ठा	-14014
▁अण्डे	-14015
▁अफसोस	-14016
▁कुक्क	-14017
▁खातिर	-14018
▁जबर्द	-14019
▁दफ्तर	-14020
▁दुःखी	-14021
▁परमान	-14022
▁पहेली	-14023
▁पेयजल	-14024
▁प्यास	-14025
▁फाइबर	-14026
▁विपुल	-14027
▁सेल्स	-14028
▁सोपान	-14029
▁अहिंसक	-14030
▁ओड़िसा	-14031
▁किंगडम	-14032
▁नवलराम	-14033
▁प्रक्ष	-14034
▁माउन्ट	-14035
▁मेधावी	-14036
द्योगिकी	-14037
▁अनुलग्न	-14038
▁आयताकार	-14039
▁गोविन्द	-14040
▁जायेंगी	-14041
▁रवींद्र	-14042
▁दुर्बलता	-14043
▁दुर्योधन	-14044
▁बुकमार्क	-14045
▁वस्त्रों	-14046
▁संवर्धित	-14047
▁स्पष्टता	-14048
▁उधारकर्ता	-14049
▁डेमोक्रेट	-14050
▁न्यायनिर्ण	-14051
▁प्रत्याशित	-14052
▁रिपोर्टिंग	-14053
ace	-14054
क़ा	-14055
गंध	-14056
पोल	-14057
ागम	-14058
▁यम	-14059
आईडी	-14060
ज्या	-14061
शियल	-14062
साही	-14063
▁अनम	-14064
▁अनल	-14065
▁किट	-14066
▁छाल	-14067
▁नरक	-14068
▁अनिय	-14069
▁आवर्	-14070
▁महाध	-14071
▁रेंज	-14072
▁वाष्	-14073
▁विनो	-14074
▁सचाई	-14075
भारतीय	-14076
▁इन्दु	-14077
▁एकमेव	-14078
▁कंकाल	-14079
▁ज़िला	-14080
▁जादुई	-14081
▁फैक्ट	-14082
▁सेन्ट	-14083
▁अंतरंग	-14084
▁अधिमान	-14085
▁चमकदार	-14086
▁नालंदा	-14087
▁विद्यु	-14088
▁सिखाने	-14089
▁हितलाभ	-14090
▁असुविधा	-14091
▁इमारतें	-14092
▁कार्यबल	-14093
▁गोवर्धन	-14094
▁सूत्रों	-14095
▁आनुपातिक	-14096
▁देहरादून	-14097
▁खिलाड़ियों	-14098
▁प्लेटफार्म	-14099
▁विवादास्पद	-14100
▁दुर्व्यवहार	-14101
▁परिसंपत्तियां	-14102
ID	-14103
em	-14104
इंग	-14105
उंट	-14106
यदि	-14107
आरसी	-14108
निष्	-14109
स्का	-14110
हरों	-14111
▁नीम	-14112
▁लाओ	-14113
▁सूच	-14114
बन्धन	-14115
वर्धक	-14116
▁उर्फ	-14117
▁चौबी	-14118
▁ट्री	-14119
▁धीमा	-14120
▁भाजक	-14121
▁शेखर	-14122
▁अंदाज	-14123
▁चढ़ाई	-14124
▁चालान	-14125
▁झीलों	-14126
▁पसीना	-14127
▁बैंकर	-14128
▁मुजरा	-14129
▁वक्ता	-14130
▁विलीन	-14131
▁शिकाग	-14132
▁हवाला	-14133
▁अँग्रे	-14134
▁अभिकथन	-14135
▁अम्लीय	-14136
▁काउंटी	-14137
▁कामयाब	-14138
▁मास्को	-14139
▁कलकत्ते	-14140
▁बकरियों	-14141
▁वेशभूषा	-14142
▁आर्द्रता	-14143
▁उपदर्शित	-14144
▁प्रश्नगत	-14145
▁इंग़्लैंड	-14146
▁मुयमंत्री	-14147
▁व्यवसायों	-14148
▁अन्तरात्मा	-14149
▁टेक्नोलॉजी	-14150
▁व्यवस्थापक	-14151
▁संगठनात्मक	-14152
▁प्रयोक्ताओं	-14153
णे	-14154
थक	-14155
ंबू	-14156
दीव	-14157
मिट	-14158
▁En	-14159
▁अऑ	-14160
लाजी	-14161
विटी	-14162
स्वर	-14163
▁अथॉ	-14164
▁दोग	-14165
▁नौस	-14166
▁पात	-14167
▁शलभ	-14168
▁सहे	-14169
लिखित	-14170
ाध्या	-14171
ायकों	-14172
▁असाम	-14173
▁उछाल	-14174
▁कुकी	-14175
▁गन्ध	-14176
▁दीपू	-14177
▁पर्स	-14178
▁पीपी	-14179
▁रंजन	-14180
▁खोजना	-14181
▁चूँकि	-14182
▁दर्जन	-14183
▁पूर्त	-14184
▁फॉन्ट	-14185
▁मांगे	-14186
▁मॉरिश	-14187
▁सन्नि	-14188
▁सुशील	-14189
क्षेपित	-14190
▁अलंकार	-14191
▁इलेक्ट	-14192
▁खुलासा	-14193
▁डिप्लो	-14194
▁ढूंढने	-14195
▁थोरियम	-14196
▁नजरिया	-14197
▁प्रजात	-14198
▁कालिदास	-14199
▁निदेशों	-14200
▁निराश्र	-14201
▁सम्बंधी	-14202
▁अस्थिरता	-14203
▁आधुनिकता	-14204
▁उत्सुकता	-14205
▁परिणामतः	-14206
▁संवीक्षा	-14207
▁विस्थापित	-14208
▁सूत्रकृमि	-14209
▁विक्रेताओं	-14210
▁हस्तांतरित	-14211
▁नामनिर्देशिती	-14212
GIN	-14213
बेल	-14214
भोज	-14215
लाज	-14216
ांप	-14217
ाहे	-14218
ोपै	-14219
ोरो	-14220
थालय	-14221
नाथन	-14222
ुलित	-14223
▁डोग	-14224
▁निह	-14225
▁बहर	-14226
▁बिठ	-14227
▁यूं	-14228
मुश्त	-14229
ादायक	-14230
▁इनाम	-14231
▁उच्छ	-14232
▁जड़ी	-14233
▁टूटी	-14234
▁फ्लो	-14235
▁बर्न	-14236
▁बृहत	-14237
▁हारा	-14238
▁आलेखी	-14239
▁पाउडर	-14240
▁फाइनल	-14241
▁बक्से	-14242
▁बूढ़ा	-14243
▁बेवकू	-14244
▁ब्लाक	-14245
▁लौटते	-14246
▁स्केल	-14247
▁स्कोर	-14248
▁अनंतिम	-14249
▁क्षत्र	-14250
▁जाग्रत	-14251
▁जोड़ते	-14252
▁दाहिने	-14253
▁पुकारा	-14254
▁फाइलों	-14255
▁बढ़ाते	-14256
▁भरतपुर	-14257
▁रिक्ति	-14258
▁शेक्सप	-14259
▁संभाला	-14260
▁हफ्तों	-14261
्यावस्था	-14262
▁उपांतरण	-14263
▁कमोडिटी	-14264
▁कीबोर्ड	-14265
▁ज्योतिष	-14266
▁बोर्डों	-14267
▁मतभेदों	-14268
▁कैल्शियम	-14269
▁जबरदस्ती	-14270
▁मताधिकार	-14271
▁प्रसिद्धि	-14272
▁कंप्यूटरों	-14273
▁महत्वाकांक्षी	-14274
ana	-14275
हमी	-14276
▁झि	-14277
ंद्ध	-14278
डीएम	-14279
भद्र	-14280
▁अरो	-14281
▁उथल	-14282
▁कलन	-14283
▁काद	-14284
▁जया	-14285
▁जुआ	-14286
▁थीम	-14287
▁फिस	-14288
▁भती	-14289
खियां	-14290
▁अंकन	-14291
▁अंगू	-14292
▁ओजोन	-14293
▁कहाः	-14294
▁झाड़	-14295
▁तकरी	-14296
▁नाभि	-14297
▁मीया	-14298
▁मृदु	-14299
कार्बन	-14300
▁गन्ने	-14301
▁दुर्द	-14302
▁फैक्स	-14303
▁फैलाव	-14304
▁बगीचे	-14305
▁कागजात	-14306
▁गलियों	-14307
▁ब्लेयर	-14308
▁मॉरिशस	-14309
▁समष्टि	-14310
▁आपातकाल	-14311
▁ईसाइयों	-14312
▁उपनिषद्	-14313
▁उष्णकटि	-14314
▁पशुपालन	-14315
▁वेदान्त	-14316
▁समाशोधन	-14317
▁सांसदों	-14318
▁अध्यात्म	-14319
▁इन्टरनेट	-14320
▁क्रमबद्ध	-14321
▁पहुंचाना	-14322
▁भर्त्सना	-14323
▁सूत्रपात	-14324
▁उद्देशिका	-14325
▁एजेंसियां	-14326
▁विज्ञप्ति	-14327
▁अविश्वसनीय	-14328
▁कल्याणकारी	-14329
▁गुणसूत्रों	-14330
▁परिसंपत्तियों	-14331
df	-14332
ंबे	-14333
तरा	-14334
र्ब	-14335
वेन	-14336
शूल	-14337
▁Ch	-14338
▁cr	-14339
▁आण	-14340
▁उँ	-14341
स्मा	-14342
ाम्प	-14343
िकार	-14344
▁गैल	-14345
▁चश्	-14346
▁छुआ	-14347
▁मीर	-14348
▁शीट	-14349
▁सवे	-14350
कर्मी	-14351
▁कमां	-14352
▁घाटे	-14353
▁दरार	-14354
▁नगरी	-14355
▁पारा	-14356
▁पाली	-14357
▁पीएच	-14358
▁बदतर	-14359
▁बीएस	-14360
▁वासु	-14361
▁साइड	-14362
गणितीय	-14363
▁असफ़ल	-14364
▁खरीदे	-14365
▁गेटवे	-14366
▁नतीजे	-14367
▁पक्की	-14368
▁बरसों	-14369
▁बहुता	-14370
▁मिलों	-14371
▁सादगी	-14372
▁सीनेट	-14373
▁अन्वेष	-14374
▁किरणों	-14375
▁दीवानी	-14376
▁मीटिंग	-14377
▁राज्या	-14378
▁सज्जनो	-14379
▁आमंत्रण	-14380
▁कर्मकार	-14381
▁गोदावरी	-14382
▁ढांचागत	-14383
▁दीवारें	-14384
▁निराकरण	-14385
▁श्रीनगर	-14386
▁संगृहीत	-14387
▁अवस्थिति	-14388
▁दृष्टिगत	-14389
▁दोषपूर्ण	-14390
▁परिक्रमा	-14391
▁प्रवक्ता	-14392
▁बलपूर्वक	-14393
▁बलात्कार	-14394
▁विद्रोही	-14395
▁संख्यांक	-14396
▁सब्जियां	-14397
▁सेक्टरों	-14398
▁स्टेडियम	-14399
▁पद्धतियां	-14400
▁अंधविश्वास	-14401
▁निष्पक्षता	-14402
▁गुणवत्तापूर्ण	-14403
SS	-14404
TT	-14405
सह	-14406
ूआ	-14407
२५	-14408
िलन	-14409
▁खल	-14410
▁दन	-14411
लपुर	-14412
वारे	-14413
ेंटी	-14414
▁अडि	-14415
▁जाँ	-14416
▁तौल	-14417
▁बहू	-14418
▁बीर	-14419
न्धित	-14420
ासाहब	-14421
▁अनाथ	-14422
▁अभिज	-14423
▁आद्य	-14424
▁उसपर	-14425
▁कगार	-14426
▁कुरु	-14427
▁खेले	-14428
▁पदेन	-14429
▁भाईच	-14430
▁सीने	-14431
▁अनजान	-14432
▁गन्ना	-14433
▁जुलूस	-14434
▁डाकघर	-14435
▁पुनरा	-14436
▁बन्धन	-14437
▁मुहाव	-14438
▁रहमान	-14439
▁सीखते	-14440
ट्रिक्स	-14441
▁दुविधा	-14442
▁धातुओं	-14443
▁मसालों	-14444
▁मुमकिन	-14445
▁विस्ता	-14446
▁अन्तरित	-14447
▁कड़ियाँ	-14448
▁ग्रन्थि	-14449
▁दरवाज़े	-14450
▁फेडरेशन	-14451
▁शपथपत्र	-14452
▁समीक्षक	-14453
▁स्वास्थ	-14454
▁आनन्दमयी	-14455
▁गवर्नेंस	-14456
▁प्रफुल्ल	-14457
▁अवधारणाओं	-14458
▁उन्मुक्ति	-14459
▁विचारार्थ	-14460
▁विद्यापीठ	-14461
▁विरोधियों	-14462
▁सर्वशक्ति	-14463
ax	-14464
eg	-14465
भे	-14466
▁ि	-14467
कें	-14468
पटा	-14469
▁ER	-14470
▁गम	-14471
डियन	-14472
तरित	-14473
श्ती	-14474
सुरी	-14475
हरित	-14476
ूदित	-14477
ेंचर	-14478
▁घनी	-14479
▁ढोर	-14480
▁धमन	-14481
▁रोट	-14482
▁लेक	-14483
▁सौद	-14484
न्यास	-14485
▁इसरो	-14486
▁काटे	-14487
▁कुवै	-14488
▁दिग्	-14489
▁पेटी	-14490
▁बाजू	-14491
▁रावत	-14492
▁रीडर	-14493
▁लड़े	-14494
▁सिंघ	-14495
▁स्लो	-14496
▁स्वत	-14497
वाहिनी	-14498
▁असत्य	-14499
▁आईएसओ	-14500
▁चन्दु	-14501
▁चिन्त	-14502
▁जोसेफ	-14503
▁टैरिफ	-14504
▁वनस्प	-14505
▁श्रीम	-14506
▁संगति	-14507
▁हैल्थ	-14508
▁अमूल्य	-14509
▁आपदाओं	-14510
▁आवागमन	-14511
▁कुपोषण	-14512
▁डिब्बे	-14513
▁निद्रा	-14514
▁निलंबन	-14515
▁बिरूनी	-14516
▁मज़दूर	-14517
▁मैदानी	-14518
▁विधाओं	-14519
श्योरेंस	-14520
▁प्रांगण	-14521
▁महामारी	-14522
▁मुस्कान	-14523
▁राजनेता	-14524
▁संसाधित	-14525
▁गर्भधारण	-14526
▁प्रकार्य	-14527
▁मांसपेशी	-14528
▁प्रतियोगी	-14529
▁माध्यस्थम	-14530
▁रिक्तियों	-14531
▁व्यतिक्रम	-14532
▁सिद्धार्थ	-14533
▁स्वादिष्ट	-14534
▁मनोविज्ञान	-14535
१ग	-14536
जीन	-14537
निय	-14538
भाऊ	-14539
मरण	-14540
च्छद	-14541
पीजी	-14542
विनय	-14543
ाज्ञ	-14544
ारीय	-14545
ोक्त	-14546
▁अंट	-14547
▁कंब	-14548
▁कटा	-14549
▁चेन	-14550
▁जैक	-14551
▁धुआ	-14552
▁बहा	-14553
▁सुह	-14554
चित्त	-14555
ाइयां	-14556
ार्कट	-14557
▁खाका	-14558
▁घिरे	-14559
▁चांद	-14560
▁दंगे	-14561
▁द्रौ	-14562
▁बीपी	-14563
▁मसले	-14564
▁योगी	-14565
▁सुखा	-14566
▁हत्य	-14567
सन्देह	-14568
ार्द्ध	-14569
िवार्ष	-14570
▁क्षोभ	-14571
▁खुलकर	-14572
▁ढाँचे	-14573
▁पर्दे	-14574
▁पुतली	-14575
▁फ़रीद	-14576
▁संज्ञ	-14577
▁अभिशाप	-14578
▁एयरलाइ	-14579
▁डिब्बा	-14580
▁सन्तोष	-14581
▁सपोर्ट	-14582
▁कारागार	-14583
▁किफायती	-14584
▁वर्चुअल	-14585
▁आपेक्षिक	-14586
▁उपाध्याय	-14587
▁कर्मकांड	-14588
▁पहुंचाया	-14589
▁मधुमक्खी	-14590
▁याचिकाओं	-14591
▁ग्यारहवीं	-14592
▁पत्रकारों	-14593
▁स्थितियां	-14594
▁कार्यात्मक	-14595
▁विक्टोरिया	-14596
ंम	-14597
उप	-14598
गौ	-14599
पह	-14600
ंटो	-14601
जुए	-14602
ंजलि	-14603
एँगे	-14604
ज़ाम	-14605
ांगी	-14606
ावनी	-14607
ुराम	-14608
ूद्व	-14609
▁एस्	-14610
▁कूप	-14611
▁चंप	-14612
▁निग	-14613
▁पूज	-14614
▁बेट	-14615
▁बॉल	-14616
वर्गी	-14617
ारिका	-14618
▁अमुक	-14619
▁करूं	-14620
▁चाला	-14621
▁जिया	-14622
▁जुडा	-14623
▁डीजल	-14624
▁लटका	-14625
▁संशय	-14626
▁आयेगा	-14627
▁गोपुर	-14628
▁निपुण	-14629
▁निरंक	-14630
▁नेहरु	-14631
▁नैदान	-14632
▁बट्टा	-14633
▁लैटिन	-14634
▁सन्धि	-14635
▁सल्तन	-14636
▁साढ़े	-14637
▁अपनाकर	-14638
▁कार्या	-14639
▁कॉलोनी	-14640
▁दीर्घा	-14641
▁नदियाँ	-14642
▁बीकाने	-14643
▁भूतकाल	-14644
▁मालदीव	-14645
▁मोतिया	-14646
▁व्यंजन	-14647
▁सर्टिफ	-14648
▁सहबद्ध	-14649
▁दीपावली	-14650
▁उपायुक्त	-14651
▁पूर्णरूप	-14652
▁विश्लेषक	-14653
▁प्रदूषकों	-14654
▁उपन्यासकार	-14655
▁दुर्घटनाओं	-14656
▁निःस्वार्थ	-14657
▁प्रतिधारित	-14658
▁विधानमंडलों	-14659
▁समाचारपत्रों	-14660
▁दुर्भाग्यपूर्ण	-14661
वय	-14662
ens	-14663
श्न	-14664
ुरै	-14665
ूचि	-14666
ोना	-14667
घरों	-14668
दानी	-14669
र्गत	-14670
वंशी	-14671
िताब	-14672
▁अख़	-14673
▁कोक	-14674
▁गंज	-14675
▁तमा	-14676
▁रेस	-14677
क्कड़	-14678
टीकरण	-14679
▁जलने	-14680
▁ताड़	-14681
▁दलाल	-14682
▁नाज़	-14683
▁फतेह	-14684
▁मिया	-14685
▁सतही	-14686
ोपरांत	-14687
▁उपदान	-14688
▁खुजली	-14689
▁जातीं	-14690
▁ट्रां	-14691
▁नौवहन	-14692
▁बहाने	-14693
▁शौर्य	-14694
▁सुलझा	-14695
▁सोचती	-14696
▁अनूदित	-14697
▁उद्धार	-14698
▁उन्हों	-14699
▁ऋषियों	-14700
▁कक्षों	-14701
▁गुणांक	-14702
▁निरहता	-14703
▁फ़रवरी	-14704
▁रिश्ता	-14705
▁सेलुलर	-14706
▁आज्ञापक	-14707
▁कश्मीरी	-14708
▁द्रौपदी	-14709
▁पेशियों	-14710
▁संवितरण	-14711
▁गेंदबाजी	-14712
▁विद्वान्	-14713
▁विस्फोटक	-14714
▁शेयरधारक	-14715
▁सभ्यतागत	-14716
▁समसामयिक	-14717
▁सावित्री	-14718
▁परिकल्पित	-14719
▁संस्थापना	-14720
▁टिप्पणियां	-14721
▁नेटवर्किंग	-14722
▁क्षेत्राधिकार	-14723
गढ	-14724
ध्	-14725
व्	-14726
ंची	-14727
ापे	-14728
▁डै	-14729
▁नफ	-14730
नियम	-14731
▁कैट	-14732
▁खडी	-14733
▁नंब	-14734
▁भजन	-14735
▁हंग	-14736
न्सिल	-14737
ालनों	-14738
▁उसमे	-14739
▁एचआई	-14740
▁चलें	-14741
▁थाना	-14742
▁दराज	-14743
▁नायर	-14744
▁फ्रे	-14745
▁लगान	-14746
▁लेगी	-14747
▁सम्व	-14748
▁सहसा	-14749
▁आशयित	-14750
▁कराची	-14751
▁काटकर	-14752
▁खींचा	-14753
▁घुसपै	-14754
▁छोड़ो	-14755
▁नास्त	-14756
▁संस्त	-14757
▁हटाएँ	-14758
▁अतिशेष	-14759
▁आदित्य	-14760
▁करेंसी	-14761
▁कांस्य	-14762
▁कीजिये	-14763
▁ताकतवर	-14764
▁फेंकने	-14765
▁मददगार	-14766
▁समझदार	-14767
▁सोमनाथ	-14768
▁इंसुलिन	-14769
▁उत्साही	-14770
▁डिबेंचर	-14771
▁बायोमास	-14772
▁रसायनों	-14773
▁विपत्ति	-14774
▁संबन्धी	-14775
▁उदारवादी	-14776
▁अल्पकालीन	-14777
▁प्रच्छन्न	-14778
▁विश्वासों	-14779
▁अभियुक्तों	-14780
▁परिवर्तनीय	-14781
▁प्रतिभूतियां	-14782
▁सौहार्दपूर्ण	-14783
ya	-14784
ढक	-14785
बस	-14786
ise	-14787
▁pl	-14788
ज़ेब	-14789
देवी	-14790
पर्व	-14791
बादी	-14792
▁आदी	-14793
▁गाज	-14794
▁छपी	-14795
▁फाई	-14796
▁शती	-14797
ंबद्ध	-14798
रक्षक	-14799
िलिंग	-14800
▁अनाम	-14801
▁गोयल	-14802
▁पिघल	-14803
▁बेचे	-14804
▁अनिर्	-14805
▁अन्ना	-14806
▁करोगे	-14807
▁कैप्ट	-14808
▁घुमाव	-14809
▁चावला	-14810
▁जानकी	-14811
▁जिब्र	-14812
▁तालीम	-14813
▁तिब्ब	-14814
▁निचला	-14815
▁बंदूक	-14816
▁बत्ती	-14817
▁भुवने	-14818
▁लन्दन	-14819
▁शरियत	-14820
▁संगमर	-14821
▁सज्जा	-14822
▁समझें	-14823
▁अभिमान	-14824
▁आक्रोश	-14825
▁गोलमेज	-14826
▁देवियो	-14827
▁फर्मों	-14828
▁फेफड़े	-14829
▁बीबीसी	-14830
▁बुलाने	-14831
▁मिलाया	-14832
▁सुन्नी	-14833
▁ऑप्टिकल	-14834
▁कुंजीपट	-14835
▁बारहवीं	-14836
▁इंजेक्शन	-14837
▁क्रियाएं	-14838
▁चित्रकला	-14839
▁कार्यकुशल	-14840
▁प्रतिकृति	-14841
▁रक्तस्राव	-14842
▁अस्पृश्यता	-14843
▁काव्यात्मक	-14844
▁पुनर्जागरण	-14845
▁स्वायत्तता	-14846
▁नवान्वेषणों	-14847
▁विद्युतीकरण	-14848
कित	-14849
डिट	-14850
ादु	-14851
कोहल	-14852
डीसी	-14853
ृप्त	-14854
▁आसफ	-14855
▁इतर	-14856
▁उनऋ	-14857
▁उषा	-14858
▁एबी	-14859
▁ताम	-14860
▁पें	-14861
▁रबर	-14862
▁लेप	-14863
▁सुई	-14864
▁हक़	-14865
मितीय	-14866
ृष्टि	-14867
▁अतुल	-14868
▁करुण	-14869
▁गाया	-14870
▁गूंज	-14871
▁चादर	-14872
▁झटके	-14873
▁थॉमस	-14874
▁थोडी	-14875
▁बढ़त	-14876
▁बाएँ	-14877
▁वज़न	-14878
▁हामी	-14879
कोडिंग	-14880
ाचार्य	-14881
्रीकृत	-14882
▁अजनबी	-14883
▁क्लीन	-14884
▁चलाये	-14885
▁नब्बे	-14886
▁बनेगी	-14887
▁बिन्द	-14888
▁बोलता	-14889
▁मालती	-14890
▁लिहाज	-14891
▁श्रीन	-14892
▁सकतीं	-14893
▁सुरंग	-14894
▁सौम्य	-14895
▁प्यूपा	-14896
▁बढ़ाता	-14897
▁महालेख	-14898
▁यथोचित	-14899
▁श्रोता	-14900
▁सज्जित	-14901
▁अनुवादक	-14902
▁अभ्यस्त	-14903
▁कैलेंडर	-14904
▁कॉलेजों	-14905
▁दावेदार	-14906
▁परक्राम	-14907
▁पिक्सेल	-14908
▁प्रलेखन	-14909
▁फ़िल्टर	-14910
▁मुल्कों	-14911
▁शासनकाल	-14912
▁एकाग्रता	-14913
▁दण्डादेश	-14914
▁राजकोषीय	-14915
▁वस्तुतया	-14916
▁व्यापकता	-14917
▁शस्त्रों	-14918
▁समर्थकों	-14919
▁समुद्रों	-14920
▁पृष्ठांकन	-14921
▁प्रिंसिपल	-14922
▁परिवर्तनशील	-14923
ML	-14924
२ग	-14925
err	-14926
uar	-14927
गिल	-14928
िगे	-14929
▁पछ	-14930
नामे	-14931
ित्स	-14932
िनिक	-14933
▁बिस	-14934
▁भेष	-14935
▁मैग	-14936
▁रिम	-14937
▁लात	-14938
▁सक्	-14939
▁सिस	-14940
चिह्न	-14941
जिस्ट	-14942
मण्डल	-14943
▁उतरे	-14944
▁ऋग्व	-14945
▁चंदर	-14946
▁चमत्	-14947
▁मेरठ	-14948
▁विषै	-14949
▁अवसान	-14950
▁एमसीए	-14951
▁कागज़	-14952
▁फास्ट	-14953
▁मांगा	-14954
▁लालसा	-14955
▁ऑपरेटर	-14956
▁प्रकोप	-14957
▁बांटने	-14958
▁महासाग	-14959
▁विचारक	-14960
▁सेनानी	-14961
▁स्क्वा	-14962
▁अनभिज्ञ	-14963
▁चर्चाओं	-14964
▁चात्रिक	-14965
▁पांचवें	-14966
▁प्रस्तु	-14967
▁राशियां	-14968
▁वयस्कों	-14969
▁स्पेक्ट	-14970
▁आनुषंगिक	-14971
▁प्रान्तों	-14972
▁बाध्यताओं	-14973
▁सेंटीमीटर	-14974
▁ब्रह्माण्ड	-14975
▁प्राथमिकताओं	-14976
ाच	-14977
०घ	-14978
क्श	-14979
चिप	-14980
धिर	-14981
बॉल	-14982
मां	-14983
राइ	-14984
्शा	-14985
ंदरी	-14986
टरों	-14987
र्ची	-14988
वायर	-14989
िपति	-14990
ेरों	-14991
्राह	-14992
▁आमा	-14993
▁टां	-14994
▁बिच	-14995
ियाला	-14996
▁उंगल	-14997
▁एकाउ	-14998
▁कॉयर	-14999
▁चंदन	-15000
▁धीमे	-15001
▁धोने	-15002
▁मीणा	-15003
▁घण्टे	-15004
▁टीकरण	-15005
▁दिखते	-15006
▁मैनें	-15007
▁सविनय	-15008
▁हैरान	-15009
आक्साइड	-15010
▁अनुराग	-15011
▁क्लबों	-15012
▁शिकागो	-15013
▁नैदानिक	-15014
▁मूंगफली	-15015
▁सुविचार	-15016
▁ग्रन्थों	-15017
▁प्रतिशोध	-15018
▁रवीन्द्र	-15019
▁स्त्रोतों	-15020
▁राजनीतिज्ञ	-15021
▁आत्मनिर्भरता	-15022
▁शिक्षार्थियों	-15023
IT	-15024
जब	-15025
वह	-15026
अंद	-15027
ौला	-15028
तरफा	-15029
दम्य	-15030
ियें	-15031
ीलों	-15032
▁उपच	-15033
▁ऑंक	-15034
▁कटौ	-15035
▁बफर	-15036
▁रॉय	-15037
▁सरस	-15038
क्सीन	-15039
डियां	-15040
मेटिक	-15041
श्चित	-15042
▁एजें	-15043
▁एसपी	-15044
▁गूढ़	-15045
▁चींट	-15046
▁जनों	-15047
▁तरुण	-15048
▁धीरज	-15049
▁नीली	-15050
▁पारस	-15051
▁पुथल	-15052
▁ब्यो	-15053
▁मह्त	-15054
▁मुखौ	-15055
▁शासी	-15056
▁खेलना	-15057
▁बजाने	-15058
▁भीष्म	-15059
▁भेजता	-15060
▁मकबरे	-15061
▁मराठा	-15062
▁मिठाई	-15063
▁राजनय	-15064
▁लौकिक	-15065
▁साबुन	-15066
▁साहेब	-15067
▁सीटों	-15068
▁हटाकर	-15069
▁हिंदु	-15070
रीक्षित	-15071
्वीकृति	-15072
▁अधिवास	-15073
▁ऋग्वेद	-15074
▁निरोधक	-15075
▁मिस्टर	-15076
▁हरिभाऊ	-15077
▁अथॉरिटी	-15078
▁दूरगामी	-15079
▁निरंकुश	-15080
▁प्रकाशक	-15081
▁लेखांकन	-15082
▁श्रीमान	-15083
▁संस्मरण	-15084
▁अध्यायों	-15085
▁भावात्मक	-15086
▁विचारणीय	-15087
▁व्यवहारिक	-15088
▁संपरीक्षा	-15089
▁पुनर्जीवित	-15090
▁अन्तर्विष्ट	-15091
▁पुरःस्थापित	-15092
▁प्रतिबिम्बित	-15093
▁माइक्रोसॉफ्ट	-15094
aw	-15095
जै	-15096
इये	-15097
निस	-15098
पुत	-15099
ेला	-15100
▁ag	-15101
▁खू	-15102
ंबार	-15103
भुता	-15104
भोगी	-15105
िटरी	-15106
िल्द	-15107
्रोम	-15108
▁key	-15109
▁एलो	-15110
▁खंभ	-15111
▁त्त	-15112
▁नेक	-15113
टरिंग	-15114
भिव्य	-15115
वृक्ष	-15116
ांटिक	-15117
▁आरएफ	-15118
▁ख़ुद	-15119
▁खोली	-15120
▁गतिक	-15121
▁गुणन	-15122
▁चौंक	-15123
▁जनना	-15124
▁नफरत	-15125
▁बीता	-15126
▁माली	-15127
▁मुनि	-15128
▁विभी	-15129
▁सीटी	-15130
यालयों	-15131
▁अधिगम	-15132
▁अर्हक	-15133
▁कुसुम	-15134
▁खिड़क	-15135
▁चौड़े	-15136
▁जागीर	-15137
▁जायगी	-15138
▁नेटाल	-15139
▁पुनरू	-15140
▁फ्लैट	-15141
▁बेसिक	-15142
▁कदाचित	-15143
▁नितांत	-15144
▁मीयादी	-15145
▁मुआवजा	-15146
▁मेहराब	-15147
▁सम्पाद	-15148
▁सुगमता	-15149
स्ट्रिया	-15150
▁नक्काशी	-15151
▁प्रेसिड	-15152
▁बारंबार	-15153
▁स्ट्राइ	-15154
▁हस्पताल	-15155
▁कॉरपोरेट	-15156
▁चरित्रों	-15157
▁जरूरतमंद	-15158
▁डिप्लोमा	-15159
▁शरणार्थी	-15160
▁अभियोजकों	-15161
▁तादात्म्य	-15162
▁कुलाध्यक्ष	-15163
▁विनिश्चयों	-15164
▁अन्यायपूर्ण	-15165
२६	-15166
ंधि	-15167
ईएस	-15168
विच	-15169
सले	-15170
िंद	-15171
िनो	-15172
ौजी	-15173
्रू	-15174
▁गध	-15175
न्टी	-15176
▁एले	-15177
▁कहो	-15178
▁तोड	-15179
▁नेम	-15180
▁पंर	-15181
▁मैल	-15182
▁सदर	-15183
▁हाम	-15184
भाजित	-15185
ॉप्टर	-15186
▁खोने	-15187
▁गर्त	-15188
▁चालन	-15189
▁ठंडी	-15190
▁नामी	-15191
▁नीचा	-15192
▁पंकज	-15193
▁पीढी	-15194
▁पीते	-15195
▁मण्ड	-15196
▁माँस	-15197
▁यौवन	-15198
▁रिंग	-15199
▁सोचो	-15200
▁धरातल	-15201
▁पत्ता	-15202
▁ब्लॉग	-15203
▁सेटअप	-15204
संस्कृत	-15205
▁अनजाने	-15206
▁अफसरों	-15207
▁प्रदीप	-15208
▁प्रिया	-15209
▁बीसवीं	-15210
▁मुट्ठी	-15211
▁सप्लाई	-15212
▁अथारिटी	-15213
▁कुक्कुट	-15214
▁क्षितिज	-15215
▁परिणामी	-15216
▁बहुमुखी	-15217
▁भावनाएं	-15218
▁संगमरमर	-15219
▁विनम्रता	-15220
▁उपनिवेशवाद	-15221
▁संपत्तियों	-15222
▁सर्वव्यापी	-15223
▁सूक्ष्मजीव	-15224
▁स्थानापन्न	-15225
▁देशीराज्यों	-15226
ोच	-15227
कुर	-15228
गली	-15229
नीर	-15230
▁th	-15231
▁हब	-15232
ंस्ट	-15233
चेतन	-15234
▁अलै	-15235
▁धड़	-15236
▁पंत	-15237
▁बिम	-15238
▁लिं	-15239
▁होन	-15240
ार्डन	-15241
▁गुटन	-15242
▁निबट	-15243
▁पेची	-15244
▁बेने	-15245
▁मेटा	-15246
▁लाइफ	-15247
▁सर्च	-15248
▁सिरा	-15249
▁अवचार	-15250
▁अस्सी	-15251
▁ऑर्डर	-15252
▁द्वास	-15253
▁बुलेट	-15254
▁ब्याह	-15255
▁मुमता	-15256
▁लिप्य	-15257
▁संतों	-15258
▁सॉफ्ट	-15259
▁हुक्म	-15260
मान्यता	-15261
▁अधिशेष	-15262
▁एडवर्ड	-15263
▁परिधान	-15264
▁परिपाट	-15265
▁बरकरार	-15266
▁सुनाने	-15267
▁अंतरफलक	-15268
▁अभिनंदन	-15269
▁असंतुलन	-15270
▁दृष्टिप	-15271
▁फिल्में	-15272
▁विधानों	-15273
▁स्मरणीय	-15274
▁औरंगज़ेब	-15275
▁ट्रेनिंग	-15276
▁द्विवेदी	-15277
▁पत्राचार	-15278
▁प्रशासित	-15279
▁अंकगणितीय	-15280
▁चिरस्थायी	-15281
▁अव्यवस्थित	-15282
▁आदिवासियों	-15283
▁ईश्वरचन्द्र	-15284
OL	-15285
oo	-15286
गर्	-15287
यली	-15288
ितर	-15289
ुषण	-15290
ूला	-15291
▁ma	-15292
▁शश	-15293
क्ला	-15294
▁उछल	-15295
▁छाँ	-15296
कोर्ट	-15297
पट्टी	-15298
पुष्प	-15299
िकारी	-15300
▁उनपर	-15301
▁काडर	-15302
▁घटकर	-15303
▁टूटे	-15304
▁थीटा	-15305
▁लदान	-15306
वर्णित	-15307
▁क्रिम	-15308
▁तब्दी	-15309
▁भाषाई	-15310
▁मदिरा	-15311
▁मिलनी	-15312
▁युवती	-15313
▁लचीला	-15314
▁वर्जन	-15315
▁सीढ़ी	-15316
▁हिचकि	-15317
▁टांगें	-15318
▁बनेंगे	-15319
▁बहरहाल	-15320
▁मनमोहन	-15321
▁मिटाना	-15322
▁रहेंगी	-15323
▁लम्बित	-15324
▁विखंडन	-15325
▁संयोजक	-15326
▁सजावटी	-15327
▁सल्तनत	-15328
▁सूर्या	-15329
▁उपदेशों	-15330
▁जमाराशि	-15331
▁निकालते	-15332
▁यूट्यूब	-15333
▁साझेदार	-15334
▁अंशकालिक	-15335
▁बैरिस्टर	-15336
▁लड़कियां	-15337
▁विनिर्देश	-15338
▁मध्यप्रदेश	-15339
▁अन्तर्निहित	-15340
ED	-15341
तऋ	-15342
ोफ	-15343
ack	-15344
ंबी	-15345
खनन	-15346
▁Se	-15347
▁gt	-15348
डीआई	-15349
बीआई	-15350
म्बन	-15351
विया	-15352
्रोत	-15353
▁gui	-15354
▁अवा	-15355
▁कटे	-15356
▁कतई	-15357
▁नबी	-15358
▁बरी	-15359
▁ब्य	-15360
▁रतन	-15361
▁रेन	-15362
ण्डिक	-15363
योजना	-15364
▁maoM	-15365
▁अलवा	-15366
▁उपसभ	-15367
▁एमपी	-15368
▁ऑब्ज	-15369
▁कंचन	-15370
▁चोंच	-15371
▁छद्म	-15372
▁जांघ	-15373
▁धनीय	-15374
▁बराक	-15375
▁इस्ते	-15376
▁कथाएं	-15377
▁छावनी	-15378
▁जगाने	-15379
▁नजरिए	-15380
▁निर्भ	-15381
▁लगाएं	-15382
▁शूद्र	-15383
▁उपसर्ग	-15384
▁एकान्त	-15385
▁गतिरोध	-15386
▁वेदांत	-15387
कर्मियों	-15388
▁अंबेडकर	-15389
▁उपरान्त	-15390
▁पायेंगे	-15391
▁मोहल्ला	-15392
▁लेखबद्ध	-15393
▁विनिश्व	-15394
▁संज्ञान	-15395
▁सिंहासन	-15396
▁सेवायें	-15397
▁दोषसिद्ध	-15398
▁निवृत्ति	-15399
▁समामेलित	-15400
▁लक्षद्वीप	-15401
▁इलैक्ट्रानिक	-15402
OR	-15403
SA	-15404
ञ्ज	-15405
ारत	-15406
ूरे	-15407
▁ST	-15408
▁टर	-15409
▁फत	-15410
▁सव	-15411
काना	-15412
चनीय	-15413
ान्ट	-15414
ामें	-15415
ायंस	-15416
▁अधो	-15417
▁अले	-15418
▁उकस	-15419
▁एसए	-15420
▁डिम	-15421
▁तोप	-15422
▁दुल	-15423
▁पिश	-15424
▁फुस	-15425
▁बसु	-15426
▁बाउ	-15427
▁रचे	-15428
▁रोष	-15429
▁लिन	-15430
त्रों	-15431
▁अवधी	-15432
▁आक्र	-15433
▁औरों	-15434
▁कपाल	-15435
▁गोरे	-15436
▁घाटा	-15437
▁झूठा	-15438
▁डायल	-15439
▁तटों	-15440
▁दुबे	-15441
▁बर्र	-15442
▁बारा	-15443
▁मसलन	-15444
▁माफी	-15445
▁यूटी	-15446
▁श्रृ	-15447
▁सीसा	-15448
▁सेबी	-15449
ंतुष्ट	-15450
वांशिक	-15451
्वाइंट	-15452
▁इक्की	-15453
▁उपहास	-15454
▁उभरने	-15455
▁कस्टम	-15456
▁किसने	-15457
▁झाड़ी	-15458
▁दायें	-15459
▁नशीली	-15460
▁बायें	-15461
▁मत्कु	-15462
▁मुग़ल	-15463
▁सरिता	-15464
▁हकीकत	-15465
▁हुमाय	-15466
▁असम्भव	-15467
▁आराधना	-15468
▁पहचाने	-15469
▁भिक्षु	-15470
▁लालटेन	-15471
▁असंगठित	-15472
▁उत्तेजक	-15473
▁चालुक्य	-15474
▁निपटारे	-15475
▁परिसम्प	-15476
▁विवादित	-15477
▁संगीतकार	-15478
▁कारपोरेशन	-15479
▁गांधीवादी	-15480
▁न्यायात्रय	-15481
AN	-15482
ऋआ	-15483
यना	-15484
शिव	-15485
हड़	-15486
ान्	-15487
िकर	-15488
त्तन	-15489
▁तनु	-15490
▁पडी	-15491
▁बचन	-15492
▁युन	-15493
▁हमद	-15494
दृष्ट	-15495
म्ब्र	-15496
ानन्द	-15497
िविटी	-15498
▁उपाध	-15499
▁कंवर	-15500
▁कापी	-15501
▁चम्प	-15502
▁चुरा	-15503
▁पुडु	-15504
▁रेशे	-15505
▁सीएस	-15506
▁उपनाम	-15507
▁क्रमश	-15508
▁मनोबल	-15509
▁म्यां	-15510
▁हिदाय	-15511
▁आतिथ्य	-15512
▁आत्मिक	-15513
▁आयामों	-15514
▁खींचना	-15515
▁माताओं	-15516
▁विंडोज	-15517
▁विधायक	-15518
▁शनिवार	-15519
▁इजरायली	-15520
▁एकमुश्त	-15521
▁कलेक्टर	-15522
▁क्रिश्च	-15523
▁जवाबदेह	-15524
▁प्रदुषण	-15525
▁बहादुरी	-15526
▁आत्मघाती	-15527
▁तस्वीरों	-15528
▁नाममात्र	-15529
▁निर्वसीय	-15530
▁जमींदारों	-15531
▁द्वीपसमूह	-15532
▁भित्तिस्त	-15533
▁रिपब्लिकन	-15534
▁रिश्तेदार	-15535
▁सुस्थापित	-15536
▁अंतर्वस्तु	-15537
▁अभ्यर्थियों	-15538
▁ऑस्ट्रेलियाई	-15539
▁विनिधानकर्ता	-15540
ठ्	-15541
ust	-15542
फात	-15543
रेक	-15544
लीक	-15545
वेग	-15546
▁डच	-15547
▁षड	-15548
डीएस	-15549
ायिक	-15550
ूतों	-15551
ेंगी	-15552
▁इको	-15553
▁जठर	-15554
▁डरा	-15555
▁सुध	-15556
द्वाज	-15557
▁आरती	-15558
▁कांत	-15559
▁खोजा	-15560
▁घटती	-15561
▁चाकू	-15562
▁टंकण	-15563
▁डीलर	-15564
▁पूति	-15565
▁फौजी	-15566
▁विंग	-15567
▁सीपी	-15568
▁सूँघ	-15569
▁हँसी	-15570
ार्जुन	-15571
▁अफगान	-15572
▁आएंगे	-15573
▁ईस्वी	-15574
▁कन्नड	-15575
▁करतीं	-15576
▁कीचड़	-15577
▁गंदगी	-15578
▁पायलट	-15579
▁बचाना	-15580
▁बहुसं	-15581
▁मुज्ह	-15582
▁लिफ्ट	-15583
▁समूची	-15584
▁सूफ़ी	-15585
मन्त्री	-15586
▁कीड़ों	-15587
▁न्यूज़	-15588
▁बेचैनी	-15589
▁भव्यता	-15590
▁मशीनें	-15591
▁शुद्धि	-15592
▁सदाचार	-15593
▁अधिरचना	-15594
▁क्षयरोग	-15595
▁धारणाओं	-15596
▁प्रधाना	-15597
▁प्रभाकर	-15598
▁बिंदुओं	-15599
▁अधिष्ठान	-15600
▁कोलंबिया	-15601
▁ज़िन्दगी	-15602
▁तानाशाही	-15603
▁पहुँचाने	-15604
▁रामेश्वर	-15605
▁सभ्यताओं	-15606
▁ज्योतिर्म	-15607
▁भाग्यशाली	-15608
▁विदेशियों	-15609
▁विशेषताएँ	-15610
▁वृत्ताकार	-15611
▁हतोत्साहित	-15612
▁स्वातंत्र्य	-15613
▁प्रतिष्ठानों	-15614
वध	-15615
ult	-15616
ंगु	-15617
जनी	-15618
▁le	-15619
▁वल	-15620
ंगली	-15621
एमएल	-15622
िएटर	-15623
ुकाम	-15624
▁किं	-15625
▁दरि	-15626
▁न्य	-15627
▁सोख	-15628
▁हाऊ	-15629
ख़ाना	-15630
न्तरण	-15631
न्धान	-15632
▁आईआई	-15633
▁डिपो	-15634
▁थकान	-15635
▁पठित	-15636
▁पूना	-15637
▁फैशन	-15638
▁बड़ै	-15639
▁बावत	-15640
▁भालू	-15641
[...]
