<unk>	0
<s>	0
</s>	0
UuRrLl	0
DdAaTtEe	0
NnUuMm	0
▁क	-0
▁स	-1
▁ह	-2
▁प	-3
▁म	-4
्र	-5
ार	-6
▁के	-7
▁अ	-8
▁व	-9
▁है	-10
्य	-11
ें	-12
▁ज	-13
▁न	-14
▁।	-15
ों	-16
▁ब	-17
या	-18
▁द	-19
▁,	-20
र्	-21
▁में	-22
ता	-23
▁उ	-24
ान	-25
▁ल	-26
▁प्र	-27
▁र	-28
िक	-29
▁की	-30
▁आ	-31
▁औ	-32
ने	-33
▁कि	-34
▁कर	-35
▁त	-36
्त	-37
▁और	-38
ित	-39
▁को	-40
▁का	-41
▁भ	-42
▁से	-43
ना	-44
▁ग	-45
▁इ	-46
▁पर	-47
▁वि	-48
▁.	-49
्व	-50
▁ए	-51
▁य	-52
▁हो	-53
▁सं	-54
▁श	-55
ाल	-56
था	-57
िय	-58
▁-	-59
िए	-60
्ष	-61
▁च	-62
▁इस	-63
ति	-64
▁हैं	-65
्ट	-66
▁एक	-67
▁सम	-68
्या	-69
ही	-70
▁जा	-71
न्	-72
ती	-73
▁लिए	-74
ते	-75
ाम	-76
स्	-77
वा	-78
▁नि	-79
के	-80
हा	-81
ड़	-82
त्र	-83
▁अप	-84
िया	-85
क्ष	-86
ोग	-87
▁अध	-88
सी	-89
से	-90
▁अन	-91
▁रा	-92
हीं	-93
▁दे	-94
िल	-95
▁या	-96
▁यह	-97
▁भी	-98
▁)	-99
▁नहीं	-100
▁(	-101
▁ख	-102
ारा	-103
ाह	-104
ास	-105
कार	-106
▁किया	-107
▁जो	-108
▁ने	-109
नी	-110
री	-111
रा	-112
क्त	-113
ष्ट	-114
▁करने	-115
त्	-116
ंग	-117
का	-118
▁सा	-119
िन	-120
▁कार	-121
▁स्	-122
▁फ	-123
▁उस	-124
ेश	-125
▁उप	-126
▁थ	-127
द्	-128
ियों	-129
िस	-130
▁हम	-131
▁बा	-132
कर	-133
ले	-134
▁सक	-135
▁मु	-136
ला	-137
▁तथा	-138
ंध	-139
ाय	-140
▁ध	-141
ंत	-142
▁उन	-143
ूप	-144
▁था	-145
गा	-146
की	-147
▁ही	-148
▁भार	-149
▁अनु	-150
▁हु	-151
ाने	-152
ूर्	-153
भा	-154
मा	-155
्च	-156
▁द्व	-157
्री	-158
सा	-159
ओं	-160
▁सु	-161
▁गया	-162
ंद	-163
▁ले	-164
स्त	-165
▁ऐ	-166
▁अधिक	-167
▁कु	-168
वि	-169
▁स्व	-170
▁आप	-171
द्ध	-172
▁किसी	-173
ंड	-174
▁तो	-175
▁ड	-176
▁रूप	-177
▁व्य	-178
▁द्वारा	-179
ल्	-180
▁राज	-181
▁विश	-182
ारी	-183
▁रह	-184
▁निर्	-185
म्	-186
▁वह	-187
ीन	-188
ोज	-189
द्य	-190
▁कार्य	-191
ैं	-192
न्ह	-193
ाप	-194
बंध	-195
देश	-196
▁अपने	-197
▁प्रति	-198
▁वाल	-199
धार	-200
रे	-201
ली	-202
त्त	-203
▁भा	-204
▁वर्	-205
▁परि	-206
▁पु	-207
▁वे	-208
▁पह	-209
▁ट	-210
भी	-211
▁घ	-212
योग	-213
▁चाह	-214
▁जिस	-215
▁साथ	-216
▁छ	-217
ार्	-218
ाना	-219
रण	-220
▁तक	-221
▁क्ष	-222
▁भारत	-223
क्ति	-224
▁न्या	-225
ंत्र	-226
में	-227
ारे	-228
दि	-229
▁स्थ	-230
▁उन्ह	-231
क्र	-232
जी	-233
कि	-234
िर	-235
▁जाता	-236
दा	-237
▁राष्ट	-238
गी	-239
दी	-240
▁करना	-241
▁अव	-242
▁मह	-243
▁दो	-244
स्थ	-245
ष्	-246
▁मा	-247
ृत	-248
ूल	-249
▁थे	-250
ुत	-251
चार	-252
ियम	-253
▁कुछ	-254
▁मे	-255
▁'	-256
▁सर	-257
▁बह	-258
ढ़	-259
▁साम	-260
▁कोई	-261
खा	-262
नों	-263
▁थी	-264
ब्	-265
▁पा	-266
ंच	-267
▁सि	-268
▁ला	-269
िश	-270
▁मैं	-271
च्च	-272
▁सी	-273
मान	-274
▁होता	-275
▁दिया	-276
▁विक	-277
्ञ	-278
▁जी	-279
्यों	-280
ुर	-281
▁सकता	-282
▁/	-283
्छ	-284
ूर	-285
▁जब	-286
्रे	-287
ूर्ण	-288
ेत्र	-289
▁;	-290
गे	-291
न्द	-292
धि	-293
जा	-294
पा	-295
ये	-296
वर्	-297
न्न	-298
ाप्त	-299
िका	-300
▁इन	-301
▁मान	-302
र्थ	-303
▁बी	-304
▁समय	-305
▁कम	-306
▁संबंध	-307
▁अभ	-308
ोक	-309
▁क्षेत्र	-310
▁मिल	-311
▁करते	-312
ीय	-313
वे	-314
▁हुए	-315
▁जै	-316
हां	-317
▁करता	-318
भाव	-319
▁अंत	-320
▁न्याया	-321
कों	-322
धान	-323
▁अन्य	-324
▁सू	-325
गर	-326
च्छ	-327
▁सरकार	-328
▁पू	-329
▁लोग	-330
वन	-331
र्म	-332
क्षा	-333
▁जाए	-334
▁बना	-335
स्था	-336
▁राष्ट्र	-337
ेष	-338
▁अपनी	-339
▁देश	-340
▁उत्	-341
नि	-342
▁चाहिए	-343
िप	-344
▁हि	-345
त्य	-346
ोट	-347
्रीय	-348
▁तर	-349
दान	-350
▁सह	-351
▁रहे	-352
्रा	-353
▁प्रा	-354
▁राज्य	-355
क्	-356
▁उनके	-357
▁वर्ष	-358
▁रहा	-359
▁रख	-360
ज्ञ	-361
▁विश्व	-362
▁सम्	-363
▁:	-364
ूर्व	-365
▁?	-366
▁बहुत	-367
चना	-368
ज़	-369
▁होने	-370
▁वाले	-371
▁गई	-372
गत	-373
को	-374
र्श	-375
लय	-376
▁बाद	-377
▁बात	-378
ूस	-379
▁गु	-380
▁प्राप्त	-381
तीय	-382
▁करें	-383
▁कहा	-384
पति	-385
▁ओ	-386
▁दी	-387
िक्ष	-388
श्य	-389
▁बन	-390
▁सभी	-391
दन	-392
▁जाने	-393
वं	-394
करण	-395
▁प्रकार	-396
▁उसके	-397
ौर	-398
िव	-399
▁सब	-400
ड़ा	-401
▁ऊ	-402
स्ता	-403
ेल	-404
ुक्त	-405
ोंने	-406
▁आय	-407
ुल	-408
ंक	-409
▁होती	-410
▁ऐसे	-411
ानी	-412
िम	-413
िख	-414
ोध	-415
एं	-416
जन	-417
▁व्यक्ति	-418
पूर्ण	-419
िति	-420
▁देख	-421
▁पी	-422
▁न्यायालय	-423
ड़ी	-424
▁चु	-425
▁कारण	-426
▁भारतीय	-427
ंप	-428
धिक	-429
्ल	-430
▁लग	-431
ालय	-432
श्च	-433
ोल	-434
▁तरह	-435
▁होगा	-436
त्म	-437
▁हुआ	-438
▁जि	-439
▁प्रश	-440
▁अधिन	-441
▁जन	-442
▁गए	-443
▁कह	-444
▁व्या	-445
ध्य	-446
▁इसके	-447
▁विकास	-448
▁उसे	-449
▁एवं	-450
▁सकते	-451
▁पूर्व	-452
द्योग	-453
ग्र	-454
ड़े	-455
▁किए	-456
बा	-457
▁राष्ट्रपति	-458
िट	-459
▁अनुस	-460
▁अधिनियम	-461
▁उन्हें	-462
▁वा	-463
▁माम	-464
▁उन्होंने	-465
▁आव	-466
▁यदि	-467
मी	-468
▁ना	-469
▁क्या	-470
▁मूल	-471
िये	-472
▁धारा	-473
▁नी	-474
▁दूस	-475
वी	-476
बर	-477
▁पहले	-478
किन	-479
▁नाम	-480
र्व	-481
तन	-482
▁अस	-483
▁काम	-484
▁दु	-485
▁आर	-486
▁जान	-487
त्व	-488
वल	-489
▁विचार	-490
▁लेकिन	-491
ोजना	-492
वाद	-493
िता	-494
▁ऐसा	-495
▁उच्च	-496
क्रम	-497
तिक	-498
मे	-499
▁ता	-500
▁विशेष	-501
▁हू	-502
▁समा	-503
▁क्र	-504
▁स्थान	-505
माण	-506
ुद्ध	-507
्यू	-508
तर	-509
▁ई	-510
झे	-511
चित	-512
ाली	-513
▁मुख	-514
▁ग्र	-515
धा	-516
श्यक	-517
▁स्त	-518
▁जाती	-519
▁बि	-520
▁ऐसी	-521
▁आधार	-522
ंट	-523
▁बढ़	-524
कृत	-525
िला	-526
▁लोगों	-527
ष्ठ	-528
्ड	-529
पर	-530
सर	-531
▁पै	-532
▁निय	-533
ूम	-534
▁अब	-535
▁अधिकार	-536
▁स्था	-537
▁बारे	-538
यी	-539
न्त	-540
▁भाग	-541
▁ये	-542
▁हमारे	-543
ां	-544
▁जीवन	-545
ोर	-546
▁बे	-547
▁आवश्यक	-548
िंग	-549
▁निक	-550
▁उनकी	-551
▁वै	-552
ील	-553
षण	-554
्स	-555
ियां	-556
▁जैसे	-557
▁अधीन	-558
ास्त	-559
▁प्रभाव	-560
▁समझ	-561
▁सेवा	-562
▁तु	-563
ाइ	-564
ोप	-565
▁होते	-566
▁शिक्ष	-567
▁उत्त	-568
लों	-569
ोर्	-570
क्षण	-571
िन्न	-572
▁उपयोग	-573
▁सद	-574
▁हुई	-575
▁बार	-576
▁व्यव	-577
▁मन	-578
▁दिन	-579
▁क्यों	-580
▁मुझे	-581
प्र	-582
▁रु	-583
▁ओर	-584
▁केवल	-585
निक	-586
▁फिर	-587
षा	-588
ार्थ	-589
कृ	-590
ची	-591
टा	-592
▁जाना	-593
▁रही	-594
दार	-595
▁श्री	-596
टी	-597
▁अल	-598
हाय	-599
▁कृ	-600
ल्प	-601
ंस	-602
क्रिया	-603
▁ठ	-604
ख्या	-605
▁जिन	-606
▁बीच	-607
ंभ	-608
ुद	-609
▁प्रयोग	-610
▁अथ	-611
▁बाह	-612
▁प्रदान	-613
ेक	-614
रों	-615
ताओं	-616
रिक	-617
▁सहाय	-618
▁चल	-619
कारी	-620
वाह	-621
ेत	-622
▁ढ	-623
▁उत्पा	-624
चा	-625
िल्	-626
ंब	-627
▁विर	-628
यन	-629
▁दृ	-630
तः	-631
▁प्रत्य	-632
▁हों	-633
▁देने	-634
▁अथवा	-635
▁पुर	-636
▁पार	-637
धी	-638
मु	-639
तम	-640
▁पास	-641
▁“	-642
▁वाली	-643
वेश	-644
वार	-645
कर्	-646
शन	-647
ज्ञान	-648
ून	-649
▁लोक	-650
्न	-651
▁प्रक्रिया	-652
▁जिसमें	-653
▁विभ	-654
▁खा	-655
▁सो	-656
▁अपना	-657
फल	-658
▁निर्धार	-659
▁लगा	-660
▁s	-661
लब्	-662
हार	-663
▁विधि	-664
▁कै	-665
▁दोनों	-666
भव	-667
दर्श	-668
▁जहां	-669
▁सकती	-670
▁स्प	-671
▁इसे	-672
ब्द	-673
▁कंप	-674
▁उपलब्	-675
पित	-676
त्ता	-677
▁करती	-678
▁राष्ट्रीय	-679
▁व्याप	-680
▁पश्च	-681
व्य	-682
▁निर	-683
▁न्याय	-684
▁होना	-685
त्मक	-686
णी	-687
ेद	-688
ित्र	-689
▁महत्व	-690
▁झ	-691
▁तब	-692
▁पुन	-693
▁उसकी	-694
ेज	-695
▁पहु	-696
▁%	-697
▁बद	-698
▁सके	-699
टर	-700
फ़	-701
▁सदस	-702
हाँ	-703
▁प्रण	-704
▁संग	-705
▁योजना	-706
मिक	-707
▁विष	-708
द्योगिक	-709
ुक	-710
▁सामान	-711
▁करे	-712
युक्त	-713
▁हा	-714
▁हर	-715
▁बै	-716
▁मौ	-717
ूत	-718
▁अर्थ	-719
▁लिया	-720
त्रा	-721
ोड़	-722
▁सबसे	-723
भाग	-724
▁अच्छ	-725
▁वृ	-726
पी	-727
▁क्योंकि	-728
▁प्रे	-729
दे	-730
▁उपलब्ध	-731
▁फ़	-732
▁बैं	-733
▁मुख्य	-734
▁ऑ	-735
▁स्वा	-736
▁शिक्षा	-737
▁अर्	-738
▁वित	-739
▁शुर	-740
▁जाते	-741
▁हमें	-742
ंतु	-743
▁अंतर	-744
ण्ड	-745
ात	-746
▁संबंधित	-747
▁पद	-748
▁पत्र	-749
▁हूं	-750
▁उद्	-751
▁जर	-752
▁सूचना	-753
▁छोट	-754
▁बच्च	-755
ोह	-756
ोजन	-757
▁स्थिति	-758
शा	-759
श्व	-760
बी	-761
▁दौर	-762
▁ब्र	-763
▁कभी	-764
तंत्र	-765
▁अंग	-766
िखा	-767
ामी	-768
न्द्र	-769
▁प्रस	-770
▁स्ट	-771
▁लिख	-772
▁वस्त	-773
चे	-774
स्ट	-775
वरण	-776
▁अति	-777
कृति	-778
▁विषय	-779
▁अनुसार	-780
ेट	-781
▁नियम	-782
ंज	-783
▁तै	-784
▁अध्य	-785
ष्टि	-786
ाला	-787
▁आज	-788
▁जु	-789
▁शाम	-790
▁केंद	-791
▁योग	-792
▁इसल	-793
ित्व	-794
▁उठ	-795
र्क	-796
▁सहायता	-797
तों	-798
▁वास्त	-799
▁उत्तर	-800
▁कई	-801
▁लिये	-802
▁सुर	-803
▁शक्ति	-804
▁शब्द	-805
▁भाषा	-806
▁यु	-807
▁मै	-808
▁सर्व	-809
▁दा	-810
▁व्यक्त	-811
▁विभिन्न	-812
त्ति	-813
्यान	-814
▁जाएगा	-815
नेक	-816
▁भूम	-817
▁अगर	-818
▁ऋ	-819
▁मामले	-820
▁दूसरे	-821
▁गा	-822
ेय	-823
स्थान	-824
रूप	-825
▁सामान्य	-826
▁बु	-827
▁स्वी	-828
ासन	-829
फी	-830
काश	-831
▁मंत्र	-832
▁इत	-833
िस्ट	-834
▁उसका	-835
▁इसलिए	-836
▁दौरान	-837
▁उनका	-838
हर	-839
▁अलग	-840
▁संघ	-841
मुख	-842
▁>	-843
धन	-844
▁संप	-845
▁आई	-846
▁इसका	-847
▁सुन	-848
्म	-849
ोड	-850
▁वाला	-851
▁पूर्ण	-852
▁ज्ञ	-853
▁शामिल	-854
▁"	-855
▁जल	-856
इट	-857
▁परिवर्	-858
▁पक्ष	-859
मत	-860
▁कान	-861
ंजी	-862
काल	-863
वास	-864
▁आदि	-865
▁&	-866
▁वास्तव	-867
▁उसने	-868
वान	-869
▁तैय	-870
▁विद्य	-871
प्त	-872
▁अनेक	-873
▁संस	-874
▁एस	-875
क्ट	-876
▁संख्या	-877
▁लाभ	-878
▁अवसर	-879
डी	-880
िज	-881
ूह	-882
▁गये	-883
▁0	-884
▁तीन	-885
शि	-886
ुष	-887
गम	-888
▁दर	-889
निया	-890
▁पहुंच	-891
▁उपबंध	-892
ुट	-893
▁महा	-894
▁माध्य	-895
जार	-896
▁बता	-897
ोर्ट	-898
यं	-899
▁अं	-900
ाज	-901
टना	-902
▁जिसे	-903
ेंगे	-904
▁प्रत्येक	-905
▁कल	-906
▁रुप	-907
▁सिद्ध	-908
▁दूर	-909
णा	-910
▁साह	-911
ृत्य	-912
शत	-913
▁पृ	-914
▁निर्माण	-915
न्तु	-916
नीय	-917
▁प्रौ	-918
स्थित	-919
▁प्रया	-920
▁मानव	-921
र्इ	-922
स्व	-923
▁समाज	-924
▁प्रय	-925
▁यहां	-926
द्र	-927
पाल	-928
▁उद्योग	-929
▁बनाने	-930
▁भर	-931
कट	-932
▁ध्यान	-933
▁संर	-934
ूट	-935
▁कार्यक्रम	-936
▁होगी	-937
▁आपको	-938
▁उद	-939
▁संवि	-940
▁संस्था	-941
▁महत्वपूर्ण	-942
▁स्पष्ट	-943
▁अंतर्	-944
▁नई	-945
क्षित	-946
▁संस्	-947
▁वित्त	-948
▁मध्य	-949
▁अग	-950
▁तैयार	-951
▁विदेश	-952
दाय	-953
▁रोग	-954
▁जिसके	-955
ाई	-956
▁आर्थ	-957
▁स्तर	-958
▁प्रयास	-959
▁ची	-960
नल	-961
▁धर्म	-962
बन्	-963
र्ष	-964
▁वस्तु	-965
ांत	-966
▁हेत	-967
▁बिना	-968
सल	-969
ग्रह	-970
▁शुरू	-971
▁बाहर	-972
▁पता	-973
▁प्रतिशत	-974
वादी	-975
▁खु	-976
▁‘	-977
णय	-978
▁हमारी	-979
▁पि	-980
▁देता	-981
▁मत	-982
▁आर्थिक	-983
ोन	-984
▁जनता	-985
▁रे	-986
▁पड़	-987
▁हेतु	-988
स्या	-989
▁प्रार	-990
▁बैंक	-991
▁प्रौद्योगिक	-992
▁#	-993
्टी	-994
▁अन्त	-995
▁आदेश	-996
▁ली	-997
▁भाव	-998
ोष	-999
▁”	-1000
▁विध	-1001
▁इससे	-1002
▁समान	-1003
▁शी	-1004
▁परिण	-1005
▁कर्म	-1006
▁सौ	-1007
▁विन	-1008
▁माल	-1009
मित	-1010
पन	-1011
गू	-1012
▁डा	-1013
▁चार	-1014
▁आगे	-1015
▁डि	-1016
्ता	-1017
▁शु	-1018
▁लेख	-1019
▁करके	-1020
ठन	-1021
ंह	-1022
▁चि	-1023
▁श्र	-1024
▁प्रो	-1025
▁सार	-1026
▁a	-1027
▁आवश्यकता	-1028
▁गति	-1029
▁संस्थान	-1030
▁मार्	-1031
धीश	-1032
ूर्ति	-1033
साय	-1034
▁बल्	-1035
म्ब	-1036
धारा	-1037
▁देना	-1038
▁निर्धारित	-1039
▁समस्या	-1040
▁सभा	-1041
▁i	-1042
▁पर्या	-1043
▁तुम	-1044
▁वहां	-1045
▁इसी	-1046
▁इसमें	-1047
हास	-1048
▁प्रमुख	-1049
त्या	-1050
दिष्ट	-1051
▁क्षेत्रों	-1052
▁विस्त	-1053
▁सीमा	-1054
▁खंड	-1055
▁लागू	-1056
▁निम्	-1057
▁उल्	-1058
्यता	-1059
▁विश्वास	-1060
षि	-1061
▁गयी	-1062
ाइल	-1063
▁निर्णय	-1064
▁मज	-1065
▁स्वयं	-1066
▁उद्देश	-1067
▁नियंत्र	-1068
▁यू	-1069
▁ती	-1070
▁नीति	-1071
मता	-1072
▁रिप	-1073
ाजिक	-1074
▁जारी	-1075
म्प	-1076
▁पूरी	-1077
द्धि	-1078
ंख	-1079
▁आपके	-1080
▁ज़	-1081
▁सामाजिक	-1082
▁प्रकाश	-1083
▁मेरे	-1084
▁काफी	-1085
स्प	-1086
▁हाल	-1087
▁प्रस्त	-1088
▁प्रणाली	-1089
▁आस	-1090
िष्ट	-1091
भग	-1092
िश्च	-1093
▁प्रस्ता	-1094
▁परिणाम	-1095
▁स्वतंत्र	-1096
▁आध	-1097
विधा	-1098
ूरी	-1099
▁स्क	-1100
▁वी	-1101
दों	-1102
▁आया	-1103
टक	-1104
▁पूरा	-1105
ेन	-1106
्यादा	-1107
▁सुधार	-1108
ालन	-1109
▁अपे	-1110
▁दिखा	-1111
द्व	-1112
▁विभाग	-1113
▁गै	-1114
▁प्रबंध	-1115
जू	-1116
▁प्रौद्योगिकी	-1117
▁घर	-1118
तिहास	-1119
▁कवि	-1120
▁कर्	-1121
हत	-1122
▁समूह	-1123
▁गुण	-1124
वर	-1125
वेदन	-1126
पि	-1127
▁प्रस्ताव	-1128
▁विनि	-1129
शी	-1130
▁मी	-1131
विद्य	-1132
ंदर	-1133
▁स्थापित	-1134
▁गो	-1135
तियों	-1136
▁हिंद	-1137
ियन	-1138
▁माध्यम	-1139
▁व्यवस्था	-1140
▁ज्ञान	-1141
ियो	-1142
▁बैठ	-1143
▁मूल्य	-1144
मार	-1145
▁समुद	-1146
एँ	-1147
▁लगभग	-1148
▁स्वीकार	-1149
बद्ध	-1150
क्ष्य	-1151
▁न्यायाधीश	-1152
▁हाथ	-1153
चन	-1154
रित	-1155
▁कंपनी	-1156
▁मामलों	-1157
▁क्रिया	-1158
विद्यालय	-1159
शोध	-1160
ॉल	-1161
▁पुस्त	-1162
▁जैसा	-1163
▁वर्ग	-1164
▁कठ	-1165
▁आयोग	-1166
▁सदस्य	-1167
▁दक्ष	-1168
▁सम्म	-1169
▁आम	-1170
▁हूँ	-1171
▁सर्	-1172
न्म	-1173
ीक	-1174
▁मैंने	-1175
▁मृत्य	-1176
▁जानकारी	-1177
▁सूची	-1178
▁अवधि	-1179
▁निष्	-1180
▁ऋण	-1181
▁प्राधिक	-1182
▁बड़ी	-1183
▁सहयोग	-1184
▁रिपोर्ट	-1185
▁भवन	-1186
हित	-1187
लेख	-1188
▁सुरक्षा	-1189
▁!	-1190
▁अपरा	-1191
वाई	-1192
▁अत्य	-1193
▁टी	-1194
▁मद	-1195
इन	-1196
ेर	-1197
▁फै	-1198
▁श्रे	-1199
▁कौ	-1200
▁केंद्र	-1201
▁सुविधा	-1202
▁अम	-1203
▁दर्श	-1204
▁गण	-1205
्ले	-1206
▁कृषि	-1207
▁सफल	-1208
▁रंग	-1209
▁व्यापार	-1210
▁संविधान	-1211
▁किस	-1212
ान्त	-1213
▁देशों	-1214
▁बदल	-1215
▁समाप्त	-1216
पन्न	-1217
एस	-1218
▁अमे	-1219
▁स्थित	-1220
ेशन	-1221
▁जिन्ह	-1222
त्स	-1223
च्छेद	-1224
धारण	-1225
शील	-1226
▁धन	-1227
▁अभी	-1228
▁इसकी	-1229
▁विश्वविद्यालय	-1230
▁अधिकारी	-1231
▁डे	-1232
ित्य	-1233
▁शरी	-1234
▁जिससे	-1235
▁जिसका	-1236
▁कुल	-1237
▁संबंधी	-1238
▁समर्थ	-1239
▁विज्ञान	-1240
▁परिवर्तन	-1241
▁बाल	-1242
▁चिक	-1243
▁ठीक	-1244
▁अर	-1245
▁परी	-1246
स्तान	-1247
▁रखने	-1248
▁देते	-1249
▁कोश	-1250
▁तरी	-1251
वृ	-1252
तान	-1253
ोस	-1254
पना	-1255
र्भ	-1256
▁त्र	-1257
▁राम	-1258
ोषण	-1259
▁उत्पादन	-1260
▁रखा	-1261
▁छोड़	-1262
▁अंतर्गत	-1263
भार	-1264
ुग	-1265
▁विशिष्ट	-1266
▁प्रस्तुत	-1267
▁जाये	-1268
▁पिछ	-1269
▁महिला	-1270
▁<	-1271
▁बड़े	-1272
▁उपधारा	-1273
▁आन	-1274
विध	-1275
▁परिय	-1276
▁एन	-1277
▁जग	-1278
▁उद्देश्य	-1279
▁शै	-1280
▁अनुम	-1281
▁शा	-1282
▁ऊपर	-1283
▁अतिरिक	-1284
▁परियोजना	-1285
आई	-1286
टन	-1287
सित	-1288
यर	-1289
▁मंद	-1290
दारी	-1291
▁बल्कि	-1292
▁डी	-1293
▁निश्च	-1294
▁काल	-1295
▁संशोध	-1296
▁राशि	-1297
थम	-1298
िखित	-1299
सं	-1300
▁चाहते	-1301
▁अभि	-1302
▁मेरी	-1303
ंगा	-1304
▁शरीर	-1305
▁अंग्रे	-1306
▁साल	-1307
ण्	-1308
क़	-1309
राज	-1310
बार	-1311
ष्ण	-1312
हन	-1313
स्थ्य	-1314
ष्ट्रीय	-1315
हरा	-1316
ुओं	-1317
क्स	-1318
जों	-1319
वाल	-1320
▁आने	-1321
▁क्षमता	-1322
ेड	-1323
▁डाल	-1324
▁सही	-1325
▁बल	-1326
चान	-1327
▁चिकित	-1328
▁वर्त	-1329
ाव	-1330
ाया	-1331
▁जीव	-1332
पत्र	-1333
त्मा	-1334
िल्ली	-1335
▁सै	-1336
▁वेब	-1337
▁समिति	-1338
ीकरण	-1339
▁देखा	-1340
ंधान	-1341
▁अनुच्छेद	-1342
▁शिक	-1343
▁निर्देश	-1344
▁अतिरिक्त	-1345
▁पश्चिम	-1346
▁सामने	-1347
▁दृष्टि	-1348
ंधी	-1349
▁अप्र	-1350
▁चला	-1351
▁यहाँ	-1352
▁ज्यादा	-1353
▁प्रमाण	-1354
दम	-1355
▁रो	-1356
▁नीचे	-1357
▁मार्ग	-1358
ाहरण	-1359
▁युद्ध	-1360
▁पाठ	-1361
▁आरंभ	-1362
▁कहते	-1363
▁मार	-1364
▁स्वास्थ्य	-1365
्रो	-1366
कृतिक	-1367
▁उदाहरण	-1368
यों	-1369
बन्ध	-1370
▁अनुभव	-1371
▁बहु	-1372
▁अपराध	-1373
▁प्रश्न	-1374
▁लेने	-1375
▁यात्रा	-1376
▁वर्षों	-1377
▁जरूर	-1378
▁परिवार	-1379
▁परंतु	-1380
▁पं	-1381
▁प्रदेश	-1382
▁अनुसंधान	-1383
कल	-1384
▁प्रदर्श	-1385
▁प्रशिक्ष	-1386
▁मांग	-1387
▁वर्ण	-1388
▁साहित्य	-1389
▁वर्तमान	-1390
▁निवेश	-1391
जे	-1392
▁पानी	-1393
▁उत्पाद	-1394
गार	-1395
▁दक्षि	-1396
▁दिए	-1397
▁पढ़	-1398
▁छोटे	-1399
▁चौ	-1400
▁जमा	-1401
▁विवाह	-1402
कर्ता	-1403
▁विदेशी	-1404
िश्चित	-1405
▁राजनी	-1406
तिम	-1407
▁निर्धारण	-1408
▁संयुक्त	-1409
▁सच	-1410
▁बंग	-1411
▁उसी	-1412
▁करेगा	-1413
▁महान	-1414
लो	-1415
जरा	-1416
▁रचना	-1417
▁थीं	-1418
म्ह	-1419
▁उससे	-1420
्ते	-1421
ानों	-1422
▁व्यक्तियों	-1423
जर	-1424
▁कोर्इ	-1425
▁होंगे	-1426
▁भीतर	-1427
▁दंड	-1428
▁बच्चों	-1429
श्	-1430
▁बड़ा	-1431
जित	-1432
▁प्रती	-1433
▁परन्तु	-1434
▁पैदा	-1435
▁आधारित	-1436
▁तौर	-1437
▁रहने	-1438
भर	-1439
▁अपील	-1440
पुर	-1441
▁सिंह	-1442
▁संच	-1443
▁कला	-1444
▁एम	-1445
▁पीछ	-1446
▁हिस्	-1447
▁उच्चतम	-1448
ारण	-1449
▁उद्य	-1450
▁दिव	-1451
▁दुर्	-1452
▁सरकारी	-1453
▁चुन	-1454
▁प्रथम	-1455
▁भू	-1456
्रेस	-1457
er	-1458
▁संभव	-1459
ट्ट	-1460
▁प्रधान	-1461
▁तुम्ह	-1462
ेंट	-1463
▁अध्या	-1464
▁मृत्यु	-1465
ँच	-1466
▁सार्व	-1467
▁नही	-1468
कता	-1469
▁इतिहास	-1470
▁रहते	-1471
रल	-1472
▁खोज	-1473
▁नियंत्रण	-1474
▁भूमि	-1475
बल	-1476
▁लाख	-1477
▁यही	-1478
▁कॉ	-1479
▁मंदिर	-1480
▁अपेक्षा	-1481
ंश	-1482
्यास	-1483
▁A	-1484
डा	-1485
▁बस	-1486
▁वृद्धि	-1487
▁वाप	-1488
▁प्रारंभ	-1489
ेप	-1490
▁लगता	-1491
▁इस्ल	-1492
▁दूसरी	-1493
▁लड़	-1494
▁प्रेम	-1495
▁विकसित	-1496
▁विरोध	-1497
▁दिश	-1498
▁जन्म	-1499
र्जा	-1500
▁नए	-1501
यां	-1502
्ष्	-1503
श्छ	-1504
ष्य	-1505
पट	-1506
▁कमी	-1507
▁अंतिम	-1508
▁नागर	-1509
▁वित्तीय	-1510
▁अध्ययन	-1511
▁घटना	-1512
▁मदद	-1513
▁जांच	-1514
नाथ	-1515
▁कांग	-1516
▁आश	-1517
▁आद	-1518
▁ऊण्	-1519
श्छ्ष्	-1520
▁ऊण्श्छ्ष्	-1521
▁करेंगे	-1522
▁हिन्द	-1523
ग्री	-1524
▁गांधी	-1525
▁बाजार	-1526
▁प्रकृति	-1527
जूद	-1528
▁विस्तार	-1529
▁उत्पन्न	-1530
▁स्थापना	-1531
▁विंड	-1532
शल	-1533
▁संसा	-1534
र्जी	-1535
▁लेकर	-1536
▁दिल्ली	-1537
▁पुस्तक	-1538
▁प्रग	-1539
▁कैसे	-1540
▁पेश	-1541
▁किंतु	-1542
▁संभाव	-1543
▁भूमिका	-1544
▁मिला	-1545
ोजित	-1546
▁पुल	-1547
▁विवरण	-1548
▁सदस्यों	-1549
ार्ड	-1550
▁संदेश	-1551
▁ते	-1552
▁राज्यों	-1553
▁किये	-1554
वीं	-1555
रि	-1556
चल	-1557
▁पे	-1558
ात्	-1559
▁विधान	-1560
र्स	-1561
▁पुनः	-1562
▁बंद	-1563
▁हमने	-1564
ोर्ड	-1565
▁बरा	-1566
▁दाय	-1567
▁मात्रा	-1568
▁संद	-1569
▁अग्र	-1570
▁न्यू	-1571
▁रोक	-1572
भूत	-1573
▁भावना	-1574
▁स्वतंत्रता	-1575
क्षम	-1576
▁माना	-1577
▁एक्स	-1578
▁बच	-1579
▁आत्म	-1580
▁उल्लेख	-1581
▁आवेदन	-1582
स्थिति	-1583
▁संसद	-1584
▁वाय	-1585
▁नागरिक	-1586
▁हित	-1587
पूर्व	-1588
▁संत	-1589
▁नौ	-1590
▁प्रतिक	-1591
▁चे	-1592
कल्प	-1593
िले	-1594
▁पौ	-1595
▁विनिर्	-1596
▁शासन	-1597
र्च	-1598
मन	-1599
तार	-1600
▁चित्र	-1601
ुस	-1602
र्द	-1603
▁बाहरी	-1604
▁तंत्र	-1605
▁गिर	-1606
साइट	-1607
▁तकनी	-1608
▁कानून	-1609
▁बनाया	-1610
▁भेज	-1611
▁दिशा	-1612
ल्क	-1613
▁सहित	-1614
िना	-1615
डियो	-1616
लाह	-1617
▁भिन्न	-1618
▁आत	-1619
▁भुग	-1620
▁अध्यक्ष	-1621
▁संगठन	-1622
▁अच्छा	-1623
र्य	-1624
▁सुनिश्चित	-1625
▁अच्छी	-1626
▁उचित	-1627
▁सिद्धांत	-1628
षित	-1629
▁ताकि	-1630
▁पृष्ठ	-1631
▁नव	-1632
▁ब्रिट	-1633
▁प्रगति	-1634
▁बनाए	-1635
▁बो	-1636
▁चिकित्	-1637
▁पिता	-1638
▁बढ़ा	-1639
▁जाय	-1640
▁केन्द्र	-1641
माल	-1642
▁भुगतान	-1643
▁धी	-1644
▁राय	-1645
▁गल	-1646
▁अर्था	-1647
्रम	-1648
▁प्रशिक्षण	-1649
नाव	-1650
स्क	-1651
ुनिक	-1652
रिका	-1653
▁विप	-1654
▁सोच	-1655
▁खेल	-1656
▁राजा	-1657
▁जबकि	-1658
▁रहता	-1659
आर	-1660
▁दक्षिण	-1661
त्त्व	-1662
▁दुनिया	-1663
▁जाएगी	-1664
▁जोड़	-1665
▁सत्ता	-1666
▁मंत्रालय	-1667
▁स्थानीय	-1668
मय	-1669
ूं	-1670
▁अला	-1671
▁बीमा	-1672
▁खुल	-1673
▁विरुद्ध	-1674
▁बिल	-1675
ंसा	-1676
▁उसमें	-1677
▁टे	-1678
▁कित	-1679
्रिय	-1680
भू	-1681
▁कांग्रेस	-1682
▁वास्तविक	-1683
▁होकर	-1684
▁मुसल	-1685
▁पहचान	-1686
ज्ञानिक	-1687
▁तहत	-1688
▁अह	-1689
लू	-1690
र्फ	-1691
▁अमेरिका	-1692
ैतिक	-1693
▁लक्ष्य	-1694
▁निर्दिष्ट	-1695
▁जगह	-1696
▁तुल	-1697
▁संशोधन	-1698
▁व्यापक	-1699
कु	-1700
ैंड	-1701
गल	-1702
वरी	-1703
▁देव	-1704
▁इंड	-1705
▁उनमें	-1706
▁बराबर	-1707
तक	-1708
ेंस	-1709
▁मुसलमान	-1710
▁पत्	-1711
▁पीछे	-1712
▁सत	-1713
▁सेना	-1714
▁प्रभावित	-1715
जनिक	-1716
ंथ	-1717
▁श्रेणी	-1718
▁मनुष	-1719
ियाँ	-1720
▁बच्चे	-1721
कम	-1722
▁बेह	-1723
▁निदेश	-1724
▁आकार	-1725
▁वेबसाइट	-1726
▁पर्याप्त	-1727
ुप	-1728
▁व्यवहार	-1729
▁प्रबंधन	-1730
▁चा	-1731
र्ण	-1732
▁मिश	-1733
्प	-1734
▁सार्वजनिक	-1735
▁दिनों	-1736
▁आधुनिक	-1737
नलिखित	-1738
▁अफ	-1739
र्चा	-1740
▁क्ल	-1741
▁लगे	-1742
ज्	-1743
▁मो	-1744
▁सन्	-1745
फार	-1746
▁पश्चात्	-1747
श्वर	-1748
▁प्रतिनि	-1749
▁चाहिये	-1750
▁परिष	-1751
दय	-1752
▁निम्नलिखित	-1753
▁आतंक	-1754
▁जरूरत	-1755
▁पूंजी	-1756
▁उपकरण	-1757
▁पिछले	-1758
डर	-1759
हरी	-1760
क्रमण	-1761
▁पुलिस	-1762
▁प्राय	-1763
▁रू	-1764
▁मि	-1765
ौती	-1766
▁प्रवेश	-1767
ड़ों	-1768
▁भवि	-1769
▁याद	-1770
बू	-1771
वस्था	-1772
▁केंद्रीय	-1773
▁पहली	-1774
भीर	-1775
▁यथा	-1776
▁स्कूल	-1777
्ला	-1778
ीप	-1779
▁निकाल	-1780
ायत	-1781
▁रोज	-1782
▁सत्य	-1783
वासी	-1784
▁गैर	-1785
▁गां	-1786
on	-1787
▁भविष्य	-1788
▁लंब	-1789
▁निर्या	-1790
▁कहीं	-1791
ंडल	-1792
▁गुर	-1793
▁शब्दों	-1794
▁छा	-1795
▁इस्ते	-1796
▁सक्रिय	-1797
▁सम्मान	-1798
स्ल	-1799
फारिश	-1800
धिकार	-1801
त्साह	-1802
▁अलावा	-1803
▁शर्	-1804
ामीण	-1805
वधान	-1806
▁निश्चित	-1807
धे	-1808
▁वार	-1809
▁खरी	-1810
▁पद्ध	-1811
िको	-1812
▁मित्र	-1813
▁प्रकट	-1814
▁कप	-1815
▁तथ	-1816
▁शाय	-1817
्यूटर	-1818
▁ग्रामीण	-1819
▁ऊर्जा	-1820
▁चाहे	-1821
▁सिफारिश	-1822
▁आयु	-1823
▁निकल	-1824
▁अनुमति	-1825
डे	-1826
रोध	-1827
▁लौ	-1828
▁औद्योगिक	-1829
िवार	-1830
▁अभिय	-1831
द्रा	-1832
▁]	-1833
▁उपाय	-1834
▁दिख	-1835
र्ग	-1836
च्छा	-1837
▁कट	-1838
▁सर्वो	-1839
▁ढंग	-1840
▁लिखा	-1841
▁समर्थन	-1842
▁[	-1843
ानि	-1844
स्कार	-1845
मंत्र	-1846
▁नदी	-1847
ंबर	-1848
▁पांच	-1849
▁मर	-1850
▁पुरुष	-1851
▁विवाद	-1852
▁इस्लाम	-1853
्वी	-1854
▁दल	-1855
स्ति	-1856
▁सां	-1857
▁बोर्ड	-1858
म्भ	-1859
▁जिन्हें	-1860
न्व	-1861
ंकन	-1862
वर्ती	-1863
बे	-1864
▁केन्द	-1865
▁शायद	-1866
▁लेखा	-1867
▁संदर्भ	-1868
▁दस्ता	-1869
▁देती	-1870
▁इस्तेमाल	-1871
▁राजनीतिक	-1872
▁समाधान	-1873
▁तारी	-1874
▁भग	-1875
▁फल	-1876
▁चै	-1877
्राम	-1878
▁उत्स	-1879
▁मिले	-1880
▁योग्य	-1881
▁पृथ	-1882
▁पदार्थ	-1883
ांति	-1884
▁प्रद	-1885
▁वैज्ञानिक	-1886
फा	-1887
▁पाया	-1888
▁संके	-1889
ुआ	-1890
▁जिनमें	-1891
▁सम्बन्ध	-1892
▁S	-1893
▁करा	-1894
▁रि	-1895
▁कार्यालय	-1896
▁मश	-1897
▁वो	-1898
्वेष	-1899
▁इतना	-1900
वों	-1901
▁बर	-1902
णिज	-1903
शु	-1904
▁नेट	-1905
▁गं	-1906
▁संरचना	-1907
▁फाइल	-1908
कुल	-1909
▁निर्वा	-1910
सिक	-1911
▁मुखर्जी	-1912
ंगे	-1913
▁मही	-1914
एम	-1915
▁करोड़	-1916
ेशा	-1917
▁रज	-1918
▁दिल	-1919
▁ट्र	-1920
▁संग्रह	-1921
णिज्य	-1922
ोलन	-1923
▁मेरा	-1924
▁गी	-1925
▁पूछ	-1926
▁निर्यात	-1927
▁न्यायालयों	-1928
▁यूर	-1929
▁भौ	-1930
▁दृष्ट	-1931
▁सामग्री	-1932
▁चिकित्सा	-1933
▁न्यायिक	-1934
▁जैसी	-1935
▁उठा	-1936
▁प्रोत्साह	-1937
▁हमारा	-1938
▁चाहता	-1939
सन	-1940
न्दी	-1941
▁पूरे	-1942
दित	-1943
▁तारीख	-1944
▁मनुष्य	-1945
▁बढ	-1946
▁बंगाल	-1947
▁मुक्त	-1948
▁बज	-1949
▁सहायक	-1950
▁उद्यम	-1951
▁सक्षम	-1952
▁संरक्षण	-1953
▁विभा	-1954
▁वापस	-1955
▁निजी	-1956
▁यद्य	-1957
म्बर	-1958
▁सृ	-1959
मू	-1960
▁संय	-1961
▁रक्षा	-1962
▁दश	-1963
▁नया	-1964
▁प्रकाशित	-1965
▁बनाम	-1966
▁खो	-1967
▁दस्तावे	-1968
▁वाणिज्य	-1969
▁यद्यपि	-1970
▁साधारण	-1971
▁रक्त	-1972
▁मॉ	-1973
▁पुरस्कार	-1974
▁बने	-1975
▁तत्व	-1976
ंतर	-1977
चर	-1978
बाद	-1979
▁सफलता	-1980
सि	-1981
▁इनमें	-1982
यल	-1983
▁जे	-1984
ग्	-1985
वाही	-1986
▁दें	-1987
▁सलाह	-1988
क्षर	-1989
▁अभिव	-1990
▁बुद्ध	-1991
थमिक	-1992
सम	-1993
पात	-1994
▁हे	-1995
▁रखना	-1996
▁अवस्था	-1997
▁समक्ष	-1998
▁कम्प	-1999
▁मास	-2000
▁उत	-2001
▁हमेशा	-2002
ृह	-2003
▁दशा	-2004
▁पालन	-2005
▁चर्चा	-2006
▁शीर्ष	-2007
▁जाति	-2008
▁सिर्फ	-2009
खी	-2010
▁अधिकां	-2011
▁लि	-2012
▁युवा	-2013
▁रकम	-2014
▁प्राथमिक	-2015
कीय	-2016
▁रखते	-2017
▁समझौ	-2018
▁एल	-2019
▁ऑफ	-2020
▁शांति	-2021
ar	-2022
▁आत्मा	-2023
▁सेवाओं	-2024
िल्म	-2025
▁फी	-2026
ोक्ता	-2027
चीन	-2028
▁सकेगा	-2029
तया	-2030
▁मंत्री	-2031
▁शक्त	-2032
▁देखने	-2033
▁मुद्रा	-2034
▁स्म	-2035
▁डॉ	-2036
घु	-2037
▁वन	-2038
▁ईश्वर	-2039
शिया	-2040
▁लागत	-2041
▁विल	-2042
टे	-2043
ड़क	-2044
▁केन्द्रीय	-2045
▁समुदाय	-2046
▁शेय	-2047
राष्ट्रीय	-2048
at	-2049
▁सुझ	-2050
ठित	-2051
▁रिक	-2052
▁लाल	-2053
▁चुका	-2054
इस	-2055
▁संपत्ति	-2056
▁री	-2057
▁बताया	-2058
▁धीरे	-2059
▁तीस	-2060
▁रेल	-2061
मक	-2062
सू	-2063
▁चाल	-2064
विल	-2065
▁गंभीर	-2066
ैल	-2067
▁योगदान	-2068
▁जिसकी	-2069
▁दू	-2070
पूर्वक	-2071
▁अधिकांश	-2072
▁जम	-2073
▁शहर	-2074
▁किन्तु	-2075
▁छोटी	-2076
▁पर्य	-2077
▁कदम	-2078
र्ट	-2079
िकोण	-2080
▁अद	-2081
en	-2082
▁बेहतर	-2083
▁संभावना	-2084
▁सप	-2085
▁पंच	-2086
▁कानू	-2087
▁सेट	-2088
ाये	-2089
फ्ट	-2090
▁परीक्षा	-2091
▁मुद्	-2092
▁दिखाई	-2093
▁सम्मिल	-2094
▁क्रम	-2095
ार्मिक	-2096
▁तत्	-2097
▁दूसरा	-2098
ल्ल	-2099
▁पद्धति	-2100
त्री	-2101
▁निर्भर	-2102
▁धार	-2103
▁नेटवर्	-2104
▁धार्मिक	-2105
▁थो	-2106
▁दोष	-2107
▁कोशिश	-2108
▁आंद	-2109
▁वहाँ	-2110
▁भे	-2111
▁वही	-2112
▁चयन	-2113
▁क़	-2114
▁तुलना	-2115
ंटर	-2116
▁ऊंच	-2117
कान	-2118
▁पो	-2119
▁सीमित	-2120
▁बोल	-2121
्टर	-2122
▁पर्यावरण	-2123
in	-2124
▁जिला	-2125
▁यूरोप	-2126
वर्ष	-2127
मंत्री	-2128
▁प्रशासन	-2129
▁तरीके	-2130
क्टर	-2131
न्दर	-2132
ल्पना	-2133
ुन	-2134
▁प्रणब	-2135
▁हृ	-2136
भूति	-2137
हीन	-2138
▁कविता	-2139
▁प्रभावी	-2140
टल	-2141
ंद्र	-2142
क्षेप	-2143
संद	-2144
▁संकल्प	-2145
▁ब्रिटिश	-2146
▁खर्च	-2147
▁महारा	-2148
▁संपर्क	-2149
▁सारे	-2150
ृति	-2151
▁चर	-2152
▁मशीन	-2153
▁शिकायत	-2154
ंगी	-2155
▁व्यवसाय	-2156
कद	-2157
▁रहती	-2158
द्द	-2159
▁अनिवार	-2160
▁ति	-2161
ोषणा	-2162
▁निधि	-2163
▁इका	-2164
▁ढा	-2165
▁हिन्दी	-2166
पे	-2167
▁उनसे	-2168
▁उपचार	-2169
▁जित	-2170
वत्ता	-2171
▁डेटा	-2172
▁अंग्रेजी	-2173
▁कंप्यूटर	-2174
▁ख़	-2175
▁प्रवृ	-2176
तु	-2177
▁संगी	-2178
▁आता	-2179
▁वायु	-2180
▁मजब	-2181
▁प्राकृतिक	-2182
▁निम्न	-2183
▁सूर	-2184
▁संस्कृति	-2185
▁विद्यार्थ	-2186
an	-2187
▁कार्र	-2188
्यो	-2189
वेद	-2190
नेट	-2191
▁कथ	-2192
▁तेल	-2193
▁पक	-2194
▁ग्रह	-2195
▁विधेय	-2196
▁गुणवत्ता	-2197
▁सम्मिलित	-2198
▁जहाँ	-2199
▁सकें	-2200
▁विशाल	-2201
क्ष्म	-2202
▁आशा	-2203
▁देखते	-2204
▁युग	-2205
ारोह	-2206
▁स्रो	-2207
▁लघु	-2208
भाल	-2209
▁परिस्थित	-2210
▁अस्त	-2211
र्ज	-2212
र्ड	-2213
▁मोट	-2214
▁असम	-2215
▁C	-2216
▁मिट	-2217
▁दस	-2218
▁अंक	-2219
ायी	-2220
▁अधिकारियों	-2221
ेलन	-2222
घा	-2223
▁अनिवार्य	-2224
पक	-2225
▁आए	-2226
स्वरूप	-2227
ापन	-2228
▁खाद्य	-2229
▁आपकी	-2230
▁संह	-2231
▁विचारों	-2232
ियर	-2233
▁खुलती	-2234
ंगत	-2235
▁रजिस्ट	-2236
▁हिस्सा	-2237
▁ब्या	-2238
ताल	-2239
न्स	-2240
▁उपभ	-2241
लाई	-2242
धनों	-2243
▁पड़ा	-2244
▁अध्याय	-2245
चक	-2246
▁व्यक्तिगत	-2247
▁d	-2248
▁संस्कृत	-2249
▁मिलता	-2250
▁त्रुट	-2251
राज्य	-2252
▁खिला	-2253
▁विंडों	-2254
चि	-2255
रीय	-2256
वेयर	-2257
स्लिम	-2258
त्तर	-2259
▁करनी	-2260
▁आकर्	-2261
▁भोजन	-2262
▁अत्यंत	-2263
▁नगर	-2264
▁हैः	-2265
▁समझा	-2266
▁शता	-2267
▁समारोह	-2268
▁नेटवर्क	-2269
▁प्रयोजन	-2270
वै	-2271
कारों	-2272
▁इला	-2273
▁लेना	-2274
▁अतः	-2275
▁दिवस	-2276
▁संहिता	-2277
▁मुस्लिम	-2278
▁निकट	-2279
▁दायित्व	-2280
▁पाल	-2281
▁बधा	-2282
▁निर्धारिती	-2283
▁महत्त्व	-2284
टों	-2285
▁उपयुक्त	-2286
ैन	-2287
चारी	-2288
▁संघर्ष	-2289
तित	-2290
िकी	-2291
ारों	-2292
▁भागी	-2293
▁जिनके	-2294
▁विकल्प	-2295
▁बचा	-2296
▁बधाई	-2297
▁c	-2298
▁नेता	-2299
▁शास्त	-2300
म्मे	-2301
▁इजरा	-2302
▁अनुसू	-2303
पु	-2304
▁शाखा	-2305
▁भंड	-2306
▁दृष्टिकोण	-2307
▁आंदोलन	-2308
खंड	-2309
▁प्राचीन	-2310
दृ	-2311
▁उपबंधों	-2312
▁भारी	-2313
▁एज	-2314
ार्क	-2315
▁विद्व	-2316
ूँ	-2317
▁नियमों	-2318
▁प्ल	-2319
▁खास	-2320
फ्त	-2321
▁नर	-2322
डिया	-2323
▁संगीत	-2324
▁बौ	-2325
▁जल्	-2326
▁अभिव्य	-2327
ान्व	-2328
▁गरी	-2329
▁I	-2330
▁खरीद	-2331
▁शुल्क	-2332
ंति	-2333
▁आदर्श	-2334
▁पहल	-2335
▁पर्व	-2336
किंग	-2337
▁खोल	-2338
▁सिविल	-2339
▁निगम	-2340
▁पंजी	-2341
▁संस्थानों	-2342
क्षी	-2343
ोग्राम	-2344
घ्र	-2345
▁हजार	-2346
▁नये	-2347
▁आरोप	-2348
▁वर्णन	-2349
▁लॉ	-2350
▁तथापि	-2351
▁घट	-2352
▁पाने	-2353
▁आयोजित	-2354
वाब	-2355
▁आते	-2356
▁ईसा	-2357
▁पंजा	-2358
▁घोषणा	-2359
▁अर्थव्य	-2360
▁_	-2361
▁विनिर्दिष्ट	-2362
कालीन	-2363
▁अस्प	-2364
▁फ़ाइल	-2365
▁हिन्दू	-2366
त्न	-2367
▁अधिव	-2368
▁–	-2369
▁जोर	-2370
बत	-2371
▁कार्यवाही	-2372
▁विविध	-2373
▁जानी	-2374
▁चीज	-2375
▁ii	-2376
▁अर्थात्	-2377
▁पराम	-2378
▁नोट	-2379
ब्दी	-2380
▁संसाधन	-2381
▁हस्ता	-2382
▁कार्यों	-2383
▁सुझाव	-2384
▁पड़े	-2385
इयों	-2386
▁जानते	-2387
्वेषण	-2388
ोम	-2389
▁खाते	-2390
▁क्षति	-2391
▁जिसने	-2392
▁कार्रवाई	-2393
ोजनों	-2394
▁विधेयक	-2395
▁परिस	-2396
▁जरूरी	-2397
▁सुरक्षित	-2398
▁व्यय	-2399
ड्ड	-2400
ंपरा	-2401
▁अंदर	-2402
▁ध्व	-2403
▁खुद	-2404
▁स्वरूप	-2405
▁लेते	-2406
▁अंतरराष्ट्रीय	-2407
▁अच्छे	-2408
▁प्रशास	-2409
▁प्रसन्न	-2410
मीर	-2411
▁बनाना	-2412
▁अंश	-2413
▁हटा	-2414
▁कठिन	-2415
▁उपन	-2416
▁पारित	-2417
▁ग्राह	-2418
▁चुनाव	-2419
▁निपट	-2420
िरा	-2421
▁अधि	-2422
भाषा	-2423
▁प्रदर्शन	-2424
जनक	-2425
इल	-2426
▁व्याव	-2427
▁गतिविध	-2428
शाली	-2429
ंबई	-2430
or	-2431
▁अक	-2432
▁कहना	-2433
▁पड़ता	-2434
▁संकेत	-2435
▁शास	-2436
▁इच्छा	-2437
▁अना	-2438
▁मात्र	-2439
▁सदन	-2440
ोषित	-2441
▁ब्याज	-2442
▁परंपरा	-2443
त्रों	-2444
▁प्राण	-2445
ंदा	-2446
▁खत	-2447
▁समृ	-2448
▁परामर्श	-2449
न्ट	-2450
▁आदमी	-2451
▁कोशिका	-2452
▁आग	-2453
▁तम	-2454
क्षक	-2455
▁भगवान	-2456
धीन	-2457
▁त्व	-2458
▁अधिकारों	-2459
्रिया	-2460
▁राजन	-2461
▁कृप	-2462
पालिका	-2463
वाय	-2464
▁नियुक्त	-2465
गु	-2466
▁अर्थव्यवस्था	-2467
▁मिली	-2468
es	-2469
▁इन्ह	-2470
▁एशिया	-2471
रो	-2472
▁पेट	-2473
▁बर्	-2474
▁गर्इ	-2475
▁विनियम	-2476
▁आतंकवाद	-2477
▁होनी	-2478
▁अभिप	-2479
▁तकनीकी	-2480
▁उपस्थित	-2481
▁सिर	-2482
▁ग्राम	-2483
▁गलत	-2484
पादन	-2485
▁माता	-2486
▁हृदय	-2487
▁छोटा	-2488
▁तर्क	-2489
▁तट	-2490
▁सम्मेलन	-2491
एल	-2492
३०	-2493
▁संपूर्ण	-2494
▁कौन	-2495
▁लगाया	-2496
न्हीं	-2497
▁उल्ल	-2498
▁सम्प	-2499
▁P	-2500
व्र	-2501
▁प्रत्यक्ष	-2502
ख़	-2503
कला	-2504
▁नाटक	-2505
▁इंग	-2506
▁जिम्मे	-2507
▁टै	-2508
▁कहानी	-2509
स्पर	-2510
काम	-2511
▁शुभ	-2512
▁मौजूद	-2513
एफ	-2514
▁प्रसि	-2515
िक्	-2516
▁पहला	-2517
▁लगी	-2518
▁वाणिज्यिक	-2519
▁पश्चिमी	-2520
▁सश	-2521
▁तेजी	-2522
▁शेष	-2523
▁अप्रैल	-2524
▁बाव	-2525
वहन	-2526
▁एच	-2527
▁मार्च	-2528
म्र	-2529
ून्य	-2530
▁स्थायी	-2531
िनी	-2532
▁भाई	-2533
▁कर्मचार	-2534
मेंट	-2535
▁फिल	-2536
▁वाता	-2537
▁विद्यमान	-2538
▁तरफ	-2539
▁महिलाओं	-2540
िन्	-2541
▁परीक्षण	-2542
मारी	-2543
▁दर्शन	-2544
▁सका	-2545
ल्ड	-2546
▁महस	-2547
▁p	-2548
▁वार्ष	-2549
ग्न	-2550
▁प्रयोजनों	-2551
▁त्रुटि	-2552
▁शीघ्र	-2553
ठी	-2554
▁खाता	-2555
तें	-2556
▁बनी	-2557
▁पार्टी	-2558
▁प्रवर्	-2559
▁कार्यान्व	-2560
स्य	-2561
▁गर्	-2562
▁f	-2563
्राष्ट्रीय	-2564
▁रहना	-2565
भाष	-2566
▁अरब	-2567
▁हास	-2568
▁अश	-2569
क्ता	-2570
▁सरल	-2571
ुसार	-2572
ल्स	-2573
लाव	-2574
▁सात	-2575
▁पाकि	-2576
▁चुके	-2577
▁दौ	-2578
▁अवि	-2579
▁t	-2580
▁अनुज्ञ	-2581
▁कृपया	-2582
▁मल	-2583
▁क्रा	-2584
▁परिषद	-2585
▁वाद	-2586
▁हस्त	-2587
▁मोह	-2588
▁मूल्या	-2589
▁आपका	-2590
▁मानसिक	-2591
▁परिच	-2592
▁सित	-2593
▁शताब्दी	-2594
ितीय	-2595
▁समु	-2596
▁पुनर्	-2597
▁आंक	-2598
▁हट	-2599
▁विज	-2600
▁गुना	-2601
▁मजबूत	-2602
▁महसूस	-2603
▁अनुक	-2604
जली	-2605
▁उन्न	-2606
▁विस्तृत	-2607
▁वातावरण	-2608
ठा	-2609
▁लाने	-2610
ष्क	-2611
सभा	-2612
▁अन्तर्	-2613
▁समाचार	-2614
▁कर्मचारियों	-2615
्ति	-2616
▁तय	-2617
िक्री	-2618
▁इजरायल	-2619
▁दबा	-2620
▁समुद्र	-2621
▁अंड	-2622
▁बैठक	-2623
▁द्वार	-2624
▁वस्तुओं	-2625
▁सांस्	-2626
▁इंटर	-2627
▁दि	-2628
▁अभिक	-2629
ज्य	-2630
▁बंध	-2631
▁संदे	-2632
▁रखे	-2633
▁गांव	-2634
▁प्रतिनिध	-2635
ायक	-2636
▁अनुप्र	-2637
इड	-2638
▁रोजगार	-2639
▁जिन्होंने	-2640
▁एफ	-2641
▁अत्यधिक	-2642
▁अल्प	-2643
▁प्राप्ति	-2644
▁ढांच	-2645
▁बौद्ध	-2646
▁वेतन	-2647
▁परिस्थितियों	-2648
▁चरण	-2649
▁काव्य	-2650
▁निर्मित	-2651
▁T	-2652
▁ग्रहण	-2653
▁कल्पना	-2654
▁पहा	-2655
▁प्रतिष्ठ	-2656
▁नियमित	-2657
रिया	-2658
▁शून्य	-2659
▁दिये	-2660
▁घंट	-2661
▁जवाब	-2662
▁भौतिक	-2663
▁कथा	-2664
▁अगले	-2665
▁मिलने	-2666
कृष्ट	-2667
▁सूक्ष्म	-2668
स्म	-2669
▁संचार	-2670
▁विश्ले	-2671
▁तथ्य	-2672
▁इत्या	-2673
▁उपन्यास	-2674
ृत्व	-2675
▁पट	-2676
▁असफल	-2677
▁कानूनी	-2678
▁प्रधानमंत्री	-2679
लब	-2680
▁किन	-2681
▁अनुमान	-2682
बि	-2683
▁भ्र	-2684
▁कर्त	-2685
स्ती	-2686
▁समस्याओं	-2687
▁सिस्ट	-2688
▁सामना	-2689
ष्ट्र	-2690
▁खे	-2691
▁वर	-2692
▁इतनी	-2693
▁भाषण	-2694
ार्म	-2695
▁जंग	-2696
▁रात	-2697
▁स्रोत	-2698
▁आती	-2699
▁विमान	-2700
al	-2701
▁कल्या	-2702
ंघ	-2703
▁हल	-2704
म्मी	-2705
▁महाम	-2706
ंव	-2707
▁शुद्ध	-2708
▁w	-2709
▁सच्च	-2710
▁पत्नी	-2711
िटी	-2712
▁इंज	-2713
िर्	-2714
▁आयुक्त	-2715
▁द्र	-2716
▁कराने	-2717
▁आवा	-2718
▁बढ़ाने	-2719
▁सांस्कृतिक	-2720
▁B	-2721
▁नवान	-2722
्रेड	-2723
्वा	-2724
▁निर्वाचन	-2725
ांकि	-2726
ोरी	-2727
▁आंत	-2728
टिल	-2729
▁मान्यता	-2730
▁हालांकि	-2731
▁क्षेत्रीय	-2732
ूक	-2733
it	-2734
▁वाह	-2735
▁दावा	-2736
▁प्रयासों	-2737
▁सॉ	-2738
▁शेयर	-2739
▁अनुवाद	-2740
▁निरंतर	-2741
00	-2742
▁तुर	-2743
तृत्व	-2744
नाएं	-2745
▁साम्रा	-2746
▁ब्रह	-2747
ंका	-2748
▁मंज	-2749
हरे	-2750
्याग	-2751
▁अधिकरण	-2752
▁सीख	-2753
दिक	-2754
रान	-2755
शाला	-2756
▁कीमत	-2757
▁लेखक	-2758
▁प्राधिकरण	-2759
▁आये	-2760
▁बावजूद	-2761
मल	-2762
▁मध	-2763
▁नामक	-2764
▁युक्त	-2765
लिक	-2766
▁उल	-2767
▁सफ	-2768
शय	-2769
सों	-2770
▁मुसलमानों	-2771
▁विवे	-2772
▁अदाल	-2773
▁रेखा	-2774
▁वैश्व	-2775
▁हिंदू	-2776
धर	-2777
▁मामला	-2778
▁टिप	-2779
णु	-2780
▁आँ	-2781
▁प्रभार	-2782
▁गणराज्य	-2783
▁शि	-2784
▁इनके	-2785
▁दृश्य	-2786
▁पेज	-2787
थि	-2788
▁लक्षण	-2789
्वर	-2790
वाले	-2791
▁सर्वा	-2792
वक	-2793
▁अभिया	-2794
ालित	-2795
▁कार्	-2796
▁इंडिया	-2797
▁प्रायः	-2798
▁पाकिस्तान	-2799
गो	-2800
▁सुना	-2801
▁निकाय	-2802
▁वार्षिक	-2803
▁प्रसिद्ध	-2804
▁सुंदर	-2805
▁टन	-2806
▁कर्मचारी	-2807
▁महीने	-2808
किल	-2809
▁कल्याण	-2810
▁हिंदी	-2811
▁प्रतिक्रिया	-2812
ज़ी	-2813
▁अधिकारिता	-2814
▁प्रजा	-2815
▁अधिकतम	-2816
▁अनुकूल	-2817
▁e	-2818
प्रिय	-2819
यान	-2820
▁संस्थाओं	-2821
▁रुपये	-2822
▁सारी	-2823
▁करार	-2824
▁गठन	-2825
▁इत्यादि	-2826
▁पसंद	-2827
▁सीधे	-2828
▁शैली	-2829
▁जिनका	-2830
▁बिजली	-2831
▁माह	-2832
▁सचिव	-2833
डल	-2834
▁गहरा	-2835
र्घ	-2836
▁तुम्हें	-2837
▁उत्तरदाय	-2838
ज़ा	-2839
वेक्षण	-2840
▁स्वामी	-2841
▁हानि	-2842
▁अफ्री	-2843
ेतना	-2844
लि	-2845
▁गृह	-2846
▁पाए	-2847
▁अभिन	-2848
▁प्रोग्राम	-2849
▁विद्युत	-2850
re	-2851
ियत	-2852
्रण	-2853
दूर	-2854
▁लगाने	-2855
▁लौट	-2856
ंबा	-2857
▁साफ	-2858
वें	-2859
▁मूल्यांकन	-2860
▁मिलती	-2861
ंता	-2862
▁अंतरण	-2863
▁उम्मी	-2864
विक	-2865
▁समर्	-2866
सत	-2867
▁मेल	-2868
▁समी	-2869
▁आक्रमण	-2870
▁प्रावधान	-2871
▁जल्दी	-2872
▁याच	-2873
संगत	-2874
▁सिस्टम	-2875
▁तभी	-2876
▁परम	-2877
क्ट्र	-2878
▁प्रचार	-2879
वत	-2880
▁शुभकाम	-2881
▁किरा	-2882
मति	-2883
लाइन	-2884
्ताह	-2885
▁आपने	-2886
▁पुराने	-2887
राब	-2888
त्मिक	-2889
▁अमरी	-2890
▁पत्त	-2891
▁कारबार	-2892
▁उक्त	-2893
▁E	-2894
▁लो	-2895
▁प्रवि	-2896
उट	-2897
सान	-2898
▁करी	-2899
▁अस्तित्व	-2900
▁डाक	-2901
▁स्थल	-2902
▁समस्त	-2903
▁रुपए	-2904
▁सवाल	-2905
▁मुकद	-2906
▁संब	-2907
दीय	-2908
▁नक	-2909
▁सभ	-2910
कर्ष	-2911
रीक्षण	-2912
▁आनंद	-2913
▁प्रयुक्त	-2914
ंटी	-2915
श्मीर	-2916
▁श्व	-2917
▁देखभाल	-2918
▁विषयों	-2919
ुक्ति	-2920
▁समन्व	-2921
▁लोकतंत्र	-2922
▁वज	-2923
▁फूल	-2924
▁न्यायाधीशों	-2925
्रय	-2926
ारात्मक	-2927
▁पाठ्य	-2928
▁घरे	-2929
▁आध्या	-2930
▁जनवरी	-2931
क्षेत्र	-2932
न्ध	-2933
▁जनसं	-2934
▁बुद्धि	-2935
▁मानते	-2936
▁मनो	-2937
▁साधन	-2938
▁दै	-2939
▁पथ	-2940
▁स्थानों	-2941
▁अनुमो	-2942
▁गुजरा	-2943
मद	-2944
भूम	-2945
▁भागों	-2946
▁राजनैतिक	-2947
▁मू	-2948
▁पात्र	-2949
▁साझ	-2950
▁चले	-2951
नु	-2952
▁आयात	-2953
▁इन्हें	-2954
▁जायेगा	-2955
▁महत्त्वपूर्ण	-2956
▁आजा	-2957
मात्र	-2958
▁बढ़ावा	-2959
ोने	-2960
्याय	-2961
▁शारी	-2962
▁कुंजी	-2963
▁फिल्म	-2964
दर	-2965
▁g	-2966
▁शिश	-2967
▁न्यून	-2968
रेट	-2969
▁o	-2970
▁कटौती	-2971
▁तीव्र	-2972
▁प्रेरित	-2973
▁साक्ष्य	-2974
▁रखी	-2975
▁संगण	-2976
▁उम्मीद	-2977
▁नजर	-2978
▁नेतृत्व	-2979
▁कलक	-2980
▁टिप्प	-2981
▁गतिविधियों	-2982
▁घा	-2983
▁पंजाब	-2984
▁बातों	-2985
▁वितरण	-2986
लेज	-2987
▁विशेषज्ञ	-2988
▁उड़	-2989
▁बिक्री	-2990
▁जोख	-2991
▁एका	-2992
▁रोगी	-2993
र्न	-2994
▁प्राधिकारी	-2995
▁विद्यार्थियों	-2996
▁चेतना	-2997
▁अमेरिक	-2998
रक	-2999
ृंख	-3000
▁फसल	-3001
▁कठिना	-3002
सीय	-3003
▁जून	-3004
▁संगठ	-3005
▁घरेलू	-3006
▁चलता	-3007
▁बैंकों	-3008
▁उपा	-3009
▁मौसम	-3010
▁अख	-3011
▁नेहर	-3012
▁ग्रंथ	-3013
▁शुभकामनाएं	-3014
▁कंपन	-3015
न्य	-3016
▁प्रदर्शित	-3017
लीय	-3018
▁शिव	-3019
तिहासिक	-3020
ड़ित	-3021
▁बनाई	-3022
▁पुत्र	-3023
▁नैतिक	-3024
ैक	-3025
▁स्वागत	-3026
िकल	-3027
▁G	-3028
मूर्ति	-3029
▁अनुप्रयोग	-3030
▁R	-3031
▁कुशल	-3032
▁खुशी	-3033
▁जोखिम	-3034
▁लिखित	-3035
वासियों	-3036
▁याचिका	-3037
ॉँ	-3038
▁इं	-3039
ड़ाई	-3040
▁कार्यक्रमों	-3041
▁उनको	-3042
▁शारीरिक	-3043
▁बुनिया	-3044
▁आध्यात्मिक	-3045
▁फाय	-3046
▁पहुँच	-3047
गण	-3048
▁टाइ	-3049
ानु	-3050
▁स्पष्टीकरण	-3051
ic	-3052
▁घोषित	-3053
▁तरीका	-3054
▁मंड	-3055
▁प्रसन्नता	-3056
▁अपेक्षित	-3057
▁शक्तियों	-3058
▁मंच	-3059
▁हवा	-3060
▁नष्ट	-3061
▁बाबत	-3062
▁दीर्घ	-3063
▁प्रतीत	-3064
धानिक	-3065
मर	-3066
▁देखें	-3067
भूमि	-3068
▁गर्म	-3069
▁सैनिक	-3070
▁मगर	-3071
▁मां	-3072
▁मानक	-3073
▁प्रदू	-3074
▁प्रच	-3075
▁प्रोत्साहन	-3076
धारित	-3077
▁मिलकर	-3078
▁संवर्	-3079
▁दिस	-3080
▁अंतर्राष्ट्रीय	-3081
▁v	-3082
पों	-3083
▁जटिल	-3084
▁लेता	-3085
ह्न	-3086
▁माँ	-3087
▁उत्कृष्ट	-3088
▁सर्वोच्च	-3089
▁इकाई	-3090
्यार	-3091
▁तेज	-3092
▁छह	-3093
▁चारों	-3094
▁प्रसार	-3095
ेंशन	-3096
▁अधिस	-3097
▁अनुप	-3098
▁श्रेणीः	-3099
▁मिशन	-3100
▁b	-3101
▁अवश्य	-3102
▁कृत	-3103
िड	-3104
▁m	-3105
रत	-3106
हिम	-3107
▁त्याग	-3108
▁चीन	-3109
ृंखला	-3110
नो	-3111
▁चुकी	-3112
▁इले	-3113
▁निहित	-3114
कत	-3115
चरण	-3116
▁अस्थ	-3117
▁स्त्री	-3118
▁फीस	-3119
▁सेवाएं	-3120
ंख्य	-3121
िप्त	-3122
▁मुंबई	-3123
▁विधिक	-3124
▁जहा	-3125
▁मतलब	-3126
▁विरोधी	-3127
चलित	-3128
रणा	-3129
▁करेगी	-3130
▁वालों	-3131
▁अभिव्यक्ति	-3132
राधिक	-3133
▁प्रोट	-3134
▁स्मृति	-3135
▁अक्	-3136
▁चीज़	-3137
फ्टवेयर	-3138
करी	-3139
ढ़ी	-3140
▁वजह	-3141
▁साब	-3142
्रेट	-3143
▁लें	-3144
▁प्ले	-3145
▁ऐतिहासिक	-3146
▁आफ	-3147
▁ज़र	-3148
▁संसाधनों	-3149
▁पशु	-3150
▁वीडियो	-3151
▁कठोर	-3152
▁मस्ति	-3153
▁संबंधों	-3154
ताब	-3155
कालिक	-3156
▁लगातार	-3157
▁परिणामस्वरूप	-3158
▁कूट	-3159
▁प्रमाणपत्र	-3160
▁अभिले	-3161
▁जनसंख्या	-3162
▁औष	-3163
▁अगस्त	-3164
ियोग	-3165
▁गोप	-3166
क्षिक	-3167
▁आंतरिक	-3168
क्शन	-3169
▁रखता	-3170
▁फर	-3171
▁उपयोगी	-3172
पाद	-3173
▁पश्चात	-3174
शास्त	-3175
▁हथ	-3176
▁विश्लेषण	-3177
पान	-3178
▁इंजीन	-3179
ामा	-3180
▁यूनि	-3181
▁बातें	-3182
▁पति	-3183
▁प्रका	-3184
कर्ताओं	-3185
▁छूट	-3186
▁प्रशासनिक	-3187
ूंगा	-3188
▁दीवार	-3189
▁सरकारों	-3190
▁मना	-3191
▁गंगा	-3192
▁वैश्विक	-3193
ेंद	-3194
▁विफल	-3195
▁भूल	-3196
▁द्वीप	-3197
▁नागरिकों	-3198
▁न्यूनतम	-3199
▁आठ	-3200
▁कृष्ण	-3201
▁सुख	-3202
चित्र	-3203
▁नेहरू	-3204
▁हासिल	-3205
ूबर	-3206
्रीन	-3207
चारिक	-3208
▁जाएं	-3209
ुस्तान	-3210
▁अल्	-3211
▁चक्र	-3212
▁साम्राज्य	-3213
एन	-3214
▁हिम	-3215
बन्धी	-3216
▁मई	-3217
▁प्रवाह	-3218
▁स्की	-3219
▁निदेशक	-3220
▁संचालन	-3221
▁बीज	-3222
स्ते	-3223
कलन	-3224
▁बनने	-3225
▁स्वर	-3226
▁संसार	-3227
▁दस्तावेज	-3228
फे	-3229
▁अक्ष	-3230
▁श्रम	-3231
लग्न	-3232
▁स्थिर	-3233
▁प्रयत्न	-3234
१०	-3235
▁कमज	-3236
▁सत्या	-3237
▁विहित	-3238
▁सप्ताह	-3239
नाम	-3240
▁आलो	-3241
बन	-3242
▁कलकत्ता	-3243
is	-3244
▁अन्तर	-3245
▁पृथ्वी	-3246
तल	-3247
त्तम	-3248
▁आसान	-3249
▁स्वच्छ	-3250
णों	-3251
ियल	-3252
▁शाह	-3253
▁उम्र	-3254
▁नियुक्ति	-3255
ुम	-3256
जीव	-3257
▁अदालत	-3258
▁महामहिम	-3259
▁नाट	-3260
▁निरा	-3261
▁खिलाफ	-3262
▁बीमारी	-3263
▁अधिसू	-3264
▁व्याख्या	-3265
▁प्रकाशन	-3266
▁ब्रा	-3267
▁काट	-3268
▁सहकारी	-3269
▁संगठनों	-3270
▁लोकप्रिय	-3271
▁शुरुआ	-3272
▁छोड़कर	-3273
▁खी	-3274
▁लेन	-3275
▁कोल	-3276
दाता	-3277
▁वैसे	-3278
रीत	-3279
▁ऑन	-3280
▁काय	-3281
▁अभिलेख	-3282
▁संबद्ध	-3283
▁विशेषकर	-3284
वाली	-3285
▁कोड	-3286
▁सुभाष	-3287
▁उद्योगों	-3288
ion	-3289
▁आह	-3290
▁सड़क	-3291
▁कार्यवाह	-3292
ेह	-3293
यें	-3294
पथ	-3295
▁एकता	-3296
▁संविदा	-3297
▁विम	-3298
▁रीति	-3299
▁मीडिया	-3300
▁अके	-3301
▁माप	-3302
▁चलते	-3303
▁आरम्भ	-3304
▁M	-3305
शनल	-3306
▁सुल	-3307
▁प्रतीक	-3308
▁अनुरूप	-3309
ैव	-3310
ंकर	-3311
▁जेल	-3312
▁x	-3313
▁एड	-3314
le	-3315
चीत	-3316
▁सृजन	-3317
▁सर्वाधिक	-3318
▁दवा	-3319
▁निष्कर्ष	-3320
▁L	-3321
▁आख	-3322
▁जमीन	-3323
▁कौशल	-3324
स्थापित	-3325
▁h	-3326
▁जुड़े	-3327
▁आपूर्ति	-3328
▁निः	-3329
▁पुरा	-3330
▁पूजा	-3331
▁विपरीत	-3332
▁पूर्वी	-3333
▁जाँच	-3334
दर्शन	-3335
▁शोध	-3336
▁पीड़ित	-3337
▁अफ्रीका	-3338
▁बू	-3339
▁बुनियादी	-3340
▁बातचीत	-3341
▁विचारण	-3342
▁समुचित	-3343
ज्ञा	-3344
▁ग्रा	-3345
▁अभियान	-3346
▁प्रतिनिधित्व	-3347
▁सारा	-3348
▁गिरफ्त	-3349
▁n	-3350
न्द्रनाथ	-3351
▁आश्च	-3352
▁परस्पर	-3353
▁किसानों	-3354
▁विशेषता	-3355
▁दूध	-3356
साधारण	-3357
▁ताप	-3358
▁संकट	-3359
▁समझौता	-3360
▁आंख	-3361
▁विजय	-3362
ूद्ध	-3363
▁अभिप्रे	-3364
्रित	-3365
वित्र	-3366
▁पूर्ववर्ष	-3367
▁N	-3368
▁रस	-3369
▁प्रभ	-3370
ॉन	-3371
▁छि	-3372
▁गैस	-3373
ंगिक	-3374
▁अनुरोध	-3375
▁मस्तिष्क	-3376
▁मुह	-3377
वाला	-3378
षक	-3379
धित	-3380
भारत	-3381
▁हत्या	-3382
ियार	-3383
▁न्यायमूर्ति	-3384
▁एंड	-3385
▁लै	-3386
▁करो	-3387
▁दशक	-3388
▁अंध	-3389
▁कथन	-3390
▁इन्	-3391
▁वकी	-3392
▁स्ना	-3393
▁प्रस्तावित	-3394
▁टेली	-3395
▁विभाजन	-3396
दास	-3397
▁मीटर	-3398
▁कीट	-3399
▁लिप	-3400
▁परिवहन	-3401
▁तमिल	-3402
▁बेच	-3403
▁उत्पादों	-3404
पय	-3405
ूब	-3406
्यूट	-3407
सायिक	-3408
▁चढ़	-3409
▁बाग	-3410
▁सत्र	-3411
▁कार्ड	-3412
▁जाएंगे	-3413
▁इलेक्ट्र	-3414
िसी	-3415
▁गुप्त	-3416
ोथ	-3417
ोकन	-3418
ँचा	-3419
▁कर्तव्य	-3420
▁भेजा	-3421
▁मूल्यों	-3422
om	-3423
▁निवार	-3424
▁दृढ़	-3425
▁आश्चर्य	-3426
▁ताल	-3427
▁इतने	-3428
▁नुक	-3429
▁अक्सर	-3430
▁एकत्र	-3431
वंश	-3432
▁धर	-3433
▁एकल	-3434
▁पकड़	-3435
▁आनन्द	-3436
उस	-3437
ुता	-3438
▁हिंसा	-3439
▁नयी	-3440
वट	-3441
▁अन्दर	-3442
▁हस्ताक्षर	-3443
दारों	-3444
▁देवी	-3445
▁पत्थ	-3446
▁काग	-3447
▁दूरी	-3448
▁चुनौती	-3449
▁अमेरिकी	-3450
▁टा	-3451
▁टीम	-3452
▁दर्शा	-3453
▁संसदीय	-3454
▁गीत	-3455
दियों	-3456
मंडल	-3457
▁औसत	-3458
▁राज्यपाल	-3459
न्ना	-3460
िकेट	-3461
▁करीब	-3462
▁यंत्र	-3463
▁सर्वेक्षण	-3464
खे	-3465
▁शे	-3466
ंकित	-3467
▁कक्ष	-3468
▁धारण	-3469
▁प्रतिभा	-3470
▁मस	-3471
▁भागीदारी	-3472
▁D	-3473
▁आइ	-3474
▁साबित	-3475
▁राजनीति	-3476
ॉप	-3477
▁भेद	-3478
▁लिखी	-3479
▁तार	-3480
▁महाराष्ट्र	-3481
म्स	-3482
जूदा	-3483
▁परेश	-3484
▁अभियुक्त	-3485
▁उपभोक्ता	-3486
▁डर	-3487
▁आउट	-3488
▁फैल	-3489
▁लिम	-3490
स्त्र	-3491
▁गरीब	-3492
▁देगा	-3493
▁अभिप्रेत	-3494
▁वहीं	-3495
परि	-3496
▁चम	-3497
▁शह	-3498
▁परमाण	-3499
▁कश्मीर	-3500
▁सावधान	-3501
▁फॉ	-3502
▁बॉ	-3503
▁अर्थात	-3504
▁मृत्युद	-3505
घात	-3506
▁शिख	-3507
▁अभाव	-3508
▁डिस्क	-3509
▁सशक्त	-3510
▁नवान्वेषण	-3511
▁औप	-3512
भाषित	-3513
▁बजाय	-3514
▁समित	-3515
▁कारणों	-3516
पास	-3517
▁नमू	-3518
▁परिवर्तित	-3519
▁प्रारंभिक	-3520
▁जिले	-3521
▁मौजूदा	-3522
नर	-3523
▁चिंता	-3524
▁रजिस्ट्री	-3525
▁मछ	-3526
▁नियत	-3527
▁संस्करण	-3528
▁बदलाव	-3529
▁गठित	-3530
▁बिल्	-3531
मती	-3532
निष्ठ	-3533
▁अन्यथा	-3534
▁कति	-3535
ित्त	-3536
ैर	-3537
▁माइ	-3538
निर्	-3539
▁आमत	-3540
पादित	-3541
मार्	-3542
▁प्रेरणा	-3543
▁वर्षा	-3544
▁जर्म	-3545
गोल	-3546
ज़र	-3547
▁भाषाओं	-3548
▁समीक्षा	-3549
्रांस	-3550
▁चिह्न	-3551
▁निभा	-3552
▁हिस्से	-3553
द्या	-3554
▁सुविधाओं	-3555
▁मांस	-3556
▁लंबा	-3557
▁पहुंचा	-3558
पण	-3559
ंत्रिक	-3560
▁अनुपात	-3561
▁सम्बन्धी	-3562
सीसी	-3563
▁समाप्ति	-3564
▁लिखने	-3565
▁मिन	-3566
▁सिक्	-3567
▁सर्वर	-3568
▁समग्र	-3569
▁संतुल	-3570
▁अत	-3571
▁आचरण	-3572
▁मैदान	-3573
ूंकि	-3574
▁लक्ष	-3575
▁परियोजनाओं	-3576
▁देय	-3577
▁वक्त	-3578
तीत	-3579
▁अकबर	-3580
▁रोकने	-3581
▁गुरु	-3582
▁प्रोत्साहित	-3583
▁पवित्र	-3584
बाइल	-3585
▁हैंः	-3586
▁आमतौर	-3587
वण	-3588
ोजी	-3589
▁लिमिट	-3590
▁पाई	-3591
▁देखकर	-3592
▁पौध	-3593
ंदु	-3594
▁कतिपय	-3595
▁चूंकि	-3596
▁द्वितीय	-3597
▁किलो	-3598
साद	-3599
▁सदा	-3600
ध्या	-3601
▁रखें	-3602
▁जुलाई	-3603
▁शुरुआत	-3604
▁आकर्षित	-3605
▁प्रवृत्त	-3606
प्	-3607
▁उपक्रम	-3608
▁शैक्षिक	-3609
▁भय	-3610
▁गाय	-3611
▁सुसंगत	-3612
ाब	-3613
▁साइ	-3614
श्किल	-3615
▁इरा	-3616
▁खाने	-3617
▁हक	-3618
▁गौर	-3619
ुरी	-3620
स्वी	-3621
▁जय	-3622
▁अनुश	-3623
ताव	-3624
क्का	-3625
▁आशय	-3626
▁खुश	-3627
▁जानता	-3628
▁तल	-3629
▁अपन	-3630
▁प्रत	-3631
▁हवाई	-3632
▁तकनीक	-3633
नन	-3634
ंडी	-3635
▁ब्राह	-3636
नात्मक	-3637
▁ब्ल	-3638
▁बिल्कुल	-3639
▁देकर	-3640
▁शहरी	-3641
▁अधिवक्ता	-3642
et	-3643
थी	-3644
▁शिकार	-3645
▁सॉफ्टवेयर	-3646
▁आयोजन	-3647
डु	-3648
▁निवास	-3649
▁अस्पताल	-3650
▁कब	-3651
▁नियंत्रित	-3652
▁बुरा	-3653
▁जीवित	-3654
▁अधिकतर	-3655
ड़ियों	-3656
▁व्यावसायिक	-3657
ंदी	-3658
ष्टा	-3659
▁देर	-3660
▁रहेगा	-3661
▁बाधा	-3662
▁प्रार्थ	-3663
▁पाठ्यक्रम	-3664
भाग्य	-3665
▁हार्	-3666
▁जितना	-3667
▁इंस	-3668
▁सुब	-3669
▁खाना	-3670
▁विंडो	-3671
▁उधार	-3672
▁कुमार	-3673
▁संलग्न	-3674
ोल्	-3675
क्षीय	-3676
▁निश्चय	-3677
▁गौ	-3678
▁यथ	-3679
▁वरि	-3680
▁मानवीय	-3681
▁आस्ति	-3682
ot	-3683
द्धा	-3684
▁मुझ	-3685
▁कितना	-3686
▁मुद्दों	-3687
शीलता	-3688
ंछ	-3689
▁रिश	-3690
▁सूर्य	-3691
▁चरित्र	-3692
▁तुरंत	-3693
▁तिर	-3694
▁मिट्टी	-3695
▁लिमिटेड	-3696
गढ़	-3697
▁खुले	-3698
धारी	-3699
▁मुश्किल	-3700
▁चलो	-3701
▁सहज	-3702
▁परमाणु	-3703
▁प्रतिनिधि	-3704
▁कमजोर	-3705
▁आसानी	-3706
▁उत्तरी	-3707
त्कार	-3708
▁आग्रह	-3709
▁इंग्ल	-3710
देव	-3711
▁कारा	-3712
▁लाया	-3713
▁समावेश	-3714
राम	-3715
▁मंडल	-3716
▁सांस	-3717
▁बाह्य	-3718
▁प्रारूप	-3719
सु	-3720
ंदन	-3721
▁केरल	-3722
▁स्तंभ	-3723
णन	-3724
▁आल	-3725
बाज	-3726
राव	-3727
▁घंटे	-3728
▁प्रेष	-3729
▁ग्राहक	-3730
नाश	-3731
▁जाकर	-3732
▁थोड़ा	-3733
▁स्कीम	-3734
ुत्	-3735
▁आसपास	-3736
▁एकमात्र	-3737
▁गुजरात	-3738
▁समझौते	-3739
▁रवी	-3740
भाविक	-3741
▁घटनाओं	-3742
▁विरूद्ध	-3743
पुट	-3744
▁सहमति	-3745
▁दर्ज	-3746
▁उत्साह	-3747
▁अन्तर्गत	-3748
▁इनका	-3749
▁निष्पादन	-3750
▁अनुदान	-3751
ग्ध	-3752
▁इंटरनेट	-3753
▁बढ़ती	-3754
▁जिनकी	-3755
▁आवाज	-3756
▁लंबे	-3757
▁साक्षी	-3758
▁खान	-3759
▁लाइन	-3760
▁महात्मा	-3761
▁विमर्श	-3762
ार्थी	-3763
घटना	-3764
▁दूसरों	-3765
णिक	-3766
▁साध	-3767
▁ज्ञात	-3768
विज्ञान	-3769
▁प्रत्या	-3770
ोबार	-3771
▁सहमत	-3772
▁नेताओं	-3773
▁सभ्यता	-3774
ौल	-3775
मीटर	-3776
▁नुकसान	-3777
▁खेती	-3778
▁सदैव	-3779
▁बाध्य	-3780
▁श्रृंखला	-3781
जिए	-3782
▁टुक	-3783
▁फैस	-3784
▁जनजा	-3785
▁शुरु	-3786
▁कू	-3787
माने	-3788
्राइ	-3789
▁आवास	-3790
११	-3791
▁कव	-3792
▁छुट	-3793
▁प्रिय	-3794
▁रिया	-3795
घाटन	-3796
▁अंतः	-3797
▁फिली	-3798
ाक	-3799
दिन	-3800
▁सजा	-3801
▁कितनी	-3802
▁रास्ता	-3803
पूर्ति	-3804
▁प्रथा	-3805
▁पंजीकरण	-3806
▁प्रतिकूल	-3807
▁गेंद	-3808
▁असमर्थ	-3809
▁गोल	-3810
▁आपराधिक	-3811
▁इसने	-3812
▁लिखे	-3813
▁प्रचलित	-3814
▁विश्वविद्यालयों	-3815
▁अपर	-3816
▁समझने	-3817
▁अग्रिम	-3818
यण	-3819
▁स्वाम	-3820
रू	-3821
ंचित	-3822
▁कंपनियों	-3823
▁प्रार्थना	-3824
▁कार्यान्वयन	-3825
▁खतरा	-3826
क्षिप्त	-3827
▁चोट	-3828
▁भावी	-3829
▁अनुसूचित	-3830
▁नवीन	-3831
▁वृक्ष	-3832
▁आहार	-3833
▁पेड़	-3834
स्फ	-3835
़्य	-3836
▁मिस	-3837
▁मालूम	-3838
केट	-3839
▁पैरा	-3840
▁संगम	-3841
श्त	-3842
▁दुख	-3843
ेश्वर	-3844
▁संयंत्र	-3845
▁लेखन	-3846
▁फा	-3847
▁मोबाइल	-3848
▁लक	-3849
ेक्ट	-3850
▁फोन	-3851
▁मृत	-3852
▁उठाने	-3853
▁सूत्र	-3854
हाद	-3855
ंगल	-3856
गाह	-3857
▁सतह	-3858
द्वीप	-3859
िक्स	-3860
▁गाँ	-3861
▁जरिए	-3862
▁छवि	-3863
ंजन	-3864
▁नोड	-3865
▁धारणा	-3866
सीन	-3867
▁दुः	-3868
▁वीर	-3869
▁खींच	-3870
▁विधियों	-3871
▁नै	-3872
▁बीमार	-3873
▁शर्तों	-3874
प्रे	-3875
▁हितों	-3876
▁वरिष्ठ	-3877
कां	-3878
▁हार	-3879
▁जनरल	-3880
▁चलाने	-3881
▁वर्गों	-3882
▁चिकित्स	-3883
▁टिक	-3884
▁अवै	-3885
▁परिषद्	-3886
▁पुरानी	-3887
▁हाथों	-3888
▁किनारे	-3889
▁वाक	-3890
न्त्र	-3891
▁सरदार	-3892
शास्त्र	-3893
्यु	-3894
वर्तन	-3895
▁उद्ध	-3896
▁रेलवे	-3897
▁दबाव	-3898
वश	-3899
विधि	-3900
▁किस्म	-3901
पंथ	-3902
▁अद्य	-3903
ोल्डर	-3904
▁पोषण	-3905
ंडा	-3906
्नों	-3907
▁जाल	-3908
▁नारा	-3909
▁फरवरी	-3910
▁अनुसूची	-3911
▁समृद्ध	-3912
▁उन्	-3913
▁नाग	-3914
पेक्ष	-3915
▁जैव	-3916
▁मालिक	-3917
▁विभिन्	-3918
गन	-3919
ॉक	-3920
▁लु	-3921
▁सुदृ	-3922
▁पूर्ति	-3923
▁वंश	-3924
ात्मक	-3925
शक्ति	-3926
िकाओं	-3927
▁कहान	-3928
▁राजस्व	-3929
▁निरीक्षण	-3930
▁गार	-3931
▁विद्यालय	-3932
जि	-3933
▁स्वीकृति	-3934
लिया	-3935
▁देंगे	-3936
▁सर्वोत्तम	-3937
र्ती	-3938
▁पूछा	-3939
▁भंडारण	-3940
▁समर्पित	-3941
▁प्रतिस्प	-3942
्यवाद	-3943
▁किसान	-3944
▁लंबी	-3945
▁वकील	-3946
▁समन्वय	-3947
▁अनुसरण	-3948
▁पाते	-3949
▁उपस्थिति	-3950
▁परा	-3951
▁पैर	-3952
▁ब्य	-3953
▁रास्ते	-3954
▁भु	-3955
▁राजस्थान	-3956
▁जीत	-3957
▁आकर	-3958
▁काउ	-3959
▁फ्ल	-3960
▁आस्त	-3961
▁मुद्र	-3962
▁संदाय	-3963
▁राजधान	-3964
▁सम्पूर्ण	-3965
वायु	-3966
▁देन	-3967
▁सौर	-3968
▁दुर्घटना	-3969
▁मूर्	-3970
▁शिखर	-3971
▁परिभाषित	-3972
▁अधिर	-3973
▁चालू	-3974
दु	-3975
म्मत	-3976
▁..	-3977
▁...	-3978
▁फ़िल्म	-3979
▁तुम्हारे	-3980
न्ड	-3981
▁अका	-3982
▁डाटा	-3983
▁विद्र	-3984
ing	-3985
पालन	-3986
धियों	-3987
▁खड़ा	-3988
▁शत्र	-3989
ेंसी	-3990
▁सराह	-3991
▁नीतियों	-3992
▁योजनाओं	-3993
▁१	-3994
▁आवश्यकताओं	-3995
▁सें	-3996
▁हल्	-3997
▁स्त्र	-3998
▁पर्यटन	-3999
तृ	-4000
▁बोस	-4001
▁सब्	-4002
▁प्रदूषण	-4003
▁श्रेष्ठ	-4004
▁प्राथमिकता	-4005
▁रण	-4006
▁सौंप	-4007
▁संक्रमण	-4008
क्रिय	-4009
▁छात्र	-4010
▁क्रिकेट	-4011
▁सिल	-4012
▁बाकी	-4013
ग्रस्त	-4014
हल	-4015
वली	-4016
▁अचान	-4017
▁उदार	-4018
▁गवर्	-4019
याल	-4020
▁पल	-4021
▁कमा	-4022
▁बनाये	-4023
▁मध्यम	-4024
▁संदेह	-4025
ीकृत	-4026
▁दिना	-4027
▁विनिमय	-4028
▁शीर्षक	-4029
गोर	-4030
ोधित	-4031
ख्यात	-4032
▁फर्म	-4033
▁बदले	-4034
▁असर	-4035
विष्ट	-4036
▁चलने	-4037
▁प्री	-4038
▁अचानक	-4039
▁बदलने	-4040
▁आलोचना	-4041
▁होम	-4042
▁प्रि	-4043
▁अस्था	-4044
▁ऑनलाइन	-4045
▁ढांचे	-4046
▁सुनवाई	-4047
▁सिद्धांतों	-4048
फर	-4049
लन	-4050
▁त्वचा	-4051
▁स्वतः	-4052
▁मिलियन	-4053
▁तला	-4054
▁विभाजित	-4055
▁हार्दिक	-4056
▁यौ	-4057
व्या	-4058
कृष्ण	-4059
▁पढ़ने	-4060
र्की	-4061
क़्त	-4062
▁स्वस्थ	-4063
ोब	-4064
▁मृ	-4065
▁बिंदु	-4066
मि	-4067
ाले	-4068
▁सागर	-4069
▁रहें	-4070
▁प्रशंसा	-4071
दंड	-4072
▁दर्द	-4073
▁यथास्थिति	-4074
ासत	-4075
▁आजादी	-4076
धारणा	-4077
▁बल्ले	-4078
▁जड़	-4079
▁कितने	-4080
▁वचन	-4081
▁बुला	-4082
▁पत्थर	-4083
▁प्रवृत्ति	-4084
यत	-4085
लेट	-4086
▁दुर	-4087
▁मजदूर	-4088
काब	-4089
▁हाइ	-4090
वैधानिक	-4091
गमन	-4092
▁झु	-4093
▁बिहार	-4094
▁विनिश्च	-4095
थित	-4096
▁पत	-4097
▁धात	-4098
▁पक्षकार	-4099
▁प्रतियोग	-4100
▁समूहों	-4101
▁सुविधाएं	-4102
▁धो	-4103
▁परे	-4104
▁लम्	-4105
▁जागर	-4106
▁प्रतिभूति	-4107
याँ	-4108
▁कम्पनी	-4109
▁संशोधित	-4110
ंध्र	-4111
▁पूर्वो	-4112
म्मद	-4113
▁देखना	-4114
▁उल्लेखनीय	-4115
▁संक्षिप्त	-4116
अर	-4117
▁तोड़	-4118
▁मॉडल	-4119
▁दास	-4120
▁अस्वी	-4121
▁प्रारम्भ	-4122
▁निच	-4123
▁पार्	-4124
▁पूर्	-4125
▁किताब	-4126
▁दिव्य	-4127
▁समानता	-4128
▁घु	-4129
▁झा	-4130
▁इनकी	-4131
ट्र	-4132
▁उसको	-4133
▁सुदृढ़	-4134
▁पट्ट	-4135
▁अत्या	-4136
▁स्वाभाविक	-4137
०क	-4138
▁आनु	-4139
▁अर्ध	-4140
▁मकान	-4141
▁छो	-4142
ानिक	-4143
▁जम्	-4144
▁बाबू	-4145
▁तत्काल	-4146
परी	-4147
▁विनय	-4148
ष्ठा	-4149
▁डाय	-4150
▁नील	-4151
▁चन्द्र	-4152
▁अनुमोदन	-4153
▁छात्रों	-4154
ज्ज	-4155
▁नेपाल	-4156
▁पौधों	-4157
▁ब्राह्म	-4158
▁राजधानी	-4159
र्त	-4160
▁मृत्युदंड	-4161
▁अवैध	-4162
▁निवारण	-4163
▁प्रान्त	-4164
▁प्राधिकार	-4165
▁तिथि	-4166
▁औपचारिक	-4167
वां	-4168
▁जिम्मेदारी	-4169
▁विज्ञ	-4170
▁वर्णित	-4171
▁गहन	-4172
▁ठोस	-4173
▁संवाद	-4174
▁फे	-4175
▁सन	-4176
▁ट्यू	-4177
▁डिजा	-4178
▁जलवायु	-4179
as	-4180
▁संप्र	-4181
खों	-4182
ंसिल	-4183
▁अली	-4184
▁जवाह	-4185
▁अद्यतन	-4186
▁बौद्धिक	-4187
तियां	-4188
▁पीठ	-4189
▁उद्घाटन	-4190
न्दु	-4191
▁करवा	-4192
▁हालत	-4193
▁प्रतिस्पर्	-4194
▁हिमालय	-4195
▁समुद्री	-4196
▁हस्तक्षेप	-4197
▁ज़्यादा	-4198
▁संवर्धन	-4199
ट्	-4200
ासा	-4201
▁ग़	-4202
▁भारतीयों	-4203
िरी	-4204
०वीं	-4205
▁कैं	-4206
म्परा	-4207
▁लिंग	-4208
▁क्लिक	-4209
▁ब्रिटेन	-4210
▁मण	-4211
▁कच्च	-4212
▁द्वि	-4213
▁प्रेस	-4214
▁पड	-4215
▁बालक	-4216
▁बजट	-4217
▁खत्म	-4218
▁चुने	-4219
नाटक	-4220
▁शिशु	-4221
▁वस्तुत	-4222
▁गरीबी	-4223
क्क	-4224
▁खाली	-4225
▁सामूह	-4226
दरा	-4227
▁अय	-4228
ायें	-4229
▁कष्ट	-4230
▁दैनिक	-4231
▁गहरी	-4232
▁चुनौ	-4233
▁नौकरी	-4234
▁तत्वों	-4235
सागर	-4236
▁अक्त	-4237
▁शिक्षक	-4238
▁भले	-4239
न्थ	-4240
फ़ी	-4241
बाजी	-4242
बादी	-4243
▁गुफा	-4244
▁प्रणाल	-4245
पो	-4246
▁अज	-4247
▁दान	-4248
▁विपणन	-4249
जात	-4250
ेंज	-4251
▁आकाश	-4252
▁मिनट	-4253
▁मिलाकर	-4254
▁अनि	-4255
▁रसाय	-4256
▁द्विप	-4257
मार्ग	-4258
▁सोचा	-4259
▁समृद्धि	-4260
▁सामूहिक	-4261
▁खतर	-4262
▁विद्या	-4263
ज़ार	-4264
▁भंडार	-4265
▁मिलते	-4266
▁ब्रह्म	-4267
▁उत्तरदायी	-4268
भावना	-4269
▁भक्ति	-4270
▁वर्गी	-4271
क्सी	-4272
▁सामान्यतः	-4273
▁k	-4274
▁सितंबर	-4275
▁सिद्धान्त	-4276
ंडित	-4277
▁आना	-4278
▁कमरे	-4279
▁परिक	-4280
▁उपर	-4281
▁आदान	-4282
▁लाइस	-4283
▁परम्परा	-4284
▁तंत्रिका	-4285
▁सकेगी	-4286
▁कहने	-4287
▁बांध	-4288
▁गांवों	-4289
▁बचाव	-4290
▁भेंट	-4291
ूष	-4292
जनन	-4293
▁असाधारण	-4294
मो	-4295
ेंड	-4296
त्ती	-4297
ेंद्र	-4298
पत	-4299
ार्ज	-4300
▁रद्द	-4301
▁गणना	-4302
▁जम्मू	-4303
▁कराया	-4304
▁फार्म	-4305
▁विद्वान	-4306
▁गू	-4307
▁अग्रणी	-4308
मूल	-4309
▁चिंत	-4310
▁हद	-4311
▁यून	-4312
▁राहत	-4313
▁यूरोपीय	-4314
▁प्रविष्टि	-4315
▁निश	-4316
▁बजा	-4317
चार्य	-4318
▁डाला	-4319
▁सफेद	-4320
▁नंबर	-4321
▁अभिला	-4322
▁उच्चतर	-4323
ed	-4324
वाना	-4325
ोटो	-4326
▁उपनि	-4327
▁निगर	-4328
▁पर्	-4329
▁सांप	-4330
▁कर्नाटक	-4331
ent	-4332
वित	-4333
▁अक्तूबर	-4334
▁निगरानी	-4335
▁कार्यवाहियों	-4336
▁कठिनाई	-4337
▁पक्षों	-4338
वरों	-4339
▁उभर	-4340
▁कब्	-4341
▁लड़के	-4342
▁क्रांति	-4343
वृत्ति	-4344
▁रवीन्द्रनाथ	-4345
ल्य	-4346
▁खण्ड	-4347
▁व्यक्तित्व	-4348
▁परिभाषा	-4349
▁ग्ल	-4350
▁पड़ी	-4351
▁सुबह	-4352
▁लड़ाई	-4353
ॉट	-4354
पीठ	-4355
▁लाइ	-4356
▁आश्व	-4357
▁उत्तरा	-4358
▁चाय	-4359
▁तथ्यों	-4360
▁मैत्री	-4361
▁इस्लामी	-4362
▁शहरों	-4363
▁माध्यस्थ	-4364
▁संवैधानिक	-4365
▁पाद	-4366
▁पदार्थों	-4367
ंतरण	-4368
वादियों	-4369
▁निपटान	-4370
▁घटा	-4371
▁भंग	-4372
टु	-4373
▁प्रतिबंध	-4374
▁मोड	-4375
▁विविधता	-4376
▁बैंकिंग	-4377
्रमण	-4378
▁बांग	-4379
▁चीजों	-4380
▁बाँ	-4381
▁जैन	-4382
▁शान	-4383
▁आरंभिक	-4384
▁मुक्ति	-4385
▁भूत	-4386
▁नृत्य	-4387
▁रहस्य	-4388
ग़	-4389
नाक	-4390
▁आब	-4391
ान्य	-4392
▁देशी	-4393
▁नेशनल	-4394
▁लगाना	-4395
▁कारावास	-4396
▁आंध्र	-4397
▁कहता	-4398
▁पाँच	-4399
▁पौधे	-4400
▁अपनाया	-4401
▁लाइसेंस	-4402
▁योग्यता	-4403
▁उतर	-4404
▁सीमाओं	-4405
▁जातियों	-4406
शिष्ट	-4407
▁खड़े	-4408
▁कामना	-4409
▁खराब	-4410
▁चीनी	-4411
▁मुकाब	-4412
ॉनिक	-4413
▁कहला	-4414
▁स्वर्ण	-4415
el	-4416
▁पश	-4417
▁वैध	-4418
▁खतरे	-4419
▁गुणा	-4420
▁कोर्ट	-4421
▁न्यास	-4422
▁प्यार	-4423
रेखा	-4424
ॉर्ड	-4425
▁अब्द	-4426
▁पंक्ति	-4427
दर्शी	-4428
▁उन्नत	-4429
▁निर्मा	-4430
▁खेत	-4431
▁उतना	-4432
▁देवता	-4433
▁मुद्दे	-4434
▁मक	-4435
ंशिक	-4436
▁वस्त्र	-4437
▁सावधानी	-4438
ुति	-4439
ोजक	-4440
▁क्	-4441
▁लेती	-4442
▁उपखंड	-4443
▁न्यायपालिका	-4444
रम	-4445
▁उपे	-4446
जल	-4447
्वे	-4448
ास्ट	-4449
▁अवल	-4450
▁दरवा	-4451
▁मूलभूत	-4452
▁युक्ति	-4453
▁शिक्षण	-4454
▁सेटिंग	-4455
िब	-4456
▁आक	-4457
िल्प	-4458
▁ताकत	-4459
▁पैसे	-4460
▁ध्वनि	-4461
▁वंचित	-4462
▁प्रक्रियाओं	-4463
▁जीवा	-4464
▁जानने	-4465
▁अनुज्ञात	-4466
ao	-4467
१२	-4468
▁प्रश्नों	-4469
▁हिंदुस्तान	-4470
▁प्रसं	-4471
▁उपकरणों	-4472
▁अधिसूचना	-4473
▁साहित्यिक	-4474
ङ्	-4475
▁डाउ	-4476
▁ट्रै	-4477
▁परिचय	-4478
▁अवसरों	-4479
▁डिजाइन	-4480
▁यूनिट	-4481
▁मैने	-4482
▁तीसरे	-4483
▁मानना	-4484
▁अंतरिक्ष	-4485
▁‘‘	-4486
▁साझी	-4487
▁जायें	-4488
▁स्क्रीन	-4489
▁शक्तिशाली	-4490
दायक	-4491
▁विरासत	-4492
▁दावे	-4493
▁बिलकुल	-4494
▁मंदिरों	-4495
▁प्राधिकृत	-4496
▁विक्रय	-4497
▁अवमान	-4498
▁बनाता	-4499
▁प्रतिबद्ध	-4500
ष्प	-4501
▁जहाज	-4502
▁उपायों	-4503
भि	-4504
▁y	-4505
ॉलर	-4506
▁00	-4507
▁पोर्ट	-4508
▁वाद्य	-4509
▁अर्जित	-4510
▁अपराधों	-4511
ंघन	-4512
▁कोट	-4513
▁बेल	-4514
▁उठाया	-4515
▁संध्या	-4516
लैंड	-4517
▁वेद	-4518
▁कक्षा	-4519
▁मौलिक	-4520
मेल	-4521
हारिक	-4522
▁इसील	-4523
▁स्वभाव	-4524
▁कोय	-4525
▁अधिरोप	-4526
▁पैमाने	-4527
▁मजिस्ट	-4528
▁टिप्पणी	-4529
▁उन्म	-4530
ैया	-4531
ंतिक	-4532
▁वसू	-4533
ल्ला	-4534
िस्त	-4535
▁विनिश्चय	-4536
मान्य	-4537
▁पृथक	-4538
▁चू	-4539
▁चाहती	-4540
शे	-4541
▁जीन	-4542
स्ट्रे	-4543
ंभव	-4544
सनीय	-4545
▁यहू	-4546
▁मिथ	-4547
▁अनुचित	-4548
▁बजे	-4549
▁चंद्र	-4550
यात	-4551
़्त	-4552
▁अमरीका	-4553
▁पहुंचने	-4554
▁सम्पत्ति	-4555
▁शर्त	-4556
▁उपर्य	-4557
साइ	-4558
▁नार	-4559
▁आवेद	-4560
▁पेंशन	-4561
▁भरा	-4562
▁असाम	-4563
ंठ	-4564
श्म	-4565
▁धु	-4566
▁अपरि	-4567
▁आराम	-4568
▁संचालित	-4569
उंड	-4570
ब्ल	-4571
▁अगला	-4572
▁प्रतियोगिता	-4573
▁वस	-4574
▁घूम	-4575
▁गर्भ	-4576
नीति	-4577
्रोल	-4578
▁अदा	-4579
▁उपय	-4580
▁मोटर	-4581
▁नेत्र	-4582
▁शक्तियां	-4583
▁खिल	-4584
▁सदी	-4585
▁स्वामित्व	-4586
▁उद्देश्यों	-4587
▁प्रवर्तन	-4588
▁द्विपक्षीय	-4589
ंगों	-4590
▁दिला	-4591
ol	-4592
वधि	-4593
▁यो	-4594
▁शोक	-4595
▁भेजे	-4596
▁स्मार	-4597
ूली	-4598
▁दिमा	-4599
▁उपलब्धि	-4600
▁मध्यस्थ	-4601
▁घटक	-4602
▁रेश	-4603
षे	-4604
लाब	-4605
▁फें	-4606
▁गुजर	-4607
▁अस्थायी	-4608
▁l	-4609
वती	-4610
▁निकाला	-4611
▁सराहना	-4612
शः	-4613
▁लॉग	-4614
▁पहलू	-4615
▁स्थाना	-4616
▁संबोधित	-4617
▁दण्ड	-4618
▁साइट	-4619
▁साहस	-4620
▁पीढ़ी	-4621
▁भांति	-4622
▁विनिर्माण	-4623
▁परिवर्त	-4624
▁तापमान	-4625
▁फ्रांस	-4626
▁यथार्थ	-4627
▁जुड़	-4628
फोन	-4629
▁फ्र	-4630
▁ग्री	-4631
▁जुड़ा	-4632
▁बच्चा	-4633
▁खि	-4634
▁ग्राफ	-4635
▁सकेंगे	-4636
ग्रहण	-4637
▁कायम	-4638
▁अंग्रेज	-4639
ायर	-4640
ंपरिक	-4641
▁मानो	-4642
▁महाराजा	-4643
▁विभागों	-4644
▁मनोर	-4645
▁पोत	-4646
▁सेल	-4647
ठे	-4648
क्रो	-4649
कीर्ण	-4650
▁रेडियो	-4651
▁श्रमिक	-4652
▁पर्वत	-4653
▁अत्यन्त	-4654
▁पत्रिका	-4655
▁तस्वी	-4656
▁उर्व	-4657
▁ड़	-4658
▁ड्र	-4659
▁मरा	-4660
▁जिनसे	-4661
▁बनाकर	-4662
▁दिसंबर	-4663
▁प्रतिदिन	-4664
कोश	-4665
▁कोशिकाओं	-4666
ou	-4667
▁बहस	-4668
▁ईसाई	-4669
▁इंडियन	-4670
▁संतुलन	-4671
▁अन्वेषण	-4672
▁पृष्ठभूमि	-4673
रचना	-4674
्त्र	-4675
▁मूर्ति	-4676
▁श्रीमती	-4677
il	-4678
अप	-4679
▁छाप	-4680
▁ठहरा	-4681
▁शास्त्र	-4682
ड्डी	-4683
ख्यान	-4684
▁रानी	-4685
▁इक	-4686
▁सुश	-4687
▁तमिलना	-4688
▁रजिस्ट्रीकरण	-4689
▁कने	-4690
▁पंडित	-4691
ोक्	-4692
▁परिश	-4693
▁तरीकों	-4694
▁दक्षिणी	-4695
ac	-4696
▁’	-4697
▁व्युत्	-4698
▁विद्यार्थी	-4699
▁जाग	-4700
▁कारोबार	-4701
वहार	-4702
▁ढांचा	-4703
ब्र	-4704
▁पच	-4705
सिंह	-4706
क्तिक	-4707
▁मुला	-4708
▁अवधारणा	-4709
▁इंजीनिय	-4710
ंचाई	-4711
व्यों	-4712
▁पोजी	-4713
▁संग्र	-4714
▁हटाने	-4715
▁समितियों	-4716
▁युवाओं	-4717
ाइन	-4718
म्बई	-4719
▁दर्	-4720
▁समझते	-4721
▁वसूली	-4722
▁लल	-4723
▁जितनी	-4724
यक	-4725
यिक	-4726
म्बे	-4727
▁समाय	-4728
▁मुकदमे	-4729
▁दिलच	-4730
यु	-4731
्मी	-4732
▁आर्	-4733
हाई	-4734
▁पॉल	-4735
▁पारंपरिक	-4736
▁उपर्युक्त	-4737
▁क्रियान्व	-4738
ेदन	-4739
▁क्षण	-4740
▁देखे	-4741
▁उपयोगकर्ता	-4742
घर	-4743
तरी	-4744
▁हाँ	-4745
▁चैतन	-4746
▁नाते	-4747
▁लंबित	-4748
▁संदेय	-4749
▁तत्त्व	-4750
▁मिलेगी	-4751
▁गिरफ्तार	-4752
▁राजभाषा	-4753
ुण	-4754
▁झील	-4755
▁कारक	-4756
▁मानी	-4757
▁लगती	-4758
▁न्	-4759
▁बचत	-4760
▁आबादी	-4761
▁रहेंगे	-4762
▁जिम्मेदार	-4763
शोथ	-4764
ुरा	-4765
▁वय	-4766
▁पंख	-4767
▁उतार	-4768
▁दिखाया	-4769
▁बांग्ला	-4770
पादक	-4771
▁चैनल	-4772
स्तानी	-4773
▁होंगी	-4774
त्ते	-4775
▁r	-4776
▁चिप	-4777
▁जाओ	-4778
क्राम	-4779
▁कराना	-4780
▁आतंकवादी	-4781
▁iii	-4782
▁खनि	-4783
▁अकेले	-4784
िर्धारित	-4785
▁व्यावहारिक	-4786
▁चुना	-4787
▁बोली	-4788
▁परिवेश	-4789
▁पक्षकारों	-4790
▁मार्गदर्शन	-4791
दल	-4792
▁बीस	-4793
▁O	-4794
▁नान	-4795
▁दुःख	-4796
▁प्रभाग	-4797
▁मिलेगा	-4798
▁गुल	-4799
▁हरि	-4800
▁धातु	-4801
▁बारह	-4802
▁रिकार्ड	-4803
ग्रा	-4804
▁खूब	-4805
▁गुरू	-4806
▁तात्	-4807
▁इसीलिए	-4808
▁महीनों	-4809
भेद	-4810
▁सद्	-4811
▁इलाज	-4812
▁अभिगम	-4813
▁कॉलेज	-4814
▁चैतन्य	-4815
▁सकारात्मक	-4816
पंथी	-4817
कुमार	-4818
▁रुचि	-4819
▁छोड	-4820
▁रिट	-4821
▁फैला	-4822
▁लड़की	-4823
▁स्तरों	-4824
▁फ़ोल्डर	-4825
▁झू	-4826
▁बिता	-4827
▁समझे	-4828
▁पोजीशन	-4829
▁संवेदन	-4830
दोष	-4831
▁in	-4832
▁दोनो	-4833
कलापों	-4834
▁हकदार	-4835
ेयर	-4836
▁हैदरा	-4837
▁केंद्रित	-4838
▁दाख	-4839
▁सहन	-4840
▁उद्यान	-4841
▁निष्क्रिय	-4842
बारा	-4843
▁अहम	-4844
▁अज्ञ	-4845
ँग	-4846
लिंग	-4847
▁बडी	-4848
द्रास	-4849
▁दोहरा	-4850
▁बनाते	-4851
▁जोड़ने	-4852
▁सम्बंध	-4853
तांत्रिक	-4854
▁विद्रोह	-4855
▁पेशे	-4856
▁उन्होने	-4857
▁महाभारत	-4858
▁संभावित	-4859
▁ढूं	-4860
▁फार	-4861
▁रिज	-4862
▁गारंटी	-4863
▁इलेक्ट्रॉनिक	-4864
च्छिक	-4865
▁कट्ट	-4866
▁वार्	-4867
ध्यक्ष	-4868
▁पुष्टि	-4869
▁वादी	-4870
▁सिंध	-4871
ंत्रित	-4872
▁डालने	-4873
▁बढ़ने	-4874
▁अभिलाभ	-4875
काय	-4876
▁चतु	-4877
▁आपात	-4878
▁धरती	-4879
▁तिल	-4880
▁पड़ती	-4881
▁भर्ती	-4882
▁इमार	-4883
▁जाएँ	-4884
▁संतु	-4885
▁ऊंचाई	-4886
▁पालिसी	-4887
▁ग्राहकों	-4888
▁कोष	-4889
▁पंजीकृत	-4890
▁रहित	-4891
▁प्रांत	-4892
▁भगवान्	-4893
रुप	-4894
सूर	-4895
्मा	-4896
▁एयर	-4897
▁भरी	-4898
▁कहां	-4899
▁रूपों	-4900
▁सिंचाई	-4901
▁आधारभूत	-4902
▁वस्तुतः	-4903
▁भरे	-4904
▁लार	-4905
ड़िया	-4906
▁अकाद	-4907
▁याची	-4908
▁पशुओं	-4909
िली	-4910
▁परिवारों	-4911
▁हिस	-4912
▁जायेगी	-4913
▁मजिस्ट्रेट	-4914
▁उदा	-4915
▁चुनें	-4916
▁जानकर	-4917
▁संतोष	-4918
▁स्मरण	-4919
कांक्षा	-4920
▁उत्तरदायित्व	-4921
ंदगी	-4922
▁इंद	-4923
▁टूट	-4924
▁प्रेषित	-4925
गि	-4926
▁चली	-4927
▁बारी	-4928
▁आंशिक	-4929
▁मद्रास	-4930
▁अम्	-4931
▁ऊपरी	-4932
▁छाया	-4933
▁पट्टी	-4934
▁रसायन	-4935
▁हैदराबाद	-4936
काता	-4937
▁ईरान	-4938
▁स्टेशन	-4939
▁उल्लंघन	-4940
▁निकालने	-4941
स्ट्रेलिया	-4942
▁असह	-4943
▁डिज	-4944
दायिक	-4945
▁ट्रे	-4946
▁शांत	-4947
▁पहाड़ी	-4948
am	-4949
▁पदों	-4950
▁बहुमत	-4951
▁u	-4952
शाह	-4953
जीवन	-4954
▁मानता	-4955
▁अमरीकी	-4956
▁घृ	-4957
▁इच्छ	-4958
▁फैसला	-4959
▁प्रतीक्षा	-4960
ायतों	-4961
▁पांड	-4962
▁मातृ	-4963
क्षणिक	-4964
ष्णु	-4965
▁एकदम	-4966
▁प्लस	-4967
कल्पिक	-4968
▁फु	-4969
वर्ड	-4970
ैण्ड	-4971
▁धा	-4972
जीवी	-4973
मानी	-4974
र्थी	-4975
▁आयी	-4976
▁कागज	-4977
▁मुगल	-4978
▁जापान	-4979
▁परिसर	-4980
▁व्यापारी	-4981
▁वर्मा	-4982
▁संपदा	-4983
▁पहुंचे	-4984
रलाल	-4985
▁तदन	-4986
▁अभ्य	-4987
▁आकलन	-4988
▁मुंह	-4989
▁साझा	-4990
▁शिक्षकों	-4991
कू	-4992
▁शौ	-4993
ार्ट	-4994
श्वास	-4995
▁कपड़े	-4996
▁पुरूष	-4997
▁मुकदमा	-4998
▁शान्त	-4999
▁प्रजनन	-5000
▁पाप	-5001
द्दीन	-5002
▁सम्भव	-5003
▁जर्मनी	-5004
▁थोड़ी	-5005
▁देखता	-5006
▁पार्क	-5007
▁विवरणी	-5008
बो	-5009
रस	-5010
ंधन	-5011
▁एल्	-5012
▁कड़ी	-5013
▁जोड़ा	-5014
▁दस्तावेजों	-5015
▁प्रयोगशाला	-5016
राशि	-5017
ुत्व	-5018
▁कर्ण	-5019
▁वैकल्पिक	-5020
्रु	-5021
▁लगते	-5022
▁हाथी	-5023
▁पुस्तकों	-5024
ज़े	-5025
्नि	-5026
▁चुप	-5027
तावनी	-5028
▁स्वीकृत	-5029
ैट	-5030
▁ज्यो	-5031
▁मानवता	-5032
१३	-5033
▁तृ	-5034
▁सिवाय	-5035
▁किन्हीं	-5036
▁पूर्णतः	-5037
्टा	-5038
▁जला	-5039
पू	-5040
▁जमान	-5041
▁समझता	-5042
बान	-5043
▁लकड़ी	-5044
इयां	-5045
▁गहराई	-5046
▁वापसी	-5047
▁धन्यवाद	-5048
▁विनियमन	-5049
कलाप	-5050
▁गईं	-5051
▁हां	-5052
र्दू	-5053
▁चेक	-5054
▁चेतावनी	-5055
पूर	-5056
▁कॉल	-5057
ाधिकार	-5058
▁रिक्त	-5059
▁जवाहरलाल	-5060
जो	-5061
लभ	-5062
▁बैठे	-5063
ासंगिक	-5064
▁सूचित	-5065
▁उल्लिखित	-5066
▁प्रतिवादी	-5067
ड्य	-5068
▁पाता	-5069
▁पैके	-5070
▁संगठित	-5071
▁साधनों	-5072
▁खड़ी	-5073
▁गौरव	-5074
▁संधि	-5075
▁रोगों	-5076
▁उत्तेज	-5077
▁उन्हीं	-5078
▁पहलुओं	-5079
रेख	-5080
▁जमी	-5081
▁विवेक	-5082
▁सम्पर्क	-5083
▁पढ	-5084
प्ति	-5085
र्गी	-5086
▁दार्	-5087
▁भेजने	-5088
▁तुर्की	-5089
▁बग	-5090
▁तमिलनाडु	-5091
▁सल	-5092
्वान	-5093
▁कही	-5094
▁गाड़ी	-5095
▁मान्य	-5096
▁संभवतः	-5097
ायल	-5098
▁लिंक	-5099
▁उर्दू	-5100
▁कुशलता	-5101
▁प्रतिष्ठित	-5102
ेरे	-5103
▁गद्य	-5104
▁गिरा	-5105
▁मछली	-5106
▁चिन्ह	-5107
▁ड्राइ	-5108
थान	-5109
▁आखिर	-5110
▁माने	-5111
▁निवासी	-5112
▁साझे	-5113
▁दक्षता	-5114
▁कानूनों	-5115
▁नकारात्मक	-5116
गरी	-5117
▁एव	-5118
नलोड	-5119
▁शोर	-5120
शेष	-5121
▁टिप्पण	-5122
▁इंग्लैंड	-5123
ायण	-5124
▁इल	-5125
न्या	-5126
▁चयनित	-5127
▁ब्राउ	-5128
▁पड़ेगा	-5129
▁प्रसंस्	-5130
▁एप	-5131
▁मधु	-5132
▁उग्र	-5133
▁शल्य	-5134
▁चुकता	-5135
▁फलस्वरूप	-5136
ec	-5137
▁भाष्	-5138
▁अंग्रेजों	-5139
▁दुकान	-5140
▁अट	-5141
वाने	-5142
▁किलोमीटर	-5143
▁शो	-5144
▁सीधा	-5145
▁अभिनिर्धारित	-5146
ोहन	-5147
▁अवय	-5148
▁नवं	-5149
▁निरसन	-5150
▁प्रतिबि	-5151
▁स्त्रियों	-5152
▁आपस	-5153
▁लोड	-5154
▁देखी	-5155
▁गांधीजी	-5156
▁उतनी	-5157
▁डॉलर	-5158
▁याता	-5159
▁साहब	-5160
▁अक्षम	-5161
▁क्रांतिक	-5162
▁छिप	-5163
▁बोध	-5164
▁रखकर	-5165
▁स्टेट	-5166
पक्ष	-5167
▁जुल	-5168
▁प्रबल	-5169
▁प्रसाद	-5170
▁व्यवस्थित	-5171
▁आबंट	-5172
▁अपमान	-5173
▁रूपांत	-5174
एच	-5175
धक	-5176
▁शपथ	-5177
▁सतत	-5178
▁शानदार	-5179
▁यानी	-5180
▁तैयारी	-5181
फेसर	-5182
▁हरे	-5183
संरचना	-5184
▁कनेक्शन	-5185
नान	-5186
लिप	-5187
िटल	-5188
▁चीजें	-5189
▁जू	-5190
निंग	-5191
▁सेक	-5192
▁सम्बन्धित	-5193
▁भरो	-5194
▁सिख	-5195
▁पाये	-5196
▁तीनों	-5197
▁विनाश	-5198
▁अंतराल	-5199
▁स्वाधीन	-5200
खन	-5201
ारक	-5202
▁बन्द	-5203
▁उत्तम	-5204
▁अपनाने	-5205
▁ष	-5206
▁दोस्त	-5207
▁नवंबर	-5208
▁प्रतिर	-5209
▁मिश्रण	-5210
जु	-5211
▁अफग	-5212
▁ज्व	-5213
▁सिक	-5214
ष्कार	-5215
▁काला	-5216
▁मुझसे	-5217
▁एकीकृत	-5218
▁कोलकाता	-5219
▁क्व	-5220
▁पहन	-5221
▁मेन	-5222
िवृ	-5223
▁कस	-5224
▁एजेंस	-5225
▁गुणों	-5226
▁चिकित्सक	-5227
वानी	-5228
▁रेड	-5229
▁सड़	-5230
▁कट्टर	-5231
▁पत्रों	-5232
▁संपन्न	-5233
▁माध्यस्थम्	-5234
▁वृद्ध	-5235
▁सैन्य	-5236
▁हिसाब	-5237
▁यातायात	-5238
iv	-5239
कना	-5240
स्को	-5241
▁खून	-5242
▁अखिल	-5243
▁रहेगी	-5244
▁चुनौतियों	-5245
▁पूर	-5246
▁कीटों	-5247
▁खोलने	-5248
▁विश्वसनीय	-5249
ad	-5250
▁त्रि	-5251
▁घनिष्ठ	-5252
▁अनुपालन	-5253
गों	-5254
▁हमे	-5255
▁पैसा	-5256
▁हिमा	-5257
▁जीवों	-5258
▁निष्ठा	-5259
▁गतिविधि	-5260
▁चिकित्सीय	-5261
प्न	-5262
▁नज	-5263
्रीम	-5264
▁अहि	-5265
▁औषध	-5266
▁पोल	-5267
▁वास	-5268
▁काले	-5269
▁अंततः	-5270
▁डाउनलोड	-5271
▁विवादों	-5272
▁प्रोफेसर	-5273
हे	-5274
देन	-5275
प्रद	-5276
▁पोस्ट	-5277
▁मशीनरी	-5278
वारी	-5279
▁कार्यान्वित	-5280
भौ	-5281
ुणा	-5282
ापरी	-5283
ड़ीसा	-5284
▁लाना	-5285
▁शंकर	-5286
▁क्रमशः	-5287
▁अनाज	-5288
लांग	-5289
शनिक	-5290
▁बडे	-5291
▁सकल	-5292
▁वैज्ञानिकों	-5293
राय	-5294
यक्तिक	-5295
▁मंजूर	-5296
▁अपराधी	-5297
▁प्रदत्त	-5298
▁मित्रों	-5299
सेना	-5300
▁ध्वज	-5301
▁परिचित	-5302
▁पुनर्व	-5303
ंसक	-5304
▁घो	-5305
▁लोकसभा	-5306
▁स्थितियों	-5307
▁लोकतांत्रिक	-5308
id	-5309
गामी	-5310
न्दा	-5311
▁अस्थि	-5312
▁किराये	-5313
▁कार्यपालिका	-5314
▁बढ़ते	-5315
▁एजेंसी	-5316
मुच	-5317
▁इकट	-5318
▁घास	-5319
▁उठाए	-5320
▁सभापति	-5321
▁अस्वीकार	-5322
थे	-5323
ाहट	-5324
कियों	-5325
▁आपसे	-5326
▁दोषी	-5327
▁बहाद	-5328
▁प्लेट	-5329
▁तस्वीर	-5330
▁प्रतिफल	-5331
▁प्रमाणित	-5332
स्कर	-5333
▁पीड़ा	-5334
▁महल	-5335
▁बांट	-5336
▁विलंब	-5337
▁दिनांक	-5338
▁दार्शनिक	-5339
▁व्यापारिक	-5340
काया	-5341
▁कुटु	-5342
▁रचनात्मक	-5343
रु	-5344
ोज़	-5345
▁चेहरे	-5346
▁हजारों	-5347
▁सहारा	-5348
कन	-5349
ड़ना	-5350
▁इस्	-5351
त्रिम	-5352
वृत्त	-5353
▁वांछ	-5354
▁आरक्षित	-5355
▁क्रमा	-5356
▁दाखिल	-5357
▁ज्योति	-5358
▁राष्ट्रों	-5359
▁पंचा	-5360
▁डिग्री	-5361
▁मानकों	-5362
▁शैक्षणिक	-5363
▁प्रतिष्ठा	-5364
न्तर	-5365
▁जुड़ी	-5366
▁शत्रु	-5367
▁क्षतिपूर्ति	-5368
क़्	-5369
▁फौ	-5370
िलों	-5371
ब्लिक	-5372
▁हमला	-5373
तन्त्र	-5374
▁दिमाग	-5375
▁माननीय	-5376
▁जायेंगे	-5377
ME	-5378
▁घाटी	-5379
▁आस्था	-5380
▁ट्यूब	-5381
▁सचमुच	-5382
▁विनिधान	-5383
▁छु	-5384
▁घरों	-5385
▁आह्वान	-5386
▁अधिरोपित	-5387
▁सतर्क	-5388
्टे	-5389
्राव	-5390
▁गर्व	-5391
▁कालेज	-5392
▁बढ़कर	-5393
▁निर्देशिका	-5394
he	-5395
लक	-5396
ोनें	-5397
▁रूस	-5398
▁नस्ल	-5399
मेन	-5400
▁देखो	-5401
▁भक्त	-5402
क़्ति	-5403
गोलिक	-5404
▁संभाल	-5405
▁वस्तुएं	-5406
▁शिक्षित	-5407
ँस	-5408
▁बम	-5409
▁राह	-5410
▁असली	-5411
▁गवर्नर	-5412
▁सहयोगी	-5413
▁समुदायों	-5414
▁उभ	-5415
▁बदला	-5416
▁धनराशि	-5417
▁कार्यरत	-5418
▁दिसम्बर	-5419
▁विचारधारा	-5420
▁गि	-5421
▁तू	-5422
चालित	-5423
▁ब्राह्मण	-5424
▁पुस्तिका	-5425
▁प्रासंगिक	-5426
▁पढ़ा	-5427
▁नवम्बर	-5428
▁स्तरीय	-5429
▁कृत्रिम	-5430
▁इंजीनियर	-5431
▁प्रतिरोध	-5432
▁नवी	-5433
▁अभिर	-5434
▁पुण	-5435
▁कथित	-5436
▁कृति	-5437
▁वाहन	-5438
▁सम्रा	-5439
▁परिवर्तनों	-5440
र्जन	-5441
सलों	-5442
्रेता	-5443
▁इकट्	-5444
▁बंदर	-5445
▁हार्ड	-5446
▁भौगोलिक	-5447
ार्इ	-5448
▁नकद	-5449
ोक्ताओं	-5450
▁दुर्भाग्य	-5451
og	-5452
थन	-5453
ंजा	-5454
▁कना	-5455
▁विद्वानों	-5456
▁प्रभावशाली	-5457
यालय	-5458
▁आपसी	-5459
▁ईंधन	-5460
▁मतदान	-5461
▁लीग	-5462
▁अंडे	-5463
▁चट्ट	-5464
▁आदेशों	-5465
▁सामान्यतया	-5466
▁रिस	-5467
▁भावनाओं	-5468
दनी	-5469
िकीय	-5470
▁लिपि	-5471
▁जिसको	-5472
▁श्वेत	-5473
▁टू	-5474
▁फोटो	-5475
▁समेक	-5476
▁प्रक्रम	-5477
▁उपलब्धता	-5478
अल	-5479
ढ़े	-5480
बेस	-5481
बों	-5482
▁धम	-5483
ंतरित	-5484
▁ऑडियो	-5485
ख्त	-5486
हीत	-5487
▁सीता	-5488
▁स्तन	-5489
▁लेखकों	-5490
▁उत्पादक	-5491
▁परिस्थिति	-5492
▁अमर	-5493
▁फाइ	-5494
▁तलाश	-5495
दाताओं	-5496
▁मासिक	-5497
▁खतरनाक	-5498
▁असामान्य	-5499
▁पाइ	-5500
▁बुल	-5501
▁बनता	-5502
▁शासक	-5503
▁जमानत	-5504
▁उड़ीसा	-5505
ोद	-5506
कात	-5507
विदा	-5508
स्पति	-5509
स्फोट	-5510
▁अपवाद	-5511
▁लेंगे	-5512
▁संवेद	-5513
▁अनुदेश	-5514
▁अभ्यास	-5515
IN	-5516
▁अच	-5517
▁पूर्वा	-5518
▁उपेक्षा	-5519
▁दर्शाता	-5520
▁चावल	-5521
▁अर्जन	-5522
▁क्रेड	-5523
जाल	-5524
पेश	-5525
ंडिक	-5526
▁कीम	-5527
▁मेम	-5528
▁अवरोध	-5529
▁सेवान	-5530
▁सुन्दर	-5531
▁भव	-5532
वर्त	-5533
▁ईमान	-5534
▁अग्नि	-5535
▁शेयरों	-5536
▁इकाइयों	-5537
▁ऊतक	-5538
ation	-5539
▁अतीत	-5540
▁कहाँ	-5541
▁अज्ञात	-5542
ोचित	-5543
साइटी	-5544
▁हाउस	-5545
▁निबंध	-5546
▁अपेक्षाकृत	-5547
▁चमक	-5548
▁उपरा	-5549
▁गणित	-5550
▁गीता	-5551
▁लंबाई	-5552
▁दीक्षा	-5553
▁अपी	-5554
▁जंगल	-5555
▁तीसरा	-5556
▁वैदिक	-5557
ानिस्तान	-5558
▁रजिस्टर	-5559
▁संक्षेप	-5560
▁पूर्ववर्ती	-5561
वेट	-5562
क्की	-5563
▁बिट	-5564
▁सूच	-5565
▁उत्प	-5566
▁गहरे	-5567
झा	-5568
जनों	-5569
▁नाब	-5570
▁शुक्र	-5571
▁अनुक्रम	-5572
▁मुख्यतः	-5573
▁लंदन	-5574
▁अंकित	-5575
▁अभिप्र	-5576
▁नदियों	-5577
▁रिकॉर्ड	-5578
▁प्रसंस्करण	-5579
ँचे	-5580
स्तु	-5581
▁जुर्म	-5582
▁सोसाइटी	-5583
ंपा	-5584
▁कम्	-5585
▁गोरा	-5586
▁बुरी	-5587
स्परिक	-5588
▁सुनने	-5589
▁वार्ता	-5590
▁हिमाचल	-5591
▁कार्मिक	-5592
वत्	-5593
▁अजी	-5594
▁बेर	-5595
▁यान	-5596
▁योजनाएं	-5597
वाँ	-5598
▁कुरान	-5599
▁चुक	-5600
▁कैंसर	-5601
▁मतभेद	-5602
▁दिखाने	-5603
▁प्रणालियों	-5604
▁पैकेज	-5605
▁त्वरित	-5606
▁प्रचालन	-5607
▁प्रसारण	-5608
▁केंद्रों	-5609
▁संग्रहालय	-5610
्द	-5611
रणों	-5612
▁परत	-5613
▁मेघ	-5614
▁आईटी	-5615
▁मादा	-5616
▁पक्षी	-5617
▁पिछली	-5618
▁आस्तियों	-5619
▁असल	-5620
▁टिकट	-5621
चन्द्र	-5622
▁सीखने	-5623
▁राज्यक्षेत्र	-5624
ेस	-5625
क्सा	-5626
▁अगली	-5627
▁निधन	-5628
▁रखती	-5629
▁ज़रूर	-5630
▁फायदा	-5631
▁अहं	-5632
▁तनाव	-5633
▁साथी	-5634
▁बोलते	-5635
▁डाक्टर	-5636
▁सेक्टर	-5637
▁निर्णयों	-5638
▁व्युत्पन्न	-5639
ितु	-5640
▁आयकर	-5641
▁आयुर्	-5642
▁विनिया	-5643
tr	-5644
ानुभूति	-5645
▁परेशान	-5646
▁अनुमोदित	-5647
▁ऑफ़	-5648
▁खर्	-5649
▁खुला	-5650
▁मोटे	-5651
▁रामायण	-5652
▁प्रोटोक	-5653
▁संकल्पना	-5654
▁नकदी	-5655
▁बंबई	-5656
▁मौका	-5657
▁दशकों	-5658
▁अध्यक्षता	-5659
डन	-5660
▁क़्यों	-5661
▁विष्णु	-5662
ोपण	-5663
▁सोने	-5664
▁आमंत्रित	-5665
प्ट	-5666
नाइट	-5667
▁बलि	-5668
▁शासित	-5669
▁मंजूरी	-5670
▁तदनुसार	-5671
▁पारस्परिक	-5672
डो	-5673
दूरी	-5674
▁वाम	-5675
नेक्ट	-5676
▁पाना	-5677
▁बचने	-5678
▁बयान	-5679
▁संगणक	-5680
▁अन्तिम	-5681
िमा	-5682
▁डो	-5683
भाषण	-5684
▁किल	-5685
▁ताज	-5686
▁बचाने	-5687
▁सौंदर	-5688
▁समर्पण	-5689
▁तुम्हारी	-5690
▁वैयक्तिक	-5691
▁व्याख्यान	-5692
मंड	-5693
सेस	-5694
▁पन	-5695
ोसिए	-5696
▁बनना	-5697
▁मानदंड	-5698
▁कच	-5699
▁लोप	-5700
▁चेन्न	-5701
▁लिखते	-5702
▁क्रेडिट	-5703
▁विन्यास	-5704
▁लक्ष्यों	-5705
▁नल	-5706
क्कर	-5707
▁खबर	-5708
▁मस्	-5709
▁वजन	-5710
संख्य	-5711
▁स्टा	-5712
▁व्यस्त	-5713
▁सितम्बर	-5714
चाप	-5715
णित	-5716
▁हथियार	-5717
ंर	-5718
छा	-5719
एमई	-5720
सार	-5721
▁साक्षा	-5722
डि	-5723
ूण	-5724
कीन	-5725
▁ढल	-5726
▁टीका	-5727
▁सहेज	-5728
▁दांडिक	-5729
▁प्रबंधक	-5730
णि	-5731
ुरत	-5732
▁काली	-5733
ियुक्त	-5734
▁अनन्त	-5735
▁गर्मी	-5736
▁संगणना	-5737
▁विकासशील	-5738
▁तारा	-5739
▁लगाए	-5740
▁वरन्	-5741
▁सलाहकार	-5742
१४	-5743
आईआर	-5744
▁आदर	-5745
▁खनिज	-5746
ब्ल्यू	-5747
▁चलाया	-5748
▁शाखाओं	-5749
▁उद्यमों	-5750
▁इंजीनियरी	-5751
ांसी	-5752
▁अर्ज	-5753
ष्म	-5754
ेंच	-5755
▁पेर	-5756
▁गलती	-5757
▁दौड़	-5758
▁नर्म	-5759
ानुसार	-5760
▁भाग्य	-5761
▁रासाय	-5762
प्राप्त	-5763
▁चाहूंगा	-5764
▁अवसंरचना	-5765
बीर	-5766
▁टॉ	-5767
▁आवि	-5768
▁मौत	-5769
▁इसको	-5770
▁विजे	-5771
व्यापी	-5772
▁कवियों	-5773
▁पुराना	-5774
▁रिजर्व	-5775
▁परंपरागत	-5776
दू	-5777
▁फुट	-5778
▁वासी	-5779
▁स्वप्न	-5780
▁आकांक्षा	-5781
▁अभिव्यक्त	-5782
▁खर	-5783
▁उपरो	-5784
▁सबूत	-5785
कारिता	-5786
▁अंतरित	-5787
खर	-5788
▁ऊंची	-5789
▁इन्द्र	-5790
▁अधीनस्थ	-5791
▁सेवानिवृ	-5792
▁टर्म	-5793
▁तीर्थ	-5794
▁बल्लेबाज	-5795
हता	-5796
▁रन	-5797
ामिन	-5798
▁समू	-5799
▁पैनल	-5800
▁आंकड़े	-5801
▁निकलने	-5802
▁देवताओं	-5803
▁छत	-5804
▁पॉ	-5805
▁डिप	-5806
▁रचनाओं	-5807
१क	-5808
▁अद्व	-5809
▁सृजित	-5810
▁उपरोक्त	-5811
▁स्वै	-5812
▁संयोजन	-5813
्फ	-5814
▁आभ	-5815
▁विट	-5816
▁आजाद	-5817
▁पंजाबी	-5818
▁अभियोजन	-5819
▁पेट्रोल	-5820
aa	-5821
▁जॉ	-5822
▁मं	-5823
▁पारि	-5824
▁अक्षर	-5825
▁सम्मानित	-5826
▁पाठक	-5827
▁संचित	-5828
▁हरिया	-5829
▁हड़	-5830
स्तीन	-5831
▁पचास	-5832
▁वन्य	-5833
▁निरूप	-5834
▁जानवरों	-5835
▁संग्रहण	-5836
▁पुस्तकालय	-5837
▁प्रशिक्षित	-5838
िथ	-5839
विन	-5840
श्रे	-5841
स्तीनी	-5842
▁लाभों	-5843
▁वैष्ण	-5844
▁दिखाएँ	-5845
▁विनियामक	-5846
▁किश	-5847
▁नती	-5848
▁टेक्	-5849
▁मोहन	-5850
▁लिखना	-5851
▁प्रोटीन	-5852
▁पुस्तकें	-5853
▁रासायनिक	-5854
▁अवर	-5855
शुल्क	-5856
▁अनुया	-5857
▁उपग्रह	-5858
ार्थियों	-5859
▁अधिवेशन	-5860
▁नियंत्रक	-5861
िनल	-5862
पक्व	-5863
विंद	-5864
▁दांत	-5865
▁सेंट	-5866
▁तीसरी	-5867
▁धूम	-5868
▁मेज	-5869
स्टर	-5870
▁बडा	-5871
▁कमीशन	-5872
▁स्पर्श	-5873
▁at	-5874
ूँगा	-5875
▁रिज़	-5876
▁श्रो	-5877
▁प्राइ	-5878
ध्व	-5879
▁of	-5880
ानाथ	-5881
▁दमन	-5882
▁वेश	-5883
▁भिन्	-5884
▁अपितु	-5885
▁तुमने	-5886
▁संतुष्ट	-5887
▁अखबार	-5888
▁कविताओं	-5889
ोधन	-5890
पर्य	-5891
▁ऊंचे	-5892
▁गर्भा	-5893
▁बताते	-5894
▁पूर्णता	-5895
▁स्कूलों	-5896
तो	-5897
uot	-5898
▁कहे	-5899
▁एण्ड	-5900
▁तत्स	-5901
▁लगने	-5902
▁होटल	-5903
▁अधिका	-5904
▁फसलों	-5905
▁परिश्रम	-5906
▁क्यू	-5907
▁जाया	-5908
▁कृत्य	-5909
▁अंग्रेज़ी	-5910
पोषण	-5911
ेनिस	-5912
▁विषा	-5913
▁आकर्षण	-5914
▁निष्पक्ष	-5915
▁परिकल्पना	-5916
ूनी	-5917
ण्डल	-5918
▁निचले	-5919
▁परिपक्व	-5920
▁सैनिकों	-5921
▁सौंदर्य	-5922
▁पूर्णतया	-5923
ैंक	-5924
▁शर	-5925
र्मी	-5926
▁तंग	-5927
▁दलों	-5928
▁विधा	-5929
▁प्रेमच	-5930
▁विधायी	-5931
▁स्वाधीनता	-5932
▁कार्यालयों	-5933
कारा	-5934
ूकता	-5935
▁हिल	-5936
▁कराई	-5937
▁छुट्टी	-5938
▁सम्पन्न	-5939
▁उन्होनें	-5940
im	-5941
साई	-5942
पीसी	-5943
ेडकर	-5944
▁सबके	-5945
▁ग्रस्त	-5946
▁मरम्मत	-5947
▁प्रभार्य	-5948
सेट	-5949
िक्र	-5950
▁बटन	-5951
▁लम्बे	-5952
एक	-5953
▁जगत	-5954
▁जुट	-5955
▁ह्र	-5956
▁सार्वभौ	-5957
बाई	-5958
▁अमल	-5959
▁एक्	-5960
▁संभ	-5961
▁ग्रे	-5962
▁चित्रण	-5963
▁समर्थित	-5964
▁सहानुभूति	-5965
▁फिलीस्तीनी	-5966
टो	-5967
गें	-5968
▁उपज	-5969
▁ज़ि	-5970
▁सज्	-5971
▁विस्फोट	-5972
▁क्रांतिकारी	-5973
मों	-5974
▁तरल	-5975
क्षरता	-5976
▁कनाडा	-5977
▁यहूदी	-5978
▁अभिभाषण	-5979
▁लेखापरी	-5980
▁आधा	-5981
▁शर्तें	-5982
▁विधियां	-5983
ुश	-5984
दूत	-5985
▁असी	-5986
▁बसव	-5987
▁प्रतिस्पर्धा	-5988
ड्र	-5989
▁मील	-5990
▁विदेशों	-5991
▁वास्तविकता	-5992
तकों	-5993
▁दाम	-5994
▁मिटा	-5995
▁सूजन	-5996
▁बनाती	-5997
शाही	-5998
▁विधाय	-5999
दर्शिता	-6000
▁सफलतापूर्वक	-6001
ैस	-6002
चिक	-6003
▁सेन	-6004
▁नर्स	-6005
▁प्राणी	-6006
▁संदत्त	-6007
शित	-6008
हाल	-6009
▁जाह	-6010
▁ठाक	-6011
▁मंडप	-6012
▁कमांड	-6013
▁इन्हीं	-6014
▁वृत्ति	-6015
▁प्रावधानों	-6016
खिक	-6017
पश्च	-6018
▁इंत	-6019
▁अव्य	-6020
▁क्रय	-6021
▁सकने	-6022
▁मुकाबले	-6023
▁सोल	-6024
▁पीने	-6025
▁भरने	-6026
▁शादी	-6027
त्तियों	-6028
▁बहादुर	-6029
तना	-6030
वाणी	-6031
▁आधे	-6032
▁घात	-6033
▁नमक	-6034
▁बहन	-6035
▁कारख	-6036
▁जानना	-6037
▁कलाकार	-6038
▁निपटने	-6039
ढ़ा	-6040
ल्फ	-6041
▁स्ट्र	-6042
▁अनुज्ञा	-6043
▁महासागर	-6044
टाई	-6045
▁आवेदक	-6046
▁सोचते	-6047
▁वितरित	-6048
▁टेलीफोन	-6049
▁समस्याएं	-6050
▁बढा	-6051
▁शरण	-6052
▁आपदा	-6053
▁प्रव	-6054
▁सार्थ	-6055
▁हिन्दुस्तान	-6056
▁शेर	-6057
▁जागरूकता	-6058
▁तत्कालीन	-6059
ालों	-6060
▁आमदनी	-6061
▁नारायण	-6062
▁नवान्वेष	-6063
▁स्वचालित	-6064
os	-6065
▁बढ़ता	-6066
▁भत्ता	-6067
व्यवहार	-6068
▁उत्पादकता	-6069
िट्	-6070
हवीं	-6071
▁अड्ड	-6072
▁संगत	-6073
▁थोड़े	-6074
▁रूपये	-6075
▁अनुशासन	-6076
▁भागीदार	-6077
▁कम्प्यूटर	-6078
▁धान	-6079
ुक़्त	-6080
▁वैसा	-6081
▁इनपुट	-6082
▁एजेंसियों	-6083
us	-6084
यंती	-6085
▁विघ	-6086
नीतिक	-6087
▁मानस	-6088
▁मोड़	-6089
तापूर्वक	-6090
▁मिश्रित	-6091
▁मुहम्मद	-6092
▁वनस्पति	-6093
▁कार्यकारी	-6094
गित	-6095
ृंग	-6096
▁vi	-6097
▁लड	-6098
▁ट्रेड	-6099
▁नमूने	-6100
▁भरपूर	-6101
▁रिज़र्व	-6102
▁रूपरेखा	-6103
र्ता	-6104
▁प्य	-6105
▁आन्द	-6106
▁जल्द	-6107
▁स्वि	-6108
▁कारगर	-6109
▁भरोसा	-6110
▁अप्रत्य	-6111
▁गिरफ्तारी	-6112
▁प्रयोक्ता	-6113
▁मानने	-6114
किम	-6115
▁ढेर	-6116
▁नौकर	-6117
▁उन्हे	-6118
▁पड़ने	-6119
बु	-6120
▁देखिए	-6121
▁सर्वप्र	-6122
घन	-6123
ूलन	-6124
डीएफ	-6125
ादेश	-6126
ायिक	-6127
▁जरा	-6128
दृश्य	-6129
▁इराक	-6130
▁खुली	-6131
▁दिल्	-6132
▁बाढ़	-6133
▁उत्कृष्टता	-6134
▁विशेषाधिकार	-6135
िफ	-6136
▁चक	-6137
▁रॉ	-6138
▁यों	-6139
▁अरबी	-6140
▁अवकाश	-6141
▁000	-6142
▁अतिक	-6143
▁शस्त्र	-6144
▁मुलाकात	-6145
▁व्यष्टि	-6146
▁परिणामों	-6147
ंचल	-6148
चेंज	-6149
▁चित	-6150
▁बहि	-6151
▁दत्त	-6152
▁निर्ण	-6153
▁पार्ट	-6154
▁मिलना	-6155
▁प्रविष्ट	-6156
▁ठे	-6157
▁कंट	-6158
▁सकी	-6159
▁बैठा	-6160
▁उपभोग	-6161
▁लाखों	-6162
वीय	-6163
▁मैच	-6164
▁रवि	-6165
▁राधा	-6166
▁स्ने	-6167
▁जंगली	-6168
▁जिलों	-6169
▁ज्ञापन	-6170
▁जरूरतों	-6171
भु	-6172
काव	-6173
▁अफ़	-6174
▁सदनों	-6175
▁मजदूरी	-6176
▁नाबार्ड	-6177
▁अधिसूचित	-6178
▁रै	-6179
▁बुक	-6180
▁आजकल	-6181
▁यहीं	-6182
▁परिसी	-6183
र्फ़	-6184
▁बेस	-6185
▁शुरूआ	-6186
▁कार्बन	-6187
▁पुनर्ग	-6188
▁बढ़ाना	-6189
▁राष्ट्री	-6190
ay	-6191
मेह	-6192
रोग	-6193
▁नु	-6194
टकों	-6195
▁चिर	-6196
▁श्ल	-6197
मित्त	-6198
▁आवश्य	-6199
▁उठाना	-6200
▁स्थूल	-6201
▁वर्गीकरण	-6202
मिन	-6203
▁फ़ॉ	-6204
▁हानिक	-6205
▁कनेक्ट	-6206
▁अफगानिस्तान	-6207
▁शोषण	-6208
▁उपदेश	-6209
▁जयंती	-6210
▁मराठी	-6211
▁शिल्प	-6212
▁राजकुमार	-6213
▁तप	-6214
ासित	-6215
▁आँख	-6216
▁बड़	-6217
▁बाय	-6218
चरिता	-6219
▁चौथा	-6220
▁बर्फ	-6221
▁समता	-6222
▁आनुवंश	-6223
▁पार्श्व	-6224
▁बत	-6225
▁केश	-6226
▁भ्रम	-6227
▁मोर्	-6228
▁शास्त्री	-6229
्ह	-6230
▁सफाई	-6231
▁मिस्र	-6232
▁साक्ष	-6233
▁डिजिटल	-6234
▁दूरस्थ	-6235
▁गणतंत्र	-6236
क्ल	-6237
राक	-6238
ोरम	-6239
▁गोद	-6240
▁दया	-6241
▁कराता	-6242
▁कीजिए	-6243
▁वाक्य	-6244
▁समझना	-6245
▁अधिकृत	-6246
▁एकत्रित	-6247
▁सिफारिशों	-6248
एगा	-6249
द्दी	-6250
▁इंकार	-6251
▁सम्राट	-6252
▁सुचरिता	-6253
▁पहुंचाने	-6254
मेट	-6255
▁नाक	-6256
ख़्या	-6257
▁एमएस	-6258
▁किमी	-6259
▁गोली	-6260
▁बताने	-6261
▁इलाकों	-6262
▁स्वदेश	-6263
▁दंत	-6264
▁देह	-6265
▁औषधि	-6266
▁विलय	-6267
त्रियों	-6268
▁विडियो	-6269
▁संग्राम	-6270
▁सौभाग्य	-6271
पद	-6272
सास	-6273
ेटी	-6274
▁नाय	-6275
▁फेंक	-6276
क्रामक	-6277
▁अतिमान	-6278
▁खरीदने	-6279
▁अवमानना	-6280
▁स्रोतों	-6281
▁राजमार्ग	-6282
▁निर्वाचित	-6283
▁बांग्लादेश	-6284
▁छू	-6285
▁सीधी	-6286
▁चिंतन	-6287
▁नोटिस	-6288
▁यात्री	-6289
▁ज्यादातर	-6290
▁ः	-6291
▁घन	-6292
स्मिक	-6293
▁घृणा	-6294
▁डाले	-6295
▁सबको	-6296
▁आंखों	-6297
पार	-6298
▁घुट	-6299
षेध	-6300
▁कंध	-6301
▁घोष	-6302
▁भूख	-6303
▁राजी	-6304
▁उपनिवेश	-6305
मुखी	-6306
▁ओपन	-6307
▁पढ़ाई	-6308
▁वृत्त	-6309
▁दुर्लभ	-6310
वेल	-6311
▁टक	-6312
▁आकृति	-6313
▁निवेशकों	-6314
▁भव्य	-6315
▁जानवर	-6316
▁किराया	-6317
▁ग्रन्थ	-6318
▁निराशा	-6319
▁दस्तावेज़	-6320
बरा	-6321
रीन	-6322
▁दह	-6323
▁नं	-6324
णुओं	-6325
ताएं	-6326
वकों	-6327
शब्द	-6328
▁वरीय	-6329
क्तियों	-6330
ur	-6331
पल	-6332
▁गुट	-6333
▁प्राप	-6334
▁वैष्णव	-6335
▁उपलब्धियों	-6336
▁नो	-6337
ल्ली	-6338
▁पान	-6339
▁आईसी	-6340
▁सिरे	-6341
च्छेदन	-6342
▁अंगों	-6343
▁मस्जि	-6344
▁इस्लामवादी	-6345
ब्बे	-6346
▁लाह	-6347
▁टाइप	-6348
▁टेनिस	-6349
▁निर्व	-6350
▁जोड़ें	-6351
▁सर्वप्रथम	-6352
▁an	-6353
त्रि	-6354
▁बोझ	-6355
▁मेहन	-6356
्रदायिक	-6357
▁आकस्मिक	-6358
▁श्रद्धा	-6359
▁क़्योंकि	-6360
१५	-6361
्चर	-6362
▁बैक	-6363
ंबेडकर	-6364
▁तालाब	-6365
ंय	-6366
▁नजदी	-6367
▁टैगोर	-6368
▁लम्बी	-6369
▁एशियाई	-6370
▁जैसाकि	-6371
▁प्रतिनिधियों	-6372
जक	-6373
ण्ट	-6374
▁अँ	-6375
▁पुष्प	-6376
▁आकर्षक	-6377
▁इस्पात	-6378
शनी	-6379
म्मा	-6380
▁निभ	-6381
▁बीत	-6382
▁ऊंचा	-6383
▁प्लग	-6384
▁बुलाया	-6385
▁अप्रत्यक्ष	-6386
ter	-6387
्यक	-6388
▁सच्चे	-6389
▁सुदूर	-6390
▁अन्याय	-6391
▁कर्तव्यों	-6392
ुड	-6393
किट	-6394
िणी	-6395
▁ठहर	-6396
▁पोष	-6397
निहित	-6398
▁लाभा	-6399
▁निक्ष	-6400
▁विकलांग	-6401
मस	-6402
संचार	-6403
▁एक्ट	-6404
▁ढूंढ	-6405
▁बचपन	-6406
▁सेशन	-6407
▁अभिने	-6408
▁कमेटी	-6409
▁खासकर	-6410
▁अनुकरण	-6411
▁नियोजन	-6412
▁समीकरण	-6413
▁प्रतिलिप	-6414
▁संस्थागत	-6415
पाई	-6416
▁नम	-6417
▁जबर	-6418
▁जोड़े	-6419
▁अकादमी	-6420
▁सशस्त्र	-6421
▁विज्ञापन	-6422
भुत	-6423
▁एससीसी	-6424
▁समकालीन	-6425
▁सुधारने	-6426
▁प्रतिवर्ष	-6427
ड्	-6428
ैक्ट	-6429
▁डालर	-6430
▁असंभव	-6431
▁बिन्दु	-6432
▁भ्रष्टा	-6433
▁अपीलार्थी	-6434
लील	-6435
ंबित	-6436
▁यौन	-6437
्यूशन	-6438
▁नज़र	-6439
▁फूलों	-6440
ab	-6441
AME	-6442
ोहर	-6443
▁खार	-6444
▁वसा	-6445
▁अपूर्ण	-6446
▁अहिंसा	-6447
▁इंदिरा	-6448
▁उत्सुक	-6449
▁कृत्यों	-6450
उन	-6451
णता	-6452
लाल	-6453
िवी	-6454
ोरा	-6455
▁ओब	-6456
ृश्य	-6457
▁उदय	-6458
▁संघीय	-6459
▁यूनियन	-6460
▁अवस्थित	-6461
ल्ह	-6462
▁चरम	-6463
▁उत्सव	-6464
▁महान्	-6465
▁मक्	-6466
▁शेख	-6467
▁कोने	-6468
▁भीड़	-6469
▁हुये	-6470
▁इनकार	-6471
ोश	-6472
▁गंध	-6473
▁पते	-6474
▁ह्य	-6475
▁सुपु	-6476
▁दरबार	-6477
▁नमूना	-6478
▁इसलिये	-6479
▁स्वर्ग	-6480
▁त्रुटिः	-6481
जाम	-6482
हाबाद	-6483
ुपयोग	-6484
▁देनी	-6485
▁निस्	-6486
▁विकि	-6487
ोसिएशन	-6488
▁माहौल	-6489
▁संकलन	-6490
▁संव्यवहार	-6491
बीन	-6492
▁मंग	-6493
▁अमृत	-6494
▁पेशी	-6495
▁सामुद	-6496
▁उन्नयन	-6497
▁प्रतिरक्षा	-6498
▁सांप्रदायिक	-6499
फ्र	-6500
ोगे	-6501
स्थल	-6502
▁पेय	-6503
स्थापन	-6504
▁सहभाग	-6505
▁सड़कों	-6506
ोला	-6507
▁घाव	-6508
▁निर्गम	-6509
▁सदस्यता	-6510
▁पूर्वोक्त	-6511
लित	-6512
▁गठ	-6513
▁चिन	-6514
सिद्ध	-6515
श्रेष्ठ	-6516
▁परिसंप	-6517
▁वक्तव्य	-6518
▁प्रत्यर्थी	-6519
▁कच्चे	-6520
▁बम्बई	-6521
▁सोचने	-6522
▁अनुभूति	-6523
▁निमित्त	-6524
खाव	-6525
▁फू	-6526
हारी	-6527
▁वें	-6528
क्साइड	-6529
▁पुराण	-6530
▁सांवि	-6531
▁सुधारों	-6532
▁प्रसंग	-6533
▁समेकित	-6534
▁अनिवासी	-6535
▁कहानियों	-6536
▁उत्तराधिकार	-6537
परक	-6538
▁छः	-6539
िकता	-6540
▁सोव	-6541
▁हमले	-6542
▁गाँधी	-6543
▁ठाकुर	-6544
▁शिष्ट	-6545
▁गोपनीय	-6546
ज़न	-6547
टित	-6548
प्रति	-6549
सूत्र	-6550
▁क्रूर	-6551
▁श्लोक	-6552
▁हरियाणा	-6553
▁पुनरीक्षण	-6554
शंकर	-6555
्रेम	-6556
▁भेजी	-6557
▁माँग	-6558
▁समापन	-6559
▁अवधारण	-6560
▁नेताजी	-6561
▁शुरूआत	-6562
▁स्त्रो	-6563
ँह	-6564
रता	-6565
ोसी	-6566
▁रम	-6567
▁नामा	-6568
▁मारे	-6569
▁असफलता	-6570
▁नाटकों	-6571
▁लाभांश	-6572
▁सिर्फ़	-6573
▁प्रतिबद्धता	-6574
२क	-6575
बिल	-6576
ूरो	-6577
▁केस	-6578
▁गेह	-6579
▁लोह	-6580
▁विच	-6581
दर्शक	-6582
रक्षण	-6583
▁मेगा	-6584
▁रहीं	-6585
▁काफ़ी	-6586
▁दूरसंचार	-6587
▁दम	-6588
बन्धन	-6589
▁कबीर	-6590
▁कोमल	-6591
▁आउटपुट	-6592
▁कौंसिल	-6593
▁मिथ्या	-6594
▁समाजवादी	-6595
hr	-6596
पाट	-6597
▁गिन	-6598
▁मुक	-6599
▁वहन	-6600
▁मूत्र	-6601
हृ	-6602
▁नवा	-6603
▁प्ला	-6604
▁विधवा	-6605
▁भेदभाव	-6606
▁सच्चाई	-6607
▁क्रियान्वयन	-6608
द्म	-6609
▁बेश	-6610
▁बेटे	-6611
▁अपनाई	-6612
▁आंकड़ों	-6613
▁फिलीस्तीन	-6614
१वीं	-6615
▁हंस	-6616
▁असंत	-6617
▁सन्द	-6618
▁हर्ष	-6619
▁अभिदाय	-6620
▁राजपत्र	-6621
▁विटामिन	-6622
▁निर्देशों	-6623
कोष	-6624
नीत	-6625
▁टि	-6626
मूल्य	-6627
▁अपार	-6628
▁छिपा	-6629
▁परित	-6630
▁जाहिर	-6631
▁न्यूय	-6632
विश्वास	-6633
▁उद्भूत	-6634
▁सुश्री	-6635
▁माइक्रो	-6636
▁सत्यापन	-6637
▁केन्द्रों	-6638
▁खज	-6639
▁नायक	-6640
▁सारणी	-6641
▁टाइम्स	-6642
▁तुम्हारा	-6643
▁पुनर्वास	-6644
▁महाद्वीप	-6645
▁साक्षरता	-6646
▁अधिनियमित	-6647
▁पेट्रोलियम	-6648
ैंट	-6649
रानी	-6650
▁उधर	-6651
▁घुस	-6652
▁माउ	-6653
▁विस	-6654
संदेह	-6655
▁अक्ट	-6656
▁ब्यौ	-6657
▁पेटेंट	-6658
▁प्रबन्ध	-6659
▁मजदूरों	-6660
▁साक्षात्कार	-6661
कोट	-6662
गुण	-6663
ठार	-6664
▁तह	-6665
▁नोक	-6666
▁बिर	-6667
पोरेट	-6668
▁अजीब	-6669
▁एससी	-6670
▁सेवक	-6671
▁राजाओं	-6672
▁हिस्सों	-6673
▁भ्रष्टाचार	-6674
▁ar	-6675
▁कोर	-6676
▁टैब	-6677
▁आचार	-6678
▁आवरण	-6679
▁मंगल	-6680
▁पब्लिक	-6681
▁आन्दोलन	-6682
▁निकायों	-6683
▁पक्षियों	-6684
फ़ा	-6685
▁उग	-6686
▁गरि	-6687
▁थोड	-6688
▁निल	-6689
▁आर्य	-6690
▁किंग	-6691
▁पीछला	-6692
▁जिंदगी	-6693
▁अधिनिर्	-6694
▁उन्मूलन	-6695
▁iv	-6696
ेन्ट	-6697
क्रिप	-6698
▁क्री	-6699
▁बताना	-6700
▁आधिकार	-6701
▁हॉ	-6702
▁शराब	-6703
▁हड्डी	-6704
▁रोगियों	-6705
▁हिन्दुओं	-6706
▁रंगम	-6707
▁ग्रीन	-6708
शक	-6709
भक्त	-6710
भूषण	-6711
▁नींव	-6712
▁पुनर	-6713
▁रोचक	-6714
▁खोजने	-6715
▁प्रसव	-6716
▁बताता	-6717
▁मंत्रियों	-6718
▁संवेदनशील	-6719
टने	-6720
स्पी	-6721
▁राव	-6722
▁चलती	-6723
▁पागल	-6724
▁पादप	-6725
▁अभिकरण	-6726
▁शिकायतों	-6727
▁विस्तारित	-6728
▁गड़	-6729
▁लाई	-6730
▁पराज	-6731
तापूर्ण	-6732
▁अज्ञान	-6733
बूझ	-6734
▁वध	-6735
▁गम्	-6736
▁नक्	-6737
▁कर्ता	-6738
▁पृथक्	-6739
▁धर्मों	-6740
ce	-6741
ॉल्ट	-6742
चंद्र	-6743
▁उठता	-6744
▁देगी	-6745
▁असमान	-6746
▁ब्रह्मा	-6747
▁पूर्वोत्तर	-6748
▁सर्वश्रेष्ठ	-6749
यू	-6750
वीर	-6751
▁दब	-6752
▁वर्न	-6753
▁मामूली	-6754
▁श्रद्ध	-6755
▁आश्वासन	-6756
▁मैत्रीपूर्ण	-6757
गंध	-6758
पटल	-6759
महल	-6760
▁पहच	-6761
▁रसी	-6762
▁सोम	-6763
ोत्तर	-6764
▁अनाव	-6765
▁निभाई	-6766
▁इकट्ठा	-6767
▁मुहैया	-6768
▁सामर्थ	-6769
▁सार्थक	-6770
▁अक्टूबर	-6771
▁सम्बद्ध	-6772
▁निर्देशित	-6773
▁गज	-6774
▁अद्	-6775
▁कदा	-6776
दाबाद	-6777
▁रेगि	-6778
▁सिखा	-6779
▁उपाधि	-6780
▁स्वाय	-6781
भूतियों	-6782
▁कामगार	-6783
▁मधुमेह	-6784
▁किलोग्राम	-6785
oc	-6786
षी	-6787
ैत	-6788
रखाव	-6789
▁बृह	-6790
▁सुप	-6791
पोर्ट	-6792
लियों	-6793
▁एनआई	-6794
▁सन्न	-6795
▁कब्जा	-6796
▁बकाया	-6797
▁निर्धन	-6798
▁प्रजाति	-6799
▁उपयोक्ता	-6800
▁पुनर्गठन	-6801
▁प्रस्तावों	-6802
खार	-6803
▁गाँव	-6804
▁कामका	-6805
▁कीटना	-6806
▁सर्विस	-6807
▁अधिकाधिक	-6808
▁अनिश्चित	-6809
बरी	-6810
▁घाट	-6811
▁शब्	-6812
ष्कृत	-6813
▁बेहद	-6814
▁ओबामा	-6815
▁गरिमा	-6816
▁लार्ड	-6817
▁स्नेह	-6818
▁स्नातक	-6819
▁पुरुषों	-6820
▁एक्सचेंज	-6821
▁मुख्यालय	-6822
ut	-6823
कोर	-6824
चलन	-6825
ोन्	-6826
चेतन	-6827
▁दाह	-6828
▁विभेद	-6829
▁सौंपा	-6830
निर्देश	-6831
▁पंचायत	-6832
▁रखरखाव	-6833
▁रिश्ते	-6834
▁गर्भाशय	-6835
▁निर्वहन	-6836
▁मनोरंजन	-6837
▁विधानमंडल	-6838
▁गीतों	-6839
▁श्रेण	-6840
▁निरसित	-6841
▁मोहम्मद	-6842
▁हाई	-6843
▁जीवाणु	-6844
▁डॉक्टर	-6845
▁उपबंधित	-6846
▁समायोजन	-6847
▁स्थिरता	-6848
▁मनुष्यों	-6849
्याल	-6850
योग्य	-6851
▁आश्रम	-6852
▁प्रगा	-6853
▁स्टार	-6854
▁पहुँचा	-6855
▁काउंसिल	-6856
वैज्ञानिक	-6857
▁निर्माता	-6858
ंकी	-6859
▁झग	-6860
▁निप	-6861
▁पदा	-6862
▁बिग	-6863
▁दौरा	-6864
▁समाह	-6865
▁इंगित	-6866
▁बच्चन	-6867
▁रोशनी	-6868
▁साझीदारी	-6869
▁कठिनाइयों	-6870
डों	-6871
▁टो	-6872
▁मरी	-6873
▁अभिल	-6874
▁समझी	-6875
क्टरों	-6876
▁कोयला	-6877
▁मौखिक	-6878
▁अभियोग	-6879
▁प्रदाह	-6880
▁संवेदना	-6881
▁संस्थापित	-6882
▁स्वीकार्य	-6883
ब्ब	-6884
मैन	-6885
हरण	-6886
शिंग	-6887
ुद्व	-6888
▁आगमन	-6889
▁कॉपी	-6890
▁आशंका	-6891
▁मनाया	-6892
▁गम्भीर	-6893
▁नीतिगत	-6894
▁सत्याग्रह	-6895
मीन	-6896
▁बिन	-6897
त्स्य	-6898
शियों	-6899
▁दरों	-6900
▁ज़रूरत	-6901
▁झिल्ली	-6902
▁आधिकारिक	-6903
▁उत्सर्जन	-6904
्ती	-6905
▁बही	-6906
▁हैस	-6907
▁क्ला	-6908
▁गूगल	-6909
▁गोवा	-6910
▁आवासी	-6911
▁खर्चे	-6912
▁मुद्दा	-6913
▁मांसपेश	-6914
▁आयुर्वेद	-6915
▁इलाहाबाद	-6916
ंडे	-6917
▁पतन	-6918
▁चुंब	-6919
▁बोला	-6920
▁सुलझ	-6921
▁तिहाई	-6922
▁बाज़ार	-6923
▁शास्ति	-6924
▁तत्पश्च	-6925
▁हिंदुओं	-6926
नें	-6927
ुतोष	-6928
▁भूक	-6929
▁अहमद	-6930
▁निंदा	-6931
▁सालों	-6932
▁वरीयता	-6933
▁संकीर्ण	-6934
िश्र	-6935
▁माध	-6936
▁सिने	-6937
▁श्रील	-6938
▁नियन्त	-6939
डऋ	-6940
क्तता	-6941
▁तमाम	-6942
▁परिन	-6943
▁बेचने	-6944
▁मजबूर	-6945
▁बादशाह	-6946
▁अनुभवों	-6947
▁उपयोगिता	-6948
▁दीक्षांत	-6949
▁प्रोटोकॉल	-6950
ow	-6951
▁माय	-6952
▁बढ़े	-6953
▁रहकर	-6954
▁आगामी	-6955
▁सोचता	-6956
▁पेशेवर	-6957
▁प्रक्षेप	-6958
▁ध्रु	-6959
▁विरा	-6960
▁विषयक	-6961
▁साकार	-6962
▁एल्गोर	-6963
▁नारी	-6964
▁बेटी	-6965
▁चौड़ाई	-6966
▁निरन्तर	-6967
▁सूचीबद्ध	-6968
▁स्वच्छता	-6969
▁इंजीनियरिंग	-6970
लाइ	-6971
ान्तर	-6972
▁उपास	-6973
▁जगत्	-6974
▁द्रव	-6975
▁बंगला	-6976
▁संकाय	-6977
▁नवीकरण	-6978
▁विख्यात	-6979
▁विशेषज्ञों	-6980
मै	-6981
िज़	-6982
▁बट	-6983
▁गले	-6984
▁फेफ	-6985
▁रोड	-6986
▁अश्व	-6987
▁स्वे	-6988
▁फायदे	-6989
▁अब्दुल	-6990
▁छोड़ने	-6991
▁निधियों	-6992
▁पर्यटकों	-6993
▁लड़कियों	-6994
▁देशवासियों	-6995
▁आदत	-6996
▁नाल	-6997
▁आघात	-6998
▁घटित	-6999
▁मुँह	-7000
▁आजीवन	-7001
▁दुग्ध	-7002
▁पुत्री	-7003
ब्ध	-7004
ोरों	-7005
▁सना	-7006
▁हरी	-7007
▁बांस	-7008
▁सब्ज	-7009
▁सुगम	-7010
▁रंगमंच	-7011
▁प्रगाढ़	-7012
लेखन	-7013
सन्द	-7014
ापुर	-7015
▁अनू	-7016
▁रोका	-7017
▁उड़ान	-7018
▁जर्मन	-7019
▁सहभागिता	-7020
जुट	-7021
बाल	-7022
▁छे	-7023
▁डेस्	-7024
▁लौटने	-7025
▁उन्नति	-7026
▁अध्यापक	-7027
▁अवधारित	-7028
दिता	-7029
▁औरत	-7030
▁ऊँचा	-7031
▁कहती	-7032
▁रोज़	-7033
▁समाम	-7034
▁सेवन	-7035
▁किराए	-7036
▁कां	-7037
▁अशोक	-7038
▁कर्ज	-7039
▁मेहनत	-7040
▁आशुतोष	-7041
▁पीडीएफ	-7042
▁धूल	-7043
▁भरत	-7044
▁बॉक्स	-7045
▁सुनकर	-7046
▁मस्जिद	-7047
▁स्थलों	-7048
▁विनियमित	-7049
▁श्रीलंका	-7050
▁स्वतन्त्र	-7051
केल	-7052
▁गत	-7053
▁जॉन	-7054
▁सटी	-7055
▁अण्ड	-7056
▁जैविक	-7057
▁शब्दा	-7058
▁स्टॉक	-7059
▁स्मारक	-7060
▁सुपुर्द	-7061
▁परिदृश्य	-7062
▁दायित्वों	-7063
मलव	-7064
ट्टा	-7065
▁शीत	-7066
▁कन्न	-7067
▁रोमा	-7068
▁ग्यार	-7069
▁महानि	-7070
▁हटाया	-7071
▁सांख्य	-7072
▁केन्द्रित	-7073
बाबू	-7074
ार्द	-7075
▁योनि	-7076
ढ़ियों	-7077
रूद्दीन	-7078
▁तुरन्त	-7079
▁संचिका	-7080
▁सृष्टि	-7081
▁स्वैच्छिक	-7082
देवी	-7083
न्ता	-7084
मोहन	-7085
▁रुक	-7086
▁बनकर	-7087
▁आश्रय	-7088
▁कपड़ा	-7089
▁विकिरण	-7090
▁टर्मिनल	-7091
▁साथियों	-7092
▁कार्यकलापों	-7093
▁अन्तर्राष्ट्रीय	-7094
जाज	-7095
▁पटल	-7096
▁निकले	-7097
▁दुरुपयोग	-7098
▁परियोजनाएं	-7099
▁रेख	-7100
▁क्षम	-7101
▁रेशम	-7102
▁खारिज	-7103
▁तृतीय	-7104
▁आपत्ति	-7105
▁निर्दोष	-7106
हि	-7107
ोटी	-7108
▁कों	-7109
▁भूट	-7110
चित्य	-7111
ड्यूल	-7112
▁चर्च	-7113
▁त्रिप	-7114
▁पुनरा	-7115
जनात्मक	-7116
▁कुटुम्ब	-7117
▁दीवारों	-7118
▁मंत्रालयों	-7119
▁लेखापरीक्षा	-7120
ओएस	-7121
▁इट	-7122
▁ज्या	-7123
▁रिवा	-7124
्याप्त	-7125
▁एकजुट	-7126
▁दशमलव	-7127
▁परिचालन	-7128
▁मूल्यवान	-7129
दक	-7130
बूती	-7131
▁सैक	-7132
▁किले	-7133
▁उपहार	-7134
▁अवलोकन	-7135
▁व्याया	-7136
▁कार्यकाल	-7137
मिल	-7138
▁घोर	-7139
बुद्ध	-7140
▁मणिप	-7141
▁जिसमे	-7142
▁निदान	-7143
▁महानिदेश	-7144
ir	-7145
▁मेड	-7146
▁इनसे	-7147
▁कॉर्	-7148
▁डिफ़	-7149
▁डेस्कट	-7150
▁गंभीरता	-7151
▁ईमानदारी	-7152
हम	-7153
ीस	-7154
▁पूछता	-7155
▁भारती	-7156
▁मेमोरी	-7157
▁सामर्थ्य	-7158
▁पद्धतियों	-7159
ूर्त	-7160
▁ध्य	-7161
▁भगत	-7162
हीनता	-7163
▁प्रचुर	-7164
▁डब्ल्यू	-7165
▁विधानसभा	-7166
▁प्रगतिशील	-7167
▁सामुदायिक	-7168
▁re	-7169
म्बा	-7170
ेंडर	-7171
▁सूचक	-7172
▁खातों	-7173
▁शर्मा	-7174
▁खिलाड़ी	-7175
गिक	-7176
न्च	-7177
हान	-7178
िसा	-7179
▁ऑप	-7180
▁कड़	-7181
▁मेर	-7182
▁आलेख	-7183
▁गयीं	-7184
▁लोगो	-7185
▁जीवंत	-7186
▁बोलने	-7187
▁पूर्वक	-7188
▁कंप्यूट	-7189
▁संतुलित	-7190
ंड़	-7191
▁ऋतु	-7192
▁लची	-7193
▁कॉन्	-7194
▁व्यास	-7195
▁सभाओं	-7196
▁स्नान	-7197
▁मित्रता	-7198
▁सचिवालय	-7199
▁आओ	-7200
▁अनंत	-7201
▁अन्तः	-7202
▁अभिन्न	-7203
▁निर्वाह	-7204
▁विचित्र	-7205
▁डेस्कटॉप	-7206
▁संक्रिया	-7207
प्पा	-7208
▁खपत	-7209
▁मला	-7210
ेन्द्र	-7211
▁मानों	-7212
▁अंतरिम	-7213
▁कहलाता	-7214
▁अस्पष्ट	-7215
▁निर्माताओं	-7216
▁वसूल	-7217
▁प्रोफ	-7218
▁समाहित	-7219
▁हैसियत	-7220
एव	-7221
ृहीत	-7222
▁लाए	-7223
▁हिमन	-7224
▁बदलें	-7225
▁ब्यूरो	-7226
▁निकालना	-7227
▁गतिविधियां	-7228
ोई	-7229
▁उछ	-7230
▁१६	-7231
ोर्स	-7232
▁आधी	-7233
▁टेल	-7234
▁मुआ	-7235
▁नामों	-7236
▁यात्रियों	-7237
▁क्रियाकलाप	-7238
▁स्थानांतरित	-7239
▁गेट	-7240
▁घड़ी	-7241
▁चलना	-7242
▁निविदा	-7243
▁पाठकों	-7244
टरी	-7245
ाइड	-7246
▁थै	-7247
▁न्य	-7248
▁बाई	-7249
्रेषण	-7250
▁क्षे	-7251
▁यज्ञ	-7252
▁लड़का	-7253
▁विच्छेद	-7254
▁संरक्षित	-7255
ैम	-7256
माला	-7257
▁आँक	-7258
▁उगा	-7259
▁फॉर	-7260
▁बंट	-7261
▁स्या	-7262
संख्यक	-7263
▁क्षमा	-7264
▁निराश	-7265
▁पंद्र	-7266
्यात्मक	-7267
▁परजीवी	-7268
▁प्रभुत्व	-7269
▁प्राइवेट	-7270
▁हानिकारक	-7271
▁निष्पादित	-7272
▁प्रजातियों	-7273
ख्	-7274
यम	-7275
ीर	-7276
ment	-7277
किया	-7278
▁अनो	-7279
▁केल	-7280
▁छेद	-7281
▁नरम	-7282
▁बंधन	-7283
▁बहुल	-7284
धारकों	-7285
▁पड़ोस	-7286
▁संतान	-7287
▁प्रौढ़	-7288
▁व्याकरण	-7289
▁बदरूद्दीन	-7290
▁हार्डवेयर	-7291
इश	-7292
ँजी	-7293
▁पण	-7294
▁शक	-7295
स्पद	-7296
▁एंव	-7297
न्नाथ	-7298
▁जितने	-7299
▁वापिस	-7300
▁आंकड़ा	-7301
▁दुर्गा	-7302
▁बढ़ाया	-7303
▁सोवियत	-7304
बड़	-7305
राई	-7306
▁कण	-7307
▁गर	-7308
▁गौण	-7309
▁ड्रा	-7310
▁दौरे	-7311
▁आवाज़	-7312
▁वर्षो	-7313
▁उपभोक्ताओं	-7314
चु	-7315
बर्ट	-7316
▁आवं	-7317
डियों	-7318
▁मानद	-7319
▁अतिक्रमण	-7320
▁स्वायत्त	-7321
▁कन	-7322
▁नद	-7323
▁फौज	-7324
▁मैथ	-7325
▁मूर्ख	-7326
▁ड्राइव	-7327
▁दोबारा	-7328
▁बंदरगाह	-7329
▁उदाहरणार्थ	-7330
मेर	-7331
िने	-7332
▁In	-7333
▁चूक	-7334
▁दार	-7335
▁धूप	-7336
▁इंजन	-7337
▁गवाह	-7338
▁नाइट	-7339
▁डोमेन	-7340
▁स्टाफ	-7341
▁गतिशील	-7342
▁संस्थाएं	-7343
▁आस्ट्रेलिया	-7344
ॉग	-7345
टकर	-7346
ंतुक	-7347
शुदा	-7348
▁हरा	-7349
▁ड्रग	-7350
▁मधुर	-7351
▁संयोग	-7352
▁वांछित	-7353
▁प्रतिकर	-7354
▁प्राणियों	-7355
▁शास्त्रीय	-7356
▁दीर्घकालिक	-7357
र्षि	-7358
वाया	-7359
▁सुस	-7360
▁औजार	-7361
▁अनन्य	-7362
▁द्वारक	-7363
▁पड़ोसी	-7364
▁चिह्नित	-7365
▁अध्यादेश	-7366
▁प्रख्यात	-7367
ैड	-7368
दिर	-7369
ियस	-7370
▁असं	-7371
▁छंद	-7372
▁लौटा	-7373
▁खोलें	-7374
▁लाहौर	-7375
▁श्रेय	-7376
▁कारकों	-7377
▁लक्ष्म	-7378
▁दिलचस्प	-7379
▁विनियमों	-7380
op	-7381
भाई	-7382
रेशन	-7383
▁बचे	-7384
मार्क	-7385
▁संकु	-7386
▁मास्ट	-7387
▁सच्ची	-7388
▁दंडादेश	-7389
▁उद्यमियों	-7390
्लो	-7391
दिग्ध	-7392
▁ट्रा	-7393
▁संकल	-7394
▁सख्त	-7395
▁अकेला	-7396
▁जाएंगी	-7397
▁रणनीति	-7398
▁परिसीमा	-7399
▁सतर्कता	-7400
ig	-7401
सेल	-7402
मियम	-7403
▁आवृ	-7404
िकेशन	-7405
▁सन्त	-7406
▁इमारत	-7407
▁जगन्नाथ	-7408
▁निर्णायक	-7409
कस	-7410
विर	-7411
▁इधर	-7412
▁घायल	-7413
▁पैरों	-7414
▁बेकार	-7415
िरपेक्ष	-7416
▁अद्भुत	-7417
▁उर्वरक	-7418
▁विपक्ष	-7419
ताप	-7420
पेट	-7421
ाणु	-7422
वर्स	-7423
▁ताक	-7424
हत्या	-7425
▁नानक	-7426
▁सुनी	-7427
▁नाट्य	-7428
▁संपरि	-7429
▁अर्पित	-7430
▁अनावश्यक	-7431
▁डिफ़ॉल्ट	-7432
▁अपर्याप्त	-7433
ity	-7434
दाद	-7435
ुगु	-7436
▁नॉ	-7437
स्सी	-7438
▁कैम	-7439
▁ढाल	-7440
▁वान	-7441
िल्ला	-7442
ियारों	-7443
▁फॉर्म	-7444
▁महाका	-7445
▁उद्धृत	-7446
▁कीमतों	-7447
▁राज़्य	-7448
▁शासकों	-7449
▁अधिनियमों	-7450
जपे	-7451
नाल	-7452
साम	-7453
▁ऊंट	-7454
युद्ध	-7455
▁क्लब	-7456
▁पाती	-7457
▁मृतक	-7458
▁सिंग	-7459
▁अतिथि	-7460
▁आंबेडकर	-7461
▁क्रिस्ट	-7462
▁प्रवर्ग	-7463
▁एसोसिएशन	-7464
▁क्षमताओं	-7465
▁निःशुल्क	-7466
▁संप्रदाय	-7467
▁युक्तियुक्त	-7468
ुलर	-7469
▁बश	-7470
ोहित	-7471
▁कूद	-7472
▁फूट	-7473
▁अतएव	-7474
▁कहकर	-7475
▁मेहर	-7476
▁रूचि	-7477
▁भ्रूण	-7478
▁गुजराती	-7479
▁प्रतिमा	-7480
ers	-7481
▁जादू	-7482
▁विगत	-7483
▁एआईआर	-7484
▁अंतर्व	-7485
▁अर्जुन	-7486
ज्ह	-7487
्तन	-7488
▁नकल	-7489
▁बिख	-7490
िस्टर	-7491
▁आगरा	-7492
▁घातक	-7493
▁मुख़्य	-7494
▁डेटाबेस	-7495
▁पासवर्ड	-7496
▁संख़्या	-7497
▁उम्मीदवार	-7498
खण्ड	-7499
▁मज़	-7500
▁रिफ	-7501
र्देश	-7502
विचार	-7503
▁किस्	-7504
▁पुणे	-7505
▁चेहरा	-7506
▁जानती	-7507
▁टुकड़े	-7508
▁कूटशब्द	-7509
▁लक्ष्मी	-7510
ुलिप	-7511
▁सौह	-7512
▁भयान	-7513
वीक्षा	-7514
▁बालकों	-7515
▁विधायिका	-7516
ेव	-7517
ौप	-7518
यित	-7519
▁बुश	-7520
▁भली	-7521
▁टीवी	-7522
▁धारक	-7523
▁बनायी	-7524
▁प्रेमी	-7525
▁आनुवंशिक	-7526
▁माध्यमिक	-7527
▁साक्षियों	-7528
▁प्राधिकारियों	-7529
▁we	-7530
▁सऋ	-7531
▁अवा	-7532
▁पडे	-7533
▁संश	-7534
ंतव्य	-7535
ोरेशन	-7536
▁चारा	-7537
▁दायर	-7538
▁हेक्ट	-7539
▁जानबूझ	-7540
▁शान्ति	-7541
▁परेशानी	-7542
▁द्वारकानाथ	-7543
ंचन	-7544
▁भि	-7545
षकों	-7546
▁मोर	-7547
ोग्रा	-7548
िवारिक	-7549
▁भूटान	-7550
▁लड़ने	-7551
▁संपादित	-7552
्ली	-7553
▁ओह	-7554
ियॉँ	-7555
▁महो	-7556
▁वेग	-7557
▁कोटि	-7558
▁चलकर	-7559
▁ऊतकों	-7560
▁पहाड़	-7561
▁लगाकर	-7562
▁पिछड़े	-7563
▁निक्षेप	-7564
▁कार्यवाहियां	-7565
कार्	-7566
तिया	-7567
▁डाइ	-7568
▁नाज	-7569
▁एजेंट	-7570
▁बदलना	-7571
▁भेजें	-7572
ुस्तानी	-7573
▁मत्स्य	-7574
▁प्रपत्र	-7575
▁दिलचस्पी	-7576
▁पारदर्शिता	-7577
ड़न	-7578
प्प	-7579
िपी	-7580
▁लखन	-7581
▁दादा	-7582
▁विवा	-7583
▁दायरे	-7584
▁सनातन	-7585
▁गरीबों	-7586
▁ट्रांस	-7587
▁दुर्बल	-7588
▁अपशिष्ट	-7589
▁निरपेक्ष	-7590
▁पर्यवेक्षण	-7591
डू	-7592
▁नास	-7593
▁मौल	-7594
▁अवयव	-7595
▁कन्व	-7596
कृष्णन	-7597
▁अभिप्राय	-7598
ढे	-7599
शिप	-7600
▁बेज	-7601
▁धारित	-7602
▁सेंटर	-7603
▁चुनावों	-7604
▁समावेशी	-7605
▁कंपनियां	-7606
डक	-7607
िद	-7608
ोही	-7609
वेदी	-7610
▁आइए	-7611
ियमित	-7612
क्षकों	-7613
▁निकला	-7614
▁भागवत	-7615
▁उदासीन	-7616
▁एमएसएमई	-7617
▁परिपूर्ण	-7618
वाट	-7619
▁तन	-7620
ष्मा	-7621
ैर्य	-7622
ताबिक	-7623
यंत्र	-7624
▁फलों	-7625
▁तत्पर	-7626
▁पाण्ड	-7627
▁औचित्य	-7628
▁मजबूती	-7629
▁हड़ताल	-7630
▁सत्यापित	-7631
▁पारिवारिक	-7632
ul	-7633
ेलना	-7634
▁जर्	-7635
▁झुक	-7636
▁नाथ	-7637
वर्धन	-7638
▁चोरी	-7639
▁पावर	-7640
▁यथास	-7641
▁काटने	-7642
▁विकृत	-7643
▁साधना	-7644
▁सोसाय	-7645
▁नवीनतम	-7646
▁प्रवास	-7647
▁प्रवासी	-7648
▁विवेकान	-7649
ag	-7650
ap	-7651
ँगा	-7652
ंसी	-7653
▁or	-7654
विजन	-7655
▁वृह	-7656
▁मिलन	-7657
▁विवश	-7658
्रीकरण	-7659
▁संजाल	-7660
▁नर्मदा	-7661
▁समर्थक	-7662
▁लक्षणों	-7663
▁अनुमानित	-7664
▁श्रमिकों	-7665
▁वित्तपोषण	-7666
▁अंतर्विष्ट	-7667
दाई	-7668
नाई	-7669
सनी	-7670
▁गिल	-7671
▁पदक	-7672
▁फर्	-7673
▁रोम	-7674
त्तीस	-7675
▁अन्न	-7676
▁अभिनय	-7677
▁सिंधु	-7678
▁मुताबिक	-7679
▁प्रदेशों	-7680
गीय	-7681
स्थि	-7682
▁भोग	-7683
▁जबरद	-7684
▁धोखा	-7685
▁वनों	-7686
▁क्रोध	-7687
▁जमाने	-7688
▁दावों	-7689
▁अस्थिर	-7690
▁आरोपों	-7691
▁संपादक	-7692
▁काश्मीर	-7693
RO	-7694
ef	-7695
वर्ग	-7696
शिला	-7697
सीआई	-7698
▁पायी	-7699
▁इच्छुक	-7700
▁क्रियाओं	-7701
▁आश्चर्यजनक	-7702
बंद	-7703
▁इम	-7704
कक्ष	-7705
न्दन	-7706
ुल्य	-7707
▁खाद	-7708
▁पवन	-7709
र्कों	-7710
▁पांव	-7711
▁बजाए	-7712
▁दर्जा	-7713
▁फांसी	-7714
▁भयानक	-7715
▁संदिग्ध	-7716
नेस	-7717
्वत	-7718
▁एन्	-7719
▁कैल	-7720
▁टेप	-7721
ारण्य	-7722
▁अम्ल	-7723
▁नाना	-7724
▁अपीलीय	-7725
▁निवेदन	-7726
▁मास्टर	-7727
▁जनजातियों	-7728
▁प्रतिभूतियों	-7729
ेम	-7730
▁व्	-7731
▁सउ	-7732
बिया	-7733
▁ईमेल	-7734
▁लेबल	-7735
▁सीडी	-7736
▁जमींद	-7737
▁परिधि	-7738
▁मुस्क	-7739
▁गिरावट	-7740
▁महर्षि	-7741
▁सर्वथा	-7742
०ख	-7743
टिक	-7744
लाप	-7745
▁उलझ	-7746
▁तित	-7747
▁रेट	-7748
▁अनदे	-7749
▁अब्दु	-7750
▁कोष्ठ	-7751
▁चरणों	-7752
▁श्वसन	-7753
▁आरक्षण	-7754
▁जनजाति	-7755
कश	-7756
डिंग	-7757
▁अटल	-7758
▁कराए	-7759
वस्थित	-7760
▁ग्रुप	-7761
▁शिष्य	-7762
▁स्टाक	-7763
▁मंत्रि	-7764
▁अभिरक्षा	-7765
▁तात्कालिक	-7766
▁याचिकाकर्ता	-7767
▁प्रौद्योगिकियों	-7768
लत	-7769
सो	-7770
▁स्थाई	-7771
▁एकीकरण	-7772
▁जवाबदे	-7773
▁दरवाजे	-7774
▁निरूपित	-7775
▁मंत्रिम	-7776
▁सूचनाओं	-7777
▁तात्पर्य	-7778
▁विक्रेता	-7779
▁विशेषताओं	-7780
▁संभावनाओं	-7781
कर्म	-7782
▁दाँ	-7783
▁वाई	-7784
तीकरण	-7785
▁आजीव	-7786
▁आन्त	-7787
▁प्रभा	-7788
▁द्रव्य	-7789
▁बंगाली	-7790
▁व्यर्थ	-7791
ुलन	-7792
स्वती	-7793
▁पूरक	-7794
▁शाही	-7795
▁आबंटन	-7796
▁संचरण	-7797
▁अर्द्ध	-7798
▁बहुमूल्य	-7799
ॉय	-7800
म्म	-7801
▁फेड	-7802
▁लायक	-7803
▁लेगा	-7804
▁मारने	-7805
▁मूलतः	-7806
▁वयस्क	-7807
▁सुनाई	-7808
▁दंडनीय	-7809
▁चित्रों	-7810
▁सौहार्द	-7811
▁आत्महत्या	-7812
ome	-7813
्रीट	-7814
▁जरुरत	-7815
▁सूचका	-7816
क्रिप्ट	-7817
र्थियों	-7818
▁अनुष्ठ	-7819
▁वाशिंग	-7820
श्र	-7821
▁II	-7822
बंदी	-7823
सर्ग	-7824
▁ढूँ	-7825
▁उतने	-7826
▁टेस्ट	-7827
▁ललिता	-7828
▁सोचना	-7829
▁उद्यमी	-7830
▁कामकाज	-7831
▁संस्कार	-7832
▁स्वदेशी	-7833
मुना	-7834
▁निब	-7835
म्बित	-7836
▁अवगत	-7837
▁पाइप	-7838
▁अवतार	-7839
▁आज्ञा	-7840
▁आभूषण	-7841
▁पीड़क	-7842
▁मास्टर्स	-7843
ंकि	-7844
रेन	-7845
▁उज	-7846
भावी	-7847
शोधन	-7848
▁मुर	-7849
▁गेहूं	-7850
▁घोड़े	-7851
▁जरुरी	-7852
▁बिस्त	-7853
▁यातना	-7854
▁बिलियन	-7855
▁मार्गदर्शक	-7856
▁स्थानांतरण	-7857
un	-7858
ालक	-7859
फ़्ट	-7860
▁बाइ	-7861
▁छोड़ा	-7862
▁मुफ्त	-7863
▁विकेट	-7864
▁नाटकीय	-7865
▁बलिदान	-7866
▁Go	-7867
▁इश	-7868
▁पग	-7869
▁पडा	-7870
▁फेर	-7871
▁बहा	-7872
▁एकड़	-7873
▁डिवी	-7874
▁पटेल	-7875
▁सटीक	-7876
▁सीखा	-7877
▁खेतों	-7878
▁दवाओं	-7879
▁निशान	-7880
▁बुराई	-7881
▁बढ़ाकर	-7882
▁नियोजित	-7883
▁प्रशांत	-7884
▁प्रतिवेदन	-7885
तको	-7886
फीति	-7887
▁गोला	-7888
▁जंतु	-7889
▁प्रॉ	-7890
▁मौके	-7891
▁विकार	-7892
▁सच्चा	-7893
▁पंद्रह	-7894
▁बाजारों	-7895
▁अधिग्रहण	-7896
शेर	-7897
सात	-7898
िती	-7899
यंकर	-7900
▁उठे	-7901
▁धर्	-7902
▁नली	-7903
▁मजा	-7904
▁लगाई	-7905
▁वाणी	-7906
▁खंडों	-7907
▁उपरांत	-7908
▁महिलाएं	-7909
▁सार्वभौमिक	-7910
पहर	-7911
▁कसौ	-7912
▁माला	-7913
▁समीप	-7914
प्रदेश	-7915
वह	-7916
▁रच	-7917
ड़की	-7918
▁नाश	-7919
▁पाय	-7920
▁नींद	-7921
▁बोले	-7922
▁शिरा	-7923
दृष्टि	-7924
▁असंगत	-7925
▁आँखों	-7926
▁छिद्र	-7927
▁बनाएँ	-7928
▁करवाने	-7929
▁फ़ॉन्ट	-7930
▁सिनेमा	-7931
▁अनियमित	-7932
▁चुंबकीय	-7933
▁सम्भावना	-7934
▁नियन्त्रण	-7935
▁पर्यावरणीय	-7936
आइ	-7937
दह	-7938
ायती	-7939
▁जोड	-7940
▁पित	-7941
▁रोब	-7942
▁ईस्ट	-7943
▁बशर्	-7944
▁खाड़ी	-7945
▁नजदीक	-7946
▁अनुभाग	-7947
▁ट्रस्ट	-7948
▁ठहराया	-7949
▁प्रतिलिपि	-7950
थल	-7951
ate	-7952
एनए	-7953
वंत	-7954
चनों	-7955
ापित	-7956
▁ओवर	-7957
▁लहर	-7958
जपेयी	-7959
▁बगैर	-7960
▁सूरज	-7961
▁उठाकर	-7962
▁उपनिष	-7963
▁एक्सट	-7964
▁चाहें	-7965
▁जोड़ी	-7966
▁मार्क	-7967
▁लेखों	-7968
▁मणिपुर	-7969
▁लार्वा	-7970
▁सूचकांक	-7971
ताई	-7972
ॉर्ट	-7973
▁जाप	-7974
▁जूट	-7975
▁साख	-7976
स्ट्र	-7977
▁घुमा	-7978
▁स्पी	-7979
▁इंद्र	-7980
▁लगेगा	-7981
▁स्विच	-7982
▁अंतररा	-7983
▁अनुबंध	-7984
▁चाहेंगे	-7985
▁प्रत्यु	-7986
▁सोसायटी	-7987
▁अद्वितीय	-7988
बुल	-7989
▁बक	-7990
िकरण	-7991
▁बला	-7992
▁बूट	-7993
बोर्ड	-7994
श्यों	-7995
▁रसीद	-7996
▁लिखत	-7997
ष्णुता	-7998
▁बालों	-7999
▁भूकंप	-8000
▁विघटन	-8001
▁पेड़ों	-8002
▁फिल्मों	-8003
▁प्रवाहित	-8004
▁किर	-8005
▁वक्र	-8006
▁समेत	-8007
▁स्टी	-8008
▁भयंकर	-8009
▁गंतव्य	-8010
▁बैठकों	-8011
▁सरकारें	-8012
▁बीमाकर्ता	-8013
डब	-8014
कावट	-8015
▁खनन	-8016
▁वाइ	-8017
▁व्र	-8018
त्विक	-8019
▁कारी	-8020
▁जीने	-8021
▁डाली	-8022
▁बेहत	-8023
▁रत्न	-8024
▁लखनऊ	-8025
▁बदलते	-8026
▁संपादन	-8027
▁स्त्रोत	-8028
▁बीमारियों	-8029
▁सिफारिशें	-8030
▁ऑस्ट्रेलिया	-8031
ुख	-8032
ज़्	-8033
▁१७	-8034
गरीय	-8035
▁भोज	-8036
ंजस्य	-8037
▁इण्ड	-8038
▁बनती	-8039
▁पुकार	-8040
▁मुल्क	-8041
▁दिखायी	-8042
▁निरस्त	-8043
▁रात्रि	-8044
▁विलियम	-8045
ch	-8046
um	-8047
▁सज	-8048
पत्य	-8049
ारिक	-8050
०वें	-8051
▁खैर	-8052
▁बैल	-8053
▁रिए	-8054
वाहिक	-8055
▁कैसा	-8056
ास्टिक	-8057
▁अरुणा	-8058
▁प्रको	-8059
िष्णुता	-8060
▁अग्रसर	-8061
▁समुच्च	-8062
▁सेनाओं	-8063
▁चित्रित	-8064
▁प्रभावों	-8065
िग	-8066
जरी	-8067
▁धनी	-8068
▁किला	-8069
▁दायी	-8070
▁बाबा	-8071
▁हटाए	-8072
▁पुर्त	-8073
▁अंडमान	-8074
▁आचार्य	-8075
▁आत्मनि	-8076
▁आवासीय	-8077
▁वाजपेयी	-8078
▁व्याप्त	-8079
▁सुभाषबाबू	-8080
▁प्रारम्भिक	-8081
▁क्रियाकलापों	-8082
▁झट	-8083
लापन	-8084
▁स्फ	-8085
▁किरण	-8086
▁देहा	-8087
▁सौदा	-8088
नाइटेड	-8089
स्वामी	-8090
▁अर्जी	-8091
▁गवर्न	-8092
AT	-8093
पृ	-8094
लम	-8095
धर्म	-8096
▁सुपर	-8097
क्षमता	-8098
▁चित्त	-8099
▁आजीविका	-8100
▁नीतियां	-8101
▁अंतःस्थापित	-8102
बुद	-8103
▁चट	-8104
म्पर	-8105
ोतरी	-8106
▁the	-8107
▁ग्लो	-8108
▁मेनन	-8109
▁सौदे	-8110
▁कम्पन	-8111
▁गार्ड	-8112
▁ट्रैक	-8113
▁फ्रेम	-8114
▁बलराम	-8115
▁शुष्क	-8116
▁सरलता	-8117
▁हटाना	-8118
▁तेलुगु	-8119
▁दृढ़ता	-8120
▁राजकीय	-8121
▁उत्पादित	-8122
जान	-8123
सेन	-8124
िथ्म	-8125
▁अलं	-8126
▁डेल	-8127
धियां	-8128
नागरी	-8129
▁मेनू	-8130
▁सभ्य	-8131
▁सूखे	-8132
▁तार्क	-8133
▁पट्टे	-8134
▁परिपथ	-8135
▁भीतरी	-8136
▁हल्के	-8137
िश्रमिक	-8138
▁मुद्रित	-8139
▁लाभदायक	-8140
▁विशेषज्ञता	-8141
▁प्रतिस्थापित	-8142
ॉजी	-8143
▁शत	-8144
▁हफ	-8145
▁उजा	-8146
▁जन्	-8147
▁साठ	-8148
▁चलाए	-8149
▁माया	-8150
▁निरोध	-8151
▁स्वाद	-8152
▁पुर्तग	-8153
▁सरस्वती	-8154
▁आविष्कार	-8155
ट्स	-8156
परा	-8157
माही	-8158
▁com	-8159
▁चंद	-8160
▁क्यो	-8161
▁सिलस	-8162
▁इंस्ट	-8163
▁गोपाल	-8164
▁तालिका	-8165
▁चमत्कार	-8166
▁रेगिस्तान	-8167
▁पारिश्रमिक	-8168
ia	-8169
वश्यक	-8170
▁अमीर	-8171
▁तरंग	-8172
▁धीमी	-8173
▁पूछताछ	-8174
▁विजेता	-8175
▁स्नातको	-8176
▁संभावनाएं	-8177
ER	-8178
ोगी	-8179
▁जज	-8180
▁छोर	-8181
▁पंथ	-8182
▁मन्	-8183
▁सती	-8184
▁कुर्	-8185
▁डालना	-8186
▁दर्शक	-8187
▁चिंतित	-8188
▁दिलाने	-8189
▁प्रामा	-8190
▁मशीनों	-8191
▁क्षेत्रफल	-8192
▁अंतर्निहित	-8193
▁शांतिपूर्ण	-8194
थाम	-8195
दायी	-8196
ब्बा	-8197
नेशनल	-8198
ल्लाह	-8199
▁ज्वर	-8200
▁पोषक	-8201
▁फैले	-8202
▁बढ़ी	-8203
▁बलों	-8204
▁सउदी	-8205
▁अवशेष	-8206
▁आंखें	-8207
▁पंचाट	-8208
राधिकारी	-8209
▁तीव्रता	-8210
▁दर्शाया	-8211
▁लक्ष्मण	-8212
▁उत्पत्ति	-8213
▁प्रीमियम	-8214
▁रूपांतरण	-8215
▁उपाध्यक्ष	-8216
▁विशेषताएं	-8217
▁हस्तांतरण	-8218
▁अनुपस्थिति	-8219
वेग	-8220
▁ae	-8221
▁लू	-8222
िल्ल	-8223
▁फिन	-8224
ल्पित	-8225
▁कीर्	-8226
▁खादी	-8227
▁धमकी	-8228
▁फर्क	-8229
▁मुना	-8230
▁मोती	-8231
▁पड़ते	-8232
▁मुद्रण	-8233
▁स्थगित	-8234
▁ग्रंथों	-8235
▁सिक्किम	-8236
▁दिनांकित	-8237
▁वर्गीकृत	-8238
▁संशोधनों	-8239
वात	-8240
ीलाल	-8241
▁कोण	-8242
▁लाप	-8243
▁लेट	-8244
▁खोला	-8245
▁पद्य	-8246
▁हमसे	-8247
▁कारित	-8248
▁मलयाल	-8249
▁छत्तीस	-8250
▁शृंखला	-8251
▁व्यायाम	-8252
▁स्वयंसे	-8253
▁प्रस्तुति	-8254
ञ्	-8255
किक	-8256
रात	-8257
लीफ	-8258
लेस	-8259
▁fe	-8260
▁pr	-8261
िप्र	-8262
▁अधी	-8263
▁कीं	-8264
▁क़ुर	-8265
▁क्षय	-8266
▁टिका	-8267
▁पटना	-8268
▁बेशक	-8269
▁युवक	-8270
▁सिवा	-8271
पत्रों	-8272
▁पूँजी	-8273
▁चुपचाप	-8274
▁हथियारों	-8275
▁राधाकृष्णन	-8276
▁बुरे	-8277
▁वकाल	-8278
▁हाला	-8279
▁हुईं	-8280
▁व्यंग	-8281
▁डिवीजन	-8282
▁ब्रिता	-8283
▁सीरिया	-8284
▁पारिस्थित	-8285
बोध	-8286
राग	-8287
▁थल	-8288
ोग्य	-8289
▁अभय	-8290
▁कमर	-8291
▁मोन	-8292
▁सघन	-8293
▁मुआव	-8294
▁लेनी	-8295
▁सरोज	-8296
▁तुर्क	-8297
▁दोपहर	-8298
▁भ्रमण	-8299
▁समूचे	-8300
▁ताजमहल	-8301
▁लैंगिक	-8302
▁जनजातीय	-8303
म्य	-8304
ित्	-8305
▁उब	-8306
आईटी	-8307
न्सी	-8308
बर्ग	-8309
त्तूर	-8310
▁दुष्	-8311
▁बंदी	-8312
▁यकीन	-8313
▁धैर्य	-8314
▁मानकर	-8315
▁अंशदान	-8316
▁पर्यटक	-8317
▁मणीलाल	-8318
▁नियोक्ता	-8319
▁न्यायपीठ	-8320
▁समाविष्ट	-8321
▁स्नातकोत्तर	-8322
od	-8323
te	-8324
जिन	-8325
ायन	-8326
▁यश	-8327
राइट	-8328
▁नाप	-8329
मुक्त	-8330
▁बताए	-8331
▁आखिरी	-8332
▁उत्पी	-8333
▁चलाना	-8334
▁पत्तन	-8335
ब्दियों	-8336
▁इन्होंने	-8337
▁प्रसारित	-8338
▁सहयोगियों	-8339
गीर	-8340
▁लय	-8341
हाली	-8342
▁अखंड	-8343
▁परमा	-8344
▁मोटी	-8345
▁समनु	-8346
▁चक्कर	-8347
▁जगहों	-8348
▁नतीजा	-8349
▁पढ़ना	-8350
▁फारसी	-8351
▁प्रिंट	-8352
▁निकोबार	-8353
▁मुकाबला	-8354
▁समन्वित	-8355
▁सम्बन्धों	-8356
ैंस	-8357
ogle	-8358
प्रण	-8359
रेटर	-8360
ष्णा	-8361
▁ब्रे	-8362
▁शंका	-8363
▁सतत्	-8364
▁करूंगा	-8365
▁नारियल	-8366
▁देवनागरी	-8367
▁परंपराओं	-8368
▁सामंजस्य	-8369
▁हेक्टेयर	-8370
▁सेवानिवृत्त	-8371
णीत	-8372
बेट	-8373
▁इंच	-8374
▁खाल	-8375
वस्तु	-8376
▁ताजा	-8377
▁मापन	-8378
▁सुलह	-8379
धिकारी	-8380
▁संसद्	-8381
▁समझती	-8382
▁तयशुदा	-8383
▁माइक्र	-8384
▁सर्किट	-8385
▁उपक्रमों	-8386
▁पारदर्शी	-8387
▁निवासियों	-8388
▁रथ	-8389
प्ता	-8390
▁अमान	-8391
▁क्षेञ	-8392
▁दीजिए	-8393
▁रोकथाम	-8394
▁निमंत्र	-8395
▁मॉड्यूल	-8396
▁विश्राम	-8397
▁समितियां	-8398
द्घ	-8399
फलक	-8400
आईसी	-8401
बंधन	-8402
▁हॉल	-8403
स्कृत	-8404
▁ख्या	-8405
▁पेपर	-8406
▁मंदी	-8407
▁हरित	-8408
▁ध्येय	-8409
▁विशेन	-8410
▁जापानी	-8411
ष्ट्रपति	-8412
▁नैतिकता	-8413
▁परिप्रे	-8414
▁ब्रितानी	-8415
▁नगरपालिका	-8416
▁प्लास्टिक	-8417
▁श्रेणियों	-8418
▁उत्तराधिकारी	-8419
ंजर	-8420
रेज	-8421
ड़ने	-8422
पकों	-8423
देशिक	-8424
हार्य	-8425
▁गुस्	-8426
▁चाहा	-8427
▁कार्ट	-8428
▁चार्ट	-8429
▁प्रभु	-8430
▁रंगों	-8431
▁आबंटित	-8432
▁मलयालम	-8433
▁आधुनिकीकरण	-8434
▁रजिस्ट्रीकृत	-8435
ान्	-8436
्रल	-8437
▁AR	-8438
▁झलक	-8439
▁रिव	-8440
▁शाल	-8441
क्टरी	-8442
▁कहें	-8443
▁ड्यू	-8444
▁बनते	-8445
▁भण्ड	-8446
▁कामों	-8447
▁दिखता	-8448
▁दुश्म	-8449
▁अपनाना	-8450
▁निकाले	-8451
▁क्रमांक	-8452
▁ढी	-8453
▁वॉ	-8454
गणना	-8455
▁पाउ	-8456
द्वार	-8457
▁निरी	-8458
क्सीजन	-8459
▁घटकों	-8460
ंत्रिकी	-8461
▁ग्लोबल	-8462
▁सदियों	-8463
▁एल्गोरिथ्म	-8464
अली	-8465
जीत	-8466
▁जह	-8467
शियन	-8468
▁ऋषि	-8469
▁गरम	-8470
▁शंक	-8471
▁पुष्	-8472
पतियों	-8473
▁प्रोज	-8474
▁यूनिक	-8475
▁हास्य	-8476
ोल्यूशन	-8477
▁पोर्टल	-8478
▁प्रिंटर	-8479
ँट	-8480
ूद	-8481
ियाई	-8482
▁डूब	-8483
▁मर्	-8484
▁पुरी	-8485
▁विराम	-8486
▁सहारे	-8487
▁भौतिकी	-8488
▁आदर्शों	-8489
भास	-8490
विड	-8491
ुरु	-8492
ब्रे	-8493
▁खिस	-8494
▁रवै	-8495
▁चंडी	-8496
▁काल्प	-8497
धारियों	-8498
▁बिस्तर	-8499
▁रिश्वत	-8500
▁कृतियों	-8501
▁विधिज्ञ	-8502
se	-8503
वो	-8504
▁Chr	-8505
▁बसे	-8506
▁मता	-8507
▁आयाम	-8508
▁सूखा	-8509
▁शब्दावली	-8510
▁उपन्यासों	-8511
ैश	-8512
ठों	-8513
नीस	-8514
माद	-8515
लेन	-8516
ोटा	-8517
स्तर	-8518
▁अने	-8519
▁ज्य	-8520
▁पिट	-8521
▁हुस	-8522
▁तिलक	-8523
▁भेड़	-8524
▁युसु	-8525
▁मण्डल	-8526
▁सिंधी	-8527
▁चट्टान	-8528
▁निगमित	-8529
▁महाकाव्य	-8530
▁पुनर्निर्	-8531
▁भागीदारों	-8532
▁sa	-8533
जारी	-8534
बारी	-8535
ौर्य	-8536
▁नौका	-8537
▁रुग्	-8538
▁साइन	-8539
▁सुखद	-8540
क्रमित	-8541
न्दर्य	-8542
▁Google	-8543
▁स्वार्थ	-8544
▁टेलीविजन	-8545
▁महानिदेशक	-8546
▁मुख्यमंत्री	-8547
वस	-8548
िमी	-8549
ुवा	-8550
ेरा	-8551
ेली	-8552
ज्जा	-8553
नामा	-8554
ॉक्स	-8555
ोसिस	-8556
▁आभा	-8557
▁गढ़	-8558
▁पैट	-8559
िलोकन	-8560
ेशनों	-8561
▁तैना	-8562
▁देरी	-8563
▁फ्रा	-8564
▁पुष्ट	-8565
▁लिखें	-8566
▁श्वास	-8567
▁अधिष्ठ	-8568
▁धाराओं	-8569
▁स्थावर	-8570
▁उत्प्रे	-8571
▁पर्वतीय	-8572
▁कार्यपाल	-8573
कै	-8574
▁उदर	-8575
▁कवर	-8576
▁सफ़	-8577
दायगी	-8578
▁अपवर्	-8579
▁गर्भव	-8580
▁जायगा	-8581
▁जिज्ञ	-8582
▁नोड्स	-8583
▁हल्का	-8584
कारियों	-8585
▁प्ररूप	-8586
▁बशर्ते	-8587
▁नवान्वेषी	-8588
▁तद	-8589
▁नाभ	-8590
▁कृषक	-8591
ापूर्ण	-8592
▁अंतरा	-8593
▁परमिट	-8594
▁मानवा	-8595
▁चिन्ता	-8596
▁सारांश	-8597
▁कित्तूर	-8598
▁अभिलिखित	-8599
▁भूतपूर्व	-8600
▁वाशिंगटन	-8601
▁अब्दुल्ला	-8602
▁न्यूयार्क	-8603
ub	-8604
डिश	-8605
रीद	-8606
▁एह	-8607
चेरी	-8608
▁परिल	-8609
▁फैली	-8610
▁बंगल	-8611
▁वाहक	-8612
वर्षीय	-8613
▁क़्या	-8614
▁रवाना	-8615
▁वकालत	-8616
▁वादों	-8617
▁असंख्य	-8618
▁नौसेना	-8619
▁प्रेरक	-8620
▁शासकीय	-8621
▁सम्प्र	-8622
▁किनारों	-8623
▁प्रदाता	-8624
▁प्रशासक	-8625
▁जुर्माना	-8626
▁संस्थापक	-8627
डम	-8628
है	-8629
लोक	-8630
्यौ	-8631
▁फंड	-8632
कार्य	-8633
▁ऋणों	-8634
▁्याय	-8635
▁फैसले	-8636
▁उपासना	-8637
▁क्रमिक	-8638
▁मुम्बई	-8639
▁द्वीपों	-8640
▁नामांकन	-8641
▁अतिमानसिक	-8642
▁एर	-8643
खाना	-8644
▁गोर	-8645
▁घों	-8646
▁अविल	-8647
▁चालक	-8648
▁खुराक	-8649
▁फीसदी	-8650
▁युग्म	-8651
▁लगाये	-8652
▁राजवंश	-8653
▁विद्वत	-8654
▁आस्तियां	-8655
▁निर्भरता	-8656
▁अनुप्रयोगों	-8657
जलि	-8658
त्सव	-8659
▁मदर	-8660
▁मीन	-8661
▁उज्ज	-8662
▁मृदा	-8663
▁रावण	-8664
▁सुलभ	-8665
▁एक्सप	-8666
▁क्रोम	-8667
▁गर्दन	-8668
▁बेरोज	-8669
▁परंतुक	-8670
▁तार्किक	-8671
▁कार्यकलाप	-8672
▁प्रत्युत्तर	-8673
▁व्यापारियों	-8674
गृह	-8675
▁डू	-8676
▁फो	-8677
धारक	-8678
▁कैर	-8679
▁टोप	-8680
▁भीम	-8681
नियों	-8682
▁अफसर	-8683
▁कृपा	-8684
▁गाने	-8685
▁गुर्	-8686
▁बादल	-8687
▁श्या	-8688
▁हिला	-8689
▁खेलने	-8690
▁ख्याल	-8691
▁जीतने	-8692
▁साम्य	-8693
▁हममें	-8694
▁उत्थान	-8695
▁सौन्दर्य	-8696
ँकि	-8697
▁कं	-8698
ल्ले	-8699
▁मनी	-8700
धिकरण	-8701
▁किशोर	-8702
▁दंडित	-8703
▁व्यतिक	-8704
▁दर्शकों	-8705
▁देखेंगे	-8706
▁प्रस्तु	-8707
▁प्रामाणिक	-8708
aoM	-8709
ुखी	-8710
▁परो	-8711
▁शार	-8712
ज्जित	-8713
▁कसौटी	-8714
▁परिकल	-8715
्लिकेशन	-8716
▁उल्लास	-8717
▁प्रोफ़	-8718
▁विचारा	-8719
▁समनुदेश	-8720
▁क्षेत्रक	-8721
▁स्ट्रिंग	-8722
▁कार्मिकों	-8723
▁आतंकवादियों	-8724
आन	-8725
▁उम	-8726
▁शव	-8727
ुकला	-8728
▁जाऊ	-8729
▁तटीय	-8730
▁पच्च	-8731
▁बेटा	-8732
▁लगों	-8733
▁आक्षेप	-8734
▁निकलता	-8735
▁खाद्यान	-8736
▁विशुद्ध	-8737
▁सुपुर्दगी	-8738
क्व	-8739
्टन	-8740
्युन	-8741
▁एजे	-8742
▁जगा	-8743
▁सीट	-8744
▁वियत	-8745
▁सोशल	-8746
▁केलिए	-8747
▁बनाएं	-8748
▁बहुधा	-8749
▁बुखार	-8750
▁इंतजार	-8751
▁सम्मुख	-8752
▁अप्रत्या	-8753
▁उत्तेजित	-8754
▁विमानक्षेत्र	-8755
▁ओल	-8756
▁इंट	-8757
▁अभिम	-8758
▁अभिश	-8759
▁पल्ल	-8760
▁पौरा	-8761
▁भावा	-8762
▁वैसी	-8763
▁सोना	-8764
▁जॉर्ज	-8765
▁मंडली	-8766
▁हिमनद	-8767
▁हुसैन	-8768
▁यथासंभव	-8769
▁नागरिकता	-8770
थिल	-8771
त्सा	-8772
्टीट	-8773
▁आगम	-8774
परेशन	-8775
▁फ़िर	-8776
▁बैंड	-8777
▁रसोई	-8778
▁कोयले	-8779
▁कोरिया	-8780
▁ग्रंथि	-8781
▁देखरेख	-8782
▁राजदूत	-8783
▁सद्भावना	-8784
▁एक्सटेंशन	-8785
ुए	-8786
जिर	-8787
▁नह	-8788
क्ष्	-8789
दत्त	-8790
सूरत	-8791
▁थाः	-8792
▁पिर	-8793
▁गणेश	-8794
▁दहेज	-8795
▁निवे	-8796
▁बंधक	-8797
▁रिहा	-8798
▁लड़ा	-8799
लेरिया	-8800
▁खुलने	-8801
▁कर्त्त	-8802
▁गर्भवती	-8803
▁सांविधिक	-8804
▁जौ	-8805
न्ने	-8806
ालेख	-8807
▁दाल	-8808
चर्या	-8809
नीकरण	-8810
▁इनको	-8811
▁ईरानी	-8812
▁अनुयाय	-8813
▁आश्रित	-8814
▁डिक्री	-8815
▁प्रेषण	-8816
▁आन्तरिक	-8817
▁समुच्चय	-8818
▁निदेशकों	-8819
▁संस्थापन	-8820
▁महाविद्यालय	-8821
ंची	-8822
▁जनक	-8823
▁असीम	-8824
▁करों	-8825
▁डिज़	-8826
▁पौधा	-8827
▁बन्ध	-8828
▁चेन्नई	-8829
▁ब्राउज़र	-8830
▁व्यवसायी	-8831
▁साधारणतया	-8832
धरी	-8833
ोनी	-8834
्वल	-8835
टिंग	-8836
वाड़	-8837
ोपाल	-8838
▁छान	-8839
▁अन्ध	-8840
▁मदों	-8841
▁मरने	-8842
▁अनुमत	-8843
▁फाउंड	-8844
▁नवाचार	-8845
▁परिमाण	-8846
▁लाभकारी	-8847
▁साझेदारी	-8848
▁प्रदर्शनी	-8849
▁मनोवैज्ञानिक	-8850
ध्द	-8851
बंधी	-8852
▁ऊर्	-8853
▁खरा	-8854
▁मोल	-8855
▁लिट	-8856
▁हिर	-8857
▁महार	-8858
▁साफ़	-8859
▁नामित	-8860
▁पाश्च	-8861
▁रोकना	-8862
▁लम्बा	-8863
▁आईसीटी	-8864
▁दुबारा	-8865
▁विनम्र	-8866
▁बागवानी	-8867
▁सुंदरता	-8868
▁आकांक्षाओं	-8869
th	-8870
’’	-8871
▁भाँ	-8872
▁्या	-8873
निवेश	-8874
▁अभिस	-8875
▁फ्री	-8876
क्ताओं	-8877
▁ग्रिड	-8878
▁तारों	-8879
▁बर्तन	-8880
▁समरूप	-8881
▁निवेशक	-8882
▁पॉलिसी	-8883
▁सेवाएँ	-8884
▁जानबूझकर	-8885
▁विश्वव्यापी	-8886
▁परिस्थितियां	-8887
िगर	-8888
▁अलम	-8889
▁टाल	-8890
▁बाँध	-8891
▁हड्ड	-8892
▁उर्वर	-8893
▁चालुक	-8894
▁शाश्व	-8895
▁सुप्र	-8896
▁ग्यारह	-8897
▁वर्षगा	-8898
▁सहेजें	-8899
▁एनआईओएस	-8900
▁प्रतिमान	-8901
▁नामनिर्देश	-8902
▁पुनर्विलोकन	-8903
ँची	-8904
सम्	-8905
ोत्	-8906
▁पठ	-8907
क्रेट	-8908
ट्रिक	-8909
▁कमिश	-8910
▁माउस	-8911
▁सपने	-8912
▁खतरों	-8913
▁गुलाम	-8914
▁दशाओं	-8915
▁मिश्र	-8916
▁ज़रूरी	-8917
▁प्रमाणन	-8918
▁संप्रती	-8919
▁प्रेमचन्द	-8920
▁भविष्यवाणी	-8921
▁परिप्रेक्ष्य	-8922
tt	-8923
ॉस	-8924
ङ्ग	-8925
फ्फ	-8926
क्के	-8927
▁सत्	-8928
▁तिरु	-8929
▁सहभा	-8930
▁भिक्ष	-8931
▁मैसूर	-8932
▁विक्ष	-8933
▁स्पेन	-8934
▁जिन्ना	-8935
▁वर्ल्ड	-8936
▁आवृत्ति	-8937
▁संरक्षक	-8938
इंट	-8939
▁ढ़	-8940
य्या	-8941
▁खाम	-8942
▁बताई	-8943
▁बांड	-8944
▁हरेक	-8945
▁इलाके	-8946
▁हफ्ते	-8947
▁उद्धरण	-8948
▁पकड़ने	-8949
▁मुद्रक	-8950
▁पात्रों	-8951
▁बाध्यता	-8952
▁अहमदाबाद	-8953
▁निदेशालय	-8954
▁मानचित्र	-8955
▁प्रतिपूर्ति	-8956
चों	-8957
ोहण	-8958
▁१८	-8959
जिये	-8960
▁अरे	-8961
▁तरा	-8962
▁हज़	-8963
▁गायब	-8964
▁पीछा	-8965
▁ब्ला	-8966
▁डालते	-8967
▁परवाह	-8968
▁काल्पनिक	-8969
▁सिंगापुर	-8970
▁मध्यवर्ती	-8971
▁प्रोग्रामिंग	-8972
ालीस	-8973
▁अंज	-8974
▁हनु	-8975
▁उद्घ	-8976
▁घेरे	-8977
▁निवल	-8978
▁शर्म	-8979
पोरेशन	-8980
▁उजागर	-8981
▁खेलों	-8982
▁डालता	-8983
▁घटनाएं	-8984
▁दिखाना	-8985
▁दिशानि	-8986
▁निरर्थ	-8987
▁कन्वेंशन	-8988
▁प्रायोजित	-8989
▁वास्तुकला	-8990
▁कार्यकर्ताओं	-8991
ोभ	-8992
जील	-8993
लाभ	-8994
▁अमी	-8995
▁शिल	-8996
▁ढलान	-8997
▁सचेत	-8998
▁यमुना	-8999
▁वर्षीय	-9000
▁व्यतीत	-9001
▁सीमेंट	-9002
▁पौराणिक	-9003
▁सुप्रीम	-9004
▁अत्याचार	-9005
▁करनेवाले	-9006
▁अप्रत्याशित	-9007
कथित	-9008
रणीय	-9009
▁अड़	-9010
▁झेल	-9011
▁मौन	-9012
▁चार्	-9013
▁श्ले	-9014
▁सजीव	-9015
▁डीएनए	-9016
▁धूम्र	-9017
▁बढाने	-9018
▁बैठकर	-9019
▁फाउंडेशन	-9020
▁यूनाइटेड	-9021
▁अंडा	-9022
▁कटाई	-9023
▁कपास	-9024
▁निःश	-9025
▁अस्त्र	-9026
▁स्नायु	-9027
▁वैधानिक	-9028
▁अनुरक्षण	-9029
गरों	-9030
ुदेव	-9031
▁असा	-9032
▁नाव	-9033
िश्रण	-9034
▁इटली	-9035
▁दस्त	-9036
▁कन्या	-9037
▁शिश्न	-9038
▁कानपुर	-9039
▁जंगलों	-9040
▁आश्वस्त	-9041
▁छत्तीसगढ़	-9042
▁मानवाधिकार	-9043
▁राष्ट्रीयता	-9044
ॉं	-9045
ाम्	-9046
ूति	-9047
▁छल	-9048
▁बाघ	-9049
षिद्ध	-9050
▁घंटा	-9051
▁तेजा	-9052
▁वल्ल	-9053
▁ऑपरेट	-9054
▁कालाव	-9055
▁पक्का	-9056
▁रियास	-9057
▁सब्सि	-9058
▁दिशाओं	-9059
▁रजिस्ट्र	-9060
▁दिशानिर्देश	-9061
ob	-9062
्क	-9063
ंगर	-9064
ंदे	-9065
▁शाहज	-9066
▁जिक्र	-9067
▁मुर्ग	-9068
▁ख्याति	-9069
▁जोरदार	-9070
▁भाइयों	-9071
▁मतदाता	-9072
▁अभिनेता	-9073
▁कलात्मक	-9074
▁उत्तेजना	-9075
▁क्रमादेश	-9076
▁पासपोर्ट	-9077
▁आत्मनिर्भ	-9078
▁अनुयायियों	-9079
भीत	-9080
मयी	-9081
माना	-9082
▁असु	-9083
▁कस्	-9084
▁शाक	-9085
▁समन	-9086
▁उपजा	-9087
▁निका	-9088
▁पद्म	-9089
▁खुदरा	-9090
▁क्योकि	-9091
▁गुप्ता	-9092
▁नियोजक	-9093
▁विवेका	-9094
▁स्वरुप	-9095
▁अधिकथित	-9096
▁तकनीकों	-9097
▁वृक्षों	-9098
▁कलाकारों	-9099
▁यांत्रिक	-9100
▁कार्यशाला	-9101
▁पंचवर्षीय	-9102
▁श्रीकृष्ण	-9103
दो	-9104
गोश	-9105
बिट	-9106
ोंग	-9107
▁अछ	-9108
▁कैप	-9109
▁दीन	-9110
न्नति	-9111
▁चढ़ा	-9112
▁रूसी	-9113
▁पहलों	-9114
▁लगाते	-9115
▁लक्षित	-9116
▁अरुणाचल	-9117
▁खुशहाली	-9118
▁हालाँकि	-9119
▁पूर्वानु	-9120
▁संदर्भित	-9121
यो	-9122
कूट	-9123
च्य	-9124
▁हौ	-9125
ोगिक	-9126
▁बाप	-9127
▁शिर	-9128
▁हेम	-9129
▁उभार	-9130
▁चिट्	-9131
▁मेले	-9132
▁लीला	-9133
▁जयपुर	-9134
▁जिनको	-9135
▁रक्षक	-9136
▁अवस्थाओं	-9137
▁पत्तियों	-9138
▁शताब्दियों	-9139
▁अर्थशास्त्र	-9140
ोधी	-9141
▁aa	-9142
▁कछ	-9143
ीयों	-9144
१वें	-9145
▁डिब	-9146
▁अंगी	-9147
▁दरें	-9148
▁मामल	-9149
▁रूढ़	-9150
▁सर्प	-9151
▁सिटी	-9152
▁नाजुक	-9153
▁निपटा	-9154
▁निष्क	-9155
▁तत्समय	-9156
▁बिहारी	-9157
▁शाश्वत	-9158
▁छुटकारा	-9159
▁पंचायतों	-9160
▁समायोजित	-9161
▁अपरिहार्य	-9162
▁प्रतिबंधित	-9163
ंशी	-9164
ग्व	-9165
डेट	-9166
मुझे	-9167
▁खाई	-9168
▁भला	-9169
▁लाज	-9170
▁चौदह	-9171
▁बस्त	-9172
▁मादक	-9173
▁कब्जे	-9174
▁जागरूक	-9175
▁समाजवाद	-9176
▁जुर्माने	-9177
▁पीड़ितों	-9178
षद	-9179
रहित	-9180
ात्य	-9181
▁अन्	-9182
▁एटी	-9183
▁खुर	-9184
▁घेर	-9185
▁रेत	-9186
▁शैल	-9187
▁साई	-9188
बिनेट	-9189
▁चौथे	-9190
▁तरफ़	-9191
▁मुहा	-9192
▁जीवनी	-9193
▁निषेध	-9194
▁बढ़ना	-9195
▁निम्नतर	-9196
▁साम्राज्यवाद	-9197
EE	-9198
ist	-9199
कने	-9200
्तों	-9201
▁इलै	-9202
▁दुक	-9203
त्रिक	-9204
▁जवान	-9205
▁पूछे	-9206
▁संसू	-9207
▁सबका	-9208
▁मक्का	-9209
▁माणिक	-9210
▁दर्शित	-9211
▁स्तंभों	-9212
थर	-9213
ारस	-9214
्यूम	-9215
▁बिछ	-9216
▁लौह	-9217
भक्ति	-9218
▁स्का	-9219
▁क्लास	-9220
▁जातीय	-9221
▁तुलसी	-9222
▁दर्जे	-9223
▁यौगिक	-9224
▁स्क्र	-9225
▁फोल्डर	-9226
▁सापेक्ष	-9227
▁इस्लामिक	-9228
▁श्रद्धां	-9229
ढी	-9230
ोफ	-9231
▁कंक	-9232
▁कैद	-9233
▁नक़	-9234
▁बगी	-9235
त्नों	-9236
विन्द	-9237
▁डिजी	-9238
▁फार्	-9239
▁अहसास	-9240
▁करुणा	-9241
▁तुल्य	-9242
▁ऑपरेशन	-9243
▁प्रचलन	-9244
▁मुर्गी	-9245
▁लाभप्रद	-9246
▁संकेतों	-9247
▁स्वर्गी	-9248
▁त्रिपुरा	-9249
▁व्यक़्ति	-9250
▁अपेक्षाओं	-9251
मील	-9252
यता	-9253
▁ठेके	-9254
▁रोटी	-9255
वर्तित	-9256
▁आंत्र	-9257
▁चुनने	-9258
▁चौथाई	-9259
▁वेदों	-9260
▁पहचाना	-9261
▁बढ़िया	-9262
▁इकाइयां	-9263
▁प्रेमचंद	-9264
कोच	-9265
णीय	-9266
सेफ	-9267
ीदा	-9268
▁कुर	-9269
▁बकर	-9270
▁आएगा	-9271
▁आलोक	-9272
▁एंटी	-9273
▁धुंध	-9274
▁डेविड	-9275
▁पश्चा	-9276
▁महाप्र	-9277
▁परिपत्र	-9278
▁पहुँचने	-9279
▁संस्थित	-9280
▁प्रतिरूप	-9281
▁साफ्टवेयर	-9282
ey	-9283
तुर	-9284
तौर	-9285
ूरक	-9286
▁गंग	-9287
▁तूफ	-9288
▁विषम	-9289
▁व्रत	-9290
▁एकांत	-9291
▁नामंज	-9292
▁पंचांग	-9293
▁पूंजीगत	-9294
▁प्रॉक्सी	-9295
▁परिपक्वता	-9296
▁सशक्तीकरण	-9297
ँव	-9298
▁झूठ	-9299
▁हर्	-9300
मेन्ट	-9301
▁गाथा	-9302
▁पारे	-9303
▁पीले	-9304
▁मारा	-9305
▁कथाओं	-9306
▁नगरों	-9307
▁बैटरी	-9308
▁मल्टी	-9309
▁लीजिए	-9310
िपीडिया	-9311
▁आदिवासी	-9312
▁इंस्टीट	-9313
▁स्टार्ट	-9314
▁स्मार्ट	-9315
▁स्वर्गीय	-9316
▁भावनात्मक	-9317
▁विशिष्टता	-9318
खल	-9319
वटी	-9320
▁डु	-9321
ंदाज	-9322
▁दादी	-9323
▁हमास	-9324
स्फीति	-9325
▁अपहरण	-9326
▁क्रिस	-9327
▁बस्ती	-9328
▁बूढ़े	-9329
▁सीखना	-9330
▁अरविंद	-9331
▁कराधान	-9332
▁जुटाने	-9333
▁सैकड़ों	-9334
▁धूम्रपान	-9335
▁आत्मविश्वास	-9336
नक	-9337
ँसी	-9338
ूंगी	-9339
▁आदम	-9340
▁झार	-9341
▁टूल	-9342
▁तैर	-9343
वालों	-9344
▁अनुभ	-9345
▁त्यो	-9346
▁दलील	-9347
▁म्यू	-9348
▁समया	-9349
▁नम्बर	-9350
▁मंजिल	-9351
▁रोबोट	-9352
▁वैद्य	-9353
▁करवाया	-9354
▁गर्भाव	-9355
▁जोड़ना	-9356
▁बुद्धिमान	-9357
डित	-9358
▁ओज	-9359
सूची	-9360
ालाल	-9361
▁खां	-9362
▁चौक	-9363
▁भटक	-9364
▁अस्व	-9365
▁राजप	-9366
▁लोहे	-9367
मुक्ति	-9368
▁खर्चा	-9369
▁जरिये	-9370
▁बढावा	-9371
▁होस्ट	-9372
▁चेष्टा	-9373
▁मापदंड	-9374
▁मेडिकल	-9375
▁उच्छेदन	-9376
▁केन्द्री	-9377
▁वर्षगांठ	-9378
▁अधिनिर्णय	-9379
▁कट्टरपंथी	-9380
▁सहिष्णुता	-9381
▁कार्यकर्ता	-9382
ुका	-9383
चकों	-9384
बाज़	-9385
▁अवश	-9386
▁लूट	-9387
▁ऑफिस	-9388
▁विस्	-9389
▁तलवार	-9390
▁भयभीत	-9391
▁वर्गा	-9392
▁अल्लाह	-9393
▁पाएंगे	-9394
▁मेगावाट	-9395
▁वियतनाम	-9396
▁अभयारण्य	-9397
▁प्रोफाइल	-9398
▁सिद्धदोष	-9399
▁प्रादेशिक	-9400
मह	-9401
ुज	-9402
ंजक	-9403
मैं	-9404
समूह	-9405
▁टोक	-9406
▁फ़र	-9407
▁मसौ	-9408
पृष्ठ	-9409
विदों	-9410
ोरिया	-9411
▁चाचा	-9412
▁पतली	-9413
▁पैदल	-9414
पक्षीय	-9415
▁उठाते	-9416
▁ऊँचाई	-9417
▁कराते	-9418
▁डालें	-9419
▁पत्ते	-9420
▁पर्दा	-9421
▁तिमाही	-9422
▁दिखाता	-9423
▁पहुँचे	-9424
▁अखबारों	-9425
▁अनुयायी	-9426
▁कविताएं	-9427
▁किस्मों	-9428
▁राजनयिक	-9429
▁संक्रामक	-9430
▁सब्जियों	-9431
फु	-9432
▁ओं	-9433
मिया	-9434
▁जनन	-9435
▁दुस	-9436
▁नाच	-9437
नीयता	-9438
▁आप्र	-9439
▁उड़ा	-9440
▁करोड	-9441
▁लाये	-9442
▁आँखें	-9443
▁गिनती	-9444
▁झुकाव	-9445
▁दुर्ग	-9446
▁वर्गम	-9447
▁एकाग्र	-9448
▁ड्रग्स	-9449
▁कामगारों	-9450
▁श्रद्धांजलि	-9451
जय	-9452
झान	-9453
सीए	-9454
स्स	-9455
ेता	-9456
▁चढ	-9457
गारी	-9458
जन्य	-9459
ुकता	-9460
▁PRO	-9461
▁टेक	-9462
▁टैग	-9463
▁सिग	-9464
▁NAME	-9465
▁इसमे	-9466
▁घिरा	-9467
▁निया	-9468
ड़ियां	-9469
▁वर्गमूल	-9470
▁विलक्षण	-9471
▁प्रभारित	-9472
▁अत्यावश्यक	-9473
ंन	-9474
and	-9475
ल्थ	-9476
▁कत	-9477
▁चैन	-9478
▁वीं	-9479
▁सिम	-9480
▁हें	-9481
▁आईडी	-9482
▁इजाज	-9483
▁कलाम	-9484
▁फ़ाइ	-9485
▁अपनाए	-9486
▁इंसान	-9487
▁धरोहर	-9488
▁विनोद	-9489
वर्सिटी	-9490
▁प्रकटन	-9491
▁विलम्ब	-9492
▁समकक्ष	-9493
▁हाइड्र	-9494
▁पृष्ठों	-9495
ct	-9496
ंतक	-9497
डोर	-9498
वाइस	-9499
▁लसी	-9500
▁अम्ब	-9501
▁चरित	-9502
▁नोडल	-9503
त्तियां	-9504
▁नीलामी	-9505
▁तथाकथित	-9506
▁वचनबद्ध	-9507
▁प्रबन्धन	-9508
▁संक्रमित	-9509
▁न्यायोचित	-9510
गिन	-9511
▁लह	-9512
ोत्त	-9513
▁नहर	-9514
▁वोट	-9515
▁हुक	-9516
्लेषण	-9517
▁असुर	-9518
▁क्षै	-9519
▁प्रक	-9520
▁साहा	-9521
णात्मक	-9522
▁अंकों	-9523
▁अभ्या	-9524
▁कार्प	-9525
▁कुष्ठ	-9526
▁खरगोश	-9527
▁चालीस	-9528
▁छोड़े	-9529
▁ज़मीन	-9530
▁बदलती	-9531
▁वेस्ट	-9532
▁भूमिगत	-9533
▁मुखिया	-9534
▁कालावधि	-9535
▁त्योहार	-9536
▁शीघ्रता	-9537
▁तत्पश्चात्	-9538
▁विकिपीडिया	-9539
ंए	-9540
ख्श	-9541
जना	-9542
षाण	-9543
ेषण	-9544
▁बाण	-9545
▁रुख	-9546
▁सरो	-9547
तालों	-9548
▁इष्ट	-9549
▁फ़ोन	-9550
▁मेला	-9551
ावस्था	-9552
▁ग्रेड	-9553
▁पसन्द	-9554
▁वायदा	-9555
▁सेकंड	-9556
▁नोकिया	-9557
▁किताबें	-9558
▁बुद्धिम	-9559
▁कहानियां	-9560
▁अपराधियों	-9561
▁पहाड़ियों	-9562
▁पाश्चात्य	-9563
▁प्रतिष्ठान	-9564
ip	-9565
खने	-9566
िपरि	-9567
ीर्ण	-9568
▁उठी	-9569
▁पला	-9570
▁वरन	-9571
▁सिड	-9572
विवाह	-9573
▁जीता	-9574
▁पहने	-9575
▁फर्श	-9576
▁वर्क	-9577
▁संकर	-9578
▁साम्	-9579
फ्रेंस	-9580
स्तरीय	-9581
्रेषित	-9582
▁दुर्व	-9583
▁परिशि	-9584
▁पेरिस	-9585
▁बारिश	-9586
▁स्थाय	-9587
▁कॉन्फ़	-9588
▁अकादमिक	-9589
▁निरर्थक	-9590
▁सुलझाने	-9591
▁परिष्कृत	-9592
▁प्रतिवाद	-9593
▁संतोषजनक	-9594
▁रिपोर्टों	-9595
▁सेवानिवृत्ति	-9596
CT	-9597
ov	-9598
और	-9599
▁वॉल	-9600
ोलॉजी	-9601
▁फायर	-9602
▁सपना	-9603
▁इजाजत	-9604
▁जार्ज	-9605
▁नियति	-9606
▁शॉर्ट	-9607
▁Chrome	-9608
▁पराजित	-9609
▁प्रशंस	-9610
▁यूनानी	-9611
▁फ़ाइलें	-9612
▁सब्सिडी	-9613
▁वर्गाकार	-9614
तू	-9615
est	-9616
ंबू	-9617
भवन	-9618
ेतन	-9619
▁कौर	-9620
▁गली	-9621
▁फीट	-9622
▁सीए	-9623
▁क्षी	-9624
▁छुपा	-9625
▁ठंडा	-9626
▁दुखद	-9627
▁मधुम	-9628
▁दीवान	-9629
▁ब्लॉक	-9630
▁वृक्क	-9631
▁समाना	-9632
ोनेशिया	-9633
▁पैटर्न	-9634
▁पैदावार	-9635
▁विकल्पों	-9636
▁एवोल्यूशन	-9637
१९	-9638
क्य	-9639
िंट	-9640
▁बछ	-9641
▁’’	-9642
▁con	-9643
▁कमल	-9644
▁यहा	-9645
▁शिष	-9646
▁कशेर	-9647
▁ज़ोर	-9648
▁चार्ज	-9649
▁मैथुन	-9650
▁हालात	-9651
▁तालमेल	-9652
▁तुम्हे	-9653
▁महत्वा	-9654
▁महाराज	-9655
▁महासभा	-9656
▁कैबिनेट	-9657
▁दुकानों	-9658
▁कोशिकाएं	-9659
▁निर्देशक	-9660
▁मानदंडों	-9661
▁साम्राज़	-9662
▁निस्संदेह	-9663
ँघ	-9664
डीए	-9665
नगर	-9666
▁बगल	-9667
▁रूट	-9668
शिल्प	-9669
▁अंचल	-9670
▁जोशी	-9671
▁त्यौ	-9672
▁ब्ले	-9673
▁इन्टर	-9674
▁सेक्स	-9675
▁अनुरुप	-9676
▁अमान्य	-9677
▁योद्धा	-9678
▁वकीलों	-9679
▁पत्थरों	-9680
▁ट्रैकिंग	-9681
▁मंत्रिपरि	-9682
▁विचाराधीन	-9683
दशा	-9684
मेव	-9685
▁आंग	-9686
▁पैन	-9687
▁फोट	-9688
▁मेह	-9689
ध्याय	-9690
▁असंग	-9691
कुमारी	-9692
▁करेंः	-9693
▁बैठने	-9694
▁सिन्ध	-9695
▁उन्नीस	-9696
▁ग्रीवा	-9697
▁असमानता	-9698
▁सृजनात्मक	-9699
ड़ो	-9700
▁डेन	-9701
▁बेन	-9702
▁उपांत	-9703
▁दिखने	-9704
▁अपीलों	-9705
▁इन्कार	-9706
▁चीज़ें	-9707
▁दिवसीय	-9708
▁जातियां	-9709
▁पात्रता	-9710
▁पीढ़ियों	-9711
▁यहूदियों	-9712
ंबन	-9713
मंद	-9714
ूपी	-9715
दमों	-9716
▁अवह	-9717
▁आरा	-9718
▁तीर	-9719
▁दूत	-9720
▁फंस	-9721
▁फलक	-9722
▁सॉल	-9723
▁उष्ण	-9724
▁महास	-9725
▁वक्ष	-9726
▁सादा	-9727
म्परिक	-9728
▁कम्युन	-9729
▁विरचित	-9730
▁विराट्	-9731
▁श्रव्य	-9732
▁स्वराज	-9733
▁हिम्मत	-9734
▁नामंजूर	-9735
▁संभवतया	-9736
▁निमंत्रण	-9737
▁एप्लिकेशन	-9738
भ्र	-9739
▁बृ	-9740
पीएस	-9741
▁नाइ	-9742
▁भया	-9743
▁साप	-9744
द्रता	-9745
▁उपगत	-9746
▁हाइड	-9747
▁द्रुत	-9748
▁रंगीन	-9749
▁अशुद्ध	-9750
▁आधारों	-9751
▁पसंदीदा	-9752
▁विजेताओं	-9753
▁तुलनात्मक	-9754
▁कम्युनिस्ट	-9755
▁मंत्रिमंडल	-9756
▁उपराष्ट्रपति	-9757
चालय	-9758
ण्डे	-9759
▁जेर	-9760
▁नित	-9761
▁सिं	-9762
थियों	-9763
ारायण	-9764
▁ठरोग	-9765
▁दुखी	-9766
▁मुसी	-9767
▁लीटर	-9768
सिद्धि	-9769
▁अनधिक	-9770
▁जमारा	-9771
▁भाँति	-9772
▁छोड़ना	-9773
▁निकलना	-9774
▁वास्तु	-9775
▁अक्षरों	-9776
▁ड्राफ्ट	-9777
▁दोहराया	-9778
▁पक्षपात	-9779
▁पंक्तियों	-9780
▁प्रक्षेपण	-9781
if	-9782
चिव	-9783
▁लट	-9784
र्पण	-9785
िकों	-9786
▁कटि	-9787
▁कैन	-9788
वलोकन	-9789
▁अठार	-9790
▁छाती	-9791
▁नीले	-9792
▁भलाई	-9793
▁लुप्त	-9794
▁शिविर	-9795
▁सुनते	-9796
▁खिड़की	-9797
▁विफलता	-9798
▁त्यौहार	-9799
▁रामलिंग	-9800
▁राज्यसभा	-9801
▁वग	-9802
गांव	-9803
▁कपट	-9804
▁खली	-9805
▁नेप	-9806
▁पठन	-9807
▁बें	-9808
▁उद्गम	-9809
▁बेलार	-9810
▁असंतोष	-9811
▁चीज़ों	-9812
▁तीक्ष्	-9813
▁साहसिक	-9814
▁अफ्रीकी	-9815
▁ग्रीष्म	-9816
▁मेहरअली	-9817
▁किरायेदार	-9818
यह	-9819
दगी	-9820
ुद्र	-9821
▁समत	-9822
ग्राफ	-9823
▁केबल	-9824
▁वादा	-9825
ब्रेरी	-9826
▁पेशकश	-9827
▁कमजोरी	-9828
▁जनगणना	-9829
▁शिशुओं	-9830
▁सुविधाजनक	-9831
▁शल्यक्रिया	-9832
▁पूर्वानुमान	-9833
ND	-9834
सक	-9835
बुक	-9836
ोंक	-9837
▁ठा	-9838
ब्लू	-9839
▁दीं	-9840
▁निम	-9841
▁पसी	-9842
▁फास	-9843
देशीय	-9844
ान्ति	-9845
ोजकों	-9846
▁खगोल	-9847
▁जुटा	-9848
▁मोटा	-9849
▁इरादा	-9850
▁कराती	-9851
▁पित्त	-9852
▁मनाने	-9853
▁सांसद	-9854
▁हाजिर	-9855
▁हिंसक	-9856
▁	-9857
ा	-9858
क	-9859
र	-9860
्	-9861
े	-9862
ि	-9863
न	-9864
स	-9865
त	-9866
ं	-9867
ी	-9868
ह	-9869
य	-9870
म	-9871
प	-9872
ो	-9873
व	-9874
ल	-9875
द	-9876
ज	-9877
ग	-9878
ै	-9879
ु	-9880
ब	-9881
अ	-9882
श	-9883
ध	-9884
ए	-9885
च	-9886
भ	-9887
।	-9888
थ	-9889
ू	-9890
ट	-9891
,	-9892
ष	-9893
उ	-9894
आ	-9895
ण	-9896
ड	-9897
औ	-9898
इ	-9899
ख	-9900
.	-9901
़	-9902
-	-9903
ई	-9904
फ	-9905
०	-9906
छ	-9907
ृ	-9908
)	-9909
(	-9910
ौ	-9911
ओ	-9912
ठ	-9913
१	-9914
घ	-9915
ँ	-9916
ऐ	-9917
ढ	-9918
झ	-9919
ः	-9920
ॉ	-9921
२	-9922
'	-9923
a	-9924
ञ	-9925
e	-9926
/	-9927
;	-9928
i	-9929
३	-9930
ऊ	-9931
s	-9932
:	-9933
?	-9934
t	-9935
o	-9936
r	-9937
n	-9938
0	-9939
ऋ	-9940
”	-9941
४	-9942
“	-9943
l	-9944
ऑ	-9945
%	-9946
c	-9947
d	-9948
५	-9949
>	-9950
‘	-9951
"	-9952
m	-9953
&	-9954
A	-9955
u	-9956
’	-9957
h	-9958
#	-9959
p	-9960
E	-9961
g	-9962
I	-9963
S	-9964
!	-9965
T	-9966
६	-9967
f	-9968
<	-9969
R	-9970
y	-9971
v	-9972
C	-9973
b	-9974
M	-9975
७	-9976
P	-9977
N	-9978
w	-9979
–	-9980
O	-9981
k	-9982
D	-9983
L	-9984
]	-9985
[	-9986
x	-9987
B	-9988
८	-9989
ङ	-9990
G	-9991
९	-9992
_	-9993
