<unk>	0
<s>	0
</s>	0
UuRrLl	0
DdAaTtEe	0
NnUuMm	0
▁क	-0
▁स	-1
▁ह	-2
▁प	-3
▁म	-4
▁के	-5
या	-6
ार	-7
्र	-8
▁न	-9
▁अ	-10
▁है	-11
▁,	-12
ें	-13
▁ज	-14
▁।	-15
▁व	-16
र्	-17
▁द	-18
ता	-19
▁कि	-20
▁में	-21
ों	-22
▁उ	-23
▁ब	-24
▁ल	-25
्य	-26
▁को	-27
ने	-28
िक	-29
▁की	-30
▁र	-31
▁प्र	-32
▁औ	-33
▁ग	-34
▁और	-35
▁आ	-36
ित	-37
्त	-38
ान	-39
▁कर	-40
▁त	-41
▁से	-42
▁का	-43
▁इ	-44
▁भ	-45
िए	-46
ना	-47
▁ए	-48
्व	-49
▁पर	-50
▁.	-51
▁य	-52
▁सं	-53
▁थ	-54
िय	-55
ही	-56
▁वि	-57
▁इस	-58
▁लिए	-59
▁श	-60
क्	-61
▁जा	-62
्या	-63
ाल	-64
▁हो	-65
▁किया	-66
वा	-67
▁-	-68
हीं	-69
ाम	-70
▁नि	-71
▁एक	-72
▁च	-73
▁नहीं	-74
ति	-75
▁या	-76
▁यह	-77
स्	-78
ारा	-79
▁अप	-80
▁अन	-81
▁गया	-82
क्ष	-83
▁अध	-84
▁सम	-85
▁ने	-86
के	-87
क्त	-88
सी	-89
▁हैं	-90
▁था	-91
िया	-92
ेश	-93
▁करने	-94
ले	-95
न्	-96
▁भी	-97
ष्	-98
ला	-99
ती	-100
ाय	-101
▁द्व	-102
▁उस	-103
ते	-104
▁सा	-105
▁द्वारा	-106
▁ख	-107
रा	-108
▁)	-109
हा	-110
त्र	-111
▁(	-112
कार	-113
▁स्	-114
िस	-115
ड़	-116
नी	-117
री	-118
▁रा	-119
ूप	-120
िन	-121
ाद	-122
▁अनु	-123
▁कार	-124
▁जो	-125
िका	-126
ोग	-127
▁सक	-128
गा	-129
▁दे	-130
▁न्या	-131
▁निर्	-132
कर्	-133
ियों	-134
▁रूप	-135
देश	-136
ां	-137
ष्ट	-138
▁उप	-139
ाव	-140
ारी	-141
स्त	-142
ंध	-143
ाह	-144
▁फ	-145
द्	-146
था	-147
त्	-148
कर्ता	-149
ल्	-150
▁न्याया	-151
▁प्रति	-152
▁/	-153
्री	-154
लय	-155
ियम	-156
से	-157
▁अधिक	-158
मा	-159
धार	-160
बंध	-161
रण	-162
ंग	-163
ओं	-164
▁हु	-165
▁मु	-166
▁ले	-167
▁उन	-168
▁माम	-169
सा	-170
का	-171
▁सु	-172
▁साथ	-173
कि	-174
च्	-175
रो	-176
▁याच	-177
▁पू	-178
▁ड	-179
न्ह	-180
▁दिया	-181
▁याचिका	-182
▁जिस	-183
हत	-184
▁किसी	-185
▁पह	-186
त्त	-187
▁ध	-188
ाग	-189
ील	-190
ोज	-191
▁'	-192
▁कोई	-193
ास	-194
▁हम	-195
▁व्य	-196
▁गई	-197
ाप	-198
▁न्यायालय	-199
िव	-200
▁थी	-201
की	-202
वाद	-203
▁वह	-204
िल	-205
्ष	-206
▁घ	-207
ंद	-208
▁स्व	-209
▁ही	-210
▁राज	-211
▁उन्ह	-212
▁सकता	-213
▁कु	-214
▁गए	-215
ंड	-216
ाना	-217
ृत	-218
▁पु	-219
▁अभ	-220
ार्	-221
खा	-222
▁आव	-223
▁तो	-224
▁विश	-225
क्ति	-226
वि	-227
▁ऐ	-228
▁ट	-229
▁सी	-230
▁वर्	-231
▁जाता	-232
स्थ	-233
ंच	-234
▁संबंध	-235
▁चाह	-236
र्व	-237
▁अपने	-238
्यों	-239
▁तक	-240
ली	-241
ेद	-242
चार	-243
▁याचिकाकर्ता	-244
▁मामले	-245
ंत	-246
▁बाद	-247
▁स्थ	-248
▁अपील	-249
▁कहा	-250
▁तहत	-251
▁जब	-252
रे	-253
ीन	-254
म्	-255
▁थे	-256
द्ध	-257
▁दो	-258
▁वाल	-259
ंक	-260
दा	-261
पी	-262
रह	-263
▁सि	-264
च्च	-265
▁भार	-266
धान	-267
ंब	-268
भी	-269
ब्	-270
▁0	-271
टी	-272
▁कार्य	-273
▁दी	-274
▁अव	-275
ुत	-276
▁आप	-277
▁आदेश	-278
में	-279
▁रह	-280
दि	-281
▁छ	-282
मान	-283
जी	-284
िला	-285
▁वे	-286
योग	-287
कर	-288
▁बना	-289
▁साम	-290
ूल	-291
▁तरह	-292
▁अन्य	-293
धिक	-294
चित	-295
▁P	-296
▁किए	-297
गे	-298
▁क्ष	-299
श्	-300
▁बा	-301
▁अधिन	-302
▁:	-303
▁परि	-304
ोंने	-305
▁अधिनियम	-306
ुक्त	-307
▁चाहिए	-308
▁सर	-309
▁हुए	-310
ून	-311
▁करना	-312
▁दि	-313
ुर	-314
▁सह	-315
▁तथा	-316
िर	-317
▁रि	-318
र्ट	-319
ाप्त	-320
सार	-321
क्र	-322
ारे	-323
▁सू	-324
गी	-325
▁समय	-326
▁उन्होंने	-327
श्य	-328
वादी	-329
▁आरो	-330
▁बी	-331
▁उसके	-332
▁पी	-333
▁पहले	-334
लिए	-335
ढ़	-336
्रे	-337
▁कारण	-338
▁मान	-339
स्ता	-340
▁इसलिए	-341
स्ट	-342
ंत्र	-343
▁अधिकार	-344
▁कुछ	-345
ोट	-346
▁राज्य	-347
▁करता	-348
जा	-349
▁होने	-350
▁सरकार	-351
▁जै	-352
नों	-353
▁जाए	-354
र्ण	-355
िति	-356
्ञ	-357
▁करते	-358
▁पा	-359
ेष	-360
▁उनके	-361
▁ला	-362
▁प्रतिवादी	-363
▁दू	-364
ेत्र	-365
▁मै	-366
▁आधार	-367
▁अभिय	-368
श्यक	-369
▁इन	-370
र्थ	-371
▁मा	-372
न्न	-373
▁क्षेत्र	-374
▁कान	-375
क्षा	-376
▁पक्ष	-377
▁रख	-378
▁आवश्यक	-379
▁नियम	-380
र्म	-381
▁मे	-382
भाव	-383
▁बह	-384
▁कम	-385
▁भारत	-386
▁शिक	-387
किन	-388
▁इसके	-389
ंबर	-390
▁व्यक्ति	-391
▁प्रा	-392
ंप	-393
▁बि	-394
▁होता	-395
▁सभी	-396
▁ओ	-397
धि	-398
ध्य	-399
वल	-400
▁प्रद	-401
▁लेकिन	-402
▁विचार	-403
▁होगा	-404
▁श्री	-405
▁उत्त	-406
ानी	-407
▁सब	-408
▁निर्ण	-409
शन	-410
▁प्राप्त	-411
▁आय	-412
वाह	-413
मि	-414
जन	-415
▁निर्णय	-416
▁मृत	-417
▁केवल	-418
▁रहा	-419
▁अपनी	-420
▁स्प	-421
▁जांच	-422
पू	-423
▁अनुसार	-424
नि	-425
▁विभ	-426
ेज	-427
▁उक्त	-428
▁वाले	-429
ोक	-430
▁निय	-431
▁अद	-432
टर	-433
▁लगा	-434
▁यदि	-435
▁उसे	-436
▁हि	-437
▁PW	-438
ौर	-439
्रा	-440
▁बै	-441
ालत	-442
च्छ	-443
▁चु	-444
▁अंत	-445
▁;	-446
▁विशेष	-447
र्त	-448
र्ड	-449
▁दर्	-450
▁उत्	-451
▁प्रकार	-452
करण	-453
दे	-454
ीय	-455
▁वर्ष	-456
▁जाना	-457
▁लि	-458
▁जी	-459
▁अपीलकर्ता	-460
▁मूल	-461
▁पूर्व	-462
▁उन्हें	-463
▁नंबर	-464
▁स्पष्ट	-465
▁दाय	-466
▁अदालत	-467
▁धारा	-468
▁उत्तर	-469
▁निर्धार	-470
▁वा	-471
▁भू	-472
ज्ञ	-473
टा	-474
▁अग	-475
▁क्यों	-476
▁प्रस्त	-477
▁राष्ट	-478
चना	-479
कों	-480
लग	-481
द्य	-482
▁पै	-483
▁रहे	-484
▁मैं	-485
▁आवेद	-486
▁जाने	-487
माण	-488
पो	-489
▁उच्च	-490
▁तथ	-491
हां	-492
त्य	-493
धी	-494
ोजन	-495
टे	-496
▁गु	-497
▁जारी	-498
▁कानून	-499
मी	-500
▁प्रस्तुत	-501
▁दूस	-502
पाद	-503
▁आगे	-504
शि	-505
ाई	-506
स्ताव	-507
रिक	-508
▁अस	-509
▁S	-510
▁लाग	-511
त्ति	-512
▁स्वी	-513
ष्ठ	-514
▁बात	-515
▁संबंधित	-516
▁देने	-517
ादी	-518
▁समझ	-519
▁अपरा	-520
▁पार	-521
▁सेवा	-522
▁व्या	-523
टना	-524
▁क्योंकि	-525
▁संप	-526
दर्	-527
▁ऐसे	-528
त्म	-529
क्षण	-530
लों	-531
िता	-532
▁बे	-533
▁विश्व	-534
▁हाल	-535
▁मौ	-536
▁बारे	-537
▁बो	-538
पूर्ण	-539
तर	-540
▁सर्व	-541
▁रु	-542
▁जिसमें	-543
▁खिला	-544
▁लिया	-545
रि	-546
▁क्या	-547
▁एस	-548
▁हुआ	-549
▁उल्	-550
ड़ी	-551
▁पास	-552
मे	-553
▁मह	-554
▁कंप	-555
▁वै	-556
लि	-557
▁देख	-558
ये	-559
वन	-560
▁नाम	-561
ड़ा	-562
▁निष्	-563
▁जि	-564
जे	-565
ताओं	-566
▁काम	-567
▁खिलाफ	-568
ज़	-569
▁बता	-570
▁अपराध	-571
▁बहुत	-572
▁न्याय	-573
▁प्रदान	-574
र्क	-575
ुल	-576
▁ओर	-577
▁आरोपी	-578
▁लोग	-579
▁निर्धारित	-580
ुग	-581
पोर्ट	-582
▁पत्र	-583
न्द	-584
स्था	-585
क्रिया	-586
चा	-587
▁कह	-588
▁क्र	-589
▁अलग	-590
▁ऐसा	-591
्यू	-592
▁लग	-593
▁उसने	-594
दार	-595
▁पद	-596
▁भाग	-597
ायत	-598
▁आरोप	-599
▁गवाह	-600
मति	-601
ूत	-602
▁करें	-603
शा	-604
▁प्रभाव	-605
▁नी	-606
▁दु	-607
▁ऊ	-608
लिस	-609
क्ता	-610
ावधान	-611
जू	-612
▁बीच	-613
▁लागू	-614
▁सकती	-615
ार्थ	-616
▁प्रक्रिया	-617
▁प्रावधान	-618
▁शाम	-619
कृत	-620
ोजना	-621
▁जाती	-622
▁मुख	-623
्यान	-624
ड़े	-625
भा	-626
▁स्वीकार	-627
▁ठ	-628
▁मृतक	-629
्रीय	-630
▁रिपोर्ट	-631
▁सकते	-632
▁होती	-633
▁सद	-634
्ल	-635
▁पुलिस	-636
वाही	-637
▁अधिकारी	-638
▁दायर	-639
तीय	-640
▁ता	-641
ोष	-642
▁रिक	-643
ोध	-644
▁आवेदन	-645
वी	-646
ग्र	-647
▁जहां	-648
नीय	-649
ेक	-650
▁दर्ज	-651
▁मिल	-652
▁जान	-653
▁परिव	-654
आई	-655
▁जन	-656
▁आर	-657
ांत	-658
▁ऑ	-659
▁वादी	-660
ोर	-661
▁साक्ष	-662
▁उनकी	-663
आर	-664
ाज	-665
▁बढ़	-666
▁फिर	-667
ूं	-668
▁हुई	-669
▁उपयोग	-670
▁जाएगा	-671
▁शामिल	-672
दी	-673
▁देश	-674
ची	-675
▁दा	-676
एं	-677
स्थित	-678
▁सम्	-679
▁जैसा	-680
िज	-681
पित	-682
कारी	-683
▁ऐसी	-684
▁इसे	-685
▁निर्देश	-686
ट्	-687
▁योग	-688
▁निक	-689
▁A	-690
तिक	-691
▁राष्ट्र	-692
ाइ	-693
▁परी	-694
तान	-695
कृ	-696
▁भारतीय	-697
धा	-698
▁स्था	-699
प्	-700
▁स्थान	-701
▁उद्	-702
ेल	-703
▁माना	-704
डी	-705
ंह	-706
▁खु	-707
▁स्थिति	-708
▁बार	-709
▁अभियोजन	-710
▁शिकायत	-711
दर्भ	-712
▁दिन	-713
▁व्यक्त	-714
गत	-715
एस	-716
▁भूमि	-717
को	-718
पर	-719
▁संदर्भ	-720
▁दोनों	-721
▁उसकी	-722
▁उचित	-723
सर	-724
लेख	-725
ब्द	-726
▁मां	-727
▁घटना	-728
▁दौर	-729
▁ट्र	-730
धिकरण	-731
्यालय	-732
▁ग्र	-733
▁कंपनी	-734
▁C	-735
▁बिना	-736
▁अब	-737
▁उठ	-738
प्त	-739
▁करे	-740
▁कोर्ट	-741
▁पारित	-742
फल	-743
युक्त	-744
▁पर्	-745
▁फै	-746
▁I	-747
िन्न	-748
▁ध्यान	-749
▁व्यव	-750
हित	-751
िकास	-752
वाई	-753
मिक	-754
▁भुग	-755
▁आवश्यकता	-756
ल्प	-757
ालन	-758
▁मन	-759
▁विकास	-760
▁शिक्ष	-761
ॉर्ड	-762
▁दौरान	-763
▁अधिव	-764
▁रखा	-765
पति	-766
▁शुर	-767
जि	-768
▁रिट	-769
▁भुगतान	-770
▁वर्त	-771
▁विक	-772
ित्व	-773
नांक	-774
▁सर्वो	-775
▁ई	-776
▁दिनांक	-777
द्योग	-778
ाली	-779
ंट	-780
▁?	-781
▁अनुमति	-782
▁वर्तमान	-783
ाँ	-784
▁दिए	-785
खित	-786
रों	-787
▁कर्म	-788
▁राशि	-789
चे	-790
त्मक	-791
▁सामान	-792
▁बया	-793
क्रम	-794
▁जिसे	-795
▁प्रत्य	-796
▁सिद्ध	-797
▁विवाद	-798
▁उत्पाद	-799
▁साक्ष्य	-800
▁जिसके	-801
▁रिकॉर्ड	-802
ांकि	-803
▁उद्देश	-804
▁वास्त	-805
▁हालांकि	-806
▁सदस	-807
▁पूरी	-808
▁लाभ	-809
णा	-810
▁जैसे	-811
सू	-812
▁बु	-813
▁अपना	-814
▁कार्यवाही	-815
शोध	-816
क्स	-817
▁दृ	-818
▁कै	-819
▁सहाय	-820
▁अधीन	-821
▁अधिवक्ता	-822
▁सिंह	-823
▁तै	-824
ात	-825
▁बाह	-826
बी	-827
धीश	-828
िंग	-829
कृति	-830
ोल	-831
▁तथ्य	-832
▁माध्य	-833
▁महत	-834
▁प्रव	-835
▁होना	-836
्यता	-837
▁शक्ति	-838
▁स्त	-839
▁शब्द	-840
यन	-841
▁मि	-842
ोड़	-843
कर्ष	-844
▁स्ट	-845
▁पता	-846
▁प्रश	-847
▁अं	-848
स्व	-849
▁मामलों	-850
▁जिन	-851
▁रही	-852
▁अभियुक्त	-853
गर	-854
▁संपत्ति	-855
▁अवधि	-856
▁पं	-857
▁वास्तव	-858
▁सर्वोच्च	-859
ियां	-860
▁उत्तरदा	-861
▁पार्	-862
तन	-863
▁आई	-864
▁मामला	-865
▁बैंक	-866
▁न्यायाधीश	-867
▁नोट	-868
▁संशोध	-869
▁खंड	-870
▁घर	-871
▁दस्ताव	-872
▁योजना	-873
मार	-874
▁पहु	-875
▁जु	-876
ायी	-877
▁कॉ	-878
र्ष	-879
हार	-880
▁मध्य	-881
▁अर्	-882
▁वाली	-883
▁हमारे	-884
लब्	-885
▁पुन	-886
▁सबूत	-887
ष्टि	-888
ुक	-889
वाल	-890
वं	-891
▁बन	-892
▁सो	-893
ar	-894
▁लोगों	-895
▁अला	-896
▁समक्ष	-897
▁झ	-898
जर	-899
▁तब	-900
ायल	-901
▁देखा	-902
▁उपलब्	-903
▁अति	-904
ेशन	-905
▁विभाग	-906
▁विद	-907
कद	-908
स्प	-909
निक	-910
ग्री	-911
▁परिण	-912
▁राष्ट्रपति	-913
▁बयान	-914
▁अलावा	-915
▁पुर	-916
▁याचिकाकर्ताओं	-917
▁दस्तावेज	-918
▁ये	-919
▁उद्देश्य	-920
▁प्रयोग	-921
▁तैया	-922
▁डि	-923
▁समान	-924
▁सामान्य	-925
▁चल	-926
▁शुरू	-927
▁सुर	-928
▁मुख्य	-929
▁उपलब्ध	-930
▁माध्यम	-931
▁परिणाम	-932
▁संवि	-933
▁कृ	-934
तम	-935
रूप	-936
ंभ	-937
▁दूसरे	-938
▁डी	-939
▁उसी	-940
त्या	-941
▁हों	-942
▁माल	-943
बर	-944
ेट	-945
▁शु	-946
▁होते	-947
ूर	-948
▁दिखा	-949
▁मुझ	-950
▁एवं	-951
▁चि	-952
▁दावा	-953
▁यहां	-954
ेय	-955
▁विव	-956
▁पर्या	-957
▁विभिन्न	-958
वार	-959
िक्री	-960
▁जीवन	-961
▁भीतर	-962
▁मुकद	-963
▁फैस	-964
ंद्र	-965
्यु	-966
मत	-967
▁तैयार	-968
▁महत्व	-969
्ड	-970
▁सूचना	-971
▁वित	-972
▁करती	-973
▁अर्थ	-974
णी	-975
प्र	-976
काल	-977
▁भा	-978
▁उठा	-979
▁तीन	-980
मु	-981
षा	-982
रोध	-983
जिस्ट	-984
▁लोक	-985
श्चित	-986
▁शी	-987
▁मो	-988
▁व्याप	-989
ंस	-990
▁बद	-991
▁अच्छ	-992
▁निर्माण	-993
an	-994
▁प्रमाण	-995
▁सके	-996
गम	-997
िये	-998
▁%	-999
िम	-1000
▁व्यक्तियों	-1001
▁खार	-1002
िट	-1003
▁सार	-1004
तु	-1005
▁सिद्धांत	-1006
काश	-1007
▁तरी	-1008
▁खारिज	-1009
हरा	-1010
ज्ञान	-1011
▁मुझे	-1012
तिम	-1013
▁निम्	-1014
भव	-1015
▁समाप्त	-1016
▁गल	-1017
▁अगर	-1018
▁स्थापित	-1019
▁पहुंच	-1020
▁D	-1021
जूद	-1022
▁तारी	-1023
दान	-1024
▁विष	-1025
ामी	-1026
ग्रह	-1027
क्षित	-1028
▁तारीख	-1029
▁गै	-1030
तंत्र	-1031
▁समझौ	-1032
▁निम्न	-1033
▁उल्लेख	-1034
▁R	-1035
▁घोष	-1036
▁परिस्थित	-1037
वास	-1038
▁जिला	-1039
▁ढ	-1040
▁सामग्री	-1041
द्र	-1042
▁कई	-1043
▁मार्	-1044
▁होगी	-1045
▁प्रस्ताव	-1046
▁निप	-1047
श्व	-1048
▁ना	-1049
ोजित	-1050
द्द	-1051
▁संविधान	-1052
▁ज्ञ	-1053
▁हा	-1054
▁सीमा	-1055
▁मांग	-1056
्न	-1057
क्ट	-1058
▁तर्क	-1059
▁हिस्	-1060
▁प्रत्येक	-1061
▁प्रश्	-1062
ौती	-1063
▁राम	-1064
▁लेने	-1065
▁करके	-1066
बित	-1067
▁हे	-1068
▁पूरा	-1069
स्थान	-1070
िश	-1071
▁बनाम	-1072
▁वस्त	-1073
स्थिति	-1074
▁साल	-1075
▁गो	-1076
▁विषय	-1077
▁बच्च	-1078
भग	-1079
▁एन	-1080
द्दे	-1081
त्रा	-1082
▁बताया	-1083
▁विध	-1084
▁रुप	-1085
▁M	-1086
▁इं	-1087
ूनी	-1088
▁सबसे	-1089
▁दर	-1090
फ़	-1091
ेदार	-1092
▁साबित	-1093
▁तथ्यों	-1094
▁बाहर	-1095
▁चुन	-1096
▁समिति	-1097
व्य	-1098
▁लगभग	-1099
▁तु	-1100
ेप	-1101
▁अतिरिक	-1102
▁कभी	-1103
▁निष्कर्ष	-1104
▁रखने	-1105
राधिक	-1106
▁वी	-1107
पुर	-1108
▁शिक्षा	-1109
▁अंतिम	-1110
▁प्रावधानों	-1111
▁समर्थ	-1112
दन	-1113
▁पृ	-1114
ाला	-1115
▁परिस्थितियों	-1116
▁दोष	-1117
▁करेगा	-1118
▁s	-1119
▁अंतर	-1120
तः	-1121
त्ता	-1122
वान	-1123
▁उपरो	-1124
▁वाप	-1125
▁अतिरिक्त	-1126
▁उपरोक्त	-1127
▁पि	-1128
र्स	-1129
मित	-1130
क्षम	-1131
▁इसका	-1132
▁सही	-1133
▁पूर्ण	-1134
▁चला	-1135
शी	-1136
▁उसका	-1137
▁अवसर	-1138
▁हमें	-1139
साय	-1140
▁जिन्ह	-1141
▁मृत्यु	-1142
▁स्क	-1143
ुक्ति	-1144
▁पाया	-1145
▁कब्	-1146
न्त	-1147
ासन	-1148
▁पर्याप्त	-1149
ित्र	-1150
▁कार्र	-1151
▁हर	-1152
▁अनुप	-1153
हर	-1154
▁नियमों	-1155
▁एम	-1156
▁जाते	-1157
▁प्रबंध	-1158
▁सौ	-1159
▁बनाया	-1160
र्ति	-1161
▁नोटिस	-1162
▁उत्तरदाताओं	-1163
▁संशोधन	-1164
▁शर्त	-1165
▁आदि	-1166
ल्क	-1167
▁B	-1168
▁आया	-1169
▁प्रवेश	-1170
लिखित	-1171
▁सूची	-1172
▁डॉ	-1173
▁सार्व	-1174
▁विस्त	-1175
▁ऋ	-1176
ाने	-1177
द्योगिक	-1178
▁कार्रवाई	-1179
हन	-1180
▁ली	-1181
▁रे	-1182
र्ती	-1183
मो	-1184
▁दंड	-1185
▁ऊपर	-1186
▁हस्ता	-1187
▁सामने	-1188
▁अनुबंध	-1189
▁प्रश्न	-1190
▁छोड़	-1191
ुसार	-1192
▁राय	-1193
▁हूं	-1194
▁प्रे	-1195
▁अथ	-1196
▁न्यायिक	-1197
ेंस	-1198
▁गलत	-1199
▁E	-1200
▁ट्रायल	-1201
क्टर	-1202
▁स्वतंत्र	-1203
▁पढ़	-1204
▁प्रदर्	-1205
मुख	-1206
▁बच	-1207
▁राष्ट्रीय	-1208
यं	-1209
ीस	-1210
▁विप	-1211
▁देता	-1212
▁मूल्य	-1213
▁उनका	-1214
फी	-1215
▁सीखा	-1216
▁तय	-1217
▁माननीय	-1218
▁आज	-1219
▁पंजी	-1220
ुद्ध	-1221
▁सहायता	-1222
▁प्रो	-1223
▁प्रकृति	-1224
▁धार	-1225
▁सुन	-1226
▁विन	-1227
▁कुमार	-1228
▁रो	-1229
▁परीक्षा	-1230
▁कथ	-1231
▁अंग	-1232
▁नीचे	-1233
▁अधिकारियों	-1234
ंघ	-1235
▁तरीके	-1236
वर	-1237
▁सुप	-1238
▁पैरा	-1239
▁सजा	-1240
▁चोट	-1241
▁महत्वपूर्ण	-1242
▁वस्तु	-1243
▁कानूनी	-1244
▁गैर	-1245
▁अध्य	-1246
▁पिता	-1247
▁संघ	-1248
्स	-1249
▁पेश	-1250
▁लगाया	-1251
▁वाला	-1252
बा	-1253
श्च	-1254
▁ब्र	-1255
िष्ट	-1256
▁एफ	-1257
▁दाव	-1258
▁वृ	-1259
▁बल्	-1260
षण	-1261
जनिक	-1262
चान	-1263
पाल	-1264
▁i	-1265
▁सार्वजनिक	-1266
▁मध्यस्थ	-1267
▁संस्थान	-1268
जार	-1269
▁लंब	-1270
▁बनाने	-1271
▁प्राधिकरण	-1272
धिकार	-1273
▁श्र	-1274
▁प्रकाश	-1275
▁बनाए	-1276
म्म	-1277
▁न्यायाधिकरण	-1278
▁बिक्री	-1279
▁मत	-1280
▁नियुक्ति	-1281
▁बोर्ड	-1282
ेंट	-1283
▁नियंत्र	-1284
▁रोक	-1285
▁स्तर	-1286
▁बैठ	-1287
इट	-1288
▁प्रण	-1289
▁उद	-1290
ठन	-1291
▁पो	-1292
▁मंत्र	-1293
विद	-1294
▁विधि	-1295
▁सूट	-1296
क्षेप	-1297
▁स्वयं	-1298
▁वित्त	-1299
▁प्रया	-1300
▁जर	-1301
▁नाग	-1302
▁सक्षम	-1303
▁आयोजित	-1304
▁जबकि	-1305
▁जमा	-1306
▁गवाहों	-1307
▁वरि	-1308
▁अथवा	-1309
▁परीक्षण	-1310
▁खा	-1311
▁वापस	-1312
▁इसमें	-1313
नाव	-1314
▁शीर्ष	-1315
ीकरण	-1316
▁प्रार	-1317
▁एक्स	-1318
▁गिर	-1319
▁वरिष्ठ	-1320
▁फैसले	-1321
टेड	-1322
▁“	-1323
एल	-1324
▁प्रयास	-1325
▁इसी	-1326
▁सरकारी	-1327
▁आयोग	-1328
▁लेख	-1329
यी	-1330
▁गं	-1331
धन	-1332
ल्ली	-1333
▁विद्व	-1334
पा	-1335
▁श्रे	-1336
▁महा	-1337
▁आपराधिक	-1338
▁समर्थन	-1339
▁परिवार	-1340
ाइल	-1341
▁सवाल	-1342
▁संर	-1343
सान	-1344
र्तन	-1345
स्कार	-1346
▁प्रस	-1347
्वी	-1348
वानी	-1349
ूह	-1350
at	-1351
भर	-1352
▁फ़	-1353
ूट	-1354
▁गां	-1355
▁अभि	-1356
▁आम	-1357
▁विशिष्ट	-1358
द्धि	-1359
▁अधि	-1360
▁नियुक्त	-1361
▁निपट	-1362
▁जानकारी	-1363
▁संग	-1364
▁चिक	-1365
▁दूसरी	-1366
▁सदस्य	-1367
▁बर	-1368
▁खोज	-1369
▁चुनौती	-1370
▁नीति	-1371
एम	-1372
ंकन	-1373
विद्यालय	-1374
▁निर	-1375
▁सुप्रा	-1376
ुट	-1377
▁कल	-1378
ंगिक	-1379
▁हाथ	-1380
▁निदेश	-1381
ण्ड	-1382
म्मी	-1383
▁दुर्	-1384
▁उल्ल	-1385
पन	-1386
▁चार	-1387
▁केंद्र	-1388
▁दूर	-1389
तना	-1390
▁यू	-1391
▁समाज	-1392
▁देना	-1393
▁निष्पाद	-1394
▁उत्प	-1395
बद्ध	-1396
▁बल्कि	-1397
पीसी	-1398
न्द्र	-1399
▁मं	-1400
▁पत्	-1401
▁निहित	-1402
पि	-1403
▁सच	-1404
दिष्ट	-1405
▁देते	-1406
▁उम्मी	-1407
▁विफल	-1408
▁उम्मीद	-1409
▁स्वा	-1410
▁टी	-1411
लन	-1412
▁ताकि	-1413
▁उल्लंघ	-1414
▁ऑफ	-1415
▁कार्यालय	-1416
▁बंद	-1417
▁पड़	-1418
▁भाषा	-1419
्यांकन	-1420
▁संदे	-1421
▁संच	-1422
ालय	-1423
▁मही	-1424
▁तत्	-1425
▁उत्पादन	-1426
▁प्रमुख	-1427
▁प्रती	-1428
▁उल्लंघन	-1429
चारी	-1430
▁प्रतिनि	-1431
▁खरी	-1432
बल	-1433
▁गति	-1434
▁वेतन	-1435
ंश	-1436
▁पालन	-1437
▁विश्वविद्यालय	-1438
▁इससे	-1439
ापन	-1440
▁SC	-1441
क्षर	-1442
▁पहली	-1443
विधा	-1444
▁चिकित	-1445
्रेट	-1446
▁सुरक्षा	-1447
▁पां	-1448
▁संस्	-1449
▁दल	-1450
▁विश्वास	-1451
▁पृष्ठ	-1452
▁कुल	-1453
ासंगिक	-1454
▁दीवानी	-1455
▁पुरस्कार	-1456
▁योग्य	-1457
सत	-1458
▁पहचान	-1459
इन	-1460
▁वर्ग	-1461
▁संह	-1462
▁W	-1463
दाय	-1464
धानिक	-1465
▁संभाव	-1466
▁संहिता	-1467
▁अधिस	-1468
▁विवरण	-1469
ोन	-1470
▁चे	-1471
ंतु	-1472
▁गुण	-1473
च्छेद	-1474
▁N	-1475
वे	-1476
ेंगे	-1477
▁ऋण	-1478
▁अर्था	-1479
▁अधिसू	-1480
लू	-1481
हाँ	-1482
▁पंच	-1483
थम	-1484
▁मज	-1485
▁नई	-1486
▁ची	-1487
▁प्रय	-1488
वरी	-1489
पत्र	-1490
▁चौ	-1491
्रो	-1492
▁पिछ	-1493
▁पूछ	-1494
▁प्राधिक	-1495
▁अस्प	-1496
▁हक	-1497
▁स्थित	-1498
▁मूल्यांकन	-1499
▁जल	-1500
▁भाव	-1501
▁त्र	-1502
ार्थी	-1503
▁अप्र	-1504
▁जग	-1505
▁समझौते	-1506
▁शिकायतकर्ता	-1507
▁लिख	-1508
▁जम	-1509
▁कर्मचारी	-1510
टक	-1511
▁शा	-1512
▁अपीलकर्ताओं	-1513
▁चर्	-1514
is	-1515
▁&	-1516
▁पीड़	-1517
▁लिमि	-1518
▁वहां	-1519
ष्य	-1520
षि	-1521
▁K	-1522
▁संदेह	-1523
रीत	-1524
▁संस्था	-1525
कट	-1526
▁प्रासंगिक	-1527
▁इसकी	-1528
ब्ल	-1529
▁एससी	-1530
▁थीं	-1531
▁सदस्यों	-1532
▁कब्जे	-1533
▁विपरीत	-1534
▁मौजूद	-1535
▁स्कूल	-1536
▁लिमिटेड	-1537
▁जिससे	-1538
▁निगम	-1539
िवार	-1540
▁व्यापार	-1541
▁सुविधा	-1542
▁समु	-1543
ख्या	-1544
▁मानव	-1545
▁संयुक्त	-1546
थमिक	-1547
▁चयन	-1548
▁हित	-1549
▁प्राथमिक	-1550
▁गण	-1551
▁योग्यता	-1552
▁डे	-1553
मता	-1554
ाया	-1555
▁कठ	-1556
▁धन	-1557
▁जवा	-1558
ूर्ति	-1559
जिस्ट्रेट	-1560
▁विदेश	-1561
ंख	-1562
▁ज्ञान	-1563
▁मेरे	-1564
▁उत्पन्न	-1565
▁धर्म	-1566
▁प्रभावित	-1567
▁o	-1568
▁हस्त	-1569
▁अंतर्	-1570
रल	-1571
▁भर	-1572
▁कमी	-1573
भीर	-1574
▁मजिस्ट्रेट	-1575
▁उद्योग	-1576
▁दृष्ट	-1577
▁शरी	-1578
रित	-1579
म्ब	-1580
▁हस्ताक्षर	-1581
ीक	-1582
▁रद्द	-1583
▁भेज	-1584
▁संव	-1585
▁प्रथम	-1586
▁जिसका	-1587
ूँ	-1588
▁दिल्ली	-1589
▁बजे	-1590
▁जनता	-1591
▁प्रदेश	-1592
▁हमारी	-1593
्म	-1594
▁निर्धारण	-1595
▁जे	-1596
कान	-1597
पना	-1598
▁पे	-1599
▁महिला	-1600
▁लगाए	-1601
▁शुल्क	-1602
▁दोषी	-1603
▁Ex	-1604
▁ठहरा	-1605
लो	-1606
▁लिये	-1607
▁"	-1608
▁हकदार	-1609
ूंकि	-1610
▁समूह	-1611
▁चूंकि	-1612
▁नागरिक	-1613
निया	-1614
इस	-1615
▁सुधार	-1616
▁मी	-1617
▁कथित	-1618
शत	-1619
▁महीने	-1620
▁मुकदमे	-1621
▁हल	-1622
▁होंगे	-1623
्ले	-1624
▁घोषणा	-1625
▁खुद	-1626
▁आर्थ	-1627
▁रुपये	-1628
▁प्रारंभ	-1629
▁ठीक	-1630
▁निम्नलिखित	-1631
▁चुनाव	-1632
▁छोट	-1633
▁भरो	-1634
▁अनुसू	-1635
सद	-1636
▁शै	-1637
▁काफी	-1638
▁मद	-1639
ँच	-1640
▁चर्चा	-1641
धारण	-1642
▁आने	-1643
▁इनकार	-1644
▁O	-1645
▁शरीर	-1646
▁अनुच्छेद	-1647
▁सहित	-1648
▁पार्टी	-1649
कृतिक	-1650
▁बदल	-1651
्यास	-1652
▁पाठ	-1653
▁ज़	-1654
▁गंभीर	-1655
▁वास्तविक	-1656
▁उपाय	-1657
तों	-1658
▁निव	-1659
▁लिखित	-1660
▁आर्थिक	-1661
▁विस्तार	-1662
न्म	-1663
ंदर	-1664
भू	-1665
▁जवाब	-1666
▁अभी	-1667
सल	-1668
ाक	-1669
▁अपे	-1670
▁निर्भर	-1671
▁नए	-1672
▁जाएगी	-1673
▁शब्दों	-1674
▁अच्छी	-1675
क्षि	-1676
▁पत्नी	-1677
▁टे	-1678
▁पार्ट	-1679
▁रखते	-1680
▁अने	-1681
▁क्षेत्रों	-1682
▁मालिक	-1683
▁प्रतिशत	-1684
▁विनि	-1685
ताल	-1686
▁व्यवस्था	-1687
▁एच	-1688
▁मिला	-1689
▁कर्मचार	-1690
▁परिय	-1691
▁अपीलार्थी	-1692
विध	-1693
ोस	-1694
▁चिकित्	-1695
▁सहायक	-1696
▁हटा	-1697
▁तौर	-1698
▁कार्यक्रम	-1699
▁परियोजना	-1700
▁>	-1701
▁वर्षों	-1702
▁लड़	-1703
▁सफल	-1704
▁कर्मचारियों	-1705
मन	-1706
▁प्राधिकारी	-1707
गार	-1708
ाजिक	-1709
ियन	-1710
▁भवन	-1711
▁आधारित	-1712
▁संभव	-1713
▁बड़ी	-1714
िको	-1715
▁मुकदमा	-1716
▁ति	-1717
ेयर	-1718
▁वाह	-1719
▁दिनों	-1720
▁मद्दे	-1721
▁खुला	-1722
▁अवै	-1723
▁कृषि	-1724
▁पूर्वो	-1725
र्य	-1726
▁सामाजिक	-1727
ाहरण	-1728
▁निश्चित	-1729
धारा	-1730
डर	-1731
▁मैंने	-1732
▁मद्देन	-1733
ाँकि	-1734
▁प्रबंधन	-1735
▁हालाँकि	-1736
▁हिंद	-1737
▁नियमित	-1738
▁वैध	-1739
▁तीस	-1740
▁निर्दिष्ट	-1741
स्या	-1742
▁स्टेशन	-1743
▁उदाहरण	-1744
▁मद्देनजर	-1745
▁डाल	-1746
▁इंड	-1747
▁शर्तों	-1748
▁प्रतिक	-1749
श्चा	-1750
▁भरोसा	-1751
ri	-1752
▁परिस	-1753
▁प्रभ	-1754
▁विर	-1755
▁क्षमता	-1756
▁रोग	-1757
▁प्रौ	-1758
स्वरूप	-1759
▁लगाने	-1760
▁सबूतों	-1761
▁गर्	-1762
▁अवैध	-1763
ष्ण	-1764
▁भे	-1765
▁उपबंध	-1766
मेंट	-1767
▁कर्त	-1768
▁निजी	-1769
्ट	-1770
्रेड	-1771
फ्त	-1772
▁गये	-1773
्रम	-1774
▁अनेक	-1775
▁जब्त	-1776
▁जमीन	-1777
▁वर्ण	-1778
▁हस्तक्षेप	-1779
शील	-1780
▁नगर	-1781
on	-1782
▁श्रेणी	-1783
▁अधिसूचना	-1784
▁ब्या	-1785
▁आश	-1786
ुप	-1787
▁सीख	-1788
राज	-1789
▁क्रम	-1790
▁दस्तावेजों	-1791
▁संक	-1792
▁प्रणाली	-1793
▁राहत	-1794
▁समा	-1795
▁अनिवार	-1796
▁दिशा	-1797
▁पति	-1798
▁नियंत्रण	-1799
▁उम्मीदवार	-1800
▁वार	-1801
▁सुनि	-1802
▁रहने	-1803
ुओं	-1804
al	-1805
▁रजिस्ट	-1806
▁शक्त	-1807
चन	-1808
वासी	-1809
▁निदेशक	-1810
▁करेंगे	-1811
डे	-1812
▁वित्तीय	-1813
▁पीछ	-1814
▁अनुस	-1815
▁समस्या	-1816
ंडल	-1817
▁सुनवाई	-1818
▁आपको	-1819
▁नव	-1820
▁न्यायालयों	-1821
▁पीड़ित	-1822
▁सुना	-1823
▁अनुरोध	-1824
आईआर	-1825
▁प्रदर्शन	-1826
▁सुनिश्चित	-1827
▁व्याख्या	-1828
हास	-1829
ब्ल्यू	-1830
▁आत्म	-1831
ST	-1832
▁बड़े	-1833
▁बल	-1834
▁अनिवार्य	-1835
▁सै	-1836
▁ब्याज	-1837
न्तु	-1838
▁बाव	-1839
ियो	-1840
▁तदन	-1841
▁पूर्वोक्त	-1842
▁बाल	-1843
▁प्रार्थ	-1844
धु	-1845
क्षक	-1846
▁प्रार्थना	-1847
▁पुष्टि	-1848
▁समी	-1849
स्थ्य	-1850
्याय	-1851
▁स्थापना	-1852
▁पूरे	-1853
▁इरा	-1854
▁दर्शा	-1855
▁रंग	-1856
en	-1857
▁हिस्सा	-1858
▁बें	-1859
▁आवेदक	-1860
जों	-1861
▁छा	-1862
▁विनियम	-1863
▁जिसने	-1864
टन	-1865
▁प्रतिनिध	-1866
राब	-1867
▁आन	-1868
▁अग्र	-1869
▁आस	-1870
▁तदनुसार	-1871
▁प्रौद्योगिक	-1872
िक्ष	-1873
▁क्ल	-1874
▁बाजार	-1875
▁जानी	-1876
तियों	-1877
ूक	-1878
▁कहते	-1879
र्श	-1880
▁अम	-1881
▁चिकित्सा	-1882
▁याद	-1883
ंजी	-1884
ur	-1885
दम	-1886
थि	-1887
▁इस्त	-1888
▁सुझ	-1889
▁मंजू	-1890
▁उससे	-1891
▁परिभा	-1892
ट्टी	-1893
▁कौ	-1894
▁हत्या	-1895
ांक	-1896
▁पुस्त	-1897
▁लेन	-1898
▁आयुक्त	-1899
▁संभावना	-1900
er	-1901
▁लक्ष	-1902
▁तुल	-1903
▁स्वास्थ्य	-1904
सित	-1905
▁हमने	-1906
▁एज	-1907
▁कारणों	-1908
▁पें	-1909
▁परिवर्तन	-1910
▁आयु	-1911
▁एल	-1912
▁आक	-1913
▁बावजूद	-1914
१०	-1915
एँ	-1916
▁जिन्हें	-1917
▁पार्टियों	-1918
▁उत्तरदाता	-1919
▁तकनी	-1920
ेम	-1921
िकोण	-1922
▁देखते	-1923
▁निर्धारिती	-1924
▁अत्य	-1925
▁सीमित	-1926
पण	-1927
▁हिस्से	-1928
▁पुनर्	-1929
▁यहाँ	-1930
त्व	-1931
▁‘	-1932
es	-1933
ानि	-1934
िव्य	-1935
ैंड	-1936
▁अपीलीय	-1937
▁जगह	-1938
फार	-1939
▁तर	-1940
▁G	-1941
तिहास	-1942
▁अधिकारों	-1943
▁प्रतीत	-1944
▁पैदा	-1945
▁मंद	-1946
म्प	-1947
वादियों	-1948
▁क़	-1949
▁लाख	-1950
▁अन्त	-1951
▁हेतु	-1952
▁बस	-1953
ग्	-1954
मिल	-1955
्यिक	-1956
▁L	-1957
▁लाल	-1958
▁इच्छ	-1959
▁मात्रा	-1960
ंसा	-1961
बन्	-1962
▁संसद	-1963
▁अस्पताल	-1964
▁मार	-1965
▁T	-1966
▁बचाव	-1967
▁आपके	-1968
▁सहयोग	-1969
प्ता	-1970
▁व्यक्तिगत	-1971
▁जिन्होंने	-1972
सि	-1973
▁स्वतंत्रता	-1974
▁मुआ	-1975
फारिश	-1976
▁पांच	-1977
▁हिन्द	-1978
▁मुद्दे	-1979
बू	-1980
▁मार्ग	-1981
लाई	-1982
▁आए	-1983
▁बढ़ा	-1984
▁”	-1985
▁पश्च	-1986
▁दायित्व	-1987
▁सिफारिश	-1988
▁व्यवसाय	-1989
▁सीआर	-1990
▁संके	-1991
▁व्यापक	-1992
डा	-1993
▁अंक	-1994
▁लगता	-1995
▁मुआव	-1996
▁उपस्थिति	-1997
▁विज्ञान	-1998
▁दृष्टिकोण	-1999
▁व्यवहार	-2000
चल	-2001
▁कट	-2002
▁अर	-2003
▁विधान	-2004
▁भाई	-2005
र्न	-2006
▁तुम	-2007
▁तत्काल	-2008
▁विवाह	-2009
▁वाद	-2010
जित	-2011
▁कैसे	-2012
▁परिणामस्वरूप	-2013
▁H	-2014
▁पोस्ट	-2015
▁अध्यक्ष	-2016
▁भर्ती	-2017
▁विद्वत	-2018
मती	-2019
्यादा	-2020
पूर्व	-2021
▁चलता	-2022
बार	-2023
▁उच्चतम	-2024
▁रोज	-2025
▁केंद	-2026
तार	-2027
▁उपधारा	-2028
▁अनुमान	-2029
लाह	-2030
▁घोषित	-2031
र्च	-2032
ह्न	-2033
▁सेवाओं	-2034
▁प्रौद्योगिकी	-2035
▁पंजीकृत	-2036
षित	-2037
▁लाइस	-2038
in	-2039
▁बच्चों	-2040
ोक्ता	-2041
▁निकाल	-2042
▁बीमा	-2043
मार्	-2044
▁सूचित	-2045
▁उपस्थित	-2046
▁अन्यथा	-2047
▁शि	-2048
▁संत	-2049
▁सुझाव	-2050
▁निवेश	-2051
▁रक्षा	-2052
▁J	-2053
▁V	-2054
▁सभा	-2055
▁खरीद	-2056
▁उपयुक्त	-2057
ha	-2058
ांति	-2059
ग्रहण	-2060
यों	-2061
▁जोड़	-2062
▁गयी	-2063
ूरी	-2064
लोक	-2065
▁बच्चे	-2066
खिल	-2067
ानीय	-2068
धीन	-2069
▁खो	-2070
▁जीव	-2071
▁एकल	-2072
्राफ	-2073
▁अमे	-2074
▁सत्र	-2075
▁a	-2076
▁लाइसेंस	-2077
▁वही	-2078
▁चाहते	-2079
धे	-2080
लग्न	-2081
▁प्रधान	-2082
▁भौ	-2083
▁संतु	-2084
▁स्थानीय	-2085
▁अनुभव	-2086
▁स्थायी	-2087
▁जन्म	-2088
▁अभियुक्तों	-2089
▁सहमति	-2090
▁अस्वी	-2091
ंगत	-2092
▁भूम	-2093
त्स	-2094
▁क्रिया	-2095
▁स्पष्टीकरण	-2096
णिज	-2097
▁पिछले	-2098
▁कवि	-2099
▁विदेशी	-2100
▁यात्रा	-2101
▁दलील	-2102
वरण	-2103
▁अगस्त	-2104
▁केंद्रीय	-2105
▁मेरी	-2106
नाथ	-2107
▁पानी	-2108
शिश	-2109
▁सचिव	-2110
▁जमान	-2111
▁वृद्धि	-2112
ैन	-2113
रासत	-2114
िप्	-2115
▁चरण	-2116
▁बाध्य	-2117
फना	-2118
ेमाल	-2119
▁गिरफ्त	-2120
▁वाणिज	-2121
▁कोशिश	-2122
▁अंतर्गत	-2123
िकल	-2124
▁प्रशिक्ष	-2125
▁छो	-2126
▁सम्मान	-2127
▁इस्तेमाल	-2128
▁रखना	-2129
▁प्रतिनिधित्व	-2130
▁मदद	-2131
ज्ञा	-2132
▁बैठक	-2133
ृत्ति	-2134
▁अह	-2135
▁कॉले	-2136
▁औद्योगिक	-2137
▁संशोधित	-2138
▁अंग्रे	-2139
▁समीक्षा	-2140
▁मंजूरी	-2141
▁बेंच	-2142
▁यानी	-2143
डब्ल्यू	-2144
▁हूँ	-2145
▁असम	-2146
▁सौंप	-2147
▁आकर्ष	-2148
▁जरूर	-2149
▁देरी	-2150
ार्ड	-2151
▁संकेत	-2152
वर्ती	-2153
भाग	-2154
▁IST	-2155
▁WP	-2156
▁नौ	-2157
▁मध्यस्थता	-2158
▁सेट	-2159
▁राजस्व	-2160
▁देशों	-2161
▁दावे	-2162
▁मंदिर	-2163
सन	-2164
ुष	-2165
▁आरोपों	-2166
▁सुरक्षित	-2167
▁प्राकृतिक	-2168
▁पीछे	-2169
▁देय	-2170
▁नुक	-2171
िवी	-2172
दायी	-2173
ियर	-2174
▁भूमिका	-2175
ंज	-2176
ेंसी	-2177
ान्त	-2178
▁करोड़	-2179
बे	-2180
▁चिह्न	-2181
No	-2182
संद	-2183
▁इंग	-2184
स्तान	-2185
▁संबंधी	-2186
▁विकसित	-2187
▁हलफना	-2188
▁आदेशों	-2189
खंड	-2190
▁कप	-2191
▁बंग	-2192
▁अनुमो	-2193
▁बहु	-2194
ूठ	-2195
▁संदर्भित	-2196
▁परिष	-2197
▁समझौता	-2198
▁वाहन	-2199
▁एफआईआर	-2200
▁सिद्धांतों	-2201
चर	-2202
▁पंजीकरण	-2203
▁बिंद	-2204
00	-2205
▁तुलना	-2206
यां	-2207
ष्ट्रीय	-2208
▁यु	-2209
िप	-2210
ियाँ	-2211
ेंद्र	-2212
ण्	-2213
▁इला	-2214
▁दूसरा	-2215
ra	-2216
▁एससीसी	-2217
▁वैधानिक	-2218
▁लो	-2219
▁डिक्री	-2220
▁जिम्म	-2221
स्त्र	-2222
▁नुकसान	-2223
▁राजनी	-2224
▁ठहराया	-2225
▁अभिव्य	-2226
▁काउ	-2227
▁प्रभावी	-2228
▁दृष्टि	-2229
▁छात्र	-2230
▁लागत	-2231
▁बज	-2232
▁छोटे	-2233
▁कदम	-2234
▁निपटान	-2235
▁रेल	-2236
▁सत	-2237
▁प्रशास	-2238
▁लौ	-2239
▁धो	-2240
▁देव	-2241
▁अल	-2242
▁भेजा	-2243
▁मंत्रालय	-2244
▁वेब	-2245
▁जहाँ	-2246
ैल	-2247
▁जमानत	-2248
यात	-2249
र्मा	-2250
दारी	-2251
▁तिथि	-2252
ुआ	-2253
▁प्रदर्श	-2254
र्जी	-2255
▁ग्राम	-2256
एफ	-2257
सीय	-2258
ड़क	-2259
▁प्रतिवादियों	-2260
▁लेकर	-2261
ॉल	-2262
दंड	-2263
▁बिल	-2264
▁भवि	-2265
▁अनुचित	-2266
▁पदार्थ	-2267
▁पीठ	-2268
▁चाल	-2269
▁चार्	-2270
▁बां	-2271
▁परे	-2272
▁d	-2273
▁आईपीसी	-2274
जनक	-2275
ंटी	-2276
▁भले	-2277
ताछ	-2278
▁भविष्य	-2279
▁त्रुट	-2280
▁ज्यादा	-2281
त्मा	-2282
▁दक्षि	-2283
ist	-2284
▁बोली	-2285
▁श्रीमती	-2286
▁मोट	-2287
्रेस	-2288
▁00	-2289
▁of	-2290
▁एंड	-2291
एन	-2292
▁निरी	-2293
▁किस	-2294
कु	-2295
ंगे	-2296
मात्र	-2297
राह	-2298
ांतर	-2299
▁रहते	-2300
▁लंबित	-2301
▁अर्थात्	-2302
▁गांव	-2303
▁उत्तरदायी	-2304
सिक	-2305
ंधान	-2306
ct	-2307
▁मर	-2308
▁शक्तियों	-2309
▁निष्पादित	-2310
ल्ड	-2311
▁रहता	-2312
त्तियों	-2313
▁विकल्प	-2314
ाधिकार	-2315
▁विज्ञ	-2316
▁इका	-2317
▁फर	-2318
▁पश्चा	-2319
िवीजन	-2320
▁अच्छा	-2321
तनी	-2322
▁पूछताछ	-2323
▁बड़ा	-2324
▁संपर्क	-2325
▁अस्त	-2326
ेशा	-2327
▁विरोध	-2328
▁अनुपालन	-2329
▁उसमें	-2330
▁प्रकट	-2331
▁प्रारंभिक	-2332
ामीण	-2333
▁कर्	-2334
ट्स	-2335
▁चर	-2336
▁प्रकाशित	-2337
▁सत्य	-2338
▁संचालन	-2339
लब	-2340
यर	-2341
रिम	-2342
▁चाहे	-2343
▁ग्रामीण	-2344
▁कर्तव्य	-2345
▁पेट	-2346
▁आपूर्ति	-2347
▁मजब	-2348
▁अस्थ	-2349
▁आपत्ति	-2350
▁जाये	-2351
▁आद	-2352
▁अधिग्रहण	-2353
▁संसा	-2354
▁गठन	-2355
११	-2356
्ला	-2357
▁दिखाई	-2358
▁उपकरण	-2359
र्इ	-2360
▁अपेक्षा	-2361
चरण	-2362
▁अनुसंधान	-2363
▁डिवीजन	-2364
▁निर्णयों	-2365
▁प्रशासन	-2366
▁खाते	-2367
▁मार्च	-2368
▁अनुश	-2369
▁राज्यों	-2370
खी	-2371
र्ग	-2372
▁रखी	-2373
▁विद्य	-2374
पूर्वक	-2375
▁हमेशा	-2376
▁रू	-2377
▁जोर	-2378
▁खे	-2379
▁पक्षों	-2380
▁नम	-2381
▁उनमें	-2382
शल	-2383
▁देखने	-2384
▁एड	-2385
षे	-2386
ानुसार	-2387
▁वसू	-2388
बाद	-2389
र्फ	-2390
विदा	-2391
▁सलाह	-2392
▁बाहरी	-2393
▁यही	-2394
▁मिली	-2395
▁चित्र	-2396
▁विल	-2397
ल्पना	-2398
▁इतिहास	-2399
▁लॉ	-2400
▁तुर	-2401
▁अध्ययन	-2402
▁छूट	-2403
▁निष्पादन	-2404
▁काल	-2405
ड़ों	-2406
▁वन	-2407
▁टिप्	-2408
▁कार्यों	-2409
▁पात्र	-2410
▁उठाया	-2411
टों	-2412
▁तकनीकी	-2413
▁कला	-2414
▁अनुसूची	-2415
▁पक	-2416
▁चुका	-2417
▁पेंशन	-2418
▁अंतरिम	-2419
▁यून	-2420
▁दाखिल	-2421
▁ढंग	-2422
▁गवाही	-2423
▁शीर्षक	-2424
▁आता	-2425
▁जाति	-2426
▁खर्च	-2427
▁रचना	-2428
▁माता	-2429
▁रक्त	-2430
▁जिनके	-2431
▁भिन्न	-2432
▁वसूली	-2433
▁भौतिक	-2434
▁संगठन	-2435
▁आवंट	-2436
▁भावना	-2437
जरा	-2438
▁प्रेम	-2439
▁युद्ध	-2440
▁नक	-2441
▁यद्य	-2442
हरी	-2443
▁लाया	-2444
▁मान्यता	-2445
▁बोल	-2446
▁यद्यपि	-2447
▁आरंभ	-2448
म्र	-2449
▁देवी	-2450
▁शासन	-2451
▁रोजगार	-2452
ंता	-2453
▁डा	-2454
जय	-2455
किल	-2456
▁शेष	-2457
▁लगे	-2458
तने	-2459
▁बुला	-2460
▁उठाए	-2461
▁विस्तृत	-2462
▁साहित	-2463
▁महान	-2464
▁Dist	-2465
▁पहलू	-2466
▁लिखा	-2467
▁जिरह	-2468
▁पाठ्य	-2469
▁होनी	-2470
▁निविदा	-2471
▁सर्	-2472
वीं	-2473
▁त्रुटि	-2474
▁विरुद्ध	-2475
टल	-2476
▁ते	-2477
▁मिले	-2478
ायद	-2479
डियो	-2480
▁एकमात्र	-2481
▁पदो	-2482
▁किरा	-2483
▁पेज	-2484
▁मौत	-2485
▁कॉलेज	-2486
▁जिनमें	-2487
▁निर्वा	-2488
▁अस्तित्व	-2489
▁आरोपियों	-2490
▁होकर	-2491
▁प्रवि	-2492
ंतर	-2493
▁पदोन्न	-2494
▁शव	-2495
भूत	-2496
▁प्रग	-2497
▁हिरासत	-2498
▁सीखे	-2499
▁वाय	-2500
▁चाहता	-2501
▁देती	-2502
▁आकार	-2503
▁निषे	-2504
▁केस	-2505
▁बरा	-2506
▁जून	-2507
▁निकल	-2508
▁व्याव	-2509
▁बिंदु	-2510
पक	-2511
▁खुलासा	-2512
स्क	-2513
▁सेवान	-2514
▁आचरण	-2515
▁पुत्र	-2516
▁संस्थानों	-2517
श्त	-2518
▁सेवानिव	-2519
▁साह	-2520
▁परंतु	-2521
▁मश	-2522
▁उपर्	-2523
्मिक	-2524
▁हमारा	-2525
्यून	-2526
▁विवेक	-2527
िल्	-2528
▁तरफ	-2529
▁परिषद	-2530
▁निर्देशित	-2531
▁गाँ	-2532
मों	-2533
▁टै	-2534
▁वाणिज्यिक	-2535
▁संय	-2536
▁विद्वान	-2537
▁संरक्षण	-2538
▁उपर्युक्त	-2539
▁कहना	-2540
ज्	-2541
▁अभिव्यक्ति	-2542
▁आकर्षित	-2543
▁किर	-2544
▁अप्रैल	-2545
▁बेहत	-2546
म्ह	-2547
ायक	-2548
▁अभ्यास	-2549
्यो	-2550
▁बराम	-2551
▁साव	-2552
सम	-2553
केट	-2554
पे	-2555
बन्ध	-2556
▁अर्थात	-2557
▁गुर	-2558
▁II	-2559
▁विश्ले	-2560
▁ii	-2561
▁छु	-2562
▁जाँच	-2563
ल्स	-2564
▁बराबर	-2565
▁गार	-2566
▁पट्	-2567
▁फैसला	-2568
▁परिसर	-2569
ैतिक	-2570
▁गांधी	-2571
▁प्रशिक्षण	-2572
▁हथ	-2573
▁विरो	-2574
ज्ञानिक	-2575
▁प्रत्यक्ष	-2576
▁तंत्र	-2577
▁दें	-2578
▁इस्ल	-2579
▁सत्ता	-2580
साइट	-2581
▁रात	-2582
▁संस्करण	-2583
▁प्रशासनिक	-2584
ेदारी	-2585
ून्य	-2586
▁कहीं	-2587
▁सां	-2588
▁कांग	-2589
▁याचिकाओं	-2590
▁t	-2591
▁विनिर्	-2592
▁साधारण	-2593
▁प्रतिबंध	-2594
▁बॉ	-2595
▁सित	-2596
▁जिसकी	-2597
ंगल	-2598
▁करनी	-2599
▁खेल	-2600
▁नया	-2601
ांतरित	-2602
▁धी	-2603
सं	-2604
ालित	-2605
ठित	-2606
भाई	-2607
▁कोर्इ	-2608
▁पुनः	-2609
▁पीसी	-2610
▁संदेश	-2611
▁साझ	-2612
ेदन	-2613
▁भ्र	-2614
▁बिज	-2615
क़	-2616
▁अनुक	-2617
▁प्रगति	-2618
▁सिर	-2619
▁दावेदार	-2620
▁परन्तु	-2621
▁झूठ	-2622
▁इंडिया	-2623
▁थो	-2624
▁रिक्त	-2625
▁पौ	-2626
▁समझा	-2627
▁जल्	-2628
धानी	-2629
▁राजा	-2630
▁तुरंत	-2631
▁पहल	-2632
त्कार	-2633
▁अश	-2634
▁क्षति	-2635
न्व	-2636
▁पूंजी	-2637
▁पंचायत	-2638
▁मेड	-2639
▁दक्षिण	-2640
▁फाइल	-2641
▁उल्लिखित	-2642
▁जरूरत	-2643
▁निकाय	-2644
▁भागी	-2645
▁मुआवजे	-2646
▁अध्याय	-2647
▁संतुष्ट	-2648
▁लगी	-2649
गढ़	-2650
ॉस	-2651
भाल	-2652
▁सराह	-2653
▁तुम्ह	-2654
▁शून्य	-2655
il	-2656
▁बरामद	-2657
▁निर्यात	-2658
क्शन	-2659
ृत्त	-2660
्रिय	-2661
लाव	-2662
फा	-2663
▁SCC	-2664
▁गुजरा	-2665
▁कारा	-2666
▁अस्वीकार	-2667
▁c	-2668
▁विलेख	-2669
▁निम्नानुसार	-2670
त्साह	-2671
▁शेयर	-2672
रेट	-2673
▁नही	-2674
▁शे	-2675
▁अवि	-2676
रक	-2677
ंजन	-2678
ॉक	-2679
▁उद्य	-2680
▁पाठ्यक्रम	-2681
▁पुरुष	-2682
ज़ा	-2683
▁सोच	-2684
▁पुरा	-2685
▁दिस	-2686
▁कृत	-2687
▁छोड़कर	-2688
▁अधिका	-2689
▁उम्मीदवारों	-2690
सनीय	-2691
ैधानिक	-2692
फे	-2693
▁पाए	-2694
▁भग	-2695
▁स्रो	-2696
▁शिव	-2697
▁क़ान	-2698
▁पहला	-2699
▁विंड	-2700
ांड	-2701
▁पड़ा	-2702
▁मुक्त	-2703
▁संचार	-2704
घु	-2705
▁शायद	-2706
रिका	-2707
▁सड़क	-2708
▁उपचार	-2709
▁महारा	-2710
श्वर	-2711
▁तत्व	-2712
साइ	-2713
▁अनुरूप	-2714
▁विशेषज्ञ	-2715
▁सुब	-2716
▁पसंद	-2717
पालिका	-2718
▁छह	-2719
▁तेल	-2720
▁पदों	-2721
▁बेहतर	-2722
▁अभाव	-2723
▁अपराधों	-2724
गल	-2725
▁चेक	-2726
▁सामना	-2727
▁संरचना	-2728
▁बचा	-2729
आईसी	-2730
र्जा	-2731
▁रखे	-2732
▁विज्ञापन	-2733
्राइ	-2734
दाता	-2735
िना	-2736
▁क़ानून	-2737
कारों	-2738
▁इतना	-2739
as	-2740
प्ताह	-2741
▁सहमत	-2742
▁जनवरी	-2743
▁राजनीतिक	-2744
▁बढ़ाने	-2745
स्ति	-2746
हीन	-2747
नात्मक	-2748
▁निरंतर	-2749
▁प्रयोज	-2750
▁इच्छा	-2751
▁कार्यकारी	-2752
▁मई	-2753
▁री	-2754
▁पाल	-2755
श्छ	-2756
ल्ल	-2757
▁दुकान	-2758
▁निपटा	-2759
▁दिखाया	-2760
्ष्	-2761
▁गतिविध	-2762
▁लेना	-2763
▁लेखा	-2764
▁बने	-2765
▁आत	-2766
▁सत्या	-2767
▁पराम	-2768
▁मतलब	-2769
▁कीमत	-2770
▁किराय	-2771
▁अमेरिका	-2772
चि	-2773
्यूटर	-2774
▁स्थानांतरित	-2775
▁ऊण्	-2776
▁मेरा	-2777
श्छ्ष्	-2778
▁ऊण्श्छ्ष्	-2779
▁अनुदान	-2780
▁दुनिया	-2781
▁वहाँ	-2782
ag	-2783
▁पड़ता	-2784
▁शाखा	-2785
▁उनसे	-2786
▁दिल	-2787
▁किंतु	-2788
and	-2789
▁दिव	-2790
▁विच	-2791
▁उपभ	-2792
द्रा	-2793
▁वेबसाइट	-2794
▁जाय	-2795
IR	-2796
ंगा	-2797
▁पीएस	-2798
▁गाँव	-2799
▁विद्या	-2800
▁न्यून	-2801
▁फॉ	-2802
▁करा	-2803
▁मानते	-2804
राव	-2805
▁सराहना	-2806
▁पर्य	-2807
▁आग	-2808
▁किये	-2809
▁शादी	-2810
▁बरी	-2811
▁मशीन	-2812
▁दिखाने	-2813
मारी	-2814
▁प्रतिष्ठ	-2815
किंग	-2816
▁दायरे	-2817
▁उद्ध	-2818
▁सेना	-2819
ियार	-2820
धुनिक	-2821
घटना	-2822
▁श्रम	-2823
▁ती	-2824
दर्श	-2825
▁नजर	-2826
▁परिभाषित	-2827
▁अक	-2828
▁पुस्तक	-2829
▁सक्रिय	-2830
ad	-2831
AR	-2832
▁सन्	-2833
द्व	-2834
▁मुद्द	-2835
▁संकल्प	-2836
ठी	-2837
▁धोखा	-2838
पथ	-2839
▁कल्या	-2840
ंटर	-2841
▁सात	-2842
▁प्रोत्साह	-2843
▁विभा	-2844
▁खाद	-2845
▁समाप्ति	-2846
ूबर	-2847
▁कांग्रेस	-2848
▁कारावास	-2849
▁अफ	-2850
▁w	-2851
▁इक	-2852
▁क्रॉस	-2853
ोह	-2854
▁लाने	-2855
▁भारी	-2856
▁डॉक्टर	-2857
▁मंत्री	-2858
▁जुलाई	-2859
▁योगदान	-2860
ल्ट	-2861
▁वें	-2862
▁देगा	-2863
▁शांति	-2864
▁दुर्घटना	-2865
भार	-2866
▁बिजली	-2867
▁ब्ल	-2868
▁जज	-2869
भूमि	-2870
▁बेटी	-2871
जूदा	-2872
▁मेडिकल	-2873
▁संपूर्ण	-2874
▁विश्लेषण	-2875
▁मुद्दों	-2876
▁बंध	-2877
▁सप्ताह	-2878
▁निकाला	-2879
▁समुदाय	-2880
▁वस्तुओं	-2881
▁न्यूनतम	-2882
▁मौजूदा	-2883
▁दृश्य	-2884
स्टर	-2885
ारात्मक	-2886
▁बजाय	-2887
▁समाधान	-2888
▁दस	-2889
कम	-2890
▁कंपन	-2891
▁साहित्य	-2892
▁स्टे	-2893
▁मॉ	-2894
▁लक्ष्य	-2895
मंत्र	-2896
संगत	-2897
▁निर्व	-2898
माने	-2899
▁अंदर	-2900
am	-2901
▁एकत्र	-2902
▁हस्तांत	-2903
▁वसीय	-2904
▁प्रतिकूल	-2905
ent	-2906
▁नर	-2907
▁वैज्ञानिक	-2908
बिर	-2909
▁आधुनिक	-2910
▁मिलता	-2911
▁मिश	-2912
pur	-2913
▁प्रदर्शित	-2914
श्म	-2915
▁गारंटी	-2916
ृह	-2917
▁स्थग	-2918
▁आते	-2919
▁अगले	-2920
▁कल्याण	-2921
▁केन्द्र	-2922
शु	-2923
▁परामर्श	-2924
▁प्राय	-2925
▁पदोन्नति	-2926
▁ज्ञापन	-2927
▁हमला	-2928
▁निर्मित	-2929
▁विभाजन	-2930
पक्ष	-2931
▁रेलवे	-2932
▁खोल	-2933
▁घायल	-2934
▁तीसरे	-2935
▁इंटर	-2936
▁पंजा	-2937
▁पर्यावरण	-2938
दय	-2939
▁वितरण	-2940
कता	-2941
rict	-2942
▁आतंक	-2943
▁संलग्न	-2944
▁कब्जा	-2945
it	-2946
▁संवैधानिक	-2947
▁मुखबिर	-2948
▁बेच	-2949
▁मू	-2950
▁शास	-2951
▁शर्मा	-2952
▁कटौती	-2953
▁District	-2954
१२	-2955
वाय	-2956
▁नदी	-2957
▁देन	-2958
▁कोड	-2959
▁F	-2960
▁एक्	-2961
▁तला	-2962
▁फरवरी	-2963
or	-2964
▁सश	-2965
ांस	-2966
▁चिह्नित	-2967
ड्	-2968
▁शहर	-2969
▁रोकने	-2970
▁पाने	-2971
▁यथा	-2972
▁जिम्मेदार	-2973
र्द	-2974
ध्या	-2975
टव	-2976
▁खुल	-2977
▁इंगित	-2978
▁अधिकांश	-2979
▁धार्मिक	-2980
क्रमण	-2981
रत	-2982
▁दश	-2983
▁दुर	-2984
▁स्थल	-2985
गो	-2986
▁परिस्थिति	-2987
▁अवलोक	-2988
वत्ता	-2989
▁मुसल	-2990
▁विविध	-2991
▁पृथ	-2992
▁उम्र	-2993
▁अंग्रेजी	-2994
▁पश्चिम	-2995
▁क्षेत्रीय	-2996
चक	-2997
▁इंज	-2998
▁मौके	-2999
▁परिवहन	-3000
▁मानसिक	-3001
ृति	-3002
्वर	-3003
▁निश	-3004
▁अनुमोदन	-3005
▁वो	-3006
▁ग्राह	-3007
ृत्व	-3008
्राम	-3009
▁गुजरात	-3010
कीय	-3011
▁उत्स	-3012
▁भोजन	-3013
▁करेगी	-3014
ोलन	-3015
▁गुणवत्ता	-3016
ंचित	-3017
▁मुसलमान	-3018
▁कहानी	-3019
ंथ	-3020
ूम	-3021
▁एक्ट	-3022
▁दौ	-3023
पीठ	-3024
▁जित	-3025
▁मना	-3026
▁खून	-3027
▁फल	-3028
▁मोह	-3029
▁आग्रह	-3030
▁पढ़ने	-3031
▁अल्प	-3032
▁ऊर्जा	-3033
ंटे	-3034
▁क्षेत्राधिकार	-3035
खिक	-3036
▁छोटी	-3037
▁बंगाल	-3038
▁खत	-3039
▁सफलता	-3040
▁पद्ध	-3041
▁फ्र	-3042
▁शारी	-3043
▁प्रस्तावित	-3044
▁गणना	-3045
▁चलाने	-3046
▁जुड़े	-3047
▁सीधे	-3048
▁छात्रों	-3049
▁मुद्रा	-3050
▁गी	-3051
▁अवस्था	-3052
▁मंडल	-3053
▁खाली	-3054
▁निवास	-3055
बोध	-3056
न्ट	-3057
दर	-3058
तक	-3059
▁सुबह	-3060
▁कले	-3061
▁आकलन	-3062
ंव	-3063
▁हास	-3064
▁मनोर	-3065
मल	-3066
द्दा	-3067
▁ध्व	-3068
AN	-3069
नेट	-3070
▁जेल	-3071
▁माप	-3072
▁विश्वसनीय	-3073
▁शंक	-3074
▁माँ	-3075
▁विचारों	-3076
पात	-3077
▁प्रसाद	-3078
▁अवलोकन	-3079
▁शारीरिक	-3080
▁गि	-3081
▁अके	-3082
चारिक	-3083
▁मित्र	-3084
्रिया	-3085
लिक	-3086
तृत्व	-3087
रिया	-3088
▁इस्लाम	-3089
▁पश्चात्	-3090
ितीय	-3091
▁बनाई	-3092
▁दिसंबर	-3093
▁p	-3094
ैक	-3095
▁सका	-3096
एच	-3097
वक	-3098
▁अहम	-3099
ग्राफ	-3100
▁अनुसूचित	-3101
▁निधि	-3102
▁अनुपात	-3103
▁चाहिये	-3104
▁चार्ज	-3105
कालिक	-3106
हरे	-3107
▁रखता	-3108
लंब	-3109
▁मनु	-3110
▁सिर्फ	-3111
▁पढ़ा	-3112
▁आनंद	-3113
▁स्वामी	-3114
▁इरादा	-3115
▁प्रमाणित	-3116
▁जैसी	-3117
▁नील	-3118
▁निवासी	-3119
रीय	-3120
▁मजद	-3121
▁कॉल	-3122
ed	-3123
▁मोटर	-3124
उस	-3125
ंगी	-3126
▁दिख	-3127
▁इनमें	-3128
व्यव	-3129
▁शुद्ध	-3130
ंबई	-3131
बि	-3132
▁मौखिक	-3133
▁निषेधा	-3134
मय	-3135
चीन	-3136
▁खाता	-3137
▁उपन	-3138
▁निष्पक्ष	-3139
▁सर्वे	-3140
▁निर्देशों	-3141
▁कठोर	-3142
▁वालों	-3143
▁करी	-3144
▁वसीयत	-3145
▁सितंबर	-3146
▁बर्	-3147
▁औसत	-3148
ष्ट्र	-3149
▁लेते	-3150
▁मुखर्जी	-3151
्वेष	-3152
▁प्ल	-3153
▁हलफनामे	-3154
▁निरीक्षण	-3155
घा	-3156
न्स	-3157
har	-3158
▁उठाने	-3159
बिट	-3160
▁कलेक्टर	-3161
▁आयात	-3162
id	-3163
▁मात्र	-3164
▁पीडब्ल्यू	-3165
ुता	-3166
▁कवर	-3167
▁पड़े	-3168
▁दोहरा	-3169
EN	-3170
▁v	-3171
▁अच्छे	-3172
▁गिरफ्तार	-3173
▁गा	-3174
्षिक	-3175
▁वंचित	-3176
सूस	-3177
डिया	-3178
▁पाते	-3179
▁न्यू	-3180
▁इंजीन	-3181
▁स्म	-3182
पु	-3183
▁न्यायाधीशों	-3184
▁शुरुआ	-3185
ंदा	-3186
▁गतिविधियों	-3187
▁इकाई	-3188
▁नमू	-3189
▁विचारा	-3190
▁परिभाषा	-3191
▁प्राप्ति	-3192
▁चुके	-3193
▁स्रोत	-3194
▁केन्द	-3195
मीर	-3196
▁प्राथमिकता	-3197
ंका	-3198
▁परिवर्त	-3199
▁लगातार	-3200
▁फर्म	-3201
वाला	-3202
▁व्यय	-3203
▁पकड़	-3204
▁मजबूत	-3205
ियोग	-3206
▁भेद	-3207
▁सकें	-3208
▁निषेधाज्ञा	-3209
▁AIR	-3210
▁आब	-3211
▁कंप्यूटर	-3212
▁दूरी	-3213
▁नियंत्रित	-3214
▁युवा	-3215
िटी	-3216
▁निकट	-3217
▁आधिकार	-3218
▁युग	-3219
▁निष्कर्षों	-3220
▁सुल	-3221
▁वर्णित	-3222
▁आंद	-3223
▁विचाराधीन	-3224
▁टिप्पण	-3225
फ्ट	-3226
बाइल	-3227
म्भ	-3228
▁हिंदू	-3229
▁आधिकारिक	-3230
▁लघु	-3231
काया	-3232
▁मुद्दा	-3233
▁तेज	-3234
▁स्वीकृति	-3235
▁डेटा	-3236
▁रहती	-3237
ियल	-3238
▁सच्च	-3239
▁नियोक्ता	-3240
▁कृष्ण	-3241
▁अत्यधिक	-3242
▁असा	-3243
▁पैराग्राफ	-3244
▁अनि	-3245
पचारिक	-3246
▁आत्मा	-3247
▁वर्णन	-3248
▁सृ	-3249
▁उन्न	-3250
▁जरूरी	-3251
▁नेतृत्व	-3252
लिंग	-3253
▁त्व	-3254
धनों	-3255
▁ट्रस्ट	-3256
▁फोन	-3257
म्बर	-3258
मंत्री	-3259
▁हटाने	-3260
ुपयोग	-3261
▁माह	-3262
▁प्रयोजन	-3263
▁चीज	-3264
▁निर्वहन	-3265
्यात्मक	-3266
▁दस्तावेज़	-3267
▁बिहार	-3268
▁संघर्ष	-3269
▁वैधता	-3270
▁असमर्थ	-3271
▁स्वाम	-3272
▁ग्रह	-3273
▁सावधानी	-3274
▁उत्तराधिक	-3275
▁रजिस्ट्र	-3276
▁लै	-3277
▁दरवा	-3278
▁प्रेरित	-3279
▁तभी	-3280
▁सहकारी	-3281
▁किसान	-3282
▁महसूस	-3283
ृंख	-3284
नाटक	-3285
▁जानते	-3286
▁प्राइ	-3287
▁वार्षिक	-3288
▁मनुष्य	-3289
▁सम्बन्ध	-3290
▁कंपनियों	-3291
▁अनुशास	-3292
▁मानदंड	-3293
स्ती	-3294
▁मिलने	-3295
▁सम्मिल	-3296
▁समाचार	-3297
IC	-3298
यण	-3299
▁अंश	-3300
▁खान	-3301
डु	-3302
▁ईश्वर	-3303
भूति	-3304
▁कथन	-3305
टिल	-3306
he	-3307
▁जुर्म	-3308
▁वर्गी	-3309
▁प्रयोजनों	-3310
गु	-3311
um	-3312
▁संग्रह	-3313
टने	-3314
▁पूर्वव	-3315
▁इसने	-3316
▁कर्नाटक	-3317
▁बेटे	-3318
▁प्रतिक्रिया	-3319
▁१	-3320
▁मास	-3321
▁दै	-3322
▁स्वीकार्य	-3323
▁मुस्	-3324
▁अस्थायी	-3325
▁निच	-3326
▁विधिव	-3327
प्रे	-3328
▁भगवान	-3329
▁अभियोग	-3330
▁अपेक्षित	-3331
्रिक	-3332
▁दुरुपयोग	-3333
ोड	-3334
▁कौन	-3335
राष्ट्रीय	-3336
▁कहता	-3337
▁देकर	-3338
▁मानक	-3339
▁समार	-3340
दारों	-3341
▁पंजाब	-3342
▁आवा	-3343
▁धीरे	-3344
ुति	-3345
▁प्रसार	-3346
▁दब	-3347
िक्	-3348
▁नेटव	-3349
▁x	-3350
▁मोबाइल	-3351
शाला	-3352
▁देखभाल	-3353
▁U	-3354
▁रकम	-3355
ृंखला	-3356
ांतरण	-3357
शिया	-3358
▁पृष्ठभूमि	-3359
▁जुर्माना	-3360
▁संक्षेप	-3361
▁एजेंसी	-3362
मक	-3363
▁जनरल	-3364
▁उद्धृत	-3365
▁ऊंच	-3366
▁शत्र	-3367
▁आंत	-3368
▁रजिस्ट्रार	-3369
▁समारोह	-3370
इयों	-3371
▁दास	-3372
ंत्रित	-3373
▁अधिकतम	-3374
▁r	-3375
▁सकेगा	-3376
▁आशय	-3377
▁बढ	-3378
▁कार्यान	-3379
▁पद्धति	-3380
▁पॉ	-3381
▁प्रतिनिधि	-3382
▁हद	-3383
AT	-3384
▁फे	-3385
▁संगी	-3386
तया	-3387
▁इरादे	-3388
▁अग्रिम	-3389
त्री	-3390
ल्कुल	-3391
ion	-3392
▁घरे	-3393
▁नारा	-3394
▁निशान	-3395
जु	-3396
▁हाई	-3397
दृ	-3398
▁चंद्र	-3399
▁चोटों	-3400
▁कार्यान्व	-3401
▁हजार	-3402
▁बिल्कुल	-3403
▁कहने	-3404
ोजक	-3405
▁परिच	-3406
नो	-3407
▁ठे	-3408
▁बाई	-3409
जाम	-3410
▁खाद्य	-3411
ाये	-3412
▁मनोरंजन	-3413
▁एचसी	-3414
▁प्रि	-3415
▁अनुप्र	-3416
ोषण	-3417
▁भंड	-3418
▁कमीशन	-3419
▁अवधार	-3420
▁घरेलू	-3421
▁संबद्ध	-3422
ट्ट	-3423
▁मीटर	-3424
▁ताल	-3425
बाजी	-3426
▁कल्पना	-3427
▁केन्द्रीय	-3428
▁शपथ	-3429
▁यूरो	-3430
▁प्रभार	-3431
चार्य	-3432
▁कम्प	-3433
▁वायु	-3434
▁आमत	-3435
ic	-3436
▁हासिल	-3437
▁रहना	-3438
▁आह	-3439
ूपी	-3440
▁सरल	-3441
▁जिले	-3442
▁चूक	-3443
▁ब्रिट	-3444
▁आंदोलन	-3445
म्मू	-3446
▁शिक्षक	-3447
▁काग	-3448
▁धोखाध	-3449
▁अक्ट	-3450
▁जम्मू	-3451
▁बनाना	-3452
▁परेश	-3453
▁आशा	-3454
कल्प	-3455
▁किरायेदार	-3456
िली	-3457
▁आमतौर	-3458
▁दशा	-3459
▁असफल	-3460
▁सारे	-3461
▁अक्टूबर	-3462
मंडल	-3463
▁कविता	-3464
▁डाय	-3465
▁संसाधन	-3466
घ्र	-3467
▁धोखाधड़ी	-3468
▁किन	-3469
स्वी	-3470
▁महिलाओं	-3471
▁विशाल	-3472
▁सुश	-3473
जीव	-3474
▁खास	-3475
▁सम्मिलित	-3476
▁कठिना	-3477
▁निर्वाचन	-3478
ड्डी	-3479
▁टेली	-3480
▁प्रका	-3481
ारण	-3482
व्यों	-3483
▁इतनी	-3484
▁विधेय	-3485
तल	-3486
लिम	-3487
उट	-3488
ोग्राम	-3489
▁मिन	-3490
ांकन	-3491
र्वा	-3492
▁महत्त	-3493
१३	-3494
▁साइ	-3495
सायिक	-3496
याँ	-3497
सर्स	-3498
▁संस्कृत	-3499
▁अंड	-3500
सु	-3501
▁f	-3502
ing	-3503
▁छुट्टी	-3504
उन	-3505
▁हृ	-3506
करार	-3507
▁अना	-3508
▁पाव	-3509
▁ब्रिटिश	-3510
▁सर्वेक्षण	-3511
▁अनुपस्थिति	-3512
▁पटना	-3513
▁मौलिक	-3514
चीत	-3515
▁बताए	-3516
▁गरी	-3517
▁ट्रेड	-3518
देन	-3519
▁प्रमाणपत्र	-3520
▁टाइ	-3521
▁उद्यम	-3522
▁चा	-3523
▁शाह	-3524
▁आती	-3525
▁प्रविष्टि	-3526
▁जब्ती	-3527
▁बुनिया	-3528
िल्म	-3529
▁कराने	-3530
▁कार्ड	-3531
▁प्रकाशन	-3532
नु	-3533
▁आदमी	-3534
▁बातचीत	-3535
▁विधिवत	-3536
▁स्वामित्व	-3537
▁डिजा	-3538
धर	-3539
▁बकाया	-3540
▁संतोष	-3541
▁गिरफ्तारी	-3542
िकेट	-3543
▁दर्शाता	-3544
▁चिंत	-3545
▁ख़	-3546
३०	-3547
▁विवादित	-3548
▁उपक्रम	-3549
▁किन्तु	-3550
▁बरकरार	-3551
सों	-3552
▁अत्यंत	-3553
सभा	-3554
यम	-3555
रु	-3556
▁कठिन	-3557
▁सभ	-3558
▁आंक	-3559
▁चंद	-3560
▁मंच	-3561
▁सील	-3562
▁अधिकृत	-3563
शनल	-3564
▁पहुंचा	-3565
▁नेटवर्क	-3566
दित	-3567
▁तमिल	-3568
ायर	-3569
र्या	-3570
▁दंडनीय	-3571
▁खात	-3572
▁कमरे	-3573
▁चरित्र	-3574
▁उधार	-3575
ल्ला	-3576
▁जैन	-3577
▁औपचारिक	-3578
▁रोड	-3579
▁अनुशासनात्मक	-3580
▁सम्प	-3581
▁सम्मे	-3582
▁फ़ाइल	-3583
▁विजय	-3584
AL	-3585
▁लाप	-3586
▁छोटा	-3587
▁ब्रह	-3588
▁घट	-3589
▁एनआईसी	-3590
▁नती	-3591
▁पहुंचे	-3592
▁किराए	-3593
▁संस्कृति	-3594
नर	-3595
▁प्रणब	-3596
खे	-3597
ायिका	-3598
▁कराया	-3599
▁घंटे	-3600
▁बदलाव	-3601
▁000	-3602
▁संज्ञान	-3603
▁ढां	-3604
▁गृह	-3605
▁स्थानों	-3606
▁प्रसन्न	-3607
▁आपकी	-3608
▁हथियार	-3609
▁उत्पादों	-3610
देव	-3611
▁कोश	-3612
▁अपराधी	-3613
▁नं	-3614
कल्पिक	-3615
▁नवंबर	-3616
▁व्यावसायिक	-3617
▁इन्	-3618
ेंड	-3619
▁चले	-3620
▁लंबे	-3621
▁टिक	-3622
▁साइट	-3623
▁वैकल्पिक	-3624
लेक्ट	-3625
▁तेजी	-3626
▁पुराने	-3627
▁घु	-3628
▁शुरुआत	-3629
▁बनी	-3630
▁साधन	-3631
▁कां	-3632
▁विद्यार्थ	-3633
▁तह	-3634
कर्ताओं	-3635
मूर्ति	-3636
्राष्ट्रीय	-3637
म्बे	-3638
▁समग्र	-3639
्रेता	-3640
्रमण	-3641
▁खड़ा	-3642
▁संबोध	-3643
शाली	-3644
▁अध्या	-3645
▁अधिकरण	-3646
▁बुलाया	-3647
▁चुना	-3648
▁घटनाओं	-3649
ग्ध	-3650
PC	-3651
पास	-3652
राज्य	-3653
▁संगीत	-3654
▁सॉ	-3655
वेयर	-3656
न्ना	-3657
क्षिप्त	-3658
▁श्रृंखला	-3659
▁मुस्लिम	-3660
▁खी	-3661
▁आवश्यकताओं	-3662
चलित	-3663
▁मुश्	-3664
▁दर्शाया	-3665
ाकू	-3666
▁हिन्दी	-3667
▁विनियमन	-3668
▁प्रचार	-3669
ंडी	-3670
▁गठित	-3671
भाष	-3672
▁संचालित	-3673
▁पूर्वा	-3674
▁अपवाद	-3675
▁आदर्श	-3676
▁उद्देश्यों	-3677
▁बातों	-3678
▁पीओ	-3679
ीप	-3680
▁मुंबई	-3681
▁आंध	-3682
▁बध	-3683
रिंग	-3684
स्टम	-3685
▁पाई	-3686
▁पहलुओं	-3687
▁अदालतों	-3688
▁स्वरूप	-3689
▁महाराष्ट्र	-3690
▁नेता	-3691
यू	-3692
▁तरीका	-3693
न्य	-3694
▁बुनियादी	-3695
▁जोख	-3696
▁स्थिर	-3697
▁डाला	-3698
un	-3699
▁बौ	-3700
▁हाउस	-3701
ठा	-3702
क्षणिक	-3703
▁निपटने	-3704
राम	-3705
▁काउंस	-3706
▁बोझ	-3707
▁विद्युत	-3708
ोरी	-3709
शः	-3710
▁इलेक्ट	-3711
वो	-3712
डल	-3713
▁अतः	-3714
स्य	-3715
▁चै	-3716
▁अधी	-3717
▁स्टेट	-3718
▁विभागीय	-3719
▁कर्तव्यों	-3720
पूर्ति	-3721
▁प्राचीन	-3722
▁डिजाइन	-3723
िफ	-3724
स्थापित	-3725
श्मीर	-3726
बाल	-3727
▁मनो	-3728
▁सुनी	-3729
त्तर	-3730
▁गौ	-3731
ॉट	-3732
ैया	-3733
▁शीघ्र	-3734
▁धारणा	-3735
▁इलाज	-3736
▁अकेले	-3737
▁शता	-3738
▁पैसे	-3739
▁काउंटर	-3740
▁अवमान	-3741
्याग	-3742
▁विधेयक	-3743
▁हाथों	-3744
▁कोल	-3745
िड	-3746
ोसिए	-3747
नन	-3748
▁टुक	-3749
▁मेल	-3750
▁जोखिम	-3751
▁लेनदेन	-3752
नल	-3753
स्टे	-3754
▁खुलती	-3755
र्ते	-3756
▁केरल	-3757
▁दह	-3758
▁अन्	-3759
▁निवार	-3760
▁समानता	-3761
लाइन	-3762
मानी	-3763
्यूट	-3764
▁अनुप्रयोग	-3765
▁भागीदारी	-3766
क्षिक	-3767
ol	-3768
▁रिश्त	-3769
▁जाएंगे	-3770
▁मुश्किल	-3771
▁उपा	-3772
▁गलती	-3773
ाजित	-3774
▁अभिलेख	-3775
▁ऑन	-3776
▁संक्षिप्त	-3777
▁संपत्तियों	-3778
▁परिक	-3779
▁जीवित	-3780
▁द्वार	-3781
िमी	-3782
▁दिवस	-3783
▁पहुंचने	-3784
▁आठ	-3785
▁हस्तांतरण	-3786
▁तात्	-3787
▁विंडों	-3788
▁बला	-3789
▁ड्राइ	-3790
▁मकान	-3791
▁अंतरराष्ट्रीय	-3792
खर	-3793
▁गुजर	-3794
▁b	-3795
▁महत्त्व	-3796
▁शेय	-3797
ेश्वर	-3798
▁नाते	-3799
▁हानि	-3800
▁वेतनमान	-3801
क्सर	-3802
▁अली	-3803
UD	-3804
▁सफ	-3805
ya	-3806
▁बश	-3807
▁नष्ट	-3808
▁आंध्र	-3809
ंशिक	-3810
▁बयानों	-3811
ोप	-3812
▁बधाई	-3813
▁उपबंधों	-3814
▁शैक्षणिक	-3815
काम	-3816
वें	-3817
ज्ञात	-3818
▁हैः	-3819
oc	-3820
▁यादव	-3821
ंपरा	-3822
▁फ्ल	-3823
▁निरा	-3824
▁आवंटित	-3825
▁साक्षी	-3826
▁जय	-3827
▁अट	-3828
▁क्लॉ	-3829
खाव	-3830
▁आवास	-3831
▁बढ़ावा	-3832
▁सेवाएं	-3833
et	-3834
▁आंतरिक	-3835
▁विधायिका	-3836
▁प्री	-3837
▁आमंत्रित	-3838
ष्क	-3839
▁गाय	-3840
▁सेवानिवृत्ति	-3841
▁सदन	-3842
▁कमज	-3843
▁द्वितीय	-3844
धित	-3845
▁सीपीसी	-3846
व्यवस्था	-3847
▁अनुलग्न	-3848
त्न	-3849
▁कृप	-3850
▁अनुकूल	-3851
▁अवधारणा	-3852
▁प्राथमिकी	-3853
▁इन्ह	-3854
▁इंजीनिय	-3855
▁संबोधित	-3856
▁विरोधा	-3857
जह	-3858
▁ठेके	-3859
्यक	-3860
्वा	-3861
▁सम्मेलन	-3862
र्देश	-3863
▁लेता	-3864
▁सुश्री	-3865
▁बहन	-3866
▁लेखक	-3867
▁पश्चिमी	-3868
▁जटिल	-3869
▁गुना	-3870
▁परंपरा	-3871
लांग	-3872
िग	-3873
▁समन्व	-3874
ौल	-3875
▁प्राण	-3876
टम	-3877
▁निर्भरता	-3878
▁पर्व	-3879
स्पे	-3880
▁निलंब	-3881
▁बैंकों	-3882
▁एसोसिए	-3883
▁जनजा	-3884
▁संविदा	-3885
▁कॉर्	-3886
▁रिया	-3887
▁चिंता	-3888
▁दर्शन	-3889
▁फी	-3890
▁मिस	-3891
▁अंततः	-3892
▁तथापि	-3893
्वे	-3894
▁डाक	-3895
▁आयकर	-3896
ंत्रिक	-3897
▁बनने	-3898
▁राव	-3899
▁जाया	-3900
▁प्रत्या	-3901
▁बशर्ते	-3902
ानु	-3903
▁प्रसि	-3904
▁कलक	-3905
▁सुनाई	-3906
स्ते	-3907
▁संतुल	-3908
▁घाव	-3909
▁क्रमशः	-3910
▁अर्थव्यवस्था	-3911
▁आख	-3912
▁जोड़ा	-3913
▁स्थगित	-3914
▁करार	-3915
रखाव	-3916
विधि	-3917
बत	-3918
भास	-3919
श्चय	-3920
▁रखरखाव	-3921
▁देखें	-3922
▁स्ना	-3923
्वेषण	-3924
▁टिप्पणियों	-3925
▁विनिर्दिष्ट	-3926
▁नये	-3927
▁समृ	-3928
▁क्रूर	-3929
▁घा	-3930
▁आर्	-3931
▁ग्रहण	-3932
▁चुकी	-3933
▁तत्प	-3934
▁आसपास	-3935
▁अनुलग्नक	-3936
▁खंडन	-3937
▁आश्व	-3938
▁संभावित	-3939
णु	-3940
▁समित	-3941
▁गुरु	-3942
▁कोय	-3943
▁मिलती	-3944
▁दृढ़	-3945
▁बाधा	-3946
▁डिग्री	-3947
▁उन्	-3948
▁हिन्दू	-3949
बूझ	-3950
मार्ग	-3951
▁तत्पश्चा	-3952
नाम	-3953
▁कपड़े	-3954
िकाओं	-3955
▁आरक्षण	-3956
व्र	-3957
▁दैनिक	-3958
प्पा	-3959
▁कृपया	-3960
▁जिनका	-3961
मीटर	-3962
कला	-3963
▁गहरा	-3964
ख्त	-3965
म्स	-3966
▁असाधारण	-3967
शे	-3968
ांग	-3969
कत	-3970
करी	-3971
▁राजन	-3972
▁शराब	-3973
▁जानता	-3974
▁सुंदर	-3975
▁पहा	-3976
▁हृदय	-3977
▁शिक्षकों	-3978
▁पक्षकारों	-3979
िकरण	-3980
थित	-3981
▁समाव	-3982
▁एशिया	-3983
चित्र	-3984
▁आंशिक	-3985
▁मस	-3986
▁गुप्ता	-3987
▁मल	-3988
▁धम	-3989
▁युक्त	-3990
▁पूर्ववर्ती	-3991
▁अयोग	-3992
▁तस्वी	-3993
el	-3994
रन	-3995
▁सुविधाओं	-3996
माग	-3997
▁Ch	-3998
▁एपी	-3999
दिग्ध	-4000
▁भाषण	-4001
▁ग्रेड	-4002
▁सूक्ष	-4003
▁जल्द	-4004
▁खींच	-4005
▁विफलता	-4006
▁शुभ	-4007
▁प्रयुक्त	-4008
म्मद	-4009
▁इच्छुक	-4010
ॉन	-4011
▁लापर	-4012
्रोल	-4013
▁गोली	-4014
▁वाता	-4015
▁प्रयासों	-4016
▁संस्थाओं	-4017
▁करीब	-4018
▁न्यायमूर्ति	-4019
▁उल	-4020
▁नैतिक	-4021
स्मिक	-4022
▁अपमान	-4023
▁एक्सट	-4024
▁मिलकर	-4025
▁आरक्षित	-4026
▁संदिग्ध	-4027
▁वजह	-4028
▁समर्	-4029
▁रजिस्टर	-4030
▁विद्यमान	-4031
ब्दी	-4032
▁स्वीकृत	-4033
▁अधिसूचित	-4034
▁तथ्यात्मक	-4035
शय	-4036
ानों	-4037
▁नाटक	-4038
▁आकस्मिक	-4039
▁पूछा	-4040
उंड	-4041
▁ईसा	-4042
भाविक	-4043
▁कक्षा	-4044
▁जानबूझ	-4045
▁टा	-4046
टेल	-4047
▁विद्यालय	-4048
▁खंडपीठ	-4049
▁अक्सर	-4050
▁अपनाया	-4051
▁कब	-4052
▁आवंटन	-4053
▁यूपी	-4054
शीट	-4055
्रय	-4056
▁टन	-4057
▁निर्मा	-4058
▁बलात्कार	-4059
ताव	-4060
▁बढ़ाया	-4061
▁शैक्षिक	-4062
▁चोटें	-4063
▁सेवानिवृत्त	-4064
▁साफ	-4065
▁बनाता	-4066
▁विषयों	-4067
▁विशेषता	-4068
ड़न	-4069
▁आपका	-4070
बीआई	-4071
कालीन	-4072
▁ज्ञात	-4073
कृष्ट	-4074
ार्म	-4075
▁फीस	-4076
▁उपयोगी	-4077
▁साक्ष्यों	-4078
▁असर	-4079
▁अनुमोदित	-4080
▁पैमाने	-4081
▁नागरिकों	-4082
धारी	-4083
▁सिस्टम	-4084
सील	-4085
▁बताता	-4086
ill	-4087
▁ट्रांस	-4088
ॉय	-4089
ामा	-4090
▁मक	-4091
▁आँ	-4092
▁Ext	-4093
▁बदले	-4094
▁वीडियो	-4095
ियान	-4096
▁इत्या	-4097
▁हिंदी	-4098
▁गर्इ	-4099
▁भु	-4100
▁समुद्र	-4101
▁दिमाग	-4102
रान	-4103
▁दवा	-4104
▁समस्याओं	-4105
▁वीं	-4106
▁बढ़ने	-4107
▁गौर	-4108
▁विमान	-4109
▁m	-4110
ENT	-4111
फ़ॉ	-4112
▁यथ	-4113
▁वातावरण	-4114
▁तार	-4115
▁रेखा	-4116
▁नामक	-4117
▁भागों	-4118
१४	-4119
▁सांस्	-4120
▁n	-4121
age	-4122
▁रुपए	-4123
▁कलकत्ता	-4124
▁अंतर्राष्ट्रीय	-4125
▁बहा	-4126
▁ड्यू	-4127
▁पाकि	-4128
▁तल	-4129
▁अनुवाद	-4130
▁विकलांग	-4131
▁दीवार	-4132
टो	-4133
दीद	-4134
ॉर्ट	-4135
▁शैली	-4136
▁हितों	-4137
▁अस्पष्ट	-4138
om	-4139
▁मुआवज़ा	-4140
▁इजर	-4141
▁जहा	-4142
▁धारण	-4143
र्डर	-4144
▁कश्मीर	-4145
ड्ड	-4146
्रित	-4147
▁कार्	-4148
▁चश्म	-4149
▁अवमानना	-4150
ाचार	-4151
▁अरब	-4152
▁बौद्ध	-4153
▁दबा	-4154
▁जिनकी	-4155
▁नारायण	-4156
GM	-4157
दिक	-4158
▁खातों	-4159
▁चश्मदीद	-4160
▁समाय	-4161
▁प्रच	-4162
ाइन	-4163
र्गी	-4164
ॉप	-4165
▁हलफनामा	-4166
▁प्रोत्साहन	-4167
▁आंख	-4168
▁शिक्षण	-4169
▁जानबूझकर	-4170
▁तट	-4171
▁वरिष्ठता	-4172
▁धारक	-4173
▁त्याग	-4174
▁नामित	-4175
▁पैर	-4176
▁अभिन	-4177
▁उपभोक्ता	-4178
वेट	-4179
▁हरि	-4180
▁कथा	-4181
▁सुख	-4182
▁कारक	-4183
▁मिट्टी	-4184
▁छि	-4185
▁बुद्धि	-4186
▁शताब्दी	-4187
▁प्रतिबद्ध	-4188
र्धन	-4189
▁वेद	-4190
▁गंगा	-4191
▁सारा	-4192
निष्ठ	-4193
ज्य	-4194
▁दबाव	-4195
▁दूसरों	-4196
▁देखना	-4197
▁सूक्ष्म	-4198
▁बाग	-4199
▁वापसी	-4200
▁परिवर्तित	-4201
▁भ्रष्ट	-4202
us	-4203
▁तमिलना	-4204
▁सें	-4205
▁विधायी	-4206
▁यौ	-4207
▁विस	-4208
ागत	-4209
श्विक	-4210
▁डर	-4211
▁विवादों	-4212
▁सांस्कृतिक	-4213
▁फॉर्म	-4214
▁प्ले	-4215
▁कानूनों	-4216
▁प्रस्तुति	-4217
▁महाम	-4218
▁स्टैंड	-4219
▁बदलने	-4220
▁रहेगा	-4221
बन	-4222
ोबार	-4223
▁वारंट	-4224
सीसी	-4225
▁द्र	-4226
▁अर्जित	-4227
मिशन	-4228
ख़	-4229
▁कमजोर	-4230
▁शेयरों	-4231
▁कुशल	-4232
▁पूजा	-4233
▁प्रसिद्ध	-4234
वाले	-4235
▁दहेज	-4236
▁स्कूलों	-4237
▁पट्टे	-4238
han	-4239
कुल	-4240
▁बताते	-4241
▁प्रबंधक	-4242
▁अनुसरण	-4243
▁पत्रों	-4244
▁ऑप	-4245
▁लौट	-4246
▁लाइन	-4247
▁प्रवर्तन	-4248
▁गैस	-4249
▁रोगी	-4250
▁आलोक	-4251
▁उपन्यास	-4252
कल	-4253
▁JUD	-4254
्मी	-4255
्यापी	-4256
▁किलो	-4257
▁इलेक्ट्र	-4258
्वान	-4259
थर	-4260
▁जल्दी	-4261
▁विरोधी	-4262
▁संबंधों	-4263
निंग	-4264
▁फूल	-4265
▁मंड	-4266
▁बताने	-4267
▁भेजे	-4268
umar	-4269
▁चार्जशीट	-4270
▁क्लॉज	-4271
▁प्रभारी	-4272
ॉर्	-4273
▁वर्गों	-4274
▁चिकित्स	-4275
दास	-4276
▁’	-4277
▁प्रदू	-4278
सीन	-4279
▁नियत	-4280
▁तत्पश्चात	-4281
ियमित	-4282
hi	-4283
च्छिक	-4284
▁फसल	-4285
श्वास	-4286
थी	-4287
▁अंध	-4288
▁इजरायल	-4289
ai	-4290
▁खराब	-4291
▁तहसील	-4292
▁स्थानांतरण	-4293
▁कॉर्पो	-4294
▁संगठ	-4295
▁ब्लॉक	-4296
▁क्रेड	-4297
▁इत्यादि	-4298
▁रुचि	-4299
▁विवे	-4300
▁भेदभाव	-4301
▁जिम्मेदारी	-4302
▁प्ला	-4303
शास्त्र	-4304
▁कार्यवाह	-4305
▁श्रमिक	-4306
प्रिय	-4307
िने	-4308
राबाद	-4309
ताब	-4310
▁g	-4311
▁अतिक	-4312
▁अन्तर्	-4313
▁परेशान	-4314
▁अधीनस्थ	-4315
▁अनियमित	-4316
▁लापरवाही	-4317
▁प्रधानमंत्री	-4318
्मण	-4319
्यव	-4320
ित्त	-4321
▁टीम	-4322
▁इतने	-4323
▁आपने	-4324
▁रजिस्ट्री	-4325
▁लक्षण	-4326
▁तमिलनाडु	-4327
▁HC	-4328
GMENT	-4329
▁अमेरिक	-4330
▁JUDGMENT	-4331
ec	-4332
प्ल	-4333
▁एडवो	-4334
▁पथ	-4335
िस्त	-4336
इड	-4337
▁आउट	-4338
▁नवी	-4339
▁मजबूर	-4340
▁गुणों	-4341
ढ़ी	-4342
▁लगाना	-4343
ेन	-4344
ंतिम	-4345
▁जोड़ने	-4346
▁इमार	-4347
▁ग्राहक	-4348
ज़र	-4349
िस्ट	-4350
▁तिर	-4351
▁छत्त	-4352
नामा	-4353
▁किश	-4354
▁आईटी	-4355
▁स्वाभाविक	-4356
▁पहुँच	-4357
▁ठेकेदार	-4358
▁कार्यान्वयन	-4359
▁ग्रे	-4360
▁बाकी	-4361
▁दिये	-4362
क्ताओं	-4363
मान्य	-4364
लाल	-4365
▁जैव	-4366
▁गर्म	-4367
▁राज्यपाल	-4368
▁अनंतिम	-4369
फर	-4370
िनी	-4371
▁काव्य	-4372
पान	-4373
टेन	-4374
▁देयता	-4375
▁सेवक	-4376
▁पावर	-4377
▁खुले	-4378
▁चक्र	-4379
रू	-4380
ात्मक	-4381
▁स्की	-4382
▁अर्ध	-4383
िन्	-4384
ेह	-4385
▁पेटेंट	-4386
▁क्रेडिट	-4387
▁किराया	-4388
▁मिनट	-4389
▁Kumar	-4390
▁Rs	-4391
▁अवकाश	-4392
▁मधु	-4393
▁शहरी	-4394
▁प्रचलित	-4395
▁रै	-4396
संख	-4397
▁नवान	-4398
▁इन्हें	-4399
▁गतिविधि	-4400
▁लोकतंत्र	-4401
त्तम	-4402
▁अब्द	-4403
▁पूर्वी	-4404
▁प्या	-4405
▁बीमारी	-4406
▁कार्यकाल	-4407
ज़ी	-4408
▁सारी	-4409
▁आसानी	-4410
ियत	-4411
▁समझने	-4412
▁परिपत्र	-4413
स्पर्	-4414
▁सेल	-4415
▁मांगी	-4416
▁ठोस	-4417
▁खड़े	-4418
स्तिष्क	-4419
▁गणराज्य	-4420
▁सत्यापन	-4421
▁आवाज	-4422
▁प्रजा	-4423
▁कने	-4424
▁आह्वान	-4425
साद	-4426
▁सशक्त	-4427
▁इंस्पे	-4428
▁नीलामी	-4429
ैट	-4430
चित्य	-4431
भावना	-4432
यत	-4433
▁एडवोकेट	-4434
▁निरोध	-4435
ूंगा	-4436
▁विम	-4437
वित्र	-4438
▁साम्रा	-4439
▁पाकिस्तान	-4440
▁प्रश्नों	-4441
▁अचान	-4442
दर्शन	-4443
▁फाय	-4444
ुण	-4445
क्य	-4446
हारिक	-4447
दोष	-4448
स्टी	-4449
▁अचानक	-4450
बो	-4451
यान	-4452
▁ठाक	-4453
▁फंसा	-4454
▁हवा	-4455
▁प्राइवेट	-4456
र्घ	-4457
▁खुशी	-4458
▁बू	-4459
▁वस	-4460
स्टेबल	-4461
▁रास्ते	-4462
▁सहारा	-4463
▁स्वै	-4464
▁डिफ़ॉ	-4465
▁मुसलमानों	-4466
▁बेचने	-4467
▁गईं	-4468
▁पृथ्वी	-4469
▁काउंसिल	-4470
▁अभियोजक	-4471
▁डिफ़ॉल्ट	-4472
▁Cr	-4473
▁जाएं	-4474
▁सूचीबद्ध	-4475
ेंज	-4476
रेशन	-4477
▁वर्मा	-4478
▁संतुष्टि	-4479
▁चारों	-4480
RA	-4481
डेंसी	-4482
▁आतंकवाद	-4483
▁संसाधनों	-4484
▁प्रत	-4485
▁सरकारों	-4486
▁आश्च	-4487
▁e	-4488
▁लें	-4489
▁अधिकारिता	-4490
▁लंबी	-4491
▁भय	-4492
शिष्ट	-4493
▁तीव्र	-4494
िनल	-4495
▁नग	-4496
▁प्रवाह	-4497
▁वीर	-4498
▁खेती	-4499
II	-4500
आईटी	-4501
▁दिश	-4502
▁ऑर्डर	-4503
▁ड्यूटी	-4504
▁इनके	-4505
▁सुभाष	-4506
▁शो	-4507
▁अजी	-4508
▁छत्तीस	-4509
▁आश्चर्य	-4510
▁दृष्टया	-4511
▁बीज	-4512
▁सर्वा	-4513
▁अक्षम	-4514
▁शिकार	-4515
▁आये	-4516
▁दोहराया	-4517
▁अफ्री	-4518
▁कठिनाई	-4519
▁इंस्पेक्टर	-4520
▁मेमो	-4521
▁भेजने	-4522
▁प्रोग्राम	-4523
▁गुप्त	-4524
▁जाह	-4525
▁आयोजन	-4526
मर	-4527
ाब	-4528
ोद	-4529
माना	-4530
▁बचने	-4531
▁झग	-4532
esid	-4533
हत्या	-4534
▁हिंसा	-4535
▁आक्रमण	-4536
▁तत्कालीन	-4537
▁दावों	-4538
▁प्रायः	-4539
▁प्रेष	-4540
▁पात्रता	-4541
दों	-4542
▁फें	-4543
▁काट	-4544
▁सम्मानित	-4545
▁खत्म	-4546
▁चीज़	-4547
▁निकालने	-4548
क्षेत्र	-4549
म्मत	-4550
▁कौशल	-4551
▁कुंजी	-4552
ूब	-4553
▁ज्यो	-4554
▁मैदान	-4555
▁तात्कालिक	-4556
सिंह	-4557
▁अमरी	-4558
▁मानने	-4559
खन	-4560
▁बीमार	-4561
▁विभाजित	-4562
▁क्रूरता	-4563
ड़ीसा	-4564
▁शर्तें	-4565
त्मिक	-4566
▁शंकर	-4567
▁आरोपित	-4568
▁फा	-4569
▁शत्रुता	-4570
▁अतिक्रमण	-4571
▁उठता	-4572
ंडा	-4573
▁निरीक्षक	-4574
स्थल	-4575
▁अंतरण	-4576
▁उत्पी	-4577
▁सुनने	-4578
▁विचारण	-4579
ेंडर	-4580
▁असंगत	-4581
▁मजदूरी	-4582
▁औचित्य	-4583
▁फोट	-4584
जीवन	-4585
▁परम	-4586
▁एसोसिएशन	-4587
▁लेखों	-4588
▁पूर्वाग्रह	-4589
▁प्रोट	-4590
स्पर	-4591
नाएं	-4592
्रीन	-4593
मार्टम	-4594
▁सतर्क	-4595
▁मीडिया	-4596
▁तुम्हें	-4597
डि	-4598
▁छत्तीसगढ़	-4599
▁प्रतिस्पर्	-4600
▁क्व	-4601
▁मस्तिष्क	-4602
लिया	-4603
ानिक	-4604
ुस्तान	-4605
▁वर्गीकरण	-4606
▁टिप्प	-4607
तिहासिक	-4608
▁दिला	-4609
जतन	-4610
▁पुनरी	-4611
▁रसी	-4612
▁नतीजतन	-4613
▁पोस्टमार्टम	-4614
▁दर्श	-4615
▁सकारात्मक	-4616
लेट	-4617
▁अशोक	-4618
esident	-4619
▁आत्महत्या	-4620
▁आध्या	-4621
▁चेतना	-4622
▁संगठनों	-4623
हे	-4624
ाइड	-4625
जात	-4626
ूली	-4627
▁देंगे	-4628
▁यूनिट	-4629
▁उत्कृष्ट	-4630
▁विरोधाभास	-4631
▁नवीन	-4632
▁दिशानि	-4633
▁टिप्पणी	-4634
▁IA	-4635
त्ते	-4636
▁दूध	-4637
▁आसान	-4638
▁स्वच्छ	-4639
▁हैद	-4640
▁भरने	-4641
ंभव	-4642
▁उड़ीसा	-4643
▁दिशानिर्देश	-4644
▁चेन्न	-4645
▁उद्योगों	-4646
नाश	-4647
▁तोड़	-4648
▁अहमद	-4649
▁नेहर	-4650
▁प्रशंसा	-4651
कश	-4652
ूस	-4653
▁ट्रै	-4654
▁शुभकाम	-4655
▁परियोजनाओं	-4656
▁देर	-4657
▁स्मृति	-4658
▁किसानों	-4659
पों	-4660
▁बताओ	-4661
ड़ियों	-4662
▁कार्यक्रमों	-4663
▁रस	-4664
▁शासित	-4665
▁ड्र	-4666
▁माइ	-4667
ंपा	-4668
▁प्रसन्नता	-4669
▁Pra	-4670
▁चेहरे	-4671
▁पवित्र	-4672
▁लगाई	-4673
▁मिशन	-4674
▁क्	-4675
▁सुलझ	-4676
दाताओं	-4677
▁सबमिशन	-4678
▁स्वागत	-4679
▁सख्त	-4680
▁प्रदत्त	-4681
्रण	-4682
▁पल	-4683
▁प्रविष्ट	-4684
▁व्यावहारिक	-4685
▁रण	-4686
िष्	-4687
▁NIC	-4688
▁खोलने	-4689
▁लड़की	-4690
▁नकारात्मक	-4691
▁सुसंगत	-4692
▁गोल	-4693
दर्शी	-4694
▁सामग्र	-4695
पेक्ष	-4696
▁सैनिक	-4697
ड़ाई	-4698
▁उपायों	-4699
▁परस्पर	-4700
▁फिट	-4701
▁नमूना	-4702
▁धमकी	-4703
▁कारबार	-4704
▁शक्तियां	-4705
▁जाल	-4706
▁हिम	-4707
▁बुरा	-4708
▁समस्त	-4709
▁देखे	-4710
▁संकट	-4711
▁निवारण	-4712
तृ	-4713
धरी	-4714
▁सन	-4715
▁हैदराबाद	-4716
▁प्रतियोग	-4717
▁सीट	-4718
▁करवा	-4719
▁रव	-4720
▁लु	-4721
बु	-4722
▁आलो	-4723
▁मौसम	-4724
▁लाभों	-4725
▁निपटाया	-4726
ेंद	-4727
▁सूर्य	-4728
▁राजस्थान	-4729
िकेशन	-4730
▁बनता	-4731
▁संप्र	-4732
गाह	-4733
▁कायम	-4734
▁चैन	-4735
फ्टवेयर	-4736
क़्त	-4737
▁सिल	-4738
▁अधीक्षक	-4739
ंदन	-4740
▁उन्नत	-4741
▁पक्षकार	-4742
▁तलाश	-4743
ेर	-4744
क्षी	-4745
▁भूल	-4746
▁चाकू	-4747
▁ज्योति	-4748
क्का	-4749
▁काले	-4750
▁अभियंता	-4751
▁आध्यात्मिक	-4752
लर	-4753
▁प्रथा	-4754
▁उत्तराधिकार	-4755
▁महत्त्वपूर्ण	-4756
▁पर्यवे	-4757
▁प्रतीक	-4758
▁राजनैतिक	-4759
▁दीर्घ	-4760
तीत	-4761
▁SCA	-4762
ज़ि	-4763
ंदी	-4764
▁डो	-4765
▁विनियमों	-4766
▁ऐतिहासिक	-4767
hat	-4768
▁सब्	-4769
ंकिंग	-4770
▁संगण	-4771
IN	-4772
फोन	-4773
▁विधिक	-4774
▁विशेषकर	-4775
▁औष	-4776
▁कारोबार	-4777
▁प्रतिद्व	-4778
▁अल्	-4779
▁अपीलों	-4780
▁अगली	-4781
दियों	-4782
▁रिहा	-4783
▁उत्पादित	-4784
▁गर्भ	-4785
▁खतरा	-4786
illage	-4787
▁अनुभाग	-4788
▁भरा	-4789
▁यूरोप	-4790
वाली	-4791
▁जायेगा	-4792
▁iii	-4793
▁सामग्रियों	-4794
शीलता	-4795
▁होटल	-4796
▁पैके	-4797
▁लिखने	-4798
▁हवाई	-4799
▁जनसं	-4800
पत	-4801
लम	-4802
बाज	-4803
▁विद्यार्थियों	-4804
क्रिय	-4805
▁नाथ	-4806
परी	-4807
▁अपर	-4808
▁वां	-4809
▁बाबू	-4810
▁संतुलन	-4811
▁आवेदकों	-4812
▁समितियों	-4813
▁बेह	-4814
▁रिश्तेदार	-4815
▁असह	-4816
▁छाप	-4817
▁जुड़ा	-4818
▁अनुकंपा	-4819
▁फिल्म	-4820
▁दाह	-4821
▁बचाने	-4822
▁समन्वय	-4823
▁कॉपी	-4824
▁लेखन	-4825
▁शुभकामनाएं	-4826
▁किशोर	-4827
णि	-4828
▁रम	-4829
▁कंट	-4830
▁लक	-4831
वां	-4832
▁in	-4833
▁विमर्श	-4834
भोग	-4835
वीर	-4836
▁आइ	-4837
▁लाइ	-4838
स्ट्र	-4839
▁गरीब	-4840
▁दरवाजा	-4841
▁दिनांकित	-4842
▁प्रोत्साहित	-4843
ारों	-4844
▁स्त्री	-4845
▁प्राधिकार	-4846
▁धु	-4847
▁अमेरिकी	-4848
▁पेशे	-4849
▁अभियान	-4850
▁रिक्तियों	-4851
▁टू	-4852
▁अपरि	-4853
▁मोहन	-4854
▁अवश	-4855
▁चौधरी	-4856
▁तस्वीर	-4857
द्दीन	-4858
▁प्रोफे	-4859
▁निरस्त	-4860
हिम	-4861
▁पिछली	-4862
▁कांस्टेबल	-4863
▁चीन	-4864
▁विरू	-4865
▁गव	-4866
भाग्य	-4867
▁उनको	-4868
▁लोकप्रिय	-4869
▁अवश्य	-4870
▁अयोग्य	-4871
▁संयंत्र	-4872
▁फोर	-4873
▁गोद	-4874
▁कक्ष	-4875
▁किस्	-4876
▁प्रारूप	-4877
▁तीनों	-4878
▁विश्वविद्यालयों	-4879
▁डील	-4880
▁सेंट	-4881
▁उभर	-4882
▁तीसरी	-4883
पुट	-4884
▁चलने	-4885
▁सूत्र	-4886
▁उत्पीड़न	-4887
खास्त	-4888
▁उदार	-4889
१५	-4890
▁साक्षा	-4891
▁आवासी	-4892
▁ब्रह्म	-4893
▁नेहरू	-4894
▁बाध्यकारी	-4895
▁श्रेणीः	-4896
▁प्रोफेसर	-4897
▁निगर	-4898
▁साजि	-4899
पीट	-4900
ग्रहित	-4901
च्छा	-4902
▁ऑफिस	-4903
▁मरने	-4904
▁निगरानी	-4905
le	-4906
ड्य	-4907
▁घात	-4908
साइटी	-4909
▁पेपर	-4910
▁राजी	-4911
▁प्रतिबंधित	-4912
▁खतरे	-4913
▁पहुँ	-4914
▁हार्	-4915
गण	-4916
▁विसंग	-4917
थे	-4918
▁चढ़	-4919
▁रीति	-4920
▁सौंपा	-4921
▁लिखी	-4922
▁सोसाइटी	-4923
▁विधानमंडल	-4924
▁नो	-4925
घात	-4926
▁मेसर्स	-4927
▁प्रतिद्वंद	-4928
AM	-4929
▁बाबत	-4930
▁पेड़	-4931
▁निचली	-4932
▁वैश्विक	-4933
▁आफ	-4934
▁नौकरी	-4935
▁योजनाओं	-4936
▁वंश	-4937
ावली	-4938
▁पशु	-4939
▁मोहम्मद	-4940
▁बातें	-4941
▁रवी	-4942
▁मगर	-4943
ation	-4944
▁रसीद	-4945
▁प्रेस	-4946
▁मछ	-4947
▁हवाला	-4948
▁सीधी	-4949
▁विलंब	-4950
िक्स	-4951
▁मारपीट	-4952
कुमार	-4953
▁सीमाओं	-4954
▁वैसे	-4955
▁नामांकन	-4956
▁एकता	-4957
▁पेंडेंसी	-4958
▁आनन्द	-4959
▁ठाकुर	-4960
▁लिखे	-4961
▁शोध	-4962
▁होम	-4963
▁चलाया	-4964
▁छोड़ने	-4965
▁कृत्य	-4966
▁वहीं	-4967
▁निभा	-4968
▁वार्	-4969
▁भूखंड	-4970
नाक	-4971
▁मांस	-4972
▁एजेंट	-4973
▁पोर्ट	-4974
▁संसदीय	-4975
स्फ	-4976
▁दशक	-4977
▁मान्य	-4978
▁राजेश	-4979
ाले	-4980
ादा	-4981
▁घटा	-4982
▁वजन	-4983
कृष्ण	-4984
▁चलते	-4985
▁अत	-4986
▁वक्त	-4987
▁पुनरीक्षण	-4988
▁स्वैच्छिक	-4989
▁जाकर	-4990
▁शह	-4991
▁मानना	-4992
▁Bi	-4993
▁जाहिर	-4994
ैव	-4995
▁DW	-4996
▁बहुमत	-4997
▁देखकर	-4998
▁किनारे	-4999
▁बर्खास्त	-5000
दायिक	-5001
▁तीसरा	-5002
▁साजिश	-5003
▁सोने	-5004
▁वर	-5005
▁क्षतिपूर्ति	-5006
णिक	-5007
▁खतर	-5008
▁चालक	-5009
▁पत्थर	-5010
▁थोड़ा	-5011
▁अनदे	-5012
▁सृजन	-5013
▁छत	-5014
ूहिक	-5015
▁सिरे	-5016
▁अभिप्रे	-5017
▁हल्	-5018
▁हालत	-5019
▁द्वीप	-5020
▁कृत्यों	-5021
▁बताई	-5022
जीत	-5023
▁जर्म	-5024
▁सामूहिक	-5025
▁कदा	-5026
द्रास	-5027
हता	-5028
▁अल्पसंख	-5029
IL	-5030
▁बॉम्बे	-5031
▁तैना	-5032
▁राजमार्ग	-5033
पहर	-5034
▁कव	-5035
▁कूट	-5036
▁संसार	-5037
▁महामहिम	-5038
▁लीज	-5039
▁रखें	-5040
▁स्कीम	-5041
▁समुचित	-5042
▁प्रेरण	-5043
ul	-5044
▁चयनित	-5045
▁उड़	-5046
▁दौरा	-5047
कानूनी	-5048
▁विहित	-5049
▁अन्याय	-5050
▁जितना	-5051
वाहिक	-5052
▁स्टा	-5053
▁यो	-5054
र्गीय	-5055
▁दिलच	-5056
▁कारकों	-5057
भि	-5058
▁मुह	-5059
▁खाना	-5060
▁दर्द	-5061
▁पटेल	-5062
▁मद्रास	-5063
▁राजपत्र	-5064
मिट	-5065
▁मानता	-5066
▁गैरकानूनी	-5067
▁सोसाय	-5068
िरा	-5069
णन	-5070
▁विक्रेता	-5071
▁साम्राज्य	-5072
▁जला	-5073
▁ट्रे	-5074
▁रास्ता	-5075
▁निर्दोष	-5076
▁न्यायपालिका	-5077
ादेश	-5078
▁कच्च	-5079
▁चीजों	-5080
▁विरूद्ध	-5081
▁ज़र	-5082
▁पीड़िता	-5083
▁एकड़	-5084
▁मिटा	-5085
▁ध्वनि	-5086
▁ऑनलाइन	-5087
▁पश्चात	-5088
▁मानवीय	-5089
ल्डर	-5090
▁घटक	-5091
▁श्रेण	-5092
▁आवासीय	-5093
▁मूल्यों	-5094
ंकर	-5095
ीकृत	-5096
▁टेस्ट	-5097
▁इंद	-5098
▁भंग	-5099
ोने	-5100
गोल	-5101
▁प्रतिष्ठा	-5102
▁दया	-5103
▁दक्ष	-5104
▁अत्या	-5105
▁जानने	-5106
▁सीबीआई	-5107
डिंग	-5108
▁III	-5109
▁अक्ष	-5110
▁झूठे	-5111
▁पेशकश	-5112
▁कू	-5113
▁विधियों	-5114
▁इकट्	-5115
▁डब्ल्यू	-5116
ॉँ	-5117
केश	-5118
▁कराई	-5119
खों	-5120
▁स्वर	-5121
▁ढांचे	-5122
ho	-5123
बालिग	-5124
▁दोपहर	-5125
धों	-5126
▁चुने	-5127
▁मकसद	-5128
▁खण्ड	-5129
▁सेमी	-5130
ज़िबिट	-5131
▁मिश्रा	-5132
▁नाबालिग	-5133
▁साक्षात्कार	-5134
▁इमारत	-5135
▁प्रयोगशाला	-5136
▁खरीदने	-5137
▁अय	-5138
▁शत्रुतापूर्ण	-5139
क्क	-5140
▁प्रयत्न	-5141
▁सोसायटी	-5142
▁ओवर	-5143
▁डिस्क	-5144
तावनी	-5145
▁अवैधता	-5146
निर्	-5147
▁मुकदमेबाजी	-5148
ांकित	-5149
▁नमूने	-5150
▁पूर्ति	-5151
▁खुश	-5152
▁उत्तरी	-5153
▁शिश	-5154
▁दलों	-5155
▁पाँच	-5156
▁पुरानी	-5157
▁चेतावनी	-5158
▁आपत्तियों	-5159
▁दुर्बल	-5160
▁विभागों	-5161
▁प्रवृत्ति	-5162
म्मा	-5163
▁अफ्रीका	-5164
न्ड	-5165
▁नाट	-5166
▁विकृत	-5167
▁आकाश	-5168
▁ताप	-5169
▁राजनीति	-5170
▁श्रेष्ठ	-5171
▁स्थितियों	-5172
▁चू	-5173
▁धर	-5174
▁पंड	-5175
▁पांडे	-5176
क्सी	-5177
▁दलीलों	-5178
▁पत	-5179
सायनिक	-5180
▁प्राधिकृत	-5181
▁आधारों	-5182
▁अचल	-5183
ेजी	-5184
▁संपाद	-5185
▁सत्यापित	-5186
▁एक्ज़िबिट	-5187
▁बुक	-5188
▁जंग	-5189
दु	-5190
▁मुद्र	-5191
▁यंत्र	-5192
▁बहस	-5193
▁आरम्भ	-5194
▁अस्वीकृति	-5195
▁देखी	-5196
दिन	-5197
▁चेन्नई	-5198
▁रिटर्न	-5199
▁नगरपालिका	-5200
पीय	-5201
ारक	-5202
▁करो	-5203
▁कं	-5204
▁समापन	-5205
▁आवेदनों	-5206
▁इकाइयों	-5207
▁पक्षपात	-5208
लिपि	-5209
▁तकनीक	-5210
ामक	-5211
▁कार्यरत	-5212
▁निः	-5213
▁मानकों	-5214
▁जता	-5215
ir	-5216
बन्धी	-5217
▁मासिक	-5218
▁खाने	-5219
▁व्याया	-5220
▁घातक	-5221
▁मानदंडों	-5222
▁सर्वाधिक	-5223
▁प्रतिद्वंद्वी	-5224
डीए	-5225
▁उपयोगकर्ता	-5226
▁बढ़ती	-5227
▁आश्वासन	-5228
टाई	-5229
▁एआईआर	-5230
▁फैसलों	-5231
▁निर्णायक	-5232
जल	-5233
▁सेक	-5234
▁उच्चतर	-5235
वत	-5236
▁चालू	-5237
न्द्रनाथ	-5238
▁खि	-5239
▁प्रदूषण	-5240
क्चर	-5241
▁हरिया	-5242
भारत	-5243
▁साझा	-5244
रेटर	-5245
▁सहज	-5246
▁चीनी	-5247
▁पाता	-5248
▁डायरी	-5249
▁रुख	-5250
सुर	-5251
▁बंधक	-5252
▁दंडित	-5253
विंद	-5254
▁IPC	-5255
ैक्ट	-5256
ोचित	-5257
▁इंग्ल	-5258
▁उपकरणों	-5259
ार्क	-5260
▁रोका	-5261
▁विपणन	-5262
▁k	-5263
▁अनाव	-5264
▁क्ला	-5265
▁दोस्त	-5266
▁यथास्थिति	-5267
निहित	-5268
▁सॉफ्टवेयर	-5269
घर	-5270
▁उन्म	-5271
▁डालने	-5272
▁प्रतिव	-5273
▁अभिप्रेत	-5274
▁अगला	-5275
▁नेशनल	-5276
▁स्वर्गीय	-5277
ut	-5278
▁आकर	-5279
▁कितना	-5280
ari	-5281
▁संवाद	-5282
▁प्रतिभा	-5283
जन्य	-5284
कोर्ट	-5285
र्कों	-5286
▁सिक्	-5287
▁मशीनरी	-5288
▁मिलाकर	-5289
▁उज	-5290
▁गीत	-5291
विचार	-5292
▁अकाद	-5293
ंदाज	-5294
ॉनिक	-5295
ल्डिंग	-5296
▁पूर्ववर्ष	-5297
पय	-5298
▁अज्ञात	-5299
▁अवसरों	-5300
▁यौन	-5301
▁ग्रंथ	-5302
▁अब्दुल	-5303
ER	-5304
तियां	-5305
▁प्रक	-5306
▁हमले	-5307
श्रम	-5308
▁कमि	-5309
▁जड़	-5310
▁बैंकिंग	-5311
▁निर्माता	-5312
▁बढ़े	-5313
▁दस्तावेजी	-5314
▁OS	-5315
▁ताकत	-5316
▁वितरित	-5317
▁मौका	-5318
▁हट	-5319
▁मोड	-5320
▁नै	-5321
▁सदा	-5322
▁वचन	-5323
▁सटी	-5324
▁असाम	-5325
▁पार्क	-5326
▁तरीकों	-5327
▁पैनल	-5328
▁निपटारा	-5329
▁मॉडल	-5330
▁रहित	-5331
ेदी	-5332
▁आनु	-5333
त्तियां	-5334
▁निष्क्रिय	-5335
वंश	-5336
▁चतु	-5337
▁सागर	-5338
▁बच्चा	-5339
▁टो	-5340
▁स्तंभ	-5341
▁सर्वोत्तम	-5342
▁चम	-5343
मार्क	-5344
▁ब्राह	-5345
▁अधिनियमित	-5346
▁रासायनिक	-5347
णों	-5348
▁PO	-5349
▁अंकित	-5350
▁अजीब	-5351
▁अनुशासन	-5352
▁सुविधाएं	-5353
बीर	-5354
▁भंडारण	-5355
▁ईमान	-5356
▁अंतराल	-5357
लाब	-5358
▁प्रिय	-5359
▁प्रक्रियाओं	-5360
▁भेजी	-5361
छा	-5362
▁निलंबन	-5363
▁गंभीरता	-5364
▁वाणिज्य	-5365
हाबाद	-5366
▁मैने	-5367
▁बनाते	-5368
▁बुद्ध	-5369
▁उल्लेखनीय	-5370
र्ज	-5371
▁बजा	-5372
▁गोप	-5373
▁विरासत	-5374
▁परिकल्पना	-5375
▁अकबर	-5376
▁अवगत	-5377
▁चिंतन	-5378
▁स्थगन	-5379
▁निर्वि	-5380
▁l	-5381
शक्ति	-5382
▁सांस	-5383
▁उत्तराधिकारी	-5384
मेल	-5385
▁the	-5386
▁पोषण	-5387
यक	-5388
▁गवर्न	-5389
▁परमाण	-5390
▁अभिक	-5391
▁फेंक	-5392
्रल	-5393
▁कीट	-5394
▁निधन	-5395
▁सर्वर	-5396
▁समावेश	-5397
▁तैनात	-5398
ab	-5399
ay	-5400
▁अन्दर	-5401
▁कुमारी	-5402
▁परिसमा	-5403
▁इंटरनेट	-5404
▁किलोमीटर	-5405
▁सिफारिशों	-5406
्राव	-5407
▁भाषाओं	-5408
गमन	-5409
▁क्यू	-5410
▁नियोजित	-5411
ro	-5412
▁झा	-5413
ष्णु	-5414
▁मनमाना	-5415
▁समर्पित	-5416
काब	-5417
ट्रिक	-5418
▁ट्यू	-5419
द्री	-5420
श्वत	-5421
▁नयी	-5422
▁शेयरधार	-5423
अल	-5424
▁लड़के	-5425
▁ग्राहकों	-5426
ंजा	-5427
▁समझाया	-5428
▁पंचनामा	-5429
▁वर्षा	-5430
▁समर्थित	-5431
▁संरक्षित	-5432
▁सतह	-5433
▁आदान	-5434
फो	-5435
एसएल	-5436
▁हार	-5437
धियों	-5438
गामी	-5439
▁दान	-5440
▁पड़ी	-5441
▁होंगी	-5442
▁नियमितीकरण	-5443
▁आना	-5444
▁उपे	-5445
AD	-5446
षक	-5447
▁खनि	-5448
एगा	-5449
ेटी	-5450
ब्लिक	-5451
▁दावेदारों	-5452
▁कागज	-5453
▁जनजाति	-5454
ak	-5455
ोम	-5456
पीएस	-5457
▁भावी	-5458
▁संगम	-5459
▁हाईकोर्ट	-5460
▁ऑफ़	-5461
ध्यक्ष	-5462
▁अन्तर	-5463
▁विनिर्माण	-5464
काता	-5465
▁महीनों	-5466
▁ऊपरी	-5467
▁सिवाय	-5468
▁किताब	-5469
ah	-5470
▁गर्दन	-5471
वासियों	-5472
▁समूहों	-5473
▁नवान्वेषण	-5474
दाबाद	-5475
▁बहाल	-5476
▁सचे	-5477
▁शुक्र	-5478
▁सरदार	-5479
▁अभियोगी	-5480
▁अपू	-5481
▁कोशिका	-5482
▁परिणामी	-5483
घाटन	-5484
▁कति	-5485
▁बैठे	-5486
ल्हा	-5487
▁अपनाने	-5488
▁सर्विस	-5489
▁उपलब्धता	-5490
र्की	-5491
▁सलाहकार	-5492
▁कमेटी	-5493
▁आजीवन	-5494
वों	-5495
▁नकदी	-5496
▁नीतियों	-5497
▁पॉलि	-5498
▁Village	-5499
▁तैयारी	-5500
▁इलाहाबाद	-5501
▁लड़ाई	-5502
▁त्वरित	-5503
▁विनियमित	-5504
▁त्वचा	-5505
▁लंबाई	-5506
ावट	-5507
▁इश	-5508
▁गहरी	-5509
▁आखिर	-5510
▁कार्यवाहियों	-5511
हल	-5512
लीय	-5513
▁जागर	-5514
▁पट्ट	-5515
▁असंभव	-5516
▁निश्चय	-5517
▁एयर	-5518
▁पुष्	-5519
▁कितनी	-5520
▁भ्रष्टाचार	-5521
▁माध्यमिक	-5522
▁टक	-5523
▁जमी	-5524
▁प्रभाग	-5525
▁वांछ	-5526
ग्रस्त	-5527
▁पुनर्वास	-5528
▁मुला	-5529
▁असमान	-5530
▁चाय	-5531
▁इंजीनियरिंग	-5532
वरों	-5533
ज्ञेय	-5534
▁आलोचना	-5535
IT	-5536
ार्ज	-5537
▁मामूली	-5538
▁पेट्रोल	-5539
▁फो	-5540
▁सिंध	-5541
▁विनिमय	-5542
▁व्यवस्थित	-5543
लित	-5544
▁सिक	-5545
▁पैसा	-5546
▁ब्रा	-5547
▁प्रेरणा	-5548
ख्यात	-5549
▁धात	-5550
▁इंकार	-5551
▁स्थिरता	-5552
▁अनिश्चित	-5553
ोजी	-5554
भाषा	-5555
▁झार	-5556
▁शास्त	-5557
▁टेलीफोन	-5558
▁सम्बन्धी	-5559
▁हस्तांतरित	-5560
▁वसूल	-5561
▁हरियाणा	-5562
खाने	-5563
▁जुड़	-5564
▁ब्रि	-5565
▁स्वभाव	-5566
थु	-5567
▁सोचा	-5568
िरी	-5569
▁तद	-5570
▁and	-5571
▁मंज	-5572
▁चिंतित	-5573
▁कतिपय	-5574
ॉर्नी	-5575
▁चाहती	-5576
▁दायित्वों	-5577
▁जहाज	-5578
▁क्रमांक	-5579
पल	-5580
वारी	-5581
▁सुनील	-5582
▁दुख	-5583
▁कदाचार	-5584
▁नोड	-5585
▁मृत्युदंड	-5586
▁उक	-5587
▁लिंग	-5588
▁यूनियन	-5589
▁सतर्कता	-5590
▁हैंः	-5591
▁विंडो	-5592
▁अटॉर्नी	-5593
▁प्रस्तुतियाँ	-5594
ान्य	-5595
▁आराम	-5596
▁नेताओं	-5597
▁साझेदारी	-5598
▁विशेषाधिकार	-5599
▁व्	-5600
ंचाई	-5601
▁अधिरो	-5602
▁फार्म	-5603
▁उत्साह	-5604
▁मालिकों	-5605
▁परिणामों	-5606
▁WPNo	-5607
▁वस्तुत	-5608
▁गहन	-5609
▁रानी	-5610
▁डीडब्ल्यू	-5611
▁निर्विवाद	-5612
▁स्वे	-5613
▁प्रोवि	-5614
▁फैला	-5615
▁अग्रणी	-5616
▁मुंह	-5617
बाई	-5618
▁चली	-5619
▁छवि	-5620
▁डीड	-5621
▁वक्	-5622
▁सफेद	-5623
▁पड़ेगा	-5624
▁इनका	-5625
▁अख	-5626
▁अधिग्रहित	-5627
▁व्यायाम	-5628
▁रहें	-5629
▁शंकरा	-5630
▁अपनाई	-5631
▁इलेक्ट्रॉनिक	-5632
▁चाव	-5633
▁विक्रय	-5634
▁घटनास्थल	-5635
र्पण	-5636
▁परमाणु	-5637
▁बारह	-5638
▁सिटी	-5639
▁कोलकाता	-5640
हरण	-5641
कीर्ण	-5642
▁स्टॉक	-5643
▁गांवों	-5644
िर्	-5645
▁वृक्ष	-5646
▁बाह्य	-5647
ेंशन	-5648
▁अंतः	-5649
▁वैवाहिक	-5650
▁CR	-5651
▁बोस	-5652
▁बारी	-5653
▁जुड़ी	-5654
▁कैडर	-5655
धारित	-5656
▁जरिए	-5657
▁उपहार	-5658
प्राप्त	-5659
▁श्रेणियों	-5660
▁पूरक	-5661
मेन	-5662
हान	-5663
धिकृत	-5664
▁अर्जी	-5665
▁पूर्वव्यापी	-5666
शिप	-5667
क्षीय	-5668
▁पुस्तकों	-5669
▁अल्पसंख्यक	-5670
▁हेड	-5671
▁ग्रस्त	-5672
ब्र	-5673
▁नकद	-5674
▁पाइ	-5675
▁अधिकतर	-5676
लोड	-5677
▁काली	-5678
रज	-5679
▁निस्	-5680
▁समेक	-5681
▁मास्टर	-5682
▁छे	-5683
▁क्लब	-5684
अर	-5685
▁पाद	-5686
▁संक्रमण	-5687
पंथ	-5688
▁चलो	-5689
▁बांध	-5690
▁सर्ट	-5691
▁कोयला	-5692
▁मध्यम	-5693
▁तत्वों	-5694
मांड	-5695
चालित	-5696
▁आस्ति	-5697
▁अंतर्निहित	-5698
रिटी	-5699
▁१६	-5700
मॉर्ट	-5701
ोक्ति	-5702
▁एजेंस	-5703
▁इंडियन	-5704
▁स्वस्थ	-5705
▁संतोषजनक	-5706
मैन	-5707
▁नान	-5708
▁रवि	-5709
▁दुखी	-5710
▁मारने	-5711
▁अमान्य	-5712
▁याचिकाएं	-5713
ायें	-5714
▁फैल	-5715
▁चुप	-5716
▁महानि	-5717
▁रेड्डी	-5718
▁ग्ल	-5719
▁एस्ट	-5720
▁लक्ष्मी	-5721
्याम	-5722
▁दमन	-5723
▁सावधानीपूर्वक	-5724
▁बंदूक	-5725
▁सिंचाई	-5726
िपल	-5727
एमसी	-5728
ट्टा	-5729
▁नार	-5730
▁महात्मा	-5731
▁सदस्यता	-5732
UR	-5733
यें	-5734
रोज	-5735
▁सभ्यता	-5736
▁रिकॉर्डिंग	-5737
▁अग्रवाल	-5738
ot	-5739
राशि	-5740
▁प्रता	-5741
▁तहसीलदार	-5742
ate	-5743
पत्य	-5744
▁कितने	-5745
▁पोत	-5746
▁फाइ	-5747
विज्ञान	-5748
▁चन्द्र	-5749
▁कॉलेजों	-5750
दुर	-5751
▁सौर	-5752
▁फंसाया	-5753
iv	-5754
यल	-5755
▁चैनल	-5756
▁टिकट	-5757
▁मिलियन	-5758
▁विकलांगता	-5759
▁ससुर	-5760
▁रियायत	-5761
▁विस्तारित	-5762
▁भरे	-5763
▁आस्त	-5764
▁समृद्ध	-5765
लभ	-5766
▁In	-5767
ingh	-5768
क्रो	-5769
म्बा	-5770
त्त्व	-5771
▁खुली	-5772
▁वक्फ	-5773
▁निष्का	-5774
्त्र	-5775
▁खनन	-5776
धक	-5777
▁अखिल	-5778
▁आहार	-5779
▁नजरअ	-5780
▁लिंक	-5781
संदेह	-5782
▁शौ	-5783
▁अन्तर्गत	-5784
▁लखन	-5785
मॉर्टम	-5786
▁आशंका	-5787
▁प्यार	-5788
▁प्रतिबि	-5789
ंठ	-5790
▁..	-5791
▁...	-5792
▁बचत	-5793
िटल	-5794
▁गेंद	-5795
▁प्रतिनिधियों	-5796
▁विनय	-5797
ुरु	-5798
▁बेद	-5799
▁अद्य	-5800
▁फिली	-5801
▁भ्रम	-5802
▁संभाल	-5803
ैर	-5804
मूल	-5805
एसआई	-5806
द्धा	-5807
▁पर्यटन	-5808
▁पदार्थों	-5809
▁हिंदुस्तान	-5810
▁h	-5811
ANo	-5812
▁Bihar	-5813
▁लकड़ी	-5814
▁प्रतियोगिता	-5815
्रीम	-5816
▁सदैव	-5817
▁निषेध	-5818
▁व्यक्तित्व	-5819
▁रिज	-5820
▁बेटा	-5821
▁स्वतः	-5822
▁अमर	-5823
▁नजरअंदाज	-5824
▁मार्गदर्शन	-5825
▁प्रतिवाद	-5826
AG	-5827
▁खेत	-5828
▁पौधों	-5829
▁परिचित	-5830
▁सम्पूर्ण	-5831
इल	-5832
्ता	-5833
ार्ट	-5834
▁सच्चाई	-5835
▁संवर्धन	-5836
पट	-5837
▁गज	-5838
▁सर्टिफ	-5839
▁प्रतीक्षा	-5840
▁पश	-5841
▁सद्	-5842
र्याप्त	-5843
ud	-5844
्याव	-5845
▁हिमा	-5846
▁राजधानी	-5847
▁शंकराचार्य	-5848
▁साथी	-5849
▁प्रतिभूति	-5850
ug	-5851
▁प्रतिस्थापित	-5852
▁IT	-5853
ES	-5854
▁सोम	-5855
शो	-5856
ज़ार	-5857
st	-5858
कोश	-5859
▁हॉ	-5860
▁लेती	-5861
▁उपखंड	-5862
▁झारखंड	-5863
सीटी	-5864
▁लगने	-5865
▁शुरु	-5866
▁वहन	-5867
▁मुकाब	-5868
▁न्यायसंगत	-5869
▁निर्वाचित	-5870
▁पोस्टमॉर्टम	-5871
▁दुः	-5872
▁दत्त	-5873
▁पीछा	-5874
▁सुदृ	-5875
▁सुनाया	-5876
▁वास्तविकता	-5877
▁ब्यू	-5878
▁प्रसं	-5879
ूर्त	-5880
▁दरों	-5881
▁इकट्ठा	-5882
▁मरम्मत	-5883
▁क्रिकेट	-5884
▁सना	-5885
ुका	-5886
▁खट	-5887
▁इक्व	-5888
▁मालूम	-5889
▁फु	-5890
▁उतना	-5891
▁Singh	-5892
▁अंजाम	-5893
▁अनावश्यक	-5894
कू	-5895
▁कोटा	-5896
▁अपर्याप्त	-5897
▁निहितार्थ	-5898
ौदा	-5899
▁पंडित	-5900
▁आर्बिट	-5901
▁मिलते	-5902
गन	-5903
ेड	-5904
ब्बे	-5905
▁खड़ी	-5906
िसाब	-5907
▁निरसन	-5908
▁जनहित	-5909
▁समुद्री	-5910
▁आइट	-5911
▁असली	-5912
▁जवाह	-5913
भेद	-5914
▁चोरी	-5915
▁पंक्ति	-5916
लक	-5917
िलों	-5918
िवेश	-5919
RI	-5920
ant	-5921
▁उतर	-5922
▁एका	-5923
ांतिक	-5924
▁प्रतिपाद	-5925
▁रसाय	-5926
▁मिलेगा	-5927
▁विष्णु	-5928
नगर	-5929
▁CO	-5930
▁सकल	-5931
स्टिक	-5932
▁इंग्लैंड	-5933
▁शिकायतों	-5934
▁नौकर	-5935
▁खतरनाक	-5936
▁हिमाचल	-5937
▁रिस	-5938
▁त्रि	-5939
▁मारा	-5940
▁मृ	-5941
▁उत्तेज	-5942
▁उद्घाटन	-5943
▁प्लान	-5944
▁विवेका	-5945
इश	-5946
▁परमिट	-5947
▁बताती	-5948
वायु	-5949
▁संभवतः	-5950
ac	-5951
▁इस्	-5952
▁मैसर्स	-5953
तांत्रिक	-5954
ांश	-5955
▁सहन	-5956
▁कहान	-5957
▁परिषद्	-5958
▁श्व	-5959
वती	-5960
▁सटीक	-5961
▁फॉर	-5962
▁पीडी	-5963
▁नियंत्रक	-5964
▁बॉक्स	-5965
▁मूलभूत	-5966
▁रहेंगे	-5967
▁जाग	-5968
▁चालान	-5969
▁श्रमिकों	-5970
भु	-5971
▁इंत	-5972
▁बेश	-5973
▁कड़ी	-5974
▁संवेदन	-5975
▁भंडार	-5976
▁मेट	-5977
▁बालक	-5978
▁शुद्धता	-5979
▁प्रतिदिन	-5980
▁हार्दिक	-5981
▁स्वचालित	-5982
▁प्रस्तावों	-5983
र्थी	-5984
▁कमिश्	-5985
▁देवता	-5986
▁ठहराने	-5987
▁धनराशि	-5988
▁बौद्धिक	-5989
▁सल	-5990
▁निवेदन	-5991
▁पब्लिक	-5992
रेख	-5993
ोषित	-5994
▁लौटा	-5995
▁जागरूक	-5996
चंद्र	-5997
▁कमा	-5998
▁बैग	-5999
▁स्वर्ण	-6000
▁चिकित्सक	-6001
▁डीलर	-6002
▁बनाकर	-6003
▁ताजा	-6004
▁फलस्वरूप	-6005
▁तिल	-6006
▁अंकों	-6007
gar	-6008
▁पच	-6009
▁कोट	-6010
▁आइटम	-6011
▁पुनर्विचार	-6012
▁प्रतिस्पर्धा	-6013
निय	-6014
▁उतार	-6015
िष्कार	-6016
▁हड्डी	-6017
▁नीतिगत	-6018
▁डिफ	-6019
▁पीड़ा	-6020
▁रहेगी	-6021
दल	-6022
▁बजट	-6023
ET	-6024
न्दर	-6025
▁शांत	-6026
▁बताना	-6027
▁जातियों	-6028
▁समायोजित	-6029
ाट	-6030
▁पढ़े	-6031
▁विश्वसनीयता	-6032
ham	-6033
हेल	-6034
▁हड़	-6035
▁दिव्य	-6036
▁निचले	-6037
ोक्ताओं	-6038
▁गुल	-6039
▁रुक	-6040
▁शान	-6041
▁शोर	-6042
▁सीम	-6043
▁डाटा	-6044
▁बाएं	-6045
▁वार्ता	-6046
av	-6047
यंस	-6048
▁परिचय	-6049
▁हिस्सों	-6050
वै	-6051
ागर	-6052
टीसी	-6053
▁तदर्थ	-6054
▁तुम्हारे	-6055
▁एमओ	-6056
ंपरिक	-6057
▁घरों	-6058
▁शिखर	-6059
▁बनाये	-6060
▁प्रणाल	-6061
▁प्रिंस	-6062
प्लिकेशन	-6063
चंद	-6064
▁चुनौ	-6065
▁विभिन्	-6066
कात	-6067
चेंज	-6068
▁प्रतिलिपि	-6069
▁मनी	-6070
▁संदाय	-6071
▁समझते	-6072
▁कामगार	-6073
▁ब्रिटेन	-6074
▁केंद्रित	-6075
▁व्यापारी	-6076
▁प्रदर्शनी	-6077
़्य	-6078
▁चिप	-6079
ेरे	-6080
▁कष्ट	-6081
▁संजय	-6082
▁शहरों	-6083
▁गोपनीय	-6084
▁निरंतरता	-6085
▁बर्खास्तगी	-6086
▁बाय	-6087
▁विनाश	-6088
▁रायपुर	-6089
▁स्नातक	-6090
पूर	-6091
▁तृ	-6092
प्ति	-6093
▁सीडी	-6094
▁आजादी	-6095
▁अप्रत्य	-6096
▁प्रेषित	-6097
re	-6098
क्ष्य	-6099
▁वर्गीकृत	-6100
जनन	-6101
▁बैक	-6102
▁गरीबी	-6103
▁परिस्थितिजन्य	-6104
▁सांप	-6105
▁नेत्र	-6106
उंट	-6107
▁doc	-6108
▁हथिया	-6109
▁मस्	-6110
▁टर्म	-6111
▁मतदान	-6112
▁स्त्र	-6113
रद	-6114
डिट	-6115
▁फोटो	-6116
▁सीटों	-6117
▁अद्यतन	-6118
▁लेनदार	-6119
▁resident	-6120
ष्ठा	-6121
▁सेन	-6122
▁भो	-6123
िवारिक	-6124
▁झूठा	-6125
▁टिका	-6126
▁पौधे	-6127
▁दक्षता	-6128
दत्त	-6129
▁टाउन	-6130
▁सिन्	-6131
▁सुदृढ़	-6132
▁पत्त	-6133
▁शिशु	-6134
स्थापन	-6135
▁दुर्भाग्य	-6136
▁सर्टिफिकेट	-6137
OR	-6138
▁लॉग	-6139
▁वाक्य	-6140
▁उपायुक्त	-6141
खल	-6142
▁सोन	-6143
रिक्ष	-6144
▁बोलने	-6145
▁लॉर्ड	-6146
्यवाद	-6147
▁पारिवारिक	-6148
▁जू	-6149
▁पैकेज	-6150
▁मूर्ति	-6151
▁प्रवृत्त	-6152
▁एव	-6153
ल्पित	-6154
▁कहां	-6155
▁क्षण	-6156
▁जिनसे	-6157
▁अविश्वास	-6158
ज्ज	-6159
सागर	-6160
▁नृत	-6161
▁इसील	-6162
▁पारंपरिक	-6163
रम	-6164
▁विविधता	-6165
▁विधानसभा	-6166
ुत्	-6167
▁दुर्बलता	-6168
▁इनकी	-6169
▁छाया	-6170
▁नेपाल	-6171
▁साधनों	-6172
▁वस्तुतः	-6173
▁अनियमितता	-6174
▁भत्ता	-6175
▁मनमानी	-6176
▁इक्विटी	-6177
०क	-6178
धिव	-6179
▁उत	-6180
▁आबंट	-6181
▁मनाया	-6182
▁मार्क	-6183
▁कनेक्शन	-6184
रिट	-6185
▁रेख	-6186
▁कमिश्नर	-6187
▁न्यास	-6188
▁परिवारों	-6189
▁एग्	-6190
स्वती	-6191
▁असामान्य	-6192
▁देशी	-6193
▁दक्षिणी	-6194
▁अपहरण	-6195
▁नामों	-6196
▁समझता	-6197
pp	-6198
▁जंगल	-6199
▁परिल	-6200
▁अध्यादेश	-6201
▁जलवायु	-6202
▁प्रिंट	-6203
PA	-6204
▁भरी	-6205
▁डीएन	-6206
▁चार्ट	-6207
▁कम्पनी	-6208
▁पुनर्ग	-6209
▁अदा	-6210
कियों	-6211
बारी	-6212
र्जन	-6213
▁एप्लिकेशन	-6214
आरएस	-6215
▁ज्व	-6216
▁क्लिक	-6217
▁फ़िल्म	-6218
▁भव	-6219
▁अध्यक्षता	-6220
▁अप्रत्यक्ष	-6221
▁CA	-6222
▁dt	-6223
▁एसी	-6224
▁कही	-6225
▁नर्स	-6226
▁St	-6227
▁ग़	-6228
▁चां	-6229
▁गाड़ी	-6230
▁अहमदाबाद	-6231
रेखा	-6232
्राफी	-6233
▁उसको	-6234
▁कीटना	-6235
▁द्विप	-6236
▁विवरणों	-6237
फ़ी	-6238
▁बल्ले	-6239
▁क्रेता	-6240
▁प्रतिष्ठित	-6241
दीप	-6242
▁आबादी	-6243
अप	-6244
ment	-6245
▁रमेश	-6246
न्दु	-6247
्नि	-6248
हार्य	-6249
▁डाउन	-6250
▁सेटिंग	-6251
esh	-6252
म्परा	-6253
▁कहला	-6254
▁फिल्	-6255
▁खरीदी	-6256
▁अधिनियमों	-6257
▁फुट	-6258
▁बंदर	-6259
टु	-6260
▁संग्र	-6261
ापति	-6262
▁झगड़ा	-6263
▁अनधिकृत	-6264
▁ष	-6265
▁CW	-6266
दृश्य	-6267
▁हिसाब	-6268
▁प्रारम्भ	-6269
क्टे	-6270
▁हेम	-6271
▁खोला	-6272
▁कामका	-6273
▁रिश्वत	-6274
▁पहुंचाने	-6275
▁बीस	-6276
▁बढ़ते	-6277
▁वाहनों	-6278
ोसी	-6279
▁son	-6280
नीति	-6281
▁रहस्य	-6282
▁दरवाजे	-6283
▁मूल्यवान	-6284
▁पड	-6285
▁उपज	-6286
▁धातु	-6287
▁सरस्वती	-6288
▁बीमाकर्ता	-6289
विक	-6290
▁नाइ	-6291
▁प्रबल	-6292
▁तंत्रिका	-6293
टीकरण	-6294
▁लोकतांत्रिक	-6295
नेश	-6296
▁उदा	-6297
▁भेंट	-6298
▁भक्ति	-6299
▁प्रतिर	-6300
▁पते	-6301
▁बैल	-6302
▁शीट	-6303
▁ओं	-6304
▁प्रान्त	-6305
▁समृद्धि	-6306
▁निदेशकों	-6307
▁खूब	-6308
▁मेन	-6309
ड़िया	-6310
▁संध्या	-6311
गाव	-6312
▁देगी	-6313
▁बुरी	-6314
▁शक्तिशाली	-6315
िब	-6316
ीली	-6317
▁अवय	-6318
▁तिव	-6319
▁सीधा	-6320
▁गोपाल	-6321
▁PS	-6322
▁रखकर	-6323
▁निस्त	-6324
▁कुल्हा	-6325
▁सीन	-6326
स्ट्रे	-6327
▁विद्रो	-6328
▁सेक्टर	-6329
▁भारतीयों	-6330
▁फंड	-6331
▁द्वि	-6332
परा	-6333
▁मानी	-6334
▁सचेत	-6335
▁सीता	-6336
▁फायदा	-6337
▁पॉलिसी	-6338
केशन	-6339
▁थोड़ी	-6340
▁रूपों	-6341
▁इंस	-6342
▁ऑपरेटर	-6343
▁बहादुर	-6344
न्या	-6345
▁शेख	-6346
▁ग्रुप	-6347
▁कॉर्पोरेट	-6348
प्ट	-6349
▁अज	-6350
▁ऑटो	-6351
▁कोष	-6352
▁आपात	-6353
▁बुलाने	-6354
im	-6355
ल्टी	-6356
▁मतदाता	-6357
▁कस	-6358
▁रिव	-6359
▁अभ्य	-6360
▁जाली	-6361
▁गहराई	-6362
▁पहुंची	-6363
िकी	-6364
बारा	-6365
▁जीन	-6366
िवर्त	-6367
▁तिवारी	-6368
▁महाधिव	-6369
ंपी	-6370
▁SH	-6371
▁घृ	-6372
काने	-6373
▁तनाव	-6374
▁सिद्धान्त	-6375
सेस	-6376
▁वय	-6377
▁स्तरों	-6378
▁परम्परा	-6379
▁जना	-6380
▁सड़	-6381
▁अनुर	-6382
▁परिस्थितियां	-6383
▁मिथ	-6384
▁अभिला	-6385
▁ड्राफ	-6386
▁१७	-6387
▁नवा	-6388
▁रॉय	-6389
▁विघ	-6390
▁लाए	-6391
▁उर्व	-6392
▁गुफा	-6393
▁आत्मसम	-6394
▁सीआरपीसी	-6395
▁औस	-6396
०वीं	-6397
र्माने	-6398
▁जानें	-6399
▁जितनी	-6400
▁स्तरीय	-6401
▁परिश्रम	-6402
▁जुर्माने	-6403
▁क्रियान्व	-6404
kh	-6405
रता	-6406
▁प्	-6407
▁बिलकुल	-6408
▁मंदिरों	-6409
▁चिकित्सीय	-6410
▁प्रकटीकरण	-6411
▁पैट	-6412
▁अक्त	-6413
पीए	-6414
बेट	-6415
्रु	-6416
▁पट्टी	-6417
▁सकेगी	-6418
▁ज़्यादा	-6419
▁बाँ	-6420
▁राह	-6421
▁ऊंचाई	-6422
▁मुक्ति	-6423
▁सामान्यतः	-6424
ोकन	-6425
▁रखती	-6426
▁प्रीम	-6427
▁निकाले	-6428
▁प्रसंस्	-6429
▁डिज	-6430
▁जोड़े	-6431
▁देखता	-6432
▁स्क्रीन	-6433
▁अभिलेखों	-6434
▁ब्राह्मण	-6435
ूलन	-6436
▁मुलाकात	-6437
▁रिज़	-6438
▁टैक्स	-6439
▁टुकड़े	-6440
पाई	-6441
▁याता	-6442
▁परिवी	-6443
▁दिशानिर्देशों	-6444
साई	-6445
▁किल	-6446
▁पुण	-6447
▁समझे	-6448
▁मंजूर	-6449
▁क्रांति	-6450
▁एक्सचेंज	-6451
▁लोड	-6452
▁खासकर	-6453
▁उन्हीं	-6454
▁मिलेगी	-6455
वाहा	-6456
▁लगती	-6457
्रेषित	-6458
▁वृद्ध	-6459
▁यूरोपीय	-6460
par	-6461
▁AP	-6462
▁MO	-6463
▁अतीत	-6464
▁विलय	-6465
▁नवीनी	-6466
▁वस्त्र	-6467
▁सूचक	-6468
▁अनदेखी	-6469
▁पुनराव	-6470
रस	-6471
द्वी	-6472
▁वास	-6473
▁सुस	-6474
ंगलोर	-6475
▁इसीलिए	-6476
▁नियुक्तियों	-6477
डीसी	-6478
▁औसतन	-6479
▁मनमाने	-6480
▁एजेंसियों	-6481
▁OSNo	-6482
▁लाठी	-6483
न्थ	-6484
▁झील	-6485
▁एक्सप	-6486
▁निस्संदेह	-6487
ोई	-6488
जिंग	-6489
▁खटख	-6490
ज्जित	-6491
▁कीटनाश	-6492
▁हथियारों	-6493
▁महाधिवक्ता	-6494
▁जगत	-6495
▁गीता	-6496
▁भीड़	-6497
▁रिक्ति	-6498
▁निलंबित	-6499
▁अपमानजनक	-6500
▁निदेशालय	-6501
▁प्रतियां	-6502
▁प्रतिसाद	-6503
▁आत्मसमर्पण	-6504
रचना	-6505
ित्य	-6506
▁खनिज	-6507
▁उठाई	-6508
▁एसटी	-6509
▁सफलतापूर्वक	-6510
▁लखनऊ	-6511
▁अनुपस्थित	-6512
▁जीवा	-6513
शिता	-6514
▁ऑडिट	-6515
▁यातायात	-6516
▁मरा	-6517
▁दुश्म	-6518
▁तर्कों	-6519
▁पंचाट	-6520
▁हानिक	-6521
▁निकलने	-6522
▁कुल्हाड़ी	-6523
वाणी	-6524
▁तलाक	-6525
▁स्के	-6526
▁संपन्न	-6527
ड्यूल	-6528
▁दुर्लभ	-6529
▁पट	-6530
दायक	-6531
▁कॉन्	-6532
▁ब्यूरो	-6533
▁परिवीक्षा	-6534
मिन	-6535
▁दम	-6536
▁परा	-6537
भौ	-6538
▁एमएस	-6539
▁वार्ड	-6540
निस	-6541
कथित	-6542
▁अवहेल	-6543
▁पीढ़ी	-6544
▁रसायन	-6545
▁आरंभिक	-6546
▁मैत्री	-6547
▁उपेक्षा	-6548
िसी	-6549
▁सुनकर	-6550
▁हस्ताक्षरित	-6551
जिद	-6552
▁देनदार	-6553
▁रेडियो	-6554
ज़ो	-6555
ुग्	-6556
garh	-6557
▁विधवा	-6558
स्परिक	-6559
▁अनन्य	-6560
▁ऑफिसर	-6561
▁स्वेच्छा	-6562
ॉम	-6563
इयां	-6564
िक्र	-6565
ाइयों	-6566
▁आपसी	-6567
ंधन	-6568
▁फ्लैट	-6569
▁मतभेद	-6570
मीन	-6571
ोजे	-6572
ेंसिक	-6573
▁चीजें	-6574
▁संपदा	-6575
▁सहयोगी	-6576
▁निकायों	-6577
▁मोटरसाइ	-6578
पै	-6579
ाम्	-6580
▁उपभोग	-6581
▁जिलों	-6582
▁अक्तूबर	-6583
देशक	-6584
▁पुष्ट	-6585
▁कना	-6586
▁सांख	-6587
▁सेवन	-6588
▁कामना	-6589
▁तरल	-6590
▁हाइ	-6591
▁काला	-6592
▁यथार्थ	-6593
▁व्युत्	-6594
▁रघु	-6595
▁लिप	-6596
▁सकी	-6597
▁टेक्	-6598
ांक्षा	-6599
▁अंगूठ	-6600
▁खरीदा	-6601
▁गुंजा	-6602
▁पदोन्नत	-6603
▁शास्त्र	-6604
▁कॉर्पोरेशन	-6605
▁आधि	-6606
▁हां	-6607
▁भाग्य	-6608
▁प्रांत	-6609
▁रचनात्मक	-6610
hatt	-6611
▁संधि	-6612
▁साहित्यिक	-6613
▁विशेषज्ञों	-6614
▁फीट	-6615
स्वामी	-6616
▁ऑपरेट	-6617
▁अवहेलना	-6618
्यूशन	-6619
▁ग्री	-6620
▁मछली	-6621
त्रियों	-6622
▁माध्यस्थ	-6623
▁रवीन्द्रनाथ	-6624
▁झट	-6625
जाने	-6626
मिता	-6627
सेना	-6628
▁कंध	-6629
▁इस्लामी	-6630
▁आधे	-6631
ेन्द्र	-6632
▁अंतरिक्ष	-6633
▁बरामदगी	-6634
▁पारस्परिक	-6635
कै	-6636
ोश	-6637
ंची	-6638
▁कहती	-6639
▁अखबार	-6640
▁खोजने	-6641
▁कार्मिक	-6642
..	-6643
नाइ	-6644
हीत	-6645
▁जूनियर	-6646
ers	-6647
▁फ्रै	-6648
▁कार्यपालिका	-6649
▁चौथा	-6650
पक्व	-6651
▁फ़ो	-6652
▁छेड़	-6653
▁सौंपी	-6654
▁पुस्तिका	-6655
क्कर	-6656
▁लंबा	-6657
▁उजागर	-6658
▁संयोजन	-6659
▁vi	-6660
ांसी	-6661
anc	-6662
▁एंट	-6663
▁हुस	-6664
▁नृत्य	-6665
▁बैंगलोर	-6666
▁MA	-6667
▁गिन	-6668
▁साझी	-6669
▁गिरवी	-6670
▁बहाली	-6671
▁बनाती	-6672
▁पहाड़ी	-6673
▁सीनियर	-6674
▁निष्कासन	-6675
ुलर	-6676
▁एओ	-6677
▁टैग	-6678
▁तंब	-6679
▁बन्द	-6680
▁लाना	-6681
▁उपलब्धि	-6682
▁द्विपक्षीय	-6683
▁कंस	-6684
▁तारा	-6685
▁बेशक	-6686
कारिता	-6687
FA	-6688
यिक	-6689
▁मोटे	-6690
स्ट्री	-6691
▁तथाकथित	-6692
▁व्यापारिक	-6693
जो	-6694
ish	-6695
▁भागीदार	-6696
▁बेई	-6697
▁रेश	-6698
▁बिता	-6699
▁ग्राफ	-6700
▁रोकना	-6701
▁हेक्टे	-6702
▁पत्रिका	-6703
▁अधिरोपित	-6704
▁टूट	-6705
▁रिला	-6706
परक	-6707
़्त	-6708
्यौ	-6709
▁सदी	-6710
ूष	-6711
▁गुंजाइश	-6712
▁आतंकवादी	-6713
▁गड़	-6714
▁जीत	-6715
▁जताई	-6716
▁इंद्र	-6717
▁मंजिल	-6718
▁परिसंप	-6719
▁गू	-6720
▁महाराजा	-6721
ल्फ	-6722
संच	-6723
दर्शिता	-6724
▁केश	-6725
▁शरण	-6726
वास्त	-6727
▁थाने	-6728
▁प्लस	-6729
▁उठाना	-6730
▁एफएसएल	-6731
▁यात्री	-6732
▁आधिपत्य	-6733
▁समायोजन	-6734
▁प्रिंसिपल	-6735
▁फर्	-6736
▁लायक	-6737
▁ट्रैक	-6738
▁उपर	-6739
▁ईसाई	-6740
▁कर्ण	-6741
▁पृथक	-6742
▁संगठित	-6743
▁समझौतों	-6744
▁कच	-6745
▁रिलायंस	-6746
गि	-6747
ायण	-6748
▁गायब	-6749
ंसक	-6750
कोट	-6751
▁प्रोफ	-6752
▁अपरिहार्य	-6753
▁प्रयोज्यता	-6754
▁रिफ	-6755
▁एकीकृत	-6756
▁चित्रण	-6757
सास	-6758
र्ता	-6759
▁नस्	-6760
▁रेड	-6761
▁पड़ोसी	-6762
▁स्रोतों	-6763
▁निर्देशिका	-6764
त्रिम	-6765
▁मोटरसाइकिल	-6766
▁पहन	-6767
▁शत्रु	-6768
▁पेशेवर	-6769
मै	-6770
▁शोक	-6771
▁बाईं	-6772
▁खरीदार	-6773
▁अनुज्ञात	-6774
रेज	-6775
जीसी	-6776
▁पाप	-6777
▁यहू	-6778
▁युक्ति	-6779
यु	-6780
▁योनि	-6781
▁खटखटा	-6782
▁संज्ञेय	-6783
▁सम्पत्ति	-6784
▁प्रतिबिंब	-6785
ठे	-6786
दू	-6787
जिए	-6788
▁बग	-6789
▁छिप	-6790
सिद्धि	-6791
▁राजीव	-6792
कारियों	-6793
▁धरती	-6794
▁मोड़	-6795
▁साहस	-6796
▁मापदंड	-6797
▁दुश्मनी	-6798
ंदगी	-6799
▁उर्फ	-6800
▁चरणों	-6801
up	-6802
▁घो	-6803
▁डेवल	-6804
▁नींव	-6805
▁अंगों	-6806
▁भत्ते	-6807
▁स्वीकारोक्ति	-6808
हि	-6809
▁‘‘	-6810
▁एसआई	-6811
नेस	-6812
▁नंद	-6813
▁असंत	-6814
▁सारांश	-6815
बीन	-6816
ॉजी	-6817
▁वाक्	-6818
▁कराना	-6819
▁पुनर्म	-6820
▁हिमालय	-6821
▁अग्नि	-6822
▁गौरव	-6823
▁मानो	-6824
▁डीएनए	-6825
▁मेट्रो	-6826
▁पुनर्गठन	-6827
▁लाई	-6828
▁किन्	-6829
▁वरीय	-6830
▁जायें	-6831
▁ट्रेडमार्क	-6832
ढ़े	-6833
▁सुपर	-6834
पेश	-6835
ोंड	-6836
▁उभ	-6837
स्फोट	-6838
▁तिरु	-6839
▁लड़ने	-6840
▁कृत्रिम	-6841
▁विद्यार्थी	-6842
ापू	-6843
▁IV	-6844
स्पद	-6845
रलाल	-6846
▁उन्मूलन	-6847
वकों	-6848
▁चरम	-6849
▁जनादेश	-6850
▁प्रीमियम	-6851
ुणा	-6852
▁बेल	-6853
▁तलवार	-6854
▁अमरीका	-6855
▁आबकारी	-6856
▁प्रसंस्करण	-6857
▁नज	-6858
▁टीवी	-6859
▁माने	-6860
▁स्टील	-6861
▁फ्रे	-6862
▁डोमेन	-6863
▁प्लेट	-6864
▁अन्वेषण	-6865
og	-6866
▁तापमान	-6867
एसए	-6868
ानंद	-6869
▁फिल	-6870
▁हाँ	-6871
▁पाठक	-6872
ुत्व	-6873
▁दाम	-6874
▁राश	-6875
▁अनिल	-6876
▁सर्क	-6877
▁सांवि	-6878
ानुभूति	-6879
▁Chhatt	-6880
ग्ला	-6881
▁खर्	-6882
▁कोर्स	-6883
ig	-6884
च्यु	-6885
वर्ड	-6886
▁वीड	-6887
ंद्रह	-6888
▁युवाओं	-6889
▁विनिश्चय	-6890
ंसर	-6891
थान	-6892
▁कीं	-6893
▁आधारभूत	-6894
शाह	-6895
▁y	-6896
▁हुसैन	-6897
▁पंद्रह	-6898
▁प्रक्रियात्मक	-6899
गंज	-6900
गाई	-6901
▁ढूं	-6902
▁अड्ड	-6903
▁पट्टा	-6904
▁कपड़ों	-6905
पन्न	-6906
▁दुर्व	-6907
▁सुरेश	-6908
SH	-6909
od	-6910
भासी	-6911
▁सेशन	-6912
▁Chhattis	-6913
▁रजिस्ट्रीकरण	-6914
▁घास	-6915
▁लैस	-6916
▁हरे	-6917
▁डाले	-6918
os	-6919
सीआई	-6920
▁समाम	-6921
▁सार्थ	-6922
▁खर्चों	-6923
▁ओम	-6924
स्कर	-6925
िर्ण	-6926
▁अवर	-6927
▁रोम	-6928
▁वोट	-6929
▁राजू	-6930
▁उम	-6931
▁भूत	-6932
▁संस	-6933
▁चिन्ह	-6934
▁हटाया	-6935
▁पुनर्व	-6936
▁iv	-6937
▁फार	-6938
▁मातृ	-6939
▁कड़ाई	-6940
ुस	-6941
end	-6942
मोहन	-6943
र्दू	-6944
▁दण्ड	-6945
▁स्वि	-6946
▁लेंगे	-6947
▁कोशिकाओं	-6948
▁Chhattisgarh	-6949
▁डिस्	-6950
▁पीपी	-6951
▁सेंटर	-6952
▁प्रजनन	-6953
▁सांख्यिक	-6954
▁कहे	-6955
▁गणित	-6956
ार्किक	-6957
▁इनपुट	-6958
▁अस्थिर	-6959
जुन	-6960
ोमा	-6961
▁जाओ	-6962
▁किस्म	-6963
▁स्ट्र	-6964
▁RE	-6965
▁भांति	-6966
तन्य	-6967
▁बैठा	-6968
▁समामेल	-6969
▁ड्राइवर	-6970
सूर	-6971
▁छू	-6972
▁ज़ि	-6973
▁मंगल	-6974
AK	-6975
▁अनाज	-6976
▁जानकर	-6977
▁पर्वत	-6978
▁आंकड़े	-6979
▁मस्जिद	-6980
ब्ब	-6981
स्पी	-6982
▁झुक	-6983
▁ड्रग	-6984
▁व्यस्त	-6985
▁सकेंगे	-6986
▁प्रस्तुतिकरण	-6987
ub	-6988
▁आपस	-6989
▁बांड	-6990
▁उर्दू	-6991
▁रिकवरी	-6992
▁राजेंद्र	-6993
भूषण	-6994
▁कामकाज	-6995
▁अनुमानित	-6996
स्ट्रेलिया	-6997
▁शस्त्र	-6998
तापूर्वक	-6999
▁हेक्टेयर	-7000
▁परिलक्षित	-7001
▁कार्यालयों	-7002
स्पति	-7003
▁अभिर	-7004
▁चर्च	-7005
▁संकाय	-7006
ंकी	-7007
शनी	-7008
▁उग्र	-7009
▁टाइप	-7010
▁कच्चे	-7011
▁परिवेश	-7012
▁प्रविष्टियों	-7013
सो	-7014
दायित्व	-7015
▁परीक्षक	-7016
▁प्रसारण	-7017
▁अधिनिर्ण	-7018
▁अभिव्यक्त	-7019
▁प्रोविज़ो	-7020
स्को	-7021
▁किमी	-7022
विश्वास	-7023
▁ईंधन	-7024
▁शोषण	-7025
▁सौंपने	-7026
ंटों	-7027
▁दाहिने	-7028
▁परिप्रे	-7029
▁वक	-7030
जनों	-7031
पंथी	-7032
▁एनआई	-7033
ia	-7034
फ्	-7035
हाई	-7036
वायद	-7037
▁लार	-7038
▁पीने	-7039
▁उत्तम	-7040
▁समझना	-7041
▁चैतन्य	-7042
ON	-7043
ao	-7044
डू	-7045
▁समन	-7046
▁निस्तारण	-7047
ुश	-7048
साइड	-7049
▁नाक	-7050
▁उपाधि	-7051
झा	-7052
फ़र	-7053
म्बई	-7054
▁कवायद	-7055
▁अत्यन्त	-7056
▁कमल	-7057
▁पारि	-7058
क्षकों	-7059
▁जापान	-7060
▁तलाशी	-7061
▁सिग	-7062
▁निंदा	-7063
▁स्टाफ	-7064
▁मुकदमों	-7065
▁पासपोर्ट	-7066
ोब	-7067
▁धू	-7068
विंग	-7069
▁मंग	-7070
▁लेबर	-7071
▁ढांचा	-7072
▁सुशील	-7073
▁सैन्य	-7074
▁पुराना	-7075
▁किलोग्राम	-7076
ल्य	-7077
▁न्	-7078
▁डिज़	-7079
▁श्वे	-7080
▁बांग्ला	-7081
▁दोषपूर्ण	-7082
वंत	-7083
प्रद	-7084
▁नज़र	-7085
▁राजभाषा	-7086
▁केंद्रों	-7087
▁प्रतिभूत	-7088
▁हानिकारक	-7089
▁ड़	-7090
▁आधा	-7091
क्तिक	-7092
▁चावल	-7093
▁बिंदुओं	-7094
▁विद्रोह	-7095
▁समवर्ती	-7096
ीर्ण	-7097
▁दाग	-7098
▁शुक्	-7099
स्तानी	-7100
▁इलाके	-7101
लिप	-7102
▁बम	-7103
▁सार्वभौ	-7104
▁प्रतिष्ठान	-7105
▁ट्यूब	-7106
▁स्मरण	-7107
ice	-7108
▁बैच	-7109
▁पोजी	-7110
▁मुझसे	-7111
▁हार्ड	-7112
गोलिक	-7113
▁इंतजार	-7114
▁उद्यान	-7115
▁सहानुभूति	-7116
▁माला	-7117
थन	-7118
▁खपत	-7119
▁नाल	-7120
▁साध	-7121
▁दुःख	-7122
▁दशकों	-7123
▁पड़ती	-7124
▁मसौदा	-7125
ार्थियों	-7126
▁प्रशिक्षित	-7127
तरी	-7128
हारी	-7129
▁नक्	-7130
▁गुरू	-7131
▁लेबल	-7132
▁साहब	-7133
ईसी	-7134
ट्र	-7135
▁ऑपर	-7136
▁वस्तुएं	-7137
▁संभावनाओं	-7138
▁एन्	-7139
▁लेट	-7140
▁सीखी	-7141
▁लगाते	-7142
▁सीखने	-7143
▁समर्पण	-7144
गांव	-7145
हार्	-7146
संचार	-7147
▁गुणा	-7148
▁संभोग	-7149
▁AS	-7150
राइट	-7151
▁एसपी	-7152
▁फोरम	-7153
▁सुलह	-7154
▁बोलते	-7155
▁भौगोलिक	-7156
▁संकीर्ण	-7157
th	-7158
बेन	-7159
▁सोल	-7160
▁दिखाए	-7161
▁पशुओं	-7162
बली	-7163
बान	-7164
ोज़	-7165
▁चाचा	-7166
▁शानदार	-7167
▁पेट्रोलियम	-7168
ंती	-7169
▁Ad	-7170
▁सुधारने	-7171
कीन	-7172
▁मौजूदगी	-7173
चाना	-7174
▁वादों	-7175
▁कर्मियों	-7176
परि	-7177
▁कट्	-7178
▁बोध	-7179
▁मुहर	-7180
▁अनुक्रम	-7181
▁विस्फोट	-7182
▁ईमानदारी	-7183
ev	-7184
वण	-7185
लास	-7186
▁रज	-7187
▁मेरिट	-7188
▁यात्रियों	-7189
▁परिप्रेक्ष्य	-7190
aya	-7191
बंदी	-7192
▁आरटी	-7193
▁उतनी	-7194
▁वरीयता	-7195
▁प्रतिनिय	-7196
▁धान	-7197
▁नायक	-7198
▁लगते	-7199
▁समेकित	-7200
▁पाठ्यक्रमों	-7201
▁उत्तरदायित्व	-7202
देह	-7203
▁उपय	-7204
▁भक्त	-7205
▁प्रपत्र	-7206
▁लक्ष्मण	-7207
पने	-7208
िमा	-7209
▁लंदन	-7210
▁अभिगम	-7211
▁कैंसर	-7212
▁छोड़ा	-7213
▁विनोद	-7214
▁संदेय	-7215
▁अमरीकी	-7216
▁पुनरावृत्ति	-7217
शोथ	-7218
▁Exh	-7219
▁घोर	-7220
▁डॉलर	-7221
▁पैकेट	-7222
▁संशोधनों	-7223
दनी	-7224
▁नोस	-7225
▁बदला	-7226
▁घनिष्ठ	-7227
▁इंजीनियर	-7228
पुरा	-7229
▁घूम	-7230
▁पड़ोस	-7231
▁तत्त्व	-7232
▁पोजीशन	-7233
▁निर्वाह	-7234
ID	-7235
▁राधा	-7236
▁विकि	-7237
▁जर्मनी	-7238
▁नवीकरण	-7239
▁मानवता	-7240
▁फ़ोल्डर	-7241
▁जुल	-7242
▁रिजर्व	-7243
▁सेक्शन	-7244
▁Ram	-7245
▁मरी	-7246
▁पार्श्व	-7247
▁भाष	-7248
▁पीठा	-7249
ेज़	-7250
▁Sec	-7251
▁स्ने	-7252
▁खंडों	-7253
▁यातना	-7254
▁रिमांड	-7255
▁फस	-7256
द्दी	-7257
▁भोग	-7258
▁काटने	-7259
▁बढ़ता	-7260
▁औषध	-7261
▁सतत	-7262
▁विजे	-7263
▁बिस्त	-7264
▁दूरस्थ	-7265
मंड	-7266
स्राव	-7267
▁जाएँ	-7268
▁बेहद	-7269
▁मिसाल	-7270
▁वकालत	-7271
▁सड़कों	-7272
▁पूर्णता	-7273
▁जबरन	-7274
▁बोतल	-7275
▁शिक्षित	-7276
वेल	-7277
▁ar	-7278
▁दौड़	-7279
▁बनना	-7280
▁फ्रांस	-7281
हो	-7282
▁आंखों	-7283
▁प्रोजे	-7284
▁परिपक्व	-7285
▁महाभारत	-7286
▁गर्व	-7287
▁दांत	-7288
रीश	-7289
▁दोनो	-7290
कलापों	-7291
▁इस्ती	-7292
▁सुलझा	-7293
▁कागजात	-7294
▁भावनाओं	-7295
▁गुम	-7296
▁मेघ	-7297
▁रोशनी	-7298
▁उत्पादक	-7299
ावर	-7300
▁खिल	-7301
▁साहू	-7302
▁प्रभार्य	-7303
▁बडी	-7304
▁एनडी	-7305
▁गर्मी	-7306
▁पवन	-7307
▁कहकर	-7308
▁उन्होने	-7309
▁किन्हीं	-7310
नक	-7311
▁VII	-7312
▁माय	-7313
▁लाह	-7314
▁उकसा	-7315
▁पैटर्न	-7316
▁उधारकर्ता	-7317
▁किरायेदारी	-7318
▁आएगा	-7319
▁पचास	-7320
▁सवालों	-7321
जीवी	-7322
▁अंब	-7323
िनेशन	-7324
▁गहरे	-7325
▁ग्रा	-7326
▁देनी	-7327
▁एकत्रित	-7328
▁सशस्त्र	-7329
▁इल	-7330
▁अभिलाभ	-7331
▁मिश्रण	-7332
▁अंग्रेज	-7333
▁धन्यवाद	-7334
wan	-7335
▁एल्	-7336
संरचना	-7337
▁स्क्र	-7338
▁दुर्गा	-7339
▁सम्बंध	-7340
▁रिकार्ड	-7341
ँग	-7342
ज़े	-7343
▁जमींद	-7344
▁महानिदेशक	-7345
▁चुनें	-7346
▁पालिसी	-7347
▁अभिनिर्	-7348
▁विज	-7349
▁राकेश	-7350
▁जवाहरलाल	-7351
▁पीड़ितों	-7352
▁काल्प	-7353
▁निभाई	-7354
▁मजदूर	-7355
AP	-7356
▁मुर	-7357
▁ईरान	-7358
▁भगवान्	-7359
▁उपयोगिता	-7360
▁काल्पनिक	-7361
▁निष्पक्षता	-7362
▁परिवर्तनों	-7363
CC	-7364
▁आयी	-7365
▁गेट	-7366
▁हाथी	-7367
मंद	-7368
ष्णा	-7369
▁याची	-7370
▁परिदृश्य	-7371
▁लेनदारों	-7372
▁शर	-7373
स्सी	-7374
▁हजारों	-7375
▁मिश्रित	-7376
▁समुदायों	-7377
▁चुनौतियों	-7378
तो	-7379
▁जायेगी	-7380
▁अजय	-7381
▁हसन	-7382
▁आपसे	-7383
▁कहाँ	-7384
▁ब्रह्	-7385
खाना	-7386
▁लिपि	-7387
▁संयम	-7388
▁सूजन	-7389
▁बेंगल	-7390
▁भारती	-7391
▁विच्छेद	-7392
▁तू	-7393
▁बं	-7394
▁१८	-7395
▁पुरुषों	-7396
▁यांत्रिक	-7397
▁at	-7398
▁गणेश	-7399
▁नोटों	-7400
▁फैक्ट	-7401
▁सार्थक	-7402
▁कौर	-7403
▁भरत	-7404
▁स्नात	-7405
चु	-7406
▁शक	-7407
्यूम	-7408
वाहाटी	-7409
्यवहार	-7410
▁सख्ती	-7411
▁स्वाय	-7412
▁वर्जित	-7413
▁बंदरगाह	-7414
राने	-7415
▁परेड	-7416
▁चौहान	-7417
▁सौहार्	-7418
▁कॉर	-7419
▁रोगों	-7420
▁शान्त	-7421
▁ज्यादातर	-7422
▁तर्कसंगत	-7423
ूण	-7424
▁बड़	-7425
▁एकदम	-7426
▁मंशा	-7427
▁मुगल	-7428
▁पुरूष	-7429
▁वाद्य	-7430
▁विवरणी	-7431
▁सत्यता	-7432
▁समझाने	-7433
▁दूरसंचार	-7434
▁ग्रामीणों	-7435
▁विद्वानों	-7436
श्रे	-7437
▁एजी	-7438
▁जरूरतों	-7439
▁गुवाहाटी	-7440
▁प्रतिरक्षा	-7441
ef	-7442
▁बेचा	-7443
▁समता	-7444
▁अधिवक्ताओं	-7445
▁कुलपति	-7446
▁पूर्णतः	-7447
▁एंटी	-7448
▁अविश्व	-7449
▁ऑपरेशन	-7450
▁पहुँचा	-7451
▁निवेशकों	-7452
▁निर्माताओं	-7453
▁प्रभावशाली	-7454
कन	-7455
प्स	-7456
्रीट	-7457
▁सम्भव	-7458
नस	-7459
▁इशारा	-7460
▁अज्ञान	-7461
▁अंतर्वि	-7462
▁गरि	-7463
व्यापी	-7464
▁आंकड़ों	-7465
▁इम	-7466
▁चक	-7467
▁टाटा	-7468
▁दिलचस्पी	-7469
▁पुनर्मूल	-7470
▁ब्रे	-7471
▁सौंपे	-7472
▁निष्ठा	-7473
▁मैट्रिक	-7474
▁वक्तव्य	-7475
▁संस्कार	-7476
▁जानवरों	-7477
▁निकालना	-7478
▁उपभोक्ताओं	-7479
बंद	-7480
ूरों	-7481
▁बंगल	-7482
▁अपराधियों	-7483
▁विशेषताओं	-7484
रिफ	-7485
मिया	-7486
▁तार्किक	-7487
एसई	-7488
▁झु	-7489
▁नु	-7490
क्की	-7491
छाड़	-7492
▁घाट	-7493
र्वेद	-7494
▁तालाब	-7495
▁उद्धरण	-7496
▁Go	-7497
▁पढ	-7498
कर्म	-7499
▁घुस	-7500
▁पेय	-7501
ायुक्त	-7502
िवर्तन	-7503
▁अवरोध	-7504
▁होल्डिंग	-7505
र्ध	-7506
▁Bha	-7507
▁अपन	-7508
▁बिग	-7509
▁महल	-7510
▁चुकता	-7511
▁शिल्प	-7512
द्रिक	-7513
▁बाधित	-7514
▁धारकों	-7515
▁नियोजन	-7516
▁कार्यान्वित	-7517
चाप	-7518
ढ़ा	-7519
▁निया	-7520
▁बढ़कर	-7521
▁परिचालन	-7522
▁बलि	-7523
ापरी	-7524
▁मणि	-7525
▁जुटा	-7526
▁लोकसभा	-7527
▁दुर्व्यवहार	-7528
▁अरुण	-7529
▁दार्	-7530
▁सामु	-7531
▁महाप्र	-7532
▁अदालतें	-7533
▁to	-7534
▁ओपी	-7535
ण्डिक	-7536
स्टीट	-7537
▁कॉरपो	-7538
▁जवाबी	-7539
▁निरूप	-7540
▁सुसज्जित	-7541
▁प्लास्टिक	-7542
कलाप	-7543
▁Rai	-7544
▁पीएम	-7545
▁कट्टर	-7546
▁तंबाकू	-7547
▁तुर्की	-7548
▁सौहार्द	-7549
न्ध	-7550
▁पिछड़े	-7551
▁बिस्तर	-7552
▁डाउनलोड	-7553
▁दोषसिद्धि	-7554
▁गह	-7555
▁घाटी	-7556
▁रैंक	-7557
▁लोहे	-7558
याव	-7559
▁CC	-7560
▁लल	-7561
▁एसडी	-7562
▁आश्रित	-7563
▁लड़कियों	-7564
जरी	-7565
▁गार्ड	-7566
▁गवर्नर	-7567
ast	-7568
▁ख्या	-7569
▁परिसी	-7570
▁शाखाओं	-7571
▁तम	-7572
▁विवश	-7573
▁डाक्टर	-7574
khand	-7575
▁गद्य	-7576
च्युटी	-7577
▁सोचते	-7578
▁विशुद्ध	-7579
▁पुनर्मूल्यांकन	-7580
▁समू	-7581
▁अस्थि	-7582
▁ऑडियो	-7583
▁सम्पर्क	-7584
मारक	-7585
▁आईओ	-7586
▁बेस	-7587
▁उपरा	-7588
▁कोमल	-7589
▁बंबई	-7590
▁गोविंद	-7591
पॉ	-7592
कक्ष	-7593
▁चमक	-7594
▁चौथे	-7595
वास्तव	-7596
▁टिकाऊ	-7597
▁उत्तीर्ण	-7598
DD	-7599
▁नाय	-7600
▁एमपी	-7601
▁फार्	-7602
▁प्रताप	-7603
▁बढ़ाकर	-7604
▁दुकानों	-7605
तें	-7606
ुगु	-7607
▁बुल	-7608
▁अक्षर	-7609
▁तृतीय	-7610
▁पर्यवेक्षण	-7611
पेट	-7612
▁Ka	-7613
▁गरिमा	-7614
▁मजदूरों	-7615
▁मार्केट	-7616
▁पट्टेदार	-7617
▁अविश्वसनीय	-7618
सेट	-7619
▁फौ	-7620
▁उदय	-7621
नेशनल	-7622
▁शल्य	-7623
▁सम्रा	-7624
▁सिन्हा	-7625
▁डिज़ाइन	-7626
▁उत्पत्ति	-7627
▁बोलीदाता	-7628
▁प्रणालियों	-7629
ावी	-7630
▁सती	-7631
▁सिम	-7632
▁पढ़ना	-7633
▁दिलचस्प	-7634
▁अंग्रेजों	-7635
शित	-7636
ख्यान	-7637
▁ग्या	-7638
▁चंडी	-7639
▁छिपा	-7640
▁एग्जाम	-7641
▁मुख्यालय	-7642
डो	-7643
▁कम्	-7644
▁भाइयों	-7645
▁प्रवर्त	-7646
▁क्रांतिक	-7647
▁प्रतिबद्धता	-7648
▁चूँ	-7649
▁पड़ने	-7650
▁श्रीवास्तव	-7651
agar	-7652
▁एटी	-7653
▁अमृत	-7654
▁दार्शन	-7655
▁गांधीजी	-7656
▁प्रतिफल	-7657
▁ग्रेच्युटी	-7658
▁मुख्यमंत्री	-7659
▁IO	-7660
ोर्ट	-7661
▁अफग	-7662
▁चौक	-7663
▁गड़ब	-7664
▁अनुया	-7665
▁कीटों	-7666
▁प्रतिरोध	-7667
जिन	-7668
ैण्ड	-7669
▁घाय	-7670
▁मील	-7671
▁मुना	-7672
▁शासक	-7673
▁ड्राफ्ट	-7674
▁संरक्षक	-7675
ियोग्राफी	-7676
▁उपक्रमों	-7677
▁रिश्तेदारों	-7678
▁अभिनिर्धारित	-7679
डन	-7680
लाइ	-7681
▁अहि	-7682
▁वाइ	-7683
द्वीप	-7684
▁जबरद	-7685
▁निराशा	-7686
▁अवसंरचना	-7687
▁ST	-7688
वाना	-7689
▁मारे	-7690
▁विनिया	-7691
▁मध	-7692
▁उच्	-7693
▁निका	-7694
▁संगत	-7695
▁विपक्ष	-7696
▁पीठासीन	-7697
▁स्त्रियों	-7698
▁अच	-7699
▁रिवा	-7700
▁कराधान	-7701
▁योजनाएं	-7702
▁छाती	-7703
▁जीवों	-7704
▁निरपेक्ष	-7705
रेन	-7706
यंती	-7707
▁कन्व	-7708
▁कुटु	-7709
▁चलाई	-7710
▁तीर्थ	-7711
▁Prakhand	-7712
▁प्रतिपूर्ति	-7713
राई	-7714
▁प्रॉ	-7715
▁फसलों	-7716
▁मांगा	-7717
▁वैदिक	-7718
▁शुरूआ	-7719
▁सभापति	-7720
▁विसंगति	-7721
▁दुर्भावना	-7722
▁परिधि	-7723
▁सम्मन	-7724
▁घायलों	-7725
▁कारखाने	-7726
▁सेंट्रल	-7727
▁परिसमापक	-7728
▁अप्रासंगिक	-7729
िद	-7730
▁Ra	-7731
▁मेज	-7732
▁महतो	-7733
▁वादा	-7734
▁सीएस	-7735
▁फ्रेम	-7736
▁गुजरने	-7737
▁स्वाधीन	-7738
▁पारदर्शिता	-7739
▁वैज्ञानिकों	-7740
मुच	-7741
वेश	-7742
ांप	-7743
▁गुट	-7744
▁टैंक	-7745
▁हाइड	-7746
▁गर्भा	-7747
▁दार्शनिक	-7748
▁अपेक्षाकृत	-7749
▁घन	-7750
म्बी	-7751
▁पद्	-7752
▁रूस	-7753
▁गौतम	-7754
▁दिनेश	-7755
▁सम्बन्धित	-7756
ED	-7757
लीन	-7758
▁MP	-7759
▁अमल	-7760
▁सरो	-7761
▁माइक्रो	-7762
▁सचिवालय	-7763
▁नामांकित	-7764
▁विचारधारा	-7765
प्न	-7766
▁अम्	-7767
▁अरो	-7768
्रमिक	-7769
▁स्तन	-7770
▁लेखकों	-7771
▁An	-7772
प्ले	-7773
▁अहं	-7774
▁भाष्	-7775
▁लगाकर	-7776
▁माध्यस्थम्	-7777
▁एह	-7778
▁आँख	-7779
▁वॉल	-7780
▁निराश	-7781
▁सहभाग	-7782
राग	-7783
▁चिर	-7784
▁गिराव	-7785
▁चूँकि	-7786
▁फर्जी	-7787
▁अवार्ड	-7788
▁स्वायत्त	-7789
ंगों	-7790
पोषण	-7791
षिद्ध	-7792
▁पाये	-7793
यक्तिक	-7794
▁पहचाना	-7795
▁विवेकाधीन	-7796
▁आखिरकार	-7797
▁रिज़र्व	-7798
▁प्रासंगिकता	-7799
फ्र	-7800
वीय	-7801
▁मठ	-7802
वर्ष	-7803
▁पुल	-7804
▁बडे	-7805
▁अश्व	-7806
▁व्यथित	-7807
▁राष्ट्रों	-7808
▁शेयरधारकों	-7809
JC	-7810
ड़ना	-7811
▁ऊतक	-7812
धिकारी	-7813
▁वेंकट	-7814
▁मित्रों	-7815
▁व्याख्याता	-7816
▁व्युत्पन्न	-7817
▁अंडर	-7818
▁अद्व	-7819
▁पीटा	-7820
▁वन्य	-7821
▁उद्यमों	-7822
▁उपाध्यक्ष	-7823
▁AG	-7824
▁CH	-7825
ल्लू	-7826
▁मैच	-7827
▁आर्य	-7828
▁खदान	-7829
▁झूठी	-7830
▁लिखना	-7831
▁सामान्यतया	-7832
ंजस्य	-7833
▁कार्बन	-7834
▁कुशलता	-7835
▁लाभांश	-7836
▁एजु	-7837
▁जगदी	-7838
▁ध्वज	-7839
▁लौटने	-7840
जारी	-7841
रणीय	-7842
क्रामक	-7843
▁चौड़ाई	-7844
▁राजकुमार	-7845
ओएस	-7846
शाही	-7847
▁हमे	-7848
▁पारिश	-7849
▁सच्चे	-7850
▁गिरावट	-7851
▁टाइम्स	-7852
▁लाभकारी	-7853
मोट	-7854
▁कॉलम	-7855
▁प्लॉट	-7856
▁डिजिटल	-7857
▁अग्रेषित	-7858
▁वाम	-7859
दर्शक	-7860
ारायण	-7861
▁आईडी	-7862
▁घृणा	-7863
▁गर्भपात	-7864
CT	-7865
िडे	-7866
▁क्ले	-7867
▁आपत्तियां	-7868
ावन	-7869
ापित	-7870
▁आजीव	-7871
▁एसआर	-7872
▁आभूषण	-7873
▁आस्था	-7874
▁ज़मीन	-7875
▁टुकड़ा	-7876
▁दिखाता	-7877
▁संबद्धता	-7878
▁संस्थागत	-7879
▁एग्जामिनेशन	-7880
नान	-7881
▁कमांड	-7882
▁आकांक्षा	-7883
▁आस्तियों	-7884
▁शास्त्री	-7885
ितु	-7886
▁झि	-7887
▁वेश	-7888
▁विधा	-7889
▁पढ़ाई	-7890
▁श्याम	-7891
▁अपशिष्ट	-7892
▁प्रोटोक	-7893
▁छेड़छाड़	-7894
▁सांविधिक	-7895
ॉरिटी	-7896
▁किरण	-7897
▁ओपन	-7898
▁मूर्	-7899
▁लड़ा	-7900
▁सारणी	-7901
▁बैठकों	-7902
▁लक्ष्यों	-7903
ma	-7904
जाल	-7905
टिक	-7906
मेय	-7907
▁असी	-7908
▁पहने	-7909
▁बंदी	-7910
▁चाहूंगा	-7911
▁लाभार्थी	-7912
ंचल	-7913
ूनों	-7914
▁बुध	-7915
▁ब्लैक	-7916
▁सूचनाओं	-7917
जान	-7918
▁Sh	-7919
▁बृ	-7920
▁कृति	-7921
▁देखो	-7922
▁पाइप	-7923
▁अर्जन	-7924
▁अलगाव	-7925
▁इस्पात	-7926
ँस	-7927
▁खबर	-7928
▁गोर	-7929
▁जयंती	-7930
▁मुफ्त	-7931
▁विघटन	-7932
▁मुकाबले	-7933
▁समकालीन	-7934
▁विनियामक	-7935
सरा	-7936
▁DI	-7937
मुखी	-7938
▁सफाई	-7939
▁सिने	-7940
▁टेंडर	-7941
▁मिलना	-7942
▁संवेद	-7943
▁ससुराल	-7944
▁पारिश्रमिक	-7945
▁लीग	-7946
▁गिना	-7947
▁दायरा	-7948
▁प्रभु	-7949
▁सचमुच	-7950
▁वाक्या	-7951
▁दाण्डिक	-7952
चिक	-7953
▁उठाते	-7954
▁नदियों	-7955
▁परिकल्पित	-7956
▁संवेदनशील	-7957
ख्	-7958
कारा	-7959
▁तत्पर	-7960
▁दिखाते	-7961
▁निपटाने	-7962
▁सामंजस्य	-7963
war	-7964
पूरक	-7965
▁जीओ	-7966
▁हॉल	-7967
▁जगदीश	-7968
▁बढ़ाना	-7969
▁टर्मिनल	-7970
▁ताज	-7971
श्रेष्ठ	-7972
▁अनुप्रयोगों	-7973
▁कैल	-7974
▁छोड	-7975
▁पढ़ता	-7976
▁Raipur	-7977
प्टी	-7978
रियर	-7979
▁गले	-7980
▁घुट	-7981
▁चरस	-7982
▁बसव	-7983
▁किंग	-7984
▁सूरत	-7985
▁जानना	-7986
▁विनिधान	-7987
▁विन्यास	-7988
▁निवासियों	-7989
OM	-7990
▁अथॉरिटी	-7991
▁दिसम्बर	-7992
▁मौद्रिक	-7993
▁छुपा	-7994
▁सहेज	-7995
▁पक्षी	-7996
▁संकलन	-7997
▁नरेंद्र	-7998
एटी	-7999
▁माँग	-8000
▁पार्सल	-8001
▁अत्याचार	-8002
ूद	-8003
ोनें	-8004
▁मक्	-8005
▁सुद	-8006
ोरिया	-8007
▁बढ़ी	-8008
▁गिनती	-8009
▁जाएंगी	-8010
▁पुस्तकाल	-8011
▁ठहर	-8012
प्राय	-8013
▁अंडे	-8014
▁कालेज	-8015
▁ब्राउ	-8016
▁हल्के	-8017
▁अपरिवर्त	-8018
एमई	-8019
बेस	-8020
▁ऊँ	-8021
ाराम	-8022
▁ढेर	-8023
▁वैसा	-8024
▁उच्चार	-8025
▁जायेंगे	-8026
▁कठिनाइयों	-8027
est	-8028
▁टॉ	-8029
ार्इ	-8030
▁परत	-8031
सूत्र	-8032
▁मादा	-8033
▁सौंद	-8034
▁ज़रूर	-8035
▁निकलता	-8036
▁परामर्शदाता	-8037
रीब	-8038
▁तप	-8039
▁पन	-8040
पर्य	-8041
▁इंट	-8042
▁उलट	-8043
▁डिली	-8044
▁सूरज	-8045
▁तुच्छ	-8046
▁सृजित	-8047
▁वनस्पति	-8048
AS	-8049
▁घों	-8050
▁नर्म	-8051
▁मानस	-8052
▁हुईं	-8053
▁पंजाबी	-8054
नीत	-8055
बरा	-8056
न्ने	-8057
▁आईं	-8058
▁ग्व	-8059
क्तता	-8060
▁ईमेल	-8061
▁गोरा	-8062
▁सकने	-8063
▁इंदिरा	-8064
▁नवम्बर	-8065
▁आजीविका	-8066
▁खर	-8067
शिंग	-8068
▁पाग	-8069
▁आजाद	-8070
▁क्रय	-8071
▁डीआर	-8072
▁वैष्ण	-8073
▁श्वेत	-8074
▁नॉ	-8075
▁ओडि	-8076
▁कोर	-8077
▁गंध	-8078
▁मित	-8079
▁टीका	-8080
▁अपूर्ण	-8081
▁सीमेंट	-8082
▁कंट्रोल	-8083
▁मुख्यतः	-8084
▁एक्सप्रेस	-8085
ुरी	-8086
▁MD	-8087
▁निबंध	-8088
▁अभिभाव	-8089
▁स्पर्श	-8090
▁आश्वस्त	-8091
▁मांसपेश	-8092
▁संकल्पना	-8093
▁वीडियोग्राफी	-8094
BI	-8095
तृक	-8096
▁मदन	-8097
▁चट्ट	-8098
▁लेगा	-8099
▁शुरूआत	-8100
▁वाक्यांश	-8101
टरी	-8102
▁कनाडा	-8103
▁जिसको	-8104
▁स्नेह	-8105
▁यूजीसी	-8106
▁ट्रस्टी	-8107
पार	-8108
▁रन	-8109
▁नस्ल	-8110
▁अनुदेश	-8111
▁कोण	-8112
▁कार्यकर्ता	-8113
कोष	-8114
ेडकर	-8115
हीनता	-8116
▁वृत्त	-8117
▁एससीआर	-8118
▁दंत	-8119
▁बाबा	-8120
▁आबंटन	-8121
▁रामायण	-8122
▁सम्पाद	-8123
▁आयुर्वेद	-8124
▁बेची	-8125
▁मनोज	-8126
▁ग्यारह	-8127
▁दृढ़ता	-8128
▁निरर्थ	-8129
▁स्टांप	-8130
▁बल्लेबाज	-8131
ff	-8132
वाँ	-8133
स्तु	-8134
▁टेप	-8135
▁मैन	-8136
▁कोने	-8137
▁ग्रीन	-8138
▁एस्टेट	-8139
▁ध्वस्त	-8140
▁प्रक्रम	-8141
▁बाध्यता	-8142
▁पुस्तकें	-8143
स्म	-8144
गांठ	-8145
तन्त्र	-8146
▁अर्जुन	-8147
गरी	-8148
▁SL	-8149
▁संको	-8150
▁हर्ष	-8151
▁निकला	-8152
▁प्रमो	-8153
▁विकासशील	-8154
▁भागीदारों	-8155
▁संविदात्मक	-8156
क़्	-8157
▁नल	-8158
त्रि	-8159
▁गला	-8160
▁पान	-8161
▁शेर	-8162
क़्ति	-8163
▁माहौल	-8164
▁रिपोर्टों	-8165
ock	-8166
sad	-8167
ंटा	-8168
मूल्य	-8169
▁थाना	-8170
▁इंस्टीट	-8171
▁संतुलित	-8172
▁Resident	-8173
▁अधिनियमन	-8174
▁जागरूकता	-8175
▁प्रतियों	-8176
▁सर्वश्रेष्ठ	-8177
▁मोदी	-8178
▁बढ़ना	-8179
▁आकर्षक	-8180
▁चित्रित	-8181
▁देवताओं	-8182
शुदा	-8183
▁सास	-8184
▁सैक	-8185
▁लिखते	-8186
▁वारिस	-8187
▁संयोग	-8188
▁रूपांतरण	-8189
▁प्रतिस्थापन	-8190
ath	-8191
्ति	-8192
▁पठन	-8193
▁अनन्त	-8194
▁जानती	-8195
▁दुर्ग	-8196
▁प्रां	-8197
▁असु	-8198
▁बिर	-8199
▁कुरान	-8200
▁प्रभा	-8201
▁लिप्त	-8202
▁पर्यावरणीय	-8203
▁पाउ	-8204
▁बिन	-8205
▁नरेश	-8206
▁बाढ़	-8207
▁पैतृक	-8208
▁अभिन्न	-8209
ानिस्तान	-8210
▁संग्रहालय	-8211
▁सहयोगियों	-8212
▁फू	-8213
▁Exs	-8214
▁बटन	-8215
▁कन्न	-8216
▁कबीर	-8217
▁थोड़े	-8218
▁अकादमी	-8219
▁वांछित	-8220
▁न्यायशास्त्र	-8221
ht	-8222
▁कृपा	-8223
कोत्तर	-8224
▁निकले	-8225
▁अभ्याव	-8226
▁कृष्णा	-8227
▁क्लर्क	-8228
▁यथोचित	-8229
▁आगामी	-8230
▁स्पॉट	-8231
▁प्राइमा	-8232
▁पारदर्शी	-8233
ee	-8234
१९	-8235
मास	-8236
▁अपनाए	-8237
▁असाइन	-8238
▁प्रचालन	-8239
▁समस्याएं	-8240
▁सामुदायिक	-8241
वर्	-8242
▁छीन	-8243
▁श्रो	-8244
▁दीप	-8245
▁फ़ॉ	-8246
▁अनुकरण	-8247
▁दिखाना	-8248
▁तारीखों	-8249
▁रूपरेखा	-8250
▁विदेशों	-8251
▁सिफारिशें	-8252
▁हिस्सेदारी	-8253
ga	-8254
दाई	-8255
▁ढल	-8256
▁असल	-8257
▁इंटरनेशनल	-8258
▁आशी	-8259
▁हनु	-8260
▁कराए	-8261
▁संग्रहण	-8262
▁पूर्वगामी	-8263
▁आत्मविश्वास	-8264
प्प	-8265
▁फेफ	-8266
न्नाथ	-8267
▁एसएच	-8268
▁जलने	-8269
▁सिंगा	-8270
▁प्रोटीन	-8271
▁उत्कृष्टता	-8272
िवि	-8273
▁Bl	-8274
शंकर	-8275
▁मजबू	-8276
▁पुष्प	-8277
▁मूर्त	-8278
▁लम्बे	-8279
्रेताओं	-8280
▁डिप्टी	-8281
▁पकड़ने	-8282
▁सुन्दर	-8283
बिल	-8284
बीसी	-8285
▁संब	-8286
ांडिक	-8287
▁पुरी	-8288
▁सन्न	-8289
▁अनुमत	-8290
▁प्राणी	-8291
▁सैनिकों	-8292
काना	-8293
▁बेट	-8294
▁ट्रक	-8295
▁आश्रय	-8296
▁भरोसे	-8297
▁अभिकरण	-8298
▁उत्सुक	-8299
▁उन्नयन	-8300
▁सांप्र	-8301
PS	-8302
टीय	-8303
दूत	-8304
▁वध	-8305
▁चिन	-8306
▁पाना	-8307
▁दर्जा	-8308
▁ड्राइविंग	-8309
ow	-8310
ुड	-8311
ैस	-8312
ंडे	-8313
ोग्राफ	-8314
▁धब्बे	-8315
▁पैरों	-8316
▁जटिलता	-8317
वैज्ञानिक	-8318
▁स्नातकोत्तर	-8319
▁राज्यक्षेत्र	-8320
विट	-8321
ष्म	-8322
▁ऋणों	-8323
▁एसएस	-8324
▁नकार	-8325
na	-8326
पड़ी	-8327
▁बचे	-8328
▁यान	-8329
▁बेगम	-8330
▁व्यास	-8331
▁वांछनीय	-8332
वृ	-8333
विड	-8334
▁पागल	-8335
▁सीपी	-8336
चन्द्र	-8337
▁अर्थों	-8338
▁पराजित	-8339
▁सौंदर्य	-8340
▁नवीनीकरण	-8341
▁प्रतिनियुक्ति	-8342
घन	-8343
माला	-8344
▁निकासी	-8345
▁चुनावों	-8346
न्नी	-8347
▁तंग	-8348
▁घटित	-8349
नाइटेड	-8350
▁संप्रदाय	-8351
▁वाक	-8352
▁पुणे	-8353
▁एक्स्ट	-8354
▁विडियो	-8355
▁संगणना	-8356
▁पठ	-8357
▁देखरेख	-8358
▁प्रशंस	-8359
▁प्रामा	-8360
▁किरायेदारों	-8361
थाम	-8362
थिल	-8363
▁केबल	-8364
▁मेहन	-8365
▁स्पे	-8366
▁तेलंग	-8367
▁लाखों	-8368
▁संचित	-8369
▁इन्द्र	-8370
▁नवीनतम	-8371
▁तुम्हारी	-8372
याल	-8373
▁Ma	-8374
▁ऊंची	-8375
▁फायर	-8376
ियुक्त	-8377
▁संगणक	-8378
▁जगन्नाथ	-8379
▁वैयक्तिक	-8380
EL	-8381
▁वॉ	-8382
भाषण	-8383
सायी	-8384
्षेप	-8385
शुल्क	-8386
▁लेखापरी	-8387
▁संग्राम	-8388
रियल	-8389
▁हंस	-8390
▁दवाओं	-8391
▁धाराओं	-8392
▁भ्रामक	-8393
▁नियमावली	-8394
▁परंपरागत	-8395
ंगन	-8396
▁सज	-8397
▁भीम	-8398
▁सितम्बर	-8399
▁वसीयतकर्ता	-8400
▁शांतिपूर्ण	-8401
हाल	-8402
▁मज़	-8403
▁साई	-8404
▁अखंड	-8405
▁नियमन	-8406
▁कीटनाशक	-8407
▁डिलीवरी	-8408
प्ली	-8409
ष्टा	-8410
▁माद	-8411
▁लोप	-8412
▁ठहराए	-8413
▁Prasad	-8414
▁अन्तिम	-8415
▁उन्नति	-8416
▁कानपुर	-8417
▁उत्तेजित	-8418
ुरा	-8419
शब्द	-8420
र्निंग	-8421
र्थियों	-8422
▁समकक्ष	-8423
▁भिन्नता	-8424
▁सांप्रदायिक	-8425
▁चट	-8426
▁सिख	-8427
▁तालुका	-8428
▁दांडिक	-8429
▁नियामक	-8430
▁पहुँचे	-8431
▁घोषणाओं	-8432
किट	-8433
म्य	-8434
▁भै	-8435
▁पदा	-8436
▁विट	-8437
▁इसको	-8438
▁बेकार	-8439
▁कंपनियां	-8440
▁कॉपीराइट	-8441
▁पोल	-8442
▁आपदा	-8443
▁ध्रु	-8444
जेक्शन	-8445
▁रोगियों	-8446
ाग्र	-8447
▁हरा	-8448
▁क़्यों	-8449
▁सिंगापुर	-8450
▁रक्तस्राव	-8451
▁सार्वभौमिक	-8452
ेग	-8453
▁आदर	-8454
▁इंच	-8455
▁छेद	-8456
▁करों	-8457
▁संवर्ग	-8458
▁फ्रैक्चर	-8459
▁अभ्यावेदन	-8460
▁सुविधाजनक	-8461
▁आल	-8462
▁मेहता	-8463
▁उदासीन	-8464
▁उपग्रह	-8465
▁पालिका	-8466
▁बेंगलुरु	-8467
▁इंजीनियरी	-8468
ावि	-8469
▁भि	-8470
न्तर	-8471
पमेंट	-8472
▁आगमन	-8473
▁डाली	-8474
▁दीपक	-8475
▁ओडिशा	-8476
▁कवियों	-8477
▁कोयले	-8478
▁संकोच	-8479
▁असफलता	-8480
▁स्वप्न	-8481
▁अधिवेशन	-8482
▁शिकायतें	-8483
▁इंडस्ट्री	-8484
वाड़	-8485
▁वरन्	-8486
▁भागने	-8487
▁अकादमिक	-8488
गीर	-8489
लैंड	-8490
▁ह्र	-8491
▁असुर	-8492
▁वासी	-8493
▁कनिष्ठ	-8494
्रेटर	-8495
▁आगरा	-8496
▁कामों	-8497
▁विचलन	-8498
▁रचनाओं	-8499
MC	-8500
१क	-8501
▁u	-8502
डीएस	-8503
र्टी	-8504
▁राइ	-8505
▁विड	-8506
▁समाह	-8507
▁रवाना	-8508
▁चंडीगढ़	-8509
▁तस्वीरें	-8510
किम	-8511
▁बक	-8512
्वरी	-8513
▁रोल	-8514
▁जंगली	-8515
▁अंतरित	-8516
रीन	-8517
बंधक	-8518
▁ऊंचे	-8519
▁जिक्र	-8520
▁राशियों	-8521
▁तेलंगाना	-8522
एक	-8523
दह	-8524
▁आदत	-8525
▁वाई	-8526
▁उच्चारण	-8527
▁फोरेंसिक	-8528
वट	-8529
▁बसे	-8530
▁पांड	-8531
▁जैविक	-8532
▁शुक्ला	-8533
▁उत्पादकता	-8534
▁आइए	-8535
▁एने	-8536
▁दबाया	-8537
▁अर्हता	-8538
▁चिल्ला	-8539
▁सम्राट	-8540
▁क्रियान्वयन	-8541
ुरत	-8542
यालय	-8543
▁गेह	-8544
▁नमक	-8545
▁शिम	-8546
▁सैय	-8547
चार्ज	-8548
▁अकेला	-8549
▁फांसी	-8550
▁यहूदी	-8551
▁ब्रांड	-8552
▁हड़ताल	-8553
▁कम्प्यूटर	-8554
▁विवेकपूर्ण	-8555
मिंग	-8556
▁बडा	-8557
▁सिरों	-8558
ँव	-8559
रहित	-8560
▁रेत	-8561
स्तीन	-8562
▁आकृति	-8563
▁तालिका	-8564
▁मुहम्मद	-8565
▁प्रतिवर्ष	-8566
▁मंत्रियों	-8567
द्धार	-8568
▁बहुल	-8569
▁मण्ड	-8570
▁प्राप	-8571
▁बिलों	-8572
▁रोकथाम	-8573
▁अनुज्ञा	-8574
▁विचित्र	-8575
▁पूर्णतया	-8576
▁पुनर्निर्	-8577
▁प्रतिबिंबित	-8578
ज़न	-8579
ूँगा	-8580
▁नाव	-8581
लियों	-8582
▁मोती	-8583
▁रहीं	-8584
▁सवार	-8585
▁अव्यव	-8586
▁कर्ता	-8587
▁संघीय	-8588
पटल	-8589
▁बीत	-8590
▁अनंत	-8591
▁जीआर	-8592
▁ढूंढ	-8593
▁रसोई	-8594
▁रखेगा	-8595
क्तियों	-8596
▁कीमतों	-8597
▁सुधारों	-8598
▁प्रामाणिक	-8599
▁प्राधिकारियों	-8600
ुर्द	-8601
▁कबूल	-8602
▁कैदी	-8603
▁हटाए	-8604
▁लगाता	-8605
▁दिखाएँ	-8606
▁निवारक	-8607
▁घड़ी	-8608
▁जस्ट	-8609
▁अवलंब	-8610
▁सिंगल	-8611
लोनी	-8612
▁नाब	-8613
▁आवाज़	-8614
▁कपड़ा	-8615
▁स्वाद	-8616
TC	-8617
सीएल	-8618
▁रेट	-8619
▁गिरा	-8620
स्तीनी	-8621
▁अभिनय	-8622
▁अरोड़ा	-8623
▁इलाकों	-8624
▁कलाकार	-8625
▁निषिद्ध	-8626
रिस	-8627
देशी	-8628
▁बर्फ	-8629
▁अपितु	-8630
▁अनिवासी	-8631
▁निरर्थक	-8632
▁शुरुआती	-8633
▁समावेशी	-8634
▁गे	-8635
▁नोक	-8636
▁श्रेय	-8637
IM	-8638
▁तुमने	-8639
▁सावधान	-8640
▁कविताओं	-8641
खार	-8642
गोश	-8643
ायती	-8644
ुग्ध	-8645
▁आधी	-8646
▁जोशी	-8647
▁स्टार	-8648
मेह	-8649
▁PR	-8650
नीतिक	-8651
▁सबके	-8652
▁करीबी	-8653
▁दरबार	-8654
▁प्रेषण	-8655
ियस	-8656
▁MC	-8657
▁छान	-8658
▁माध	-8659
▁पिस्त	-8660
▁वृत्ति	-8661
पद	-8662
टिंग	-8663
▁असंव	-8664
▁आघात	-8665
▁एण्ड	-8666
▁आश्रम	-8667
▁सोचने	-8668
▁आकर्षण	-8669
▁दंडात्मक	-8670
▁विशेषज्ञता	-8671
▁श्ल	-8672
▁कर्ज	-8673
▁मैसूर	-8674
▁आदिवासी	-8675
▁सम्पन्न	-8676
▁महाविद्यालय	-8677
ap	-8678
खण्ड	-8679
▁जन्	-8680
▁चलती	-8681
▁मांगे	-8682
▁आनुवंश	-8683
▁परिशिष्ट	-8684
▁प्रसारित	-8685
▁क्रांतिकारी	-8686
आउट	-8687
विन	-8688
▁ढाल	-8689
▁देह	-8690
लिस्ट	-8691
▁एपीपी	-8692
▁अवशोषण	-8693
▁विनम्र	-8694
▁विधियां	-8695
▁अंग्रेज़ी	-8696
▁चित	-8697
▁लाहौर	-8698
▁वयस्क	-8699
▁पत्राचार	-8700
ंडर	-8701
लाश	-8702
▁थै	-8703
▁नास	-8704
▁आचार	-8705
▁परित	-8706
▁मापने	-8707
▁अभिभाषण	-8708
▁उल्लेखित	-8709
▁न्यायोचित	-8710
▁अफ़	-8711
▁भगत	-8712
▁दलीलें	-8713
▁पेड़ों	-8714
▁गणतंत्र	-8715
▁महेंद्र	-8716
▁अनुबंधों	-8717
▁उन्होनें	-8718
▁सांख्यिकी	-8719
▁स्वाधीनता	-8720
ब्ध	-8721
रोल	-8722
▁सादे	-8723
▁आखिरी	-8724
▁स्थूल	-8725
▁मिथ्या	-8726
▁सीआईटी	-8727
प्रति	-8728
▁अभिव	-8729
▁देहा	-8730
▁महाक	-8731
▁उत्सव	-8732
▁फायदे	-8733
▁ड्रग्स	-8734
▁उदाहरणों	-8735
▁तात्पर्य	-8736
▁अधिनिर्णय	-8737
▁प्रोजेक्ट	-8738
▁यों	-8739
▁जानवर	-8740
▁सदनों	-8741
▁इन्हीं	-8742
▁गुजरना	-8743
▁व्याख्यान	-8744
▁मण	-8745
▁डंप	-8746
▁पंख	-8747
▁गोवा	-8748
▁तेज़	-8749
▁बोला	-8750
▁मंडप	-8751
▁आमदनी	-8752
▁खटखटाया	-8753
▁नाबार्ड	-8754
झी	-8755
▁घू	-8756
रानी	-8757
▁छोर	-8758
▁आवरण	-8759
▁शॉर्ट	-8760
नम	-8761
ंशी	-8762
श्र	-8763
िणी	-8764
ोलॉजी	-8765
▁डिस्ट	-8766
▁बलराम	-8767
▁रूपये	-8768
▁कनेक्ट	-8769
▁फिलीस्तीनी	-8770
▁स्टै	-8771
▁प्रकरण	-8772
▁पिस्तौल	-8773
▁अयोग्यता	-8774
▁पुस्तकालय	-8775
राइड	-8776
ुक़्त	-8777
▁अधिश	-8778
▁उपनि	-8779
▁एग्री	-8780
▁चुनने	-8781
▁रांची	-8782
▁साइकिल	-8783
▁तस्वीरों	-8784
▁आश्चर्यजनक	-8785
▁विक्रेताओं	-8786
रोधी	-8787
लेखन	-8788
▁आरआई	-8789
▁Block	-8790
▁किस्त	-8791
▁संदत्त	-8792
▁समामेलन	-8793
▁स्वच्छता	-8794
▁विशेषताएं	-8795
झे	-8796
▁ः	-8797
ect	-8798
▁गठ	-8799
▁शाल	-8800
▁चौकी	-8801
▁यहीं	-8802
▁स्पी	-8803
▁उत्तरा	-8804
▁अक्षमता	-8805
▁अल्ट	-8806
▁लेवी	-8807
▁सीएम	-8808
▁बेदखल	-8809
▁यूनाइटेड	-8810
▁RP	-8811
ड़की	-8812
▁जॉन	-8813
▁पोष	-8814
▁बाइ	-8815
▁वसा	-8816
▁नकली	-8817
टीए	-8818
ायन	-8819
कार्	-8820
ृश्य	-8821
▁शर्म	-8822
▁उपदेश	-8823
▁असंतोष	-8824
▁मंत्रिम	-8825
▁आर्बिट्रेटर	-8826
ch	-8827
लेस	-8828
▁बत	-8829
▁घुम	-8830
▁औषधि	-8831
▁खरीदे	-8832
▁डॉक्टरों	-8833
▁हिन्दुस्तान	-8834
ेत	-8835
ani	-8836
राक	-8837
▁रथ	-8838
आईएल	-8839
तिया	-8840
बर्ट	-8841
न्त्र	-8842
▁कब्ज़ा	-8843
▁समाहित	-8844
▁सद्भावना	-8845
रोग	-8846
बाबू	-8847
र्फ़	-8848
ामिन	-8849
▁उगा	-8850
▁बढा	-8851
▁एशियाई	-8852
▁रणनीति	-8853
▁इस्तीफा	-8854
एफसी	-8855
टकों	-8856
लिटन	-8857
▁माफ	-8858
स्कृत	-8859
▁झटका	-8860
▁भिन्	-8861
▁स्या	-8862
▁कारगर	-8863
▁स्टोर	-8864
▁आचार्य	-8865
कना	-8866
पुरम	-8867
हानि	-8868
▁IANo	-8869
▁शर्ट	-8870
▁अविभा	-8871
▁कराता	-8872
▁नवान्वेष	-8873
▁बहिष्कार	-8874
ओसी	-8875
ृंग	-8876
▁VI	-8877
▁लड	-8878
▁गोला	-8879
▁फ्री	-8880
▁लोगो	-8881
▁उत्पा	-8882
▁प्लांट	-8883
▁अध्यापक	-8884
▁उपनिवेश	-8885
▁नियुक्तियां	-8886
▁परिस्थितियाँ	-8887
em	-8888
ॉड	-8889
und	-8890
ोदय	-8891
▁चो	-8892
रण्य	-8893
▁तुलसी	-8894
▁बैठने	-8895
▁टेलीवि	-8896
▁दर्शाती	-8897
▁पक्षियों	-8898
▁प्रक्षेप	-8899
▁विरोधाभासी	-8900
▁डीए	-8901
▁क्री	-8902
▁फरार	-8903
▁बचपन	-8904
▁स्कोर	-8905
व्यवहार	-8906
▁दोबारा	-8907
▁विवाहित	-8908
▁व्याकरण	-8909
▁लोकायुक्त	-8910
▁प्रतिभूतियों	-8911
चेरी	-8912
▁संभ	-8913
▁तिलक	-8914
▁फर्क	-8915
▁मराठी	-8916
▁नमूनों	-8917
▁जनजातियों	-8918
▁नाज	-8919
्रेषण	-8920
▁द्रव	-8921
▁मनुष	-8922
▁हिला	-8923
▁देखिए	-8924
▁प्रवी	-8925
▁भरपूर	-8926
▁मूत्र	-8927
all	-8928
ग्रा	-8929
▁कारत	-8930
▁महास	-8931
िडेविट	-8932
▁ग्वाल	-8933
▁पूंजीगत	-8934
▁परिसमापन	-8935
ुम	-8936
▁अरबी	-8937
▁आजकल	-8938
्रिक्स	-8939
▁उठाकर	-8940
▁लड़का	-8941
▁शिष्ट	-8942
▁साथियों	-8943
गें	-8944
▁Ba	-8945
िवेदी	-8946
▁कंधे	-8947
▁सौदे	-8948
▁उन्हे	-8949
▁सर्वप्र	-8950
▁प्रयोक्ता	-8951
▁मध्यस्थों	-8952
ाणु	-8953
र्सी	-8954
▁कों	-8955
▁बाब	-8956
नेश्वर	-8957
▁फाउंड	-8958
▁श्रद्धा	-8959
▁एफिडेविट	-8960
न्दा	-8961
▁आन्द	-8962
▁डालर	-8963
▁दिल्	-8964
▁घंटों	-8965
▁पकड़ा	-8966
▁लम्बी	-8967
▁निधियों	-8968
▁उत्सर्जन	-8969
ॉग	-8970
ण्य	-8971
▁कैम	-8972
▁अमान	-8973
▁एमएम	-8974
▁नजदी	-8975
क्साइड	-8976
▁अंगूठे	-8977
▁मापदंडों	-8978
▁प्रस्तावना	-8979
▁मार्गदर्शक	-8980
▁उठे	-8981
▁रतन	-8982
ल्लाह	-8983
▁कृषक	-8984
▁बंधन	-8985
▁समीकरण	-8986
▁मार्जिन	-8987
▁इराक	-8988
▁स्नान	-8989
▁कर्मों	-8990
▁प्रशांत	-8991
देवी	-8992
सिद्ध	-8993
▁Cham	-8994
▁रोज़	-8995
▁लौटे	-8996
▁विषा	-8997
▁जीओएम	-8998
▁नोटरी	-8999
▁ड्राइव	-9000
▁ट्रांसपोर्ट	-9001
▁उत्तराधिकारियों	-9002
इंट	-9003
▁Aug	-9004
▁भती	-9005
▁आयाम	-9006
▁ऊंचा	-9007
▁प्लग	-9008
▁पृथक्	-9009
▁भ्रूण	-9010
▁सच्ची	-9011
▁आउटपुट	-9012
▁सिगरेट	-9013
ार्टमेंट	-9014
▁क्रिस्ट	-9015
LA	-9016
▁जोड़ें	-9017
▁व्यष्टि	-9018
▁मानचित्र	-9019
▁प्रतिपादन	-9020
पीएल	-9021
▁इसल	-9022
मित्त	-9023
▁दादा	-9024
▁अभिने	-9025
▁जर्मन	-9026
▁अनदेखा	-9027
▁वैष्णव	-9028
▁व्यर्थ	-9029
▁अफगानिस्तान	-9030
है	-9031
▁st	-9032
▁हिल	-9033
▁मैनु	-9034
▁चेहरा	-9035
▁मिस्र	-9036
▁आपूर्त	-9037
▁गर्भाशय	-9038
▁प्रदाता	-9039
▁वादियों	-9040
२०	-9041
▁नकल	-9042
ध्याय	-9043
▁दुबे	-9044
▁अवशेष	-9045
▁आवश्य	-9046
▁उपलब्धियों	-9047
▁महाप्रबंधक	-9048
ind	-9049
वाट	-9050
णुओं	-9051
लपुर	-9052
▁Son	-9053
▁श्लोक	-9054
▁अपनाना	-9055
▁बंगाली	-9056
▁स्मारक	-9057
▁असमानता	-9058
▁अभिप्राय	-9059
माही	-9060
▁com	-9061
पातिक	-9062
▁क्षम	-9063
▁मत्स	-9064
▁इंदौर	-9065
▁आंकड़ा	-9066
▁चाहेंगे	-9067
▁राष्ट्री	-9068
ग़	-9069
▁PC	-9070
▁फि	-9071
▁हेर	-9072
चरिता	-9073
▁डिप्ल	-9074
▁व्यापारियों	-9075
णित	-9076
सराय	-9077
▁दार	-9078
▁भूख	-9079
िवर्स	-9080
▁अनिय	-9081
▁एमसी	-9082
▁जोड़ी	-9083
▁नेताजी	-9084
TH	-9085
षद	-9086
GAL	-9087
▁यश	-9088
▁पिटी	-9089
▁गिरने	-9090
▁स्वर्ग	-9091
▁वॉल्यूम	-9092
षेक	-9093
▁बट	-9094
ीलाल	-9095
▁टाल	-9096
▁बही	-9097
ढ़ियों	-9098
▁क्रिम	-9099
▁बहाने	-9100
▁दर्शाने	-9101
▁नैतिकता	-9102
▁बेईमानी	-9103
▁परव	-9104
▁फूलों	-9105
▁प्रवीण	-9106
▁सुचरिता	-9107
ञ्	-9108
▁साख	-9109
▁संजीव	-9110
▁बाज़ार	-9111
▁स्थलों	-9112
▁कन्वेंशन	-9113
▁चिकित्सकीय	-9114
▁इंस्टीट्यूट	-9115
▁Pol	-9116
▁सबको	-9117
▁मानती	-9118
▁प्रोबेट	-9119
नाई	-9120
िकता	-9121
▁दीन	-9122
▁क्राइ	-9123
▁टेनिस	-9124
▁न्यूज	-9125
▁सब्सि	-9126
▁सुदूर	-9127
▁अवज्ञा	-9128
▁कॉलोनी	-9129
▁जस्टिस	-9130
▁अधीक्षण	-9131
▁गड़बड़ी	-9132
▁सामानों	-9133
▁आविष्कार	-9134
▁पंचायतों	-9135
▁साक्षरता	-9136
▁गतिविधियां	-9137
▁प्राधिकरणों	-9138
ND	-9139
्द	-9140
▁शार	-9141
▁साठ	-9142
▁विभेद	-9143
▁अतिमान	-9144
▁निगमों	-9145
ैत	-9146
▁परो	-9147
▁फर्द	-9148
▁स्टी	-9149
मेंट्स	-9150
▁कीजिए	-9151
▁ग्रन्थ	-9152
▁अल्ट्रा	-9153
▁बांग्लादेश	-9154
▁टैब	-9155
▁पतन	-9156
▁मेम	-9157
▁CWJC	-9158
▁तालुक	-9159
▁तिहाई	-9160
▁अधीनता	-9161
▁सौभाग्य	-9162
▁पार्टियां	-9163
PL	-9164
बाग	-9165
ुतोष	-9166
▁डाइ	-9167
▁बिछ	-9168
▁आरसी	-9169
▁कौंस	-9170
▁व्यवसायी	-9171
▁तुलनात्मक	-9172
लै	-9173
मेर	-9174
ल्ले	-9175
्वाइ	-9176
्वित	-9177
endra	-9178
ोरेंस	-9179
▁ईस्ट	-9180
▁दुष्	-9181
▁मेहर	-9182
▁अंतरा	-9183
▁टैगोर	-9184
▁अवधारण	-9185
▁लाभदायक	-9186
op	-9187
▁इंजन	-9188
▁एमबी	-9189
▁सतीश	-9190
▁विकृति	-9191
▁प्रजाति	-9192
▁प्रशासक	-9193
▁अभिरक्षा	-9194
गणना	-9195
धारक	-9196
बिनेट	-9197
▁धोखे	-9198
▁पूछे	-9199
▁लीला	-9200
▁इकबाल	-9201
▁स्विच	-9202
▁गोपनीयता	-9203
▁इंडस्ट्रीज	-9204
आईए	-9205
महल	-9206
▁लू	-9207
धाना	-9208
िंगर	-9209
▁कूद	-9210
संबंध	-9211
▁कमाई	-9212
▁बचना	-9213
कृष्णन	-9214
▁एससीए	-9215
▁अरविंद	-9216
▁बन्	-9217
▁डिस्चार्ज	-9218
ter	-9219
▁छः	-9220
▁जेब	-9221
ंताओं	-9222
ख़्या	-9223
▁शिष्य	-9224
ear	-9225
खली	-9226
▁कैद	-9227
▁रूम	-9228
▁पेशी	-9229
▁भोपाल	-9230
▁सालों	-9231
▁पुत्री	-9232
▁बंगलौर	-9233
▁मुहैया	-9234
▁प्रभुत्व	-9235
पाठी	-9236
ृहीत	-9237
▁चीफ	-9238
यंत्र	-9239
▁अभेद	-9240
▁सोना	-9241
▁क्षमा	-9242
▁कामगारों	-9243
▁प्रख्यात	-9244
▁समाजवादी	-9245
▁सर्वप्रथम	-9246
भुत	-9247
▁ललिता	-9248
▁अहिंसा	-9249
▁इंडिका	-9250
▁मैनुअल	-9251
▁श्रद्ध	-9252
▁असमर्थता	-9253
हक	-9254
मुना	-9255
बुद्ध	-9256
▁बैंड	-9257
▁खोपड़ी	-9258
AV	-9259
ey	-9260
लत	-9261
ास्पद	-9262
▁कॉन्ट	-9263
▁दिखता	-9264
▁क्रिमिनल	-9265
गिक	-9266
घोष	-9267
ुरू	-9268
▁अर्क	-9269
▁अवतार	-9270
▁गर्भव	-9271
▁दुग्ध	-9272
▁प्रसंग	-9273
▁ऑपरेटिव	-9274
▁आपूर्तिक	-9275
▁प्रोटोकॉल	-9276
▁बाला	-9277
▁साइन	-9278
▁सादा	-9279
▁सिखा	-9280
▁हफ्त	-9281
क्सीजन	-9282
▁चतुर्थ	-9283
▁बिन्दु	-9284
सेन	-9285
ोगे	-9286
ौली	-9287
▁बोले	-9288
▁मेगा	-9289
▁सौदा	-9290
▁बदनाम	-9291
▁बीडीए	-9292
▁सोचता	-9293
▁आशुतोष	-9294
▁जैसाकि	-9295
EC	-9296
▁Ro	-9297
▁टि	-9298
बीएस	-9299
▁DIST	-9300
▁असंतु	-9301
▁म्यूट	-9302
िरपेक्ष	-9303
▁दीवारों	-9304
▁इस्लामवादी	-9305
▁मंत्रालयों	-9306
तकों	-9307
दण्ड	-9308
▁जजमेंट	-9309
▁धर्मों	-9310
▁असुविधा	-9311
▁कर्मकार	-9312
▁स्ट्रीट	-9313
▁फाउंडेशन	-9314
▁परीक्षणों	-9315
घट	-9316
िएट	-9317
र्षण	-9318
▁छुट	-9319
▁निदान	-9320
▁परवाह	-9321
▁प्रसव	-9322
▁मानवा	-9323
▁प्रहार	-9324
▁परियोजनाएं	-9325
▁or	-9326
▁अपार	-9327
▁मुद्रित	-9328
ep	-9329
जुट	-9330
ीदा	-9331
मिकस	-9332
▁काय	-9333
▁डीडी	-9334
▁पूछने	-9335
▁रियासत	-9336
▁क़्योंकि	-9337
▁विवादास्पद	-9338
▁गढ़	-9339
▁उड़ान	-9340
▁पुराण	-9341
▁बंगला	-9342
▁निर्देशन	-9343
ँह	-9344
जप	-9345
ल्ह	-9346
त्ती	-9347
ालों	-9348
▁जगा	-9349
िक्शन	-9350
▁एमडी	-9351
▁भव्य	-9352
▁सोनी	-9353
▁आज्ञा	-9354
▁रिश्ते	-9355
▁सिनेमा	-9356
▁प्रतिमा	-9357
gan	-9358
▁उधर	-9359
▁जहर	-9360
▁मोर	-9361
▁फर्श	-9362
▁गाँधी	-9363
▁सच्चा	-9364
▁अनजाने	-9365
▁क्रमिक	-9366
▁लिखावट	-9367
▁कहानियों	-9368
▁प्रशंसनीय	-9369
▁लाइसेंसधारी	-9370
लु	-9371
▁नेट	-9372
▁पित	-9373
▁शीत	-9374
▁सब्ज	-9375
▁समझी	-9376
▁हैंड	-9377
ेश्वरी	-9378
▁बालों	-9379
▁महान्	-9380
▁शेयरधारक	-9381
ta	-9382
ION	-9383
जलि	-9384
बरी	-9385
रुप	-9386
▁ओआरएस	-9387
▁डालते	-9388
▁वेस्ट	-9389
▁हमलावर	-9390
▁गुजराती	-9391
▁प्रदेशों	-9392
डम	-9393
टान	-9394
▁ऋतु	-9395
▁कैप	-9396
▁क्षै	-9397
▁लेनी	-9398
▁षड्य	-9399
▁एमिकस	-9400
▁जमानती	-9401
▁प्रचुर	-9402
▁अवस्थित	-9403
▁हिंदुओं	-9404
बिया	-9405
▁एएस	-9406
▁कॉम	-9407
ब्दिक	-9408
▁एएसआई	-9409
▁गीतों	-9410
▁मायने	-9411
▁निर्गम	-9412
▁असंतुष्ट	-9413
▁संव्यवहार	-9414
▁कंक	-9415
▁गंग	-9416
▁पाय	-9417
▁खेतों	-9418
▁इसलिये	-9419
▁सीरिया	-9420
▁संभालने	-9421
adav	-9422
▁पिन	-9423
▁चिपका	-9424
▁पुनरु	-9425
▁शिमला	-9426
▁चार्टर	-9427
▁जिंदगी	-9428
▁सेवकों	-9429
▁कैबिनेट	-9430
▁सब्सिडी	-9431
ंय	-9432
AME	-9433
सेल	-9434
िलास	-9435
ेंट्स	-9436
ेशनों	-9437
▁फाइन	-9438
▁हुये	-9439
▁भेजें	-9440
▁करूंगा	-9441
▁मांगने	-9442
▁अनुभूति	-9443
▁प्रत्यर्थी	-9444
▁अन्यायपूर्ण	-9445
ary	-9446
तरफा	-9447
▁चलकर	-9448
▁चलाए	-9449
ावस्था	-9450
▁मानकर	-9451
▁Station	-9452
000	-9453
▁Pat	-9454
▁एडी	-9455
▁चलना	-9456
▁मुकेश	-9457
▁मूर्ख	-9458
▁संतान	-9459
▁उर्वरक	-9460
▁राजाओं	-9461
▁चर्चाओं	-9462
ंर	-9463
▁घूं	-9464
▁थोक	-9465
▁धूल	-9466
▁उपास	-9467
▁वाहक	-9468
▁एकजुट	-9469
▁बदलना	-9470
▁बस्ती	-9471
▁पिटीशन	-9472
▁मधुमेह	-9473
▁शाब्दिक	-9474
▁मनुष्यों	-9475
फु	-9476
सात	-9477
▁खाम	-9478
▁गंत	-9479
▁बिट	-9480
▁कारी	-9481
▁ब्यौ	-9482
▁बम्बई	-9483
▁स्त्रो	-9484
▁त्रुटिः	-9485
▁निमित्त	-9486
▁सुझावों	-9487
हृ	-9488
▁as	-9489
▁आड़	-9490
▁सुग	-9491
▁सोव	-9492
▁पादप	-9493
▁सुगम	-9494
▁सेटल	-9495
▁मुंशी	-9496
▁संचयी	-9497
▁गर्भवती	-9498
▁निपटारे	-9499
▁भेदभावपूर्ण	-9500
हण	-9501
ंसी	-9502
▁WA	-9503
▁एए	-9504
ापुर	-9505
▁चुक	-9506
▁काफ़ी	-9507
▁डालना	-9508
▁अनुष्ठ	-9509
▁कारतूस	-9510
▁झिल्ली	-9511
▁मत्स्य	-9512
▁ईमानदार	-9513
▁फिल्मों	-9514
▁शब्दकोश	-9515
▁एनडीपीएस	-9516
▁प्रबंधित	-9517
▁राजपत्रित	-9518
पाट	-9519
▁जस	-9520
शियन	-9521
▁उत्पर	-9522
▁शिविर	-9523
▁स्पेश	-9524
▁अखंडता	-9525
▁असाइनमेंट	-9526
डों	-9527
ण्ट	-9528
िटर	-9529
सर्ग	-9530
▁वैट	-9531
▁रेगि	-9532
▁छात्रा	-9533
▁नाटकों	-9534
▁निगमित	-9535
▁मेमोरी	-9536
▁विटामिन	-9537
ity	-9538
rom	-9539
मिश	-9540
र्षि	-9541
▁कटक	-9542
▁जुड	-9543
▁नहर	-9544
▁रेस	-9545
बन्धन	-9546
▁सभ्य	-9547
लावरों	-9548
▁घटकों	-9549
▁Police	-9550
▁मशीनों	-9551
▁सिर्फ़	-9552
▁महासागर	-9553
▁पूर्वोत्तर	-9554
२क	-9555
▁खुदरा	-9556
▁दीक्ष	-9557
▁बचाया	-9558
▁शिथिल	-9559
▁साकार	-9560
▁महाराज	-9561
▁प्रबन्ध	-9562
▁हमलावरों	-9563
फॉ	-9564
ुन	-9565
खान	-9566
ांच	-9567
▁एजे	-9568
▁नाप	-9569
▁मेर	-9570
▁गोयल	-9571
▁मेहनत	-9572
ोर्टियम	-9573
▁विकिरण	-9574
▁गोलीबारी	-9575
▁तुम्हारा	-9576
▁बोलीदाताओं	-9577
टीई	-9578
▁ऋषि	-9579
▁गम्	-9580
▁लूट	-9581
वर्तन	-9582
वाड़ा	-9583
▁अधिशेष	-9584
▁उपनियम	-9585
▁बादशाह	-9586
▁सामर्थ	-9587
▁बहुमूल्य	-9588
▁नरम	-9589
मुक्त	-9590
्यूपी	-9591
▁अन्न	-9592
▁अलंक	-9593
▁आवेग	-9594
▁बनती	-9595
▁रोकता	-9596
▁कमियों	-9597
▁बिहारी	-9598
▁सातवीं	-9599
▁क्षेत्रफल	-9600
▁फिलीस्तीन	-9601
तिज	-9602
▁ओब	-9603
▁एमएल	-9604
▁कहें	-9605
▁झगड़े	-9606
▁परेशानी	-9607
▁धर्मार्थ	-9608
▁मैत्रीपूर्ण	-9609
▁अघ	-9610
भक्त	-9611
▁चौदह	-9612
▁हड्ड	-9613
▁कैलाश	-9614
▁अनुरक्षण	-9615
▁केन्द्रों	-9616
डेड	-9617
▁अँ	-9618
गोरि	-9619
▁कंड	-9620
▁बान	-9621
▁भोज	-9622
▁दौरे	-9623
तापूर्ण	-9624
ब्ल्यूपी	-9625
IV	-9626
च्य	-9627
लाप	-9628
ेयी	-9629
१वीं	-9630
▁कसौ	-9631
▁नानक	-9632
▁रहकर	-9633
▁रेंज	-9634
▁गोदाम	-9635
▁चित्त	-9636
▁त्रिप	-9637
▁पीछला	-9638
▁पुकार	-9639
▁अंतर्व	-9640
▁अभिदाय	-9641
▁उद्भूत	-9642
▁उपबंधित	-9643
▁ग्वालियर	-9644
▁डिप्लोमा	-9645
▁दीर्घकालिक	-9646
श्न	-9647
▁क्षु	-9648
▁असिस्ट	-9649
▁जीवाणु	-9650
▁संपादक	-9651
▁असंवैधानिक	-9652
▁मानवाधिकार	-9653
भावी	-9654
सारी	-9655
▁बगल	-9656
▁बोर	-9657
▁रंगम	-9658
▁संकु	-9659
▁ऊतकों	-9660
▁अनुमेय	-9661
▁निक्षेप	-9662
▁पहुंचाई	-9663
▁कंसोर्टियम	-9664
▁AR	-9665
▁गर्ग	-9666
▁परिष्	-9667
▁जोरदार	-9668
▁दिलाने	-9669
▁सेकेंड	-9670
▁विवेचना	-9671
कर्स	-9672
कांत	-9673
प्रण	-9674
ॉल्व	-9675
▁बुराई	-9676
▁एंट्री	-9677
▁ज़रूरत	-9678
▁आन्दोलन	-9679
▁आनुपातिक	-9680
▁षड्यंत्र	-9681
भिक	-9682
ल्थ	-9683
▁इट	-9684
ंकित	-9685
▁अनौ	-9686
▁जरा	-9687
▁चुंब	-9688
▁फिंगर	-9689
▁बहिष्	-9690
▁विख्यात	-9691
▁क्षमताओं	-9692
▁याचिकाएँ	-9693
▁यूनिवर्स	-9694
▁प्रत्यक्षदर्शी	-9695
तुल	-9696
रिज	-9697
बंधन	-9698
ुल्ला	-9699
▁बेहोश	-9700
▁संस्थाएं	-9701
▁on	-9702
एचसी	-9703
▁खसरा	-9704
▁भट्ट	-9705
▁महेश	-9706
▁विरा	-9707
▁विषम	-9708
धारकों	-9709
पीसीएल	-9710
▁खींचा	-9711
▁निरोधक	-9712
▁परिमाण	-9713
▁नर्सिंग	-9714
▁पर्यटकों	-9715
फेर	-9716
ालक	-9717
र्नल	-9718
वाया	-9719
▁रोचक	-9720
▁निरसित	-9721
▁निर्धन	-9722
▁दीक्षांत	-9723
▁विशिष्टता	-9724
▁अपरिवर्तनीय	-9725
▁लेखापरीक्षा	-9726
जाज	-9727
जूर	-9728
लिश	-9729
ट्ठी	-9730
त्पाद	-9731
प्राइ	-9732
▁उज्ज	-9733
▁कैंट	-9734
▁जीने	-9735
▁माया	-9736
▁श्रील	-9737
▁बिल्डिंग	-9738
वर्ग	-9739
▁बिस	-9740
▁ट्रा	-9741
▁कैदियों	-9742
▁विनिर्देश	-9743
▁अनियंत्रित	-9744
षकों	-9745
ितरण	-9746
▁अद्	-9747
▁इंक	-9748
▁अमीर	-9749
▁नारी	-9750
▁मुँह	-9751
▁वर्न	-9752
▁क्लेम	-9753
▁साइंस	-9754
▁अजीबोग	-9755
▁संवेदना	-9756
▁सम्बद्ध	-9757
▁साझेदार	-9758
▁हिन्दुओं	-9759
▁Ar	-9760
ब्बा	-9761
▁पॉल	-9762
▁चलाना	-9763
▁दबाने	-9764
▁वास्तु	-9765
▁टेलीविजन	-9766
▁सुरेंद्र	-9767
▁वित्तपोषण	-9768
▁विद्यालयों	-9769
kar	-9770
बयान	-9771
थियों	-9772
▁गूगल	-9773
▁जादू	-9774
▁सगाई	-9775
च्छेदन	-9776
▁नाराज	-9777
▁स्थाई	-9778
▁अभेद्य	-9779
▁विलियम	-9780
▁प्रवर्ग	-9781
▁प्रायोजित	-9782
if	-9783
▁आज़	-9784
▁कड़	-9785
▁हैस	-9786
▁दरें	-9787
स्पोंड	-9788
▁प्रेरक	-9789
▁खिलाड़ी	-9790
▁प्रतिशोध	-9791
▁सेटलमेंट	-9792
▁प्रगतिशील	-9793
ढे	-9794
ंबा	-9795
▁सज्	-9796
▁कमरा	-9797
▁गेहूं	-9798
▁अधिकाधिक	-9799
▁प्रांतीय	-9800
▁संस्थापक	-9801
▁वादकारियों	-9802
टकर	-9803
्तर	-9804
▁कण	-9805
▁भड़	-9806
▁भुव	-9807
तालों	-9808
▁ब्ला	-9809
▁कार्ट	-9810
▁बेरोज	-9811
▁रिहाई	-9812
▁सर्कल	-9813
▁समर्थक	-9814
▁निमंत्र	-9815
नाल	-9816
▁कुं	-9817
▁पहाड़	-9818
▁छानबीन	-9819
▁प्रवास	-9820
▁निरूपित	-9821
▁त्रिपाठी	-9822
▁अजीबोगरीब	-9823
▁असुरक्षित	-9824
रथ	-9825
ंचन	-9826
्शा	-9827
ंतुक	-9828
एलआर	-9829
ड़ित	-9830
िंदर	-9831
▁डकै	-9832
ार्टर	-9833
▁ITAT	-9834
▁क्रोध	-9835
▁गुलाम	-9836
▁तम्बा	-9837
▁बच्चन	-9838
▁भेजना	-9839
▁लार्ड	-9840
▁मजबूती	-9841
▁सुपुर्द	-9842
eg	-9843
ang	-9844
मलव	-9845
▁ha	-9846
▁Mad	-9847
▁दीं	-9848
▁बुरे	-9849
▁निश्च	-9850
▁मर्या	-9851
▁क्राइम	-9852
▁अनुभवों	-9853
▁क्षैतिज	-9854
▁साझीदारी	-9855
▁प्रतिवेदन	-9856
our	-9857
ेरा	-9858
▁अठ	-9859
▁उछ	-9860
▁अका	-9861
▁ऑब्	-9862
▁टेक	-9863
▁भूक	-9864
▁मेह	-9865
▁किशन	-9866
निर्देश	-9867
▁मांगों	-9868
▁त्रुटियों	-9869
▁wp	-9870
▁कन	-9871
जपेयी	-9872
▁आईसी	-9873
▁चौथी	-9874
▁प्रगा	-9875
▁सनातन	-9876
▁चुकाने	-9877
▁पाठकों	-9878
▁सत्याग्रह	-9879
टिन	-9880
ोंग	-9881
आरसी	-9882
य्या	-9883
▁SLP	-9884
▁कपास	-9885
क्रिप्	-9886
▁खर्चे	-9887
▁विध्व	-9888
श्योरेंस	-9889
▁सर्वोपरि	-9890
▁संस्थापित	-9891
डोर	-9892
▁एसई	-9893
▁नित	-9894
▁पाती	-9895
▁रंजन	-9896
पत्रों	-9897
वृत्ति	-9898
▁सीटें	-9899
▁मुकाबला	-9900
एलए	-9901
▁एसिड	-9902
▁रेशम	-9903
▁लिखत	-9904
▁वारा	-9905
▁दत्तक	-9906
▁पकड़े	-9907
▁कौंसिल	-9908
▁प्रदाह	-9909
▁पसंदीदा	-9910
डऋ	-9911
ाल्	-9912
पिंग	-9913
▁अभिल	-9914
▁वर्क	-9915
▁ओबामा	-9916
▁दशमलव	-9917
▁देसाई	-9918
▁हटाना	-9919
▁गंतव्य	-9920
▁गम्भीर	-9921
▁उपयोक्ता	-9922
▁प्रजातियों	-9923
साम	-9924
▁खेलने	-9925
▁दिलीप	-9926
▁नतीजा	-9927
▁लगेगा	-9928
▁विकार	-9929
▁श्रीलंका	-9930
▁एक्सटेंशन	-9931
▁सीडब्ल्यू	-9932
▁विसंगतियों	-9933
▁Sat	-9934
▁किले	-9935
▁बादल	-9936
▁बेटों	-9937
▁शास्ति	-9938
▁पवित्रता	-9939
▁प्रस्थान	-9940
वश	-9941
ादर	-9942
धर्म	-9943
ावधि	-9944
▁PDD	-9945
▁इधर	-9946
▁डूब	-9947
▁दां	-9948
▁सरा	-9949
▁असंख	-9950
▁आरएस	-9951
▁डेस्	-9952
▁तमाम	-9953
▁परिन	-9954
▁जीवंत	-9955
रेन्द्र	-9956
▁गतिशील	-9957
▁गरीबों	-9958
▁रंगमंच	-9959
▁शासकीय	-9960
▁एल्गोरि	-9961
▁महिलाएं	-9962
चिव	-9963
र्चा	-9964
चियों	-9965
▁जगत्	-9966
▁डालता	-9967
▁विषयक	-9968
▁शेड्यूल	-9969
▁ट्रेडिंग	-9970
्ग	-9971
२१	-9972
▁आओ	-9973
गरों	-9974
▁खेप	-9975
▁शौच	-9976
▁धीमी	-9977
▁समीप	-9978
▁पिटाई	-9979
▁सभाओं	-9980
▁निर्देशक	-9981
▁भरोसेमंद	-9982
▁प्राणियों	-9983
भगत	-9984
▁चंप	-9985
▁लची	-9986
▁हरी	-9987
रूपता	-9988
रेस्ट	-9989
▁जॉर्	-9990
▁भयान	-9991
▁यज्ञ	-9992
प्रदेश	-9993
▁अतिथि	-9994
▁अरुणा	-9995
▁दत्ता	-9996
▁नियन्त	-9997
▁मिनटों	-9998
▁बाजारों	-9999
▁सूचकांक	-10000
▁प्रभावों	-10001
▁रेखांकित	-10002
▁केन्द्रित	-10003
▁Ws	-10004
▁con	-10005
▁औरत	-10006
▁गली	-10007
▁बनकर	-10008
▁बीएस	-10009
▁एहसास	-10010
▁किसने	-10011
▁मास्ट	-10012
▁अपूरणीय	-10013
▁फर्दबयान	-10014
ुलन	-10015
विता	-10016
शिला	-10017
▁AGE	-10018
▁BAN	-10019
▁ह्य	-10020
▁दादी	-10021
▁पढ़ी	-10022
▁मिलन	-10023
▁जितने	-10024
▁टैरिफ	-10025
▁जोड़ना	-10026
▁निकाली	-10027
▁सृष्टि	-10028
▁कॉन्ट्र	-10029
▁सहभागिता	-10030
▁अर्थशास्त्र	-10031
ाहट	-10032
▁डु	-10033
▁एके	-10034
▁घेर	-10035
निवास	-10036
▁अस्व	-10037
▁श्वसन	-10038
▁दिशाओं	-10039
▁देशवासियों	-10040
EE	-10041
जिट	-10042
▁Mah	-10043
ताबिक	-10044
▁एसएचओ	-10045
▁भागवत	-10046
▁सर्जन	-10047
▁आक्षेप	-10048
▁करवाने	-10049
▁मणिपुर	-10050
▁चार्टर्ड	-10051
▁प्रतियोगी	-10052
▁बीमारियों	-10053
▁शास्त्रीय	-10054
▁मंत्रिमंडल	-10055
▁सौहार्दपूर्ण	-10056
SA	-10057
षी	-10058
ट्ठ	-10059
ध्व	-10060
▁धा	-10061
▁हाज	-10062
पत्ति	-10063
▁अय्य	-10064
▁नाना	-10065
▁विहार	-10066
▁महर्षि	-10067
▁रघुनाथ	-10068
OD	-10069
चन्द	-10070
▁अजन	-10071
▁खाल	-10072
मार्ट	-10073
▁गन्ने	-10074
▁सेंटी	-10075
प्लेक्स	-10076
▁अवधारित	-10077
▁प्रवाहित	-10078
▁सामर्थ्य	-10079
▁मैट्रिक्स	-10080
▁रच	-10081
न्ता	-10082
▁खरा	-10083
▁एचपी	-10084
▁कसौटी	-10085
▁सिंधु	-10086
▁तम्बाकू	-10087
▁प्रगाढ़	-10088
▁भूखंडों	-10089
▁हाउसिंग	-10090
पीएफ	-10091
पुरी	-10092
▁सीटी	-10093
▁सैंट	-10094
▁खोलें	-10095
▁करेंगी	-10096
▁तिमाही	-10097
▁मुताबिक	-10098
▁पारिस्थित	-10099
▁Mo	-10100
▁जौ	-10101
क्यू	-10102
टिया	-10103
▁पटल	-10104
▁विय	-10105
▁यथास	-10106
▁भवनों	-10107
▁पीडीएफ	-10108
▁तत्परता	-10109
▁दर्शाते	-10110
फ़ा	-10111
शंस	-10112
▁ऑल	-10113
▁तन	-10114
▁नद	-10115
▁Ind	-10116
▁फुल	-10117
▁अण्ड	-10118
▁विराम	-10119
▁स्केल	-10120
▁शान्ति	-10121
ीत	-10122
धीर	-10123
ूला	-10124
▁अनो	-10125
▁ऑयल	-10126
▁विजेता	-10127
▁कैलेंडर	-10128
▁इंजेक्शन	-10129
▁मतदाताओं	-10130
her	-10131
ँजी	-10132
समय	-10133
िशन	-10134
▁गत	-10135
प्पल	-10136
▁कमर	-10137
▁पीए	-10138
वाड़ी	-10139
▁बलों	-10140
▁मंडी	-10141
▁मादक	-10142
▁खिड़की	-10143
▁तुरन्त	-10144
AI	-10145
LI	-10146
td	-10147
▁फौज	-10148
▁इनसे	-10149
▁कटाई	-10150
▁बनते	-10151
▁आँखों	-10152
▁दर्शक	-10153
▁अर्पित	-10154
▁नर्मदा	-10155
▁एजुकेशन	-10156
▁स्वतन्त्र	-10157
▁हार्डवेयर	-10158
पंच	-10159
मेट	-10160
▁जह	-10161
▁शम	-10162
पकों	-10163
स्थि	-10164
▁Sar	-10165
▁डेट	-10166
▁बंट	-10167
▁सूर	-10168
▁जॉर्ज	-10169
▁साधना	-10170
▁बलिदान	-10171
▁बेदखली	-10172
▁संचिका	-10173
▁निराधार	-10174
▁कार्यकलापों	-10175
UM	-10176
टेक	-10177
▁लट	-10178
ब्रे	-10179
▁आलम	-10180
▁उलझ	-10181
▁कुश	-10182
▁गौण	-10183
तीकरण	-10184
▁काशी	-10185
▁बीबी	-10186
▁मरीज	-10187
▁छिद्र	-10188
▁एकतरफा	-10189
▁एकीकरण	-10190
▁कठोरता	-10191
▁प्रदीप	-10192
▁हैसियत	-10193
▁जमींदार	-10194
▁समन्वित	-10195
▁ट्रांसफर	-10196
▁अन्तर्राष्ट्रीय	-10197
ess	-10198
थुन	-10199
क्ष्	-10200
▁चारा	-10201
म्रपान	-10202
▁भयानक	-10203
▁कहलाता	-10204
▁प्रिवी	-10205
▁फंसाने	-10206
▁महावीर	-10207
▁मुद्रण	-10208
▁अनुपूरक	-10209
▁व्याप्त	-10210
▁सरकारें	-10211
▁सापेक्ष	-10212
▁उद्यमियों	-10213
▁पुनर्निर्माण	-10214
▁मनोवैज्ञानिक	-10215
▁IS	-10216
▁मधुर	-10217
▁अप्रा	-10218
▁अवसाद	-10219
▁कम्यु	-10220
▁डेस्कट	-10221
▁कुटुम्ब	-10222
▁चित्रों	-10223
▁अस्वीकृत	-10224
▁प्रतिपादित	-10225
▁ऑस्ट्रेलिया	-10226
▁The	-10227
▁आँक	-10228
▁कुर	-10229
▁भूप	-10230
▁मैक	-10231
paran	-10232
ापनों	-10233
▁नंगे	-10234
▁रूचि	-10235
▁एमओयू	-10236
▁ट्रेन	-10237
▁सर्किट	-10238
▁हनुमान	-10239
▁मिलीभगत	-10240
▁कार्यात्मक	-10241
िसा	-10242
▁मौन	-10243
फ्रेंस	-10244
▁प्रको	-10245
▁प्रॉप	-10246
▁मैक्स	-10247
जनात्मक	-10248
▁घटनाएं	-10249
▁समीचीन	-10250
▁मित्रता	-10251
▁अप्रत्या	-10252
▁Champaran	-10253
▁भुवनेश्वर	-10254
▁स्वीकार्यता	-10255
▁दाई	-10256
▁उड़ा	-10257
▁कपूर	-10258
▁गुहा	-10259
▁माफी	-10260
▁शवों	-10261
प्रकाश	-10262
साधारण	-10263
▁दोषों	-10264
धारियों	-10265
▁अशुद्ध	-10266
▁पूर्वक	-10267
▁डेवलपमेंट	-10268
OC	-10269
ik	-10270
▁डै	-10271
▁कैन	-10272
▁बेज	-10273
ुलेशन	-10274
▁बस्त	-10275
▁रिसी	-10276
रूद्दीन	-10277
▁कंट्रा	-10278
▁प्रमोट	-10279
▁शासकों	-10280
▁इंस्ट्र	-10281
▁रामचंद्र	-10282
ड्स	-10283
संह	-10284
▁तित	-10285
▁नॉन	-10286
▁उतने	-10287
▁भयाव	-10288
▁शाही	-10289
▁मनोहर	-10290
▁लड़कों	-10291
▁रूपान्त	-10292
स्पोंडेंट	-10293
▁पद्धतियों	-10294
▁ओह	-10295
▁आंब	-10296
पल्ली	-10297
▁पत्थ	-10298
▁क्राल	-10299
▁दीवान	-10300
▁ठहराते	-10301
▁बनर्जी	-10302
▁अवशोषित	-10303
▁अद्वितीय	-10304
▁डेस्कटॉप	-10305
▁प्रतिस्पर्धी	-10306
केल	-10307
वत्	-10308
देही	-10309
▁छंद	-10310
▁सीई	-10311
मानों	-10312
▁ठहराव	-10313
▁नारियल	-10314
▁पृष्ठों	-10315
▁संप्रभु	-10316
▁परीक्षाओं	-10317
एव	-10318
न्च	-10319
ंगली	-10320
▁धनी	-10321
▁आलेख	-10322
▁मवेश	-10323
▁लाइट	-10324
▁लैंड	-10325
▁जिसमे	-10326
▁रस्सी	-10327
▁लापता	-10328
▁प्रौढ़	-10329
▁आनुवंशिक	-10330
▁पुरस्कारों	-10331
▁As	-10332
▁ढाँ	-10333
▁ताम	-10334
▁पंक	-10335
▁एसके	-10336
▁यकीन	-10337
▁एनसीटी	-10338
▁डिक्शन	-10339
▁कार्यपाल	-10340
▁तौल	-10341
▁क्रि	-10342
▁गयीं	-10343
▁रत्न	-10344
▁अभिया	-10345
▁जगहों	-10346
▁मानों	-10347
▁राहुल	-10348
▁हिंसक	-10349
▁प्रादेश	-10350
▁विश्राम	-10351
▁परिसंपत्तियों	-10352
जुए	-10353
बुक	-10354
सनी	-10355
एमएस	-10356
▁बाप	-10357
▁औजार	-10358
▁गुस्	-10359
▁पद्म	-10360
णात्मक	-10361
▁अन्तः	-10362
▁उपद्र	-10363
▁बदलते	-10364
▁संपादित	-10365
▁उत्तरार्	-10366
▁संक्रिया	-10367
ंगर	-10368
ंथि	-10369
▁जोन	-10370
▁धूप	-10371
▁मौल	-10372
च्छाद	-10373
▁लीटर	-10374
▁सीबी	-10375
▁टकराव	-10376
▁मिश्र	-10377
▁असहमति	-10378
▁ग्राउंड	-10379
णता	-10380
▁ढी	-10381
फीति	-10382
लब्ध	-10383
शोधन	-10384
जीवित	-10385
लिप्त	-10386
▁पच्च	-10387
▁फ्लै	-10388
▁लेआउट	-10389
▁समझती	-10390
▁सेकंड	-10391
▁विचलित	-10392
▁लक्षणों	-10393
मरी	-10394
ोटा	-10395
,000	-10396
▁ऋणी	-10397
▁झेल	-10398
▁बृह	-10399
▁बदलें	-10400
▁तेलुगु	-10401
▁अभिभावक	-10402
▁डिक्शनरी	-10403
eal	-10404
▁DR	-10405
▁कछ	-10406
▁डीवी	-10407
▁पैदल	-10408
▁सन्त	-10409
▁हिमन	-10410
▁टेक्न	-10411
▁पाण्ड	-10412
▁सोचना	-10413
▁छोड़ना	-10414
ty	-10415
ेली	-10416
लापन	-10417
श्ले	-10418
▁एस्	-10419
▁मला	-10420
ोजकों	-10421
▁अंशदान	-10422
▁प्रत्याय	-10423
ew	-10424
ंटू	-10425
▁मग	-10426
▁अधू	-10427
▁एंव	-10428
ालैंड	-10429
▁कंटे	-10430
▁क्ली	-10431
▁मलया	-10432
▁सांठ	-10433
▁बर्तन	-10434
▁पक्षीय	-10435
▁प्रचलन	-10436
▁पहुँचने	-10437
▁प्रवासी	-10438
▁साक्षियों	-10439
▁अप्रत्याशित	-10440
aw	-10441
दो	-10442
uri	-10443
▁CPC	-10444
▁जनक	-10445
▁रेज	-10446
बोर्ड	-10447
▁इन्फ	-10448
▁गहने	-10449
▁फैली	-10450
▁पढ़ें	-10451
▁पांचवें	-10452
▁व्यक्तिपरक	-10453
▁निष्क्रियता	-10454
्तन	-10455
वेली	-10456
▁Ltd	-10457
नियों	-10458
▁गुर्	-10459
▁विगत	-10460
▁मल्टी	-10461
▁जोड़कर	-10462
▁निकटता	-10463
▁पासवर्ड	-10464
▁शीघ्रता	-10465
▁अविभाजित	-10466
राबरी	-10467
▁Distt	-10468
▁क्लास	-10469
▁घोड़े	-10470
▁श्वास	-10471
▁परिपूर्ण	-10472
▁बुद्धिमान	-10473
▁क्रियाकलाप	-10474
OP	-10475
ह्	-10476
शेष	-10477
ड़ने	-10478
नायक	-10479
ैर्य	-10480
▁मीन	-10481
तानों	-10482
▁बांस	-10483
▁मल्ल	-10484
▁सीसी	-10485
▁गन्ना	-10486
▁बैंकर	-10487
▁वर्षो	-10488
▁गर्भाव	-10489
▁परजीवी	-10490
▁बैलेंस	-10491
▁विक्रम	-10492
▁डेटाबेस	-10493
▁सुलझाने	-10494
▁जबरदस्ती	-10495
▁संभावनाएं	-10496
्थ	-10497
किक	-10498
▁तरा	-10499
▁घर्षण	-10500
▁विचारणीय	-10501
▁उदाहरणार्थ	-10502
दाद	-10503
श्ता	-10504
▁आर्ट	-10505
▁ग्लो	-10506
▁सुने	-10507
▁वापिस	-10508
▁एनआईटी	-10509
▁इमारतों	-10510
▁स्मार्ट	-10511
▁बदरूद्दीन	-10512
▁श्रीनिवास	-10513
▁आस्ट्रेलिया	-10514
शेखर	-10515
ायगी	-10516
▁गाल	-10517
▁पैक	-10518
▁भाज	-10519
▁साँ	-10520
▁एनसी	-10521
▁फलों	-10522
▁एनएसई	-10523
▁फ्रें	-10524
▁संचरण	-10525
▁वायर्स	-10526
▁नागरिकता	-10527
▁प्रत्यारो	-10528
▁प्रस्तावक	-10529
▁प्रादेशिक	-10530
▁प्रॉपर्टी	-10531
शास्त	-10532
▁असंग	-10533
▁कालि	-10534
▁टांग	-10535
▁नींद	-10536
▁सूखे	-10537
▁सैयद	-10538
▁वीर्य	-10539
▁अवयवों	-10540
▁नाटकीय	-10541
▁हेरफेर	-10542
ष्ट्रपति	-10543
▁कलात्मक	-10544
▁दर्शकों	-10545
▁प्रतिकर	-10546
▁बोलियों	-10547
▁प्रमुखों	-10548
गाल	-10549
बों	-10550
रोस	-10551
वेन	-10552
▁कैश	-10553
युद्ध	-10554
▁वादे	-10555
▁घूंघट	-10556
▁असंख्य	-10557
▁दीक्षा	-10558
▁सोवियत	-10559
▁दोस्तों	-10560
▁निरन्तर	-10561
▁स्वदेशी	-10562
▁एकाधिकार	-10563
▁देनदारियों	-10564
▁युक्तियुक्त	-10565
dl	-10566
ATE	-10567
माल	-10568
ावे	-10569
प्टर	-10570
▁SAR	-10571
▁अड़	-10572
▁गुज	-10573
▁जीप	-10574
▁जूट	-10575
▁तंज	-10576
▁बुश	-10577
▁होश	-10578
डियों	-10579
फोर्ड	-10580
▁अवयव	-10581
▁मेनन	-10582
▁राशन	-10583
▁सुलभ	-10584
▁मानहानि	-10585
▁आकाशवाणी	-10586
▁निःशुल्क	-10587
▁अस्पतालों	-10588
ेब	-10589
AND	-10590
िगर	-10591
▁पग	-10592
▁शैल	-10593
▁बेचे	-10594
▁पर्चे	-10595
▁आरपीसी	-10596
▁उद्यमी	-10597
▁प्रमोद	-10598
▁प्रमाणन	-10599
▁सैंट्रो	-10600
ce	-10601
▁छुप	-10602
▁बगी	-10603
▁बंधे	-10604
▁साहा	-10605
▁लिपिक	-10606
▁पोर्टल	-10607
▁मृतकों	-10608
▁विचारक	-10609
▁स्वराज	-10610
▁दंडादेश	-10611
▁स्वयंसे	-10612
▁पर्यवेक्षी	-10613
SR	-10614
घाट	-10615
टाइ	-10616
्रत	-10617
चिकित	-10618
▁लाता	-10619
्यूटरी	-10620
▁जांचा	-10621
▁सांसद	-10622
▁अद्भुत	-10623
▁प्रेमी	-10624
▁महाकाव	-10625
▁संकेतों	-10626
▁कार्यभार	-10627
▁भूतपूर्व	-10628
▁समितियां	-10629
▁विसंगतियां	-10630
्रेशन	-10631
▁कुर्की	-10632
▁प्रोफ़	-10633
▁टुकड़ों	-10634
▁परिसीमा	-10635
▁धूम्रपान	-10636
▁अनौपचारिक	-10637
क्के	-10638
शिल्प	-10639
▁पैंट	-10640
▁भलाई	-10641
▁सुल्	-10642
▁समेकन	-10643
▁निभाने	-10644
▁निवेशक	-10645
▁स्वार्थ	-10646
NA	-10647
णसी	-10648
्लो	-10649
जिकल	-10650
▁शशि	-10651
▁एंटर	-10652
▁यूएस	-10653
▁वनों	-10654
▁संपर	-10655
क्रमित	-10656
▁इशारे	-10657
▁अपीलें	-10658
▁द्रव्य	-10659
▁रात्रि	-10660
▁आंबेडकर	-10661
▁पहचानने	-10662
▁अस्पष्टता	-10663
▁औपचारिकता	-10664
▁vii	-10665
▁खैर	-10666
घोषणा	-10667
ांजलि	-10668
▁कोटि	-10669
▁रूसी	-10670
▁ललित	-10671
▁चक्कर	-10672
▁प्वाइ	-10673
▁अर्द्ध	-10674
▁स्थानाप	-10675
▁विवेकाधिकार	-10676
SL	-10677
थल	-10678
▁पस	-10679
▁चोर	-10680
▁फेर	-10681
▁फैले	-10682
▁आंखें	-10683
▁धारित	-10684
▁सशर्त	-10685
▁मुखिया	-10686
▁राज़्य	-10687
उथ	-10688
कीर	-10689
क्ल	-10690
आईडी	-10691
ंक्शन	-10692
मानंद	-10693
▁अतएव	-10694
▁दुरा	-10695
▁रोटी	-10696
▁कमाने	-10697
▁भूटान	-10698
▁रवींद्र	-10699
▁ऑपरेटरों	-10700
▁क्रियाओं	-10701
▁द्वारकाना	-10702
▁कार्यकर्ताओं	-10703
ip	-10704
गुण	-10705
हाद	-10706
ायु	-10707
एससी	-10708
डेंट	-10709
क्राम	-10710
वृत्त	-10711
▁त्यो	-10712
▁रोने	-10713
▁लेटर	-10714
ंगाबाद	-10715
▁अनैतिक	-10716
▁डंपिंग	-10717
▁किनारों	-10718
▁मध्यवर्ती	-10719
जाक	-10720
▁SCR	-10721
▁पंथ	-10722
▁आरके	-10723
▁कदमों	-10724
▁चुपचाप	-10725
▁पंजीयक	-10726
▁एमएसएमई	-10727
▁क्वार्टर	-10728
▁द्वारकानाथ	-10729
▁कार्यवाहियां	-10730
la	-10731
चाने	-10732
▁अटल	-10733
▁पडे	-10734
▁भली	-10735
▁व्ह	-10736
वर्धन	-10737
▁खिंच	-10738
▁जूते	-10739
▁राणा	-10740
▁भित्त	-10741
ुस्तानी	-10742
▁आयातित	-10743
▁बालकों	-10744
▁भौतिकी	-10745
▁विनाशकारी	-10746
लेन	-10747
ोरम	-10748
▁Sa	-10749
एनएल	-10750
फ़्ट	-10751
▁नली	-10752
▁वेग	-10753
▁जीडी	-10754
▁नोडल	-10755
ष्णुता	-10756
▁स्कैन	-10757
▁नागपुर	-10758
▁वाशिंग	-10759
▁वाराणसी	-10760
▁मास्टर्स	-10761
ea	-10762
eri	-10763
▁डू	-10764
पानी	-10765
▁आरा	-10766
▁डेय	-10767
▁पदक	-10768
▁वान	-10769
▁भाभी	-10770
▁स्टो	-10771
▁चाहें	-10772
▁राजपू	-10773
▁तीव्रता	-10774
▁प्रिंटर	-10775
▁वसीयतना	-10776
▁काउंसलिंग	-10777
▁ज्योतिर्म	-10778
▁क्षतिग्रस्त	-10779
▁प्रतिष्ठानों	-10780
मस	-10781
▁AT	-10782
▁झलक	-10783
▁पंप	-10784
▁मिट	-10785
▁लौह	-10786
▁क्षे	-10787
▁टाइम	-10788
▁बजाए	-10789
▁हमसे	-10790
ुद्दीन	-10791
▁चौथाई	-10792
▁डालकर	-10793
▁बनायी	-10794
▁उत्थान	-10795
▁कैरियर	-10796
▁जनजातीय	-10797
▁यथासंभव	-10798
▁निमंत्रण	-10799
CL	-10800
बेल	-10801
रिश	-10802
ारत	-10803
▁NE	-10804
प्शन	-10805
▁PIL	-10806
▁अवध	-10807
▁रूक	-10808
▁पारे	-10809
▁एआईसी	-10810
▁डेविड	-10811
िष्णुता	-10812
▁लक्षित	-10813
▁कूटशब्द	-10814
▁सिक्किम	-10815
▁पहुंचाया	-10816
▁सहकारिता	-10817
▁सऋ	-10818
▁हू	-10819
ल्यू	-10820
सिया	-10821
▁app	-10822
▁मदर	-10823
▁मैप	-10824
▁एफटी	-10825
▁मोनो	-10826
▁शासी	-10827
प्रणाली	-10828
▁लाभप्रद	-10829
▁गुणसूत्र	-10830
hak	-10831
असल	-10832
बड़	-10833
सम्	-10834
▁जॉ	-10835
म्बित	-10836
▁अनभि	-10837
▁आईएस	-10838
▁एलपी	-10839
▁चांदी	-10840
▁बारिश	-10841
▁बुलाई	-10842
▁सरलता	-10843
▁टिकटों	-10844
▁संपादन	-10845
ार्श्विक	-10846
▁चमत्कार	-10847
▁मांसपेशियों	-10848
ंदे	-10849
न्दन	-10850
सिले	-10851
▁बसा	-10852
▁रबर	-10853
▁सने	-10854
▁चाहा	-10855
▁डेयरी	-10856
▁शुष्क	-10857
▁खुलासे	-10858
▁संख़्या	-10859
▁प्रमाणीकरण	-10860
तीक	-10861
स्स	-10862
▁SA	-10863
ालाल	-10864
▁फूट	-10865
▁अंतत	-10866
▁इनाम	-10867
▁पांव	-10868
▁खतरों	-10869
▁घुमाव	-10870
▁फास्ट	-10871
▁महंगा	-10872
▁पीडीडी	-10873
▁सेवाएँ	-10874
▁स्टाम्	-10875
▁विलक्षण	-10876
▁परिचालित	-10877
▁सम्भावना	-10878
▁सेंटीमीटर	-10879
▁प्रौद्योगिकियों	-10880
रात	-10881
ारह	-10882
▁अनर	-10883
क्रेट	-10884
▁Panc	-10885
▁ऊर्ध	-10886
▁नागर	-10887
▁मदों	-10888
▁वक्र	-10889
▁बिलियन	-10890
▁वसूलने	-10891
▁समयबद्ध	-10892
▁यूनिवर्सिटी	-10893
ali	-10894
लीम	-10895
▁नट	-10896
▁करण	-10897
▁कस्	-10898
▁कॉम्	-10899
▁पोषक	-10900
ज्ञानी	-10901
▁अलार्म	-10902
▁तोड़ने	-10903
▁बाधाओं	-10904
▁त्योहार	-10905
▁नीतियां	-10906
▁संसाधित	-10907
▁ट्रैक्टर	-10908
▁परंपराओं	-10909
▁पोस्टिंग	-10910
▁टिप्पणियां	-10911
III	-10912
ंसे	-10913
शास	-10914
ारस	-10915
वाने	-10916
▁महज	-10917
द्वार	-10918
▁टीआई	-10919
▁सत्त	-10920
▁ध्रुव	-10921
▁रक्षक	-10922
▁हेमंत	-10923
▁पर्यटक	-10924
▁गर्भावस्था	-10925
SS	-10926
२२	-10927
hay	-10928
ईटी	-10929
विस	-10930
ौला	-10931
▁Al	-10932
एफआर	-10933
ियॉँ	-10934
▁अनी	-10935
▁आएगी	-10936
▁ज्या	-10937
▁पायी	-10938
▁बीयर	-10939
▁करुणा	-10940
▁दरअसल	-10941
▁पिछला	-10942
▁हालात	-10943
▁अनुयाय	-10944
▁जुटाने	-10945
▁तयशुदा	-10946
▁रिसीवर	-10947
▁सीमाएं	-10948
ेट्रिक्स	-10949
▁कंट्राब	-10950
▁शब्दावली	-10951
▁अंतर्विष्ट	-10952
लेज	-10953
ॉक्स	-10954
▁उमा	-10955
▁निब	-10956
▁खोले	-10957
▁मदुर	-10958
▁वाणी	-10959
▁एरिया	-10960
▁छोड़े	-10961
▁जमाने	-10962
▁मिलान	-10963
▁संजाल	-10964
▁अग्रसर	-10965
▁ग्लोबल	-10966
▁स्पष्टता	-10967
ti	-10968
बुल	-10969
िज़	-10970
मिनी	-10971
▁पैन	-10972
▁गुला	-10973
▁उंगली	-10974
▁फ्रां	-10975
▁श्रवण	-10976
▁काश्मीर	-10977
▁अप्राकृतिक	-10978
ोटो	-10979
वस्था	-10980
▁आशीष	-10981
▁केवी	-10982
दृष्टि	-10983
▁बोलता	-10984
▁आबंटित	-10985
▁एनएसईएल	-10986
▁प्लानिंग	-10987
▁समानांतर	-10988
▁पर्यवेक्षक	-10989
hu	-10990
aul	-10991
▁अप्	-10992
▁दाल	-10993
श्यों	-10994
▁अफसर	-10995
▁पीएच	-10996
▁कोष्ठ	-10997
▁निर्म	-10998
▁महाले	-10999
▁सश्रम	-11000
▁अंसारी	-11001
▁मुख़्य	-11002
▁राजकीय	-11003
▁प्वाइंट	-11004
▁हलफनामों	-11005
ंड़	-11006
▁मता	-11007
▁अनुभ	-11008
▁कुंद	-11009
▁नीला	-11010
▁ब्ले	-11011
▁मुंस	-11012
▁व्यतीत	-11013
▁इंस्ट्रू	-11014
डेट	-11015
नीस	-11016
नेल	-11017
▁शिवा	-11018
▁यमुना	-11019
▁यौगिक	-11020
▁जहाजों	-11021
▁फ़ॉन्ट	-11022
▁सर्वथा	-11023
▁साइटों	-11024
▁जवाबदेही	-11025
▁परिवीक्षाधीन	-11026
▁AD	-11027
▁सप	-11028
▁दखल	-11029
▁WANo	-11030
▁मतों	-11031
▁सीएल	-11032
▁सोलह	-11033
ान्वित	-11034
▁अजनबी	-11035
▁स्राव	-11036
▁नामकरण	-11037
▁वर्ल्ड	-11038
▁आक्रामक	-11039
▁बेटियों	-11040
▁मेगावाट	-11041
▁विकल्पों	-11042
▁व्यवहार्य	-11043
▁कल्याणकारी	-11044
▁भविष्यवाणी	-11045
०ख	-11046
ंकि	-11047
रीद	-11048
ुवा	-11049
▁is	-11050
ालीस	-11051
▁एनआर	-11052
▁जजों	-11053
▁हीरा	-11054
▁दोहरे	-11055
▁पुर्त	-11056
▁रंगों	-11057
▁स्टाक	-11058
▁हल्का	-11059
▁उपरांत	-11060
▁रखेंगे	-11061
▁दुर्भावनापूर्ण	-11062
बै	-11063
दिर	-11064
▁ढूँ	-11065
▁भटक	-11066
लीकरण	-11067
▁Addl	-11068
▁कचरे	-11069
▁किला	-11070
▁मोटी	-11071
▁खातून	-11072
▁मूलतः	-11073
▁उग	-11074
▁सउ	-11075
▁Sun	-11076
▁घटी	-11077
▁नीले	-11078
संबंधी	-11079
▁अपलोड	-11080
▁आलिया	-11081
▁पढ़ते	-11082
▁कंस्ट्र	-11083
▁बागवानी	-11084
▁राधाकृष्णन	-11085
aa	-11086
बिन	-11087
दर्य	-11088
▁एफए	-11089
▁डिप	-11090
▁बूट	-11091
क्ट्स	-11092
ग्राम	-11093
▁अनवर	-11094
▁आन्त	-11095
▁वाष्	-11096
▁असहाय	-11097
▁खाड़ी	-11098
▁खुलने	-11099
▁भीतरी	-11100
िफिकेशन	-11101
▁किराये	-11102
▁औरंगाबाद	-11103
▁भावनात्मक	-11104
MP	-11105
ढा	-11106
ati	-11107
फान	-11108
▁AB	-11109
▁अछ	-11110
वर्ण	-11111
▁कोह	-11112
▁खाई	-11113
▁मन्	-11114
वालों	-11115
▁अम्ल	-11116
▁बगैर	-11117
▁खजाने	-11118
▁तुर्क	-11119
▁बेसिक	-11120
▁दाहिनी	-11121
▁प्रथाओं	-11122
▁टेस्टेट्रिक्स	-11123
घाती	-11124
चनों	-11125
डियम	-11126
िखित	-11127
▁लहर	-11128
▁कोटे	-11129
▁खोजा	-11130
▁बढ़ो	-11131
▁मीना	-11132
▁अतिशय	-11133
▁भयंकर	-11134
▁दिलाया	-11135
▁चुंबकीय	-11136
▁कॉरपोरेशन	-11137
▁रेगिस्तान	-11138
▁प्रतिबंधों	-11139
▁संपार्श्विक	-11140
ort	-11141
▁वड	-11142
▁एमए	-11143
▁नवल	-11144
▁हरित	-11145
▁जरुरी	-11146
▁संदीप	-11147
▁निर्मल	-11148
▁लार्वा	-11149
▁छुटकारा	-11150
▁अनुमानों	-11151
OL	-11152
ram	-11153
वात	-11154
▁OA	-11155
र्शी	-11156
▁खुर	-11157
▁चेन	-11158
▁नसी	-11159
▁नूर	-11160
▁बाघ	-11161
▁मुज	-11162
▁असम्	-11163
▁धुंध	-11164
▁समेत	-11165
▁अड्डे	-11166
▁सुप्र	-11167
▁चंद्रा	-11168
▁सीमांत	-11169
▁मॉड्यूल	-11170
▁सिलसिले	-11171
▁एआईसीटीई	-11172
▁निभ	-11173
▁मॉड	-11174
देशीय	-11175
▁अमीन	-11176
▁दायी	-11177
▁लगीं	-11178
▁नजदीक	-11179
▁बहाना	-11180
▁खाद्या	-11181
▁बेईमान	-11182
▁लागतों	-11183
▁पत्थरों	-11184
▁अज्ञानता	-11185
▁अनुयायियों	-11186
WP	-11187
आइ	-11188
एनओ	-11189
वेद	-11190
न्दी	-11191
▁मेध	-11192
▁रेग	-11193
▁सान	-11194
▁क्षय	-11195
▁एलपीए	-11196
▁जयपुर	-11197
▁नाट्य	-11198
▁करवाया	-11199
▁समुच्च	-11200
▁सांठगांठ	-11201
▁कार्यशाला	-11202
गै	-11203
यो	-11204
सस	-11205
▁At	-11206
▁टु	-11207
ावार	-11208
▁नां	-11209
▁पडा	-11210
▁अभया	-11211
▁रिली	-11212
▁एकांत	-11213
▁एप्ली	-11214
▁ख्याल	-11215
▁अंडमान	-11216
▁मंत्रि	-11217
▁देखेंगे	-11218
▁कॉरपोरेट	-11219
▁शत	-11220
रकों	-11221
▁बुझ	-11222
ंत्रण	-11223
ित्री	-11224
▁जंतु	-11225
▁तटीय	-11226
▁पहना	-11227
▁मामा	-11228
▁जरुरत	-11229
▁भयावह	-11230
▁मेमोर	-11231
▁सेक्स	-11232
▁कैंटीन	-11233
ूलर	-11234
▁कलम	-11235
▁ध्य	-11236
▁वैन	-11237
ाइलों	-11238
▁आंगन	-11239
▁कैसा	-11240
▁बीघा	-11241
▁मंदी	-11242
▁मनीष	-11243
▁सिया	-11244
निर्भर	-11245
▁गोल्ड	-11246
▁निवेद	-11247
▁विकेट	-11248
▁वैद्य	-11249
▁साम्य	-11250
र्तियों	-11251
▁अपवादों	-11252
▁विलंबित	-11253
और	-11254
हम	-11255
ँगा	-11256
भीत	-11257
ॉपी	-11258
इयाँ	-11259
ण्डी	-11260
फिया	-11261
▁जोड	-11262
▁रिप	-11263
▁छड़ी	-11264
▁भूतल	-11265
▁मुहा	-11266
▁स्का	-11267
▁कन्या	-11268
▁बनाएँ	-11269
▁लिस्ट	-11270
▁अंतरंग	-11271
▁चटर्जी	-11272
▁लैंगिक	-11273
▁स्टाम्प	-11274
▁प्रतिभाग	-11275
▁प्रतिरूप	-11276
▁आधुनिकीकरण	-11277
DA	-11278
नोई	-11279
▁Sc	-11280
▁ww	-11281
ogle	-11282
▁Nar	-11283
▁खादी	-11284
▁लाला	-11285
रीक्षक	-11286
ुतीकरण	-11287
▁गांजा	-11288
▁ग्रिड	-11289
▁धैर्य	-11290
▁नाजुक	-11291
ंजक	-11292
▁IC	-11293
▁ओल	-11294
ोदरा	-11295
र्मित	-11296
▁अंधा	-11297
▁दागी	-11298
▁सुझा	-11299
▁कम्पन	-11300
▁कोरिया	-11301
▁मुनाफे	-11302
▁village	-11303
▁अनभिज्ञ	-11304
▁ग्रंथों	-11305
▁वाजपेयी	-11306
▁प्रभारित	-11307
डित	-11308
▁AN	-11309
▁अमी	-11310
▁रिए	-11311
त्तूर	-11312
द्रता	-11313
ालिया	-11314
▁पारस	-11315
▁बहने	-11316
▁शंका	-11317
▁सदमे	-11318
▁साधु	-11319
्रीकरण	-11320
▁Nagar	-11321
▁इंसान	-11322
▁जीतने	-11323
▁अंतररा	-11324
▁अनुज्ञ	-11325
▁बराबरी	-11326
▁सुधारा	-11327
▁व्यापकता	-11328
▁उत्पादकों	-11329
▁संरचनात्मक	-11330
▁प्रविष्टियां	-11331
लयन	-11332
....	-11333
नामी	-11334
ोत्स	-11335
▁पों	-11336
▁एमआर	-11337
▁बैठकर	-11338
▁पासवान	-11339
▁प्रत्यु	-11340
▁स्त्रोत	-11341
▁द्वितीयक	-11342
▁शक्तियाँ	-11343
▁नियन्त्रण	-11344
▁कॉम्प्लेक्स	-11345
ase	-11346
थ्म	-11347
दगी	-11348
ांट	-11349
▁आभ	-11350
बिंद	-11351
▁SRI	-11352
▁धरा	-11353
भावित	-11354
▁असत्य	-11355
▁झुकाव	-11356
▁पर्दा	-11357
▁रूल्स	-11358
▁संघों	-11359
▁सुधीर	-11360
▁निकटतम	-11361
▁प्रधाना	-11362
▁रिपोर्टिंग	-11363
ue	-11364
ash	-11365
खने	-11366
बर्ग	-11367
िपरि	-11368
▁ताक	-11369
▁क्यो	-11370
▁डिवा	-11371
▁मापन	-11372
▁युवक	-11373
▁सूखा	-11374
▁मुल्क	-11375
▁रंगीन	-11376
▁निपटना	-11377
▁मैनेजर	-11378
▁सीरियल	-11379
▁संवितरण	-11380
▁दुर्भाग्यपूर्ण	-11381
ंकार	-11382
गुना	-11383
स्टल	-11384
▁कटि	-11385
▁कमला	-11386
▁केशव	-11387
▁भूषण	-11388
▁रोशन	-11389
▁सिवा	-11390
▁घुटने	-11391
▁पाटिल	-11392
▁ब्रेक	-11393
▁मदुरै	-11394
▁सुचार	-11395
▁निकलते	-11396
▁नागालैंड	-11397
▁पूर्वजों	-11398
▁विज्ञापित	-11399
▁संपूर्णता	-11400
▁पुनर्जीवित	-11401
▁रॉ	-11402
ट्टे	-11403
▁CBI	-11404
▁आरएफ	-11405
▁गुणक	-11406
▁घेरे	-11407
▁युसु	-11408
▁सिंघ	-11409
▁आँखें	-11410
▁पूँजी	-11411
▁कमजोरी	-11412
▁सेनाओं	-11413
▁Panchay	-11414
▁अखबारों	-11415
▁सीमांकन	-11416
▁अब्दुल्ला	-11417
ICT	-11418
न्सी	-11419
०वें	-11420
▁www	-11421
▁उदर	-11422
▁रूढ़	-11423
▁लगाव	-11424
▁लिफा	-11425
▁घटाकर	-11426
▁बोलना	-11427
▁जांचने	-11428
▁लाइनों	-11429
▁सुनीता	-11430
▁हिम्मत	-11431
▁इकाइयां	-11432
▁जल्दबाजी	-11433
▁उत्परिवर्तन	-11434
पृ	-11435
गर्	-11436
▁ओएस	-11437
▁घोल	-11438
▁वेट	-11439
arpur	-11440
मुश्त	-11441
▁डिपो	-11442
▁दस्त	-11443
▁शिरा	-11444
पॉलिटन	-11445
लेरिया	-11446
▁बैटरी	-11447
▁दिखायी	-11448
▁मेधावी	-11449
▁सदियों	-11450
▁सर्जरी	-11451
▁मर्यादा	-11452
▁Panchayat	-11453
▁एप्लीकेशन	-11454
▁मंत्रिपरि	-11455
▁इंश्योरेंस	-11456
▁डबल	-11457
▁रत्	-11458
▁लॉक	-11459
▁RERA	-11460
▁डेढ़	-11461
▁तरंग	-11462
▁ताना	-11463
पतियों	-11464
▁इंस्ट	-11465
▁चालीस	-11466
▁वैश्व	-11467
▁प्रैक्ट	-11468
▁डब्ल्यूपी	-11469
▁क्रियाकलापों	-11470
फू	-11471
हू	-11472
▁पलट	-11473
▁रेंट	-11474
▁नायडू	-11475
▁पड़ते	-11476
▁पावती	-11477
▁कम्युनि	-11478
▁पूर्वानु	-11479
▁सुभाषबाबू	-11480
▁स्टेटमेंट	-11481
▁प्रारम्भिक	-11482
ताई	-11483
नरी	-11484
ुगत	-11485
ख्ता	-11486
र्धा	-11487
श्री	-11488
▁असं	-11489
रोहित	-11490
▁तेजा	-11491
▁पिल्ल	-11492
▁भ्रमण	-11493
▁मंचों	-11494
▁मनगढ़	-11495
▁Google	-11496
▁संक्रमित	-11497
▁कार्यपालक	-11498
▁अंतःस्थापित	-11499
TA	-11500
ard	-11501
ज़्	-11502
▁LW	-11503
ऊंगा	-11504
एक्स	-11505
फ़्त	-11506
्यवश	-11507
▁बास	-11508
▁दुखद	-11509
▁पायल	-11510
▁बैठी	-11511
लिसिटर	-11512
▁खानों	-11513
▁निजाम	-11514
▁परिपथ	-11515
▁बुखार	-11516
▁सिंधी	-11517
▁सैद्ध	-11518
▁स्केच	-11519
▁खींचने	-11520
▁अरुणाचल	-11521
▁कक्षाओं	-11522
▁पंचायती	-11523
▁न्यायपीठ	-11524
ग्न	-11525
▁गर	-11526
▁पण	-11527
र्मी	-11528
▁कोच	-11529
▁पला	-11530
रेक्ट	-11531
ृद्धि	-11532
▁माइन	-11533
▁मेनू	-11534
▁राइट	-11535
▁शाहज	-11536
▁तारों	-11537
▁दर्जे	-11538
▁फारसी	-11539
▁रियाय	-11540
ब्दियों	-11541
ोल्यूशन	-11542
▁जमीनों	-11543
▁दांतों	-11544
▁मलयालम	-11545
▁आवृत्ति	-11546
▁पहुंचना	-11547
▁आर्बिट्रल	-11548
▁गवर्नमेंट	-11549
▁ठेकेदारों	-11550
▁आवश्यकताएं	-11551
▁मेट्रोपॉलिटन	-11552
रणी	-11553
ष्मा	-11554
हाली	-11555
▁छठे	-11556
▁मुक	-11557
▁मोल	-11558
▁सघन	-11559
▁सदर	-11560
ष्टिक	-11561
ष्पीठ	-11562
▁जवान	-11563
▁विस्	-11564
▁यार्ड	-11565
▁व्यंग	-11566
▁क्यूरी	-11567
▁क्लॉज़	-11568
▁चट्टान	-11569
▁शौचालय	-11570
▁आदर्शों	-11571
▁विध्वंस	-11572
▁अनुपलब्ध	-11573
▁इस्लामिक	-11574
▁स्टेशनों	-11575
▁पड़ोसियों	-11576
शर	-11577
▁Am	-11578
वांछ	-11579
▁नाश	-11580
▁वजी	-11581
▁शिल	-11582
▁सत्	-11583
▁समनु	-11584
▁अंकुश	-11585
▁खुराक	-11586
▁डकैती	-11587
▁बनाएं	-11588
▁साहिब	-11589
▁अप्रति	-11590
▁नवाचार	-11591
▁रोस्टर	-11592
२३	-11593
पीओ	-11594
▁GO	-11595
ागार	-11596
▁Par	-11597
▁हता	-11598
▁कुंज	-11599
▁चाबी	-11600
▁त्या	-11601
▁पीले	-11602
▁भेड़	-11603
▁वैसी	-11604
▁सीने	-11605
मिश्रण	-11606
▁जमीनी	-11607
▁सावधि	-11608
▁स्टेज	-11609
▁स्थाय	-11610
▁हास्य	-11611
▁डीलरों	-11612
▁पाएंगे	-11613
▁तकनीकों	-11614
ंछ	-11615
विल	-11616
▁लय	-11617
प्पी	-11618
▁Man	-11619
▁रोब	-11620
रलैंड	-11621
▁दाईं	-11622
▁वल्ल	-11623
▁सुमन	-11624
▁कारित	-11625
▁फैलाव	-11626
▁मनाने	-11627
▁संवर्	-11628
▁आच्छाद	-11629
▁ताजमहल	-11630
▁मनगढ़ंत	-11631
▁आपत्तिजनक	-11632
▁आतंकवादियों	-11633
जना	-11634
▁अड	-11635
▁MAN	-11636
▁दाँ	-11637
▁नक़	-11638
▁Shri	-11639
▁एमवी	-11640
▁गाने	-11641
▁घिरा	-11642
▁सुखद	-11643
▁गुमराह	-11644
▁नवीनीकृत	-11645
▁हड्डियों	-11646
ARA	-11647
ust	-11648
साजी	-11649
▁for	-11650
▁निध	-11651
्यकों	-11652
▁अमित	-11653
▁मृदा	-11654
▁विका	-11655
▁वर्षीय	-11656
▁ऑक्सीजन	-11657
बुद	-11658
▁ae	-11659
▁ढा	-11660
म्मे	-11661
हरों	-11662
हाउस	-11663
▁जले	-11664
▁थलग	-11665
▁कस्ट	-11666
▁ज्वर	-11667
▁नौका	-11668
कुमारी	-11669
▁पाउडर	-11670
▁हफ्ते	-11671
▁बढ़ाते	-11672
▁दीक्षित	-11673
▁पहुंचता	-11674
▁महासचिव	-11675
▁परिष्कृत	-11676
CR	-11677
ुकला	-11678
▁ऊंट	-11679
ंडिंग	-11680
नागरी	-11681
▁बीजी	-11682
▁भद्र	-11683
ानियों	-11684
▁बहनों	-11685
▁सहारे	-11686
▁जापानी	-11687
▁नौसेना	-11688
▁अपमानित	-11689
▁किताबें	-11690
▁अभयारण्य	-11691
▁उद्घोषणा	-11692
▁असिस्टेंट	-11693
▁हस्ताक्षरकर्ता	-11694
▁मरण	-11695
डरेशन	-11696
▁परमा	-11697
▁सउदी	-11698
▁हरीश	-11699
▁चौड़ी	-11700
▁भयभीत	-11701
▁भूकंप	-11702
▁लिखें	-11703
▁पच्चीस	-11704
▁ब्रिता	-11705
▁शृंखला	-11706
▁परिसरों	-11707
▁आकांक्षाओं	-11708
▁पुनर्प्राप्त	-11709
▁इर	-11710
गाँव	-11711
▁करन	-11712
▁बृज	-11713
▁राध	-11714
▁रूट	-11715
▁हज़	-11716
▁एमटी	-11717
▁कपिल	-11718
▁क़ुर	-11719
▁ज़ोन	-11720
▁बोनस	-11721
▁लोकल	-11722
क्ष्मी	-11723
▁मणीलाल	-11724
▁स्पेशल	-11725
▁उत्तेजना	-11726
▁देवेंद्र	-11727
▁मालिकाना	-11728
▁सर्विसेज	-11729
▁परिपक्वता	-11730
▁विस्थापित	-11731
▁बछ	-11732
▁कुला	-11733
▁गाली	-11734
▁पल्ल	-11735
▁मक्का	-11736
▁निकोबार	-11737
▁समाविष्ट	-11738
▁आत्मनिर्भर	-11739
िनो	-11740
▁उकस	-11741
▁जुट	-11742
▁नशे	-11743
▁हीन	-11744
▁Bhag	-11745
▁दाएं	-11746
▁मुड़	-11747
▁सतत्	-11748
▁बैठता	-11749
▁समूचे	-11750
▁पुनर्भ	-11751
▁मुम्बई	-11752
▁ब्रह्मा	-11753
▁सुल्तान	-11754
▁देवनागरी	-11755
▁निविदाओं	-11756
▁कार्मिकों	-11757
ala	-11758
ive	-11759
बैक	-11760
▁एट	-11761
सूरत	-11762
ोग्य	-11763
यार्क	-11764
वश्यक	-11765
▁अनूप	-11766
▁एम्ब	-11767
▁बाँध	-11768
पीडिया	-11769
र्निया	-11770
▁कच्चा	-11771
▁दिखने	-11772
▁दीजिए	-11773
▁पत्तन	-11774
▁लम्बा	-11775
▁अंधेरे	-11776
▁दोषियों	-11777
▁अस्वीकार्य	-11778
▁उपराष्ट्रपति	-11779
चाल	-11780
िती	-11781
▁छल	-11782
▁घसी	-11783
▁भैंस	-11784
स्फीति	-11785
▁खेलों	-11786
▁उकसाने	-11787
▁उत्प्रे	-11788
▁बोर्डों	-11789
▁महत्वाक	-11790
▁इन्होंने	-11791
▁खरीदारों	-11792
जेड	-11793
ेंग	-11794
ोरा	-11795
▁फट	-11796
▁एचएल	-11797
▁कच्छ	-11798
▁गिरि	-11799
▁गोरख	-11800
▁डीएस	-11801
▁मण्डल	-11802
▁एकमुश्त	-11803
▁प्रमोटर	-11804
▁त्रिपुरा	-11805
▁सॉलिसिटर	-11806
▁अभ्यर्थियों	-11807
ov	-11808
ING	-11809
कोण	-11810
लीफ	-11811
नामे	-11812
ल्पी	-11813
▁कन्	-11814
▁टायर	-11815
▁ताला	-11816
▁क्षेञ	-11817
▁चलेगा	-11818
▁धक्का	-11819
▁ध्येय	-11820
▁फील्ड	-11821
▁राजकोष	-11822
▁ग्रेजुए	-11823
▁संरचनाओं	-11824
▁निर्दोषता	-11825
▁सम्बन्धों	-11826
ंटल	-11827
अली	-11828
्वल	-11829
▁जघ	-11830
▁ढ़	-11831
▁कपट	-11832
▁भण्ड	-11833
▁म्यू	-11834
▁सौन्	-11835
▁फीसदी	-11836
▁मंडली	-11837
▁विशेन	-11838
▁संसद्	-11839
▁फॉरेंसिक	-11840
▁ब्रितानी	-11841
▁एल्गोरिथ्म	-11842
TP	-11843
ank	-11844
कने	-11845
ोला	-11846
नीचर	-11847
▁खिस	-11848
▁अनार	-11849
▁असीम	-11850
▁बदलती	-11851
▁मित्त	-11852
▁सरपंच	-11853
▁ज़िम्म	-11854
▁नियोजक	-11855
▁फर्मों	-11856
▁सहेजें	-11857
▁कलाकारों	-11858
▁रजिस्ट्रीकृत	-11859
ैड	-11860
दशा	-11861
▁लख	-11862
▁ऊँच	-11863
▁गरम	-11864
▁बक्	-11865
▁हेल	-11866
ार्मा	-11867
▁अराज	-11868
▁उपजा	-11869
▁विलो	-11870
वर्षीय	-11871
▁बिलास	-11872
▁खनिजों	-11873
▁डिवाइस	-11874
▁मुंसिफ	-11875
धिकारियों	-11876
▁प्रोफाइल	-11877
▁ज्योतिष्पीठ	-11878
गौ	-11879
तरा	-11880
फलक	-11881
पाती	-11882
▁एएम	-11883
▁टोक	-11884
▁राठ	-11885
▁उभरा	-11886
▁रुग्	-11887
▁अवांछ	-11888
▁किसके	-11889
▁क्लिन	-11890
▁पक्का	-11891
▁उपासना	-11892
▁कुर्सी	-11893
▁चिन्ता	-11894
▁राजदूत	-11895
▁एकरूपता	-11896
▁रिवाजों	-11897
▁विरोधाभासों	-11898
sa	-11899
ैप	-11900
▁रची	-11901
▁रोट	-11902
▁हकी	-11903
▁एनएच	-11904
▁सिंड	-11905
▁अठारह	-11906
▁कृतियों	-11907
▁गोस्वामी	-11908
▁वाशिंगटन	-11909
▁उपन्यासों	-11910
इंग	-11911
चों	-11912
▁ex	-11913
राहट	-11914
▁Cri	-11915
▁विज़	-11916
▁निकली	-11917
▁अदायगी	-11918
▁बैठकें	-11919
▁भ्रमित	-11920
▁चिंताओं	-11921
▁द्वीपों	-11922
▁विधिज्ञ	-11923
▁संप्रेषण	-11924
▁स्ट्रिंग	-11925
▁सुपुर्दगी	-11926
HI	-11927
हमी	-11928
्ये	-11929
देड़	-11930
भोगी	-11931
ेंटल	-11932
▁गाज	-11933
▁डिब	-11934
▁मथु	-11935
▁उठने	-11936
▁टीएस	-11937
▁मेला	-11938
▁वेंक	-11939
▁साफ़	-11940
▁गुलाब	-11941
▁लीजिए	-11942
▁फाइलों	-11943
▁राजवंश	-11944
▁अनुयायी	-11945
▁पर्वतीय	-11946
▁सैकड़ों	-11947
▁शुक्राणु	-11948
▁पंक्तियों	-11949
▁वसीयतनामा	-11950
ुए	-11951
▁कॉफी	-11952
▁निवल	-11953
▁मैरी	-11954
▁रावण	-11955
▁चौड़ा	-11956
▁जिंदा	-11957
▁नोड्स	-11958
▁भिक्ष	-11959
▁मोहित	-11960
▁हममें	-11961
▁निपटाए	-11962
▁रुकावट	-11963
▁रॉयल्टी	-11964
▁जिम्मेदारियों	-11965
▁De	-11966
ियाई	-11967
▁टेल	-11968
▁सेठ	-11969
▁अभिस	-11970
▁डीआई	-11971
▁शोधन	-11972
▁खुदाई	-11973
▁घटिया	-11974
▁पदनाम	-11975
▁यूएसए	-11976
▁हिमनद	-11977
स्थापना	-11978
▁अधिष्ठ	-11979
▁जनगणना	-11980
▁ज़रूरी	-11981
▁रिक्शा	-11982
▁कित्तूर	-11983
▁घटनाक्रम	-11984
▁एंटरप्राइ	-11985
▁संभाव्यता	-11986
RL	-11987
ob	-11988
ana	-11989
भंग	-11990
ैनी	-11991
नाइट	-11992
▁छठी	-11993
▁राख	-11994
▁इण्ड	-11995
▁डीपी	-11996
▁मानद	-11997
▁वाटर	-11998
▁SARFA	-11999
▁ईरानी	-12000
▁ऊँचाई	-12001
▁कारपो	-12002
▁बहनोई	-12003
▁शिफ्ट	-12004
▁समतुल	-12005
▁अन्वेष	-12006
▁अमूर्त	-12007
▁जंगलों	-12008
▁संलिप्त	-12009
▁अभ्यर्थी	-12010
▁उदासीनता	-12011
▁एमबीबीएस	-12012
▁नवान्वेषी	-12013
▁उपयोगकर्ताओं	-12014
▁कार्यप्रणाली	-12015
GA	-12016
MA	-12017
rd	-12018
गेट	-12019
लाभ	-12020
कुशल	-12021
▁शिष	-12022
▁अंडा	-12023
▁इंग्	-12024
▁तेरह	-12025
▁लाते	-12026
▁डेबिट	-12027
▁पुण्य	-12028
▁मूल्या	-12029
▁समग्रता	-12030
▁वास्तुकला	-12031
फन	-12032
ESI	-12033
क्म	-12034
▁RO	-12035
▁Un	-12036
▁छी	-12037
ited	-12038
▁अपव	-12039
िलोकन	-12040
▁पेंट	-12041
▁पौधा	-12042
▁पौरा	-12043
▁बीआई	-12044
▁माधव	-12045
▁पत्रक	-12046
▁हाजिर	-12047
▁आईसीटी	-12048
▁ग्रंथि	-12049
▁स्थावर	-12050
▁समुच्चय	-12051
▁अभिलिखित	-12052
▁महाकाव्य	-12053
▁राष्ट्रीयता	-12054
जनल	-12055
फुस	-12056
▁रौ	-12057
▁एसए	-12058
▁गिल	-12059
▁मोन	-12060
▁अनूठ	-12061
▁खोली	-12062
▁ज़ोर	-12063
▁बहुप	-12064
▁मोटा	-12065
▁स्कू	-12066
▁आसन्न	-12067
▁किश्त	-12068
▁जायगा	-12069
▁दोहरी	-12070
▁अनुभवी	-12071
▁एनेक्स	-12072
▁प्ररूप	-12073
▁करोड़ों	-12074
▁निष्पादक	-12075
to	-12076
तुर	-12077
▁RA	-12078
▁उठी	-12079
ामीटर	-12080
▁घंटा	-12081
▁भरना	-12082
▁ममता	-12083
▁लेगी	-12084
ापूर्ण	-12085
▁बयानी	-12086
▁सुंदरता	-12087
▁हाइड्रो	-12088
▁संक्रामक	-12089
▁श्रीकृष्ण	-12090
▁पक्षपातपूर्ण	-12091
CO	-12092
ोगी	-12093
बानी	-12094
▁Com	-12095
ुलेंस	-12096
▁कलाम	-12097
▁्याय	-12098
▁रिसर्च	-12099
▁सत्तार	-12100
▁सम्प्र	-12101
▁बुद्धिम	-12102
▁पत्तियों	-12103
▁अतिमानसिक	-12104
▁न्यूयार्क	-12105
▁सशक्तीकरण	-12106
आन	-12107
गृह	-12108
थिक	-12109
तदार	-12110
लाइट	-12111
ॉर्क	-12112
▁सक्	-12113
▁आहरण	-12114
▁कांच	-12115
▁सोनू	-12116
र्ताओं	-12117
▁अभिषेक	-12118
▁गुलाबी	-12119
▁फर्स्ट	-12120
▁वीआरएस	-12121
▁आस्तियां	-12122
▁क्षेत्रक	-12123
▁वीरेंद्र	-12124
▁कार्यकलाप	-12125
▁अनियमितताओं	-12126
▁प्रत्युत्तर	-12127
▁प्राप्तकर्ता	-12128
URU	-12129
arb	-12130
गरीय	-12131
फॉर्म	-12132
▁अष्ट	-12133
▁टेबल	-12134
मुक्ति	-12135
▁कामया	-12136
▁जघन्य	-12137
▁मेहरा	-12138
▁लगाये	-12139
▁अकाउंट	-12140
▁परंतुक	-12141
▁बढ़ाता	-12142
▁रिव्यू	-12143
▁निर्वाचक	-12144
▁इलेक्ट्रॉनिक्स	-12145
ग्व	-12146
फिक	-12147
िरि	-12148
▁Dr	-12149
▁हौ	-12150
जेशन	-12151
ोगिक	-12152
▁CAV	-12153
▁ईंट	-12154
▁धरो	-12155
▁भरण	-12156
भक्ति	-12157
स्करी	-12158
▁क्षी	-12159
▁उपनिष	-12160
▁क़्या	-12161
▁नतीजे	-12162
▁वेदों	-12163
▁शारदा	-12164
▁चंपारण	-12165
▁म्यूटेशन	-12166
▁पहाड़ियों	-12167
यता	-12168
▁आं	-12169
ंसित	-12170
▁झोप	-12171
▁तैर	-12172
▁वृह	-12173
▁स्फ	-12174
▁इनको	-12175
▁कड़े	-12176
▁कलंक	-12177
▁क्रू	-12178
▁थैली	-12179
▁भावा	-12180
▁मारी	-12181
▁भगवती	-12182
▁सविता	-12183
▁संभाला	-12184
▁समाजों	-12185
▁जीवनकाल	-12186
▁प्रोसेस	-12187
▁घुमावदार	-12188
▁प्रमाणों	-12189
▁रामकृष्ण	-12190
▁अपेक्षाओं	-12191
ुद	-12192
iya	-12193
ख्श	-12194
स्ड	-12195
▁थक	-12196
हिया	-12197
▁मिड	-12198
त्थान	-12199
▁औषधीय	-12200
▁बीजों	-12201
▁ख्याति	-12202
▁कार्रवा	-12203
▁फर्नीचर	-12204
▁्	-12205
ara	-12206
has	-12207
ंजित	-12208
ज्जा	-12209
▁लाद	-12210
▁वेल	-12211
▁साओ	-12212
कर्मी	-12213
▁ग्ला	-12214
▁दशरथ	-12215
▁दाता	-12216
▁शेखर	-12217
▁मार्शल	-12218
▁संकलित	-12219
▁अनुबंधित	-12220
▁बिलासपुर	-12221
▁कीटनाशकों	-12222
▁प्रतिज्ञा	-12223
▁स्थानापन्न	-12224
▁कार्यक्षेत्र	-12225
ोन्	-12226
▁PM	-12227
गारी	-12228
▁Sam	-12229
▁अनप	-12230
▁राघ	-12231
▁्या	-12232
नीयता	-12233
▁पतली	-12234
▁अंशों	-12235
▁केलिए	-12236
▁क्रिस	-12237
▁बहुधा	-12238
▁माणिक	-12239
▁व्यतिक	-12240
▁सम्मुख	-12241
▁अक्षरों	-12242
▁तर्कहीन	-12243
▁रिएक्टर	-12244
▁प्रॉक्सी	-12245
▁अंतरात्मा	-12246
▁लाभान्वित	-12247
▁उद्देश्यपूर्ण	-12248
द्घ	-12249
मपुर	-12250
ावती	-12251
▁एंथ	-12252
▁कुद	-12253
▁चचे	-12254
▁नोए	-12255
▁भाँ	-12256
गाड़ी	-12257
जेक्ट	-12258
निर्ण	-12259
बंधित	-12260
▁Page	-12261
▁अभिश	-12262
▁कब्र	-12263
▁पराग	-12264
▁बेलग	-12265
▁सपने	-12266
ेंडेंट	-12267
▁बिल्ड	-12268
▁युग्म	-12269
▁रिवाज	-12270
▁सवारी	-12271
▁सद्भाव	-12272
ृत्तियों	-12273
▁दुर्भाग	-12274
▁राजेन्द्र	-12275
tt	-12276
मू	-12277
बाज़	-12278
वारे	-12279
िकार	-12280
▁खां	-12281
▁पूल	-12282
▁पेन	-12283
▁फेश	-12284
▁बायो	-12285
▁रखाव	-12286
▁सपना	-12287
ट्समैन	-12288
ड़ियां	-12289
▁केमिक	-12290
▁बीतने	-12291
त्साहित	-12292
▁कर्त्त	-12293
▁भूमिगत	-12294
▁पौराणिक	-12295
▁संस्थापन	-12296
▁डिस्ट्रिक	-12297
ंसल	-12298
ामु	-12299
▁आगम	-12300
▁थाः	-12301
▁दाद	-12302
▁नाख	-12303
▁राउ	-12304
▁इटली	-12305
▁ज्यू	-12306
▁डिफॉ	-12307
▁डीसी	-12308
▁ढलान	-12309
▁नवाब	-12310
▁मोचन	-12311
▁यूके	-12312
▁लगों	-12313
▁आठवीं	-12314
▁उदारी	-12315
▁बनारस	-12316
▁तस्करी	-12317
▁मारुति	-12318
▁आन्तरिक	-12319
▁जालसाजी	-12320
▁परित्याग	-12321
▁पत्रिकाओं	-12322
▁सहिष्णुता	-12323
▁साधारणतया	-12324
▁अत्यावश्यक	-12325
▁उत्तरवर्ती	-12326
▁विमानक्षेत्र	-12327
▁प्रतिनिधिमंडल	-12328
ge	-12329
ोभ	-12330
तौर	-12331
दरी	-12332
लील	-12333
वित	-12334
ल्टा	-12335
ारसी	-12336
▁पीट	-12337
योग्य	-12338
विन्द	-12339
▁कुएं	-12340
▁ठंडा	-12341
▁बदली	-12342
▁मेले	-12343
▁विशा	-12344
▁श्ले	-12345
तानुसार	-12346
▁उपद्रव	-12347
▁नरसिंह	-12348
▁स्नायु	-12349
▁अभिनेता	-12350
▁सौन्दर्य	-12351
▁औपचारिकताओं	-12352
▁प्रोग्रामिंग	-12353
SE	-12354
डक	-12355
▁Mu	-12356
लनों	-12357
सूची	-12358
▁Bal	-12359
स्टोन	-12360
▁पतला	-12361
▁मप्र	-12362
▁माथे	-12363
▁चालुक	-12364
▁नाभिक	-12365
▁बदलता	-12366
▁बूढ़े	-12367
▁रवैया	-12368
▁सेवार	-12369
▁वियतना	-12370
▁विलम्ब	-12371
▁शाश्वत	-12372
▁फैक्ट्री	-12373
▁अनिश्चितता	-12374
▁प्रोफार्मा	-12375
▁मंत्रिपरिषद	-12376
▁आपूर्तिकर्ता	-12377
▁व्याख्याताओं	-12378
ok	-12379
सेफ	-12380
क्षे	-12381
चकों	-12382
प्पू	-12383
स्तर	-12384
▁भला	-12385
▁मिठ	-12386
▁अमूल	-12387
▁इष्ट	-12388
▁कन्ह	-12389
▁कॉमन	-12390
▁क्रा	-12391
▁जीता	-12392
▁सरोज	-12393
प्रसाद	-12394
▁उकसाया	-12395
▁ग्रीवा	-12396
▁प्रातः	-12397
▁बहुसंख	-12398
▁संकेतक	-12399
▁अवशिष्ट	-12400
▁समझदारी	-12401
▁निर्यातक	-12402
▁ब्राउज़र	-12403
▁सब्जियों	-12404
▁पंचवर्षीय	-12405
▁विज्ञापनों	-12406
▁विश्वव्यापी	-12407
ंपल	-12408
ध्द	-12409
शों	-12410
▁co	-12411
एंगे	-12412
खानों	-12413
ियनों	-12414
▁आभास	-12415
▁कचरा	-12416
▁केएस	-12417
▁गलतफ	-12418
▁निशा	-12419
▁बॉडी	-12420
▁माउस	-12421
▁अय्यर	-12422
▁ओसीसी	-12423
▁मुर्ग	-12424
▁अस्त्र	-12425
▁एकाग्र	-12426
▁दुबारा	-12427
▁निकलती	-12428
▁मुद्रक	-12429
▁एनआईओएस	-12430
▁मार्गों	-12431
▁लाइब्रे	-12432
▁स्तंभों	-12433
▁प्रशिक्षु	-12434
▁परिसंपत्ति	-12435
▁क्रियान्वित	-12436
’’	-12437
रोह	-12438
▁Ac	-12439
▁RF	-12440
डीआर	-12441
▁अरे	-12442
▁एमई	-12443
▁फंस	-12444
▁मुव	-12445
गोशिए	-12446
▁गाइड	-12447
▁दलित	-12448
▁मुर्	-12449
▁लम्ब	-12450
▁समतल	-12451
▁तटस्थ	-12452
▁मिल्स	-12453
▁सज्जन	-12454
▁उन्मुख	-12455
▁जिन्ना	-12456
▁पात्रों	-12457
▁रिक्तियां	-12458
▁ज्योतिर्मठ	-12459
ान्	-12460
▁OP	-12461
ipur	-12462
▁अपा	-12463
▁आदम	-12464
▁इंप	-12465
▁चीख	-12466
त्रिक	-12467
त्विक	-12468
दाश्त	-12469
▁अतुल	-12470
▁जीएस	-12471
▁व्रत	-12472
▁उल्टी	-12473
▁एनओसी	-12474
▁पीड़क	-12475
▁पेरिस	-12476
▁पहुंचती	-12477
▁मार्क्स	-12478
▁नामनिर्देश	-12479
EG	-12480
मयी	-12481
▁कद	-12482
स्टन	-12483
▁खेला	-12484
▁पंकज	-12485
▁मामल	-12486
▁सर्प	-12487
▁कीमती	-12488
▁दशाओं	-12489
▁तालमेल	-12490
▁नोकिया	-12491
▁परिवाद	-12492
▁यूनानी	-12493
▁रसीदें	-12494
▁जबरदस्त	-12495
▁तत्संबंधी	-12496
▁प्रेमचन्द	-12497
२४	-12498
ide	-12499
प्रो	-12500
ब्बी	-12501
▁Dev	-12502
▁आरओ	-12503
▁एबी	-12504
▁दुब	-12505
▁उभार	-12506
▁एसएल	-12507
▁पद्य	-12508
▁पीके	-12509
▁वृंद	-12510
▁सजीव	-12511
▁नोएडा	-12512
▁व्हिप	-12513
▁किस्मों	-12514
▁प्रशस्त	-12515
▁सुप्रीम	-12516
व्यवस्थित	-12517
▁द्विवेदी	-12518
▁शताब्दियों	-12519
▁प्रक्रियाएं	-12520
िके	-12521
ेषण	-12522
▁पैद	-12523
जमेंट	-12524
▁गायक	-12525
▁निष्ठ	-12526
▁अधिमान	-12527
▁मुर्गी	-12528
▁सर्किल	-12529
▁एजेंटों	-12530
▁दुकानें	-12531
▁पत्रकार	-12532
▁पुनर्विलोकन	-12533
▁लाभार्थियों	-12534
तत्व	-12535
▁कशे	-12536
▁टेन	-12537
▁बहू	-12538
▁लिस	-12539
कार्य	-12540
गृहीत	-12541
▁चंदर	-12542
▁स्लम	-12543
▁कराते	-12544
▁पाउंड	-12545
▁मियां	-12546
▁मित्रा	-12547
▁संज्ञा	-12548
▁वचनबद्ध	-12549
▁समनुदेश	-12550
▁समाजवाद	-12551
स्ट्रक्चर	-12552
▁उपेक्षित	-12553
▁सैद्धांतिक	-12554
▁डिस्ट्रिक्ट	-12555
▁प्रत्यायोजित	-12556
ोगा	-12557
ance	-12558
▁अस्	-12559
▁उषा	-12560
▁एआर	-12561
▁मों	-12562
▁सिड	-12563
▁कैंप	-12564
▁चढ़ा	-12565
▁डिजी	-12566
▁निःश	-12567
▁मच्छ	-12568
▁हरेक	-12569
न्यासी	-12570
▁चावला	-12571
▁बंदोब	-12572
▁भावों	-12573
▁मथुरा	-12574
▁लॉन्च	-12575
▁खुफिया	-12576
▁पीएमएलए	-12577
▁अनुपयुक्त	-12578
▁एग्रीमेंट	-12579
किया	-12580
लिटी	-12581
▁ईआर	-12582
▁बेग	-12583
▁लिम	-12584
▁अन्र	-12585
▁ईश्व	-12586
▁काटा	-12587
▁त्यौ	-12588
▁वसंत	-12589
्वेस्ट	-12590
▁कालाव	-12591
▁पहलों	-12592
▁लिखकर	-12593
▁रिफाइन	-12594
▁वैल्यू	-12595
▁पुत्रों	-12596
▁प्राप्य	-12597
▁SARFAESI	-12598
▁चक्रवर्ती	-12599
मस्त	-12600
▁कटे	-12601
ग्रही	-12602
▁कतार	-12603
▁चपरा	-12604
▁भूरे	-12605
▁छिड़क	-12606
▁धरोहर	-12607
▁नम्बर	-12608
▁पंचांग	-12609
▁फैलाने	-12610
▁वडोदरा	-12611
▁इंग्लिश	-12612
▁दोहराते	-12613
▁करनेवाले	-12614
▁प्रेमचंद	-12615
▁उम्मीदवारी	-12616
▁श्रद्धांजलि	-12617
एफए	-12618
देय	-12619
ॉयस	-12620
▁मय	-12621
▁रवै	-12622
▁सप्	-12623
▁ऑर्स	-12624
▁छत्र	-12625
▁ट्रॉ	-12626
▁विंग	-12627
▁सियार	-12628
गोशिएबल	-12629
▁अनुरुप	-12630
▁अमृतसर	-12631
▁अलंकरण	-12632
▁बहुलता	-12633
▁आच्छादित	-12634
▁उपयुक्तता	-12635
▁न्यायपूर्ण	-12636
ॉं	-12637
ore	-12638
▁बाण	-12639
▁बेन	-12640
▁राग	-12641
▁शॉप	-12642
▁सफ़	-12643
alpur	-12644
▁अन्ध	-12645
▁उठते	-12646
▁जमाव	-12647
▁टोकन	-12648
▁डालें	-12649
▁उन्नीस	-12650
▁एलपीजी	-12651
▁कंडक्टर	-12652
▁पार्टनर	-12653
▁पार्किंग	-12654
▁महाद्वीप	-12655
▁रिफाइनरी	-12656
UN	-12657
टि	-12658
ड्र	-12659
रां	-12660
▁GA	-12661
ंट्स	-12662
जिनी	-12663
▁ईएम	-12664
▁मौस	-12665
▁लिक	-12666
▁लॉज	-12667
▁शां	-12668
▁सला	-12669
▁गोपी	-12670
▁द्रो	-12671
▁नायर	-12672
▁बसंत	-12673
▁अहसास	-12674
▁आंत्र	-12675
▁बढाने	-12676
▁मुंडा	-12677
▁रहमान	-12678
▁सेवारत	-12679
▁अधिकथित	-12680
▁निर्वास	-12681
▁पुरोहित	-12682
▁अवस्थाओं	-12683
▁बहिष्करण	-12684
▁संन्यासी	-12685
▁अव्यवस्था	-12686
जक	-12687
ढी	-12688
टित	-12689
फीक	-12690
िसे	-12691
्मित	-12692
१वें	-12693
▁टूल	-12694
भागीय	-12695
▁अंगी	-12696
▁जेएन	-12697
▁दयाल	-12698
▁वीणा	-12699
▁कथाओं	-12700
▁पत्ते	-12701
▁फोटोक	-12702
▁वर्गा	-12703
▁निकलना	-12704
▁बारीकी	-12705
▁स्वरुप	-12706
▁वृक्षों	-12707
▁समतुल्य	-12708
▁अधिकरणों	-12709
▁अनुशंसित	-12710
▁धर्मशाला	-12711
▁खाद्यान्न	-12712
▁विवेकानंद	-12713
mis	-12714
चड़	-12715
झान	-12716
▁LJ	-12717
दानी	-12718
ावरी	-12719
ोसिस	-12720
▁बीर	-12721
▁लती	-12722
▁वाउ	-12723
्रियल	-12724
▁डीजल	-12725
क्षरों	-12726
▁महाजन	-12727
▁मिलों	-12728
▁चपरासी	-12729
▁तत्समय	-12730
▁फिटनेस	-12731
▁फेंकने	-12732
▁महासभा	-12733
▁विधायक	-12734
▁खुशहाली	-12735
▁फेफड़ों	-12736
▁साप्ताह	-12737
▁पैकेजिंग	-12738
▁सुव्यवस्थित	-12739
बाध	-12740
भवन	-12741
मोन	-12742
लता	-12743
▁ओज	-12744
▁वफ	-12745
तमंद	-12746
▁MFA	-12747
▁आइस	-12748
▁तीर	-12749
▁पिर	-12750
▁महि	-12751
पुत्र	-12752
ल्कों	-12753
▁गांठ	-12754
▁रेणु	-12755
मास्टर	-12756
▁जवाहर	-12757
▁जिनको	-12758
▁द्वेष	-12759
▁सुनते	-12760
▁अल्लाह	-12761
▁कैपिटल	-12762
▁क्योकि	-12763
▁निम्नतर	-12764
▁प्रोफ़ाइल	-12765
▁साम्राज्यवाद	-12766
सक	-12767
हु	-12768
ORE	-12769
▁खेद	-12770
▁चाइ	-12771
▁एलसी	-12772
▁गुड़	-12773
▁फ़िर	-12774
स्तरीय	-12775
▁Chrom	-12776
▁कथनों	-12777
▁कुष्ठ	-12778
▁कोनों	-12779
▁बनेगा	-12780
▁महोदय	-12781
▁शिश्न	-12782
▁एक्सपी	-12783
▁दर्शित	-12784
▁दिखाती	-12785
▁अवरुद्ध	-12786
▁पैदावार	-12787
▁एक्सट्रीम	-12788
▁साप्ताहिक	-12789
▁एंटरप्राइज	-12790
ans	-12791
ine	-12792
प्सी	-12793
मुझे	-12794
▁बकर	-12795
▁बिख	-12796
▁क्रे	-12797
▁गाथा	-12798
▁तरफ़	-12799
▁महार	-12800
▁जीवनी	-12801
▁नक्शे	-12802
▁हुबली	-12803
▁बढ़िया	-12804
▁मित्तल	-12805
▁राजपूत	-12806
▁स्क्री	-12807
▁अनुशंसा	-12808
▁दुराचार	-12809
▁राजनयिक	-12810
▁टेक्नोलॉजी	-12811
▁प्रयोगशालाओं	-12812
wa	-12813
्यम	-12814
▁al	-12815
पाली	-12816
▁पौध	-12817
चर्या	-12818
रेटरी	-12819
र्जित	-12820
▁इजाज	-12821
▁यानि	-12822
▁सबका	-12823
▁साउथ	-12824
ान्तरण	-12825
▁उठाता	-12826
▁नवजात	-12827
▁लुप्त	-12828
▁असीमित	-12829
▁प्रकटन	-12830
▁लेक्चर	-12831
▁सांसार	-12832
▁स्कूली	-12833
▁त्यौहार	-12834
▁युग्मित	-12835
▁आत्मघाती	-12836
▁शुक्रवार	-12837
▁कंस्ट्रक्शन	-12838
▁कॉन्ट्रैक्ट	-12839
ोधन	-12840
खोरी	-12841
▁निम	-12842
ंबद्ध	-12843
▁जीएम	-12844
▁बापू	-12845
▁मेजर	-12846
▁वृहत	-12847
नारायण	-12848
▁उभरती	-12849
▁कस्टम	-12850
▁जरिये	-12851
▁मैथुन	-12852
▁रेस्त	-12853
▁आरबीआई	-12854
▁उदारता	-12855
▁दिवंगत	-12856
▁पाश्चा	-12857
▁बर्बाद	-12858
▁श्रव्य	-12859
▁ऑपरेटिंग	-12860
▁राज्यसभा	-12861
▁इंजीनियरों	-12862
LR	-12863
काय	-12864
मणि	-12865
लिन	-12866
▁बोत	-12867
▁हनी	-12868
▁बोना	-12869
▁संसू	-12870
▁साम्	-12871
▁कालीन	-12872
▁समरूप	-12873
▁कॉन्फ़	-12874
▁चीज़ों	-12875
▁महाजार	-12876
▁कट्टरपंथी	-12877
▁संलिप्तता	-12878
▁उत्तरार्द्ध	-12879
ng	-12880
काए	-12881
टूर	-12882
▁sa	-12883
फाइड	-12884
▁उपच	-12885
▁चाँ	-12886
▁निज	-12887
वस्तु	-12888
▁ड्रा	-12889
▁बहती	-12890
▁बेतु	-12891
▁रखनी	-12892
▁अधूरा	-12893
▁अयस्क	-12894
▁कवरेज	-12895
▁भूगोल	-12896
▁गणितीय	-12897
▁डिमांड	-12898
▁किताबों	-12899
▁निर्बाध	-12900
▁स्टार्ट	-12901
▁उत्तराखंड	-12902
▁संवेदनशीलता	-12903
aoM	-12904
महा	-12905
ोंक	-12906
▁लव	-12907
▁नबी	-12908
▁फ़र	-12909
▁वरु	-12910
तावास	-12911
ोत्सव	-12912
▁दराज	-12913
▁पेटी	-12914
▁फ़ोन	-12915
▁बरती	-12916
▁अनजान	-12917
▁उपवास	-12918
▁कंकाल	-12919
▁सीखना	-12920
▁अधिनयम	-12921
▁अधिभोग	-12922
▁सर्कुलर	-12923
▁वर्गाकार	-12924
▁अपार्टमेंट	-12925
बनी	-12926
▁Co	-12927
▁डिक	-12928
▁मर्	-12929
▁शाक	-12930
▁कान्	-12931
▁श्या	-12932
▁चैनलों	-12933
▁फोल्डर	-12934
▁रीडिंग	-12935
▁कन्हैया	-12936
▁परिजनों	-12937
▁रोज़गार	-12938
▁अंशकालिक	-12939
▁पीढ़ियों	-12940
▁छात्रावास	-12941
यास	-12942
ादे	-12943
▁खज	-12944
चेतन	-12945
प्पन	-12946
ूलाल	-12947
त्तों	-12948
पृष्ठ	-12949
▁East	-12950
▁आईपी	-12951
▁इन्स	-12952
▁उंगल	-12953
▁एजें	-12954
▁जांघ	-12955
▁रिंग	-12956
▁अभ्या	-12957
▁आवधिक	-12958
▁इजाजत	-12959
▁कुप्र	-12960
▁डालती	-12961
▁पप्पू	-12962
▁पित्त	-12963
▁वर्गम	-12964
▁फिरौती	-12965
▁सीलबंद	-12966
▁हालिया	-12967
▁रामलिंग	-12968
▁संस्थित	-12969
▁वर्षगांठ	-12970
▁प्रक्षेपण	-12971
SC	-12972
कुम	-12973
षाण	-12974
ामस	-12975
ेंडम	-12976
▁असे	-12977
▁गड्	-12978
▁जनस	-12979
▁पेर	-12980
▁सीओ	-12981
कर्षण	-12982
▁खर्चा	-12983
▁पार्व	-12984
▁मुरली	-12985
▁राक्ष	-12986
▁बेलगाम	-12987
▁गलतफहमी	-12988
▁साफ्टवेयर	-12989
▁सांख्यिकीय	-12990
▁त्रुटिपूर्ण	-12991
▁मान्यताप्राप्त	-12992
पस	-12993
भ्र	-12994
▁’’	-12995
ंजलि	-12996
ुकता	-12997
▁खली	-12998
▁जलन	-12999
▁नाच	-13000
▁साय	-13001
▁हिट	-13002
ोलनों	-13003
▁उमेश	-13004
▁एलएल	-13005
▁घाटे	-13006
▁चेतन	-13007
▁टिकी	-13008
▁नामं	-13009
▁मीरा	-13010
▁नगरों	-13011
▁पसन्द	-13012
▁विक्ष	-13013
▁सुनाए	-13014
▁एकान्त	-13015
▁कानूनन	-13016
▁कुत्ते	-13017
▁जोड़ता	-13018
▁तीक्ष्	-13019
▁दिखाएगा	-13020
▁सांसारिक	-13021
्रास्ट्रक्चर	-13022
इटर	-13023
मैं	-13024
सिस	-13025
्सा	-13026
hara	-13027
▁मल्	-13028
विंदर	-13029
▁भीषण	-13030
▁वफाद	-13031
▁परिशि	-13032
▁भागते	-13033
▁माउंट	-13034
▁वायदा	-13035
▁समयाव	-13036
▁डेवलपर	-13037
▁न्यासी	-13038
▁प्रलेख	-13039
▁साहसिक	-13040
निरपेक्ष	-13041
▁ग्रीष्म	-13042
▁संभवतया	-13043
▁पुरस्कृत	-13044
▁फोटोकॉपी	-13045
▁विश्लेषक	-13046
▁व्यक़्ति	-13047
▁निगोशिएबल	-13048
▁प्रत्याशा	-13049
KA	-13050
धना	-13051
मनी	-13052
माइ	-13053
वाइ	-13054
ोली	-13055
▁शन	-13056
ions	-13057
▁बहि	-13058
▁हमी	-13059
▁एलडी	-13060
▁कुंड	-13061
▁बालू	-13062
▁रोबोट	-13063
▁उल्लास	-13064
▁जबलपुर	-13065
▁उच्छेदन	-13066
▁गेंदबाज	-13067
▁उपनियमों	-13068
▁केन्द्री	-13069
▁ग्लोरिया	-13070
▁प्रशासित	-13071
▁रिटर्निंग	-13072
ौड़	-13073
▁NI	-13074
▁KAR	-13075
▁एलए	-13076
▁ऑर्	-13077
▁खोद	-13078
▁रमन	-13079
▁देसी	-13080
▁गायों	-13081
▁बढावा	-13082
▁बदलकर	-13083
▁जुड़ने	-13084
▁शिवाजी	-13085
▁शपथपत्र	-13086
▁समारोहों	-13087
शाक	-13088
▁we	-13089
abad	-13090
टीएस	-13091
ादान	-13092
▁खाट	-13093
▁जनन	-13094
▁ढोल	-13095
▁पीर	-13096
▁फोक	-13097
▁लसी	-13098
▁करोड	-13099
▁डीजी	-13100
▁लाये	-13101
▁हाथा	-13102
▁जड़ें	-13103
▁पोषित	-13104
▁ह्रास	-13105
▁चेष्टा	-13106
▁मानसून	-13107
▁मैदानों	-13108
▁शिष्यों	-13109
▁कार्यशील	-13110
▁झाड़ियों	-13111
▁ट्रैकिंग	-13112
▁सिद्धदोष	-13113
▁फोटोग्राफ	-13114
▁स्वायत्तता	-13115
▁प्रामाणिकता	-13116
शिक	-13117
ूढ़	-13118
▁cr	-13119
शियल	-13120
▁अशु	-13121
▁घुड़	-13122
▁टकरा	-13123
▁डिपॉ	-13124
▁धनुष	-13125
▁बुजु	-13126
▁मैके	-13127
▁रीढ़	-13128
▁DISTR	-13129
▁कर्मी	-13130
▁क्रोम	-13131
▁छोड़ी	-13132
▁परिणत	-13133
▁पर्ची	-13134
▁मिलें	-13135
▁वायरस	-13136
▁सुझाए	-13137
▁परोक्ष	-13138
▁मुन्ना	-13139
▁फाइनेंस	-13140
▁सराहनीय	-13141
▁प्राचार्य	-13142
▁विकिपीडिया	-13143
▁न्यायाधिकरणों	-13144
ऑफ	-13145
तेह	-13146
▁नृ	-13147
▁Lal	-13148
▁REV	-13149
▁फास	-13150
भाषित	-13151
▁एनबी	-13152
▁प्रज	-13153
▁रोना	-13154
▁स्वत	-13155
▁हमास	-13156
▁WPNos	-13157
▁अकेली	-13158
▁जार्ज	-13159
▁मुनाफा	-13160
▁फेडरेशन	-13161
▁वर्गमूल	-13162
▁आवंटियों	-13163
▁कहानियां	-13164
तव	-13165
्क	-13166
ell	-13167
काई	-13168
लीस	-13169
सरी	-13170
समूह	-13171
▁एनई	-13172
▁मसू	-13173
▁मैथ	-13174
▁यदु	-13175
शासित	-13176
▁अंचल	-13177
▁अंदा	-13178
▁चुनि	-13179
▁रंगा	-13180
eshwar	-13181
▁अमिता	-13182
▁डेंटल	-13183
▁नियति	-13184
▁मुवक्	-13185
▁योगेश	-13186
▁विक्ट	-13187
ोनेशिया	-13188
▁एमएलसी	-13189
▁महानगर	-13190
▁मिस्टर	-13191
▁अफ्रीकी	-13192
▁कविताएं	-13193
▁कालावधि	-13194
▁वियतनाम	-13195
▁सरोजिनी	-13196
▁प्रबन्धन	-13197
ईस	-13198
ere	-13199
क्व	-13200
घ्न	-13201
जनी	-13202
ौना	-13203
▁AC	-13204
▁NO	-13205
▁US	-13206
ूंगी	-13207
▁कंब	-13208
▁फलक	-13209
▁शेड	-13210
▁NAME	-13211
▁इसमे	-13212
▁कमोड	-13213
▁फकीर	-13214
▁फिनल	-13215
▁आभासी	-13216
▁ओबीसी	-13217
▁कोल्ह	-13218
▁विलास	-13219
▁कन्नड़	-13220
▁नर्सरी	-13221
▁पत्तों	-13222
▁क्लिनिक	-13223
▁जातियां	-13224
▁फ़ाइलें	-13225
▁समयावधि	-13226
▁अध्यापकों	-13227
▁तत्पश्चात्	-13228
ESH	-13229
कूट	-13230
ारो	-13231
र्वक	-13232
▁Lim	-13233
▁धर्	-13234
▁वरन	-13235
▁घुमा	-13236
▁चुनी	-13237
▁वक्ष	-13238
▁सोशल	-13239
ांक्षी	-13240
ियाबाद	-13241
▁कच्ची	-13242
▁कैमरा	-13243
▁खरगोश	-13244
▁गलिया	-13245
▁जागरण	-13246
▁देखती	-13247
▁स्पेन	-13248
ॉल्यूशन	-13249
▁दिवसीय	-13250
▁बढ़ेगा	-13251
▁कोशिकाएं	-13252
▁पैरामीटर	-13253
▁विधेयकों	-13254
▁व्यवहार्यता	-13255
LJ	-13256
शेद	-13257
षेध	-13258
संक	-13259
▁चब	-13260
पारा	-13261
पैथी	-13262
▁FIR	-13263
▁केन	-13264
▁धाग	-13265
▁बेव	-13266
▁भाल	-13267
खेड़ा	-13268
▁अभूत	-13269
▁चरित	-13270
▁सचिन	-13271
डिचेरी	-13272
▁अंकगण	-13273
▁कराती	-13274
▁पार्ष	-13275
▁वंशान	-13276
▁समझदार	-13277
▁आमंत्रण	-13278
दीन	-13279
▁aa	-13280
hool	-13281
कुलर	-13282
स्की	-13283
ेंदर	-13284
▁ओएम	-13285
▁शिर	-13286
पात्र	-13287
▁कड़ा	-13288
▁जूरी	-13289
▁व्हा	-13290
▁गिर्द	-13291
▁जमशेद	-13292
▁जर्नल	-13293
▁बागान	-13294
▁महिमा	-13295
▁मानकी	-13296
▁शरारत	-13297
▁होस्ट	-13298
्यूटिंग	-13299
▁कृषकों	-13300
▁योद्धा	-13301
▁परक्राम	-13302
▁परिषदों	-13303
▁साझीदार	-13304
▁परमात्मा	-13305
▁यात्राओं	-13306
▁वंशानुगत	-13307
▁कॉन्फ़िगर	-13308
▁गारंटीकृत	-13309
▁पाश्चात्य	-13310
▁मार्केटिंग	-13311
▁महानिरीक्षक	-13312
ड़ो	-13313
▁ID	-13314
▁Po	-13315
एसएस	-13316
पाही	-13317
▁कोत	-13318
▁मूक	-13319
पट्टी	-13320
शियों	-13321
▁एलजे	-13322
▁लाकर	-13323
वेन्यू	-13324
▁अपडेट	-13325
▁कमरों	-13326
▁निकास	-13327
▁पढ़कर	-13328
▁पहनने	-13329
▁रूढ़ि	-13330
बोरेटरी	-13331
्ट्समैन	-13332
▁निपटते	-13333
▁पहचाने	-13334
▁पारम्प	-13335
▁बिजनेस	-13336
▁सुचारू	-13337
▁आभूषणों	-13338
▁बुजुर्ग	-13339
▁मलेरिया	-13340
▁सन्दर्भ	-13341
▁सूचनाएं	-13342
▁अनुज्ञेय	-13343
▁बस्तियों	-13344
▁स्क्रीनिंग	-13345
गिन	-13346
फिट	-13347
▁SR	-13348
▁औपन	-13349
▁कोठ	-13350
▁चलन	-13351
▁डिस	-13352
▁डॉक	-13353
▁पसी	-13354
▁बाली	-13355
▁मुक़	-13356
▁क्लाज	-13357
▁गिरीश	-13358
▁चिंटू	-13359
▁सेल्स	-13360
▁गारंटर	-13361
▁पुजारी	-13362
▁माइक्र	-13363
▁मौलाना	-13364
▁अनुकूलन	-13365
▁महादेवी	-13366
▁उपाध्याय	-13367
▁प्रवर्तक	-13368
▁सावित्री	-13369
▁प्रायोगिक	-13370
▁संयंत्रों	-13371
▁गतिविधियाँ	-13372
ond	-13373
▁एं	-13374
निकल	-13375
मोहक	-13376
ल्हे	-13377
▁एम्	-13378
▁रिच	-13379
▁शकु	-13380
▁शरद	-13381
▁सीए	-13382
स्थाई	-13383
▁अंकन	-13384
▁अजीत	-13385
▁मुसी	-13386
▁युगल	-13387
▁सीजे	-13388
विद्या	-13389
▁त्रास	-13390
▁मध्या	-13391
▁विशाख	-13392
▁ऋणदाता	-13393
▁तुम्हे	-13394
▁पर्याय	-13395
▁शिशुओं	-13396
▁लेखांकन	-13397
▁विजेताओं	-13398
भन	-13399
धाम	-13400
▁Sri	-13401
▁आशु	-13402
▁झाँ	-13403
▁लैब	-13404
▁वगै	-13405
र्वाद	-13406
ेंबली	-13407
ेशिया	-13408
▁इंसो	-13409
▁अड्डा	-13410
▁जेम्स	-13411
▁विखंड	-13412
▁शालीन	-13413
▁हजारी	-13414
▁Chrome	-13415
▁इलैक्ट	-13416
▁गोलियां	-13417
▁नांदेड़	-13418
▁हाथापाई	-13419
▁DISTRICT	-13420
▁ड्राफ्ट्समैन	-13421
▁धर्मनिरपेक्ष	-13422
जिक	-13423
िनम	-13424
▁ज्	-13425
ated	-13426
part	-13427
शियम	-13428
ोन्म	-13429
▁Shi	-13430
▁बेड	-13431
▁सहस	-13432
ोत्तम	-13433
▁उष्ण	-13434
▁कस्त	-13435
▁घोड़	-13436
▁वाचा	-13437
▁वॉयस	-13438
▁सेमे	-13439
श्लेषण	-13440
▁इन्टर	-13441
▁खोलना	-13442
▁चढ़ाव	-13443
▁रिफंड	-13444
▁इन्कार	-13445
▁एकाउंट	-13446
▁मेघालय	-13447
▁वर्क्स	-13448
▁रिश्तों	-13449
▁वैचारिक	-13450
▁सिद्धार	-13451
▁एवोल्यूशन	-13452
▁निश्चितता	-13453
▁सृजनात्मक	-13454
▁हस्तशिल्प	-13455
▁ट्रस्टियों	-13456
▁पूर्वानुमान	-13457
tr	-13458
भान	-13459
मेव	-13460
शान	-13461
सरे	-13462
▁by	-13463
▁रक	-13464
शिक्ष	-13465
▁पाचन	-13466
▁पीजी	-13467
▁Chand	-13468
▁पारसी	-13469
▁अदृश्य	-13470
▁अपनाते	-13471
▁डिजीटल	-13472
▁फेफड़े	-13473
▁महादेव	-13474
▁असंगतता	-13475
▁इच्छाओं	-13476
▁यहूदियों	-13477
▁अधिसूचनाओं	-13478
शरण	-13479
▁ईओ	-13480
▁टच	-13481
लाइड	-13482
लेखा	-13483
व्रत	-13484
▁काव	-13485
▁चाप	-13486
▁पटव	-13487
िकाने	-13488
ोध्या	-13489
▁इजरा	-13490
▁इर्द	-13491
▁एड्स	-13492
▁मेरठ	-13493
▁विकट	-13494
पराइटर	-13495
▁करेंः	-13496
▁जमारा	-13497
▁हवाले	-13498
▁विराट्	-13499
▁सॉफ़्ट	-13500
▁स्ट्रीम	-13501
▁क्रमादेश	-13502
▁मैनेजमेंट	-13503
▁अंतर्विरोध	-13504
▁कम्युनिस्ट	-13505
▁राष्ट्रवादी	-13506
यह	-13507
ंधा	-13508
ंगनी	-13509
ंजना	-13510
मिली	-13511
ल्लम	-13512
ाप्य	-13513
▁टां	-13514
▁हें	-13515
ीलैंड	-13516
▁आदिम	-13517
▁एचटी	-13518
▁कोरम	-13519
▁थर्म	-13520
▁अभिनव	-13521
▁उद्गम	-13522
▁डाकघर	-13523
▁दसवीं	-13524
▁रेडिय	-13525
▁एसबीआई	-13526
▁चिन्तन	-13527
▁जिम्मे	-13528
▁डीआरटी	-13529
▁देहाती	-13530
▁विरचित	-13531
▁सिपाही	-13532
▁जवाबदेह	-13533
▁मतभेदों	-13534
▁रियायती	-13535
▁स्टैम्प	-13536
▁बहुसंख्यक	-13537
▁वृद्धावस्था	-13538
HAR	-13539
▁शू	-13540
चुअल	-13541
पालन	-13542
▁काठ	-13543
▁कैथ	-13544
▁थॉम	-13545
▁दूत	-13546
च्युत	-13547
विष्ट	-13548
▁दांव	-13549
▁दुश्	-13550
▁साधक	-13551
▁अस्वा	-13552
▁द्रुत	-13553
▁रणजीत	-13554
▁कंटेनर	-13555
▁लेटर्स	-13556
▁हाइड्र	-13557
▁दूतावास	-13558
▁नामंजूर	-13559
▁अनुकरणीय	-13560
▁कंट्राबेंड	-13561
▁हस्ताक्षरों	-13562
२५	-13563
थुर	-13564
ेकर	-13565
▁LA	-13566
यनगर	-13567
▁अँग	-13568
▁एसओ	-13569
▁चैक	-13570
▁जीभ	-13571
▁भजन	-13572
▁उपगत	-13573
▁एचयू	-13574
▁खगोल	-13575
▁गुरब	-13576
▁ठरोग	-13577
▁बार्	-13578
▁भुला	-13579
▁मधुम	-13580
▁यूनि	-13581
▁संचय	-13582
▁सेतु	-13583
▁आएंगे	-13584
▁चलाते	-13585
▁जातीय	-13586
▁भाँति	-13587
▁वाउचर	-13588
▁सन्नि	-13589
▁सुस्प	-13590
▁हटाकर	-13591
▁एक्सटी	-13592
▁करेंसी	-13593
▁चीज़ें	-13594
▁छुपाया	-13595
▁पुरातन	-13596
▁किस्तों	-13597
▁ड्राइंग	-13598
▁पार्वती	-13599
▁श्लोकों	-13600
▁दिवालिया	-13601
▁निवेदिता	-13602
▁निष्कासित	-13603
▁दुर्भाग्यवश	-13604
IF	-13605
ैम	-13606
TPA	-13607
▁NH	-13608
ल्टर	-13609
वारा	-13610
ीयों	-13611
ुप्त	-13612
▁गान	-13613
▁पिच	-13614
▁बूझ	-13615
▁सटे	-13616
न्दगी	-13617
ान्ति	-13618
▁दूंगा	-13619
▁दूषित	-13620
▁बेलार	-13621
▁भट्टा	-13622
▁राजने	-13623
▁समाधि	-13624
▁कृतज्ञ	-13625
▁सीलिंग	-13626
▁सूर्या	-13627
प्रदायिक	-13628
▁अमेरिकन	-13629
▁अयोध्या	-13630
▁आत्मसात	-13631
▁एसोसिएट	-13632
▁स्पेक्ट	-13633
▁प्रयोगों	-13634
▁प्रताड़ित	-13635
▁वार्तालाप	-13636
▁सिद्धार्थ	-13637
▁इच्छाशक्ति	-13638
UT	-13639
णक	-13640
ंगम	-13641
ुना	-13642
ेतन	-13643
▁CS	-13644
सवाल	-13645
ावुर	-13646
्यूप	-13647
▁BEN	-13648
▁दोग	-13649
▁फीड	-13650
नीकरण	-13651
यॉर्क	-13652
वलोकन	-13653
ुपालन	-13654
▁एसबी	-13655
▁फरसा	-13656
▁होली	-13657
क्षमता	-13658
ग्राही	-13659
▁चलाता	-13660
▁मारना	-13661
ानात्मक	-13662
▁गार्डन	-13663
▁अन्वेषक	-13664
▁एचएलईसी	-13665
▁गोरखपुर	-13666
▁नजरबंदी	-13667
▁परवर्ती	-13668
▁मेहरअली	-13669
▁उद्यमिता	-13670
▁उर्वरकों	-13671
▁रेस्तरां	-13672
▁सक्रियता	-13673
▁साम्राज़	-13674
▁संप्रेषित	-13675
▁दुर्घटनाओं	-13676
▁पदाधिकारियों	-13677
▁इंस्ट्रूमेंट्स	-13678
art	-13679
ापक	-13680
ुली	-13681
्रू	-13682
▁घी	-13683
ोलिक	-13684
▁LIN	-13685
▁अपद	-13686
वाहित	-13687
▁आप्र	-13688
▁छापा	-13689
▁धमनी	-13690
▁पाकर	-13691
▁मर्म	-13692
यात्रा	-13693
ायद्वी	-13694
▁ज्वार	-13695
▁महंगाई	-13696
▁लक्ष्म	-13697
▁वर्तनी	-13698
▁सिद्धि	-13699
▁सर्वसम्	-13700
▁गाजियाबाद	-13701
सना	-13702
▁MM	-13703
▁ऋष	-13704
ंडों	-13705
ग्ने	-13706
रियन	-13707
िएटर	-13708
िप्ट	-13709
▁इंफ	-13710
▁बिक	-13711
▁सता	-13712
फील्ड	-13713
ॉजिकल	-13714
▁डेमो	-13715
▁रेज़	-13716
▁कमलेश	-13717
▁ट्रां	-13718
▁निपुण	-13719
▁मौर्य	-13720
▁रवैये	-13721
▁वेल्स	-13722
▁सब्जी	-13723
▁साढ़े	-13724
▁School	-13725
▁निभाता	-13726
▁स्याही	-13727
कर्मियों	-13728
▁अंबेडकर	-13729
▁अनुष्ठान	-13730
▁कार्यकरण	-13731
▁ट्रांसफ़	-13732
▁बेरोजगार	-13733
▁प्रायद्वी	-13734
▁विश्वयुद्ध	-13735
▁शल्यक्रिया	-13736
ii	-13737
रोन	-13738
सला	-13739
ब्बत	-13740
यनों	-13741
्तिक	-13742
▁एकक	-13743
▁महम	-13744
▁छपाई	-13745
▁महाभ	-13746
▁रजनी	-13747
▁घनत्व	-13748
▁चाहने	-13749
▁डीटीए	-13750
▁पांडु	-13751
▁बगीचे	-13752
▁वेटेज	-13753
▁कुलदीप	-13754
▁डेल्टा	-13755
▁बालिका	-13756
▁बुकिंग	-13757
▁पौष्टिक	-13758
▁नाममात्र	-13759
▁परमेश्वर	-13760
▁प्रतिमान	-13761
▁प्रदर्शक	-13762
▁धारावाहिक	-13763
▁लाइसेंसिंग	-13764
▁सर्वसम्मति	-13765
▁अल्पसंख्यकों	-13766
▁झर	-13767
कारक	-13768
काशी	-13769
चरित	-13770
मोचन	-13771
रेली	-13772
▁परह	-13773
▁बची	-13774
▁बसु	-13775
जीभाई	-13776
लीकृत	-13777
▁पर्ण	-13778
▁रोमन	-13779
स्टिंग	-13780
▁तामील	-13781
▁नोट्स	-13782
▁सीतार	-13783
▁अद्वैत	-13784
▁गुर्दे	-13785
▁पिछड़ा	-13786
▁भाषणों	-13787
▁राज्या	-13788
▁सोमनाथ	-13789
▁अस्वस्थ	-13790
▁निर्वचन	-13791
▁फ़ाइलों	-13792
▁राममोहन	-13793
▁अभूतपूर्व	-13794
▁सम्प्रदाय	-13795
▁लोकप्रियता	-13796
क्ख	-13797
▁एप	-13798
िकोड	-13799
▁Bar	-13800
▁एनी	-13801
▁शरा	-13802
▁हतो	-13803
▁चतुर	-13804
▁प्ली	-13805
▁रेफर	-13806
▁वायर	-13807
▁सूअर	-13808
▁सोया	-13809
कात्मक	-13810
▁अनीता	-13811
▁त्रिव	-13812
▁फैक्स	-13813
क्षेपित	-13814
पेक्षित	-13815
▁अलमस्त	-13816
▁एक्सेस	-13817
▁पड़ताल	-13818
▁खूबसूरत	-13819
▁नानालाल	-13820
▁बेहतरीन	-13821
▁मिलेंगे	-13822
▁संग्रहीत	-13823
▁क्रियाशील	-13824
▁न्यूयॉर्क	-13825
▁फ्रांसीसी	-13826
▁सम्मेलनों	-13827
ex	-13828
०ग	-13829
VAT	-13830
ठों	-13831
िनि	-13832
ोरो	-13833
▁CM	-13834
▁he	-13835
कांड	-13836
वर्त	-13837
ान्स	-13838
▁एपे	-13839
▁जोश	-13840
▁पिघ	-13841
▁शोथ	-13842
ियाला	-13843
ॉप्टर	-13844
▁ROAD	-13845
▁कमान	-13846
▁कम्ब	-13847
▁चादर	-13848
▁झुका	-13849
▁तर्ज	-13850
▁देवे	-13851
▁बारा	-13852
▁यकृत	-13853
▁विदा	-13854
▁नैदान	-13855
▁फरमान	-13856
▁बुलेट	-13857
▁स्टेड	-13858
▁00,000	-13859
▁अहंकार	-13860
▁कार्बो	-13861
▁ठिकाने	-13862
▁मन्त्र	-13863
▁युसुफ़	-13864
▁संगणित	-13865
▁चुनिंदा	-13866
▁फायरिंग	-13867
▁वामपंथी	-13868
▁कार्यकार	-13869
▁आपातकालीन	-13870
▁मुद्रास्फीति	-13871
HA	-13872
sh	-13873
सै	-13874
कोड	-13875
ौरी	-13876
प्सा	-13877
▁ईडी	-13878
▁डेन	-13879
▁थिर	-13880
▁बुन	-13881
▁वात	-13882
▁हिच	-13883
ापत्र	-13884
ुगतान	-13885
▁West	-13886
▁एनएस	-13887
▁केके	-13888
▁चाची	-13889
▁नंदा	-13890
▁बंसल	-13891
▁वरुण	-13892
▁स्कै	-13893
▁एकत्व	-13894
▁बढ़ाई	-13895
▁रद्दी	-13896
▁हुर्इ	-13897
▁आयोजना	-13898
▁कीमतें	-13899
▁चाहिएं	-13900
▁जोड़ों	-13901
▁दुश्मन	-13902
▁प्रीति	-13903
▁भवभूति	-13904
▁फिनलैंड	-13905
▁लेक्चरर	-13906
▁एम्बुलेंस	-13907
सऋ	-13908
aria	-13909
र्चे	-13910
लेटर	-13911
ावान	-13912
▁Col	-13913
▁अश्	-13914
▁मकर	-13915
▁खोजे	-13916
▁टोपी	-13917
▁तारे	-13918
▁प्रह	-13919
स्वरुप	-13920
▁ज्यों	-13921
▁लगाती	-13922
▁अघोषित	-13923
▁औपनिवेश	-13924
▁चंद्रमा	-13925
▁परिसीमन	-13926
▁बढ़ोतरी	-13927
▁पूर्णकालिक	-13928
एमए	-13929
▁ढु	-13930
ाहार	-13931
ोटिक	-13932
▁टाव	-13933
▁तान	-13934
▁यंग	-13935
द्दाम	-13936
स्कों	-13937
▁अम्ब	-13938
▁उठती	-13939
▁उपकर	-13940
▁निंद	-13941
▁पारा	-13942
▁साइड	-13943
▁सूखी	-13944
▁हर्ज	-13945
▁आबद्ध	-13946
▁क्वाल	-13947
▁लॉगिन	-13948
▁उत्तरो	-13949
▁पिताजी	-13950
▁अंगीकार	-13951
▁अध्यापन	-13952
▁तंजावुर	-13953
▁श्रीराम	-13954
▁आश्रितों	-13955
▁कारखानों	-13956
▁प्रतिषेध	-13957
▁एन्क्रिप्	-13958
▁त्यागपत्र	-13959
▁पर्याप्तता	-13960
▁प्राप्तियों	-13961
▁प्रतिक्रियाओं	-13962
RC	-13963
uk	-13964
sil	-13965
त्रय	-13966
ष्ठी	-13967
▁आति	-13968
▁आरई	-13969
▁नीम	-13970
▁मोक	-13971
▁हृद	-13972
▁OANo	-13973
▁कृमि	-13974
▁खाती	-13975
▁फुफ्	-13976
▁शिला	-13977
▁सम्य	-13978
▁अंकुर	-13979
▁घटाने	-13980
▁पड़ना	-13981
▁सुमित	-13982
▁हेल्थ	-13983
▁अनिच्छ	-13984
▁पुख्ता	-13985
▁पुनर्ज	-13986
▁सिक्यो	-13987
▁रक्तचाप	-13988
▁निविदाएं	-13989
▁संप्रतीक	-13990
▁विधिमान्य	-13991
▁स्थितियां	-13992
▁दीर्घकालीन	-13993
ोव	-13994
RAD	-13995
डिश	-13996
थ्य	-13997
धीय	-13998
सन्	-13999
भाजन	-14000
वर्क	-14001
▁अरु	-14002
▁कास	-14003
▁पुत	-14004
स्वाम	-14005
▁अनुष	-14006
▁आर्क	-14007
▁एसएन	-14008
▁कैसी	-14009
▁जीपी	-14010
▁धीमा	-14011
▁पीला	-14012
ियोजित	-14013
▁ग्रेट	-14014
▁ढूंढ़	-14015
▁दर्पण	-14016
▁दुष्ट	-14017
▁नब्बे	-14018
▁नलिका	-14019
▁पार्थ	-14020
▁पॉइंट	-14021
▁बोतलों	-14022
▁होम्यो	-14023
▁प्राणिक	-14024
▁वारिसों	-14025
▁आधारशिला	-14026
▁मातृभूमि	-14027
VI	-14028
mp	-14029
खला	-14030
ताप	-14031
फेस	-14032
ावत	-14033
्ती	-14034
▁सँ	-14035
ANAG	-14036
पर्स	-14037
वाहक	-14038
▁घने	-14039
▁रमण	-14040
▁सैर	-14041
किनार	-14042
क्कड़	-14043
तमाला	-14044
न्नों	-14045
सात्मक	-14046
▁नित्य	-14047
▁वृक्क	-14048
▁सैंपल	-14049
▁हरिजन	-14050
ोग्राफी	-14051
▁आरोग्य	-14052
▁उत्तरः	-14053
▁पागलपन	-14054
▁पुष्पा	-14055
▁मेजबान	-14056
▁सुझाया	-14057
▁अशक्तता	-14058
▁चौकीदार	-14059
▁दरकिनार	-14060
▁नैदानिक	-14061
▁जरूरतमंद	-14062
▁मवेशियों	-14063
▁इस्लामवादियों	-14064
▁शिकायतकर्ताओं	-14065
बस	-14066
ेस	-14067
ret	-14068
भुज	-14069
pura	-14070
इटिस	-14071
ण्डल	-14072
ाधीन	-14073
▁OCC	-14074
▁घिन	-14075
ग्रेड	-14076
▁आवेश	-14077
▁दफ्त	-14078
▁दाने	-14079
▁फतेह	-14080
▁बंडल	-14081
▁भृंग	-14082
▁रंजी	-14083
▁रीडर	-14084
▁अस्सी	-14085
▁प्राग	-14086
▁सचेतन	-14087
▁अपदस्थ	-14088
▁पैकिंग	-14089
▁संदेशों	-14090
▁सूचियों	-14091
▁एफटीआईएल	-14092
▁प्रकोष्ठ	-14093
▁संदर्भों	-14094
▁प्रतिभागियों	-14095
▁प्रधानाचार्य	-14096
ib	-14097
जै	-14098
बिक	-14099
मोह	-14100
▁LR	-14101
▁Sy	-14102
▁ऋस	-14103
धुंध	-14104
नाथन	-14105
▁मजू	-14106
▁लटक	-14107
कार्ड	-14108
्रेसी	-14109
▁Naya	-14110
▁छिपे	-14111
▁छूने	-14112
▁नासा	-14113
▁फायद	-14114
▁विला	-14115
▁शाला	-14116
▁अंडों	-14117
▁एटीएम	-14118
▁ज़मान	-14119
▁सीआरए	-14120
▁सॉल्व	-14121
राष्ट्र	-14122
▁कुटुंब	-14123
▁चुनावी	-14124
▁तात्या	-14125
▁फेशियल	-14126
▁रविवार	-14127
▁मछलियों	-14128
▁वार्षिकी	-14129
▁प्रदाताओं	-14130
▁व्यवसायों	-14131
▁बुद्धिमत्ता	-14132
ऊं	-14133
षऋ	-14134
रोड	-14135
गिरी	-14136
जीएस	-14137
०में	-14138
▁Cha	-14139
आधारी	-14140
वाड़े	-14141
संहार	-14142
▁तिरू	-14143
▁पारी	-14144
▁भरती	-14145
GALURU	-14146
▁Patna	-14147
▁जानकी	-14148
▁ट्रैप	-14149
▁मोक्ष	-14150
▁राउंड	-14151
▁सुगंध	-14152
ानुक्रम	-14153
▁एसआईटी	-14154
▁पिल्लई	-14155
▁पूर्वज	-14156
▁बर्ताव	-14157
▁यदुनाथ	-14158
▁ओवरराइड	-14159
▁जनशक्ति	-14160
▁पांचवीं	-14161
▁लेखाकार	-14162
▁आंदोलनों	-14163
▁कॉन्स्टेबल	-14164
▁प्रतीकात्मक	-14165
▁रेस्पोंडेंट	-14166
▁प्रवृत्तियों	-14167
ly	-14168
ial	-14169
्ली	-14170
▁xx	-14171
वियर	-14172
ालतू	-14173
▁RFA	-14174
▁pro	-14175
▁कैट	-14176
▁सिं	-14177
▁काबू	-14178
▁बर्न	-14179
▁ब्यो	-14180
▁मस्त	-14181
▁रियल	-14182
▁वासु	-14183
▁विभू	-14184
▁हावी	-14185
▁अपीली	-14186
▁बर्बर	-14187
▁बिगड़	-14188
▁संचलन	-14189
▁अस्थाई	-14190
▁नाइट्र	-14191
▁फिल्टर	-14192
▁मोहल्ला	-14193
▁यूनिटों	-14194
▁लापरवाह	-14195
▁विशेषतः	-14196
▁आशीर्वाद	-14197
▁त्रिवेदी	-14198
▁कर्त्तव्य	-14199
▁प्रकाशनों	-14200
▁सॉफ़्टवेयर	-14201
PP	-14202
ूफ	-14203
नाद	-14204
▁EE	-14205
रपुर	-14206
▁LPA	-14207
▁dtd	-14208
▁जुग	-14209
▁टॉम	-14210
▁दुल	-14211
देश्य	-14212
ानिकी	-14213
▁अतिर	-14214
▁जनमत	-14215
▁पठान	-14216
▁फैशन	-14217
▁महंत	-14218
▁मापा	-14219
▁साझे	-14220
▁डीपीसी	-14221
▁नालंदा	-14222
▁विवेचन	-14223
▁एससीआरए	-14224
▁कमोडिटी	-14225
▁पर्वतमाला	-14226
▁पारम्परिक	-14227
PF	-14228
ासु	-14229
्टर	-14230
प्रा	-14231
हरित	-14232
िकों	-14233
ृष्ट	-14234
▁गजट	-14235
▁दाब	-14236
ाहारी	-14237
ोत्तर	-14238
▁कांत	-14239
▁जीते	-14240
▁नक़ल	-14241
▁पडता	-14242
▁पिंज	-14243
▁पिक्	-14244
▁रोपण	-14245
▁शीतल	-14246
▁गुच्छ	-14247
▁प्रसू	-14248
▁स्क्व	-14249
▁अनुराग	-14250
▁अप्रिय	-14251
▁करवाना	-14252
▁छिपाने	-14253
▁पकड़ना	-14254
▁अपराह्न	-14255
▁क्रीड़ा	-14256
▁पहुंचते	-14257
▁अंधाधुंध	-14258
▁अभिकर्ता	-14259
▁स्टेडियम	-14260
▁पांडिचेरी	-14261
▁वार्ताकार	-14262
▁शिष्टमंडल	-14263
▁संपत्तियां	-14264
▁अभियांत्रिक	-14265
UL	-14266
adi	-14267
ेरी	-14268
ौनी	-14269
▁डैक	-14270
▁तले	-14271
▁बेर	-14272
▁एजीए	-14273
▁क्रो	-14274
▁जुडी	-14275
▁पीबी	-14276
▁यूसु	-14277
▁लड़ी	-14278
▁आसमान	-14279
▁परवीन	-14280
▁बेजबर	-14281
▁भाजपा	-14282
▁रिलीज	-14283
▁लसीका	-14284
▁साड़ी	-14285
▁अधिवास	-14286
▁जाएँगे	-14287
शास्त्री	-14288
▁अमानवीय	-14289
▁असेंबली	-14290
▁मातृत्व	-14291
▁सर्वत्र	-14292
▁अनुवर्ती	-14293
▁अस्पृश्य	-14294
▁पूर्णांक	-14295
▁बैंककारी	-14296
▁सेकेंडरी	-14297
▁पत्रकारिता	-14298
▁प्रदर्शनों	-14299
DS	-14300
MS	-14301
xx	-14302
छी	-14303
वुड	-14304
▁th	-14305
▁ठा	-14306
▁लघ	-14307
द्वि	-14308
▁PWs	-14309
▁खरे	-14310
▁फेल	-14311
▁बीओ	-14312
▁मरु	-14313
▁सनी	-14314
▁टीपी	-14315
▁टूटी	-14316
▁टेलि	-14317
▁सुधा	-14318
ष्ट्री	-14319
▁जोसेफ	-14320
▁तकलीफ	-14321
▁दबाकर	-14322
▁बर्मा	-14323
▁सुनना	-14324
▁एसआरआई	-14325
▁मन्दिर	-14326
▁सद्दाम	-14327
▁औषधियों	-14328
▁कार्टून	-14329
▁शॉर्टकट	-14330
▁किराएदार	-14331
▁प्रदूषित	-14332
▁प्रायोजन	-14333
▁राजकोषीय	-14334
▁सर्वांगी	-14335
▁BENGALURU	-14336
▁विरोधियों	-14337
नें	-14338
मैट	-14339
सोस	-14340
▁ठंड	-14341
▁मुय	-14342
▁सैल	-14343
▁कुसु	-14344
▁दोहन	-14345
▁धोने	-14346
▁फ्लो	-14347
▁बंजर	-14348
▁मजाक	-14349
▁मुखर	-14350
▁मोहर	-14351
▁रचित	-14352
▁लड़क	-14353
▁संकर	-14354
▁अनपढ़	-14355
▁ईएसआई	-14356
▁चचेरे	-14357
▁माइनस	-14358
▁विनती	-14359
▁अंगूठी	-14360
▁ग्रेटर	-14361
▁निरूपण	-14362
▁अत्याधिक	-14363
▁हितधारकों	-14364
▁निर्यातकों	-14365
▁पुनर्भुगतान	-14366
▁राष्ट्रमंडल	-14367
IA	-14368
आया	-14369
▁pr	-14370
कर्ण	-14371
▁उखा	-14372
▁कप्	-14373
▁केक	-14374
▁पीई	-14375
▁रहस	-14376
▁सबक	-14377
गुप्त	-14378
▁Madh	-14379
▁कथान	-14380
▁जोकि	-14381
▁पौंड	-14382
▁उल्टा	-14383
▁कहावत	-14384
▁डिटेन	-14385
▁पेशाब	-14386
निर्मित	-14387
▁निकालते	-14388
▁प्रत्ये	-14389
▁प्रभाकर	-14390
▁विपक्षी	-14391
▁अप्रभावी	-14392
▁अप्राप्य	-14393
▁उदारीकरण	-14394
▁विस्फोटक	-14395
▁कार्यकारिणी	-14396
▁प्रौद्योगिकीय	-14397
PW	-14398
शै	-14399
्ध	-14400
डीह	-14401
लाट	-14402
वेज	-14403
▁et	-14404
▁भट	-14405
ayan	-14406
गिरि	-14407
चक्र	-14408
जीपी	-14409
ौकिक	-14410
▁आरए	-14411
▁पोट	-14412
▁रेफ	-14413
िलिंग	-14414
▁गौरी	-14415
▁पीयू	-14416
▁बतला	-14417
▁मद्य	-14418
▁हटकर	-14419
▁पलायन	-14420
▁फसलें	-14421
▁बलवंत	-14422
▁भतीजे	-14423
▁विफलः	-14424
▁निशाना	-14425
▁परीक्ष	-14426
▁सिखाया	-14427
विज्ञानी	-14428
▁भागलपुर	-14429
▁रणनीतिक	-14430
▁विवाहों	-14431
▁संस्कृतियों	-14432
UK	-14433
टलर	-14434
तिर	-14435
्रह	-14436
कृमि	-14437
श्मी	-14438
साइज	-14439
ोपाय	-14440
▁माउ	-14441
▁हाव	-14442
ियाना	-14443
▁आरडी	-14444
▁काया	-14445
▁गोबर	-14446
▁जेएम	-14447
▁परिर	-14448
▁परोप	-14449
▁ब्रज	-14450
जीरिया	-14451
▁उभरते	-14452
▁डिबें	-14453
▁भरपाई	-14454
▁सीढ़ी	-14455
▁कहेंगे	-14456
▁चुकौती	-14457
▁मिटाने	-14458
▁विधानों	-14459
▁सक्सेना	-14460
▁समावेशन	-14461
▁अनापत्ति	-14462
▁रामेश्वर	-14463
▁वर्गमीटर	-14464
▁औपनिवेशिक	-14465
▁कम्पनियों	-14466
▁द्विआधारी	-14467
▁प्रतिबन्ध	-14468
▁प्रैक्टिस	-14469
▁विषयवस्तु	-14470
ERE	-14471
ODU	-14472
खले	-14473
नित	-14474
ीयर	-14475
▁SE	-14476
▁बँ	-14477
▁हज	-14478
एमएल	-14479
कोहल	-14480
चर्स	-14481
▁ठिक	-14482
▁यूट	-14483
▁स्ल	-14484
फार्म	-14485
▁आरेख	-14486
▁एलआर	-14487
▁घोषण	-14488
▁पीना	-14489
▁बाड़	-14490
▁लगान	-14491
▁शोभा	-14492
ंजीकृत	-14493
क्षत्र	-14494
च्छन्न	-14495
▁असहमत	-14496
▁उभरता	-14497
▁कीड़े	-14498
▁पोशाक	-14499
▁मौकों	-14500
▁मौसमी	-14501
▁फ़ारसी	-14502
▁ब्यौरे	-14503
▁मुट्ठी	-14504
▁सामरिक	-14505
▁Limited	-14506
▁अराजकता	-14507
▁महालेखा	-14508
▁परक्राम्य	-14509
▁सम्मानजनक	-14510
▁राष्ट्रवाद	-14511
▁सिक्योरिटी	-14512
▁प्रविष्टियाँ	-14513
▁साम्प्रदायिक	-14514
ँघ	-14515
झक	-14516
मदार	-14517
▁आलू	-14518
▁मिज	-14519
▁मुल	-14520
▁सल्	-14521
त्नों	-14522
शीघ्र	-14523
▁कणों	-14524
▁पितृ	-14525
▁पुरः	-14526
▁बनें	-14527
▁बांट	-14528
▁लिहा	-14529
▁तेज़ी	-14530
▁बुलाए	-14531
▁सस्ता	-14532
▁सिडबी	-14533
कर्त्ता	-14534
▁अपनाकर	-14535
▁इकट्ठे	-14536
▁कारखाना	-14537
▁पोतन्ना	-14538
▁बेलारूस	-14539
▁व्यवधान	-14540
▁परिचर्चा	-14541
▁भुगतानों	-14542
▁वार्मिंग	-14543
▁सुस्पष्ट	-14544
▁पदाधिकारी	-14545
▁अनिवार्यता	-14546
▁संक्षिप्तता	-14547
UB	-14548
२६	-14549
मुल	-14550
▁an	-14551
र्ना	-14552
वेरी	-14553
ुराम	-14554
्राह	-14555
▁कैव	-14556
▁जोध	-14557
▁डाई	-14558
▁हंग	-14559
बाज़ी	-14560
▁आरती	-14561
▁कैलि	-14562
▁तंतु	-14563
▁व्यप	-14564
▁सलाम	-14565
▁साँस	-14566
▁COTPA	-14567
▁घावों	-14568
▁नाकाम	-14569
▁फेंका	-14570
▁बताये	-14571
▁बैकअप	-14572
▁रोकते	-14573
▁हज़ार	-14574
पंथियों	-14575
ापूर्वक	-14576
▁एपेक्स	-14577
▁सिक्के	-14578
▁अधिरोपण	-14579
▁अन्यत्र	-14580
▁तिथियों	-14581
▁विनिर्दि	-14582
▁स्वराज्य	-14583
ith	-14584
कथा	-14585
ादन	-14586
▁NC	-14587
क्टी	-14588
न्थि	-14589
▁ईसी	-14590
▁एलि	-14591
▁फ़ी	-14592
▁लां	-14593
ंद्रा	-14594
धारणा	-14595
नालॉग	-14596
ब्बों	-14597
▁आयरन	-14598
▁एफसी	-14599
▁काना	-14600
▁कुचल	-14601
▁चोटी	-14602
▁दिवा	-14603
▁लगना	-14604
▁सींग	-14605
ंटियों	-14606
▁क्षीण	-14607
▁खन्ना	-14608
▁छुट्ट	-14609
▁डिस्प	-14610
▁तकिया	-14611
▁दामाद	-14612
▁नगण्य	-14613
▁महमूद	-14614
▁वजीफा	-14615
▁सस्ती	-14616
▁कप्तान	-14617
▁कामयाब	-14618
▁प्रोत्	-14619
▁रेटिंग	-14620
▁वृत्ता	-14621
▁कारागार	-14622
▁प्रत्यय	-14623
▁मीट्रिक	-14624
▁वाक्यों	-14625
▁सम्मिलन	-14626
▁चुनौतियां	-14627
▁प्रबंधकों	-14628
▁उत्तरोत्तर	-14629
▁संवैधानिकता	-14630
▁प्रतिभूतिकरण	-14631
ax	-14632
रव	-14633
ttp	-14634
ंकू	-14635
ोदर	-14636
▁केर	-14637
▁गेल	-14638
▁छड़	-14639
▁दुम	-14640
गमेंट	-14641
▁VIII	-14642
▁एनजी	-14643
▁बुढ़	-14644
▁माडल	-14645
▁रोके	-14646
▁अक्षय	-14647
▁चैत्य	-14648
▁जैकेट	-14649
▁दुर्य	-14650
▁द्रवि	-14651
▁द्रीय	-14652
▁पाएगा	-14653
▁पीठों	-14654
▁प्रोड	-14655
▁बढ़ें	-14656
▁आकृष्ट	-14657
▁आरएफपी	-14658
▁कार्गो	-14659
▁जानकार	-14660
▁अनुग्रह	-14661
▁असंबद्ध	-14662
▁विशाखाप	-14663
▁सीताराम	-14664
▁इकबालिया	-14665
▁जनसाधारण	-14666
▁परम्परागत	-14667
▁अभिप्राप्त	-14668
▁डिपार्टमेंट	-14669
▁पारिस्थितिकी	-14670
अन	-14671
ौज	-14672
are	-14673
ब्स	-14674
ौने	-14675
गंगा	-14676
जिये	-14677
भंगा	-14678
ल्चर	-14679
केशनल	-14680
▁क्वे	-14681
▁गायन	-14682
▁जिया	-14683
▁ढूँढ	-14684
▁नारे	-14685
▁पावन	-14686
▁पीटर	-14687
▁सज़ा	-14688
▁सरमा	-14689
िस्तान	-14690
▁घुसपै	-14691
▁घोड़ा	-14692
▁फ़िल्	-14693
▁मर्जी	-14694
▁कुल्लू	-14695
▁नवीनता	-14696
▁मिलाया	-14697
▁संकुचन	-14698
चिकित्सा	-14699
▁खूबियों	-14700
▁निवृत्त	-14701
▁व्यंग्य	-14702
▁संभाव्य	-14703
▁ऑब्जेक्ट	-14704
▁हतोत्साहित	-14705
CS	-14706
OS	-14707
▁ं	-14708
ugh	-14709
डेन	-14710
फली	-14711
▁MS	-14712
कूमत	-14713
ज़ोर	-14714
ज्जु	-14715
ियरी	-14716
▁Off	-14717
▁कवक	-14718
▁छंट	-14719
▁रजत	-14720
▁इब्र	-14721
▁किसे	-14722
▁जहरी	-14723
▁बदमा	-14724
▁काबुल	-14725
▁निगमन	-14726
▁बनावट	-14727
▁अन्तरा	-14728
▁आदित्य	-14729
▁दिलाता	-14730
▁सेलुलर	-14731
▁इस्तीफे	-14732
▁क्लाइंट	-14733
▁संकुचित	-14734
▁अपंजीकृत	-14735
ंबे	-14736
कंठ	-14737
शमन	-14738
▁it	-14739
▁एर	-14740
टीपी	-14741
पेटा	-14742
र्मन	-14743
▁आहत	-14744
▁काँ	-14745
▁बढे	-14746
▁मिर	-14747
धिपति	-14748
▁अनाथ	-14749
▁उभरे	-14750
▁ऑक्स	-14751
▁कुंभ	-14752
▁जुडे	-14753
▁मिनी	-14754
▁हथकर	-14755
▁उभरने	-14756
▁पूछना	-14757
▁मलखान	-14758
▁सत्रह	-14759
▁फैमिली	-14760
▁संचालक	-14761
▁समस्ती	-14762
▁हेमराज	-14763
▁निकालकर	-14764
▁ग्रेजुएट	-14765
▁मुवक्किल	-14766
▁रियासतों	-14767
▁अतिरिक़्त	-14768
▁अवधारणाओं	-14769
▁लाइब्रेरी	-14770
▁प्रभावकारी	-14771
▁स्वतन्त्रता	-14772
▁अभिव्यक्तियों	-14773
VC	-14774
de	-14775
चय	-14776
कां	-14777
दून	-14778
िकट	-14779
▁डब	-14780
पुष्	-14781
हिणी	-14782
ODUCT	-14783
टरिंग	-14784
ानन्द	-14785
▁घबरा	-14786
▁तालि	-14787
▁धकेल	-14788
▁प्रम	-14789
▁बीसी	-14790
▁माली	-14791
▁विरल	-14792
▁उठाये	-14793
▁ट्रीय	-14794
▁हल्की	-14795
▁हुक्म	-14796
णाधिकार	-14797
पाध्याय	-14798
▁अनेकों	-14799
▁उपस्कर	-14800
▁एनालॉग	-14801
▁घुटनों	-14802
▁पीसीआर	-14803
▁मोर्चे	-14804
▁सारवान	-14805
▁PRODUCT	-14806
▁चलचित्र	-14807
▁चिड़िया	-14808
▁पदच्युत	-14809
▁बंटवारे	-14810
▁इलैक्ट्र	-14811
▁गतिशीलता	-14812
▁परिवर्धन	-14813
▁बलपूर्वक	-14814
▁अल्पकालिक	-14815
▁सर्वांगीण	-14816
▁राजमार्गों	-14817
▁वस्तुनिष्ठ	-14818
da	-14819
खनन	-14820
मेज	-14821
ल्म	-14822
ादि	-14823
▁cl	-14824
▁ऊन	-14825
▁कफ	-14826
RISH	-14827
भाष्	-14828
योगी	-14829
िताब	-14830
▁Pur	-14831
▁एनए	-14832
▁जुन	-14833
▁निष	-14834
▁पीस	-14835
▁सूख	-14836
मेन्ट	-14837
लियां	-14838
▁आंका	-14839
▁ईर्ष	-14840
▁थॉमस	-14841
▁द्यो	-14842
▁धड़क	-14843
▁सतही	-14844
▁सुशी	-14845
द्वारा	-14846
▁घूमने	-14847
▁परहेज	-14848
▁मधुकर	-14849
▁सहदेव	-14850
▁सुपरि	-14851
▁लोकहित	-14852
▁विमानन	-14853
▁हरिश्च	-14854
▁वृंदावन	-14855
▁सियाराम	-14856
▁सन्निहित	-14857
▁सम्पादित	-14858
▁निर्माणों	-14859
▁विकासात्मक	-14860
▁विद्यासागर	-14861
ua	-14862
इए	-14863
ach	-14864
▁चढ	-14865
▁इम्	-14866
▁जीए	-14867
▁फेड	-14868
▁बख्	-14869
▁युव	-14870
▁लीं	-14871
▁काटे	-14872
▁सीएफ	-14873
▁हायर	-14874
▁घुड़स	-14875
▁ठहरने	-14876
▁रिस्प	-14877
▁रुग्ण	-14878
▁सपनों	-14879
▁ज़रुरत	-14880
▁दरभंगा	-14881
▁निभाते	-14882
▁ब्रांच	-14883
▁सोनवीर	-14884
▁अपरिचित	-14885
▁पशुपालन	-14886
▁विमानों	-14887
▁श्रीनगर	-14888
▁समावेदन	-14889
▁पहुंचाना	-14890
▁एजेंसियां	-14891
▁समस्तीपुर	-14892
▁नोटिफिकेशन	-14893
▁प्रत्यक्षतः	-14894
ATH	-14895
▁AO	-14896
ंदरी	-14897
ब्लू	-14898
▁अणु	-14899
▁कोक	-14900
▁गें	-14901
▁गों	-14902
▁छुआ	-14903
▁शेल	-14904
▁सरी	-14905
ज्ञों	-14906
धीनगर	-14907
्मीकि	-14908
▁औरंग	-14909
▁कलाई	-14910
▁बिगा	-14911
GALORE	-14912
▁नक्शा	-14913
▁पंचों	-14914
▁पाषाण	-14915
▁ब्रॉड	-14916
▁रुपया	-14917
▁रोमां	-14918
▁वेदना	-14919
▁टीडीएस	-14920
▁बनाएगा	-14921
▁सटीकता	-14922
▁उत्तरों	-14923
▁जोखिमों	-14924
▁ज्योतिष	-14925
▁निधियां	-14926
▁परामर्शी	-14927
▁बीआईएफआर	-14928
▁भर्तियों	-14929
▁मानसिकता	-14930
▁असंतोषजनक	-14931
▁मूर्तियों	-14932
▁नर्मदाशंकर	-14933
▁अभियांत्रिकी	-14934
जील	-14935
तलब	-14936
युग	-14937
▁Si	-14938
ासाह	-14939
▁गोध	-14940
▁घोट	-14941
▁जूझ	-14942
▁डोर	-14943
▁बाज	-14944
▁बिश	-14945
▁लता	-14946
▁शूट	-14947
▁शैव	-14948
्रिंग	-14949
▁LINK	-14950
▁आभार	-14951
▁चंदन	-14952
▁फ्ला	-14953
▁मूवी	-14954
▁वैभव	-14955
▁सौते	-14956
▁जलाने	-14957
▁पकाने	-14958
▁शुक्ल	-14959
▁अमिताभ	-14960
▁कीर्ति	-14961
▁गठबंधन	-14962
▁चुप्पी	-14963
▁भक्तों	-14964
▁डिपॉजिट	-14965
▁हर्जाना	-14966
▁उत्कीर्ण	-14967
▁कोल्हटकर	-14968
▁तत्त्वों	-14969
▁प्रतिधारण	-14970
▁इलेक्ट्रिकल	-14971
▁ट्रांसफ़ेरे	-14972
ैच	-14973
कुर	-14974
य्य	-14975
▁गड	-14976
भुता	-14977
मनगर	-14978
ाप्र	-14979
िकीय	-14980
ुकूल	-14981
▁भाप	-14982
▁मज्	-14983
▁सुष	-14984
ादेवी	-14985
▁कांड	-14986
▁देवर	-14987
▁धीरज	-14988
▁बकरी	-14989
▁सूरी	-14990
ज्ञासा	-14991
तत्त्व	-14992
त्पादक	-14993
▁वरदान	-14994
▁सिक्ख	-14995
▁Bhawan	-14996
▁इंट्रा	-14997
▁ज़मानत	-14998
▁पुराणों	-14999
▁मोतीलाल	-15000
▁एनेक्सचर	-15001
▁तानाशाही	-15002
▁महाभियोग	-15003
▁कांग्रेसी	-15004
▁संस्करणों	-15005
▁हिन्दुस्तानी	-15006
PSC	-15007
ंटो	-15008
द्म	-15009
लेम	-15010
▁आड	-15011
फ़ोन	-15012
हारा	-15013
▁PWD	-15014
▁अटक	-15015
▁टोल	-15016
▁लिट	-15017
▁लोन	-15018
न्तुक	-15019
विदित	-15020
▁आर्म	-15021
▁दैवी	-15022
▁पीएल	-15023
▁पूंछ	-15024
▁पॉली	-15025
▁लेखे	-15026
▁वहॉँ	-15027
दर्शित	-15028
▁उतरने	-15029
▁क्रॉल	-15030
▁ग्लास	-15031
▁रंजीत	-15032
▁रोकती	-15033
▁सीनेट	-15034
▁एचयूएफ	-15035
▁जोड़ते	-15036
▁दिखाएं	-15037
▁परिसंघ	-15038
▁फिलहाल	-15039
▁बनवाया	-15040
▁ब्यौरा	-15041
▁सातवें	-15042
▁हुकूमत	-15043
partment	-15044
▁जन्मजात	-15045
▁प्रवृति	-15046
▁अनिच्छुक	-15047
▁कहानियाँ	-15048
▁पाइपलाइन	-15049
▁पाकिस्तानी	-15050
▁छात्रवृत्ति	-15051
▁सिद्धान्तों	-15052
MI	-15053
राइ	-15054
ावटी	-15055
▁Hig	-15056
▁कॉज	-15057
▁दीव	-15058
▁पिक	-15059
▁लवण	-15060
▁CCNo	-15061
▁ईसाइ	-15062
▁टीटी	-15063
▁स्वय	-15064
▁करियर	-15065
▁खोजें	-15066
▁गैसों	-15067
▁स्टोन	-15068
▁अतिचार	-15069
▁अधिकता	-15070
▁आयोगों	-15071
▁छोड़ते	-15072
▁रिश्ता	-15073
▁नकदीकरण	-15074
▁गांधीनगर	-15075
▁जमशेदपुर	-15076
▁जिज्ञासा	-15077
▁पुरातत्व	-15078
▁यूरोपियन	-15079
▁BANGALORE	-15080
▁लेबोरेटरी	-15081
▁सर्वव्यापी	-15082
▁एंटरप्राइजेज	-15083
आरए	-15084
ण्ण	-15085
लीज	-15086
ोकर	-15087
▁Th	-15088
▁छव	-15089
▁URL	-15090
▁नन्	-15091
याधीश	-15092
▁झुंड	-15093
▁डिटे	-15094
▁पराज	-15095
▁यादृ	-15096
▁रुके	-15097
▁वंशज	-15098
▁सरणी	-15099
▁चौंका	-15100
▁जसवंत	-15101
▁तूफान	-15102
▁प्लेस	-15103
▁उत्खनन	-15104
▁एकाधिक	-15105
▁ग्रामो	-15106
▁जेएनयू	-15107
▁पड़ेगी	-15108
▁मकानों	-15109
▁स्थापन	-15110
▁मजूमदार	-15111
▁महाद्वी	-15112
▁संरक्षा	-15113
▁प्रतिकृति	-15114
▁इलेक्ट्रिक	-15115
▁प्रोपराइटर	-15116
▁ब्रह्मानंद	-15117
▁संपरिवर्तन	-15118
eb	-15119
णे	-15120
▁ee	-15121
▁gu	-15122
▁तस	-15123
रहाल	-15124
▁Kar	-15125
▁अरा	-15126
▁काक	-15127
▁दरा	-15128
▁फिज	-15129
▁ममल	-15130
▁मसौ	-15131
▁सेब	-15132
आईएडी	-15133
ोरियम	-15134
▁Gaya	-15135
▁कंपा	-15136
▁जनना	-15137
▁जलीय	-15138
▁दरार	-15139
▁म्या	-15140
▁म्यु	-15141
▁संगो	-15142
▁कल्लू	-15143
▁छंटनी	-15144
▁परमार	-15145
▁यूसुफ	-15146
▁वक़्त	-15147
▁संगति	-15148
▁क्षत्र	-15149
▁गाँवों	-15150
▁भावनगर	-15151
▁सन्देश	-15152
▁सोडियम	-15153
▁प्रतिवेद	-15154
▁प्रमुखता	-15155
▁सम्बंधित	-15156
▁नाइट्रोजन	-15157
▁प्रयत्नों	-15158
▁बेरोजगारी	-15159
▁रूपांतरित	-15160
▁होल्डिंग्स	-15161
ARS	-15162
त्थ	-15163
बाइ	-15164
रणा	-15165
हॉक	-15166
▁कत	-15167
आरएल	-15168
न्टी	-15169
▁उस्	-15170
▁एसे	-15171
▁चंग	-15172
▁जेट	-15173
▁पैग	-15174
▁शुग	-15175
रियों	-15176
स्टेट	-15177
ान्तर	-15178
▁अधिर	-15179
▁झटके	-15180
▁नुस्	-15181
▁सरला	-15182
▁सूती	-15183
▁सेबी	-15184
ाहियों	-15185
▁उद्भव	-15186
▁खींची	-15187
▁चालित	-15188
▁दुहरा	-15189
▁बयाना	-15190
▁लौटते	-15191
▁वीरता	-15192
▁सांके	-15193
▁हैरान	-15194
▁Kumari	-15195
▁उदात्त	-15196
▁एनसीसी	-15197
▁महत्तर	-15198
▁श्रृंग	-15199
▁सुशासन	-15200
▁इकाइयाँ	-15201
▁प्रोन्न	-15202
▁सुब्रमण	-15203
▁कुंजीपटल	-15204
▁जितेंद्र	-15205
▁दोषमुक्त	-15206
▁चंद्रशेखर	-15207
▁मुकदमेबाज	-15208
▁यादृच्छिक	-15209
DC	-15210
ord	-15211
वली	-15212
िनस	-15213
▁ko	-15214
जवान	-15215
ाहिम	-15216
ोपेल	-15217
▁CRA	-15218
▁उमर	-15219
▁कतर	-15220
▁डीन	-15221
▁तने	-15222
▁लाश	-15223
▁सजग	-15224
▁उदास	-15225
▁चौबी	-15226
▁थोडा	-15227
▁बृहत	-15228
▁लाती	-15229
कोशिका	-15230
यात्मक	-15231
▁काटना	-15232
▁कार्ब	-15233
▁विभाज	-15234
▁स्वंय	-15235
▁स्वात	-15236
▁उकसावे	-15237
▁नदियां	-15238
▁निबन्ध	-15239
▁परिणति	-15240
▁यन्त्र	-15241
▁प्रसूति	-15242
▁फैक्टरी	-15243
▁शत्रुओं	-15244
▁रूपान्तर	-15245
▁ब्रह्मांड	-15246
▁आर्बिट्रेशन	-15247
▁तात्कालिकता	-15248
▁प्रमाणपत्रों	-15249
LC	-15250
तुक	-15251
ुलु	-15252
चर्य	-15253
प्ला	-15254
ावनी	-15255
ुलित	-15256
▁उपस	-15257
▁कवच	-15258
▁नज़	-15259
▁पिट	-15260
▁मोम	-15261
▁हँस	-15262
▁हिर	-15263
न्दरी	-15264
ानिया	-15265
▁केपी	-15266
▁ज्ये	-15267
▁डंडा	-15268
▁शिका	-15269
▁Mahto	-15270
▁अनादर	-15271
▁कीचड़	-15272
▁कुंवर	-15273
▁विपुल	-15274
▁शुभार	-15275
▁सोचकर	-15276
▁एमसीआई	-15277
▁करूँगा	-15278
▁बिछाने	-15279
▁अविभक्त	-15280
▁त्रिकोण	-15281
▁दृश्यों	-15282
▁नागेंद्र	-15283
▁वायुसेना	-15284
▁सांकेतिक	-15285
▁सामान्यत	-15286
▁इंडोनेशिया	-15287
रेक	-15288
▁Na	-15289
पाटी	-15290
शीली	-15291
▁टिन	-15292
▁डोग	-15293
▁ढाई	-15294
▁दंप	-15295
▁डिवि	-15296
▁फेरी	-15297
▁मेरु	-15298
▁लाइफ	-15299
▁लॉरी	-15300
▁वाकई	-15301
▁कुछेक	-15302
▁जुलूस	-15303
▁बक्से	-15304
▁बरसात	-15305
▁बांटा	-15306
▁मक्खन	-15307
▁मक्खी	-15308
▁किंगडम	-15309
▁भुगतने	-15310
ॉल्वेंसी	-15311
▁निराकरण	-15312
▁विलुप्त	-15313
▁कांफ्रेंस	-15314
▁अपर्याप्तता	-15315
▁प्रस्तुतीकरण	-15316
VII	-15317
डकर	-15318
मिथ	-15319
ापा	-15320
ेला	-15321
ोजर	-15322
▁CE	-15323
▁खं	-15324
▁खल	-15325
▁गम	-15326
नुमा	-15327
साही	-15328
सेसर	-15329
▁किफ	-15330
▁परभ	-15331
▁अर्ह	-15332
▁चंचल	-15333
▁टीके	-15334
▁फोकस	-15335
▁भड़क	-15336
▁लोहा	-15337
▁गुटों	-15338
▁गुरुत	-15339
▁लेफ्ट	-15340
क्षोपाय	-15341
▁घुसपैठ	-15342
▁ज्ञानी	-15343
▁सिक्का	-15344
▁सुपारी	-15345
▁स्वीडन	-15346
▁इमारतें	-15347
▁ईश्वरीय	-15348
▁केआईएडी	-15349
▁तीक्ष्ण	-15350
▁सक्षमता	-15351
▁सादृश्य	-15352
▁सेनापति	-15353
▁प्रतिध्व	-15354
▁प्राइमरी	-15355
▁मेट्रोपो	-15356
▁जमींदारों	-15357
▁स्थानान्तरण	-15358
UDA	-15359
खोर	-15360
रीज	-15361
ूले	-15362
▁घि	-15363
▁वश	-15364
गुरु	-15365
▁कोऑ	-15366
▁जोग	-15367
▁बाउ	-15368
▁मचा	-15369
▁रहो	-15370
आयामी	-15371
क्रोश	-15372
्वाधर	-15373
▁NEET	-15374
▁अब्ब	-15375
▁छिपी	-15376
▁मूंग	-15377
▁सीवी	-15378
बुद्धि	-15379
▁अंगुल	-15380
▁अशक्त	-15381
▁पत्ती	-15382
▁सौदों	-15383
▁अंधकार	-15384
▁अलीगढ़	-15385
▁कार्यो	-15386
▁खासतौर	-15387
▁रिटायर	-15388
▁विषाणु	-15389
▁उग्रवादी	-15390
▁स्टैंडर्ड	-15391
▁अतिशयोक्ति	-15392
▁प्रजातियां	-15393
▁सामंजस्यपूर्ण	-15394
use	-15395
गति	-15396
नोट	-15397
▁IN	-15398
▁ND	-15399
▁ऐल	-15400
कुलम	-15401
शासन	-15402
शासी	-15403
ायीं	-15404
▁टंक	-15405
▁धाम	-15406
▁धुन	-15407
▁पाट	-15408
▁पाश	-15409
▁सडक	-15410
रेटिव	-15411
ारिटी	-15412
▁http	-15413
▁जरुर	-15414
▁टूटे	-15415
▁पूरन	-15416
▁मुकु	-15417
▁लटका	-15418
▁हिरण	-15419
क्यूलर	-15420
्रीकृत	-15421
▁ट्राइ	-15422
▁तेजाब	-15423
▁दुसरे	-15424
▁पायलट	-15425
▁बच्ची	-15426
▁बढ़ाए	-15427
▁योंकि	-15428
▁वर्सस	-15429
▁ह्रदय	-15430
▁तिब्बत	-15431
▁संबधित	-15432
▁संवेदी	-15433
▁आदमियों	-15434
▁चार्ल्स	-15435
▁इब्राहिम	-15436
▁प्रांतों	-15437
▁शत्रुघ्न	-15438
▁विज्ञप्ति	-15439
▁स्त्रियां	-15440
▁कार्यनीतिक	-15441
▁वर्णनात्मक	-15442
▁व्यवस्थाओं	-15443
▁प्रत्यक्षीकरण	-15444
ंन	-15445
मह	-15446
ंगु	-15447
▁pp	-15448
▁उध	-15449
▁झं	-15450
दिरा	-15451
▁डाँ	-15452
▁पाम	-15453
▁मेस	-15454
▁शाप	-15455
▁सिव	-15456
स्कोप	-15457
▁Roht	-15458
▁आईएफ	-15459
▁उठकर	-15460
▁एलटी	-15461
▁खाया	-15462
▁मिमी	-15463
▁रूपए	-15464
▁चुम्ब	-15465
▁पराजय	-15466
▁परिकल	-15467
▁बैठते	-15468
▁सेंसर	-15469
नेलवेली	-15470
▁असंगति	-15471
▁आरटीआई	-15472
▁घोड़ों	-15473
▁चतुर्व	-15474
▁त्यागी	-15475
▁नेपाली	-15476
▁प्रयाग	-15477
▁प्रोटे	-15478
▁बड़ौदा	-15479
▁बरामदे	-15480
▁शिलाले	-15481
▁एस्टोपेल	-15482
▁गुणात्मक	-15483
▁मताधिकार	-15484
▁बल्लेबाजी	-15485
▁राजकुमारी	-15486
▁प्रोसेसिंग	-15487
▁कार्रवाइयों	-15488
▁प्रार्थनाओं	-15489
aff	-15490
ain	-15491
गना	-15492
▁af	-15493
▁उच	-15494
▁झी	-15495
ical	-15496
आईएस	-15497
गाली	-15498
ोत्त	-15499
▁काफ	-15500
▁दाख	-15501
▁निल	-15502
िविटी	-15503
ोजनों	-15504
▁अकाल	-15505
▁ऑप्ट	-15506
▁करीम	-15507
▁गोंड	-15508
▁छुरा	-15509
▁नर्इ	-15510
▁भूरा	-15511
▁मलिक	-15512
▁आहरित	-15513
▁एडहॉक	-15514
▁कथानक	-15515
▁कानों	-15516
▁जिहाद	-15517
▁जीर्ण	-15518
▁नशीली	-15519
▁नोबेल	-15520
▁बन्धन	-15521
▁भेजकर	-15522
▁संभवत	-15523
▁साँचा	-15524
▁इजराइल	-15525
▁क्लबों	-15526
▁गुस्से	-15527
▁गौरतलब	-15528
▁पटवारी	-15529
▁बोलचाल	-15530
▁मददगार	-15531
▁मीटिंग	-15532
▁वर्धित	-15533
▁कंपाउंड	-15534
▁गोवर्धन	-15535
▁नक्षत्र	-15536
▁प्रमोशन	-15537
▁फुफ्फुस	-15538
▁बताएंगे	-15539
▁ममलतदार	-15540
▁करनेवाला	-15541
▁डायरेक्ट	-15542
▁दूरदर्शन	-15543
▁रिपब्लिक	-15544
▁कठिनाइयां	-15545
▁ब्राह्मणों	-15546
गान	-15547
डेम	-15548
▁On	-15549
▁जख	-15550
▁शॉ	-15551
रांव	-15552
लेपन	-15553
ल्सन	-15554
▁App	-15555
▁अगु	-15556
▁अवा	-15557
▁आईए	-15558
▁कंद	-15559
▁नजी	-15560
▁भगा	-15561
▁माई	-15562
▁मात	-15563
▁शही	-15564
तान्त	-15565
▁अपंग	-15566
▁आज्ञ	-15567
▁कमां	-15568
▁गाजा	-15569
▁जनित	-15570
▁झाड़	-15571
▁नाला	-15572
▁अन्ना	-15573
▁कायदा	-15574
▁गुजरे	-15575
▁निगाह	-15576
▁बीमित	-15577
▁महीना	-15578
▁गुच्छा	-15579
▁झोपड़ी	-15580
▁टीआईपी	-15581
▁दर्शाए	-15582
▁परिधीय	-15583
▁लम्बाई	-15584
▁व्हाइट	-15585
▁सुनाते	-15586
▁जायसवाल	-15587
▁टेनेंसी	-15588
▁भंडारित	-15589
▁शाहजहाँ	-15590
▁स्ट्रेट	-15591
▁उत्सुकता	-15592
▁देशभक्ति	-15593
▁विजयवाड़ा	-15594
आप	-15595
श्क	-15596
िवर	-15597
ुकु	-15598
क्कन	-15599
चारे	-15600
▁SHO	-15601
▁ठुक	-15602
▁रास	-15603
▁हनन	-15604
ल्लोर	-15605
ारोपण	-15606
▁MANU	-15607
▁कभार	-15608
▁ध्या	-15609
▁भुजा	-15610
रेनियम	-15611
▁टिकला	-15612
▁पेयजल	-15613
▁मसौदे	-15614
▁रुझान	-15615
▁अड्डों	-15616
▁एयरलाइ	-15617
▁जांचना	-15618
▁डिब्बे	-15619
▁भेड़ों	-15620
▁शिकारी	-15621
▁सम्पदा	-15622
▁अध्यधीन	-15623
▁गलतियों	-15624
▁दोहराने	-15625
▁धारणाओं	-15626
▁बोलियां	-15627
▁उंगलियों	-15628
▁निर्धनता	-15629
▁Bhagalpur	-15630
▁व्यवसायिक	-15631
▁अनुज्ञप्ति	-15632
▁उपलब्धियां	-15633
[...]
