<unk>	0
<s>	0
</s>	0
UuRrLl	0
DdAaTtEe	0
NnUuMm	0
ನ್	-0
▁ಮ	-1
ತ್	-2
▁ಸ	-3
ಲ್	-4
▁ಅ	-5
ಿಸ	-6
ನು	-7
ರ್	-8
ತ್ತ	-9
ಲ್ಲ	-10
▁ಪ	-11
ನ್ನು	-12
ಗಳ	-13
ಿದ	-14
ಾಗ	-15
ಂದ	-16
▁ನ	-17
್ರ	-18
▁ಕ	-19
▁ವ	-20
ಾರ	-21
ಯಾ	-22
ಕ್	-23
ಿಯ	-24
ಲ್ಲಿ	-25
ತ್ತು	-26
ುವ	-27
ೆಯ	-28
▁ಹ	-29
▁ಮತ್ತು	-30
ಗೆ	-31
▁ರ	-32
್ಯ	-33
▁ಆ	-34
ಿಕ	-35
▁ಪ್ರ	-36
ುದ	-37
▁ಎ	-38
ಸ್	-39
ವಾ	-40
▁ತ	-41
ರು	-42
ಾಗಿ	-43
ರಿ	-44
▁ಬ	-45
್ದ	-46
▁ವಿ	-47
ಿದೆ	-48
ಂತ	-49
ಟ್	-50
ಿತ	-51
ಿಸಲ	-52
ವನ್ನು	-53
▁ಇ	-54
ಂದು	-55
ಿನ	-56
ವು	-57
▁ಸಂ	-58
▁ನಿ	-59
ುತ್ತ	-60
ಾಯ	-61
ಗಳು	-62
ವಿ	-63
▁ಮಾ	-64
ಗಳನ್ನು	-65
ಿಗೆ	-66
▁ಅವ	-67
ಿಸಿದ	-68
ಕ್ಷ	-69
ಕ್ಕ	-70
ದೆ	-71
▁(	-72
ಾನ	-73
▁ಉ	-74
▁ದ	-75
ತಿ	-76
▁ಒ	-77
ನ್ಯಾ	-78
▁ಈ	-79
ಂಡ	-80
▁ನ್ಯಾ	-81
ೇಶ	-82
▁ಮೇ	-83
ರೆ	-84
ವಾಗಿ	-85
ಿಸುವ	-86
ಾಗಿದೆ	-87
ದಲ್ಲಿ	-88
ಿಂದ	-89
▁ಸಾ	-90
▁ಸ್	-91
ಷ್	-92
▁ಶ	-93
▁ಗ	-94
ಥವಾ	-95
▁ಅಥವಾ	-96
ಾದ	-97
ೊಳ	-98
▁ಜ	-99
ದು	-100
ಕರ	-101
▁ಭ	-102
▁ಎಂದು	-103
▁ಆದ	-104
ುದು	-105
ುತ್ತದೆ	-106
▁ನ್ಯಾಯಾ	-107
ಿದ್ದ	-108
ಾರ್	-109
▁ಮಾಡ	-110
ಲು	-111
ಷ್ಟ	-112
ಂಧ	-113
ಟ್ಟ	-114
▁ನೀ	-115
▁ನಿರ್	-116
ೆಯನ್ನು	-117
ನೆ	-118
ಮನ	-119
ರುವ	-120
▁ಯಾ	-121
್ಯಾ	-122
ಪ್	-123
▁ಯಾವ	-124
ಲಯ	-125
▁ಪರಿ	-126
ಂಬ	-127
ವೆ	-128
ತ್ರ	-129
ಿಯಲ್ಲಿ	-130
ಪಡ	-131
ಿಲ್ಲ	-132
ಕ್ಕೆ	-133
ೇಕ	-134
ುದೇ	-135
ಬಂಧ	-136
ಿಸಲು	-137
▁ಹೊ	-138
ಿಯನ್ನು	-139
ಂಗ	-140
ವಾದ	-141
▁ನೀಡ	-142
▁ಯಾವುದೇ	-143
ಮಾ	-144
▁ರಾ	-145
ಲೆ	-146
▁ನ್ಯಾಯಾಲಯ	-147
▁ಮು	-148
ಕಾರ	-149
ಬೇಕ	-150
ಂತೆ	-151
ಮ್	-152
ನ್ನ	-153
ಿಸಿ	-154
▁ಮೇಲ್	-155
▁ಅರ್	-156
ರಾ	-157
್ಳ	-158
▁ಅಧ	-159
▁ಸಮ	-160
ಚ್	-161
▁ಅದ	-162
ಕ್ತ	-163
ಾರಣ	-164
ಸ್ತ	-165
▁ಮೇಲ್ಮನ	-166
▁ಮೂ	-167
▁ಅನು	-168
ಿತು	-169
ಡಿ	-170
ೊಳ್ಳ	-171
▁ವ್ಯ	-172
ೇಳ	-173
ಾವ	-174
್ಧ	-175
ೆಗೆ	-176
▁ಚ	-177
ಗಳಿಗೆ	-178
ೊಂಡ	-179
ಡ್	-180
▁-	-181
ಕರಣ	-182
&#	-183
ಗಳಲ್ಲಿ	-184
ಬ್	-185
ಂತರ	-186
ನೆಯ	-187
ಾಸ	-188
ಬಹ	-189
ಾರೆ	-190
ಪ್ಪ	-191
ಿಕಾರ	-192
▁ಸಂಬಂಧ	-193
ದ್ದ	-194
ತ್ಯ	-195
▁ಲ	-196
▁ಕೆ	-197
▁ಮೇಲ್ಮನವಿ	-198
ಚ್ಚ	-199
▁ರಾಜ	-200
ದಿ	-201
ಡೆ	-202
ಪ್ರ	-203
ಮ್ಮ	-204
▁ಮೂಲ	-205
ನಿ	-206
▁ಕಾರ್	-207
ರಿಂದ	-208
▁ಅಂತ	-209
ೋರ್	-210
▁ಕಾಯ	-211
ೀರ್	-212
▁ಯ	-213
▁ಹೆ	-214
▁ಅವರು	-215
ಿಸಲಾಗಿದೆ	-216
ಸ್ಥ	-217
▁ಮೊ	-218
▁ಹೇಳ	-219
▁ಪ್ರತಿ	-220
▁ಅವರ	-221
ಸಿ	-222
ೊಂದ	-223
▁ಮೇಲೆ	-224
ೀಯ	-225
ಧಾನ	-226
ಲ್ಯ	-227
▁ಪರ	-228
ಾನೂ	-229
ಡಿಯಲ್ಲಿ	-230
▁ನಿಯ	-231
ರಿಗೆ	-232
▁ನಾ	-233
ೋರ್ಟ್	-234
▁ಕಾನೂ	-235
▁ಸಲ್ಲ	-236
ಿಸುತ್ತದೆ	-237
ಬಹುದು	-238
ಶ್	-239
▁ಅರ್ಜ	-240
ಟಿ	-241
ುದಿಲ್ಲ	-242
ರೋ	-243
▁ರಾಜ್ಯ	-244
ಪಿ	-245
ಿಕೆ	-246
▁ವರ್	-247
ತರ	-248
ಬೇಕು	-249
ೈಕ	-250
ಾಲ	-251
▁ನಂತರ	-252
▁ಸೇ	-253
ಾಗುವ	-254
▁/	-255
▁ಅಭ	-256
▁ಸಿ	-257
▁ತೀರ್	-258
ವಾಗಿದೆ	-259
▁ಅಧಿಕಾರ	-260
▁ಎಂಬ	-261
▁ಪ್ರಕರಣ	-262
ೂರ್	-263
ತೆ	-264
▁ಸಹ	-265
▁ಸ್ಥ	-266
ವಹ	-267
ಗೊಳ	-268
ಧ್ಯ	-269
▁ಅಂತಹ	-270
ದಿಂದ	-271
ಿಸ್	-272
▁ಅಡಿಯಲ್ಲಿ	-273
▁ಸೂ	-274
ಾಗುತ್ತದೆ	-275
▁ಆದೇಶ	-276
ೋಗ	-277
▁ಹೊಂದ	-278
ಿರ	-279
ಖ್ಯ	-280
▁ಖ	-281
ೊಂದಿಗೆ	-282
▁ಇದ	-283
▁ಕಾರ್ಯ	-284
ಾಂ	-285
ಫ್	-286
ವರ	-287
▁ಹೆಚ್ಚ	-288
ಿಡ	-289
ಾಮ	-290
ಾರತ	-291
▁ಮೂಲಕ	-292
▁ಸು	-293
▁ಅಪ	-294
ದೇಶ	-295
▁ಇದು	-296
▁ಸರ್	-297
ೈಕೋರ್ಟ್	-298
ಳಗ	-299
ರುತ್ತ	-300
▁ಒಂದು	-301
▁ಹೈಕೋರ್ಟ್	-302
▁ಆರೋ	-303
▁ನ್ಯಾಯಾಲಯವು	-304
▁ಏ	-305
ಪಟ್ಟ	-306
ಣೆ	-307
ರ್ಥ	-308
▁.	-309
▁ಭಾರತ	-310
▁ಶಿ	-311
ೆಯಲ್ಲಿ	-312
▁ಉಲ್ಲ	-313
ೇಖ	-314
ೋಜ	-315
ಗಾರ	-316
ಧಾರ	-317
▁ಅದರ	-318
▁ನ್ಯಾಯ	-319
ಗಣ	-320
ರಡ	-321
▁ತೀರ್ಪ	-322
▁ನೇ	-323
▁ಮುಂದ	-324
ಕೆ	-325
ಿಕೊಳ್ಳ	-326
ಿರುವ	-327
▁ಕ್ರ	-328
▁ಕಾರಣ	-329
ಂದರೆ	-330
▁ಸೆ	-331
ವಿಧಾನ	-332
▁ಸಂಬಂಧಿಸಿದ	-333
ಾಯಿತು	-334
▁&#	-335
ಿಯು	-336
▁ಸರ್ಕಾರ	-337
▁ಪರಿಗಣ	-338
ಾಖ	-339
ತ್ವ	-340
ಿಸುತ್ತ	-341
▁ಅಭಿ	-342
▁ಪ್ರತಿವಾದ	-343
ಧೀ	-344
▁ವಿಷ	-345
▁ಒಪ್ಪ	-346
▁ಎಸ್	-347
▁ರೂ	-348
ಿಸಿದೆ	-349
▁ವಿಷಯ	-350
▁ಹಕ್ಕ	-351
ನ್ಯ	-352
▁ನಿಯಮ	-353
▁ದಿನ	-354
ತು	-355
ಚಾರಣ	-356
ಂಗ್	-357
ಗಾಗಿ	-358
ಿಸಿದ್ದ	-359
▁ವ್ಯಾ	-360
ಕಾ	-361
▁ನಾವು	-362
▁ಗು	-363
▁ಅನ್ನು	-364
ಗ್	-365
ಜ್	-366
ಟ್ರ	-367
ೀಲ	-368
▁ಉದ್ದ	-369
ರಾಧ	-370
ಾಪ	-371
ರುದ	-372
▁ಫ	-373
▁ಉದ್ದೇಶ	-374
ದ್ಧ	-375
ಲಿ	-376
▁ಕಾಯ್ದ	-377
..	-378
▁ಸಂದ	-379
್ರೀ	-380
▁ಬೆ	-381
▁ರಲ್ಲಿ	-382
▁ಕೇ	-383
ತಿಯ	-384
▁ಸ್ವ	-385
▁ನಿಬಂಧ	-386
▁ಕಾನೂನು	-387
ರ್ಭ	-388
ದುಕ	-389
▁ವಿಚಾರಣ	-390
ಭಾಗ	-391
▁ಹೊರ	-392
ರೂ	-393
▁ಕೆಲ	-394
ಡೆಯ	-395
▁ಅನುಮ	-396
▁ಇತರ	-397
ೀಕರ	-398
ರುತ್ತದೆ	-399
▁ಶಿಕ್ಷ	-400
▁ಉಲ್ಲೇಖ	-401
▁ತಿ	-402
ಿದೆಯ	-403
▁ತನ್ನ	-404
▁ಮೊದ	-405
▁ಎಲ್ಲ	-406
ಗತ್ಯ	-407
▁ಅದು	-408
ನಲ್ಲಿ	-409
್ದರಿಂದ	-410
▁ಅಪರಾಧ	-411
▁ಪು	-412
ಿಮ	-413
ತೆಯ	-414
ಲಿತ	-415
▁ಷ	-416
▁ರಂದು	-417
▁ಎರಡ	-418
▁ಗಮನ	-419
ಆರ್	-420
▁ಆಯ	-421
▁ಆದ್ದರಿಂದ	-422
ಕ್ರ	-423
▁ಸಂಪ	-424
ನಾ	-425
▁ಸಂದರ್ಭ	-426
ದ್ಯ	-427
ಾಹ	-428
ಲಿನ	-429
▁ಸ್ಪ	-430
ರಣ	-431
ಸ್ತು	-432
▁ದಾಖ	-433
▁ಆದರೆ	-434
▁ಸಾಕ್ಷ	-435
▁ನೋ	-436
ಿಸುವುದು	-437
ಬ್ಬ	-438
ಾಗಿದ್ದ	-439
ಂತ್ರ	-440
ಲಾಗಿದೆ	-441
ಾಕ	-442
ಣಿ	-443
▁ತೆಗೆ	-444
▁ಶ್ರೀ	-445
▁ಅಗತ್ಯ	-446
ಂಪ	-447
▁ವರ್ಷ	-448
ವಿಲ್ಲ	-449
ಿಕೆಯ	-450
ಷ್ಟ್ರ	-451
▁ಸಂಖ್ಯ	-452
ಗ್ಗೆ	-453
ಬಿ	-454
ರುದ್ಧ	-455
▁ವ್ಯಕ್ತ	-456
▁ಉಪ	-457
ಕ್ಕಾಗಿ	-458
▁|	-459
ಿದಾರ	-460
ಿಸಿದರು	-461
ಾಗುವುದಿಲ್ಲ	-462
ಕ್ತಿ	-463
▁ಡ	-464
▁ವಿರುದ್ಧ	-465
▁ಭಾಗ	-466
ಎಸ್	-467
ಟೆ	-468
ೂರ್ಣ	-469
▁ಘ	-470
▁ಬಗ್ಗೆ	-471
▁ಮೌ	-472
▁ಕಲಿತ	-473
.0	-474
▁ಪ್ರಕಾರ	-475
ಸ್ಯ	-476
▁ಸಂಬಂಧಿಸಿದಂತೆ	-477
▁ಬಳ	-478
ಾರಾ	-479
▁ಪರಿಣ	-480
ೇಷ	-481
ಟ್ಟು	-482
▁ಮಾಡಿದ	-483
▁ವೈ	-484
ಧೀಶ	-485
▁“	-486
ಂಚ	-487
▁ಸೂಚ	-488
▁ನ್ಯಾಯಾಲಯದ	-489
ನೆಯನ್ನು	-490
▁ನ್ಯಾಯಾಧೀಶ	-491
▁ಶಾಸ	-492
ಂದ್ರ	-493
ೀಕ್ಷ	-494
▁ಸಮಯ	-495
▁ತೆ	-496
ಿಸಲಾಯಿತು	-497
ಾಂಕ	-498
▁ಕು	-499
▁ಮೇಲಿನ	-500
▁ಪರಿಣಾಮ	-501
▁ಸರ	-502
▁ಐ	-503
▁ಮಾಡುವ	-504
ಾರಿ	-505
▁ಪ್ರಶ್	-506
ಡುವ	-507
▁ಪಾವ	-508
ಿಸಬಹುದು	-509
▁ನಿಬಂಧನೆ	-510
ಬ್ಲ್ಯ	-511
ಟರ್	-512
ಿದ್ದಾರೆ	-513
▁ಎಲ್ಲಾ	-514
ಮೆ	-515
▁ಸಾಮಾ	-516
▁ಮೌಲ್ಯ	-517
ಹಿತ	-518
ರ್ವ	-519
▁ತೆಗೆದುಕ	-520
▁ನಮ್ಮ	-521
▁ಷರ	-522
ಿಸಬೇಕ	-523
▁ಕ್	-524
ನಿಕ	-525
ಕು	-526
▁ಪ್ರಾ	-527
ಿಸಲಾದ	-528
▁ಸಂವಿಧಾನ	-529
▁ನಡೆ	-530
▁ಸ್ವಾ	-531
▁ಸಂಖ್ಯೆ	-532
ನದ	-533
▁ದಿನಾಂಕ	-534
▁ದೃ	-535
▁ಕಾನೂನ	-536
ಜಿ	-537
ೇವೆ	-538
▁ಯೋಜ	-539
ಿಕೊಂಡ	-540
▁ಸ್ಪಷ್ಟ	-541
ಿಗಳ	-542
▁ಕಾಯಿದೆಯ	-543
ಿಗಳು	-544
ವೇಶ	-545
▁ಒಪ್ಪಂದ	-546
ಮಾನ	-547
ಿಸಿಕೊಳ್ಳ	-548
▁ಅದನ್ನು	-549
▁[	-550
ಗಿ	-551
▁ಉತ್ತ	-552
▁ಮಾತ್ರ	-553
ನ್ವ	-554
ಮಾಣ	-555
ಂಭ	-556
▁ಅಂ	-557
▁ಕೆಳಗ	-558
▁ನಿರ್ದೇಶ	-559
▁ರಾಷ್ಟ್ರ	-560
▁ತಿಳ	-561
▁ರಿ	-562
▁ನೀಡುವ	-563
ಕ್ಷನ್	-564
▁ಆಧಾರ	-565
ಪ್ರಾಯ	-566
ದಗ	-567
ಿಸಬೇಕು	-568
ದಿಷ್ಟ	-569
ೋಷ	-570
▁ಒಳಗ	-571
▁ಒದಗ	-572
ಹಾರ	-573
ಲೀ	-574
▁ದಾಖಲ	-575
ಾರು	-576
▁ಕೆಳಗಿನ	-577
▁ಜನ	-578
▁ಭೂ	-579
▁ಷರತ್ತು	-580
▁ವಿಧ	-581
▁ನಿರ್ದಿಷ್ಟ	-582
ರೆಗೆ	-583
▁ಮುಂದೆ	-584
ಪ್ತ	-585
▁ಸಾರ್ವ	-586
▁ಪಾವತ	-587
▁ಹಕ್ಕು	-588
▁ಆರೋಪಿ	-589
▁ಸಾಧ್ಯ	-590
ಗಳಿಂದ	-591
▁ಹಿಂದ	-592
▁ಅಭಿಪ್ರಾಯ	-593
▁ಅರ್ಜಿದಾರ	-594
ವೃ	-595
▁ಸೇರ	-596
▁ವಿಶ	-597
ಸು	-598
▁ಕೋ	-599
▁ರೀ	-600
▁ಸಲ	-601
ಿನಲ್ಲಿ	-602
▁ವರ್ಗ	-603
ಶೀಲ	-604
ರದ	-605
ಜನಿಕ	-606
▁ಸಂಗ	-607
ಧರ	-608
▁ನೇಮ	-609
ಳು	-610
ೃತ	-611
▁ಮಾಡಲು	-612
▁ಅರ್ಹ	-613
▁ಪಕ್ಷ	-614
▁ವಿವರ	-615
ಷ್ಟು	-616
▁ಸೆಕ್ಷನ್	-617
▁ಸಂಸ್ಥ	-618
ವಾಗ	-619
▁ಕೇಂದ್ರ	-620
▁ಸಾರ್ವಜನಿಕ	-621
ಿಸಿತು	-622
▁ಮಧ್ಯ	-623
▁ತಪ್ಪ	-624
ಲಾ	-625
ಿಸಿದ್ದಾರೆ	-626
ಂಜ	-627
▁ಕ್ರಮ	-628
ಸಿಸಿ	-629
▁ನಿರ್ವಹ	-630
▁ಪ್ರಯ	-631
ಬ್ಲ್ಯೂ	-632
ನ್ವಯ	-633
▁ಕೊ	-634
▁ತಮ್ಮ	-635
್ಯೂ	-636
▁ವಿಭಾಗ	-637
▁ಕಂಪ	-638
▁ಅವಧ	-639
ಂಡಳ	-640
▁ಕೈ	-641
ನವನ್ನು	-642
ಪಾದ	-643
▁ಸಾಮಾನ್ಯ	-644
▁ವಾ	-645
ಂಡು	-646
ಯಾದ	-647
ಿಕ್	-648
▁ಕೆಲವು	-649
ೂರ	-650
▁ಅಂಗ	-651
ಿಸಲಾಗುತ್ತದೆ	-652
ತೆಯನ್ನು	-653
▁ಬಿ	-654
▁ರೂಪ	-655
▁ಆರೋಪ	-656
▁ಸಂಪೂರ್ಣ	-657
ಜ್ಞ	-658
▁ಪಡೆಯ	-659
▁ಅನ್ವಯ	-660
ಲೇ	-661
▁ಸದ	-662
▁ನೀಡಲ	-663
ಿಯಾಗಿ	-664
ಗಳಿ	-665
ಭವ	-666
▁ಇದನ್ನು	-667
▁ನಿಗ	-668
▁ತೀರ್ಪು	-669
ಸ್ತಿ	-670
▁ಮತ್ತ	-671
▁ಮನ	-672
ಜೆ	-673
▁ವ್ಯಕ್ತಿ	-674
ನಿಯ	-675
▁ನಡೆಸ	-676
▁ಒಳಗೊಂಡ	-677
▁ಬಾ	-678
ುದನ್ನು	-679
ನೇ	-680
ಂಟ	-681
▁ಸಲಹ	-682
▁ಭಾರತದ	-683
▁ಅಂಶ	-684
ೋದ	-685
▁ವಾದ	-686
ಿದ್ದು	-687
▁ನಂ	-688
ಾನೆ	-689
▁ಎಸ್ಸಿಸಿ	-690
ಮಾಪ	-691
▁ಹಿ	-692
ಸ್ತುತ	-693
ಿಯಿಂದ	-694
ನೆಗೆ	-695
▁ನಡುವ	-696
▁ತೆಗೆದುಕೊಳ್ಳ	-697
▁ಇಲ್ಲ	-698
▁ಪ್ರದೇಶ	-699
ಡ್ಡ	-700
ನ್ಸ್	-701
ಕ್ಷಣ	-702
▁ಪರಿಶೀಲ	-703
▁ಮಹ	-704
ರ್ಶ	-705
ವರ್	-706
▁ಕಂಡು	-707
▁ಅವಲ	-708
▁ನೀಡಿದ	-709
▁ಪರೀಕ್ಷ	-710
▁ಪರಿಹಾರ	-711
▁ಸಂದರ್ಭದಲ್ಲಿ	-712
▁ಉದ್ಯ	-713
ೀವ	-714
▁ಅವನ	-715
▁ಕಾನೂನಿನ	-716
▁ವಿಶ್	-717
▁ಓ	-718
▁ಪ್ರತಿವಾದಿ	-719
▁ಪ್ರಸ್ತುತ	-720
ರನ್ನು	-721
▁ಹೆಚ್ಚಿನ	-722
▁ಹಣ	-723
▁ಮೌಲ್ಯಮಾಪ	-724
▁ಮುಖ್ಯ	-725
▁ಸ್ಥಾಪ	-726
▁ಮಾರ್	-727
ರ್ಯ	-728
ೇಪ	-729
ಂಟ್	-730
▁ವಿಶೇಷ	-731
▁ನಿರ್ಧರ	-732
ಂತ್	-733
ಾರಾಟ	-734
▁ಪಿ	-735
▁ಗ್ರ	-736
▁ಬೇ	-737
ಪಡಿಸಿದ	-738
▁ಮೇಲ್ಮನವ	-739
▁ಬಹ	-740
▁ಪರವಾಗಿ	-741
▁ಉತ್	-742
▁ಡಿ	-743
▁ಪ್ರತ	-744
ಿದ್ದರೆ	-745
▁ಕಾಯ್ದೆ	-746
ಿಗಳನ್ನು	-747
ಧಿಕಾರ	-748
ೇಟ್	-749
ುವುದು	-750
▁ವ್ಯವಹ	-751
▁ಸ್ಥಳ	-752
ಕ್ರಿಯ	-753
ವಲ್ಲ	-754
▁ಪಡೆ	-755
ಲ್ಪಟ್ಟ	-756
▁ಮಾರಾಟ	-757
▁ನಿಯಂತ್ರ	-758
▁ಬದ	-759
....	-760
ಗು	-761
▁ಸಾಕ್ಷ್ಯ	-762
▁ಎರಡು	-763
▁ಸಲ್ಲಿಸಿದ	-764
▁ನಿರ್ಧಾರ	-765
▁ಆರ್	-766
▁ಪಿಡ	-767
▁ರಿಂದ	-768
ಷ್ಠ	-769
ವ್ಯ	-770
ಎಲ್	-771
ಣೆಯ	-772
ುದಾದ	-773
▁ಮೊತ್ತ	-774
▁ಮೊದಲು	-775
▁ಅಸ	-776
ಖ್ಯಾ	-777
▁ಸದಸ್ಯ	-778
ಾಗಿಲ್ಲ	-779
▁ಆಧಾರದ	-780
▁ಬಳಸ	-781
▁ಪ್ರಮಾಣ	-782
ವರೆಗೆ	-783
್ರಾ	-784
▁ಒಳ	-785
ಣ್	-786
▁ಮೊದಲ	-787
▁ಆದೇಶವನ್ನು	-788
▁ವಿದ	-789
▁ಬ್ಯಾ	-790
▁ಪತ್ರ	-791
▁0	-792
ಿಕೆಯನ್ನು	-793
▁ಅರ್ಜಿಯನ್ನು	-794
ರೆಯ	-795
▁ಅನ	-796
▁ಗುರು	-797
▁ಸಮಯದಲ್ಲಿ	-798
ಗೊಂಡ	-799
ೀಠ	-800
ವೇ	-801
▁ತೋ	-802
▁ಪದ	-803
▁ಮಾಹಿತ	-804
▁ವಿವಾದ	-805
ಾರ್ಹ	-806
ತ್ಮ	-807
ವೃದ್ಧ	-808
),	-809
ಕ್ಷೇಪ	-810
▁ನ್ಯಾಯಮ	-811
▁ಕಾಯ್ದೆಯ	-812
ೈಸ	-813
ನಿರ್	-814
▁ಆದಾಯ	-815
▁ಅಧ್ಯ	-816
▁ನ್ಯಾಯಾಂಗ	-817
▁ಕಾ	-818
ತ್ಯಾ	-819
ರಿತ	-820
ಳೆ	-821
▁ಭೂಮ	-822
ವಿಧ	-823
▁ಸಲಹೆ	-824
ಾತ	-825
ದಾರ	-826
▁ಪ್ರಕರಣದಲ್ಲಿ	-827
▁ಆಫ್	-828
▁ಮರು	-829
▁ಸೂಕ್ತ	-830
▁ವಿವಿಧ	-831
ಾರಂಭ	-832
▁ಪೊ	-833
ಡು	-834
ವರು	-835
ಕರು	-836
▁ಹೇಳಿದ	-837
ಂಕ	-838
▁ಸಂವಿಧಾನದ	-839
ಯು	-840
▁ಅಭಿವೃದ್ಧ	-841
▁ಸಂಸ್ಥೆ	-842
▁ದೃಷ್ಟ	-843
▁ವೆ	-844
ಿದ್ದುಪಡ	-845
ರಿಯ	-846
ಾರಿಗೆ	-847
▁ಸಮಿತ	-848
ಬದ್ಧ	-849
ಳಿತ	-850
▁ನೆ	-851
ಾಲ್	-852
ot	-853
ಿಸಲಾಗುವುದಿಲ್ಲ	-854
▁ಅನುಸ	-855
▁ಅವು	-856
▁ರಚ	-857
ದ್	-858
ಮು	-859
▁ತೆರಿಗೆ	-860
▁ಆಯೋಗ	-861
ಾಜ	-862
▁ಘಟ	-863
ವಾನ	-864
▁ಬದಲ	-865
ವಸ್ಥ	-866
▁ಯು	-867
ಷನ್	-868
ಗೊಳಿಸುವ	-869
▁ವಕ	-870
▁ವರದ	-871
▁ಅನುಮತ	-872
▁ಪಿಡಬ್ಲ್ಯೂ	-873
▁ಕೆಲಸ	-874
▁ಸಾಲ	-875
▁ಪ್ರಕ್ರಿಯ	-876
▁ಉಳ	-877
▁ಪೊಲೀ	-878
▁ಅವಲಂಬ	-879
▁ಸಮರ್ಥ	-880
▁ವಕೀಲ	-881
ತುಪಡ	-882
ಯೂ	-883
qu	-884
ಮಿಕ	-885
ಪ್ರಾ	-886
▁ಇದರ	-887
▁ಸೇವೆ	-888
ಭ್ಯ	-889
▁ಪ್ರಾಧಿಕಾರ	-890
ಚಿ	-891
▁ಪ್ಯ	-892
quot	-893
ಲಾಗುತ್ತದೆ	-894
▁ಸ್ವಾಧೀ	-895
▁ತಿದ್ದುಪಡ	-896
ಿಸಲ್ಪಟ್ಟ	-897
▁ದೂ	-898
▁ಮೀ	-899
ಿಗ	-900
▁ಇರ	-901
▁ಮುಂದುವ	-902
▁ಮೆ	-903
▁ಗುರುತ	-904
▁ಈಗ	-905
▁ಪ್ರಾರಂಭ	-906
▁ದೇಶ	-907
ಪಡಿಸಿಕೊಳ್ಳ	-908
ಾಸ್	-909
▁ಹೊಂದಿರುವ	-910
▁ವ್ಯಾಖ್ಯಾ	-911
▁ಆಗ	-912
▁&	-913
▁ಟ	-914
▁ಅರ್ಥ	-915
ುದರಿಂದ	-916
ೂಲ	-917
ಲ್ಕ	-918
ೂಚ	-919
▁ಎಂಬುದು	-920
ವಿಭಾಗ	-921
ೂಡ	-922
▁ವಸ್ತು	-923
▁ಪ್ರವೇಶ	-924
▁ಅದೇ	-925
ಿಸುವುದಿಲ್ಲ	-926
▁ವಿಧಾನ	-927
▁ಹಿಂದಿನ	-928
▁ಶಾಸನ	-929
ಿಸಿಕೊಂಡ	-930
ಾರದು	-931
ಲ್ಪ	-932
ಚಾರ	-933
▁ಹೀ	-934
ತ್ತಿ	-935
▁ಕರ್	-936
ಷೇ	-937
▁ಏಕೆ	-938
ವೆಂದು	-939
▁ತರ	-940
▁ದು	-941
▁ರಿಟ್	-942
▁ಆಸ್ತ	-943
▁ಕಾರ್ಯನಿರ್	-944
ರಾದ	-945
್ರಹ	-946
▁ಆದೇಶದ	-947
ತ್ನ	-948
▁ಪುನ	-949
▁ಪ್ರಾಸ	-950
▁ತೀರ್ಪಿನ	-951
▁ಇನ್ನ	-952
ಬಾರದು	-953
ಟು	-954
▁ಸಿಂಗ್	-955
▁ಸಾಧ್ಯವಿಲ್ಲ	-956
▁ಅಧ್ಯಕ್ಷ	-957
▁ಕಡಿ	-958
ನಿಖ	-959
ಿರ್	-960
▁ಸಾಂ	-961
ಲಿಲ್ಲ	-962
ಾಭ	-963
ವಲ	-964
▁ತನಿಖ	-965
▁ಬಂದ	-966
▁ತೀರ್ಮಾನ	-967
▁ವಿಸ್	-968
▁ಏಕ	-969
▁ಅಂಗೀಕರ	-970
ಸೆ	-971
ಕ್ರಮ	-972
ಕಾಶ	-973
▁ಸಲಹೆಗಾರ	-974
ಕೀಯ	-975
▁ವ್ಯವಸ್ಥ	-976
▁ಧ	-977
ಗಳಿಗಾಗಿ	-978
ಣ್ಣ	-979
ಚಿತ	-980
▁ಮಧ್ಯಸ್ಥ	-981
▁ನಲ್ಲಿ	-982
ಪತಿ	-983
ೆಯು	-984
▁ಸಮಾ	-985
ದರ್ಶ	-986
ದ್ದು	-987
▁ಸಾಮ	-988
ಹಾಕ	-989
ಂಘ	-990
▁ಅಧಿಕಾರವನ್ನು	-991
ಡಳಿತ	-992
▁ಸ್ವೀಕರ	-993
▁ವೇ	-994
▁ಕೋರ್ಟ್	-995
ೀಕರಣ	-996
▁ಹೆಚ್ಚು	-997
ವಿದೆ	-998
ಎಂ	-999
▁ಶು	-1000
▁ವಹ	-1001
ೆಯೇ	-1002
▁ಹೊಸ	-1003
ತಿಯಲ್ಲಿ	-1004
▁ಪ್ರಯತ್ನ	-1005
▁ಚಲ	-1006
▁ಕೃ	-1007
ಕಾರಿ	-1008
▁ಉದ್ಯೋಗ	-1009
▁ನ್ಯಾಯಾಧೀಶರ	-1010
▁ನ್ಯಾಯಾಧೀಶರು	-1011
ಮುಖ	-1012
ೊಂದು	-1013
▁ತತ್ವ	-1014
▁ಘೋಷ	-1015
ಿನ್ನ	-1016
▁ಪಡೆದ	-1017
ಗುಣ	-1018
▁ಪ್ರಕರಣದ	-1019
▁ತೋರ	-1020
ಾಗ್ಯೂ	-1021
▁ಎಂ	-1022
▁ಸರ್ಕಾರವು	-1023
ಿನಲ್	-1024
▁ಆದಾಗ್ಯೂ	-1025
▁ಜೀವ	-1026
▁ನಿರ್ಣ	-1027
ಿಕ್ಯೂ	-1028
ರ್ಚ	-1029
▁ಏಕೆಂದರೆ	-1030
▁ವೈದ್ಯ	-1031
▁ಪ್ರಾಸಿಕ್ಯೂ	-1032
▁ಪಟ್ಟ	-1033
▁ಸ್ವಾಧೀನ	-1034
ಂಡ್	-1035
▁ಸೇವ	-1036
ೋಧ	-1037
▁ಎನ್	-1038
▁ಮಂಡಳ	-1039
ಿಯಾ	-1040
▁ಮರಣ	-1041
ತ್ಮಕ	-1042
ಟೆಡ್	-1043
▁ಅಂತಿಮ	-1044
ೂರ್ವ	-1045
ಕ್ಸ್	-1046
▁I	-1047
ಂತಹ	-1048
ಿಸದ	-1049
ಕಾಂಗ	-1050
▁ಆಯ್	-1051
▁ಗೆ	-1052
▁ಪೂರ	-1053
▁ಓದ	-1054
▁ಬೀ	-1055
ಳೆಯ	-1056
ಾಗುವುದು	-1057
▁ಹಕ್ಕನ್ನು	-1058
▁ಕಾಲ	-1059
ಿಂತ	-1060
ಾಗಿರುವ	-1061
▁ಅವರನ್ನು	-1062
ಗಳೊಂದಿಗೆ	-1063
▁ದೇ	-1064
ಿಸಬೇಕಾದ	-1065
▁ನಾನು	-1066
▁ಒಬ್ಬ	-1067
ಗೊಳ್ಳ	-1068
ಕೊಂಡ	-1069
ಿರಿಯ	-1070
ಿಮಿನಲ್	-1071
ಲಾಯಿತು	-1072
▁ದಿನಾಂಕದ	-1073
ಕಾಲ	-1074
▁ಭಾರತೀಯ	-1075
▁ನಡುವೆ	-1076
ುದ್ದ	-1077
ಜ್ಯ	-1078
▁ಶಾಸಕಾಂಗ	-1079
▁ಅನುಗುಣ	-1080
ರಿಕ	-1081
ಸ್ಟ್	-1082
▁ವ್ಯಾಖ್ಯಾನ	-1083
▁ಪ್ರಶ	-1084
▁ಸರ್ಕಾರದ	-1085
▁ಉಲ್ಲಂಘ	-1086
ಸ್ಸ	-1087
▁ನೋಂದ	-1088
▁ವ್ಯವಹಾರ	-1089
▁ನಿರಾ	-1090
ುತ್ತಾರೆ	-1091
ಿಸಿರುವ	-1092
▁ವ್ಯಾಪ	-1093
ii	-1094
ಸಾ	-1095
ವಾಹ	-1096
▁ಕ್ರಿಮಿನಲ್	-1097
ಬಹುದಾದ	-1098
ಲೋ	-1099
ದೆಹ	-1100
▁ಹಾಜ	-1101
ಕದ್ದ	-1102
▁ರಾಷ್ಟ್ರಪತಿ	-1103
ಸುಪ್ರಾ	-1104
▁ಅವನು	-1105
▁ಪ್ರಮುಖ	-1106
ಿಸಿದಂತೆ	-1107
▁ವಿಚಾರಣಾ	-1108
▁ಮೊಕದ್ದ	-1109
▁ಸರಿ	-1110
ಹಿಡ	-1111
ವ್	-1112
ಸ್ಪ	-1113
ನೆಯು	-1114
▁ಸ್ಪಷ್ಟವಾಗಿ	-1115
▁ಆಡಳಿತ	-1116
▁ಸಂಗತಿ	-1117
ತೆಗೆ	-1118
▁ಬಂಧ	-1119
▁ಉತ್ಪಾದ	-1120
▁ಅಭಿವೃದ್ಧಿ	-1121
▁ಸಹಾಯ	-1122
▁ಅವಕಾಶ	-1123
▁ಗೌ	-1124
▁ಒಂದ	-1125
▁ಟ್ರ	-1126
ರೀ	-1127
▁ಸೇರಿದ	-1128
ಿಸುವಲ್ಲಿ	-1129
▁ಸರಕು	-1130
ಮಿ	-1131
ಿಸುವಾಗ	-1132
▁ಜೆ	-1133
ೆಯಿಂದ	-1134
ಿದ್ಧ	-1135
▁ಹಂತ	-1136
▁ಇಂಡ	-1137
▁ಲೆ	-1138
▁ಸಾಧ	-1139
ಶ್ಯ	-1140
▁ಮುಕ್ತ	-1141
ಿತಿ	-1142
▁ನಮ	-1143
▁ಮ್ಯಾ	-1144
).	-1145
▁ಹಿರಿಯ	-1146
▁,	-1147
▁ಯೋಜನೆ	-1148
▁ಗುತ್ತ	-1149
▁ಅಂದರೆ	-1150
▁ವಿಶ್ವ	-1151
▁ಹೆಚ್ಚುವ	-1152
ಜ್ಞಾನ	-1153
▁ರೀತಿಯಲ್ಲಿ	-1154
▁ಕಡಿಮೆ	-1155
ಿದ್ದರು	-1156
▁ಒಪ್ಪಂದದ	-1157
▁ಸಂಬಂಧಿತ	-1158
ಂಬರ್	-1159
▁ಅನುಗುಣವಾಗಿ	-1160
▁ನಾಗ	-1161
ಿತವಾಗಿ	-1162
ರ್ಕ	-1163
▁ರದ್ದು	-1164
▁ರೀತಿಯ	-1165
▁ಶಿಕ್ಷೆ	-1166
▁ಮೂರು	-1167
▁ಸಂಸ	-1168
ಕನ	-1169
ಸ್ತವ	-1170
▁ನಿಗದಿ	-1171
▁ಪ್ರಶ್ನ	-1172
▁ಬೆಳ	-1173
ವಿಧಾನಿಕ	-1174
▁ಪಾ	-1175
▁ಸ್ಥಾನ	-1176
▁ಜನರ	-1177
ೀನ	-1178
▁ಲಾಭ	-1179
▁ಶಿಕ್ಷಣ	-1180
▁ನೇಮಕಾ	-1181
▁ಇಲ್ಲಿ	-1182
ಜಿಸ್	-1183
▁ನಿಯಮಗಳು	-1184
ಿಸೂಚ	-1185
▁ನ್ಯಾಯಮಂಡಳ	-1186
▁ರಾಷ್ಟ್ರೀಯ	-1187
ರಕ್ಷ	-1188
▁ಬ್ಯಾಂ	-1189
▁ಅನುಸರ	-1190
ದಲ್ಲ	-1191
ತಂತ್	-1192
ತಂತ್ರ್ಯ	-1193
ಿಕ್ರ	-1194
▁ಸಂಪೂರ್ಣವಾಗಿ	-1195
▁ಅಧಿಸೂಚ	-1196
ಸಂ	-1197
▁ಆಕ್ಷೇಪ	-1198
▁ಮೌಲ್ಯಮಾಪನ	-1199
▁ಪೊಲೀಸ್	-1200
▁ಸ್ವಾತಂತ್ರ್ಯ	-1201
ಿನಿ	-1202
ಲ್ಲದೆ	-1203
▁ಸಲ್ಲಿ	-1204
ೆಂದು	-1205
▁ರಾಜ್ಯದ	-1206
▁ಹುದ್ದ	-1207
▁ಸಾಕ	-1208
ಸ್ತಿತ್ವ	-1209
▁ಪಾಲ	-1210
▁ದಾಖಲೆ	-1211
▁ಜಾರಿಗೆ	-1212
ಲವ	-1213
▁ಪೀಠ	-1214
ಜಾಗ	-1215
▁ಲಭ್ಯ	-1216
▁ಅಭಿಪ್ರಾಯಪಟ್ಟ	-1217
ಕಾಸ	-1218
ಾಕಿ	-1219
ಿರುತ್ತದೆ	-1220
ನ್ಸಿ	-1221
▁ಕರ್ತ	-1222
▁ವಿಸ್ತರ	-1223
್ಯು	-1224
▁ನಿಜ	-1225
▁ಅಸ್ತಿತ್ವ	-1226
▁ಹೊಂದಿದೆ	-1227
▁ವರ್ಷಗಳ	-1228
▁ಉತ್ತಮ	-1229
▁ನಿರ್ಣಯ	-1230
▁ಕರ್ತವ್ಯ	-1231
▁ಗುತ್ತಿಗೆ	-1232
ಭೂ	-1233
ಐಆರ್	-1234
▁ವಾಸ್ತವ	-1235
▁ಕೆಳಗಿನಂತೆ	-1236
ಿಸುತ್ತಾರೆ	-1237
▁ನೀಡಲು	-1238
▁ನಿರಾಕರ	-1239
▁ತೀರ್ಪನ್ನು	-1240
ಬೀ	-1241
ವ್ಯಾ	-1242
ಿವೇಶ	-1243
▁ನಿಯಂತ್ರಣ	-1244
▁ನಿರ	-1245
▁ಸಮಸ್ಯ	-1246
ಪ್ರೀ	-1247
ವಿಲ್	-1248
▁ಸಿದ್ಧ	-1249
ೆಗಳನ್ನು	-1250
ೇನೆ	-1251
ಚೇ	-1252
ಜಾಗೊಳ	-1253
ನಿಂದ	-1254
▁ಇರುವ	-1255
▁ವಜಾಗೊಳ	-1256
▁ಹೆಸ	-1257
ಲಾಗುವುದಿಲ್ಲ	-1258
ಿಕವಾಗಿ	-1259
▁ಕಾಯಿದೆಯಡಿ	-1260
▁ಮಾನ	-1261
▁ಹಣಕಾಸ	-1262
▁ಜೈ	-1263
▁ತಿಂ	-1264
▁ಪೂರ್ಣ	-1265
ೇಜ	-1266
ಣೆಯನ್ನು	-1267
ರವ	-1268
ಎಫ್	-1269
ಿಸಿದರೆ	-1270
ಣಾ	-1271
▁ಬೆಂಬ	-1272
ಎನ್	-1273
ಶ್ಯಕ	-1274
▁ಮೊತ್ತವನ್ನು	-1275
▁ಕರೆ	-1276
▁ಹೆಚ್ಚುವರಿ	-1277
ಿಮಿ	-1278
ಾಂಶ	-1279
▁ಅವಶ್ಯಕ	-1280
▁ವ್ಯಾಪ್ತ	-1281
▁ಶುಲ್ಕ	-1282
▁ಮರಣದ	-1283
▁ಲಿಮಿ	-1284
▁ಫಿರ್	-1285
ೋಲ	-1286
▁ಕಾರ್ಯವಿಧಾನ	-1287
▁ಲಿಮಿಟೆಡ್	-1288
▁ಸುಪ್ರೀ	-1289
ಕರ್	-1290
ಿವೆ	-1291
▁ಉತ್ತರ	-1292
▁ನಿರ್ದೇಶನ	-1293
ೂಪ	-1294
ುತ್ತವೆ	-1295
▁ಬಯ	-1296
ಬ್ದ	-1297
▁ಅವರಿಗೆ	-1298
ಿಯೂ	-1299
▁..	-1300
ಗೊಳಿಸಲು	-1301
ೆಗಳು	-1302
ೊಬ್ಬ	-1303
▁ಹೊರತುಪಡ	-1304
ವಾಸ	-1305
▁ಸಾಬೀ	-1306
▁ಬಾಕಿ	-1307
▁ಸಾಂವಿಧಾನಿಕ	-1308
ವೆಂದರೆ	-1309
ಲಾಖ	-1310
ತನ	-1311
▁ಜಾರಿ	-1312
▁ಎಫ್	-1313
▁ಅನುಮೋದ	-1314
▁ನೇಮಕ	-1315
▁ಗಾಯ	-1316
▁ಪ್ರಾಸಿಕ್ಯೂಷನ್	-1317
▁ಕಾರ್ಯನಿರ್ವಹ	-1318
▁ವ್ಯಕ್ತಿಯ	-1319
ಜಿಸ್ಟ್ರ	-1320
▁ಹೇ	-1321
ನೆಯಲ್ಲಿ	-1322
▁ಜಿಲ್ಲ	-1323
▁ಸುಪ್ರೀಂ	-1324
▁ವೆಚ್ಚ	-1325
▁ಗಣ	-1326
ಕ್ಷಿ	-1327
ಪಿಸಿ	-1328
▁ಪ್ರಸ್ತ	-1329
▁ತೆಗೆದುಕೊಂಡ	-1330
ರ್ಥ್ಯ	-1331
▁ಖರೀ	-1332
▁ಕೇವಲ	-1333
ವಿರುವ	-1334
ಿಸಲಾಗ	-1335
ಿಸಲಾಗಿಲ್ಲ	-1336
ಭಾವ	-1337
ೆಂದರೆ	-1338
▁ನೋಡ	-1339
ರಬೇಕು	-1340
▁ದಂಡ	-1341
▁ಕೌ	-1342
▁ವಿಭ	-1343
▁ನ್ಯಾಯವ್ಯಾ	-1344
ಕ್ಕಿಂತ	-1345
▁ಸಾಮರ್ಥ್ಯ	-1346
▁ಬೆಂಬಲ	-1347
ಳ್ಳ	-1348
▁ನಾಗರಿಕ	-1349
▁ನವ	-1350
ಿಸುತ್ತೇವೆ	-1351
▁ಇಲಾಖ	-1352
▁ಚರ್ಚ	-1353
ೋಪ	-1354
ಗತ	-1355
ಹ್	-1356
ೊಸ	-1357
▁ಹೊರತುಪಡಿಸಿ	-1358
ತಾ	-1359
▁ಮಟ್ಟ	-1360
▁ಮಾರ್ಗ	-1361
ಿಕಾ	-1362
ಪಡಿಸುವ	-1363
▁ಅಧಿಕಾರಿ	-1364
▁ಪ್ರತಿಯ	-1365
▁ವೈದ್ಯಕೀಯ	-1366
▁ವೇಳ	-1367
▁ಉಂಟ	-1368
▁ಭಾವ	-1369
ಫಾರ	-1370
▁ವ್ಯಕ್ತಿಯು	-1371
ುನ	-1372
ರ್ಥಿಕ	-1373
▁ಶಿಫಾರ	-1374
ಾಷ	-1375
▁ಪುರಾ	-1376
▁ಸೀ	-1377
▁ಸಚಿ	-1378
▁ಠ	-1379
▁ಅನುಮತಿ	-1380
▁ಕಂಡುಬ	-1381
▁ವಿನ	-1382
ಫಲ	-1383
▁ಅರ್ಹತೆ	-1384
ಿವಾ	-1385
▁ಲಿ	-1386
▁ಡಾ	-1387
▁ಅಳ	-1388
▁ಸಿವಿಲ್	-1389
▁ಸಂಪರ್ಕ	-1390
▁ಅರ್ಜಿ	-1391
▁ಸಂಘ	-1392
▁ನೀಡಲಾಗಿದೆ	-1393
ುದರ	-1394
▁ತಿದ್ದುಪಡಿ	-1395
▁ಚಲಾಯ	-1396
ಿದ್ದೇವೆ	-1397
ಾವಣೆ	-1398
▁ಸನ್ನ	-1399
▁ಶಾ	-1400
▁ನಿರ್ಬಂಧ	-1401
▁ಒಟ್ಟು	-1402
▁ರೆ	-1403
ಡಿಗೆ	-1404
▁ಖಾ	-1405
▁ತಿರ	-1406
▁ಹಿತ	-1407
▁ಕೇಳ	-1408
▁ನಡುವಿನ	-1409
▁ತಿರಸ್	-1410
▁ಬಲ	-1411
▁ಅರ್ಜಿದಾರರು	-1412
▁ಕ್ಷೇ	-1413
▁ಮರಣದಂಡ	-1414
▁ಆಯ್ಕೆ	-1415
▁ಸೇರಿದಂತೆ	-1416
ವರಿ	-1417
ವಾಗುವ	-1418
▁ಕ್ಷೇತ್ರ	-1419
ಲೈ	-1420
ಗಾರಿಕೆ	-1421
ದೊಂದಿಗೆ	-1422
ಮಾರ್	-1423
▁ವಕೀಲರು	-1424
▁ಪ್ರಕ	-1425
▁ಲೆಕ್ಕ	-1426
▁ವಿಷಯವನ್ನು	-1427
▁ಉದ್	-1428
ಯಾಣ	-1429
▁ವಿಚಾರಣೆಯ	-1430
ಲಾದ	-1431
▁ಬೇರೆ	-1432
▁ಅಲ್ಲಿ	-1433
▁ಸಾಕಷ್ಟು	-1434
▁ಟಿ	-1435
▁ಪೂರ್ವ	-1436
▁ಸಂದರ್ಭಗಳಲ್ಲಿ	-1437
ದಿದ್ದರೆ	-1438
ಿಸಿದಾಗ	-1439
▁ವರ	-1440
▁ಸಂಗ್ರಹ	-1441
▁ಪೂರೈಸ	-1442
ೊಳಗೆ	-1443
▁ಪ್ರತ್ಯ	-1444
ಪು	-1445
▁ಸಲ್ಲಿಸಿದರು	-1446
ಂಜಸ	-1447
▁ತು	-1448
ಗೆಯ	-1449
▁ವರದಿ	-1450
▁ಮೇಲ್ಮನವಿಯನ್ನು	-1451
▁ಸನ್ನಿವೇಶ	-1452
▁ನೋಟ	-1453
▁ಭೂಮಿಯನ್ನು	-1454
▁ಸ್ವರ	-1455
ದಲ್ಲಿರುವ	-1456
ಲವಾರು	-1457
▁ಇದಲ್ಲದೆ	-1458
▁ಹಲವಾರು	-1459
ಲಿಯ	-1460
▁ಉಳಿದ	-1461
ಗ್ರ	-1462
ಸ್ಟ	-1463
ವಾಲಯ	-1464
ೊರ	-1465
ಭೂತ	-1466
ಾಗಲೇ	-1467
▁ಹೊಣೆ	-1468
▁ಆರ್ಥಿಕ	-1469
▁ಸಂಬಂಧಪಟ್ಟ	-1470
▁ಪ್ರಕರಣವನ್ನು	-1471
▁ಅರ್ಜಿದಾರರ	-1472
ುವುದಿಲ್ಲ	-1473
▁ಘಟಕ	-1474
▁ಸ್ವರೂಪ	-1475
▁ಈಗಾಗಲೇ	-1476
ನೀಯ	-1477
ಯಕ್ತ	-1478
ಾಲಿ	-1479
▁ಮಾಹಿತಿ	-1480
▁ಮಾನ್ಯ	-1481
▁ಸರಿಯಾದ	-1482
▁ಹೂಡ	-1483
▁ಕಚೇ	-1484
ವಳ	-1485
▁ದೆಹ	-1486
▁ಕರೆಯ	-1487
ಿಕೃತ	-1488
00	-1489
▁ಪ್ರಯೋಜ	-1490
▁ಉಪವಿಭಾಗ	-1491
▁ಒತ್ತ	-1492
▁ಆಸ	-1493
▁ಮತ್ತಷ್ಟು	-1494
▁ವಿಷಯದಲ್ಲಿ	-1495
▁ನಿಬಂಧನೆಗಳನ್ನು	-1496
▁ಕಡ	-1497
▁ಮಾಡಲಾಗಿದೆ	-1498
▁ಕಂಪನಿ	-1499
▁ಹಂಚ	-1500
▁ಖರೀದ	-1501
▁ಪ್ರತಿವಾದಿಯು	-1502
▁ಹು	-1503
▁ವಿಫಲ	-1504
▁ಚುನ	-1505
▁ರಕ್ಷ	-1506
▁ಪ್ಯಾರಾ	-1507
▁ಮೂಲಭೂತ	-1508
ಿಸಬಹುದಾದ	-1509
▁ಮೇಲ್ಮನವಿಯ	-1510
ಿರಂಗ	-1511
▁ಸ್ವತ	-1512
ಸ್ತುವ	-1513
▁ಅತ್ಯ	-1514
ಿಕೋ	-1515
▁ಸೌ	-1516
ಸೂ	-1517
ಡಾ	-1518
ಾಗಿತ್ತು	-1519
▁ಬಿಡ	-1520
▁ಬಹಿರಂಗ	-1521
▁ಪ್ರತ್ಯೇಕ	-1522
▁ಗುಣ	-1523
▁ಪಡೆಯಲು	-1524
ವಿದ	-1525
▁ಸರಿಯಾಗಿ	-1526
▁ಎರಡೂ	-1527
್ರಾಫ್	-1528
ಕೊಳ್ಳ	-1529
▁ಶಿಫಾರಸು	-1530
ೈಲ್	-1531
▁ನೀಡುತ್ತದೆ	-1532
ೋಟ	-1533
▁ಸ್ಟ	-1534
ರಾಗಿದ್ದ	-1535
........	-1536
▁ವೈಯಕ್ತ	-1537
ಕ್ಕೂ	-1538
▁ಬ್ಯಾಂಕ್	-1539
▁ಅವಳ	-1540
▁ಆರ	-1541
▁ಇದ್ದ	-1542
▁ಹೊರಡ	-1543
ಟುಂಬ	-1544
▁ಮಿ	-1545
▁ಜವಾ	-1546
ವಾಗಿರುತ್ತದೆ	-1547
ುದಾರ	-1548
ಗಳಾಗಿ	-1549
▁ಪುರಾವೆ	-1550
▁ಪರಿಹಾರವನ್ನು	-1551
ಹಿಡಿಯ	-1552
▁ಜವಾಬ್ದ	-1553
▁ಶಾಸನಬದ್ಧ	-1554
▁ಸಮಾಜ	-1555
ೀರ	-1556
▁ಸೂಟ್	-1557
ುಕ್ತ	-1558
▁ಬಯಸ	-1559
▁ಹಾಕ	-1560
▁ಅಲ್ಲ	-1561
ವಾಗಿದ್ದ	-1562
▁ಹಸ್ತ	-1563
▁ನಿಬಂಧನೆಗಳ	-1564
▁ನನ್ನ	-1565
▁ಉದ್ಭವ	-1566
▁ತಾ	-1567
ವಾಗುತ್ತದೆ	-1568
▁ಪ್ರಶ್ನೆ	-1569
ಲೂ	-1570
ಟುವ	-1571
ಿಸುತ್ತವೆ	-1572
▁ಮುಖ	-1573
ೊಡ್ಡ	-1574
ಕಟ್ಟ	-1575
ಪೀಠ	-1576
ೈಟ್	-1577
ಾರಾಗ	-1578
ಿಕ್ರಿಯ	-1579
▁ಸಮಾನ	-1580
ುತ್ತಿರುವ	-1581
▁ಸಂಭವ	-1582
▁ಇದೆ	-1583
ಾತ್ಮಕ	-1584
ಯಾರ	-1585
▁ಮನವ	-1586
▁ವ್ಯವಹರ	-1587
ಧಿ	-1588
▁ವಿತರ	-1589
ಲೋಚ	-1590
▁ಪ್ರತಿಕ್ರಿಯ	-1591
ಿಸಲಾಗುವುದು	-1592
ಶಿ	-1593
▁ತಿಳಿದ	-1594
ಪ್ತಿ	-1595
▁ಕುಟುಂಬ	-1596
ಿದ್ದರೂ	-1597
▁ಸಲ್ಲಿಸುವ	-1598
ಪತ್ರ	-1599
▁ನೌ	-1600
ಟುವಟ	-1601
ತ್ಯಾದಿ	-1602
▁ಇಂಡಿಯಾ	-1603
▁ಬಾಡಿಗೆ	-1604
ರುದಾರ	-1605
▁ಇತ್ಯಾದಿ	-1606
ವಿದ್ಯಾ	-1607
▁ನ್ಯಾಯಪೀಠ	-1608
▁ವಿಳ	-1609
▁ತಡೆ	-1610
ಗಿಂತ	-1611
▁ಸುರಕ್ಷ	-1612
▁ತಯಾರ	-1613
▁ನಿಯಮಗಳ	-1614
▁ಮೃತ	-1615
▁ವಯ	-1616
ಿಂಗ್	-1617
ದಾಗಿ	-1618
▁ಅದರಲ್ಲಿ	-1619
▁ಅಪರಾಧದ	-1620
ನ್ನತ	-1621
▁ಮಹಿ	-1622
▁ಭಾಷ	-1623
ಪರ	-1624
▁ಒಳಪಟ್ಟ	-1625
ಕ್ಟ್	-1626
ಯಾಚ	-1627
▁ನೇಮಕಾತಿ	-1628
▁ವಿಶ್ವವಿದ್ಯಾ	-1629
ಶೋಧ	-1630
▁ಮಧ್ಯಸ್ಥಿಕೆ	-1631
▁ವಿಭಿನ್ನ	-1632
ಿಸ್ಥ	-1633
ಮಾಡ	-1634
▁ಖಾಸ	-1635
ವನ	-1636
ೃಷ್ಟ	-1637
್ಯರ್ಥ	-1638
▁ಅಭ್ಯರ್ಥ	-1639
▁ಅಂತರ	-1640
▁ಸಂಹಿತ	-1641
▁ಹೋಗ	-1642
ವಾರಿ	-1643
ೇಶನ್	-1644
ೂರ್ತಿ	-1645
ತ್ತಿನ	-1646
▁ಆರೋಪಿಗಳ	-1647
mp	-1648
▁ನಿಮ್ಮ	-1649
▁ಸತ್ಯ	-1650
▁ಅಧ್ಯಕ್ಷರು	-1651
ಮದ	-1652
▁ಸಭ	-1653
ಮೆಂಟ್	-1654
ಚ್ಚರ	-1655
ಾರಾಗ್ರಾಫ್	-1656
▁ಲೇಖ	-1657
ಣಿಜ್ಯ	-1658
ಾಮೀ	-1659
▁ಪ್ರಸ್ತಾಪ	-1660
▁ನೇರ	-1661
▁ಕ್ಯಾ	-1662
▁ಸಮಂಜಸ	-1663
ಜಿಕ	-1664
▁ವಿಲೇ	-1665
▁ಉದ್ದೇಶಕ್ಕಾಗಿ	-1666
▁ಪರಿಸ್ಥ	-1667
ಾದ್	-1668
ಡಬ್ಲ್ಯೂ	-1669
▁ಮೊಕದ್ದಮ	-1670
ರಳ	-1671
ಯಾದಿ	-1672
▁ಮುಂದುವರಿಯ	-1673
▁ಪರವಾನ	-1674
▁ವ್ಯಾಪಾರ	-1675
ಜಿಸ್ಟ್ರೇಟ್	-1676
ಬೇ	-1677
▁ನಡೆಯ	-1678
▁ದರ	-1679
ಿತ್	-1680
ವಣಿ	-1681
▁ಮ್ಯಾಜಿಸ್ಟ್ರೇಟ್	-1682
▁ನೋಟಿಸ್	-1683
▁ಅನುಭವ	-1684
▁ನಂತರದ	-1685
ಬ್ಲ್ಯು	-1686
▁ಮೇಲ್ಮನವಿಗಳು	-1687
▁ಹಣಕಾಸು	-1688
ೆಗಳ	-1689
ಪಡೆಯ	-1690
ಾಳ	-1691
▁ವೈಯಕ್ತಿಕ	-1692
▁ಯೋಜನೆಯ	-1693
ಾಸ್ತ್ರ	-1694
▁ಪರಿಣಾಮವಾಗಿ	-1695
▁ವಾಣಿಜ್ಯ	-1696
▁ಖಚಿತ	-1697
ಿತ್ತು	-1698
ರಿತು	-1699
▁ತಿರಸ್ಕರ	-1700
▁ದೃಷ್ಟಿಕೋ	-1701
▁ಅನುಪ	-1702
▁ಸುಮ	-1703
ಗಾದ	-1704
▁ಜ್	-1705
ಿಲ್	-1706
ಿರು	-1707
ುತ್ವ	-1708
ಾರ್ಥ	-1709
▁ನಂಬ	-1710
ರಾಗಿ	-1711
▁ಚಟುವಟ	-1712
१०	-1713
ಿಸಿಲ್ಲ	-1714
ನಿಷ್ಠ	-1715
ಕರಿಗೆ	-1716
▁ನೌಕರ	-1717
▁ಇದರಲ್ಲಿ	-1718
ಟ್ಟುಕೊಂಡ	-1719
▁ಒಂದೇ	-1720
▁ಪ್ಯಾರಾಗ್ರಾಫ್	-1721
▁ನೋಂದಾಯ	-1722
ಿತಿಯಲ್ಲಿ	-1723
▁ಅವುಗಳ	-1724
ಡರ್	-1725
▁ಸಾಮಾಜಿಕ	-1726
on	-1727
▁ಕಂಪನಿಯ	-1728
▁ಚೆ	-1729
▁ಖಾಸಗಿ	-1730
▁ಕ್ಕೆ	-1731
▁ತಂತ್ರ	-1732
▁ತೃ	-1733
ುಗ	-1734
ಮೇ	-1735
ೊಡ	-1736
ತಿಯನ್ನು	-1737
▁ಫಿರ್ಯಾದಿ	-1738
▁ಪ್ರತಿವಾದಿಯ	-1739
▁ನ್ಯಾಯಾಲಯಕ್ಕೆ	-1740
▁ಕೃಷ	-1741
▁ದೂರ	-1742
▁ಬಹು	-1743
ti	-1744
ಕೆಯ	-1745
▁II	-1746
▁ದೋಷ	-1747
▁ಹಿತಾಸ	-1748
▁ನ್ಯಾಯಮೂರ್ತಿ	-1749
ಬೇಕಾದ	-1750
▁ಪಕ್ಷಗಳ	-1751
▁ಜ್ಞ	-1752
ಿದರು	-1753
▁ಹೇಳಿಕೆ	-1754
ವರ್ತ	-1755
▁ವಾಹ	-1756
▁ದೊಡ್ಡ	-1757
ತ್ಯಾಸ	-1758
▁ನ್ಯಾಯಾಲಯಗಳು	-1759
▁ಆಸ್ತಿ	-1760
▁ತಂದ	-1761
▁ಉದ್ದೇಶದಿಂದ	-1762
ಮ್ಮೆ	-1763
▁ಎದು	-1764
ಷ್ಯ	-1765
ಾಪಟ್ಟ	-1766
▁ಮಾನವ	-1767
▁ಇಡ	-1768
▁ಉಲ್ಲೇಖಿಸಲಾದ	-1769
▁ಜಿಲ್ಲಾ	-1770
▁ವೃ	-1771
▁ಹಿಡ	-1772
▁ಮದ	-1773
▁ರಾಜ್ಯವು	-1774
▁ಸಾಮಾನ್ಯವಾಗಿ	-1775
▁ಉನ್ನತ	-1776
▁ವೇಳಾಪಟ್ಟ	-1777
▁ಉದ	-1778
ಗ್ಯ	-1779
▁ಮಾಡುತ್ತದೆ	-1780
▁ಶ್ರ	-1781
ಾಯಿ	-1782
▁ವಿಲೇವಾರಿ	-1783
▁ಅಭಿಪ್ರಾಯಪಟ್ಟಿದೆ	-1784
▁ಪ್ರಕಟ	-1785
▁ಸೂಚಿಸುತ್ತದೆ	-1786
ಮಿತ	-1787
ಮೀ	-1788
ದುಕೊಳ್ಳ	-1789
▁ಒಪ್ಪಿಕೊಂಡ	-1790
ದ್ರ	-1791
್ಯತೆ	-1792
▁ಆಯುಕ್ತ	-1793
ೇಶ್	-1794
ಸಭ	-1795
ಿಕೆಗೆ	-1796
▁ಮಕ್ಕ	-1797
▁ಇಬ್ಬ	-1798
▁ಆರೋಗ್ಯ	-1799
▁ಸಂಯ	-1800
▁ವಿದೇಶ	-1801
ಾಯಕ	-1802
▁ಜಾರಿಗೊಳ	-1803
▁ನಗ	-1804
▁ಸಾಲಗಾರ	-1805
▁ವಿಷಯದ	-1806
▁ಪಾತ್ರ	-1807
▁ಮಾರು	-1808
▁ಅಧ್ಯಾ	-1809
ಪಡಿಸಲಾಗಿದೆ	-1810
ಲಾಗ	-1811
▁ಕಟ್ಟ	-1812
▁ಸಚಿವಾಲಯ	-1813
▁ನಿರ್ಮಾಣ	-1814
ಣೆಗೆ	-1815
▁ಕುಮಾರ್	-1816
▁ಅವಧಿಯಲ್ಲಿ	-1817
▁ವಿಚಾರಣೆಯನ್ನು	-1818
ವರಿಗೆ	-1819
▁ಅಧಿಕೃತ	-1820
▁ಕಾರ್ಯಾಚ	-1821
▁ನಿಬಂಧನೆಗಳು	-1822
ಜಾ	-1823
▁ಲಕ್ಷ	-1824
▁ವ್ಯತ್ಯಾಸ	-1825
▁ಒತ್ತಾಯ	-1826
್ಯಾಸ	-1827
▁ಅಭಿವ್ಯ	-1828
ಳುಹ	-1829
▁ಕಳುಹ	-1830
▁ಮಿತ	-1831
ಗಿನ	-1832
ಕ್ಟ	-1833
▁ಅನುಮಾನ	-1834
ಿದ್ದಾನೆ	-1835
ಪಡಿಸಿಕೊಳ್ಳಲು	-1836
▁ಜಾ	-1837
▁ವಿಚಾರಣೆಗೆ	-1838
ರಬಹುದು	-1839
▁ಆಸ್ತಿಯನ್ನು	-1840
ಕ್ತಿಯನ್ನು	-1841
▁ಕೈಗಾರ	-1842
ಡಿಯ	-1843
ದರ	-1844
ಕೃತ	-1845
ನದಂಡ	-1846
▁ಮಾನದಂಡ	-1847
ುತ್ತಿದೆ	-1848
ರಾಜ	-1849
ಿಕಿತ್	-1850
▁ಅನಿ	-1851
▁ಗಣಿ	-1852
▁ಹೇಳುವ	-1853
ರೂಪ	-1854
▁ಒದಗಿಸುತ್ತದೆ	-1855
ರಿನ	-1856
▁ಹೊರತ	-1857
ಮೂಲ	-1858
ಪಡಿಸಿಕೊಂಡ	-1859
▁ಪ್ರಮಾಣಪತ್ರ	-1860
▁ವಿಳಂಬ	-1861
▁ನಡೆದ	-1862
▁ಸಲ್ಲಿಕೆ	-1863
▁ಹೊಣೆಗಾರ	-1864
▁ತಡೆಯ	-1865
▁ಸಾಬೀತುಪಡ	-1866
ದುಹಾಕ	-1867
▁ಬರುವ	-1868
▁ಉದ್ಯಮ	-1869
▁ತಿಂಗಳ	-1870
▁ಪ್ರತಿನಿ	-1871
▁ಹಕ್ಕುಗಳ	-1872
ಕೂಲ	-1873
▁ಹೀಗೆ	-1874
▁ಚಿ	-1875
▁ಟೆ	-1876
▁ಕನಿಷ್ಠ	-1877
ದಿತ	-1878
▁ಫೆ	-1879
▁ರಕ್ಷಣ	-1880
ತೆಗಳನ್ನು	-1881
ಲುಪ	-1882
▁ಜೊ	-1883
ನ್ನೂ	-1884
▁ಚುನಾವ	-1885
▁ಅಭ್ಯಾಸ	-1886
ಪರಿ	-1887
ಿಯಾಗಿದೆ	-1888
ಗಳಲ್ಲಿನ	-1889
▁ಅವಳು	-1890
▁ಕೈಗಾರಿಕಾ	-1891
▁ಎರಡನೇ	-1892
▁ವರದಿಯನ್ನು	-1893
▁ಆಕ್ಷೇಪಾರ್ಹ	-1894
▁ನಮಗೆ	-1895
▁ಗಮನದಲ್ಲಿ	-1896
ಧಾರಣ	-1897
▁ವಿಭಾಗೀಯ	-1898
ಟಾ	-1899
ರಿಗ	-1900
▁ಜವಾಬ್ದಾರ	-1901
▁ಕಳೆ	-1902
▁ವಹಿವಾ	-1903
▁ಪರಿಷ್	-1904
ತಿಕ	-1905
▁ಜನರಲ್	-1906
▁ಚಾರ್	-1907
▁ಪ್ರಸ	-1908
▁ಎಂಬುದನ್ನು	-1909
▁ವಿಶ್ವವಿದ್ಯಾಲಯ	-1910
ನ್ಸ	-1911
▁ತಲುಪ	-1912
ಯುತ	-1913
ರಲು	-1914
▁ಉತ್ಪ	-1915
ಷೇಧ	-1916
▁ಉದ್ದೇಶಗಳಿಗಾಗಿ	-1917
ೇಟಿ	-1918
ಗಳಿಲ್ಲ	-1919
▁ಮತ್ತೊಂದು	-1920
ಂಟಿ	-1921
ಟ್ಟುಕೊಂಡು	-1922
ೀಸ್	-1923
▁ಪ್ರಯೋಜನ	-1924
▁ಠೇ	-1925
ಡ್ಡಾಯ	-1926
ಮಟ್ಟ	-1927
▁ವಿದ್ಯಾ	-1928
▁ಕಂಪನ	-1929
▁ವಲಯ	-1930
ವೃತ್ತ	-1931
ಯಾಯ	-1932
ತ್ರಿಕ	-1933
▁ಇನ್ನೂ	-1934
▁ಕಡ್ಡಾಯ	-1935
ದಿರುವ	-1936
▁ಆರೋಪಿಗಳು	-1937
ಕ್ಷಿಪ್ತ	-1938
▁ದಿನಾಂಕದಿಂದ	-1939
ಿಗಳಿಗೆ	-1940
▁ನಿಷೇಧ	-1941
▁ಮಾಡುವುದು	-1942
▁ಕಾರ್ಯಕ್ರಮ	-1943
▁ಗಂಭ	-1944
▁ಕಟ್ಟಡ	-1945
ನಲ್	-1946
▁ಪರಿಸ	-1947
ತ್ವರಿತ	-1948
▁ಷೇ	-1949
▁ಅಧ್ಯಾಯ	-1950
▁ದೂರುದಾರ	-1951
▁ಕಾರ್ಮಿಕ	-1952
▁ತೆಗೆದುಹಾಕ	-1953
▁ಎಲ್	-1954
▁ಪುನರು	-1955
▁ದೇಹ	-1956
▁ವಶ	-1957
ನೆಯದಾಗಿ	-1958
▁ಪ್ರತಿಪಾದ	-1959
ಶೀ	-1960
ಲ್ಪಡ	-1961
▁ಸರ್ಕಾರಿ	-1962
▁ಭಾರತದಲ್ಲಿ	-1963
▁ತ್ವರಿತ	-1964
▁ಪ್ರಶಸ್ತ	-1965
▁ಯೂ	-1966
▁ಗಂಭೀರ	-1967
▁ಮಾಲೀ	-1968
▁ಅಧಿಕಾರಿಗಳು	-1969
▁ಎದುರ	-1970
▁ದೂರು	-1971
▁ಸುಮಾರು	-1972
▁ನೀಡಿತು	-1973
▁ಮುಂದುವರ	-1974
ವಾಗಿರುವ	-1975
▁ನ್ಯಾಯಾಲಯದಲ್ಲಿ	-1976
▁ಸೇವಾ	-1977
▁ನಿಗದಿತ	-1978
▁ಕೃಷಿ	-1979
▁ಸ್ಪಷ್ಟವಾಗಿದೆ	-1980
▁ನಡ	-1981
▁ಜಿ	-1982
▁i	-1983
▁ನಿರ್ದಿಷ್ಟವಾಗಿ	-1984
▁ರವಾನ	-1985
ಾಗಿದ್ದು	-1986
▁ನ್ಯಾಯವ್ಯಾಪ್ತ	-1987
▁ತರಬೇ	-1988
▁ಸಂತ	-1989
▁ಮಾರುಕಟ್ಟ	-1990
ಮ್ಯ	-1991
▁ಸಂಯೋಜ	-1992
▁ವಿದ್ಯು	-1993
ೀರಾ	-1994
▁ಮಗ	-1995
ೋತ್	-1996
▁ನಿಜವಾದ	-1997
ಿಯೊಂದಿಗೆ	-1998
▁ಕ್ರಮಗಳನ್ನು	-1999
▁ಅವಧಿಗೆ	-2000
ೋಕನ	-2001
ುತ್ತೇವೆ	-2002
▁ನಿರೀಕ್ಷ	-2003
ಾಂತ	-2004
ಬ್ರ	-2005
್ಲಾ	-2006
▁ಸಣ್ಣ	-2007
ರಾಷ್ಟ್ರ	-2008
▁ಆಯೋಗದ	-2009
▁ಹೋ	-2010
ನನ್ನು	-2011
ಾಂತರ	-2012
▁ತಂತ್ರಜ್ಞಾನ	-2013
▁ಅಂಗೀಕರಿಸಿದ	-2014
▁ಪಕ್ಷಗಳು	-2015
▁ಪ್ರಾಧಿಕಾರವು	-2016
▁ಹಸ್ತಕ್ಷೇಪ	-2017
▁ಕಾನೂನುಬದ್ಧ	-2018
ದಾನ	-2019
ಪಾ	-2020
▁ಗುಂಪ	-2021
▁ರವರೆಗೆ	-2022
▁ಹಾನ	-2023
ದಿಂದಾಗಿ	-2024
ಂಟರ್	-2025
▁ಕಾರ್ಯಗತ	-2026
▁ವಸ	-2027
▁ಲಿಖ	-2028
▁ವಿದ್ಯುತ್	-2029
▁ಸಲ್ಲಿಸಲು	-2030
▁V	-2031
▁ಗೋ	-2032
▁ದೃಷ್ಟಿಯಿಂದ	-2033
▁ಭಾಗವಹ	-2034
▁ಅಫ	-2035
▁ವ್ಯಕ್ತಿಗಳು	-2036
▁ಮುಂದಿನ	-2037
▁ನೀತಿ	-2038
▁ಕಾರ್ಪ	-2039
▁ಹೇಳಿದರು	-2040
ಿಕೆಯು	-2041
▁ನಷ್ಟ	-2042
▁ಸಂಹಿತೆಯ	-2043
ವಿಟ್	-2044
▁ಹಂತದಲ್ಲಿ	-2045
▁ವ್ಯಕ್ತಿಗಳ	-2046
ುವಿಕೆ	-2047
▁ಎಕ್ಸ್	-2048
▁ಒಳಗೊಂಡಿರುವ	-2049
ಪಡಿಸುತ್ತದೆ	-2050
▁ತೆರೆಯ	-2051
▁ಶಿಕ್ಷೆಯನ್ನು	-2052
▁ಪೊಲೀಸ	-2053
▁ನೀಡಲಾಯಿತು	-2054
▁ಕಡಿತ	-2055
ವಡ	-2056
▁ಸ್ಥಳೀಯ	-2057
▁ಲೇಖನ	-2058
▁ವಸ್ತುವ	-2059
▁ನ್ಯಾಯದ	-2060
ರಾಷ್ಟ್ರೀಯ	-2061
▁ಸ್ವಯ	-2062
▁ಚಿಕಿತ್	-2063
▁ಬಾಂಬ	-2064
▁ಉತ್ಪನ್ನ	-2065
ಾರ್ಡ್	-2066
▁ಐಪಿಸಿ	-2067
▁ಬಿಡುಗ	-2068
▁ಪರಿಸರ	-2069
ನಾಗಿ	-2070
▁ನಿಬಂಧನೆಯ	-2071
▁ಗ್ರಾಹ	-2072
--	-2073
▁ವಿಭಾಗದ	-2074
▁ನಿಯಮಗಳನ್ನು	-2075
▁ಅಳವಡ	-2076
▁ನಿಗದಿಪಡಿಸಿದ	-2077
ಿಸಬೇಕಾಗಿದೆ	-2078
ಹರ	-2079
ರ್ಜಿ	-2080
▁ಪೆ	-2081
ಸ್ತ್ರ	-2082
▁ಪೀಠವು	-2083
ಿಕೆಯಿಂದ	-2084
▁ಬದಿ	-2085
▁ಬೇಡ	-2086
ೀರ್ಷ	-2087
ಜರ್	-2088
ತೆಯು	-2089
▁ಸಮಂಜಸವಾದ	-2090
▁ಬಡ್	-2091
ಿನಿಯ	-2092
▁ಮೇರೆಗೆ	-2093
▁ರೋಗ	-2094
▁ತೆಗೆದುಕೊಳ್ಳುವ	-2095
▁ನಮೂ	-2096
▁ಪ್ರತಿನಿಧ	-2097
▁ಅನುಕೂಲ	-2098
▁ಹಕ್ಕುಗಳನ್ನು	-2099
amp	-2100
▁ಒಪ್ಪಿಕೊಳ್ಳ	-2101
▁ಒಟ್ಟ	-2102
▁ಖಾತ	-2103
▁ವಿಶ್ವಾಸ	-2104
ಪಾಲ	-2105
▁ಸಂಗತಿಗಳು	-2106
ವೂ	-2107
▁ಮೂರ	-2108
ಂಡರ್	-2109
११	-2110
ಿಡವಿಟ್	-2111
ಪ್ತಿಯ	-2112
ನ್ನೆ	-2113
▁ಸದಸ್ಯರ	-2114
▁ಮಕ್ಕಳ	-2115
ಿನಿಂದ	-2116
▁ಭದ್ರ	-2117
▁ಜೀವನ	-2118
ೊಪ್ಪ	-2119
▁ಶೀರ್ಷ	-2120
ಲೇಷ	-2121
ಿಸುವುದನ್ನು	-2122
ಲ್ಯಾ	-2123
▁ಮೋ	-2124
▁ಸವಾ	-2125
ಕೆಯನ್ನು	-2126
▁ಸಮುದ	-2127
▁ಹೊಂದಿರ	-2128
▁ಎಂದರೆ	-2129
▁ಮಾಡಿದೆ	-2130
▁ಡೆ	-2131
▁ಕಾರ್ಯನಿರ್ವಾಹ	-2132
ಬರ್	-2133
▁ಮೊಕದ್ದಮೆ	-2134
▁ದೆಹಲಿ	-2135
▁ಏನ	-2136
▁ಅಧಿಕಾರಿಗಳ	-2137
▁ಸಾಗ	-2138
▁ವಿದ್ಯಾರ್ಥ	-2139
▁ಮಸೂ	-2140
▁ಕಂಡುಹಿಡಿಯ	-2141
▁ಪ್ರದರ್ಶ	-2142
▁ಪಟ್ಟಿ	-2143
▁ಕೋಟಿ	-2144
▁ಪ್ರಶ್ನೆಯ	-2145
▁ವರ್ಷದ	-2146
▁ಸಹಿ	-2147
ನೆಗಳು	-2148
▁ತಪ್ಪೊಪ್ಪ	-2149
ರ್ಧ	-2150
▁ಹೂಡಿಕೆ	-2151
▁ಹಾಗ	-2152
▁ಚಟುವಟಿಕೆ	-2153
ಿಗೆಯ	-2154
▁ವಿನಾಯ	-2155
▁ಪ್ರಧಾನ	-2156
▁ಆಸ್ತಿಯ	-2157
▁ಅಫಿಡವಿಟ್	-2158
▁ಕಾಲೇಜ	-2159
▁ತೀರ್ಪಿನಲ್ಲಿ	-2160
▁ಅದಕ್ಕೆ	-2161
▁ಪಾವತಿಸಲು	-2162
▁ವೇತನ	-2163
▁ಸೀಮಿತ	-2164
▁ಅವಧಿ	-2165
ಕ್ತಿಯ	-2166
ಿಸಲಿಲ್ಲ	-2167
▁ನೈ	-2168
▁ಮಾಹಿತಿಯನ್ನು	-2169
ಕ್ಟರ್	-2170
ಕ್ಯು	-2171
ರ್ಜ	-2172
ನ್ಸಿಲ್	-2173
ನ್ನಾಗಿ	-2174
▁ಖಾಲಿ	-2175
ಿದೆಯೇ	-2176
▁ವಯಸ್ಸ	-2177
▁ಪ್ರತಿವಾದಿಗಳು	-2178
▁ಅಂಶವನ್ನು	-2179
▁ಆಗಿ	-2180
▁ಠೇವಣಿ	-2181
▁ಪ್ರತಿವಾದಿಗೆ	-2182
iii	-2183
▁ಲೋ	-2184
▁ವರ್ಗಾವಣೆ	-2185
▁ಸಮಯದ	-2186
ಲಭ್ಯ	-2187
ುದ್ಧ	-2188
▁ಸತ್ತ	-2189
ಬಾಹ	-2190
▁ವಿಶೇಷವಾಗಿ	-2191
▁ಹಾಜರಾದ	-2192
▁ಅಭಿಪ್ರಾಯವನ್ನು	-2193
ತ್ತರ	-2194
▁ನಿಬಂಧನೆಗಳಿಗೆ	-2195
ಾರವಾಗಿ	-2196
▁ಸಮಿತಿಯ	-2197
▁ಮಾತ	-2198
▁ಆರಂಭ	-2199
▁ವೆಬ್	-2200
▁ಜೊತೆಗೆ	-2201
ಕ್ಸ	-2202
▁ಅವನಿಗೆ	-2203
▁ಹೇಳಿಕೆಯನ್ನು	-2204
▁ತೀರ್ಮಾನಕ್ಕೆ	-2205
▁ಸೌಲಭ್ಯ	-2206
ಿಸಿದ್ದೇವೆ	-2207
ಾಣ	-2208
ಿಸಬಾರದು	-2209
▁ಆದ್ಯತೆ	-2210
ುವಳ	-2211
ರ್ಗ	-2212
▁ಮರಣದಂಡನೆ	-2213
ಿಣ	-2214
▁u	-2215
▁ಇಬ್ಬರು	-2216
ಚಿತ್ರ	-2217
ಾಹೀರಾ	-2218
ಯ್	-2219
ಥಮಿಕ	-2220
▁ಒಳಗೊಂಡಿದೆ	-2221
▁ನಿರ್ದಿಷ್ಟಪಡಿಸಿದ	-2222
▁ಹೊರತು	-2223
▁ಮಹಿಳೆಯ	-2224
▁ವಾಸ್ತವವಾಗಿ	-2225
▁ಆಸ್ಪ	-2226
▁ಗಮನಿಸಿದೆ	-2227
▁ವಿವೇ	-2228
▁ಹಣವನ್ನು	-2229
▁ದೇಶದ	-2230
ಗಳಿವೆ	-2231
▁ಜಾಹೀರಾ	-2232
ದೇ	-2233
ಚಯ	-2234
▁ಕಂಡುಬಂದ	-2235
▁ಆವರ	-2236
▁ೀಕರ	-2237
▁ಆಯೋಗವು	-2238
ಭಾ	-2239
▁ಅಂತಿಮವಾಗಿ	-2240
ಬಿಐ	-2241
ಪ್ರಿಲ್	-2242
▁ದಿನಾಂಕದಂದು	-2243
ಿಸದೆ	-2244
▁ಅವಲೋಕನ	-2245
ಟ್ರಿಕ್	-2246
ಾಗಲು	-2247
▁ನೀಡಲಾದ	-2248
▁ಪಿಂಚ	-2249
▁ಕುರಿತು	-2250
▁ಲೈ	-2251
▁ಸ್ಪರ್ಧ	-2252
▁ಇನ್	-2253
▁ಶಿಕ್ಷೆಯ	-2254
▁ವ್ಯಕ್ತಿಯನ್ನು	-2255
ನಿಯನ್	-2256
▁ಬಾಹ	-2257
▁ಸರಕುಗಳ	-2258
ನೆಗಳನ್ನು	-2259
▁ದೃಷ್ಟಿಕೋನ	-2260
▁ವಿವೇಚ	-2261
▁ಜ್ಞಾನ	-2262
ರುತ್ತವೆ	-2263
ಪ್ರದೇಶ	-2264
▁ಕೌನ್ಸಿಲ್	-2265
ನಗೆ	-2266
▁ಕಾರ್ಯದರ್ಶ	-2267
ಯಾಮ	-2268
▁ಉದ್ದೇಶವನ್ನು	-2269
▁ಪ್ರತಿಯೊಂದು	-2270
▁ಯೋಜನೆಯನ್ನು	-2271
▁ಪ್ರಾಥಮಿಕ	-2272
▁ಪರವಾನಗಿ	-2273
▁ಅಂತರರಾಷ್ಟ್ರೀಯ	-2274
▁ದ್	-2275
▁ಜೈಲು	-2276
▁ಆಧ	-2277
▁ಕಾರ್ಪೊರ	-2278
ವಿಚಾರಣ	-2279
ಿದ್ದಾಗ	-2280
▁ನೀಡಿದರು	-2281
ಾಂತ್ರಿಕ	-2282
▁ಮುಂಚ	-2283
▁ಪರಿಗಣಿಸಿ	-2284
ವಿಷ್ಯ	-2285
▁ತನಿಖೆ	-2286
▁ಹೇಳಿದ್ದಾರೆ	-2287
▁ಪ್ರಾರ್ಥ	-2288
▁ದಿನಗಳ	-2289
ನೆಯಿಂದ	-2290
ಬಾಹಿರ	-2291
ೂರು	-2292
ತ್ವದ	-2293
▁ಭವನ	-2294
▁ಬದ್ಧ	-2295
▁ನಾಲ್	-2296
ಶಯ	-2297
▁ವಿರುದ್ಧವಾಗಿ	-2298
▁ಜು	-2299
ಕ್ಯಾ	-2300
ಲಕ್ಷ	-2301
ಪಡಿಸಲು	-2302
▁ಆಕ್ಟ್	-2303
▁ಸಿಆರ್	-2304
▁ಅಗತ್ಯವಿರುವ	-2305
▁ಹಾಜರ	-2306
▁ಭವಿಷ್ಯ	-2307
▁ಹಿಂ	-2308
ಪ್ಯ	-2309
▁ಅಗತ್ಯವಿಲ್ಲ	-2310
▁ಸಂಶೋಧ	-2311
▁ಅರ್ಜಿಯಲ್ಲಿ	-2312
▁ಅಗತ್ಯವಾದ	-2313
ಿದೆಯೆ	-2314
▁ಉತ್ತೇಜ	-2315
▁ವಿದೇಶಿ	-2316
▁ಅಪಾಯ	-2317
▁ಸ್ಥಿರ	-2318
ಿಕೆಯಲ್ಲಿ	-2319
▁ಐದು	-2320
▁ಬಿಡುಗಡೆ	-2321
▁ಪ್ರಶಸ್ತಿ	-2322
▁ಖು	-2323
▁ಅನೇಕ	-2324
ಂಗಿಕ	-2325
ಶ್ವ	-2326
▁ಯಶ	-2327
ತ್ರಿ	-2328
▁ಸಂಸ್ಥೆಗಳು	-2329
ಂಗಡ	-2330
▁ಏಪ್ರಿಲ್	-2331
▁ನ್ಯಾನ್	-2332
▁ನೀವು	-2333
ೇತರ	-2334
▁ಕಾಯ್ದೆಯಡಿ	-2335
ಲ್ಲಿದೆ	-2336
▁ಭಿನ್ನ	-2337
▁ರಸ್ತ	-2338
ಯೋಗ	-2339
▁ಏಜೆ	-2340
ಿಕೊಳ್ಳುವ	-2341
▁ಸದಸ್ಯರು	-2342
▁ಅರ್ಜಿದಾರರಿಗೆ	-2343
▁ನಡವಳ	-2344
▁ಕಾನೂನುಬಾಹಿರ	-2345
ಬಹುದ	-2346
▁ಮತ್ತೆ	-2347
▁ಕಾಣ	-2348
ಸೈಟ್	-2349
▁ನಿರ್ಧರಿಸಲು	-2350
▁ಮುಗ	-2351
▁ಮಾರ್ಚ್	-2352
▁ಸಲ್ಲಿಸಲಾಗಿದೆ	-2353
ಪಿಸ	-2354
▁ಚೌ	-2355
▁ವಿಧಿಸುವ	-2356
ಕೋ	-2357
tion	-2358
▁ಅನುಪಸ್ಥ	-2359
ಮತಿ	-2360
▁ಬಲಿ	-2361
▁ಕಿ	-2362
▁ಭಾಗವನ್ನು	-2363
▁ಅರ್ಜಿಗಳನ್ನು	-2364
▁ಬ್ಯಾಂಕ	-2365
ಪಿಡಬ್ಲ್ಯೂ	-2366
▁ಕೆಳ	-2367
▁ವಾಸ	-2368
ೋರ್ಸ್	-2369
ಾಮೀನು	-2370
▁ಹೀಗಾಗಿ	-2371
▁ಬಹಳ	-2372
▁ಮನವಿಯನ್ನು	-2373
ರ್ಮ	-2374
▁ಮನಸ್ಸ	-2375
▁ಹೊಂದಿಲ್ಲ	-2376
ಣಿಗೆ	-2377
▁ಅಪರಾಧವನ್ನು	-2378
▁ಒಳಪಡ	-2379
▁ನ್ಯಾಯಯುತ	-2380
ಷ್ಕಾರ	-2381
▁ಪರಿಚಯ	-2382
▁ಜಾಮೀನು	-2383
▁ಕೋರ	-2384
▁ಕಾರ್ಯಾಚರಣ	-2385
▁ಆಹಾರ	-2386
ೀವ್ರ	-2387
▁ಕೃತ್ಯ	-2388
ಚರ	-2389
▁m	-2390
ಲಾಸ	-2391
▁ಕ್ರಿಯ	-2392
▁ಯೂನಿಯನ್	-2393
▁ಮಾಡಬಹುದು	-2394
▁ಸರ್ಕಾರಕ್ಕೆ	-2395
ೇಷನ್	-2396
▁ಮರುಪಡೆಯ	-2397
▁ರಜೆ	-2398
▁ಅಸಮ	-2399
▁ವಿಚಾರಣೆ	-2400
ದಾರರ	-2401
▁ಬಾಹ್ಯ	-2402
▁ವಾರ್	-2403
ಲಿತಾಂಶ	-2404
▁ಆವಿ	-2405
ಶಃ	-2406
▁ಜಾಗ	-2407
▁ಫಲಿತಾಂಶ	-2408
▁ಎತ್ತಿ	-2409
▁ಪರಿಸ್ಥಿತ	-2410
▁ಸ್ವತಂತ್ರ	-2411
▁ತೃಪ್ತಿ	-2412
▁ಸಂವಹ	-2413
▁ಸಮಿತಿಯು	-2414
▁x	-2415
▁ತೀವ್ರ	-2416
▁ಬೆಲೆ	-2417
▁ಪ್ರದೇಶದ	-2418
▁ಸೇವೆಗಳನ್ನು	-2419
▁ಎಐಆರ್	-2420
▁ಆದೇಶಗಳನ್ನು	-2421
ed	-2422
ಾಯ್	-2423
▁ಪರಿಣಾಮಕಾರಿ	-2424
▁ಮೇಲ್ವಿಚಾರಣ	-2425
▁ಪುಟ	-2426
ೀಕಾರ	-2427
▁ಸಮಗ್ರ	-2428
▁ತಾಂತ್ರಿಕ	-2429
▁ಪ್ರಕರಣಗಳಲ್ಲಿ	-2430
▁ಕಾಯಿದೆ	-2431
▁ಶ್ರೇ	-2432
▁ಆವರಣ	-2433
▁ನಿರ್ಧಾರವನ್ನು	-2434
▁ಮಾಡಲ	-2435
▁ಪಡೆಯುವ	-2436
▁ಆದೇಶವು	-2437
▁ಮುಖರ್ಜಿ	-2438
ಭುತ್ವ	-2439
ad	-2440
ೆಯಾಗಿ	-2441
ಯ್ಯ	-2442
▁ವಿಮ	-2443
ಾವಣೆಯ	-2444
▁ವಿರುದ್ಧದ	-2445
▁ಶೈ	-2446
▁ಅವುಗಳೆಂದರೆ	-2447
ವಿನ	-2448
▁ಮಾತನಾ	-2449
▁ನಾಲ್ಕು	-2450
▁ವರ್ಗಾಯ	-2451
▁ವ್ಯಕ್ತಿಗೆ	-2452
ಕವಾಗಿ	-2453
▁ಫಾರ್	-2454
▁ದಿ	-2455
▁ಆವಿಷ್ಕಾರ	-2456
▁ಸಬ್	-2457
▁ಮತ	-2458
ರೋಧ	-2459
▁ಸಾಕ್ಷಿಗಳ	-2460
ಂಜಿನಿಯ	-2461
▁ಪಾವತಿಸಬೇಕಾದ	-2462
ಗಿಡ	-2463
▁ಸ್ವಯಂ	-2464
ಘಾತ	-2465
ಪಾವ	-2466
ಟಿಯ	-2467
ವಿಲ್ಲದೆ	-2468
ಂಟು	-2469
ಷ್ಠಾನ	-2470
ನಿಗೆ	-2471
▁ನಿಧ	-2472
▁ಕಾರ್ಯನಿರ್ವಾಹಕ	-2473
▁ಅರ್ಜಿಯ	-2474
▁ತೊಡ	-2475
▁ಕಾನೂನನ್ನು	-2476
ಕರಣೆ	-2477
▁ತರಬೇತಿ	-2478
▁ಪತ್ರವನ್ನು	-2479
▁ಬಳಕೆ	-2480
▁ಉಲ್ಲೇಖಿಸಲಾಗಿದೆ	-2481
▁ಮೇಲ್ಮನವಿಗಳ	-2482
▁ಪರಿಕ	-2483
▁ಬಂಧನ	-2484
▁ಹೇಳಲಾಗಿದೆ	-2485
ಯಿತು	-2486
ಕಾಲಿಕ	-2487
ಹಿಡಿದ	-2488
▁ಮೇಲ್ಮನವಿಗೆ	-2489
ತಿಗೆ	-2490
▁h	-2491
ುದಾದರೆ	-2492
▁ರಾಜ್ಯಪಾಲ	-2493
▁ಮನವಿ	-2494
ಿಸಬೇಕಾಗುತ್ತದೆ	-2495
▁ವಾರ್ಷ	-2496
ಾಚಾರ	-2497
ರಿನಲ್ಲಿ	-2498
▁ಸಾಧ್ಯವಾಗ	-2499
▁ಮುಕ್ತಾಯ	-2500
ಕೇ	-2501
ಜ್ಜ	-2502
▁ಮೀರ	-2503
▁ಗುಣಮಟ್ಟ	-2504
▁ರಾಮ್	-2505
▁ಒಳಗೊಂಡಿರುತ್ತದೆ	-2506
▁ಕೊರ	-2507
▁ಅನಿಯ	-2508
ದುಕೊಂಡ	-2509
▁ಹಿತಾಸಕ್ತಿ	-2510
ೈಸರ್ಗ	-2511
▁ಅವುಗಳನ್ನು	-2512
▁ಇಲ್ಲದಿದ್ದರೆ	-2513
▁ಸಾವಿ	-2514
ಟಕ	-2515
ಿಸೆ	-2516
ಬಲ್	-2517
▁ಗೌರವ	-2518
ೈಸರ್ಗಿಕ	-2519
▁ಕೊಡು	-2520
▁ನನಗೆ	-2521
▁ಬೆಳಕ	-2522
▁ಸಮುದಾಯ	-2523
▁ರಾಜಕೀಯ	-2524
▁ಖುಲಾಸ	-2525
ನ್ಮೂಲ	-2526
▁ದಾಖಲೆಯಲ್ಲಿ	-2527
▁ಸಿದ್ಧಾಂತ	-2528
▁ಕೈಗೊಳ್ಳ	-2529
▁ಮೇಲ್ಮನವಿಗಳನ್ನು	-2530
ಾನ್	-2531
ಪೆ	-2532
▁ಪಂಚ	-2533
▁ನಿರ್ಮ	-2534
▁ಸೇವೆಯ	-2535
▁ನಗರ	-2536
▁ಬೆಳೆ	-2537
▁ತೋರಿಸುತ್ತದೆ	-2538
ಶು	-2539
▁ಷೇರು	-2540
ಿಸಿವೆ	-2541
▁ನಿರ್ಲಕ್ಷ	-2542
▁ಮೀಸ	-2543
▁ನ್ಯಾಯಮಂಡಳಿ	-2544
▁ಹೇಳಲಾದ	-2545
▁ಸುತ್ತ	-2546
▁ಎಂಜಿನಿಯ	-2547
▁ಸಾಕ್ಷ್ಯವನ್ನು	-2548
▁ಭೇಟಿ	-2549
▁ನಿಯೋಜ	-2550
▁ಜಾಹೀರಾತು	-2551
▁ಪಿಸಿ	-2552
▁ಹೇಳುವುದಾದರೆ	-2553
ಬಾದ್	-2554
▁ಮಂಡಳಿಯ	-2555
▁ಕಟ್ಟು	-2556
▁ಅನುಸಾರವಾಗಿ	-2557
▁ಕೋರ್ಸ್	-2558
ಂತ್ರಿತ	-2559
ಕೃ	-2560
▁ನಿಲ್ಲ	-2561
▁ಅಮ	-2562
▁ಇದಕ್ಕೆ	-2563
ಕ್ಷಿಪ್ತವಾಗಿ	-2564
▁ನೈಸರ್ಗಿಕ	-2565
ಶ್ರ	-2566
▁ಪಾವತಿ	-2567
▁ಇತ್ಯ	-2568
▁C	-2569
▁ನೀಡಲಾಗುತ್ತದೆ	-2570
ಶಾಸ್ತ್ರ	-2571
▁ಹರಿ	-2572
▁ಅನುಷ್ಠಾನ	-2573
▁ಸಂಸ್	-2574
ಬ್ಬಂದ	-2575
▁ಕಾಳ	-2576
▁ಗಾ	-2577
▁ಆರು	-2578
ಿರುಗ	-2579
ಸಿಕ	-2580
▁ವಿಶ್ಲೇಷ	-2581
▁a	-2582
▁ನೆಲ	-2583
▁ಸ್ವತಃ	-2584
▁ಶಸ್ತ್ರ	-2585
ರ್ಬ	-2586
▁ಅಭಿಪ್ರಾಯದಲ್ಲಿ	-2587
▁ಸಲ್ಲಿಸಲಾಯಿತು	-2588
▁ರೂಪದಲ್ಲಿ	-2589
ರ್ಸ್	-2590
▁ಬದಲಾಯ	-2591
▁ಇದರಿಂದ	-2592
▁ಬೀರುವ	-2593
▁ಯಾವಾಗ	-2594
ೀರ್ಘ	-2595
▁ಎಂದ	-2596
▁ಗ್ರಾಮ	-2597
▁ಸಂಪನ್ಮೂಲ	-2598
▁ಮಧ್ಯಂತರ	-2599
▁ನೀಡುವುದು	-2600
ರೆದ	-2601
▁ಗಣಿಗಾರಿಕೆ	-2602
▁ಚಾರ್ಜ್	-2603
▁ಸಿಬ್ಬಂದ	-2604
ಸಿಯ	-2605
ಸ್ವಾ	-2606
▁ಲಿಖಿತ	-2607
▁ಪ್ರಭಾವ	-2608
ಸ್ಪರ	-2609
ರಾಗಿದ್ದಾರೆ	-2610
ಎಚ್	-2611
▁ವಾಹನ	-2612
್ಮ	-2613
▁ಸಹೋದ	-2614
▁ಸಾಕ್ಷ್ಯಗಳ	-2615
▁ಶೇಕ	-2616
▁ಬಲಿಪ	-2617
▁ವ್ಯಾಪ್ತಿಯನ್ನು	-2618
▁ಮದುವ	-2619
▁ಸಮಾಲೋಚ	-2620
▁ಪರಿಕಲ್ಪ	-2621
▁ಕಾನೂನಿನಲ್ಲಿ	-2622
▁ಆದಾಯವನ್ನು	-2623
ಿಕೊಳ್ಳಲು	-2624
ಪೂರ್ವ	-2625
▁ಉದ್ಯೋಗದ	-2626
▁ಇತ್ಯರ್ಥ	-2627
▁ಕ್ಷ	-2628
▁ಜೀ	-2629
▁ಪರಸ್ಪರ	-2630
▁ಸಂಸ್ಥೆಯ	-2631
▁ರೈ	-2632
ಮ್ಮತ	-2633
▁ಎಚ್	-2634
▁ಆತ್ಮ	-2635
▁ವೃತ್ತಿ	-2636
▁ಪ್ರತಿಕ್ರಿಯಿಸಿದ	-2637
▁ಬಾರ್	-2638
ನ್ಯಾಯ	-2639
▁ಕರೆಯಲಾಗುತ್ತದೆ	-2640
ರಲ್ಲಿ	-2641
▁ಸಲ್ಲಿಸಿದ್ದಾರೆ	-2642
ಪಡಿಸಿಕೊಳ್ಳುವ	-2643
▁ಮಾಡಿ	-2644
▁ಪೂರ್	-2645
▁ದೈ	-2646
.,	-2647
ಿಸಿಕೊಳ್ಳಲು	-2648
▁ಕೂಡ	-2649
▁ವಾರ	-2650
ರಾಜ್ಯ	-2651
▁ಅಂಶಗಳನ್ನು	-2652
ಮಯ	-2653
▁ತುಂಬ	-2654
ರವು	-2655
ರುತ್ತಾರೆ	-2656
▁ಹುಡು	-2657
ಿಸೆಂಬರ್	-2658
ನರ್	-2659
ಾಡ	-2660
▁ತರುವ	-2661
ರುತ್ತಾನೆ	-2662
▁ಅವಲಂಬಿಸಿ	-2663
▁ಷರತ್ತುಗಳನ್ನು	-2664
ದಲ್ಲಿನ	-2665
▁ಖುಲಾಸೆ	-2666
▁ತೊಡಗ	-2667
▁ನಡೆಸಲು	-2668
▁ಅತ	-2669
▁ಪ್ರೊಸ	-2670
ಗ್ಗ	-2671
ಶಿಷ್ಟ	-2672
▁ಆದಾಯದ	-2673
▁ಪರಿಗಣನೆಗೆ	-2674
ಷನ್ಸ್	-2675
▁ಪ್ರಶ್ನೆಯನ್ನು	-2676
▁ಪ್ರೊಸೀ	-2677
▁ಯಾರ	-2678
▁ಆಧರ	-2679
▁ಒದಗಿಸುವ	-2680
▁ನಿರಂತರ	-2681
ದನ್ನು	-2682
▁ಮಾದ	-2683
▁ತಕ್ಷಣ	-2684
▁ಸಂಸತ್ತು	-2685
ೇಹ	-2686
▁ವಿನಾಯಿತಿ	-2687
▁ಲಭ್ಯವಿರುವ	-2688
▁ಅಡ್ಡ	-2689
▁ಸುಧಾರಣ	-2690
▁ವಸ್ತುಗಳನ್ನು	-2691
▁ವಿಷಯಗಳ	-2692
▁ಒಪ್ಪಂದವನ್ನು	-2693
▁ಕಂಡುಕೊಂಡ	-2694
▁ನಕ	-2695
▁ಕೈಯ	-2696
▁ಏಕೈಕ	-2697
▁ಉದಾಹ	-2698
▁ಶಾಸಕಾಂಗವು	-2699
ವಾಸಿ	-2700
▁ಮೌಲ್ಯಮಾಪಕ	-2701
ಂತ್ರಿ	-2702
▁ಜಂಟಿ	-2703
१२	-2704
▁ಅವಧಿಯ	-2705
II	-2706
▁ಖಂಡ	-2707
▁ಸಂಬಂಧಿಸಿದೆ	-2708
▁ೀಕರಣ	-2709
▁ನವದೆಹ	-2710
▁ದೃಷ್ಟಿಯಲ್ಲಿ	-2711
ಲುವ	-2712
▁ಇಂದು	-2713
▁ಅನ್ವಯಿಸುತ್ತದೆ	-2714
ೂನ್	-2715
▁ಪ್ರತಿಯೊಬ್ಬ	-2716
▁ಸರಳ	-2717
▁ಹೊರಹಾಕ	-2718
ಿಯನ್	-2719
ಸೂಚ	-2720
▁ಶೈಕ್ಷಣ	-2721
ಪ್ಟೆ	-2722
▁ಶ್ರೀಮತಿ	-2723
ಕರ್ಯ	-2724
▁ಹೇಗೆ	-2725
ಷ್ಣ	-2726
▁ಪಿತ	-2727
ಶ್ವತ	-2728
ಿಸಲ್ಪಡ	-2729
ರಿಂಗ್	-2730
▁ತಪ್ಪಾಗಿ	-2731
▁ಬ್ರ	-2732
▁ಆಹ್	-2733
▁ಅಂಕ	-2734
ಗಳಿಗಿಂತ	-2735
▁ಹಕ್ಕಿನ	-2736
▁ತನಿಖಾ	-2737
▁ಮರುಪಾವ	-2738
▁ಸುಂಕ	-2739
ಸಾಹ	-2740
▁ನಿಸ್	-2741
▁ಒಳಪಟ್ಟಿರುತ್ತದೆ	-2742
▁ಸೂಕ್ತವಾದ	-2743
▁ಯಶಸ್	-2744
▁ಅತ್ಯಂತ	-2745
ಪ್ಟೆಂಬರ್	-2746
▁ಖಾತರಿ	-2747
▁ದಾಖಲೆಯ	-2748
▁ಖರೀದಿದಾರ	-2749
ಿಕಲ್	-2750
▁ಬಂಡ	-2751
ಶ್ಚ	-2752
ದಲ್ಲಿದೆ	-2753
▁ಮಾಡಬೇಕ	-2754
ನಾಟಕ	-2755
▁ಹೈ	-2756
ಮ್ಸ್	-2757
▁ಗಣನೀಯ	-2758
ಿಸಲ್ಪಟ್ಟಿದೆ	-2759
▁ಸಮಿತಿ	-2760
ಾಪಕ	-2761
▁ಆಗಸ್ಟ್	-2762
ಯನ	-2763
ವಾಯಿತು	-2764
▁ಚುನಾವಣಾ	-2765
▁ಪಿಂಚಣಿ	-2766
▁ಹಂಚಿಕೆ	-2767
▁ಹಕ್ಕುಗಳು	-2768
▁ನಿರ್ವಹಿಸಲು	-2769
ತೆಯಿಂದ	-2770
▁ನೀಡಬಹುದು	-2771
▁ಮಾತ್ರವಲ್ಲ	-2772
▁ವಾರ್ಷಿಕ	-2773
▁ದಾಖಲೆಗಳನ್ನು	-2774
...	-2775
▁ಆಲೋಚ	-2776
▁ಸಂಸತ್ತಿನ	-2777
▁ನಿಗಮ	-2778
▁ಅನಿಯಂತ್ರಿತ	-2779
ಿಯೇ	-2780
▁ಶೈಕ್ಷಣಿಕ	-2781
▁ಆಯುಕ್ತರು	-2782
▁ತೆರಿಗ	-2783
▁ವಿವಾಹ	-2784
ಪುರ	-2785
▁ಸುಗ	-2786
▁X	-2787
],	-2788
▁ಶಾಶ್ವತ	-2789
ಸ್ತಕ	-2790
ನೆಗಳ	-2791
ರ್ಪಡ	-2792
▁ಜನರು	-2793
▁ಜನವರಿ	-2794
▁ಸಾಬೀತ	-2795
ಸಾಡ್	-2796
▁ಸೆಷನ್ಸ್	-2797
▁ಕರ್ನಾಟಕ	-2798
ಿಸುತ್ತೇನೆ	-2799
ಖರ	-2800
ಹಿಕ	-2801
▁ಬಹಿರಂಗಪಡ	-2802
▁ಎಸ್ಸಿ	-2803
▁ಸಂವಹನ	-2804
▁ಸ್ಫ	-2805
ವಾಗಿಯೂ	-2806
▁ಡಿಸೆಂಬರ್	-2807
▁ಪ್ರೊಸೀಜರ್	-2808
▁ಹಿಂದೆ	-2809
▁ನ್ಯಾಯಾಲಯಗಳ	-2810
▁ಡೀ	-2811
▁ಹೋಲ	-2812
ಿನೆ	-2813
ಿಸುವಂತೆ	-2814
▁ಸ್ಥಿತ	-2815
▁ಖರ್ಚ	-2816
▁ಕಠ	-2817
ಾಗಿಯೂ	-2818
ಪ್ರಭುತ್ವ	-2819
▁ಅರಿ	-2820
▁ಸಂತೋಷ	-2821
▁ರಾಜ್ಯಕ್ಕೆ	-2822
ಯುಕ್ತ	-2823
ಾಗಿದ್ದರೆ	-2824
▁ಪ್ರಾಧಿಕಾರದ	-2825
ನ್ಯಾಸ	-2826
▁ವಾಸ್ತವಿಕ	-2827
▁ವಸತಿ	-2828
▁ಮಾಡಿದ್ದಾರೆ	-2829
▁ದಾ	-2830
ಕರ್ಷ	-2831
ಕ್ಕೂಟ	-2832
ವುಗಳನ್ನು	-2833
ುವಾಗಿ	-2834
ಲ್ಲಿದ್ದ	-2835
▁ಸಮನ	-2836
▁ಆಹ್ವಾನ	-2837
▁ಅಪರಾಧಕ್ಕೆ	-2838
ರುಪ	-2839
▁ಪರ್	-2840
▁ಪಿಡಬ್ಲ್ಯು	-2841
▁ಎಚ್ಚರ	-2842
ಣೆಯಲ್ಲಿ	-2843
▁ಲೈಂಗಿಕ	-2844
▁ಅಡ	-2845
▁ಎತ್ತ	-2846
ಗಳಾಗಿವೆ	-2847
ನಂದ	-2848
ಹಾ	-2849
ಿಸಲಾಗದ	-2850
▁ಪ್ಯಾ	-2851
ಾಗ್	-2852
▁ಇದೇ	-2853
▁ಹಾಗೆ	-2854
▁ಕಲ್	-2855
▁ಟ್ರಸ್ಟ್	-2856
▁ತಾತ್	-2857
▁ಹಿನ್ನೆ	-2858
▁ಹೊರತಾಗಿಯೂ	-2859
▁ಕರೆದ	-2860
ನೆಗಾಗಿ	-2861
▁ದೀರ್ಘ	-2862
ಟೆಂಟ್	-2863
▁ಕಠಿಣ	-2864
▁ಕಲ್ಪ	-2865
ುತ್ತಾನೆ	-2866
ಹಾಸ	-2867
▁ಉಲ್ಲೇಖಿಸಿ	-2868
▁ಮಾರುಕಟ್ಟೆ	-2869
ಿಸಲಾಗಿರುವ	-2870
▁ಸೆಪ್ಟೆಂಬರ್	-2871
▁ಪ್ರಕರಣವು	-2872
▁ವರ್ಷಗಳಲ್ಲಿ	-2873
▁ವಾದಿಸಿದರು	-2874
▁ನೋಂದಣಿ	-2875
ಗೋ	-2876
ವಾಗುವುದಿಲ್ಲ	-2877
ಾಮು	-2878
▁ಇಲಾಖೆ	-2879
▁ಕಚೇರಿ	-2880
▁ಮೂರನೇ	-2881
ಿದ್ದಲ್ಲಿ	-2882
▁ತೆರೆಯುವ	-2883
ಸಿಆರ್	-2884
▁ವಿಸ್ತ	-2885
▁ವರ್ಗದ	-2886
▁ವಿನಂತ	-2887
▁ಸ್ವೀಕರಿಸಿದ	-2888
▁ಸ್ವಲ್ಪ	-2889
ಟ್ಯಾ	-2890
▁ಕಸ್ಟ	-2891
▁ಬೆಳಕಿನಲ್ಲಿ	-2892
ರ್ಹ	-2893
▁ವ್ಯಾಯಾಮ	-2894
▁ಒಕ್ಕೂಟ	-2895
▁ನಿಬಂಧನೆಯನ್ನು	-2896
ಮನ್	-2897
ರಾಜು	-2898
ಿಸುತ್ತಿರುವ	-2899
▁ಸೈ	-2900
ಗೊಳಿಸಿದ	-2901
ಂಡೋ	-2902
▁ಮಾಜಿ	-2903
▁ಅಧಿಕಾರಿಯ	-2904
ವಾಳ	-2905
ಗಟ್ಟ	-2906
ಾವಧ	-2907
▁ನೇರವಾಗಿ	-2908
ಗಾದರೂ	-2909
▁ಹೊರಗಿಡ	-2910
▁ಬಡ್ಡ	-2911
▁ಕಾಯಿದ	-2912
▁ಪುಸ್ತಕ	-2913
▁ನಿಖರ	-2914
▁ಉಲ್ಲಂಘನೆಯ	-2915
▁ಪ್ರಶಸ್ತಿಯನ್ನು	-2916
ವೆಂಬರ್	-2917
ಜಾಪ್ರಭುತ್ವ	-2918
▁ಹೇಳಿದೆ	-2919
ವಾಗಬಹುದು	-2920
ಕ್ಟೋ	-2921
ಕ್ಷಮ	-2922
ಿಸಿದ್ದರು	-2923
▁ಪ್ರಣ	-2924
ಾರತಮ್ಯ	-2925
▁ಪ್ರಕ್ರಿಯೆಯ	-2926
ೀಪ	-2927
ಾಬ್	-2928
ೇದ	-2929
▁ಫಿರ್ಯಾದ	-2930
or	-2931
▁ವಿಕ	-2932
▁ಪಾರ್	-2933
▁ಮಾಡಿಕ	-2934
▁ಪಂಜ	-2935
▁ಪ್ರಚ	-2936
▁ಪಾವತಿಸುವ	-2937
▁ರಾಜ್ಯದಲ್ಲಿ	-2938
ರ್ಪ	-2939
▁ಇಂಗ್	-2940
ಮೆಯ	-2941
▁ಮಗುವ	-2942
ಹಿ	-2943
▁ಸ್ಥಾಪಿಸಲು	-2944
▁ರಫ್	-2945
▁ತಾರತಮ್ಯ	-2946
es	-2947
ಮೇಲ್	-2948
▁ಡೇ	-2949
▁ಪರಿವರ್ತ	-2950
▁ಕಾರ್ಯಕ್ಷಮ	-2951
ಿಸ್ತ	-2952
▁ಅಡ್	-2953
▁ಸಲಹೆಗಾರರ	-2954
▁ನಿರ್ವಹಣೆ	-2955
▁ಸುಳ್ಳ	-2956
ೆಡೆ	-2957
ಮಾನ್ಯ	-2958
ಿಲ್ಲದೆ	-2959
▁ಪರಿಹಾರದ	-2960
ಲ್ಸ್	-2961
▁ಪೋಷ	-2962
▁ಇರುತ್ತದೆ	-2963
▁ಎರಡನೆಯ	-2964
ರಣೆ	-2965
▁ವಿಫಲವಾದ	-2966
▁ಪ್ರಜಾಪ್ರಭುತ್ವ	-2967
ರುಪಯೋಗ	-2968
▁ಪ್ರಣಬ್	-2969
▁ಇನ್ಸ್	-2970
▁ವಿಧಾನವನ್ನು	-2971
in	-2972
▁ವಂಚ	-2973
▁ರೀತಿ	-2974
ವಾಗಿತ್ತು	-2975
▁ಅಭಿವ್ಯಕ್ತಿ	-2976
▁ಇಂಟರ್	-2977
▁ಹಿಂದೂ	-2978
ವರೆ	-2979
ಳಿ	-2980
▁ಅವಕಾಶವನ್ನು	-2981
▁ನೀಡಬೇಕು	-2982
▁ಮಂಡಳಿಯು	-2983
▁ನೀಡಿದೆ	-2984
▁ಸಾಮರ್ಥ್ಯವನ್ನು	-2985
▁ಹೇಳಲಾಗುವುದಿಲ್ಲ	-2986
ೈಕೆ	-2987
ಸ್ಟ್ರ	-2988
▁c	-2989
▁ಕಾರ್ಯದರ್ಶಿ	-2990
▁ಮಾರಾಟದ	-2991
▁ಕೋಡ್	-2992
▁ಸ್ಥಾನವನ್ನು	-2993
ರ್ಷ	-2994
▁ನಡೆಸುವ	-2995
▁ಮಾತನಾಡ	-2996
▁ಕಲ್ಯಾಣ	-2997
▁ಅಧಿಸೂಚನೆಯ	-2998
▁ಭಯ	-2999
▁ಮೊಕದ್ದಮೆಯನ್ನು	-3000
▁ಪ್ರಚಾರ	-3001
▁ಹೊರಡಿಸಿದ	-3002
ಿಯಲ್ಲಿರುವ	-3003
▁ಜುಲೈ	-3004
▁ಯಾವಾಗಲೂ	-3005
ರೇ	-3006
▁ಕೈಯಲ್ಲಿ	-3007
▁ಪೋ	-3008
▁ಸ್ಟೇಟ್	-3009
ಬ್ರವರಿ	-3010
▁ವಿರೋಧ	-3011
ವಾಗಿವೆ	-3012
▁ಹೇಗಾದರೂ	-3013
▁ಚಾಲ	-3014
ನಿಜ	-3015
ಹೊ	-3016
▁ದುರುಪಯೋಗ	-3017
▁ಸುಧಾರ	-3018
▁ಪೀಠದ	-3019
▁ಯುಎಸ್	-3020
▁ಸೃಷ್ಟ	-3021
ಪರ್	-3022
▁ಗಳ	-3023
▁ನಿಂದ	-3024
▁ಕಡೆಯ	-3025
▁ಚೆಕ್	-3026
ಕ್ಟೋಬರ್	-3027
▁ಬಂಡವಾಳ	-3028
ಟಲ್	-3029
▁ಪಾಲುದಾರ	-3030
ಧಿಕ	-3031
▁ಪ್ರಕರಣಗಳನ್ನು	-3032
▁ಕಾರಣದಿಂದಾಗಿ	-3033
ಷರ	-3034
ುದಾದರೂ	-3035
▁ವೇದ	-3036
▁ರಕ್ತ	-3037
▁ಸಂಖ್ಯೆಯ	-3038
................	-3039
▁ಚಿತ್ರ	-3040
▁ಸತ್ತವರ	-3041
▁ಬಾಲ	-3042
▁s	-3043
▁ಜಾತಿ	-3044
▁ಪುನಃ	-3045
▁ವಿಶ್ವಾಸಾರ್ಹ	-3046
ಂತೆಗೆ	-3047
ವಾಗಿಲ್ಲ	-3048
ುದಕ್ಕೆ	-3049
▁ಕಾರಣಗಳಿಗಾಗಿ	-3050
▁ತರಲು	-3051
▁ರೋ	-3052
ತಿಹಾಸ	-3053
▁ಗುಂಪು	-3054
ರಡು	-3055
▁ಖಾತೆ	-3056
▁ಕೊಡುಗೆ	-3057
▁ವಿಚಾರಣೆಯಲ್ಲಿ	-3058
▁ಪರಿಹರ	-3059
▁ಅಂದ	-3060
▁ಸಲುವಾಗಿ	-3061
ಟ್ರಿಕ್ಸ್	-3062
▁ಮೊಹ	-3063
▁ಸಮಾಜದ	-3064
ುತ್ತೇನೆ	-3065
ಲನ್ನು	-3066
▁ತಜ್ಞ	-3067
ಿದರೆ	-3068
ಿದಾಗ	-3069
▁ಇದರಿಂದಾಗಿ	-3070
▁ಪ್ರಕ್ರಿಯೆಯನ್ನು	-3071
▁ಬು	-3072
▁ಅವಧಿಯನ್ನು	-3073
ವೈ	-3074
▁ಸಾಧನ	-3075
▁ಪಡ	-3076
▁ಗಣನೆಗೆ	-3077
▁ಕಾರ್ಯಗಳನ್ನು	-3078
ರಿಷ್ಠ	-3079
ರಲಿಲ್ಲ	-3080
▁ತೆರಿಗೆಯನ್ನು	-3081
▁ಮಹಾರಾ	-3082
▁ವರದಿಯ	-3083
▁ಹಣಕಾಸಿನ	-3084
▁ಹಿಂತೆಗೆ	-3085
▁ಕಾಪ	-3086
ೆಗಳಿಗೆ	-3087
▁ವಹಿವಾಟು	-3088
ಮದು	-3089
▁ಕಂಪನಿಯು	-3090
▁ವ್ಯಾಪ್ತಿಗೆ	-3091
ಸೌ	-3092
▁ಅಬ	-3093
▁ಪ್ರೊ	-3094
▁ಕಾಲೇಜು	-3095
▁ಆಕರ್ಷ	-3096
▁ಗುತ್ತಿಗೆದಾರ	-3097
ಂಸ	-3098
▁ಮೇಲ್ಮನವಿಯಲ್ಲಿ	-3099
ಗೂ	-3100
▁ಅಂಗವ	-3101
ೀಚ	-3102
▁ಅಗತ್ಯವಿದೆ	-3103
▁ಮಟ್ಟಿಗೆ	-3104
▁ನಿಲುವ	-3105
▁ವೃತ್ತಿಪರ	-3106
▁ಸಂಸ್ಥೆಗಳ	-3107
▁ಮಾಡಲಾಗುತ್ತದೆ	-3108
▁ಶುಲ್ಕವನ್ನು	-3109
▁ಕಡಿಮೆಯ	-3110
ಆರೋ	-3111
▁ಕಚೇರ	-3112
ಿತವಾಗಿದೆ	-3113
▁ನವೆಂಬರ್	-3114
ಪ್ರದ	-3115
▁ವಿಂಡೋ	-3116
▁ಅಪಘಾತ	-3117
ಿಸಿಕೊಳ್ಳುವ	-3118
▁ಉಂಟು	-3119
▁ಕೇರಳ	-3120
ಸಂದ	-3121
ತೆಯಿದೆ	-3122
▁ವಿಜ್ಞಾನ	-3123
▁ಮಾರ್ಗಸೂಚ	-3124
ಾರ್ಮಿಕ	-3125
ಾಗಿದ್ದರೂ	-3126
ದಂತೆ	-3127
▁ಸಹೋದರ	-3128
▁ಪ್ರಯಾಣ	-3129
▁ವ್ಯಕ್ತಪಡ	-3130
ಾದರೂ	-3131
▁ಹೊಂದಿದ್ದಾರೆ	-3132
ಡಿಂಗ್	-3133
▁ಉದಾಹರಣ	-3134
▁...	-3135
ಗೊಳ್ಳುವ	-3136
▁ಇಳ	-3137
▁ಆಮದು	-3138
▁ಪಂಜಾಬ್	-3139
ಲಕ್ಷಣ	-3140
▁ಬಾಂಬೆ	-3141
▁ಅಂತೆಯೇ	-3142
▁१	-3143
ೆಸ್	-3144
ೆಗಳಲ್ಲಿ	-3145
ಬಹುದೇ	-3146
▁ಫೆಬ್ರವರಿ	-3147
ಹೊಸ	-3148
▁ಇಡೀ	-3149
ಇನ್ನು	-3150
ಸಿಟಿ	-3151
ುದರಲ್ಲಿ	-3152
▁ಅನುದಾನ	-3153
▁ಯಾವುದಾದರೂ	-3154
▁ವಾದವನ್ನು	-3155
▁ಟೈ	-3156
▁ಇದ್ದರೆ	-3157
ನ್ಯೂ	-3158
ತ್ತೀಚ	-3159
▁ಅನುಪಸ್ಥಿತಿಯಲ್ಲಿ	-3160
ಾದೇಶ	-3161
ಿಸುತ್ತಿದೆ	-3162
▁ಅನ್ಯಾಯ	-3163
▁ತೆಗೆದುಕೊಳ್ಳಲು	-3164
ಲೀಕರ	-3165
ೊಮ್ಮೆ	-3166
▁ಜೂನ್	-3167
▁S	-3168
▁ಇತ್ತೀಚ	-3169
▁ಪ್ರಚೋದ	-3170
▁ದುರ್ಬ	-3171
▁ಅಕ್ಟೋಬರ್	-3172
▁ಸಾಕ್ಷ್ಯಗಳನ್ನು	-3173
ಪಕ್ಷ	-3174
▁ತಡೆಗಟ್ಟ	-3175
ಶೀಟ್	-3176
▁ತತ್ವವನ್ನು	-3177
▁ಅಂತರ್	-3178
▁ರಕ್ಷಣೆ	-3179
▁ಪರಿಗಣಿಸಲು	-3180
▁ನಿರ್ಣಾಯಕ	-3181
ತ್ತಿಗೆ	-3182
▁ಪ್ರತಿವಾದಿಗಳ	-3183
▁ಎಸ್ಟ	-3184
▁ವಿಮಾ	-3185
▁ನ್ಯಾಯವ್ಯಾಪ್ತಿಯ	-3186
ಿಗೂ	-3187
▁ಕಾರಣಗಳನ್ನು	-3188
ಧಿಕರಣ	-3189
▁ಸುಳ್ಳು	-3190
ಶಾ	-3191
ಸ್ಥಾಪ	-3192
▁ವಿವರಗಳನ್ನು	-3193
▁ದರದಲ್ಲಿ	-3194
ಾದೇಶಿಕ	-3195
▁ನ್ಯಾಯಾಧಿಕರಣ	-3196
ಡಿಎ	-3197
▁ವರ್ಷಕ್ಕೆ	-3198
▁ತಾತ್ಕಾಲಿಕ	-3199
▁ನ್ಯಾಯಮಂಡಳಿಯ	-3200
ಟ್ರಲ್	-3201
ೃಹ	-3202
▁ಗೌಪ್ಯ	-3203
ವಾಗ್ರಹ	-3204
ೊಂದೆಡೆ	-3205
▁ಬ್ಯಾಂಕು	-3206
▁ಪ್ರೇ	-3207
▁ಪತ್ರದ	-3208
▁ವಿಂಡೋದಲ್ಲಿ	-3209
▁ಆಸ್ಪತ್	-3210
▁ಘನ	-3211
▁ಸ್ನೇ	-3212
▁ದುರ್ಬಲ	-3213
ಸೌಕರ್ಯ	-3214
▁ನಿಸ್ಸಂದ	-3215
▁ಕಾರ್ಯವಿಧಾನದ	-3216
▁ಇತರರು	-3217
▁ಹಿಡಿದ	-3218
▁ಮಾಡಬೇಕು	-3219
▁ಮೌಲ್ಯವನ್ನು	-3220
ಟ್ಟುಕೊಳ್ಳ	-3221
▁ವಿಷಯವು	-3222
▁ಚೇತರ	-3223
▁ಹೆಸರು	-3224
ಿಗೆಯನ್ನು	-3225
▁ಪರಿಣಾಮವನ್ನು	-3226
▁ಸೂಕ್ತವೆಂದು	-3227
▁ಜಾರಿಗೊಳಿಸಿದ	-3228
ವೃತ್ತಿ	-3229
▁ನಿವೃತ್ತ	-3230
▁ವಸ್ತುಗಳ	-3231
▁ನಿರ್ದೇಶಕರ	-3232
▁ಚಿಕಿತ್ಸ	-3233
▁ದಿನದ	-3234
▁ತಪ್ಪಾಗಿದೆ	-3235
▁ಪೂರ್ವಾಗ್ರಹ	-3236
▁ಶಿಕ್ಷೆಗೊಳ	-3237
▁ಸ್ವೀಕಾರ	-3238
ಟ್ಟಿನಲ್ಲಿ	-3239
▁ಪಾವತಿಸಿದ	-3240
▁ಹಿಡುವಳ	-3241
▁ಮೂಲಸೌಕರ್ಯ	-3242
▁ಸಹಕಾರ	-3243
▁ನ್ಯಾಯಾಲಯವನ್ನು	-3244
▁ಕೆಲಸದ	-3245
▁ಉಂಟಾಗುವ	-3246
▁ಪ್ರಾದೇಶಿಕ	-3247
▁ವಹಿವಾಟ	-3248
ಿತಸ್ಥ	-3249
▁ತೊಂದ	-3250
ತಿನಿ	-3251
▁ರೈಲ್	-3252
ಾಮೀಣ	-3253
ಪಾಡು	-3254
▁ಅನಗತ್ಯ	-3255
▁ರಾಜ್ಯಗಳ	-3256
▁ಪರಿಷ್ಕರಣೆ	-3257
▁ಓದುತ್ತದೆ	-3258
ತ್ವವನ್ನು	-3259
▁ಕಷ್ಟ	-3260
▁ಸಂಗತಿಗಳನ್ನು	-3261
▁ಪೇ	-3262
▁ಟಿಪ್ಪ	-3263
ಿಸಬೇಕಾಗಿತ್ತು	-3264
▁ಆರೋಪಿಗಳನ್ನು	-3265
ಲ್ಲೂ	-3266
▁ಖನಿಜ	-3267
▁ಕರೆದೊ	-3268
▁ಆದೇಶದಿಂದ	-3269
ೇಡ್	-3270
▁ಭೂಮಿಯ	-3271
▁ನಿಟ್ಟಿನಲ್ಲಿ	-3272
▁ಉದ್ದೇಶಪೂರ್ವ	-3273
ಲೆಯಲ್ಲಿ	-3274
▁ನಡೆಸಿದ	-3275
ಿಸಿದ್ದಾನೆ	-3276
▁ಸಹಾಯಕ	-3277
▁ಶಸ್ತ್ರಾಸ್ತ್ರ	-3278
▁ಮೇಲ್ಮನವಿಗಳಿಗೆ	-3279
▁ನೀರಿನ	-3280
▁ಸೇವೆಗಳ	-3281
▁ಸರಬ	-3282
▁ಸಿಂಧ	-3283
▁ರದ್ದುಗೊಳ	-3284
▁ಅನ್ವಯಿಸುವುದಿಲ್ಲ	-3285
▁ದಿವಾ	-3286
▁ಸೋ	-3287
▁ಅಸಾ	-3288
▁ವಯಸ್ಸಿನ	-3289
ಂತಿ	-3290
▁ಸಿಬಿಐ	-3291
▁ಸರಕುಗಳನ್ನು	-3292
▁ಪ್ರಾತಿನಿ	-3293
▁ಸಲಹೆಗಾರರು	-3294
▁ವಿನ್ಯಾಸ	-3295
▁ಪರ್ಯಾಯ	-3296
▁ತಪ್ಪಿತಸ್ಥ	-3297
▁ಮಾಡಲಾಯಿತು	-3298
ಂಡಿ	-3299
ಸಿಐ	-3300
▁ಲೋಕ	-3301
▁ಶೇಕಡಾ	-3302
▁ಅರ್ಥೈಸ	-3303
▁ಹೇಳುತ್ತದೆ	-3304
▁ಪ್ರಾತಿನಿಧ್ಯ	-3305
ೆಂಬ	-3306
▁ಗ್ರಾಮೀಣ	-3307
ನಾಗಿರುತ್ತಾನೆ	-3308
ಗರ್	-3309
▁ಪ್ರತಿಕ	-3310
ಸಮ್ಮತ	-3311
▁ನಿರೂಪ	-3312
▁ಮೀರಿ	-3313
▁ಸ್ಕ	-3314
▁ಕಾರಣವಾಗುತ್ತದೆ	-3315
ಪ್ರೇ	-3316
▁ಮೇಲ್ಮನವಿಗಾಗಿ	-3317
ನಲ್ಲಿನ	-3318
ಕೆಗೆ	-3319
ೀರ್ಣ	-3320
▁ಪ್ರತಿಕೂಲ	-3321
▁ನಿರ್ದೇಶನಗಳನ್ನು	-3322
▁ಗೌರ	-3323
▁ಸ್ಥಳದಲ್ಲಿ	-3324
१३	-3325
ಸ್ಟರ್	-3326
▁ವಿಶಾಲ	-3327
▁ನ್ಯಾಯಸಮ್ಮತ	-3328
▁ಇನ್ನೊಬ್ಬ	-3329
ುತ್ತಿದ್ದ	-3330
▁ಬದಲಾವಣೆ	-3331
▁ವಿವಾದವನ್ನು	-3332
▁ಆಕ್ರಮ	-3333
▁ಆಕ್ಷೇಪಣೆ	-3334
▁ಪರಿಶಿಷ್ಟ	-3335
▁ಮೋಟ	-3336
▁ಅನರ್ಹ	-3337
▁ಧಾರ್ಮಿಕ	-3338
▁ಸಂಕ	-3339
ಹಿಡಿದಿದೆ	-3340
ಾಮುಖ್ಯ	-3341
▁ಗಮನಿಸಿದಂತೆ	-3342
xad	-3343
ಶನ್	-3344
▁ಅರ್ಥಮಾಡ	-3345
▁ಪ್ರಾಮುಖ್ಯ	-3346
▁ಮತ್ತೊಂದೆಡೆ	-3347
▁ನಿರ್ವಹಿಸುವ	-3348
▁ಭರವ	-3349
▁ಸ್ಫೋಟ	-3350
▁ಪುನರುಚ್ಚರ	-3351
▁ಹಕ್ಕುದಾರ	-3352
ರಣ್ಯ	-3353
▁ಘೋಷಣೆ	-3354
▁ಸಲ್ಲಿಕೆಗಳನ್ನು	-3355
ಗಿರ	-3356
ಲಿಕ	-3357
▁ಪಕ್ಷವು	-3358
▁ಮಹಾರಾಷ್ಟ್ರ	-3359
▁Vs	-3360
▁ಯಂತ್ರ	-3361
▁ನ್ಯೂ	-3362
▁ವರ್ಷದಲ್ಲಿ	-3363
▁ಷಧ	-3364
ರ್ಶನ	-3365
▁ರಾಷ್ಟ್ರಪತಿಗಳು	-3366
▁ಅಧಿಕಾರದ	-3367
▁ತೀರ್ಪುಗಳನ್ನು	-3368
▁ಮಸೂದ	-3369
▁ಶುಭಾ	-3370
▁ಲಾ	-3371
▁ಮಾಡಿದರು	-3372
▁ಸ್ವಾತಂತ್ರ್ಯದ	-3373
ಸ್ಟಿ	-3374
▁ಬಳಸುವ	-3375
▁ಶುಭಾಶಯ	-3376
ಲೆಯ	-3377
ಡಬ್ಲ್ಯು	-3378
▁ಕಥ	-3379
ಿರ್ದೇಶ	-3380
ಂಶ	-3381
▁ಒದಗಿಸಲು	-3382
▁ವರ್ತ	-3383
▁ಆರೋಪಗಳನ್ನು	-3384
ಬೆ	-3385
▁ಕೊಲೆ	-3386
▁ಪೊಲೀಸರು	-3387
ಮಿಳು	-3388
▁ಸಮಸ್ಯೆಗಳನ್ನು	-3389
▁ನೆನ	-3390
▁ಫ್	-3391
▁ಕಾರ್ಯವಿಧಾನವನ್ನು	-3392
ರಾಧಿಕಾರ	-3393
ವಿರುತ್ತದೆ	-3394
ಜರಾ	-3395
▁ಭಾಗಶಃ	-3396
▁ತನಿಖೆಯ	-3397
▁ಪ್ರಕ್ರಿಯೆಯಲ್ಲಿ	-3398
▁ವಸ್ತುಗಳು	-3399
▁ಪ್ರಶ್ನೆಗೆ	-3400
▁ಅಪ್	-3401
ಿಸುತ್ತಾನೆ	-3402
ತನದ	-3403
▁ಸಿಎ	-3404
▁ಪಕ್ಷಗಳಿಗೆ	-3405
▁ಎಸ	-3406
▁ಶೋಧ	-3407
ಆರೋಪಿ	-3408
▁ಅಕ್ರಮ	-3409
ಗೊಂಡಿದೆ	-3410
▁ಅನುಮೋದನೆ	-3411
ೊಸೈ	-3412
▁ಕ್ಕ	-3413
▁ಪಾಲ್	-3414
ರುಗ	-3415
▁ಜೋ	-3416
ಾರ್ಕ	-3417
▁ಒಳಗೊಂಡಂತೆ	-3418
▁ಭ್ರ	-3419
ಗೊಳಿಸುತ್ತದೆ	-3420
▁ಓದಿದ	-3421
▁ಮಂತ್ರಿ	-3422
▁ಬಳಲ	-3423
▁ಪ್ರಕರಣಗಳ	-3424
▁ಸಮಸ್ಯೆಯನ್ನು	-3425
▁ನಿಗದಿಪಡ	-3426
▁ಪ್ರಶ್ನಾರ್ಹ	-3427
▁ಯೋಗ	-3428
▁ಅವರೊಂದಿಗೆ	-3429
ವಾರ	-3430
▁ಉತ್ತರಾಧಿಕಾರ	-3431
ಾದ್ಯ	-3432
್ರೀವಾ	-3433
▁ಅನುಮತಿಸಲಾಗಿದೆ	-3434
▁ಲಾಭದ	-3435
▁ವಿಫಲವಾಗಿದೆ	-3436
ಸರ್	-3437
▁ದಿನಗಳಲ್ಲಿ	-3438
ಟ್ರಿ	-3439
▁ಪ್ರೈ	-3440
▁ಆರ್ಬಿ	-3441
▁ಪ್ರಾಯ	-3442
▁ಸವಾಲು	-3443
ಿಸಿದ್ದು	-3444
▁ಅಧಿಕಾರವು	-3445
▁ಆಪಾದ	-3446
▁ಆಧಾರ್	-3447
,00	-3448
▁ಆರೋಪಿತ	-3449
ಲವು	-3450
್ರೀವಾಜ್ಞ	-3451
▁ಶಾಸಕಾಂಗದ	-3452
▁III	-3453
ಕ್ಷ್ಮ	-3454
▁ದಾಖಲಿಸಲಾಗಿದೆ	-3455
▁ಜಾರ	-3456
▁ನೋಡಿ	-3457
▁ಕಾಯ್ದಿರ	-3458
▁ಇರಬೇಕು	-3459
ಗೆಯನ್ನು	-3460
ಮತ	-3461
▁ಕಾರಣಕ್ಕಾಗಿ	-3462
▁ಶಾಲ	-3463
ುವಲ್ಲಿ	-3464
▁ತೀರ್ಪಿನಿಂದ	-3465
▁ತಮಿಳು	-3466
▁ಭೂಮಿ	-3467
▁ನ್ಯಾಯಪೀಠವು	-3468
▁ಆಯಾ	-3469
▁ಸುಗ್ರೀವಾಜ್ಞ	-3470
▁ಗರಿಷ್ಠ	-3471
▁ಅನುಪಾತ	-3472
ಜೆಟ್	-3473
ಪ್ರದಾಯ	-3474
▁ಅಧ್ಯಯನ	-3475
▁ಪ್ರಯೋಜನವನ್ನು	-3476
▁ಹೊಂದಿದ್ದ	-3477
▁ಅನ್ವಯವಾಗುವ	-3478
▁ನೀಡಬೇಕ	-3479
▁ವಯಸ್	-3480
▁ಸಂವಿಧಾನವು	-3481
▁ಹಿಂತೆಗೆದುಕೊಳ್ಳ	-3482
▁ಜನರಿಗೆ	-3483
▁ಮಧ್ಯಸ್ಥಗಾರ	-3484
ೋನ್	-3485
▁ಹರಿಯಾಣ	-3486
▁ರಫ್ತು	-3487
ನೊಂದಿಗೆ	-3488
▁ನಿರ್ಧಾರವು	-3489
▁ಸ್ವತ್ತು	-3490
▁ಸನ್ನಿವೇಶದಲ್ಲಿ	-3491
▁ಪ್ರಮಾಣದ	-3492
▁ಸಾಕ್ಷಿ	-3493
▁ಸಿಂಧುತ್ವ	-3494
▁ನೀತಿಯ	-3495
▁ಅರಣ್ಯ	-3496
▁ವಿನಿ	-3497
▁ಕೊನೆ	-3498
ಪರಿಶೀಲ	-3499
ವಾಗಿದ್ದರೆ	-3500
▁ನಿಷ್	-3501
▁ವಿನಿಮಯ	-3502
▁ಘಟನೆಯ	-3503
▁ರಾಜ್ಯಗಳು	-3504
▁ತಾರ್ಕ	-3505
▁ಥ	-3506
▁ಸಮ್ಮ	-3507
▁ಪರವಾನಗ	-3508
▁ಪ್ರತ್ಯೇಕವಾಗಿ	-3509
ಕಾಲೀನ	-3510
▁ಆರಂಭಿಕ	-3511
▁ವ್ಯಕ್ತಿಗಳಿಗೆ	-3512
▁ಪುರು	-3513
▁ತತ್ವಗಳನ್ನು	-3514
▁ಭೂಮಾ	-3515
▁ತನ್ನದೇ	-3516
▁ರದ್ದುಗೊಳಿಸುವ	-3517
ಮ್ಮದ್	-3518
▁ಶಾಸನದ	-3519
▁ಕಡೆಯಿಂದ	-3520
▁ಕ್ರಮವನ್ನು	-3521
▁ಅಪರಾಧಗಳಿಗೆ	-3522
▁ಹತ್ತ	-3523
▁ಸೇರ್ಪಡ	-3524
ಜರಾತ್	-3525
▁ವಿವರಣೆಯ	-3526
▁ಸೂಕ್ಷ್ಮ	-3527
▁ಸುರಕ್ಷಿತ	-3528
▁ಹಡ	-3529
▁ಪರಿಣಾಮಕಾರ	-3530
ಕಟ್ಟು	-3531
▁ಕಾರಣಕ್ಕೆ	-3532
▁ಜಮೀ	-3533
ಕ್ಟ್ರ	-3534
ರಂಜ	-3535
▁ವಿವರಣೆ	-3536
▁ಎಲೆ	-3537
ಾಳೆ	-3538
▁ಐಟಿ	-3539
▁ಮೀಸಲಾ	-3540
▁ಚಲಾಯಿಸಲು	-3541
▁ಇಂದ	-3542
ಹೋಗ	-3543
ಜಿಸ್ಟ್ರಾರ್	-3544
▁ಧರ್ಮ	-3545
▁ಪರೀಕ್ಷೆಯ	-3546
▁ಸಲಹೆಗಾರರಿಂದ	-3547
▁ಮಂಡಳಿ	-3548
ಿಕ್ರಮ	-3549
▁ಮೊದಲೇ	-3550
ಲ್ಲಾ	-3551
ಸಭೆಯ	-3552
▁ಮನೆ	-3553
▁ನಿರ್ಧರಿಸುವ	-3554
ವಾವ	-3555
▁ಪ್ರಗ	-3556
▁ಅವಶ್ಯಕತೆ	-3557
▁ಕೆಳಗೆ	-3558
▁ರಲ್ಲಿನ	-3559
▁ನಡೆಯಿತು	-3560
▁ನೈತಿಕ	-3561
▁ಪ್ರಸ್ತಾವ	-3562
▁ಪುರಾವೆಗಳನ್ನು	-3563
▁ಪೋಸ್ಟ್	-3564
▁ಕೊನೆಯ	-3565
ಮೇಲ್ಮನ	-3566
▁ಅಬಕಾರಿ	-3567
▁ಅವನನ್ನು	-3568
▁ಲೆಕ್ಕಾಚಾರ	-3569
----	-3570
▁ಚಂದ	-3571
▁ಬಡ್ತಿ	-3572
▁ಎಂದಿಗೂ	-3573
▁ದಾವೆ	-3574
ವಿಲ್ಲದ	-3575
▁ಪಂಚಾಯ	-3576
▁ಸೊಸೈ	-3577
▁ಗಮನಾರ್ಹ	-3578
▁ನ್ಯಾಯಾಧೀಶರನ್ನು	-3579
▁ಸಾರ	-3580
ಕ್ಕೊಳ	-3581
ಹೊಮ್ಮ	-3582
▁ಪ್ರಕರಣಗಳು	-3583
ಪಿಸಿಯ	-3584
▁ಪೂರೈಸಲು	-3585
▁ಹೊರಹೊಮ್ಮ	-3586
ಾಲಯ	-3587
▁ವರದಿಯಲ್ಲಿ	-3588
▁ಸೂಚಿಸಲಾದ	-3589
▁ಮಾದರಿ	-3590
▁ತೂ	-3591
▁ಹಾದ	-3592
▁ಬಂದಿತು	-3593
▁ಬೆಂ	-3594
▁ಕಾರ್ಪೊರೇಟ್	-3595
▁ಗಮನಿಸಲಾಗಿದೆ	-3596
ಕಂಡ	-3597
ವಾವಧಿ	-3598
▁ಹಿಂದಿರುಗ	-3599
▁ಪರೀಕ್ಷೆಯನ್ನು	-3600
▁ಅಲ	-3601
▁ಕೆಲಸಗಾರ	-3602
▁ಹೆಂಡ	-3603
▁ಪ್ರಮಾಣಪತ್ರವನ್ನು	-3604
▁ಆಪಾದಿತ	-3605
ಣಿಯ	-3606
▁ಗುಜರಾತ್	-3607
▁ಸಮತ	-3608
▁ಹೊಂದಿರಬೇಕು	-3609
▁ಭೌ	-3610
३०	-3611
▁ರೈಲ್ವೆ	-3612
ಸಸ್	-3613
ೀಡ	-3614
▁ದುಃ	-3615
ಾದ್ಯಂತ	-3616
▁ಒಪ್ಪಂದವು	-3617
▁ಲಾಲ್	-3618
▁ಗೌರವಾ	-3619
ನಿಟ್ಟ	-3620
▁ಸಂದೇಶ	-3621
▁ಬರ	-3622
▁ಪುನರಾ	-3623
▁ಾ	-3624
ಫಾಲ್	-3625
▁ಬದಿಗಿರ	-3626
▁ವಿಷಯಗಳು	-3627
ಕ್ಸಿ	-3628
▁ಕಲ	-3629
ರ್ತಿ	-3630
▁ವರ್ಗಾವಣೆಯ	-3631
▁ಸಂರಕ್ಷ	-3632
▁ಮಾಲೀಕ	-3633
▁ಸಮಯವನ್ನು	-3634
▁ಮಂಜ	-3635
▁ಗ್ರಹ	-3636
▁ಜಮೀನು	-3637
▁ಸ್ವಯಂಪ್ರೇ	-3638
▁ಮುಂಚಿತವಾಗಿ	-3639
;.	-3640
▁ಯಾವುದ	-3641
▁ತಮಿಳುನಾ	-3642
▁ಮಾಡುವಾಗ	-3643
▁ಕೋರಿ	-3644
▁ವ್ಯವಸ್ಥೆಯನ್ನು	-3645
ಾಗದ	-3646
ಮಾಡುವ	-3647
▁ಜೀವಾವಧಿ	-3648
ಷರತ್ತು	-3649
▁ತಿಳಿಸಿದ	-3650
▁ಶಾಖ	-3651
ಂಕ್	-3652
ಹೆ	-3653
▁ತಿಳಿಸಲಾದ	-3654
▁ಸ್ವೀಕರಿಸಲು	-3655
▁ಸಾರಿಗೆ	-3656
▁ಎಸ್ಟೇಟ್	-3657
▁ಮಾಲೀಕರು	-3658
▁ಪರಿಗಣಿಸುವ	-3659
▁ವಿಷಯಗಳಿಗೆ	-3660
ನ್ವಿತ	-3661
▁ಅಲ್ಪ	-3662
▁ಕಾಯಿದೆಯಲ್ಲಿ	-3663
▁ಷರತ್ತುಗಳ	-3664
ಹೇಳ	-3665
▁ಕಟ್ಟುನಿಟ್ಟ	-3666
▁ಇಚ್	-3667
▁ಆದೇಶದಲ್ಲಿ	-3668
▁ಆರೋಪಿಗಳಿಗೆ	-3669
▁ವಿಷಯಗಳಲ್ಲಿ	-3670
▁ಯಲ್ಲಿ	-3671
▁ರಸ್ತೆ	-3672
▁ಅಧೀನ	-3673
▁ಅರ್ಥದಲ್ಲಿ	-3674
▁ದೆಹಲಿಯ	-3675
▁ಮಾಹಿತಿಯ	-3676
ೇಟರ್	-3677
▁ಮುನ್ನ	-3678
▁ಪರಿಶೀಲನೆಯ	-3679
▁ಮಾರ್ಗದರ್ಶ	-3680
▁ಮರಣದಂಡನೆಯನ್ನು	-3681
▁ಆಡಳಿತಾತ್ಮಕ	-3682
▁ಜವಾಬ್ದಾರಿಯನ್ನು	-3683
▁ದುಃಖ	-3684
▁ಬಾಡಿಗೆದಾರ	-3685
▁ಭಾಗವಹಿಸುವ	-3686
▁ಶೇಖ	-3687
▁ಸೂಕ್ತವಾಗಿದೆ	-3688
▁ಅತಿಕ್ರಮ	-3689
▁ಸಾಕ್ಷಿಯ	-3690
ರ್ಮಾ	-3691
▁ವೇಗ	-3692
▁ತೊಂದರೆ	-3693
▁ಸಾಧಿಸಲು	-3694
ನೆಂದು	-3695
▁ತಾರ್ಕಿಕ	-3696
▁ಗುಣಲಕ್ಷಣ	-3697
▁ಪಡೆದುಕೊಳ್ಳ	-3698
ನೈ	-3699
▁ನೀಡುವಂತೆ	-3700
▁ಖರ್ಚು	-3701
▁ತುಂಬಾ	-3702
▁ಪ್ರದೇಶದಲ್ಲಿ	-3703
▁ಹಿರಿತ	-3704
▁ಲಾಭವನ್ನು	-3705
▁ಆಳ	-3706
▁ಅಂತರ್ಗತ	-3707
▁ಒಳಗೊಳ್ಳ	-3708
▁ಸಾವಿಗೆ	-3709
▁ರಿಜಿಸ್ಟ್ರಾರ್	-3710
▁ವಕೀಲರ	-3711
▁ಸುಲ	-3712
ಲ್ಲದ	-3713
▁ಮಿತಿ	-3714
▁ಕಂಡುಬಂದಿದೆ	-3715
ಿಲ್ಲದ	-3716
iv	-3717
ಂಧ್ರ	-3718
▁ಆಸಕ್ತಿಯನ್ನು	-3719
▁ಆಸಕ್ತಿ	-3720
▁ವಿಷಯಗಳನ್ನು	-3721
ಾದಾರ	-3722
▁ದ್ವ	-3723
▁ಹೊಂದಿರುತ್ತದೆ	-3724
▁ಅವಿ	-3725
ುತ್ತಮ	-3726
▁ಮುಚ್ಚ	-3727
ರಿಗೆಯ	-3728
ಾಗಬಹುದು	-3729
ಕೊ	-3730
ಲಿಕ್	-3731
▁ಸಹಕಾರಿ	-3732
▁ಸಾಕ್ಷಿಗಳು	-3733
ಶ್ಚಿಮ	-3734
▁ರಿಯಾಯ	-3735
▁ದಾಖಲೆಗಳು	-3736
ದೆಯೇ	-3737
▁ಗರ್ಭ	-3738
▁ಅನುವು	-3739
▁ಹಸ್ತಾಂತರ	-3740
ೂರ್ಜ	-3741
].	-3742
▁ಮಂಡ	-3743
▁ಬೀರುತ್ತದೆ	-3744
,000	-3745
▁ಕಾಪಾಡ	-3746
▁ಮೊತ್ತದ	-3747
▁ಸಲಹೆಗಾರರಾದ	-3748
▁ಅಡಿ	-3749
▁ಸಕ್ರಿಯ	-3750
▁ಆರ್ಡರ್	-3751
▁ನೇಮಕಗೊಂಡ	-3752
▁ವ್ಯಾಪಕ	-3753
▁ಕಣ್ಣ	-3754
ಲಾಗಿಲ್ಲ	-3755
▁ಬಂಗ	-3756
▁ಬಡ್ಡಿ	-3757
▁ಅಧ್ಯಕ್ಷರ	-3758
▁ವ್ಯವಸ್ಥೆ	-3759
ಗತ್ತ	-3760
▁ಸೂಚನೆ	-3761
▁ಗೌರವಾನ್ವಿತ	-3762
▁ಮಾತ್ರವಲ್ಲದೆ	-3763
ಕ್ಯೂ	-3764
▁ವ್ಯವಹರಿಸುತ್ತದೆ	-3765
▁ನಮೂದ	-3766
an	-3767
▁ನೋಂದಾಯಿತ	-3768
▁ವ್ಯವಹಾರದ	-3769
▁ಪ್ರಸಾರ	-3770
ಟರಿ	-3771
▁ಜನಸಂ	-3772
▁ಅರ್ಥವನ್ನು	-3773
▁ಉದ್ಭವಿಸುವ	-3774
▁ಮುಖ್ಯವಾಗಿ	-3775
ಟನ್	-3776
▁ಅಡಮಾನ	-3777
ಿಸದಿರುವ	-3778
▁ದೇಶದಲ್ಲಿ	-3779
ಿಯಂ	-3780
ಟಿಂಗ್	-3781
▁ಭಾರತವು	-3782
▁ಕ್ರಮವಾಗಿ	-3783
▁ಪೇಟೆಂಟ್	-3784
▁ಕಾರಣವನ್ನು	-3785
▁ಸೇವೆಯನ್ನು	-3786
ತೆಗೆಯ	-3787
▁ಪಕ್ಷದ	-3788
▁ಹೌ	-3789
▁ಸಂಬಂಧವನ್ನು	-3790
▁ವೆಚ್ಚವನ್ನು	-3791
▁ಕಲೆ	-3792
▁ಹಣದ	-3793
▁ಉಲ್ಲೇಖವನ್ನು	-3794
ನಾತ್ಮಕ	-3795
▁ಮಸೂದೆ	-3796
ಲ್ದ	-3797
▁ಕಾಳಜಿ	-3798
ೆಯಾಗಿದೆ	-3799
▁ಹೆಸರಿನಲ್ಲಿ	-3800
▁ಆಫ	-3801
್ರಾಸ್	-3802
▁ದಲ್ಲಿ	-3803
▁ಕಲ್ಲಿದ್ದ	-3804
▁ಟ್ರಿ	-3805
▁ಕಾರಣವಾಗಿದೆ	-3806
▁ಆನ್	-3807
▁ಕಂಪೆ	-3808
ರಲ್	-3809
ೈಕಲ್ಯ	-3810
ತ್ಪಾದ	-3811
▁ವ್ಯಾಪ್ತಿಯಲ್ಲಿ	-3812
ವಾರ್ಯ	-3813
▁ನಿಬಂಧನೆಯು	-3814
▁ಅಧಿಕಾರಿಗಳಿಗೆ	-3815
▁ಸಂಘಟ	-3816
ರಿಯಾ	-3817
▁ದೇವಾಲಯ	-3818
▁ಮುಗಿದ	-3819
▁ಅದರಂತೆ	-3820
▁ಅನೂರ್ಜ	-3821
▁ಹೆಚ್ಚಿಸಲು	-3822
▁ಡೈ	-3823
ಮೇಲ್ಮನವಿ	-3824
ೀನ್	-3825
▁ಪಾತ್ರವನ್ನು	-3826
▁ಸೇರ್ಪಡೆ	-3827
▁ಇನ್ನೊಂದು	-3828
ಕೊರ	-3829
▁ನೆರವು	-3830
ಪಡಿಸುವುದು	-3831
▁ಪರಿಗಣಿಸಲಾಗಿದೆ	-3832
▁ಬಿಡ್	-3833
▁ಅತ್ಯಾ	-3834
▁ಜೀವನದ	-3835
▁ಅತ್ಯುತ್ತಮ	-3836
▁ಅಗತ್ಯವನ್ನು	-3837
▁ಹೊಣೆಗಾರಿಕೆ	-3838
▁ಎಕ	-3839
ೋತ್ಸಾಹ	-3840
ವಾಗಿರಬೇಕು	-3841
▁ಅನಿವಾರ್ಯ	-3842
▁ನಿಯಮವನ್ನು	-3843
▁ಸೆಂ	-3844
ಣಿಯನ್ನು	-3845
▁ಪ್ರೋತ್ಸಾಹ	-3846
ಲಿಷ್	-3847
▁f	-3848
▁ಹೊರತೆಗೆಯ	-3849
▁ಎಂಜಿನಿಯರ್	-3850
▁ಒತ್ತಿ	-3851
▁ಬಲಿಪಶು	-3852
▁ಸಸ್ಯ	-3853
▁ಅಲಿ	-3854
ೀಕೃತ	-3855
▁ಬಿಹಾರ	-3856
▁ಹದ	-3857
▁ಶಕ್ತಿ	-3858
▁ಕುಂದು	-3859
▁ಮಾನಸಿಕ	-3860
▁ಬಡ	-3861
▁ಹೊರತಾಗಿ	-3862
▁ಟೆಂಡರ್	-3863
▁ಯುವ	-3864
▁ನೆನಪ	-3865
▁ತಪ್ಪು	-3866
ಂತೆಯೇ	-3867
▁ಅಂಗವೈಕಲ್ಯ	-3868
▁ಕರ್ತವ್ಯವನ್ನು	-3869
ಳೆದ	-3870
▁ಚಿಕಿತ್ಸೆ	-3871
▁ಒದಗಿಸಲಾಗಿದೆ	-3872
ಷನಲ್	-3873
▁ಸಮನಾಗಿ	-3874
▁ವ್ಯಕ್ತಿಗಳನ್ನು	-3875
▁ಕುಂದುಕೊರ	-3876
ಟೆಲ್	-3877
al	-3878
▁ತಿಳಿದು	-3879
ತ್ತೆ	-3880
▁ಸ್ವಂತ	-3881
▁ಗಮನಕ್ಕೆ	-3882
▁ಕಾಂ	-3883
ಸ್ಥಾನ	-3884
▁ಮಿತಿಯ	-3885
ುತ್ತಿದ್ದಾರೆ	-3886
▁ಇಂತಹ	-3887
▁ಮುಂಬ	-3888
▁ಭ್ರಷ್ಟ	-3889
▁d	-3890
▁ವಿಭಜ	-3891
▁ನಿಯಂತ್ರಿಸುವ	-3892
ಮೊ	-3893
▁ಜಲ	-3894
▁ಕಾಯ್ದೆಯನ್ನು	-3895
▁ಸಂದರ್ಭಗಳನ್ನು	-3896
▁ಶಾಲೆ	-3897
▁ಷರತ್ತಿನ	-3898
▁ಕಾನೂನಿನಡಿಯಲ್ಲಿ	-3899
▁ಡೀಫಾಲ್	-3900
▁ಗುಪ್ತ	-3901
▁ಗೊ	-3902
▁ಅಲ್	-3903
▁ಬೆಳವಣಿ	-3904
▁ಸಲ್ಲಿಸುತ್ತಾರೆ	-3905
▁ಕ್ಷೇತ್ರದಲ್ಲಿ	-3906
▁ನ್ಯಾಯಪೀಠದ	-3907
▁ಕಾರ್ಯಗತಗೊಳ	-3908
▁ಹೂ	-3909
▁ಬಿಲ್	-3910
▁ನಿವಾಸಿ	-3911
ಪಿಎ	-3912
▁ಸೇರಿಸಲು	-3913
▁ದಾಖಲಿಸಿದ	-3914
▁ಮದ್ರಾಸ್	-3915
▁ನಿಂತ	-3916
▁ಆಧಾರಿತ	-3917
▁ಉದ್ಯೋಗದಾತ	-3918
▁ಪದವನ್ನು	-3919
▁ಭತ್ಯ	-3920
▁ನೌಕರರ	-3921
▁ಪಶ್ಚಿಮ	-3922
▁ದಾಖಲೆಗಳ	-3923
▁ನವದೆಹಲಿ	-3924
ಬ್ಯೂ	-3925
ಕ್ಯಾಡ್	-3926
▁ಅನುಬಂಧ	-3927
ಚಲ	-3928
▁ಕಾಮ	-3929
▁ಸಾಯ	-3930
▁ವೇಳಾಪಟ್ಟಿ	-3931
▁ಏಳು	-3932
▁ವೀಕ್ಷ	-3933
▁ವಿವಾದಗಳನ್ನು	-3934
▁ವ್ಯತ್ಯಾಸವನ್ನು	-3935
▁ಏನು	-3936
ಪಾತ	-3937
ವಾಗಿದ್ದು	-3938
▁ಸ್ಪಷ್ಟವಾದ	-3939
ಾನು	-3940
ವಣಿಗೆ	-3941
▁ವೈಡ್	-3942
▁ಮನರಂಜ	-3943
▁ದತ್ತ	-3944
▁ಭವಿಷ್ಯದ	-3945
▁ಪ್ರದರ್ಶನ	-3946
▁ನಿಯಮಗಳಿಗೆ	-3947
▁ಕಂದ	-3948
▁ಇಂಗ್ಲಿಷ್	-3949
ಗಿದೆ	-3950
▁ಬರುತ್ತದೆ	-3951
▁ಸ್ಪಷ್ಟಪಡ	-3952
▁ಕಂಪೆನಿ	-3953
▁ನಿರ್ದೇಶಕರು	-3954
ವಲ್ಲದ	-3955
ುರ	-3956
▁ಮಟ್ಟದಲ್ಲಿ	-3957
▁P	-3958
ಲೈನ್	-3959
ಿಸಬಹುದ	-3960
▁ತೋರಿಸಲು	-3961
▁ಶೀ	-3962
ವರ್ತಿ	-3963
▁ಮನೋ	-3964
▁ಕಳೆದ	-3965
▁ಸಂಭವಿಸಿದ	-3966
▁ಸಂಭ	-3967
▁ಬಣ್ಣ	-3968
ದೃಷ್ಟ	-3969
ಖ್ಯಾತ	-3970
ಕ್ಸಾಡ್	-3971
▁ನಡೆಸಲಾಯಿತು	-3972
▁ಓದುವ	-3973
▁ವಕೀಲರಾದ	-3974
▁ಹೆಚ್ಚಾಗಿ	-3975
ಐಟಿ	-3976
▁ನೀಡಿ	-3977
▁ಭರ್ತಿ	-3978
▁ಹುದ್ದೆಗೆ	-3979
▁ಕರಡು	-3980
ಪಿಎಸ್	-3981
▁ಹೆಸರನ್ನು	-3982
▁ಪ್ರಕರಣಕ್ಕೆ	-3983
▁ಅಂಚ	-3984
▁ವಾಕ್	-3985
▁ಉದಾಹರಣೆಗೆ	-3986
▁ಪಡೆದುಕೊಂಡ	-3987
ಿಯವರೆಗೆ	-3988
▁ತಿಂಗಳು	-3989
ಸಂಸ್ಥ	-3990
ಕಾಲಕ್ಕೆ	-3991
ೀಕರಣದ	-3992
▁ಬೋಧ	-3993
ಂತಾದ	-3994
▁ಮನೆಗೆ	-3995
▁ಸಮರ್ಥನೀಯ	-3996
▁ಉಳಿದಿದೆ	-3997
▁ಫಾರ್ಮ್	-3998
▁ದಂಡವನ್ನು	-3999
ಕರನ್ನು	-4000
▁ಆಗಿದೆ	-4001
▁ತಪ್ಪೊಪ್ಪಿಗೆಯ	-4002
▁ನಿಯತ	-4003
▁ವಸ್ತುವನ್ನು	-4004
▁ಆಟ	-4005
▁ಠಾ	-4006
ಧ್ಯಾ	-4007
▁ಹಿತದೃಷ್ಟ	-4008
▁ಸಾಕ್ಷ್ಯಗಳು	-4009
ನೋ	-4010
ವಂತ	-4011
▁ಮುಂತಾದ	-4012
▁ump	-4013
▁ಅಂಶಗಳು	-4014
▁ನಿರ್ಲಕ್ಷ್ಯ	-4015
▁ಉಪಸ್ಥ	-4016
▁ವ್ಯವಹಾರವನ್ನು	-4017
▁ದಶ	-4018
▁ತುರ್	-4019
▁ಬಂಗಾಳ	-4020
ಟ್ರಾ	-4021
▁ನ್ಯಾಯಾಂಗದ	-4022
ಂಗತ	-4023
▁ಸಾಬೀತುಪಡಿಸಲು	-4024
ಲರ್	-4025
▁ಹಿತದೃಷ್ಟಿಯಿಂದ	-4026
▁ಹಿನ್ನೆಲೆಯಲ್ಲಿ	-4027
▁ಅವಲಂಬಿಸಿದ್ದಾರೆ	-4028
▁ಬಾಧ್ಯ	-4029
▁ಹಿಂಪಡೆಯ	-4030
▁ಬೆಳವಣಿಗೆ	-4031
▁ಮಾರಾಟಗಾರ	-4032
▁ಮೊಕದ್ದಮೆಯಲ್ಲಿ	-4033
ಪರಿಶೋಧ	-4034
▁ಕ್ರಿಯೆಯ	-4035
▁ಮರುಪರಿಶೀಲ	-4036
▁ಶರ್ಮಾ	-4037
▁ಹಳೆಯ	-4038
▁ಕಾಲಕಾಲಕ್ಕೆ	-4039
▁ಸ್ವೀಕಾರಾರ್ಹ	-4040
▁ಪರೀಕ್ಷೆಯಲ್ಲಿ	-4041
▁ಮಾನದಂಡಗಳನ್ನು	-4042
;,	-4043
▁ಪರೀಕ್ಷೆ	-4044
▁ಇತ್ತೀಚಿನ	-4045
▁ಶೀರ್ಷಿಕೆ	-4046
ಗೊಳಿಸುವುದು	-4047
▁ಪ್ರಾಯೋಗ	-4048
१४	-4049
▁ಮೌಲ್ಯಮಾಪಕನು	-4050
▁ಶಕ್ತ	-4051
▁ನಮೂದು	-4052
▁ಇಲ್ಲದೆ	-4053
▁ಮಾಲೀಕರ	-4054
▁ಬುದ್ಧ	-4055
▁ಸಮತೋಲ	-4056
▁ಡೇಟಾ	-4057
▁ತೆರಿಗೆಯ	-4058
▁ಸಂಗತಿಗಳ	-4059
ೋಪಕರಣ	-4060
▁ಹತ್ತು	-4061
▁ಲೆಕ್ಕಪರಿಶೋಧ	-4062
▁ಯಶಸ್ವ	-4063
▁ನಿಸ್ಸಂದೇಹ	-4064
ಿಯುವ	-4065
▁ತೋರುತ್ತದೆ	-4066
▁ಲ್ಯಾ	-4067
▁ಮಾನ್ಯತೆ	-4068
▁ಜವಾಬ್ದಾರಿ	-4069
▁ಪುರುಷ	-4070
▁ಇತಿಹಾಸ	-4071
▁ಹೊಂದಿವೆ	-4072
▁v	-4073
ರಹಿತ	-4074
▁ಕಿರು	-4075
ಪ್ರದೇಶದ	-4076
▁ಆಂಧ್ರ	-4077
ಿಸಿರುವಂತೆ	-4078
▁ಕ್ರೆ	-4079
ತನವನ್ನು	-4080
▁ಎದುರಿಸಲು	-4081
ಥ್	-4082
ಟಾರ್	-4083
▁ಆಯ್ಕೆಯ	-4084
ಸಂಕ್ಷಿಪ್ತವಾಗಿ	-4085
▁ಪ್ರೀ	-4086
ಿದ್ದರಿಂದ	-4087
ಮನಿರ್ದೇಶ	-4088
▁ದೃಷ್ಟಿಕೋನವನ್ನು	-4089
▁ಸ್ವರೂಪವನ್ನು	-4090
▁ಭಾವಿಸುತ್ತೇವೆ	-4091
▁ಮೈ	-4092
▁ಅಸಹ	-4093
ಬ್ಯೂನಲ್	-4094
ರ್ಪಕ	-4095
▁ಒಪ್ಪಂದಕ್ಕೆ	-4096
▁ಆತನ	-4097
▁ಮೇಲ್ವಿಚಾರಣೆ	-4098
▁ಕಡೆ	-4099
ನೆಯೊಂದಿಗೆ	-4100
▁ವ್ಯಾಖ್ಯಾನವನ್ನು	-4101
▁ಬೆದರ	-4102
▁ನಾಮನಿರ್ದೇಶ	-4103
▁ಪರಿಗಣಿಸಬೇಕು	-4104
▁ಆರಂಭದಲ್ಲಿ	-4105
ಬಳ	-4106
▁ಸಂಸದ	-4107
▁ಪುರಾವೆಗಳು	-4108
▁ಪ್ರಕ್ರಿಯೆ	-4109
▁ಗಾಂಧ	-4110
ಿರಬಹುದು	-4111
▁t	-4112
▁ವಿಮಾನ	-4113
▁ಹಾ	-4114
ಕಾರ್	-4115
ನ್ಯಾಯಾ	-4116
▁ಅಧಿಸೂಚನೆಯನ್ನು	-4117
▁ವಿಭಾಗದಲ್ಲಿ	-4118
ಪದ	-4119
▁ಅಧಿಸೂಚನೆ	-4120
ಿಸುವುದರಿಂದ	-4121
.)	-4122
ುದ್ರ	-4123
▁ಅಡ್ವ	-4124
▁ಬಲವಾದ	-4125
▁ಗಾಯಗೊಂಡ	-4126
▁ಒಬ್ಬರು	-4127
▁ಒಪ್ಪಿಗೆ	-4128
▁ಷರತ್ತುಗಳು	-4129
ಿದು	-4130
▁ಹೊಡೆ	-4131
▁ಕೇಡರ್	-4132
▁ಪ್ಲಾ	-4133
▁ರೊಂದಿಗೆ	-4134
ೊಂದಿಗ	-4135
▁ಅಗತ್ಯವಿರುತ್ತದೆ	-4136
ಬೇಕಾಗುತ್ತದೆ	-4137
▁ವೇಳೆ	-4138
▁ಲೆಕ್ಕಹಾಕ	-4139
▁ಉತ್ತಮವಾಗಿ	-4140
▁ಕಂ	-4141
▁ದಾಖಲಾದ	-4142
▁ಮಧ್ಯಸ್ಥಿಕೆಯ	-4143
▁ಮನೆಯ	-4144
▁ಹಾನಿ	-4145
▁ರಕ್ಷಣಾ	-4146
▁ಉದ್ದೇಶವು	-4147
▁ಏನೂ	-4148
▁ಕೈಗೊಂಡ	-4149
▁ನಿರ್ಧಾರಗಳನ್ನು	-4150
ಬಂದ	-4151
ೋತ್ಪಾದ	-4152
▁ಗುರುತಿನ	-4153
ಿಸಬೇಕೆಂದು	-4154
▁ಆನಂದ	-4155
ುತ್ತಿದ್ದರು	-4156
▁ವಿಷಯವಾಗಿದೆ	-4157
▁ಸ್ಪೀ	-4158
▁ಲಾರ್ಡ್	-4159
▁ಸಂಕ್ಷಿಪ್ತವಾಗಿ	-4160
ಡಿಟ್	-4161
▁ಅಮಾನ್ಯ	-4162
▁ಮುಖ್ಯಸ್ಥ	-4163
▁ಬಿಟ್ಟು	-4164
▁ಮೊಹಮ್ಮದ್	-4165
▁ಮೌಖ	-4166
ಪೆಕ್ಟರ್	-4167
▁ಪೂರೈಕೆ	-4168
ಿರಬೇಕು	-4169
▁ಭಾರ	-4170
▁ದ್ವಿ	-4171
▁ಉಪಯುಕ್ತ	-4172
ಟಿಕಲ್	-4173
▁ಉಂಟುಮಾಡ	-4174
▁ಪ್ರಶಂಸ	-4175
ವಿಧ್ಯ	-4176
ತೆಗಳ	-4177
▁ಅಗತ್ಯವ	-4178
▁ನಿಸ್ಸಂದೇಹವಾಗಿ	-4179
▁ಮಾತು	-4180
▁ರೂಲ್	-4181
▁ಪ್ರತಿಸ್	-4182
▁ಕಂದಾಯ	-4183
▁ಶಕ್ತಿಯನ್ನು	-4184
▁ಹಲ್ಲ	-4185
▁ವೇಳಾಪಟ್ಟಿಯ	-4186
▁ಅಡಿಯಲ್ಲಿರುವ	-4187
▁ಗಂಡ	-4188
ರಿಗೂ	-4189
ಳಿದ	-4190
▁ಮೆಚ್ಚ	-4191
ರಿಯನ್ನು	-4192
▁ಮೇಲ್ಕಂಡ	-4193
ವಾಗುತ್ತವೆ	-4194
ಮೋ	-4195
▁ಆಸ್ಪತ್ರ	-4196
▁ಕ್ರಮಗಳು	-4197
ೊಂದಿಗಿನ	-4198
▁ವಿಧಿಸಲು	-4199
▁ಪುನರುತ್ಪಾದ	-4200
ಾಗಿದ್ದಾರೆ	-4201
▁ವಿವರವಾದ	-4202
ಿಯಾಗಿರುವ	-4203
▁ತಂದೆ	-4204
▁ಆರ್ಬಿಟ್ರಲ್	-4205
▁ಸಾಧ್ಯವಾಗಲಿಲ್ಲ	-4206
▁ಸಲ್ಲಿಕೆಯನ್ನು	-4207
▁ಇಲಾಖೆಯ	-4208
▁ಕಾರ್ಯಾಚರಣೆ	-4209
▁ಕ್ಕಿಂತ	-4210
ರಾಗಿದ್ದರು	-4211
▁ಹೊರಗೆ	-4212
▁ಕಾರಣವಾಗುವ	-4213
▁[(	-4214
▁ರೂಪಿಸುವ	-4215
▁ಶ್ರೇಷ್ಠ	-4216
▁ಉತ್ಪಾದನೆ	-4217
ಬೇಕೆಂದು	-4218
▁ಪ್ರಯೋಗ	-4219
▁ಶಾಸನವನ್ನು	-4220
▁ಸದನ	-4221
ಲಿಯನ್	-4222
▁ಬ್ಲಾ	-4223
▁ಕೆಟ್ಟ	-4224
▁ದೈಹಿಕ	-4225
▁ಹೇಳಿಕೆಯ	-4226
ೋಚ	-4227
▁e	-4228
▁ಮಾಡಲಾಗ	-4229
ಹತ್ಯ	-4230
▁ಮಾಧ್ಯ	-4231
▁ತಿರಸ್ಕಾರ	-4232
▁ಪುನರಾವರ್ತ	-4233
▁ಮೂವರು	-4234
▁ಎಚ್ಚರಿಕೆಯಿಂದ	-4235
▁ರಿಸ	-4236
▁ನಿಯಮಿತ	-4237
▁ಎಲೆಕ್ಟ್ರ	-4238
▁ಸೇವೆಗಳು	-4239
▁ರೂಪಿಸಲು	-4240
▁ಸದಸ್ಯರನ್ನು	-4241
ುಲ್	-4242
▁ವ್ಯವಸ್ಥೆಯ	-4243
▁ಚದರ	-4244
▁ತ್ಯ	-4245
▁ಬಂಧನದ	-4246
▁ಇರಲಿಲ್ಲ	-4247
▁ಅಮಾನ	-4248
ೇರಿ	-4249
ಪ್ರತಿ	-4250
▁ಸಂಘರ್ಷ	-4251
▁ಮನಸ್ಸಿನಲ್ಲಿ	-4252
▁ಬೇಡಿಕೆ	-4253
▁ತೂಕ	-4254
ಶ್ಚಿತ	-4255
ವರನ್ನು	-4256
▁ವೃತ್ತ	-4257
▁ಹೊಂದಿದ	-4258
▁ಬಹಿರಂಗಪಡಿಸುವ	-4259
ೀಲ್	-4260
ಿದಾರರ	-4261
▁ಲಕ್ಷಣ	-4262
▁ತುರ್ತು	-4263
▁ಟ್ರಿಬ್ಯೂನಲ್	-4264
ತೆಗಳು	-4265
▁ಚಂದ್ರ	-4266
▁ಸರಬರಾಜು	-4267
▁ಅಭಿವೃದ್ಧಿಗೆ	-4268
ಂಡೆ	-4269
▁ಅತಿ	-4270
▁ಪ್ರದೇಶಗಳಲ್ಲಿ	-4271
▁A	-4272
▁ಖಂಡಿತ	-4273
▁ಫಿ	-4274
ಡುವುದು	-4275
▁ಲಭ್ಯವಿದೆ	-4276
ಕ್ಯುಮೆಂಟ್	-4277
▁ಹೇಳಲು	-4278
▁ಸೇವೆಯಲ್ಲಿ	-4279
▁ಅವಳನ್ನು	-4280
▁ಭಯೋತ್ಪಾದ	-4281
▁ಮೇಲ್ಮನವಿಗಳಲ್ಲಿ	-4282
▁ಸಾವು	-4283
▁ಬಂದರು	-4284
ಬಾ	-4285
ಸರ	-4286
▁ಸವಲ	-4287
▁ಸೆಳೆಯ	-4288
▁ವಾದಿಸಲಾಯಿತು	-4289
ನೈಟೆಡ್	-4290
▁ವ್ಯಾಪ್ತಿ	-4291
▁ಪ್ರಮಾಣವನ್ನು	-4292
▁ಒತ್ತು	-4293
▁ಸಮಾವೇಶ	-4294
▁ರಾಜ್ಯಪಾಲರು	-4295
ಶುವ	-4296
▁ಆಶ್ರ	-4297
ಟಾರ್ನಿ	-4298
▁ಆಡಳಿತದ	-4299
▁ಖಂಡಿತವಾಗಿಯೂ	-4300
▁ತತ್	-4301
▁ಆವೃತ್ತ	-4302
▁ಶಿಕ್ಷಾರ್ಹ	-4303
ಕರಾಗಿ	-4304
▁ಡಿಜಿ	-4305
▁ನಿರ್ದೇಶಿಸಲಾಗಿದೆ	-4306
ಿತರ	-4307
ನಲ್ಲಿರುವ	-4308
▁ಅತ್ಯಾಚಾರ	-4309
▁ಸಂಬಂಧಪಟ್ಟಂತೆ	-4310
▁ಟಿಪ್ಪಣಿ	-4311
▁ಬದಲು	-4312
ಿಸದಿದ್ದರೆ	-4313
▁ಒಮ್ಮೆ	-4314
ಕ್ಷಿಣ	-4315
▁ಬಳಸಿದ	-4316
▁ವೈವಿಧ್ಯ	-4317
ರಬಾರದು	-4318
▁ಕೈಗಾರಿಕೆ	-4319
▁ಮಾಡಿಕೊಂಡ	-4320
▁ಡಾಕ್ಯುಮೆಂಟ್	-4321
▁umption	-4322
▁ಕಸ್ಟಮ್ಸ್	-4323
▁ಮಾಡಿತು	-4324
ಫ್ಟ್	-4325
▁ಸನ್ನಿವೇಶಗಳಲ್ಲಿ	-4326
ಿಯಾಗ	-4327
▁ವರ್ಷಗಳು	-4328
▁ಕಾನೂನುಗಳು	-4329
ಾರೆಯೇ	-4330
▁ಉತ್ಪಾದನಾ	-4331
ೇಜ್	-4332
ಕ್ಕೊಳಗಾದ	-4333
▁ಪರಿಣಾಮಕಾರಿಯಾಗಿ	-4334
ಿದ್ದೇನೆ	-4335
▁ಗುಪ್ತಾ	-4336
▁ಕಂಡುಬರುವ	-4337
▁ಉಲ್ಲೇಖಿಸಿದ್ದಾರೆ	-4338
▁ಅಂದಾಜ	-4339
▁ಇತ್ತು	-4340
▁ಪರಿಗಣಿಸಿದ	-4341
▁ತೆಗೆದುಹಾಕುವ	-4342
▁ಹೊಣೆಗಾರಿಕೆಯನ್ನು	-4343
▁ಅಟಾರ್ನಿ	-4344
▁ಅರ್ಹತೆಗಳ	-4345
▁ಸೂಚಿಸುವ	-4346
▁ಇವು	-4347
▁ಶಿಕ್ಷಣದ	-4348
▁ನೀಡಿದ್ದಾರೆ	-4349
ಾಗಿರುವುದರಿಂದ	-4350
ಮಿಷ	-4351
▁ಯುಪಿ	-4352
ಗೊಳ್ಳುತ್ತದೆ	-4353
▁ಉಚಿತ	-4354
▁ಕೇಳಿದ	-4355
▁ಅಪ್ಲಿಕ	-4356
▁ಚರ್ಚೆಯ	-4357
▁ಯಂತ್ರೋಪಕರಣ	-4358
▁ವಶಪಡಿಸಿಕೊಂಡ	-4359
ಣೆಯು	-4360
▁ದುಷ್	-4361
▁ವಲಯದ	-4362
▁ಪಠ	-4363
▁ಯುನೈಟೆಡ್	-4364
ರ್ಯಾ	-4365
▁ಕಾರ್ಯಾಚರಣೆಯ	-4366
ಜನ	-4367
▁ಪ್ರವೇಶವನ್ನು	-4368
ಲ್ಕತ್ತ	-4369
▁ಗ್ರಾಹಕ	-4370
▁ನಿಯಂತ್ರಕ	-4371
▁ಕೌಶ	-4372
▁ಜ್ಞಾಪಕ	-4373
ವಾಗುವಂತೆ	-4374
▁ದಿನಾಂಕವನ್ನು	-4375
ರೆಸ	-4376
▁ಆದರೂ	-4377
▁ದೇಶೀಯ	-4378
▁ಅನ್ವಯಿಸುವ	-4379
ಿಸಲ್ಪಡುತ್ತದೆ	-4380
▁ಒಳಪಟ್ಟು	-4381
▁ಪರಿಶೀಲನೆ	-4382
ಿಸುತ್ತಿದ್ದಾರೆ	-4383
ಂಟೆ	-4384
▁ಸ್ಪೀಕರ್	-4385
ಸಿಂಗ್	-4386
▁ಪಂಗಡ	-4387
▁ಪಿತೂರ	-4388
▁ಭಾಗವು	-4389
▁ಬಾರಿಗೆ	-4390
▁ಶಿಕ್ಷೆಗೆ	-4391
▁ಪದಗಳನ್ನು	-4392
▁ತಿಳಿಸಲಾಗಿದೆ	-4393
ಬೇಕಾಗಿದೆ	-4394
▁ಮಾಡುತ್ತಾರೆ	-4395
ಾಯು	-4396
ತೆಗಾಗಿ	-4397
▁ಸುಲಭ	-4398
ಿಕೊಳ್ಳಬೇಕು	-4399
ೈನ್	-4400
▁ಫೆಡ	-4401
ಗೊಳಿಸಲಾಗಿದೆ	-4402
▁ಮಾಡಲಾಗುವುದಿಲ್ಲ	-4403
▁ರಾಯ	-4404
ದಾರರು	-4405
▁ಸವಲತ್ತು	-4406
▁ಬುದ್ಧಿ	-4407
▁ಶುಭಾಶಯಗಳನ್ನು	-4408
▁ನೀಡಲಾಗುವುದಿಲ್ಲ	-4409
ಿಷ್ಟ	-4410
▁ಕ್ರಮಬದ್ಧ	-4411
▁ಪಿಟಿ	-4412
▁ಬೋರ್	-4413
▁ಸಿಬ್ಬಂದಿ	-4414
▁ಒಪ್ಪಿಗೆಯ	-4415
ಾಗಿದ್ದರು	-4416
▁ವಿಶಿಷ್ಟ	-4417
▁ಕಾನೂನುಗಳನ್ನು	-4418
▁ಜನಸಂಖ್ಯ	-4419
▁ವಿಷಯಕ್ಕೆ	-4420
ವೀ	-4421
▁ನೀಡುವುದಿಲ್ಲ	-4422
▁ಭೂಮಾಲೀ	-4423
▁ಹೋದ	-4424
▁ಎಂಜಿನಿಯರಿಂಗ್	-4425
▁ನಿಗದಿಪಡಿಸಲಾಗಿದೆ	-4426
ಲೆಂಡ್	-4427
▁ರೇ	-4428
ಾನಿಕ್	-4429
ಲಾಲ್	-4430
▁ಬೆಳಿ	-4431
▁ಮನು	-4432
▁ಹೊರಗಿನ	-4433
▁ಬರೆದ	-4434
▁ಸದಸ್ಯರಿಗೆ	-4435
▁ಗುರುತಿಸಲಾಗಿದೆ	-4436
ಪಕ್ಷೀಯ	-4437
▁ವಿಮರ್ಶ	-4438
▁ಅನುಕೂಲಕರ	-4439
▁ಸಲಹೆಯನ್ನು	-4440
▁ವ್ಯಕ್ತಪಡಿಸಿದ	-4441
ಭಾಯ	-4442
▁ಕಳ	-4443
▁ಮೌಖಿಕ	-4444
▁ಸ್ಪರ್ಧಾತ್ಮಕ	-4445
್ವ	-4446
▁ನಿಭಾಯ	-4447
▁ಅಪ್ರಾ	-4448
▁ಉಪಕ್ರಮ	-4449
▁ಬೆಳಿಗ್ಗೆ	-4450
▁ಗೆಜೆಟ್	-4451
▁ವರ್ಷಗಳವರೆಗೆ	-4452
▁ೇದ	-4453
▁ಅರಿತು	-4454
▁ಭರವಸೆ	-4455
▁ಮುಂಬೈ	-4456
▁ಇಲ್ಲವೇ	-4457
▁ಅಸ್ಪ	-4458
▁ಹೆಚ್ಚಳ	-4459
▁ಮಾಡಿಕೊಡ	-4460
▁ಪಟ್ಟಿಯಲ್ಲಿ	-4461
ೊಳಗಿನ	-4462
▁ಸಂಖ್ಯೆಯನ್ನು	-4463
▁......	-4464
▁ಸೂಚಿಸಿದಂತೆ	-4465
▁ಅವಶ್ಯಕತೆಗಳನ್ನು	-4466
ಸಿಎ	-4467
ತ್ಯದ	-4468
▁ಬಹುಮತ	-4469
▁ತನಿಖೆಯನ್ನು	-4470
ಮ್ಮು	-4471
ಕ್ತಿಗೆ	-4472
▁ರಶೀ	-4473
▁ಜಾರಿಗೊಳಿಸುವ	-4474
▁ಹುದ್ದೆಗಳನ್ನು	-4475
▁ವಿರುದ್ಧವಾಗಿದೆ	-4476
▁ಉಪಕರಣ	-4477
▁ಅವರಿಂದ	-4478
▁ಪಚಾರ	-4479
▁ಸಚಿವಾಲಯದ	-4480
▁ಪಟ್ಟಿಯನ್ನು	-4481
▁ಕ್ರೆಡಿಟ್	-4482
ಮಾಧಾನ	-4483
▁ಹಿಂತ	-4484
▁ನೀಡಿಲ್ಲ	-4485
ಿಸ್ತು	-4486
ರಾಗಿರುತ್ತಾರೆ	-4487
ೋಲ್	-4488
▁ಟ್	-4489
ಲ್ಯೂ	-4490
▁ಆಂತರ	-4491
▁ಪ್ರಾಣಿ	-4492
▁ಅಸಮಾಧಾನ	-4493
ಲ್ದಾಣ	-4494
▁ಕೇಸ್	-4495
▁ಮೌಲ್ಯಮಾಪಕನ	-4496
▁ಎಸಗ	-4497
▁ಕಡೆಗೆ	-4498
▁ತಮಿಳುನಾಡು	-4499
ರೆಂದು	-4500
▁ಅವಲಂಬಿಸಿರುವ	-4501
ಪಡಿಸಿಕೊಳ್ಳುವುದು	-4502
ar	-4503
ಬಿಡ	-4504
ಿದರ್ಶನ	-4505
▁ಅವಲೋಕನಗಳನ್ನು	-4506
▁ಕಾನೂನುಬದ್ಧವಾಗಿ	-4507
▁ಪ್ರಜ್ಞ	-4508
▁ಮೋಟಾರು	-4509
▁ನಿಲ್ದಾಣ	-4510
▁ತೊ	-4511
ವಾದಿ	-4512
ಪ್ರವೇಶ	-4513
▁ಕೈಯಲ್ಲಿರುವ	-4514
▁ಮೌಲ್ಯದ	-4515
▁ಕರೆದೊಯ್ಯ	-4516
▁ಡೀಫಾಲ್ಟ್	-4517
▁ತಿದ್ದುಪಡಿಯ	-4518
▁ವಿಧಿಸಲಾಗುತ್ತದೆ	-4519
▁ಗಮನವನ್ನು	-4520
▁ಅರ್ಹವಾಗಿದೆ	-4521
▁ಪ್ರಯೋಜನಗಳನ್ನು	-4522
▁ಪಂಚಾಯತ್	-4523
▁ಅಳವಡಿಸಿಕೊಂಡ	-4524
▁ಕಂಡುಬರುತ್ತದೆ	-4525
▁ಸ್ವಯಂಪ್ರೇರಿತ	-4526
▁xx	-4527
▁ಮಟ್ಟದ	-4528
▁ವಿಭಾಗವು	-4529
▁ವಸಾಹ	-4530
▁ಇನ್ನು	-4531
▁ಚೆನ್ನಾಗಿ	-4532
▁ಹೇಳಿದಂತೆ	-4533
▁ವ್ಯಾಪಾರಿ	-4534
ುನಿಕ	-4535
▁ಆಶ್ರಯ	-4536
▁ಜಾಗತಿಕ	-4537
▁ಸಲ್ಲಿಸಿದೆ	-4538
ರೊಂದಿಗೆ	-4539
▁ಗುಣಮಟ್ಟದ	-4540
▁ವಿಫಲವಾದರೆ	-4541
▁ಇಂಧ	-4542
ಕ್ಷಿಣೆ	-4543
▁ಹೊಂದಲು	-4544
▁ಮೀಸಲಾತಿ	-4545
▁ವರ್ಸಸ್	-4546
▁ಗುರುತಿಸುವ	-4547
▁ಸರ್ಕಾರಗಳು	-4548
ಬೈಲ್	-4549
▁ಮಹಿಳ	-4550
ಣಾತ್ಮಕ	-4551
▁ಮುದ್ರ	-4552
ಕುಳ	-4553
▁ಬಳಿ	-4554
▁ಸಂಸ್ಥೆಗಳಿಗೆ	-4555
▁ಟಾ	-4556
▁ಸೂತ್ರ	-4557
▁ಇರಬಹುದು	-4558
▁ರಾಜಸ್ಥಾನ	-4559
▁ಅಪ್ಲಿಕೇಶನ್	-4560
▁ಹದಿನ	-4561
▁ಒತ್ತಡ	-4562
▁ವಿವಾದದ	-4563
ಕಾನೂ	-4564
▁ಪರಿಶೀಲನಾ	-4565
▁ಪ್ರಶ್ನೆಗಳನ್ನು	-4566
▁ಅಪರಾಧಗಳ	-4567
▁ಕಂಪನಿಗಳ	-4568
▁ಪ್	-4569
ಕ್ವಿ	-4570
▁ದಾಳ	-4571
▁ವಿಶ್ವದ	-4572
▁ಸತ	-4573
ಯಾಜ್ಞ	-4574
▁ಎಕರೆ	-4575
▁ಎರಡನೆಯದಾಗಿ	-4576
▁ಲಗತ್ತ	-4577
▁ಅಧಿವೇಶ	-4578
ವರೆಗೂ	-4579
▁ನವೀಕರ	-4580
ರಕ್ಷಣ	-4581
ಿರಿ	-4582
▁ಶಿಸ್ತು	-4583
▁ಸಾಂಸ್ಥ	-4584
▁ತಡೆಯಾಜ್ಞ	-4585
▁ವ್ಯಕ್ತಿಯಿಂದ	-4586
▁ಕಾರ್ಯನಿರ್ವಹಿಸಲು	-4587
▁ತಿಳುವಳ	-4588
▁ನಮ್ಮನ್ನು	-4589
▁ನಿರ್ಣಯವನ್ನು	-4590
ಿಯಲ್ಲ	-4591
▁ಕಿರುಕುಳ	-4592
▁ಮಾಡಲಾಗುವುದು	-4593
ಾಭಿ	-4594
▁ಪ್ರದೇಶವನ್ನು	-4595
▁ತಾನು	-4596
ರಿಯಾಗಿ	-4597
ಾನಿ	-4598
▁ಸಂಬಳ	-4599
▁ಗಮನಸೆ	-4600
▁ಬೀರುವುದಿಲ್ಲ	-4601
ಣ್ಣು	-4602
ಿಸಿದನು	-4603
▁ಮುಖ್ಯಮ	-4604
▁ಪಿಎಸ್	-4605
▁ಇಲ್ಲಿಯವರೆಗೆ	-4606
▁o	-4607
▁ಶಿಫಾರಸುಗಳನ್ನು	-4608
▁ಯೋಜನೆಗೆ	-4609
▁ಒತ್ತಿಹೇಳ	-4610
▁ನೀರು	-4611
▁ಪ್ರತಿವಾದಿಯನ್ನು	-4612
▁ಶಾಸನವು	-4613
▁ನಿರ್ವಹಣಾ	-4614
ಕಾರಾತ್ಮಕ	-4615
▁ಗುರಿ	-4616
▁ಆಕ್ರಮಣ	-4617
▁ಅಂಶವು	-4618
▁ಗುರುತು	-4619
ಸಿಡಿ	-4620
ಿಸರ್ಜ	-4621
▁ಸ್ವಭಾವ	-4622
▁ಆದೇಶಕ್ಕೆ	-4623
▁ಯೋಜನೆಗಳು	-4624
▁ಸಂದರ್ಭಗಳು	-4625
▁ಸಭೆಯಲ್ಲಿ	-4626
▁ಕಲ್ಲಿದ್ದಲು	-4627
ಂಜ್	-4628
ಂದರ್	-4629
▁ಮೊದಲನೆಯದಾಗಿ	-4630
ೈದು	-4631
▁ರಚಿಸಲಾದ	-4632
ತಿರಿ	-4633
ಿಸಿಐ	-4634
ಸ್ಥಿರ	-4635
▁ಎಲೆಕ್ಟ್ರಾನಿಕ್	-4636
ತಿರಿಕ್ತ	-4637
▁ಬ್ಲಾಕ್	-4638
▁ಆಂತರಿಕ	-4639
▁ಏಜೆನ್ಸಿ	-4640
ಿಸಿತ್ತು	-4641
▁ಮಗುವಿನ	-4642
▁ರದ್ದುಪಡ	-4643
ವೋ	-4644
▁ನಿವಾಸ	-4645
▁ಮಾಡಿಲ್ಲ	-4646
▁ಉಲ್ಲಂಘನೆ	-4647
▁ಆದೇಶಗಳು	-4648
▁ಪ್ರಾಧಿಕಾರಕ್ಕೆ	-4649
▁ಎಷ್ಟು	-4650
▁ವ್ಯತಿರಿಕ್ತ	-4651
▁ಹೇಳಿಕೆಯಲ್ಲಿ	-4652
ೇಂದ್ರ	-4653
▁ಕಾನೂನಿನಿಂದ	-4654
▁ಕ್ಷೇತ್ರಗಳಲ್ಲಿ	-4655
▁ಹಳ್ಳ	-4656
▁ಸೇರಿಸಲಾಗಿದೆ	-4657
▁r	-4658
▁ಹೊಂದಾಣ	-4659
▁ಹೋಟೆಲ್	-4660
▁ಕೆಲಸವನ್ನು	-4661
▁ಅಭಿವೃದ್ಧಿಯ	-4662
▁ಅರ್ಹತೆಯನ್ನು	-4663
▁ತಂಡ	-4664
▁ಪರಿಗಣಿಸಿದೆ	-4665
ಜಯ್	-4666
▁ಬೈ	-4667
▁ಅವುಗಳು	-4668
ೂಪ್	-4669
ಕ್ಷರ	-4670
▁ಕಾಳಜ	-4671
▁ದೇಹದ	-4672
ಸೇ	-4673
▁ಕಂಡುಹಿಡಿದಿದೆ	-4674
ಫೆ	-4675
▁ಸಾಂಸ್ಥಿಕ	-4676
▁ವ್ಯಾಪ್ತಿಯ	-4677
▁[]	-4678
▁ನೆಲೆ	-4679
▁ಬಲಿಪಶುವ	-4680
ೀಮ್	-4681
▁ಭದ್ರತಾ	-4682
▁ಹತ್ತಿರ	-4683
▁ಕಾರ್ಯಗಳು	-4684
ನಿಲಯ	-4685
▁ಮಾಡಬಾರದು	-4686
ಿಕರ	-4687
▁ಕಬ್ಬ	-4688
▁ತೃಪ್ತ	-4689
▁ಉಸ್ತುವ	-4690
▁ಗೊತ್ತು	-4691
▁ಹೇಳಬಹುದು	-4692
▁E	-4693
▁ಕೊಳ	-4694
▁ಪ್ರತಿವಾದಿಗಳಿಗೆ	-4695
▁ಅಸಮರ್ಥ	-4696
▁ಪ್ರಗತಿ	-4697
▁ನಗದು	-4698
▁ರಾಜ್	-4699
▁ವೈದ್ಯರು	-4700
▁ಭವನದಲ್ಲಿ	-4701
▁ಉಡು	-4702
▁ವಿಮೆ	-4703
▁ಅವುಗಳಲ್ಲಿ	-4704
▁ಸ್ವೀಕರಿಸುವ	-4705
ನಾಮ	-4706
ಸಾಯ	-4707
▁ವಿಸರ್ಜ	-4708
▁ದಾಖಲೆಯನ್ನು	-4709
▁ಯೋಜನೆಗಳನ್ನು	-4710
▁ಅರ್ಹತಾ	-4711
▁ಇದ್ದರೂ	-4712
▁ತರುವಾಯ	-4713
ರಿಸ್	-4714
ವಾಲ್	-4715
▁ಎಂಬುದರ	-4716
▁ಮರುಪಾವತಿ	-4717
▁ಕಾರ್ಖ	-4718
▁ಒಕ್ಕೂಟದ	-4719
▁ಅಗತ್ಯವೆಂದು	-4720
▁ಪರೀಕ್ಷಿಸಲು	-4721
▁ಕಾರಣವಾಗಬಹುದು	-4722
▁ಸಾಮೂ	-4723
▁ಬದಿಗಿ	-4724
▁ಹೀಗಿದೆ	-4725
▁ತೀರ್ಪುಗಳ	-4726
ುವಂತೆ	-4727
▁ಆದ್ಯ	-4728
▁ಅಮಾನತು	-4729
▁ಸಾಲವನ್ನು	-4730
▁ಸಾವಿನ	-4731
▁ಪತ್ರಿಕೆ	-4732
ವಿಕ	-4733
ೋಪಾಲ್	-4734
ುವಿಕೆಯ	-4735
ದಲ್ಲಿಲ್ಲ	-4736
▁ಸಂವಿಧಾನವನ್ನು	-4737
ಲೆನ್ಸ್	-4738
▁ತಜ್ಞರ	-4739
▁ಕಾರ್ಡ್	-4740
▁ಕೌಶಲ್ಯ	-4741
▁ಸಾಲದ	-4742
▁ಸಾವಿರ	-4743
ಲಿಂಗ್	-4744
▁ನಕಲನ್ನು	-4745
ಲಿದೆ	-4746
ಿಸಲಾಗಿತ್ತು	-4747
▁ಪರಿಗಣಿಸಬಹುದು	-4748
ತ್ನಿ	-4749
▁ಪೂರಕ	-4750
ಾವಣೆಯನ್ನು	-4751
▁ಪರಿಗಣನೆಯ	-4752
▁ವಿಶ್ವವಿದ್ಯಾನಿಲಯ	-4753
ಸ್ವಾಧೀ	-4754
▁ಒದಗಿಸಿದ	-4755
▁ವರದಕ್ಷಿಣೆ	-4756
▁ಎದ್ದ	-4757
▁ಹುಟ್ಟ	-4758
▁ಆಕೆಯ	-4759
▁ಬದಲಾವಣೆಯ	-4760
▁ನೀತಿಯನ್ನು	-4761
▁ದತ್ತಾಂಶ	-4762
ೋಸಿಯ	-4763
▁ಸಭೆ	-4764
▁ಭೂಮಿಗೆ	-4765
▁ಕಾನೂನುಗಳ	-4766
▁ಅರ್ಜಿದಾರನು	-4767
▁ಅಂಶಗಳ	-4768
▁ಶೀರ್ಷಿಕೆಯ	-4769
१५	-4770
▁ನಂಬಿಕೆ	-4771
▁ಪೀಡ	-4772
ಪಾಸ	-4773
▁ಬುದ್ಧಿವಂತ	-4774
ಕಂಪ	-4775
▁ಷೇರುದಾರ	-4776
▁ನಿಯಮಗಳಲ್ಲಿ	-4777
▁ಬೇಕ	-4778
▁ಅದಕ್ಕಿಂತ	-4779
ಹನ್	-4780
▁ಪ್ರಸ್ತಾಪವನ್ನು	-4781
ಟ್ಯೂ	-4782
▁ಸ್ಟ್ಯಾ	-4783
▁ತನ್ನನ್ನು	-4784
▁ಹೃ	-4785
▁ಕರು	-4786
ಿಸುತ್ತಿದ್ದ	-4787
▁ತೆಗೆದುಕೊಂಡು	-4788
▁ಅಧಿಕಾರಿಗೆ	-4789
▁ಆರೋಪಿಯನ್ನು	-4790
ಿಯಲ್	-4791
▁ಪತಿ	-4792
▁ತಪ್ಪಾದ	-4793
▁ಅರ್ಹತೆಯ	-4794
▁ಭಾಗದ	-4795
▁ದಕ್ಷಿಣ	-4796
▁ಮನುಷ್ಯ	-4797
▁ಸಾಧ್ಯವಾದ	-4798
▁ಪಕ್ಕ	-4799
▁ಪುನರ್ವ	-4800
ೇಕ್ಷ	-4801
ಜ್ಞಾನಿಕ	-4802
ುವುದನ್ನು	-4803
▁ಸ್ಥಾನಮಾನ	-4804
▁ಜೀವನವನ್ನು	-4805
▁ನಿರ್ದೇಶನದ	-4806
▁ನಿಕ	-4807
▁ಗಮನಿಸಿದ	-4808
ಐಎಲ್	-4809
ಟಿವ್	-4810
▁ಕುಟುಂಬದ	-4811
▁ಸಂರಕ್ಷಣ	-4812
▁ಕಂಪನಿಗಳು	-4813
ವನು	-4814
▁ವೇತನವನ್ನು	-4815
▁ಕಂಡುಹಿಡಿಯಲು	-4816
▁ಐಎ	-4817
▁ಗವರ್	-4818
▁ಸಮೀಕ್ಷ	-4819
ಬಿಂಬ	-4820
ಾರೆಯಾಗಿ	-4821
▁ತಡೆಯಲು	-4822
ಿದೆಯೆಂದು	-4823
▁ಪ್ರತಿಬಿಂಬ	-4824
▁ಹೊಂದಿದ್ದರೆ	-4825
ೂಲ್	-4826
▁ಬಾರಿ	-4827
▁ಇಂಧನ	-4828
▁ರೂಪಾಯ	-4829
ಪಿಡಬ್ಲ್ಯು	-4830
▁ತೀರ್ಪುಗಳು	-4831
▁ಸಂಭವನೀಯ	-4832
▁ಹೊಂದಿಕೆಯ	-4833
▁ಉಲ್ಲೇಖಿಸಿದ	-4834
ಿಯುತ	-4835
ವತ್ತು	-4836
ಾಸ್ಪದ	-4837
▁ಸ್ಥಳಾಂತರ	-4838
ೋದ್ಯ	-4839
▁ಸಂಗತಿಯ	-4840
▁ಗಣರಾಜ್ಯ	-4841
▁ಅಭಿಪ್ರಾಯಪಟ್ಟರು	-4842
▁ರಚಿಸುವ	-4843
▁ಭಾಗವಾಗಿ	-4844
ೀನಿನ	-4845
▁ಆಸಕ್ತ	-4846
▁ಟೈಗರ್	-4847
ಗರ	-4848
##	-4849
▁ಆಧರಿಸಿದೆ	-4850
▁ಸಂಚ	-4851
▁ಬರಲು	-4852
ತೆರಿಗೆ	-4853
ರ್ಮದ	-4854
▁ಸ್ಥಿತಿ	-4855
▁ರಕ್ಷಿಸಲು	-4856
ಾರ್ಟ್	-4857
▁ಟ್ಯಾ	-4858
▁ಅಸಾಧಾರಣ	-4859
▁ಪುನರ್ವಸ	-4860
▁ಒಟ್ಟಾರೆಯಾಗಿ	-4861
▁ದಶಕ	-4862
▁ಪ್ರಸ್ತಾವಿತ	-4863
▁ಬ್ಯಾಂಕುಗಳು	-4864
▁ಸಿಂಧುತ್ವವನ್ನು	-4865
▁ಯಾರು	-4866
▁ನಲ್ಲಿನ	-4867
▁ವಸಾಹತು	-4868
▁ಶಕ್ತಿಯ	-4869
▁ಉಳಿದಿರುವ	-4870
▁ವಿವರಣೆಯನ್ನು	-4871
ಲೆಯನ್ನು	-4872
▁ಅವಲಂಬನೆಯನ್ನು	-4873
▁ಮನೆಯಲ್ಲಿ	-4874
▁ನಾಯ	-4875
▁ಬಾಡಿ	-4876
▁ಕಾರಣಗಳ	-4877
▁ಸಂಕ್ಷಿಪ್ತ	-4878
▁ಕಾರ್ಯವನ್ನು	-4879
ನಕ್ಕೆ	-4880
▁ಆರೋಪವನ್ನು	-4881
▁ನಿರೀಕ್ಷಿತ	-4882
▁ನಾಗರಿಕರ	-4883
ಎಸಿ	-4884
ಸ್ಕೃತ	-4885
▁ಕರೆಯಲ್ಪಡ	-4886
▁ತಪ್ಪೊಪ್ಪಿಗೆ	-4887
ಬು	-4888
▁ಭಾಷಣ	-4889
▁ಕಾರಣವಾಯಿತು	-4890
▁ನವೀಕರಣ	-4891
▁ಆಸ್ತಿಗೆ	-4892
▁ಅಪರಾಧಗಳನ್ನು	-4893
▁ಉಲ್ಲೇಖಿಸಿದೆ	-4894
▁ಹೌಸ್	-4895
▁ಪ್ರಮಾಣದಲ್ಲಿ	-4896
▁ಉಲ್ಲೇಖಿಸಬಹುದು	-4897
▁ಅಸೋಸಿಯ	-4898
▁ಗೌಪ್ಯತೆಯ	-4899
▁ಬಡ್ಡಿಯನ್ನು	-4900
);	-4901
ೈಲ	-4902
▁ಪದವಿ	-4903
▁ಮಾಡಿಕೊ	-4904
▁ನಿರ್ಧಾರದ	-4905
rm	-4906
▁ಗೃಹ	-4907
ದಲ್ಲೂ	-4908
▁ಕೀ	-4909
▁ಪ್ರಶ್ನಿಸಿ	-4910
▁ಮಾಡದ	-4911
ಾವಧಿಯ	-4912
▁ಫೈಲ್	-4913
▁ಬ್ರಿ	-4914
▁ಹೀಗಿ	-4915
▁ರಾತ್ರಿ	-4916
ಿಯಲ್ಲಿನ	-4917
▁ನಿಜವಾಗಿಯೂ	-4918
▁ಭ್ರಷ್ಟಾಚಾರ	-4919
▁ಆತ	-4920
▁ಜಗ	-4921
▁ಗಂಟ	-4922
▁ಮುಂಗಡ	-4923
ಮಗೆ	-4924
▁ಕಸ	-4925
▁ಜೋಡ	-4926
▁ಬೇಡಿಕೆಯ	-4927
▁ಸ್ಥಳಕ್ಕೆ	-4928
ಸರಿ	-4929
▁ನರ	-4930
▁ಲೋಪ	-4931
ನಿಯೋಜ	-4932
▁ಸಂಶೋಧನಾ	-4933
▁ಭಾರತಕ್ಕೆ	-4934
▁ಸಾಂಪ್ರದಾಯ	-4935
▁ಸ್ಥಾಪಿಸಲಾದ	-4936
ಕೌ	-4937
▁ಪಠ್ಯ	-4938
▁ಬೆಳೆಯ	-4939
ಂಪ್	-4940
▁ಅಸ್ಪಷ್ಟ	-4941
▁ಬ್ಯಾಂಕಿಂಗ್	-4942
▁ಉಸ್ತುವಾರಿ	-4943
▁ಇತ್ಯಾದಿಗಳನ್ನು	-4944
III	-4945
▁ವಿವರಗಳು	-4946
▁ಪುನಃಸ್ಥಾಪ	-4947
ಾವೀ	-4948
▁ಆರ್ಟಿಕಲ್	-4949
▁ಸಾಮರ್ಥ್ಯದ	-4950
▁ಸ್ಥಿತಿಯಲ್ಲಿ	-4951
ದಿರಲು	-4952
▁ಡೆವಲ	-4953
▁ನಿಯಮದ	-4954
▁ಹಿಂತಿರುಗ	-4955
ing	-4956
▁ಕರ	-4957
▁ಸಾವ	-4958
▁ತತ್ವಗಳ	-4959
▁ನೀಡಿದರೆ	-4960
▁ನಾಶ	-4961
▁ಸಂದೇಹ	-4962
▁ಸ್ಥಾಪಿಸುವ	-4963
▁ಕುರಿತ	-4964
ಕನು	-4965
▁ಪೂರ್ಣಗೊಂಡ	-4966
▁ಹೇಳಿಕೆಗಳನ್ನು	-4967
il	-4968
▁ದೂರದ	-4969
▁ಎತ್ತಿಹಿಡಿಯ	-4970
▁ಆಕ	-4971
▁ಅಪರಾಧಿ	-4972
▁ಅವಶ್ಯಕತೆಯಿದೆ	-4973
▁ಕಳ್ಳ	-4974
▁ಹೆಸರ	-4975
▁ಮಾಧ್ಯಮ	-4976
▁ಮುಂದೂಡ	-4977
▁ತೆಗೆದುಕೊಳ್ಳಬೇಕು	-4978
▁ಪಾರ	-4979
▁ನಷ್ಟವನ್ನು	-4980
▁ಅಹ್	-4981
ೇಶ್ವರ	-4982
▁ಕ್ರಿ	-4983
▁ತಕ್ಕ	-4984
▁ಆರೋಪಿಯು	-4985
▁ಕಟ್ಟುನಿಟ್ಟಾಗಿ	-4986
ಭಿ	-4987
ೀತ	-4988
▁ಮರುಪಡೆಯಲು	-4989
ಿಸಲಾಗುತ್ತಿದೆ	-4990
en	-4991
ಪಲ್	-4992
ಕ್ಯುರಿ	-4993
▁ನಿಯಮವು	-4994
▁ಬೆದರಿಕೆ	-4995
▁ದೂರುದಾರರ	-4996
ಕಿ	-4997
ರಣೆಯ	-4998
▁ಒದಗಿಸಲಾದ	-4999
ಿದ್ದಕ್ಕಾಗಿ	-5000
▁ಪರಿಸ್ಥಿತಿ	-5001
▁ಕಂಡುಕೊಂಡಿದ್ದೇವೆ	-5002
▁ಲೇ	-5003
ರಾಗಿರುವ	-5004
▁ಅನುಸರಿಸಲು	-5005
▁ವಿವರಿಸಲಾಗಿದೆ	-5006
▁ಕಾರ	-5007
▁ಆಸ್ಪತ್ರೆಗೆ	-5008
ವೆಯ	-5009
▁ಗ್	-5010
▁ಪುರ	-5011
ಲ್ಲಿಯೂ	-5012
▁ಗವರ್ನರ್	-5013
▁ತಪ್ಪಿಸಲು	-5014
ುತ್ತಿಲ್ಲ	-5015
▁ಲಿಖಿತವಾಗಿ	-5016
▁ಚೀಲ	-5017
▁ಬರೆಯ	-5018
▁ಕಾರಣವಾದ	-5019
▁ಸಂವಿಧಾನದಲ್ಲಿ	-5020
▁ದೂರನ್ನು	-5021
▁ಪ್ರವೇಶದ	-5022
▁ಗಮನಿಸಬಹುದು	-5023
▁ಉಳಿಸಿಕೊಳ್ಳಲು	-5024
▁ವಿಳಾಸ	-5025
▁ಪಚಾರಿಕ	-5026
▁ಉದ್ದೇಶಿತ	-5027
▁ಒದಗಿಸುವುದು	-5028
▁ನಂತರವೂ	-5029
▁ನೇಮಕಾತಿಯ	-5030
▁ಅನೂರ್ಜಿತ	-5031
ಿಸಲಾಗಿದೆಯೆ	-5032
▁ಪರಿಸ್ಥಿತಿಯಲ್ಲಿ	-5033
▁ha	-5034
ಸ್ವಾಧೀನ	-5035
▁ವಹಿವಾಟಿನ	-5036
▁ಮಧ್ಯಪ್ರವೇಶ	-5037
▁ತಪಾಸ	-5038
▁ಪರಿಷ	-5039
▁ಒಟ್ಟಿಗೆ	-5040
ಲುಗ	-5041
ಲ್ಬ	-5042
▁ಮೀಟರ್	-5043
▁ನಿಕಟ	-5044
▁ಹಲ್ಲೆ	-5045
▁ಸಾಮೂಹಿಕ	-5046
ಚರ್	-5047
▁ಯೋಜನಾ	-5048
▁ಮಹತ್ವದ	-5049
▁ಅಪರಾಧಗಳು	-5050
▁ತೀವ್ರವಾಗಿ	-5051
▁ಹೆಚ್ಚುವರಿಯಾಗಿ	-5052
▁ರು	-5053
ಹೊಂದ	-5054
ೃದ್ಧ	-5055
ನದಲ್ಲಿ	-5056
ಿಯೋ	-5057
▁ಟ್ರಾ	-5058
ವರ್ಧ	-5059
▁ಯಾವುದು	-5060
▁ಭಾಗದಲ್ಲಿ	-5061
▁ಮುಂದುವರಿಯಲು	-5062
▁ವಜಾಗೊಳಿಸಲಾಗಿದೆ	-5063
▁ಫೈ	-5064
▁ನಾರ	-5065
▁ಆರೋಪಿಯ	-5066
▁ಕಾಯಿದೆಯು	-5067
▁ನಿರ್ವಹಣೆಯ	-5068
ಂಥ	-5069
▁ನಾಮ	-5070
▁ಮರೆ	-5071
▁ರೆಸ	-5072
▁ಪ್ರೇರ	-5073
▁ಇಂಡಿಯನ್	-5074
▁xxx	-5075
▁ಬಳಕೆಯ	-5076
▁ಸಮೃದ್ಧ	-5077
▁ಶುಲ್ಕಗಳು	-5078
▁IV	-5079
▁ಮರಳ	-5080
ಾಪರಾಧ	-5081
▁ನಾಲ್ಕ	-5082
▁ದುಷ್ಕೃ	-5083
▁ಸಾರಾಂಶ	-5084
▁ಪರೀಕ್ಷೆಗೆ	-5085
ಂದುಳಿದ	-5086
▁ಅಸಂ	-5087
ಂದ್ರೀ	-5088
▁ಕಾನ್	-5089
▁ಮೂಲತ	-5090
▁ವರದಿಯು	-5091
ೂರಿ	-5092
ಗೋಲು	-5093
▁ಮೋಸ	-5094
▁ಬೆಳೆಸ	-5095
▁ದಿವಾಳಿತ	-5096
▁ಅನುಮಾನವನ್ನು	-5097
ಸವ	-5098
▁for	-5099
▁ನೀಡಲಾಗುವ	-5100
▁ಕಥಾವ	-5101
▁ತ್ಯಜ	-5102
▁ನೀಡುವಲ್ಲಿ	-5103
ಟಿಕ್	-5104
▁ವಿಚ್	-5105
ಮಿತವಾಗಿ	-5106
▁ಮೊತ್ತವು	-5107
▁ಬಳಸಲಾಗುತ್ತದೆ	-5108
ಾಗುತ್ತಾರೆ	-5109
▁ದೋಷವನ್ನು	-5110
▁ತಿದ್ದುಪಡಿಯನ್ನು	-5111
▁ಡ್ರ	-5112
▁ಗ್ರಾಹಕರ	-5113
▁ಭಾಗವಾಗಿದೆ	-5114
▁ಎಣ	-5115
▁ಪೆಟ್ರ	-5116
▁ಪರಿಣಾಮಕ್ಕೆ	-5117
ೇರ್	-5118
▁ಅನಿಲ	-5119
▁ಒಲವು	-5120
ತೆಯಲ್ಲಿ	-5121
ಿಸಬಹುದೇ	-5122
▁ತ್ರಿ	-5123
▁ಬ್ಯಾಂಕಿನ	-5124
ಕತೆ	-5125
▁ದಿನದಂದು	-5126
▁ಪೂರ್ವನಿಯೋಜ	-5127
▁ಸಾಕ್ಷಿಯನ್ನು	-5128
ಲಿನ್ಯ	-5129
ಪ್ರೆಸ್	-5130
▁ಕಂಪ್ಯೂ	-5131
▁ಅಂಗೀಕರಿಸಿತು	-5132
ಾರಕ	-5133
▁ಅಶ	-5134
▁ಕಾರ್ಮಿಕರ	-5135
ಪಾಯ	-5136
ೇಲ್	-5137
▁ತಿಳಿಸುತ್ತದೆ	-5138
ನಿಯಮ	-5139
▁ಅಪ್ರ	-5140
▁ರಷ್ಟು	-5141
▁ಸಂಭೋಗ	-5142
▁ಆಸಕ್ತಿಯ	-5143
▁ರದ್ದುಗೊಳಿಸಲು	-5144
▁ತಲೆ	-5145
▁ಆಯೋಜ	-5146
▁ಖರೀದಿ	-5147
ಮ್ಮೆಟ್ಟ	-5148
▁ಎಂಟ್ರಿ	-5149
▁ಬಾಲಾಪರಾಧ	-5150
ೀರಿ	-5151
ಕಿಂಗ್	-5152
▁ಘಟನೆ	-5153
▁ಆಲ	-5154
▁ಆಯುಕ್ತರ	-5155
▁ಹಿಂದುಳಿದ	-5156
▁ಹಿಮ್ಮೆಟ್ಟ	-5157
▁ಬಟ್ಟ	-5158
ಧಿಕಾರಿ	-5159
▁ಸಂಕೀರ್ಣ	-5160
▁ಮತ್ತೊಮ್ಮೆ	-5161
▁ವೈಜ್ಞಾನಿಕ	-5162
▁ಕೆಳಗಿನವುಗಳನ್ನು	-5163
▁ಅವಿಭ	-5164
▁ಪತ್ತೆ	-5165
▁ಮುಂದುವರೆಸ	-5166
▁ವ್ಯವಸ್ಥಾಪಕ	-5167
▁ನಾಮನಿರ್ದೇಶನ	-5168
▁ಅಧಿಕಾರಿಗಳನ್ನು	-5169
▁ನ್ಯಾಯಮಂಡಳಿಯು	-5170
ಬಿಟ್	-5171
▁ಪ್ರೇರೇಪ	-5172
▁ಕಾನೂನಿಗೆ	-5173
▁ಗೊತ್ತುಪಡಿಸಿದ	-5174
▁ಅಭ್ಯರ್ಥಿಗಳ	-5175
▁ಷರತ್ತುಗಳಿಗೆ	-5176
ಬಲ್ಲ	-5177
▁ಪಡೆದರು	-5178
▁ಆಸ್ಪತ್ರೆ	-5179
▁ಒಂದಾಗಿದೆ	-5180
ಮದ್	-5181
ವಾಗಿದ್ದರೂ	-5182
ಾವರಣ	-5183
▁ಕ್ಲ	-5184
▁n	-5185
▁ಕಟ್ಟುಪಾಡು	-5186
▁ಘೋಷಣೆಯ	-5187
▁ಹಾಜರಾಗಲು	-5188
▁ಹೇಳುವುದು	-5189
▁ಸಲ್ಲಿಸಲಾದ	-5190
▁ಆಪರ	-5191
▁ಪದಗಳು	-5192
▁ಮಹಿಳೆಯರ	-5193
▁ಸಲ್ಲಿಕೆಯ	-5194
▁ಕರ್ತವ್ಯಗಳನ್ನು	-5195
▁ನು	-5196
▁ಮಾಡುವುದನ್ನು	-5197
▁ಅಳವಡಿಸಿಕೊಳ್ಳ	-5198
▁ವ್ಯವಹರಿಸುವಾಗ	-5199
ಲಿಯಾ	-5200
ಮಾಂಡ್	-5201
▁ಸ್ನೇಹ	-5202
▁ಬಳಕ	-5203
▁ಇಪ್ಪ	-5204
▁ಸೆಕ್ಯುರಿ	-5205
ಗ್ಯು	-5206
▁ಹೇಳಿರುವ	-5207
▁ನಿಲುವನ್ನು	-5208
▁ಪರಿಶೀಲಿಸಲು	-5209
▁ಚಟುವಟಿಕೆಗಳನ್ನು	-5210
▁ಶತ	-5211
ಚ್ಚಾ	-5212
ೋತ್ತರ	-5213
▁ಸ್ಥಾಪಿಸಲಾಗಿದೆ	-5214
ಭವಿ	-5215
▁ಚೌಕಟ್ಟ	-5216
▁ಬಳಸಿಕೊಳ್ಳ	-5217
ಅಥವಾ	-5218
▁ಒಟ್ಟಾರೆ	-5219
▁ವಿಧಾನವು	-5220
▁ಅರೆ	-5221
▁ರಿಟರ್	-5222
ಜು	-5223
▁ಚಾಲ್	-5224
▁ತಗ್ಗ	-5225
ಾವೀನ್ಯ	-5226
▁ಹಿಂಸಾ	-5227
▁ನೌಕರರು	-5228
▁ಮಾರ್ಪಾಡು	-5229
▁ತಾಯ	-5230
▁ರಾವ್	-5231
ಬೇಕಾದರೆ	-5232
▁ಜಾರಿಯಲ್ಲಿರುವ	-5233
▁ಉಲ್ಲಂಘನೆಯಾಗಿದೆ	-5234
ಬೇಕಾಗಿಲ್ಲ	-5235
▁ಅನುಮತಿಸುವ	-5236
▁ಬಳಕೆಯನ್ನು	-5237
ce	-5238
▁ವರ್ಗಕ್ಕೆ	-5239
▁ಕ್ಷಮ	-5240
▁ಆತ್ಮಹತ್ಯ	-5241
▁ರಾಷ್ಟ್ರದ	-5242
ಜೀವ	-5243
▁ಅಗ	-5244
▁ಕೈಗೆ	-5245
▁ನೀರಾ	-5246
▁ಮೆಮನ್	-5247
▁ಮುನ್ಸಿ	-5248
▁ತತ್ವಗಳು	-5249
▁ಸೂಚಿಸಿದ	-5250
ಾಕ್	-5251
ಕುಲ	-5252
▁ಪೂ	-5253
▁ವಿಧಿ	-5254
▁ಫಿರ್ಯಾದಿಗಳು	-5255
ುವಾಗ	-5256
ನಿಂಗ್	-5257
ಲಿಯಲ್ಲಿ	-5258
▁ಅನ್	-5259
▁ಕೂ	-5260
▁ಸೈಟ್	-5261
ಿಸಿದ್ದರೆ	-5262
▁ಸಿದ್ಧಪಡ	-5263
▁ಬಯೋ	-5264
▁ಕಣ್ಣಿನ	-5265
ಡ್ಡಿ	-5266
▁ಸ್ಮ	-5267
▁ಮೀರಿದೆ	-5268
▁ಪುನರ್ವಸತಿ	-5269
▁ಪ್ರಾಯೋಗಿಕ	-5270
ಯ್ದ	-5271
ೋಗ್ಯ	-5272
ಿತಿಯನ್ನು	-5273
▁ಪಡೆಯಬಹುದು	-5274
▁ಮಿತಿಯನ್ನು	-5275
▁ಸಂಗ್ರಹಿಸಿದ	-5276
ಯಾವ	-5277
ೂಲ್ಯ	-5278
▁ಸಂಭಾವ	-5279
▁ಕಾರಣಗಳು	-5280
▁ಕೊಲ್ಲ	-5281
▁ದೂರಿನ	-5282
▁ತಕ್ಷಣವೇ	-5283
▁ಪ್ಲಾಟ್	-5284
▁ಹಿಂದಿ	-5285
▁ಯೋಜನೆಗಳ	-5286
▁ಅಂಶವೆಂದರೆ	-5287
▁ಕರೆಯಲ್ಪಡುವ	-5288
ದಾರರಿಗೆ	-5289
▁ಸ್ಥಳವನ್ನು	-5290
▁ಆಚರ	-5291
▁ನೈಜ	-5292
▁ಪಾರದರ್ಶ	-5293
▁ನಿವೃತ್ತಿ	-5294
ಸಹ	-5295
ವನ್ನೂ	-5296
▁ಆದೇಶಗಳ	-5297
ಕಾಲದಲ್ಲಿ	-5298
▁ಮಾಡಿದರೆ	-5299
▁ರಕ್ಷಣೆಯ	-5300
▁ಪ್ರಶ್ನೆಯೆಂದರೆ	-5301
ಿಸಿಯ	-5302
▁med	-5303
▁ಅಧಿಕಾರಗಳು	-5304
▁ವಾದಿಸಲಾಗಿದೆ	-5305
▁ಪತ್ನಿ	-5306
▁ಹುಡುಕ	-5307
▁ಕಲ್ಕತ್ತ	-5308
▁ಪ್ರಶ್ನೆಯು	-5309
ಕ್ರಿ	-5310
▁ಅವಶ್ಯಕತೆಯ	-5311
▁ವ್ಯಾಖ್ಯಾನವು	-5312
▁ವಶಪಡಿಸಿಕೊಳ್ಳ	-5313
▁ಹಡಗು	-5314
▁ಕೃಷ್ಣ	-5315
▁ಗ್ರೂಪ್	-5316
▁ಷೇರುಗಳನ್ನು	-5317
್ರಾಹ	-5318
ಸಾಯನಿಕ	-5319
▁ವಿಚಾರ	-5320
▁ಹಂಚಿಕೆಯ	-5321
▁ಒಪ್ಪಂದದಲ್ಲಿ	-5322
▁ಸೀಮಿತವಾಗಿ	-5323
್ಯಾರ	-5324
▁ತರ್ಕ	-5325
▁ಲಿಂಗ	-5326
ದ್ದಾಗಿದೆ	-5327
▁ಅವಲಂಬಿಸಿದೆ	-5328
▁ದ್ರ	-5329
ಾಡಳಿತ	-5330
ಟ್ಟುಗೋಲು	-5331
▁ಪ್ರಸಾದ್	-5332
▁ಇರಿಸಲಾಗಿದೆ	-5333
▁ನ್ಯಾಯಶಾಸ್ತ್ರ	-5334
▁ನ್ಯಾಯಾಧಿಕರಣವು	-5335
ಂದ್	-5336
ಕರೂಪ	-5337
ಲಿಗೆ	-5338
ರಾದರು	-5339
▁ರಚನೆ	-5340
▁ಗುರಿಯ	-5341
▁ಶಿಕ್ಷಕರ	-5342
▁ಸೌಲಭ್ಯಗಳನ್ನು	-5343
▁ಸಮ್ಮೇಳ	-5344
ುತ್ತಿತ್ತು	-5345
ಟಿಗೆ	-5346
ರೂಪದ	-5347
▁ಮಂಜೂರು	-5348
▁ನಾವೀನ್ಯ	-5349
ತ್ತಿನಲ್ಲಿ	-5350
ಗೊಳ್ಳಲು	-5351
▁ನಿರ್ದೇಶನವನ್ನು	-5352
▁ಮಾಡಿದಂತೆ	-5353
▁ಆರೋಪಿಸಲಾಗಿದೆ	-5354
ಜಿತ್	-5355
ಟೀಸ್	-5356
ಸ್ಲಿ	-5357
ಎಕ್ಸ್	-5358
▁ಗಂಟೆ	-5359
▁ಆಧುನಿಕ	-5360
-0	-5361
▁ಏಕರೂಪ	-5362
▁ಸಲಹೆಯ	-5363
▁ಪ್ರಕ್ರಿಯೆಯು	-5364
▁ರಾಮ	-5365
ುತ್ತದೆಯೇ	-5366
▁ಗುರಿಯನ್ನು	-5367
▁ವೇಳಾಪಟ್ಟಿಯಲ್ಲಿ	-5368
▁ಎಫ್ಐಆರ್	-5369
▁ವಿಧಾನಸಭ	-5370
▁ಮೃ	-5371
▁ಅದರಿಂದ	-5372
▁ಬದಲಾಗಿ	-5373
▁ಅಪರಾಧವು	-5374
ವೇಕ	-5375
▁ನಿಮಗೆ	-5376
▁ಸಂಶೋಧನೆ	-5377
▁)	-5378
mal	-5379
ಸಾಗ	-5380
▁ಜಮ	-5381
▁ಜೈವಿಕ	-5382
▁ವಿಸ್ತಾರ	-5383
▁ಒಪ್ಪಿಕೊಂಡರು	-5384
ವೇರ್	-5385
▁ಬಿಸ	-5386
ಕರಿಂದ	-5387
▁ಇತರರ	-5388
▁ಬಯಸುವ	-5389
▁ವರ್ಗೀಕರಣ	-5390
ೊಬ್ಬರ	-5391
ಮತ್ತು	-5392
▁ತಿರುಗ	-5393
▁ಪೀಡಿತ	-5394
▁ಮಕ್ಕಳು	-5395
▁ವಿತರಣೆ	-5396
▁p	-5397
▁ಮೊಬೈಲ್	-5398
▁ಪಿಟಿಷನ್	-5399
▁ಮರಣೋತ್ತರ	-5400
▁ವಿಸ್ತರಣೆ	-5401
▁ಇತ್ಯಾದಿಗಳ	-5402
ಿಸಬೇಕಾಗಿಲ್ಲ	-5403
ಪ್ಪು	-5404
▁ಬಸ್	-5405
▁ಅಂಶದ	-5406
▁ಅಬ್ದ	-5407
▁ಹೀಗಿವೆ	-5408
ೋಲೆ	-5409
ಿಸಿದ್ದಕ್ಕಾಗಿ	-5410
ಒತ್ತು	-5411
▁ಸೇರಿ	-5412
▁ಸಮನ್ವಯ	-5413
ಭಾಯ್	-5414
▁ಅಪ್ರಾಪ್ತ	-5415
▁ಎದ್ದಿರುವ	-5416
ಿಕೊಳ್ಳುವುದು	-5417
▁ಉಲ್ಲೇಖಿಸುವುದು	-5418
▁con	-5419
▁ಸಲಹೆಗಾರರನ್ನು	-5420
▁ಓರ್ಸ್	-5421
▁ಮರುಪಾವತ	-5422
▁ಕಾರಣದಿಂದ	-5423
▁ಮುಟ್ಟುಗೋಲು	-5424
▁ಕಾರ್ಯಗತಗೊಳಿಸಲು	-5425
ದಾ	-5426
▁ವಿತರಣಾ	-5427
▁ಹುದ್ದೆಗಳ	-5428
▁ಅವಲಂಬಿಸಿರುತ್ತದೆ	-5429
▁ಎಸಿ	-5430
ಗಳಿಂದಾಗಿ	-5431
▁ಸ್ಥಾಪನೆ	-5432
▁ಗಮನಸೆಳೆದ	-5433
▁ವಸ್ತುವಿನ	-5434
▁ಸುಂಕವನ್ನು	-5435
▁ಸೂಚಿಸಲಾಗಿದೆ	-5436
ಫರ್	-5437
▁ದೌ	-5438
ರ್ವ್	-5439
▁ಸರಕುಗಳು	-5440
ನ್ನಾ	-5441
ೊಲ	-5442
▁ದೇವಿ	-5443
▁ಸ್ಥಾವ	-5444
▁ಹೊಂದಿ	-5445
ೌನ್	-5446
▁ರೇಖ	-5447
▁ಅನ್ವ	-5448
▁ಸಭೆಯ	-5449
▁ಹೋರಾ	-5450
▁ಅಮೂಲ್ಯ	-5451
▁ಮದುವೆಯ	-5452
▁ಪರೀಕ್ಷಾ	-5453
▁ಏಕಕಾಲದಲ್ಲಿ	-5454
▁ಕೇಂದ್ರಾಡಳಿತ	-5455
▁ವರ್ಷಗಳಿಗಿಂತ	-5456
▁ರೈತ	-5457
ಬ್ಲಿಕ್	-5458
▁ರೆಗ್ಯು	-5459
▁ಸೂಚನೆಯ	-5460
▁ಗಮನಿಸಬೇಕಾದ	-5461
ಿಸುತ್ತಿದ್ದರು	-5462
▁ಪದವು	-5463
▁ಸುತ್ತು	-5464
ಗೊ	-5465
▁ಟೀ	-5466
▁ವಾಹನವನ್ನು	-5467
▁ಮಾರ್ಗಸೂಚಿಗಳನ್ನು	-5468
ೋಕ್ಷ	-5469
▁ಲೇಖನಗಳು	-5470
▁ಪರಿಹರಿಸಲು	-5471
ಿಸಿಟರ್	-5472
▁ಪರೋಕ್ಷ	-5473
ೆಯಲ್ಲಿನ	-5474
▁ದಾಖಲಿಸಿದ್ದಾರೆ	-5475
▁ಪಾಸ್	-5476
▁ನಿಗ್ರಹ	-5477
▁ಮಾಡಲಾದ	-5478
ಸ್ರ	-5479
▁ನಕಲಿ	-5480
▁ಬೋರ್ಡ್	-5481
▁ದೇಹವನ್ನು	-5482
▁ವಾಯು	-5483
ಿಸುವುದರ	-5484
▁ಫ್ರ	-5485
▁ಪ್ರಕೃ	-5486
▁ರಾಸಾಯನಿಕ	-5487
ಟ್ಯೂಟ್	-5488
▁ಇದಕ್ಕಾಗಿ	-5489
▁ಹೊರೆ	-5490
▁ಗಣನೀಯವಾಗಿ	-5491
▁ಅಸ್ಸ	-5492
▁ಐಪಿಸ	-5493
ಾರೋಗ್ಯ	-5494
▁ರಚನೆಯ	-5495
▁ವಾಕ್ಯ	-5496
▁ನಿಯತಾಂಕ	-5497
▁ಲಾಭದಾಯಕ	-5498
▁ಮಸೂದೆಯನ್ನು	-5499
▁T	-5500
▁ವಿಪ	-5501
▁ಇಟ್ಟ	-5502
್ಯಾಧಾರ	-5503
ಡ್ಜ್	-5504
ರಾಜ್	-5505
▁ನೆಟ್	-5506
▁ಸಚಿವಾಲಯವು	-5507
▁ತೆಗೆದುಹಾಕಲು	-5508
ಕಾನೂನು	-5509
▁ತಕ್ಕಂತೆ	-5510
▁ಸ್ವಾಧೀನದ	-5511
▁ಕಡ್ಡಾಯವಾಗಿದೆ	-5512
ಫಿ	-5513
ಿಕೆಟ್	-5514
▁ಎಲ್ಲಿ	-5515
ದಯ	-5516
ಲಯನ್ಸ್	-5517
▁ಮುಕ್ತಾಯದ	-5518
▁ರಿಯಾಯಿತಿ	-5519
▁ಉಳಿಸಿಕೊಳ್ಳ	-5520
▁ಮಾಡಿಕೊಡುತ್ತದೆ	-5521
ುಟ	-5522
ನುವ	-5523
ೌರ್ಯ	-5524
▁ಹೊಸದಾಗಿ	-5525
▁ತಿಂಗಳೊಳಗೆ	-5526
▁ಸಾಕ್ಷ್ಯಾಧಾರ	-5527
▁ಚಿನ್ನ	-5528
▁ಪುನರ್	-5529
▁ವರ್ಗೀಕರ	-5530
▁ಸುತ್ತೋಲೆ	-5531
ಜೀ	-5532
▁ಚುನಾಯ	-5533
▁ಪ್ರಾರಂಭದ	-5534
ತ್ತನ್ನು	-5535
▁ಹಾರ	-5536
▁ಬದುಕ	-5537
▁ಬಂದಾಗ	-5538
▁ಶತಮಾನ	-5539
▁ತೆರಿಗೆಗೆ	-5540
▁ಅರ್ಜಿದಾರರನ್ನು	-5541
ತೃ	-5542
ಪುರದ	-5543
▁ಜಮಾ	-5544
▁ಅಲ್ಪಸಂ	-5545
▁ಪೂರ್ವನ	-5546
▁ಪತ್ರದಲ್ಲಿ	-5547
▁ನ್ಯಾಯಾಲಯದಿಂದ	-5548
▁ತಮ್ಮನ್ನು	-5549
▁ಎಡ	-5550
▁ಕಥಾವಸ್ತುವ	-5551
▁ವಿಧಿಸಿರುವ	-5552
▁ಉತ್ತೇಜಿಸಲು	-5553
ಭಯ	-5554
ೆಂಬ್	-5555
▁ಖಾನ್	-5556
▁ಅಸೆಂಬ್	-5557
▁ರವಾನಿಸಲು	-5558
▁ಆಯ್ಕೆಯನ್ನು	-5559
▁ವಿಶ್ವವಿದ್ಯಾಲಯದ	-5560
ಸಮ	-5561
▁ಎಪಿ	-5562
▁ಹವಾ	-5563
▁ಒಳಗೆ	-5564
▁ಸಿಸಿ	-5565
▁ಅನಾರೋಗ್ಯ	-5566
ೊಬ್ಬರು	-5567
▁ಅಡಿಪಾಯ	-5568
▁ನಿಲುವು	-5569
▁ಆಯೋಗಕ್ಕೆ	-5570
ಿಸಿದ್ದರಿಂದ	-5571
ಿಯೋಜ	-5572
▁ಅಭಿನ	-5573
▁ಉಳಿಯ	-5574
▁ದಂಡದ	-5575
▁ಸೆಕೆ	-5576
▁ಬೆಂಗಳ	-5577
▁ತರಲಾಯಿತು	-5578
▁ಸಾಂಪ್ರದಾಯಿಕ	-5579
▁ನಿಧಿ	-5580
▁ರಹಿತ	-5581
▁ಎತ್ತು	-5582
ಸ್ಕೃತಿಕ	-5583
▁ಸಾಲಿಸಿಟರ್	-5584
▁ಪರಿಣಾಮಗಳನ್ನು	-5585
▁or	-5586
▁ದಕ್ಷ	-5587
▁ಹಿಮಾ	-5588
▁ಅಂದಾಜು	-5589
▁ವಿಸ್ತರಿಸಲು	-5590
▁ಮಾಡುವುದಿಲ್ಲ	-5591
▁ರಕ್ಷಣೆಯನ್ನು	-5592
ಸೂಲಿ	-5593
▁ಸತ್ಯದ	-5594
▁ಇನ್ನೊಂದ	-5595
▁ನಡವಳಿಕೆ	-5596
▁ನೀರಾವರಿ	-5597
▁ಮಿಲಿಯನ್	-5598
▁ರಿಲಯನ್ಸ್	-5599
▁ಸುರಕ್ಷತೆ	-5600
▁ಮೇಲ್ಮನವಿಗಳಿಗಾಗಿ	-5601
ೀಶ್	-5602
▁ಪಿತೂರಿಯ	-5603
▁ಯೋಜನೆಯಲ್ಲಿ	-5604
▁ಸ್ಥಿತಿಯನ್ನು	-5605
▁ಮುಂದುವರಿಯುತ್ತದೆ	-5606
ಡಿನ	-5607
ಫಲ್ಯ	-5608
▁ಪದದ	-5609
▁ಅಂಕಿ	-5610
▁ರಕ್ತದ	-5611
▁ಅಹ್ಮದ್	-5612
▁ಕಟ್ಟಡದ	-5613
▁ಕೇಂದ್ರೀ	-5614
▁ಅಂತ್ಯ	-5615
▁ಇನ್ನಾವ	-5616
▁ಯೋಜನೆಯು	-5617
▁ಸ್ಟೇಟ್ಸ್	-5618
ೋರ	-5619
▁:	-5620
▁ವ್ಯವಹಾರಗಳ	-5621
▁ಅಭಿಯೋಜ	-5622
▁ಏಜೆನ್ಸ	-5623
▁ವೈಫಲ್ಯ	-5624
▁ಸ್ವಾಧೀನವನ್ನು	-5625
▁ತಳ್ಳ	-5626
▁ನಿರ್ಣಯದ	-5627
▁ನೀಡಿರುವ	-5628
▁ಮೊತ್ತಕ್ಕೆ	-5629
ation	-5630
▁ಸತ್ಯವನ್ನು	-5631
ಚ್ಯು	-5632
▁ತೊಡಗಿಸಿಕೊಂಡ	-5633
fi	-5634
▁ಅನುಸರಣೆ	-5635
▁ಸಮುದಾಯದ	-5636
▁ತಪ್ಪಿತಸ್ಥರೆಂದು	-5637
ಕ್ಕಿ	-5638
▁ಯಶಸ್ವಿ	-5639
▁ಪ್ರಾರಂಭವಾಗುವ	-5640
▁ವಿವೇಚನೆಯನ್ನು	-5641
ಲಾನು	-5642
▁ಮಾಡಬಹುದಾದ	-5643
▁ಬೌ	-5644
ಂಕರ್	-5645
▁ಆಜ್ಞ	-5646
▁ಸಂಸದೀಯ	-5647
▁ಮಲ	-5648
▁ಜೈನ್	-5649
▁ತಿಳಿದಿರುವ	-5650
▁ಮಾರ್ಗದರ್ಶನ	-5651
ಭಾಷ	-5652
▁१६	-5653
▁ಫೆಡರಲ್	-5654
ಲಾಗುವುದು	-5655
▁ರಿಸರ್ವ್	-5656
▁ಸ್ಪಷ್ಟವಾಗುತ್ತದೆ	-5657
ೇಯ	-5658
▁ವಾತ	-5659
▁ಪ್ರಾಂ	-5660
▁ಕ್ರಿಯಾ	-5661
▁ಉದ್ದೇಶದ	-5662
▁ರಿಮಾಂಡ್	-5663
▁ಸರ್ಕಾರದಿಂದ	-5664
▁ನಿಯಂತ್ರಿಸಲು	-5665
▁ವಿಧಿಸಬಹುದಾದ	-5666
ಪಿಎಲ್	-5667
▁ಎಕ್ಸಿ	-5668
▁ವಸೂಲಿ	-5669
ದಿರಬಹುದು	-5670
ಕಾಶ್	-5671
▁ಕ್ರಮವು	-5672
▁ಬಂದಿದೆ	-5673
ಾಭಿಪ್ರಾಯ	-5674
▁ಎಂಬುದರಲ್ಲಿ	-5675
ಹಾರ್	-5676
▁ಸೋಲ	-5677
ವಿತ್ತು	-5678
▁ನಿರ್ಮಾಣದ	-5679
ಂಬತ್ತು	-5680
▁ಕಂಪನಿಗೆ	-5681
▁ಸಂಗ್ರಾಹ	-5682
▁ಕಾರ್ಪೊರೇಶನ್	-5683
▁ಮದುವೆ	-5684
▁ಸ್ಥಾವರ	-5685
▁ಅಂಗಸಂಸ್ಥ	-5686
▁ಬೆಂಬಲವನ್ನು	-5687
▁ಫಲ	-5688
▁ಹ್ಯಾ	-5689
▁ನಿರಾಕರಿಸುವ	-5690
▁ಸಂಸ್ಥೆಗಳಲ್ಲಿ	-5691
▁ಪರಿಸ್ಥಿತಿಯನ್ನು	-5692
;)	-5693
ನಂದಿನ	-5694
▁ಹೂಡುವ	-5695
▁ಹಿತಾಸಕ್ತಿಗೆ	-5696
▁ಬುಡ	-5697
▁ಇನ್ನಾವುದೇ	-5698
▁ಗುರುತಿಸಲು	-5699
ಐಸಿ	-5700
▁ಪ್ರವಾಸ	-5701
▁ಪೂರೈಸುವ	-5702
ಾಗಿದ್ದಾನೆ	-5703
▁ನ್ಯಾಯಾಧೀಶರಿಗೆ	-5704
ಯತ್ತ	-5705
▁ಪ್ರಿ	-5706
▁ರಂತೆ	-5707
▁ಹಾಜರು	-5708
▁ಪ್ರವೇಶಿಸಲು	-5709
▁formal	-5710
▁ಅವಲಂಬಿತ	-5711
▁ಹೊಂದಿದ್ದರು	-5712
▁ಸಲ್ಲಿಸಬಹುದು	-5713
▁ಶಾಂತ	-5714
▁ನಿಷ್ಕ್ರಿಯ	-5715
▁ರಾಜ್ಯಗಳಲ್ಲಿ	-5716
ಲಿಂಗ	-5717
ಪ್ಯತೆ	-5718
▁ಭಾಷೆ	-5719
▁ಕಳೆದುಕೊಳ್ಳ	-5720
▁ಪ್ರಾಧಿಕಾರದಿಂದ	-5721
▁ಸಮನಾಗಿರುತ್ತದೆ	-5722
ಮೌ	-5723
ವಚ	-5724
▁ಉಂಟಾದ	-5725
▁ಅಭಿನಂದ	-5726
▁ಸಮಿತಿಯನ್ನು	-5727
▁ಭಿನ್ನಾಭಿಪ್ರಾಯ	-5728
ಭಾವಿ	-5729
▁ಕರೆಸ	-5730
▁ಕ್ಯೂ	-5731
▁ಶಾಂತಿ	-5732
▁ಸೇವೆಗೆ	-5733
):	-5734
▁ರಾಜಿ	-5735
▁ಆರೋಪದ	-5736
▁ವಿಮಾದಾರ	-5737
▁ಸೂಚಿಸಲು	-5738
▁ಸಂದೇಹವಿಲ್ಲ	-5739
ಿಯಾದ	-5740
▁ಸಂಜೆ	-5741
ಲ್ಯೂಶನ್	-5742
▁ಮಾಡುವಲ್ಲಿ	-5743
▁ಅಭ್ಯರ್ಥಿಗಳು	-5744
▁ಮುಂದುವರಿಸಲು	-5745
▁ಹುದ್ದೆಯನ್ನು	-5746
▁ಮಾಡಲಾಗಿಲ್ಲ	-5747
vi	-5748
▁ತತ್ವವು	-5749
್ಲಾಘ	-5750
▁ಶ್ಲಾಘ	-5751
▁ಜಿಲ್ಲೆಯ	-5752
▁ಸ್ವಾಯತ್ತ	-5753
▁ಹೆಣ್ಣು	-5754
▁ಫಲಾನು	-5755
▁ಟ್ರೇಡ್	-5756
▁ನಂತರವೇ	-5757
▁ದಿವಾಳಿತನ	-5758
ಟಾದ	-5759
ಹಾಬಾದ್	-5760
▁ನಿರ್ಧರಿಸುತ್ತದೆ	-5761
ವೊಂದ	-5762
▁ತೈಲ	-5763
▁ಮಹತ್ವ	-5764
▁ಹರಾಜು	-5765
▁ಕಬ್ಬಿಣ	-5766
▁ಶಿಕ್ಷಣವನ್ನು	-5767
ಾಯುಕ್ತ	-5768
▁ಮುಸ್ಲಿ	-5769
▁ಅರಿವನ್ನು	-5770
▁ನಿರಂತರವಾಗಿ	-5771
ಐಡಿ	-5772
ನಾಂಗ	-5773
▁ದೈನಂದಿನ	-5774
▁ಕಡಿತವನ್ನು	-5775
▁ನೀಡಲಾಗುವುದು	-5776
▁ಉದ್ದೇಶಪೂರ್ವಕ	-5777
ಳಿಯ	-5778
▁ಎಂಎಸ್	-5779
ಕೊಳ್ಳುವ	-5780
▁ಪೊಲೀಸರಿಗೆ	-5781
▁ಪ್ರಾರಂಭಿಸಲು	-5782
ಶತ	-5783
ಮಾನ್	-5784
▁ಮಾಲಿನ್ಯ	-5785
▁ನೋಂದಾಯಿಸಲಾಗಿದೆ	-5786
▁ಮ್ಯಾನೇ	-5787
▁ಹೊತ್ತಿಗೆ	-5788
ಗೊಳಿಸಬಹುದು	-5789
▁ಗಮನಿಸುವುದು	-5790
ಫೈ	-5791
▁ಸಾಲಗಾರರ	-5792
▁ನಿರ್ಧರಿಸಿದ	-5793
▁ಪರಿಹಾರಕ್ಕಾಗಿ	-5794
▁ಶಿಕ್ಷೆಗೊಳಗಾದ	-5795
ಿಸ್ತಾನ	-5796
▁ಆದ್ಯತೆಯ	-5797
▁ಬದಿಗಿಟ್ಟು	-5798
▁ಅಭಿಪ್ರಾಯಗಳನ್ನು	-5799
ಹರಿ	-5800
▁ಎತ್ತಿದ	-5801
▁ಡಬ್ಲ್ಯೂ	-5802
ಬೇಕಾಗಿತ್ತು	-5803
▁ವಿಳಂಬವನ್ನು	-5804
/0	-5805
ರೆನ್ಸ್	-5806
▁ಚಲಾಯಿಸುವ	-5807
ವಾಣಿ	-5808
▁ಮಾಡಬೇಕಾದ	-5809
▁ನ್ಯಾಯವ್ಯಾಪ್ತಿ	-5810
ಾವಣೆಗೆ	-5811
ಲ್ಪಟ್ಟಿದೆ	-5812
▁ಮಹಿಳಾ	-5813
▁ವಜಾಗೊಳಿಸುವ	-5814
▁ಅಧಿಕಾರಗಳನ್ನು	-5815
ಎಂಸಿ	-5816
▁ಮತದಾನ	-5817
▁ವೆಚ್ಚದ	-5818
ಟಿನೆ	-5819
ಸಾಧ್ಯ	-5820
ಕಾರದ	-5821
▁ವಾತಾವರಣ	-5822
▁ರಾಜ್ಯಪಾಲರ	-5823
ಸಾರ್	-5824
▁ಕೆಲವ	-5825
▁ಪ್ರಕಟಣೆ	-5826
▁ಕೆಲವೊಮ್ಮೆ	-5827
ಬೈ	-5828
▁ಸರಾ	-5829
▁ಪಿತೂರಿ	-5830
▁ನಿಮಿಷ	-5831
▁ಇರುವಾಗ	-5832
▁ಭೂಸ್ವಾಧೀನ	-5833
ೋಕ್	-5834
ಕೊಳ್ಳಲು	-5835
▁ಸಂಸ್ಕರಣ	-5836
▁ಅಂಶವಾಗಿದೆ	-5837
▁ಚೀ	-5838
ಿಸ್ತಿನ	-5839
▁ಅಸಮರ್ಪಕ	-5840
▁ಅರು	-5841
▁ಹಿಡಿದಿ	-5842
▁ಸ್ಥಾಪಿಸಿದ	-5843
▁ಅರ್ಜಿಯು	-5844
▁ಸೇರಿಸುವ	-5845
▁ಉದ್ಭವಿಸುತ್ತದೆ	-5846
ಬಿಯ	-5847
▁ಟನ್	-5848
▁ಸಿಇ	-5849
▁ಕ್ಲೈ	-5850
▁ಅಸಮಂಜಸ	-5851
▁ಸೊಸೈಟಿ	-5852
▁ಸಾಲಗಾರನ	-5853
ಐಎ	-5854
▁ಹೊಡೆಯ	-5855
▁ವೈದ್ಯರ	-5856
▁ಸ್ನೇಹಿತ	-5857
▁ವಿವರವಾಗಿ	-5858
▁ಸಾಂಸ್ಕೃತಿಕ	-5859
ೂಹ	-5860
▁ನಡೆಯುವ	-5861
▁ರೂಪಿಸಿದ	-5862
▁ಅಲಹಾಬಾದ್	-5863
▁ಕ್ರಮದಲ್ಲಿ	-5864
▁ರೆಸಲ್ಯೂಶನ್	-5865
▁ಮಾಡಿಕೊಳ್ಳುವ	-5866
▁ಸಾಯುತ್ತಿರುವ	-5867
▁ಕಾರ್ಯಾಚರಣೆಯನ್ನು	-5868
▁ಪ್ರತಿಶತ	-5869
▁ಮುನ್ನಡೆ	-5870
▁ಸಾಕ್ಷಿಗಳನ್ನು	-5871
▁ಓಡ	-5872
ನ್ಮ	-5873
ವರ್ಕ್	-5874
▁ದರವನ್ನು	-5875
▁ಸಂಯೋಜಿತ	-5876
▁ನೇಮಕಾತಿಯನ್ನು	-5877
ಗಳಾದ	-5878
ಲ್ಡ್	-5879
ಲ್ಲು	-5880
▁ಚುನಾಯಿತ	-5881
▁ಭಗ	-5882
▁ಶರಣ	-5883
▁ಅಸಂಗತ	-5884
▁ಹೇಳಿಕೊಂಡ	-5885
▁ಕಾರ್ಯಗತಗೊಳಿಸುವ	-5886
▁confi	-5887
▁ಮುನ್ಸಿಪಲ್	-5888
▁ತ್ವರಿತವಾಗಿ	-5889
▁ವಾಸಿಸುವ	-5890
ಸಂಪ	-5891
ಂದರ್ಭ	-5892
▁ಅರಿವಿನ	-5893
▁ಮನಸ್ಸಿನ	-5894
▁ಉದ್ಯಮದ	-5895
▁ಬೋ	-5896
▁ಗಾಂಧಿ	-5897
▁ಗೌಪ್ಯತೆ	-5898
▁ಕಳೆದುಕೊಂಡ	-5899
▁ಲೆಕ್ಕಿಸದೆ	-5900
ಎಂಇ	-5901
ಜಿಸಿ	-5902
ಘಾ	-5903
▁ಇವೆ	-5904
▁ನೀಡಲಾಗಿರುವ	-5905
▁ವರ್ಷಕ್ಕಿಂತ	-5906
ಿಗಳಿಂದ	-5907
ಗೊಳಿಸಿದೆ	-5908
▁ಕಲೆಕ್ಟರ್	-5909
▁ಸಹಾಯವನ್ನು	-5910
ಗೂಡ	-5911
ರಲಿ	-5912
▁ರಹ	-5913
▁ಪ್ರಬ	-5914
▁ಸಾಕು	-5915
▁ಹುಡುಗ	-5916
▁ಮನೋಭಾವ	-5917
▁ತಡೆಹಿಡಿಯ	-5918
▁ಇವುಗಳನ್ನು	-5919
▁ಸಾಂದರ್ಭ	-5920
ಿಸದಿರುವುದು	-5921
▁ಎಂಬುದಕ್ಕೆ	-5922
▁ಏರ	-5923
▁ಅಸ್	-5924
▁ಮಾದರ	-5925
▁ಎಂಸಿಐ	-5926
▁ತೆರವು	-5927
▁ಸ್ಫೋಟಕ	-5928
ತಿದ್ದುಪಡ	-5929
▁ಸಮಾನವಾಗಿ	-5930
▁O	-5931
ಾವಾರು	-5932
▁ಕಲಿತರು	-5933
▁ದಯ	-5934
▁ಭೇ	-5935
ಲಾಟ್	-5936
▁ತಯಾರಿಸಿದ	-5937
▁ಸಕಾರಾತ್ಮಕ	-5938
ill	-5939
ತಂತ್ರ	-5940
ಟಿನೆಂಟ್	-5941
▁ಅಧಿಕಾರಗಳ	-5942
ಕ್ಫ್	-5943
▁ಕೆನ	-5944
▁ಹಸಿ	-5945
▁ಸುಸ್ಥಿರ	-5946
ಫ್ಟಿನೆಂಟ್	-5947
▁ವಿವಾದಗಳು	-5948
▁ಇಷ್ಟ	-5949
▁ಸಂರಕ್ಷಣೆ	-5950
▁ಬೆಲೆಯನ್ನು	-5951
▁ಸಾಬೀತಾಗಿದೆ	-5952
▁ಆತಂಕ	-5953
▁ಯೋಗ್ಯ	-5954
▁ವಿಶ್ರಾ	-5955
ಾಬಾದ್	-5956
▁ಕಾಶ್	-5957
▁ಡಿಎನ್	-5958
▁ಸಲ್ಲಿಸಬೇಕು	-5959
▁ಅಬ್ದುಲ್	-5960
▁ಪೂರ್ವಭಾವಿ	-5961
▁ಅಸಂವಿಧಾನಿಕ	-5962
ೂಗ	-5963
ದೆಯ	-5964
▁ಧ್ವ	-5965
▁ಪಟ್ಟಣ	-5966
▁ಅಸ್ಸಾಂ	-5967
▁ದೃಷ್ಟಿಕೋನವು	-5968
ಖಿ	-5969
ಾರಿಯ	-5970
▁ಅಪಾರ	-5971
ನೆಂದರೆ	-5972
▁ಅಸಹ್ಯ	-5973
▁ಕಾಣುವುದಿಲ್ಲ	-5974
ರೋಗ	-5975
ಾಗ್ಗೆ	-5976
▁ಗಾಯಗಳು	-5977
▁ರಾಜ್ಯವನ್ನು	-5978
▁ಗಣರಾಜ್ಯದ	-5979
▁ಬುಡಕಟ್ಟು	-5980
ಕ್ಸಡ್	-5981
▁ಕಾಯಿ	-5982
▁ಅತ್ಯಗತ್ಯ	-5983
ಿಸದಿದ್ದಲ್ಲಿ	-5984
▁ಸ್ವರೂಪದಲ್ಲಿ	-5985
▁ಮೌಲ್ಯಮಾಪನದ	-5986
ಾರೋಪ	-5987
▁ಭೌತಿಕ	-5988
▁ಸಂತ್ರ	-5989
▁ಇಂಡಸ್ಟ್ರ	-5990
▁ವಾದವು	-5991
▁ವಿಧಿಸಲಾದ	-5992
▁ಸಮಸ್ಯೆಗಳು	-5993
▁ಹೆಚ್ಚಿಸುವ	-5994
ಾತಿ	-5995
▁ಎಎಸ್	-5996
▁ಸರಾಸರಿ	-5997
▁ಮಂಡಳಿಗೆ	-5998
▁ಅವಲೋಕನಗಳು	-5999
▁ಕಾರ್ಯಕಾರಿ	-6000
▁ಲೆಫ್ಟಿನೆಂಟ್	-6001
▁ಇಬ್ಬರೂ	-6002
▁ಕಾರಣವಾಗ	-6003
▁ವಯಸ್ಸನ್ನು	-6004
▁ಮೃತರು	-6005
ದಿದ್ದರೂ	-6006
▁ತಿಳಿಸಲು	-6007
▁ಸರಣ	-6008
ಮಾಣಿಕ	-6009
▁ವಿಂಗಡ	-6010
▁ಸೂಚ್ಯ	-6011
▁ಜನರನ್ನು	-6012
▁ನ್ಯಾಷನಲ್	-6013
▁ಸಂತ್ರಸ್ತ	-6014
▁ಸಂಸ್ಥೆಗೆ	-6015
ುವಿಕೆಯನ್ನು	-6016
▁ಗಮನಿಸಿದರು	-6017
▁ಸಲ್ಲಿಸಿತು	-6018
▁ಉತ್ಪಾದಿಸುವ	-6019
▁ನಿಯಮಿತವಾಗಿ	-6020
▁ಡೊ	-6021
▁ತಾಯಿ	-6022
ರಾಬಾದ್	-6023
▁ಕಸಿದು	-6024
▁ಸುಪ್ರಾ	-6025
▁ಸಂರಕ್ಷಣಾ	-6026
▁ಆಕ್ಷೇಪಣೆಗಳನ್ನು	-6027
▁ಸತತ	-6028
▁ವಾಹನದ	-6029
ನಾಗಿರುವ	-6030
▁ಮುನ್ನಡೆಸ	-6031
▁ರಚಿಸಲಾಗಿದೆ	-6032
▁ಅಪರಾಧಕ್ಕಾಗಿ	-6033
▁ಪೈ	-6034
▁ಮಾಸ್ಟರ್	-6035
▁ಅತಿಕ್ರಮಣ	-6036
▁ಮರುಪಡೆಯುವಿಕೆ	-6037
▁ಪ್ರಯತ್ನಗಳನ್ನು	-6038
▁ಘಟಕಗಳು	-6039
▁ನೀಡುತ್ತಾರೆ	-6040
ic	-6041
▁ರಜ	-6042
▁ಪದೇ	-6043
▁ಪ್ರಗತ	-6044
▁ಮೌಲ್ಯಮಾಪನವನ್ನು	-6045
ಎಎ	-6046
ವಿಷನ್	-6047
▁ಜರುಗ	-6048
▁ಧರ್ಮದ	-6049
▁ಆಗಾಗ್ಗೆ	-6050
▁ಫಲಾನುಭವಿ	-6051
▁ಭೂಮಿಯಲ್ಲಿ	-6052
ಾಗುತ್ತವೆ	-6053
ತಿದ್ದುಪಡಿ	-6054
▁ಸೇವೆಯಿಂದ	-6055
▁ಚಿಕಿತ್ಸೆಯನ್ನು	-6056
▁ಹೃದಯ	-6057
ಲಿನಲ್ಲಿ	-6058
ಗೊಳಿಸಬೇಕು	-6059
▁ವೆಚ್ಚಗಳು	-6060
▁ಸುಮಾರಿಗೆ	-6061
▁ಸುವ	-6062
ಧಿಕೃತ	-6063
▁ವರ್ಧ	-6064
ಭಾಗದಲ್ಲಿ	-6065
▁ಹಿಂಸಾಚಾರ	-6066
tt	-6067
ವ್ವಳ	-6068
▁ಸಂಭವಿಸಿದೆ	-6069
ru	-6070
▁ಪದಗಳ	-6071
▁ಅನುಮತಿಯನ್ನು	-6072
▁ಏಜೆಂಟ	-6073
▁ಸಂಪುಟ	-6074
▁ಸಾಮಗ್ರ	-6075
▁ಒಪ್ಪಂದಗಳು	-6076
▁ಮೂಲಭೂತವಾಗಿ	-6077
ಣು	-6078
▁ಡಿಸ್	-6079
▁ಆದಾಯವು	-6080
▁ಅನುಕೂಲಕ್ಕಾಗಿ	-6081
rmed	-6082
▁ಓದಿ	-6083
▁ಗಂಟೆಗೆ	-6084
▁ಪ್ರದೇಶಕ್ಕೆ	-6085
▁ಪ್ರಕರಣಗಳಿಗೆ	-6086
▁ಚಿಕ್ಕ	-6087
▁ಅಪರೂಪದ	-6088
▁confirmed	-6089
▁ಬೆಂಬಲಿಸುವ	-6090
▁ಮಂದ	-6091
▁ನಾಗರಿಕರಿಗೆ	-6092
ಭಾರತ	-6093
▁ಕುಳ	-6094
▁ಸ್ಟಾಕ್	-6095
▁ಹಿಡುವಳಿದಾರ	-6096
ಹೆಚ್	-6097
▁ಶೇಕಡ	-6098
▁ಕ್ರೌರ್ಯ	-6099
ವಾನ್	-6100
▁ಹಂತದ	-6101
ಲ್ಲಿಯೇ	-6102
ಿಸಲಾಗಿದ್ದು	-6103
▁ಕಂಪ್ಯೂಟರ್	-6104
▁ದೂರಿನಲ್ಲಿ	-6105
▁ನೀಡಲಾಗಿಲ್ಲ	-6106
▁ಸರಿದ	-6107
▁ದೂರವಿ	-6108
▁ವಕ್ಫ್	-6109
▁ಆಯೋಗವನ್ನು	-6110
▁ದುಷ್ಕೃತ್ಯ	-6111
▁ಅಕ್ಷರ	-6112
▁ಬೆಂಚ್	-6113
ಾಮಿ	-6114
ುದಾಗಿ	-6115
▁ವಿಲ್	-6116
ಯಾವುದೇ	-6117
▁ಕರ್ತವ್ಯದ	-6118
▁ನಿವೃತ್ತಿಯ	-6119
▁ಆವಿಷ್ಕಾರಗಳನ್ನು	-6120
▁ಜನಾಂಗ	-6121
▁ಇಂಗ್ಲೆಂಡ್	-6122
ೀನಾಮ	-6123
▁ಮೊಕದ್ದಮೆಯ	-6124
ಡ್ರ	-6125
ಿತವಾಗಿರುತ್ತದೆ	-6126
er	-6127
▁ಜೀವಂತ	-6128
ದಿರುವುದು	-6129
▁ಕರೆದೊಯ್ದ	-6130
▁ಉಲ್ಲೇಖಿಸಿರುವ	-6131
ೋದ್ಯಮ	-6132
▁ಮೂರನೆಯ	-6133
▁ಶಿಫಾರಸ	-6134
▁ಆಕ್ಷೇಪಣೆಯನ್ನು	-6135
ಟಿಸಿ	-6136
ಡಿಯಾ	-6137
ಮೌಲ್ಯ	-6138
▁ನಿಶ್ಚಿತ	-6139
ಗಿತ	-6140
▁ಗಾಗಿ	-6141
▁ಪ್ರಕಾಶ್	-6142
▁ಸಾಕ್ಷ್ಯದಲ್ಲಿ	-6143
ಡ್ಸ್	-6144
▁ತಕ್ಷಣದ	-6145
▁ಸಮಯಕ್ಕೆ	-6146
▁ಕಾರ್ಯಸಾಧ್ಯ	-6147
ವಾಗಿರುವುದರಿಂದ	-6148
ಚಾರ್	-6149
▁ಜಾರ್	-6150
▁ಟಾಡಾ	-6151
▁ಕಚ್ಚಾ	-6152
ುದಕ್ಕಾಗಿ	-6153
▁ತಡೆಗಟ್ಟುವ	-6154
▁ಖಚಿತಪಡಿಸಿಕೊಳ್ಳ	-6155
▁ಯಾರೂ	-6156
▁ಪ್ರಕೃತ	-6157
▁ವಿವಾದಗಳ	-6158
▁ಪ್ರತಿಭ	-6159
▁ತಿಳಿಸಿದೆ	-6160
ಂಟುಮಾಡ	-6161
ವೆಲ್	-6162
▁ಐಪಿಸಿಯ	-6163
▁ಚಾರ್ಟರ್	-6164
▁ನಿರ್ಧಾರಕ್ಕೆ	-6165
ವಹಾರ	-6166
ವಾಗಿದೆಯೇ	-6167
▁ಪರಿಗಣಿತ	-6168
▁ಪರಿಷ್ಕರಣ	-6169
ಮ್ಯಾ	-6170
▁ಮುಗ್ಧ	-6171
▁ಆಸ್ಟ್ರ	-6172
▁ನಿಯಂತ್ರಣವನ್ನು	-6173
▁ಶೀರ್ಷಿಕೆಯನ್ನು	-6174
ಾಭಾಸ	-6175
▁ಚಲಾಯಿಸುವಾಗ	-6176
▁ಮೂಲತಃ	-6177
▁ನಿವ್ವಳ	-6178
▁ವಾರಂಟ್	-6179
▁l	-6180
▁ಬೇರ್	-6181
▁ಉತ್ಸಾಹ	-6182
▁ನಿರ್ವಾಹ	-6183
▁ಶೇಕಡಾವಾರು	-6184
▁ಘೋಷಣೆಯನ್ನು	-6185
▁ಮುಂದುವರಿಯುವ	-6186
ಭೌ	-6187
ಶಲ	-6188
▁ಶೆ	-6189
▁ಆಯು	-6190
▁ಸಮಕಾಲೀನ	-6191
▁ತಯಾರಿಸಲು	-6192
▁ರಾಷ್ಟ್ರಪ	-6193
▁ಸುಲಭವಾಗಿ	-6194
▁in	-6195
▁ಕೊರತೆ	-6196
▁ಪ್ರವರ್ತ	-6197
▁ಕೆಳಗಿನಂತ	-6198
ನಿಯರ್	-6199
ವಾಹಿಕ	-6200
▁ಆಳವಾದ	-6201
▁ಸಿದ್ಧಪಡಿಸಿದ	-6202
▁ಮಧ್ಯಸ್ಥಿಕೆಗೆ	-6203
ಹು	-6204
ನಾತ	-6205
ಿರಲಿಲ್ಲ	-6206
▁ನೀಡಲಾಗ	-6207
▁ಉಂಟುಮಾಡುವ	-6208
▁ಸೇವೆಗಳಿಗೆ	-6209
ನವು	-6210
ಬಿಎಸ್	-6211
▁ಗಾತ್ರ	-6212
ದಲ್ಲಿದ್ದ	-6213
▁ಅನುಮತಿಯ	-6214
ವಾದ್ದರಿಂದ	-6215
▁ದೀರ್ಘಕಾಲ	-6216
▁ವಿರೋಧಾಭಾಸ	-6217
▁ಒಡೆ	-6218
▁ನಿವಾರ	-6219
▁ಅವರಲ್ಲಿ	-6220
▁ಬಗೆ	-6221
▁ಮೊದಲಿನ	-6222
▁ಅರ್ಜಿಗಳು	-6223
▁ನಿರೀಕ್ಷೆಯ	-6224
▁ನಡೆದಿ	-6225
ತೆಯೊಂದಿಗೆ	-6226
▁ಸ್ಥಳಗಳಲ್ಲಿ	-6227
di	-6228
▁ನಿರ್ಗ	-6229
▁ಆವೃತ್ತಿ	-6230
▁ಮರ	-6231
▁ನಿಗಮವು	-6232
ತಿಯಲ್ಲಿರುವ	-6233
▁ಚಂದಾದಾರ	-6234
▁ದಾಖಲಿಸಲು	-6235
ಂಚಾಲ	-6236
ಷ್ಟೇ	-6237
▁ಕಿರ	-6238
▁ನಡಾವ	-6239
▁ದುಃಖಿತ	-6240
▁ವಯಸ್ಸು	-6241
▁ಮಾರಾಟವನ್ನು	-6242
ಳಿಗೆ	-6243
▁ಅಕೌ	-6244
▁ಚಲನ	-6245
▁ವಂಚನೆ	-6246
▁ಸಚಿವರು	-6247
▁ಉಲ್ಲೇಖಿಸಲು	-6248
▁ಸಾಫ್ಟ್	-6249
▁ಪರಿಷ್ಕರ	-6250
▁ಮಾತನಾಡಿದ	-6251
▁ಸಮಯದೊಳಗೆ	-6252
▁ಉದ್ಯೋಗಿಗಳಿಗೆ	-6253
▁ಹಕ್ಕಿದೆ	-6254
▁ಅನುಪಸ್ಥಿತ	-6255
▁ಸರಿದೂಗ	-6256
▁ಪಡೆಯಲಾಗಿದೆ	-6257
▁ನಿರ್ದಿಷ್ಟಪಡ	-6258
ಯಲ್	-6259
▁ಪೌ	-6260
▁ರಾಜ್ಯಗಳಿಗೆ	-6261
ಮಿನ	-6262
▁ಮೋಹನ್	-6263
▁ವೇತನದ	-6264
▁ಕುಳಿತು	-6265
▁ಕಚೇರಿಗೆ	-6266
▁ವೈವಾಹಿಕ	-6267
▁ಸಮರ್ಥನೆ	-6268
▁ಪ್ರದೇಶಗಳ	-6269
▁ಸಾಧ್ಯತೆಯಿದೆ	-6270
▁ಹರಡ	-6271
ಪೂರ್ಣ	-6272
ಂಡಿಂಗ್	-6273
▁ಮಾಸಿಕ	-6274
ನೆಯಾಗಿದೆ	-6275
▁ಚೇತರಿಕೆ	-6276
▁ರಾಜೀನಾಮ	-6277
▁ಸಾಲಗಾರನು	-6278
▁ವ್ಯವಸ್ಥಾಪ	-6279
▁ಸ್ವತ್ತುಗಳ	-6280
▁ಪ್ರಕ್ರಿಯೆಗಳು	-6281
ಪರ್ಧಿ	-6282
▁ದಾಸ್	-6283
▁ಮಾನದಂಡಗಳ	-6284
▁ಕಚೇರಿಯಲ್ಲಿ	-6285
▁ದ್ವಿಪಕ್ಷೀಯ	-6286
▁ಪರಿಶೀಲಿಸಿದ	-6287
ಟಂ	-6288
ಅನು	-6289
▁ಗಾಳ	-6290
▁ಅಂಚೆ	-6291
▁ಕಾರ್ಯಕರ್	-6292
▁ಸ್ವಯಂಚಾಲ	-6293
▁ಹೊಂದಾಣಿಕೆ	-6294
▁ಪ್ರತಿಸ್ಪರ್ಧಿ	-6295
▁xad	-6296
▁ಶಾಲಾ	-6297
▁ತಡೆಯುವ	-6298
▁ಬೆಳವಣಿಗೆಯ	-6299
▁ಐತಿಹಾಸ	-6300
▁ಕ್ಸಾಡ್	-6301
ನ್ಯಾಯಾಂಗ	-6302
ಿದ್ದನ್ನು	-6303
▁ಪಡೆಯುವುದು	-6304
▁ವ್ಯಾಪಕವಾದ	-6305
▁ತೀರ್ಮಾನವನ್ನು	-6306
ಖ್	-6307
ಡಿಸಿ	-6308
▁ಹಾಜರಾಗುವ	-6309
▁ಸಾಂದರ್ಭಿಕ	-6310
ೀಗ	-6311
▁Ex	-6312
▁ಕಾಗದ	-6313
▁ಅಸಮಾನ	-6314
▁ಪುತ್ರ	-6315
▁ಸಮಾರಂಭ	-6316
▁ಡಿಜಿಟಲ್	-6317
▁ಪ್ರಾರಂಭಿಸಿದ	-6318
▁ಯಾದ	-6319
ಬಂದಿದೆ	-6320
▁ಪರಿಗಣನೆಯನ್ನು	-6321
▁ಹಿರಿತನದ	-6322
▁ಪ್ರಕೃತಿಯ	-6323
▁ಲಭ್ಯವಿಲ್ಲ	-6324
▁ಸಂತೋಷವಾಗಿದೆ	-6325
▁ಪ್ರಾಸಿಕ್ಯೂಟರ್	-6326
▁ಅಂಗೀಕರಿಸಲ್ಪಟ್ಟ	-6327
▁to	-6328
▁ಉಭಯ	-6329
▁ಚಂಡ	-6330
▁ಮದ್ಯ	-6331
▁ದೃಷ್ಟಿಕೋನದಿಂದ	-6332
ಚೀನ	-6333
ಸಿವಿಲ್	-6334
▁ದಾಖಲಿಸಿದೆ	-6335
▁ಬೆಂಕ	-6336
▁ಪರಿಶೀಲನೆಯು	-6337
▁ವಿದ್ಯಾರ್ಥಿಗಳು	-6338
▁ಅನ್ವಯವಾಗುತ್ತವೆ	-6339
▁ತರಗ	-6340
▁ಗ್ಯಾ	-6341
▁ತಪಾಸಣೆ	-6342
▁ಸಂಯುಕ್ತ	-6343
▁ಒಟ್ಟುಗೂಡ	-6344
▁ನಿರ್ಧಾರಗಳು	-6345
▁ಪುರಾವೆಗಳಿಲ್ಲ	-6346
▁ನೀಡಿದಾಗ	-6347
▁ಯೋಜನೆಯಡಿ	-6348
▁ಕೈಗೊಳ್ಳಲು	-6349
ಸಂಬ	-6350
ಂಗ್ರ	-6351
ಸಿಎಲ್	-6352
ಸಿಟಿಇ	-6353
▁ಬಯೋಮೆ	-6354
▁ದೋಷಾರೋಪ	-6355
▁ಮಾರಾಟಕ್ಕೆ	-6356
▁ವಿಧಾನಸಭೆಯ	-6357
▁ಸಾಕ್ಷ್ಯವು	-6358
▁ವಿದ್ಯಾರ್ಥಿಗಳ	-6359
▁ಖುಲಾಸೆಗೊಳಿಸುವ	-6360
ಪೋ	-6361
ಾದಿನ	-6362
▁ಸಿಜೆ	-6363
▁ಗುಂಡು	-6364
▁ಸಮಸ್ಯೆಯ	-6365
ವಿತ್ರ	-6366
▁ಅರ್ಧ	-6367
ಕ್ವಿಟಿ	-6368
▁ತಮ್ಮದೇ	-6369
▁ಉಲ್ಲೇಖದ	-6370
▁ಮಹಿಳೆಯರು	-6371
▁ಅನುಮೋದನೆಯ	-6372
▁ಪರಿಹಾರಗಳನ್ನು	-6373
▁ಚೌಧ	-6374
▁ನ್ಯಾಯವನ್ನು	-6375
▁ರೆಸ್	-6376
ಯಾಚಿತ್ರ	-6377
▁ಸಮಾನತೆಯ	-6378
▁ಸುಧಾರಿಸಲು	-6379
▁ಸಮರ್ಥನೀಯವಲ್ಲ	-6380
ಹ್ನ	-6381
▁ಹುದ್ದೆಗಳಿಗೆ	-6382
▁ನಿರ್ಬಂಧವನ್ನು	-6383
▁ಮಹಾನ	-6384
▁ಇನ್ಸ್ಟಿ	-6385
▁ಕೊನೆಯದಾಗಿ	-6386
▁ನಿರ್ವಹಿಸುತ್ತದೆ	-6387
▁is	-6388
▁ಚಿಂತ	-6389
▁ಅಧ್ಯಾಯದ	-6390
▁ಗಮನಿಸಬೇಕು	-6391
▁ಅಧಿಕಾರವಿದೆ	-6392
ಹೋ	-6393
▁ನಂಬಿಕೆಯ	-6394
▁ಉತ್ಪನ್ನಗಳ	-6395
▁ಪ್ರತಿನಿಧಿಸುವ	-6396
ವೇಟ್	-6397
ಸ್ಮಿಕ	-6398
▁ಸದನದ	-6399
--------	-6400
▁ಕಳುಹಿಸಲಾಗಿದೆ	-6401
▁ಕೃತ	-6402
▁ಹತ್ಯ	-6403
▁ಸುಂಕದ	-6404
▁ಅನುಸರಣ	-6405
▁ಆರೋಪಗಳು	-6406
ಪೂ	-6407
▁ಪಾಕ	-6408
▁ಕ್ರಮಗಳ	-6409
▁ಮುಂದುವರಿದ	-6410
ಭೌಮ	-6411
ರಿದ	-6412
▁ಕನ್	-6413
▁ಮೀನು	-6414
▁ಪ್ರದೇಶಗಳು	-6415
▁ಸಿದ್ಧಾಂತವನ್ನು	-6416
rug	-6417
▁ಸಹಾನು	-6418
▁ಕಚೇರಿಯ	-6419
▁ಅಮೂಲ್ಯವಾದ	-6420
▁ಹಾದು	-6421
▁ಮಧ್ಯಮ	-6422
▁ಸಂಸ್ಕೃ	-6423
▁ತೋರುತ್ತ	-6424
ಿಸಬೇಕಾದರೆ	-6425
▁ಸವಾಲನ್ನು	-6426
▁ಹಂತಗಳಲ್ಲಿ	-6427
ಪಿಡಿ	-6428
ಶ್ರಾ	-6429
▁ಜಾಮ	-6430
ುತ್ತಿಗೆ	-6431
▁ಮುಂಚಿನ	-6432
▁ಶಿಸ್ತಿನ	-6433
ಿರುವುದರಿಂದ	-6434
▁ಬರುವುದಿಲ್ಲ	-6435
▁ಪಟ	-6436
▁ತಲಾ	-6437
▁ಅಗ್ರ	-6438
▁ಮೀರಿದ	-6439
▁ಹೆಂಡತಿಯ	-6440
▁ತಪ್ಪನ್ನು	-6441
▁ಮಾಡಿಕೊಳ್ಳ	-6442
▁ವ್ಯವಸ್ಥೆಯು	-6443
▁ಕಾರ್ಯನಿರ್ವಹಿಸುವ	-6444
ಘ್ರ	-6445
ಪಂಚ	-6446
▁ro	-6447
▁ಇಸ್	-6448
▁ಪ್ರಾಚೀನ	-6449
▁ಸಂಸ್ಥೆಯು	-6450
▁ಕಾಣಿಸಿಕೊಂಡ	-6451
▁ವಜಾಗೊಳಿಸಿತು	-6452
ೆಂಟ್	-6453
ಡೆನ್ಸ್	-6454
▁ಹಾಕುವ	-6455
▁ನಿರ್ವಹಣೆಗೆ	-6456
▁Cr	-6457
▁ಏರ್	-6458
ೋಣ	-6459
▁ಕೃತಿ	-6460
▁ಕತ್ತರ	-6461
▁ಪದಚ್ಯು	-6462
▁ಮಾಡಿದಾಗ	-6463
ಸಹಾಯ	-6464
ೇಟಿವ್	-6465
ವಿಜ್ಞಾನ	-6466
▁ಪಕ್ಷಗಳನ್ನು	-6467
ಮರ್	-6468
▁ಐಬಿ	-6469
▁ಒಳ್ಳ	-6470
▁ಪತ್ರವು	-6471
▁ಕಳ್ಳಸಾಗ	-6472
▁ಅಪ್ರಸ್ತುತ	-6473
▁ಸಾರ್ವಜನಿಕರ	-6474
▁ಹೊಂದಿರುವವರು	-6475
▁ಸೂಕ್ತವಲ್ಲ	-6476
▁ಪಾವತಿಯನ್ನು	-6477
▁ಪರಿಗಣಿಸುತ್ತದೆ	-6478
▁ವೀ	-6479
▁ಗೋವಾ	-6480
▁ಬಹುಶಃ	-6481
▁ಪ್ರೈವೇಟ್	-6482
▁ವ್ಯಾಖ್ಯಾನದ	-6483
▁ಅಭಿವ್ಯಕ್ತಿಯನ್ನು	-6484
▁ವಿಕಸ	-6485
▁ಪರಿಗಣಿಸಿದ್ದೇವೆ	-6486
ಹೋದ	-6487
▁ಆಯ್ದ	-6488
▁ಬಳಸಲು	-6489
▁ಪರಿಭಾಷ	-6490
▁ಒಂದಕ್ಕಿಂತ	-6491
ಕಾಟ	-6492
▁ಎಂಟು	-6493
▁ವಿವಾದವು	-6494
▁ಹೊರಹಾಕುವ	-6495
▁ಪ್ರಮಾಣೀಕರ	-6496
ದಿಯ	-6497
ವನ್	-6498
ಿಸ್ಟ	-6499
▁ಹೈದ	-6500
ಾಯಿಂಟ್	-6501
▁ನೋಡಲು	-6502
▁ನೋಡಿದ	-6503
▁ಆಧರಿಸಿ	-6504
▁ಒಳ್ಳೆಯ	-6505
▁ವಿಧಿಸಲಾಯಿತು	-6506
▁ನಡವಳಿಕೆಯನ್ನು	-6507
▁ವ್ಯಾಯಾಮವನ್ನು	-6508
▁ನೊ	-6509
ಫಾರ್	-6510
▁ನಿಗಮದ	-6511
▁ಸೇರಿವೆ	-6512
▁ವಿದ್ಯಾರ್ಥಿಗಳಿಗೆ	-6513
ಕೆಟ್	-6514
▁ಅಲ್ಲದೆ	-6515
▁ಗುಂಪಿನ	-6516
▁ಚುನಾವಣೆ	-6517
▁ಕ್ರಮಕ್ಕೆ	-6518
▁ಸಂಪ್ರದಾಯ	-6519
▁ಭಾಷಾ	-6520
▁ಪ್ರಯತ್ನಿಸಿ	-6521
▁ಮೇಲಿನದನ್ನು	-6522
▁ಪರಿಗಣಿಸುವಾಗ	-6523
ಜೋ	-6524
▁ಸಮುದ್ರ	-6525
▁ಹವಾಮಾನ	-6526
▁ಸಾರ್ವಭೌಮ	-6527
▁ಪ್ರಶಸ್ತಿಯ	-6528
▁ವಾದಗಳನ್ನು	-6529
▁ಪ್ರಕೃತಿಯಲ್ಲಿ	-6530
ಡಿಯೋ	-6531
ರೋಧಿ	-6532
ದಷ್ಟು	-6533
ಪೋರ್ಟ್	-6534
▁ಒರಿಸ್	-6535
▁ಸಂಪನ್ಮೂಲಗಳ	-6536
▁ಹುಡುಕಾಟ	-6537
▁ಅಸೋಸಿಯೇಷನ್	-6538
ಲವಂತ	-6539
▁ಇಲ್ಲವೋ	-6540
▁ತೀರ್ಮಾನವು	-6541
ೈಕಲ್	-6542
▁ಪ್ರಾಸಂಗಿಕ	-6543
▁ಖಾತರಿಪಡಿಸಿದ	-6544
ತಿಯು	-6545
▁orce	-6546
▁ಮರುಸ್ಥಾಪ	-6547
▁ಅಭ್ಯರ್ಥಿಯ	-6548
▁ಇರುವುದಿಲ್ಲ	-6549
▁ಉಲ್ಲೇಖಿಸುವ	-6550
▁ಅನಿವಾರ್ಯವಲ್ಲ	-6551
▁ಪರಿಕಲ್ಪನೆಯನ್ನು	-6552
▁ಸಶ	-6553
ರಾಮ್	-6554
▁ತರ್ಕಬದ್ಧ	-6555
ನಾನು	-6556
ಎಂಎಸ್	-6557
▁ಅಂಡ್	-6558
▁ಕ್ವಾ	-6559
ತ್ಯಾಜ್ಯ	-6560
ವಿರುದ್ಧ	-6561
▁ಕಾಯ್ದಿರಿಸಿದ	-6562
ವಳಿ	-6563
ಕ್ಷೇ	-6564
▁ಇದೆಯೇ	-6565
ೆಯೊಂದಿಗೆ	-6566
▁ಮಾಹಿತಿಯು	-6567
▁ಸ್ಥಳದಿಂದ	-6568
▁ಜ್ಞಾನವನ್ನು	-6569
▁ಸಾಧ್ಯವಾದಷ್ಟು	-6570
ಭಾಗಿ	-6571
▁ಗಡಿ	-6572
▁ಬೀಜ	-6573
▁ಯೋಚ	-6574
▁ಚೆನ್ನ	-6575
▁ಯನ್ನು	-6576
▁ಪಾರ್ಟ್	-6577
▁ಸಮನ್ಸ್	-6578
▁ಚಾಲ್ತಿಯಲ್ಲಿರುವ	-6579
ಗಾವ	-6580
▁ಮಧ್ಯಾ	-6581
▁ರಚಿಸಿದ	-6582
ನಾತಕೋ	-6583
▁ಆಘಾತ	-6584
▁ೀಕರಣದ	-6585
▁ಅನ್ಯಾಯದ	-6586
ನಾತಕೋತ್ತರ	-6587
ಥಮ	-6588
ಲ್ಬಣ	-6589
▁ಬಲವಂತ	-6590
▁ಪ್ರಶ್ನಿಸಲು	-6591
▁ಸಂಗ್ರಹಿಸಲು	-6592
▁an	-6593
▁ಏಕಕಾಲೀನ	-6594
▁ಾಯಾಚಿತ್ರ	-6595
▁ಅಧಿಕಾರಿಯನ್ನು	-6596
▁ಮಹಾ	-6597
▁ಯುದ್ಧ	-6598
▁ಸಾರ್ವಜನಿಕರಿಗೆ	-6599
ಖಂಡ್	-6600
ಜ್ಜೀವ	-6601
ನ್ನಾದರೂ	-6602
▁ಬ್ರಿಟಿ	-6603
▁ಸಹಭಾಗಿ	-6604
▁ಆಸ್ಟ್ರೇ	-6605
▁ಫಿರ್ಯಾದಿಯ	-6606
▁ಹೈದರಾಬಾದ್	-6607
▁ಹೋಲಿಸಿದರೆ	-6608
▁ರಾಷ್ಟ್ರಪತಿಗಳ	-6609
▁ಧಾ	-6610
ಸ್ಟಾಂ	-6611
▁ಅಂಗೀಕಾರ	-6612
▁ಬೆಂಬಲಿಸಲು	-6613
▁ಹಕ್ಕುಗಳಿಗೆ	-6614
▁ಸರ್ಕಾರವನ್ನು	-6615
▁ಸಂಸ್ಥೆಗಳನ್ನು	-6616
▁XX	-6617
▁ತದ್	-6618
▁ನಿಷ್ಠ	-6619
▁ಶುದ್ಧ	-6620
▁ಮನರಂಜನೆ	-6621
▁ನವದೆಹಲಿಯ	-6622
▁ಪುನರುಜ್ಜೀವ	-6623
ನೊ	-6624
ಾನಾ	-6625
ನೆಟ್	-6626
▁ಟರ್	-6627
▁ದೇಶಗಳ	-6628
▁ಸಾರ್ವತ್ರಿಕ	-6629
▁ಹೊಂದಿರುವುದಿಲ್ಲ	-6630
▁ಕಡೆಗಣ	-6631
▁ಆಕಸ್ಮಿಕ	-6632
▁ವೈವಿಧ್ಯಮಯ	-6633
▁ಒದಗಿಸಿದಂತೆ	-6634
▁ತದ್ವಿರುದ್ಧ	-6635
▁ಕಾರ್ಪೊರೇಷನ್	-6636
ೀಪ್	-6637
ಚೇಂಜ್	-6638
▁ವಿಲೀ	-6639
▁ಗ್ರಾಹಕರಿಗೆ	-6640
▁ಅಸಮಾಧಾನಗೊಂಡ	-6641
▁ವೈಯಕ್ತಿಕವಾಗಿ	-6642
▁ಪಾವತಿಸಲಾಗುವುದು	-6643
▁ಬ್	-6644
▁ಆಸ್ತಿಯಲ್ಲಿ	-6645
▁ಲೇಖನಗಳನ್ನು	-6646
▁ಹೇಳುತ್ತಾರೆ	-6647
ಪಿಂಗ್	-6648
▁ಉದ್ಯಾ	-6649
▁ನಿದರ್ಶನ	-6650
▁ತೊಡಗಿರುವ	-6651
▁ಆಧಾರವಾಗಿರುವ	-6652
▁ಆವಿಷ್ಕಾರಗಳು	-6653
ಸನ್	-6654
▁ಹಿಂಜ	-6655
ಟಿಯನ್ನು	-6656
▁ರಶೀದಿ	-6657
ೆಯಲ್ಲಿರುವ	-6658
▁ಹೊರಹಾಕಲು	-6659
▁ಉತ್ತರವನ್ನು	-6660
▁ಆಂಧ್ರಪ್ರದೇಶ	-6661
▁ಧರ	-6662
ಲುಗೈ	-6663
▁ಉಲ್ಬಣ	-6664
▁ಕಬ್ಬಿಣದ	-6665
ಂನ	-6666
ಾಂಕ್ಷ	-6667
▁ಮೇಲುಗೈ	-6668
▁ಪಾಲನ್ನು	-6669
▁ಬಾಡಿಗೆದಾರರ	-6670
▁ಸ್ಥಗಿತ	-6671
▁ಅಪಾಯವನ್ನು	-6672
▁ತೀರ್ಪುಗಳಲ್ಲಿ	-6673
.-	-6674
▁१७	-6675
ವರ್ಗ	-6676
▁ದೇವ	-6677
▁ಬೇಸರ	-6678
▁ಸಂಹಿತೆ	-6679
▁ಸೂಕ್ತವಾಗಿ	-6680
▁ನಿರಾಕರಿಸಿದರು	-6681
▁ಜಯ	-6682
ಡಿಯೊ	-6683
ವೃದ್ಧಿ	-6684
▁ಘಟಕಗಳ	-6685
▁ಶೀಘ್ರ	-6686
▁ಮಿಶ್ರಾ	-6687
ಮೌಲ್ಯಮಾಪ	-6688
▁ಅಧಿಕಾರಿಯು	-6689
▁ವ್ಯವಹರಿಸುವ	-6690
▁ಒಪ್ಪಿಗೆಯನ್ನು	-6691
▁ತುದ	-6692
▁drug	-6693
▁ಜಮ್ಮು	-6694
▁ಹೊಂದಿತ್ತು	-6695
▁ಸಾಕ್ಷ್ಯಚಿತ್ರ	-6696
ಮೇಶ್	-6697
ಜೆಕ್ಟ್	-6698
▁ಸ್ವಾಮ್ಯ	-6699
▁ಉಲ್ಲೇಖಿಸುತ್ತದೆ	-6700
ವಾದರೂ	-6701
▁ಉಪಾ	-6702
▁ಭರವಸ	-6703
▁ಅಂಗಡಿ	-6704
▁ಸೌಲಭ್ಯಗಳು	-6705
ಜಿಸ್ಟರ್	-6706
▁ರೂಪಿಸಲಾದ	-6707
▁ಸಂದರ್ಭಗಳ	-6708
▁ಭೂಮಾಲೀಕರು	-6709
▁ಮಗಳು	-6710
▁ಗುಣಮಟ್ಟವನ್ನು	-6711
ದಾಗಿದೆ	-6712
▁ಚೌಧರಿ	-6713
▁ಐಟಂ	-6714
▁ಮಣ್ಣ	-6715
▁ಸಮರ್ಪ	-6716
ಿರುವುದು	-6717
▁ಮಧ್ಯಪ್ರದೇಶ	-6718
▁ಅನಧಿಕೃತ	-6719
▁ಮಾನದಂಡಗಳು	-6720
▁ಹೊರಡಿಸಲಾದ	-6721
▁ಅಂಗೀಕರಿಸಿದೆ	-6722
▁ವಿಧಾನಗಳನ್ನು	-6723
▁ಕ್ರಮಬದ್ಧಗೊಳಿಸುವ	-6724
▁ಪವರ್	-6725
▁ಪ್ರಥಮ	-6726
▁ಯಾವುದೂ	-6727
▁ಪ್ರತಿಫಲ	-6728
▁ಹಾದುಹೋಗ	-6729
▁ಉದ್ಭವಿಸಿದ	-6730
▁ಪರಿಶೀಲನೆಗೆ	-6731
▁ಅಭಿವ್ಯಕ್ತಿಯ	-6732
▁ಉಲ್ಲಂಘಿಸುತ್ತದೆ	-6733
▁ಶಿವ	-6734
▁ವೇದಿಕೆ	-6735
ಟ್ಟುಕೊಳ್ಳಬೇಕು	-6736
▁ನೋವು	-6737
▁ಮರುಸ	-6738
▁ಒಡೆತನದ	-6739
▁ಆವರಣದಲ್ಲಿ	-6740
▁ಮುಕ್ತವಾಗಿ	-6741
ಸಾರ್ವ	-6742
▁ವೈರ್	-6743
▁ನಿರ್ಮೂಲ	-6744
▁ವಿನಾಯಿತ	-6745
▁ಅನುಭವಿಸಿದ	-6746
▁ಬದ್ಧವಾಗಿದೆ	-6747
▁ಸ್ನಾತಕೋತ್ತರ	-6748
ಾಜ್ಯ	-6749
▁ಜಾರಿಗೊಳಿಸಲು	-6750
▁ಮುಖ್ಯಮಂತ್ರಿ	-6751
ರಸ್ಯ	-6752
▁ಮಿಷನ್	-6753
▁ಹೊಡೆದ	-6754
ಸ್ಟಾಂಟಿವ್	-6755
▁ಗುರುತನ್ನು	-6756
▁ವಿಧಿಸಬಹುದು	-6757
▁ಪರಿಗಣಿಸಲ್ಪಟ್ಟ	-6758
▁ಪ್ರಜಾಪ್ರಭುತ್ವದ	-6759
ನಲ್ಲ	-6760
▁ಬಯಸಿದ	-6761
▁ಅಂಕಗಳನ್ನು	-6762
▁ಇನ್ಸ್ಟಿಟ್ಯೂಟ್	-6763
▁ಎತ್ತಿಹಿಡಿದಿದೆ	-6764
▁ಶೂ	-6765
▁ಸಚಿವರ	-6766
▁ಚೆನ್ನೈ	-6767
▁ಅವಿಭಾಜ್ಯ	-6768
▁ಸಂಭವಿಸುವ	-6769
▁ಮುಕ್ತವಾಗಿದೆ	-6770
▁ನ್ಯಾಯಾಲಯಗಳಿಗೆ	-6771
ಚ್ಚು	-6772
ಪೇಕ್ಷ	-6773
▁ಹೋಗಲು	-6774
▁ಕಚೇರಿಯನ್ನು	-6775
▁ಆರೈಕೆ	-6776
▁ಯಾದವ್	-6777
▁ಭಯೋತ್ಪಾದಕ	-6778
▁ವಿಶ್ರಾಂತಿ	-6779
▁ನೇಮಕಾತಿಗಳನ್ನು	-6780
ಲದ	-6781
ಅಂಶ	-6782
▁ಪರಿಷ್ಕೃತ	-6783
▁ಸಮಾಲೋಚನೆ	-6784
▁ಬಾಂಡ್	-6785
ದಲ್ಲಿಯೇ	-6786
▁ಸಮತೋಲನ	-6787
▁ನೀಡುವಾಗ	-6788
▁ಸ್ಥಾನವು	-6789
▁ಮಟ್ಟವನ್ನು	-6790
ದೊಳಗೆ	-6791
ಣವನ್ನು	-6792
▁ಸಬ	-6793
▁ಸದಸ್ಯರಾಗಿ	-6794
▁ಭಾಗಿಯಾಗಿರುವ	-6795
ತಡೆ	-6796
▁ನೆಲದ	-6797
▁ಕೂಡಲೇ	-6798
▁ಪೊಲೀಸರ	-6799
▁ಫ್ಲಾಟ್	-6800
▁ಮಧ್ಯಾಹ್ನ	-6801
▁ವಹಿಸಿಕೊಂಡ	-6802
▁ತಂತ್ರಜ್ಞಾನದ	-6803
ೊಕ	-6804
▁ಎಐ	-6805
▁ಸಲಹಾ	-6806
ರದೃಷ್ಟ	-6807
ವಿಟ್ಟು	-6808
▁ಎಲ್ಲರಿಗೂ	-6809
▁ಪುರಾವೆಗಳ	-6810
▁ಮೆಚ್ಚು	-6811
▁ಹಾಗೆಯೇ	-6812
▁ಬಿಸಿಸಿಐ	-6813
▁ನೇಮಕಾತಿಗಾಗಿ	-6814
▁ಕೌಂಟರ್	-6815
ನೆಯಲ್ಲಿರುವ	-6816
▁ಅವಧಿಯೊಳಗೆ	-6817
▁ಸೀಮಿತವಾಗಿದೆ	-6818
ತ್ವಾ	-6819
ೋಚಿತ	-6820
▁ಉಡುಗೊ	-6821
▁ಜಾಮೀನಿನ	-6822
▁ಪ್ರಸಿದ್ಧ	-6823
▁ಬಲಿಪಶುವಿನ	-6824
▁ರೂಪಿಸುತ್ತದೆ	-6825
est	-6826
ಂದರ	-6827
▁ನ್ಯೂನ	-6828
▁ಲಿಂಕ್	-6829
▁ಶುಲ್ಕದ	-6830
▁ಸ್ಥಾಯಿ	-6831
▁ಸಾಮರಸ್ಯ	-6832
▁ಕಾಯಿದೆಯನ್ನು	-6833
▁ಉದ್ದೇಶಗಳನ್ನು	-6834
ಿಸು	-6835
▁ಫ್ಯಾ	-6836
▁ಅನ್ವೇಷ	-6837
▁ಸಿಪಿಸಿಯ	-6838
▁ಕಲ್ಕತ್ತಾ	-6839
▁ದುರದೃಷ್ಟ	-6840
▁ಕಾರ್ಯತಂತ್ರ	-6841
▁ವಿಜ	-6842
▁ಹೆಯ	-6843
▁ಮನವೊಲ	-6844
▁ಮಿಶ್ರ	-6845
▁ಹಿಮಾಚಲ	-6846
▁ಮೌಲ್ಯವು	-6847
▁ಭವಿಷ್ಯದಲ್ಲಿ	-6848
▁ಆಂಧ್ರಪ್ರದೇಶದ	-6849
▁ಪ್ರೀಮ	-6850
▁ಐತಿಹಾಸಿಕ	-6851
▁ಆಸ್ತಿಗಳನ್ನು	-6852
▁ತೆಗೆದುಕೊಂಡಿದೆ	-6853
▁ತದ್ವಿರುದ್ಧವಾಗಿ	-6854
ಷ್ಯಾ	-6855
▁ಜರ್	-6856
▁ಬೀಳ	-6857
▁ರೆಡ್ಡಿ	-6858
▁ಸಾಬೀತಾದ	-6859
ಿಸಲಾಗಿದ್ದರೂ	-6860
▁ವಿಭಾಗವನ್ನು	-6861
▁Ch	-6862
▁ಗೊಂದ	-6863
▁ಪಟ್ಟು	-6864
▁ಸರಿಪಡ	-6865
ನ್ಯಾಷನಲ್	-6866
▁ಪಾಕಿಸ್ತಾನ	-6867
▁ಪ್ರಶ್ನೆಗಳು	-6868
▁ಮಿತಿಗಳನ್ನು	-6869
▁ಸನ್ನಿವೇಶಗಳ	-6870
▁ನಿಬಂಧನೆಗಳಿಂದ	-6871
▁ನಿರ್ಮಾಣವನ್ನು	-6872
▁ತಗ್ಗಿಸುವ	-6873
▁ಬಳಲುತ್ತಿರುವ	-6874
▁ಸಬ್ಸ್ಟಾಂಟಿವ್	-6875
▁ಒಳಹರಿ	-6876
ಗೇ	-6877
▁ಇರಲಿ	-6878
▁ಕ್ರೀ	-6879
▁ನೀಡದ	-6880
▁ವಿತರಣೆಯ	-6881
▁ಪಕ್ಷಕ್ಕೆ	-6882
ಗಾರರ	-6883
ಮಾಣು	-6884
▁ನೇತೃ	-6885
▁ಬೇರ್ಪಡ	-6886
▁ಶ್ರದ್ಧ	-6887
ಗೊಳಿಸಿತು	-6888
▁ನಾಲ್ಕನೇ	-6889
▁ನಿಕ್ಷೇಪ	-6890
▁ಸಲ್ಲಿಸಿದ್ದ	-6891
▁ನ್ಯಾಯಮೂರ್ತಿಗಳ	-6892
▁ಎವಿ	-6893
▁ಸುರ	-6894
▁ವಿವಾಹದ	-6895
▁ಡಬ್ಲ್ಯು	-6896
▁ನಡವಳಿಕೆಯ	-6897
▁ಅಂಕಿಅಂಶ	-6898
▁ತೋರಿಸಲಾಗಿದೆ	-6899
▁ನ್ಯಾಯಾಧಿಕರಣದ	-6900
ಟ್ಟಿ	-6901
ಿಗ್ಧ	-6902
ಲೀಕರಣ	-6903
ಸಾಕ್ಷ	-6904
▁ಉತ್ತೇಜಿಸುವ	-6905
▁ಸಂದೇಶದಲ್ಲಿ	-6906
▁ಪ್ರದೇಶಗಳಿಗೆ	-6907
▁ಹೆದ್ದ	-6908
▁ಮೋಟಾರ್	-6909
▁ವಿಷಯವಾಗಿ	-6910
▁ಚಟುವಟಿಕೆಗಳು	-6911
▁ಬಾಡಿಗೆಯನ್ನು	-6912
▁ಸಲ್ಲಿಸುವುದು	-6913
ಂಘಟ	-6914
▁ಭರ	-6915
▁ಸರಪ	-6916
▁ಸಾಹಿ	-6917
ಿಸಬೇಕೇ	-6918
▁ಪ್ರಾಂತ್ಯ	-6919
▁ಪ್ರಾರಂಭವಾದ	-6920
▁ಅಭಿವೃದ್ಧಿಪಡ	-6921
▁ಹೆಚ್ಚಿನದನ್ನು	-6922
▁ಹೇಳಲಾಗುತ್ತದೆ	-6923
▁ವ್ಯಾಖ್ಯಾನಕ್ಕೆ	-6924
▁ನ್ಯಾಯಾಲಯಗಳಲ್ಲಿ	-6925
▁ಮುಖದ	-6926
▁ವಿಕೃತ	-6927
▁ಪಟ್ಟಿಯ	-6928
▁ಕೈಗೆತ್ತ	-6929
▁ಸಶಸ್ತ್ರ	-6930
ಸಾರ್ವಜನಿಕ	-6931
▁ಪದಚ್ಯುತ	-6932
▁ರೀತಿಯಾಗಿ	-6933
▁ಬಯಸುತ್ತೇನೆ	-6934
▁ನಿಗದಿಪಡಿಸುವ	-6935
▁ಸಾಧ್ಯವಾಗುತ್ತದೆ	-6936
▁ಉಚ್ಚರ	-6937
▁ಪಾವತಿಯ	-6938
▁ಪೋಷಕರು	-6939
▁ಪ್ರತಿಸ್ಪ	-6940
ಲ್ಟಿ	-6941
ಚಿಕಿತ್	-6942
▁ಹೋದರು	-6943
ಸೆಕ್ಷನ್	-6944
ಕಾಲಿಕವಾಗಿ	-6945
▁ಉದ್ದೇಶಿಸಿ	-6946
▁ವಜಾಗೊಳಿಸಿದೆ	-6947
▁ಹೊಣೆಗಾರಿಕೆಯ	-6948
▁ತೆಗೆದುಕೊಂಡಿತು	-6949
ಮಸ್	-6950
ಿಸಬಲ್ಲ	-6951
▁ಹಾಕಿದ	-6952
▁ಆರೋಪಗಳ	-6953
▁ಪಬ್ಲಿಕ್	-6954
▁ಬಳಕೆಗಾಗಿ	-6955
▁ವಿಚಾರಣೆಯು	-6956
▁ಸಾಗಣೆ	-6957
▁ವ್ಯವಸ್ಥೆಯಲ್ಲಿ	-6958
▁ಸಾಕಾಗುವುದಿಲ್ಲ	-6959
▁ಅಸಾಧ್ಯ	-6960
▁ಪವಿತ್ರ	-6961
▁ನಿರ್ಬಂಧಗಳನ್ನು	-6962
ಅಪ	-6963
▁ಟೆಲಿ	-6964
▁ಭದ್ರತೆ	-6965
▁ವಿಧಾನದ	-6966
▁ಸರಬರಾಜ	-6967
▁ಉದ್ಯೋಗಿ	-6968
▁ತಡೆಯುತ್ತದೆ	-6969
▁ಸೂಚನೆಯನ್ನು	-6970
▁ಉಂಟಾಗುತ್ತದೆ	-6971
ನಾಥ	-6972
ಳನೇ	-6973
ವಿದ್ದರೆ	-6974
▁ಪ್ರಯತ್	-6975
▁ಬದಲಿಗೆ	-6976
▁ಸಹಿಯನ್ನು	-6977
▁ಹೇಳಿಕೆಯು	-6978
▁ಮೌಲ್ಯಮಾಪಕರಿಗೆ	-6979
ಐಎಸ್	-6980
▁ಗ್ಯಾರ	-6981
ಡಿಯನ್ನು	-6982
▁ತರಲಾಗಿದೆ	-6983
▁ವಿನಂತಿಯನ್ನು	-6984
▁ಸಂಚಿಕೆ	-6985
▁ವರದಿಗಳು	-6986
▁ಎಕ್ಸ್ಚೇಂಜ್	-6987
▁ತೋಟ	-6988
▁ಸೆಬಿ	-6989
▁ಚಿಕಿತ್ಸೆಯ	-6990
▁ರಚನೆಯನ್ನು	-6991
▁ಅಭ್ಯರ್ಥಿಗಳಿಗೆ	-6992
▁ಹಿತಾಸಕ್ತಿಗಳನ್ನು	-6993
▁ಬಲವನ್ನು	-6994
▁ಸಹಾನುಭೂ	-6995
▁ಹಿಡುವಳಿ	-6996
▁ಅನುಗುಣವಾದ	-6997
▁ಪ್ರತಿನಿಧಿ	-6998
▁ವಿವಾದಕ್ಕೆ	-6999
▁ನಿರ್ಬಂಧಿಸಲಾಗಿದೆ	-7000
▁ir	-7001
ಗಳಂತಹ	-7002
▁ಅಶೋಕ್	-7003
▁ಬಾಲಾಪರಾಧಿ	-7004
▁ಕೇಳಿದ್ದೇವೆ	-7005
▁ವಿವೇಚನೆಯಿಂದ	-7006
▁ಅಮ್ರ	-7007
▁ಸಿಎಸ್	-7008
▁ತಿಳಿದುಬಂದಿದೆ	-7009
▁ಉದಾರ	-7010
▁ಮನವಿಯಲ್ಲಿ	-7011
▁ಸಮಂಜಸವಾಗಿ	-7012
▁ಕಮಿ	-7013
▁ದೀಪ	-7014
ಹರ್	-7015
ನ್ನುವ	-7016
▁ತ್ಯಾಜ್ಯ	-7017
▁ಸಾಧಿಸುವ	-7018
▁ತಿಂಗಳಿಗೆ	-7019
▁ಇತ್ತೀಚೆಗೆ	-7020
▁ಮುಂದುವರೆದ	-7021
ವಕ	-7022
ಸಿಗೆ	-7023
▁ಪಾಲು	-7024
▁ಅನುಸರಿಸಿ	-7025
▁ರವಾ	-7026
▁ದರ್ಜ	-7027
▁ನಡೆಸಿದರು	-7028
ಾಚ	-7029
ನಾಶ	-7030
ಿಡಲು	-7031
▁ದಿವ	-7032
ಂಟಿಯಾಗಿ	-7033
▁ಒಪ್ಪಂದಗಳನ್ನು	-7034
▁ಕಾವ	-7035
▁ಅಲ್ಟ್ರಾ	-7036
▁ಮಗುವನ್ನು	-7037
ಡಿಆರ್	-7038
▁ನಾಯಕ	-7039
▁ಏನನ್ನೂ	-7040
▁ಆತನನ್ನು	-7041
▁ಶಿಕ್ಷಕರು	-7042
▁ಕಡ್ಡಾಯವಾಗಿ	-7043
▁ನಿರ್ದೇಶನಗಳು	-7044
▁ಅಭಿವೃದ್ಧಿಯನ್ನು	-7045
▁ಸರೋ	-7046
▁ಮಿಲಿ	-7047
▁ಹೇರುವ	-7048
▁ತೋರಿಸುವ	-7049
▁ನಿರ್ದೇಶಕ	-7050
▁ಪರಿಹಾರವು	-7051
▁ಅಲ್ಪಸಂಖ್ಯಾತ	-7052
▁ಚಂಡೀಗ	-7053
ಿದ್ದಾಳೆ	-7054
▁ಗಮನಿಸಿ	-7055
ಿಯವರ	-7056
▁ಗಾಯದ	-7057
▁ಯಾಂತ್ರ	-7058
▁ಇರಬಾರದು	-7059
▁ಘೋಷಿಸಲು	-7060
▁ಸಾಕ್ಷಿಯಾಗಿ	-7061
▁ಅಸ್ತಿತ್ವದಲ್ಲಿ	-7062
▁ಪ್ರಸ್ತುತವಾಗಿದೆ	-7063
▁ವರ್ಗಗಳ	-7064
▁ಪೂರ್ಣಗೊಳಿಸಲು	-7065
ಪಾಲ್	-7066
▁ರಾಯ್	-7067
▁ಯುಎನ್	-7068
▁ಪರಮಾಣು	-7069
▁ದಯವಿಟ್ಟು	-7070
▁ವರದಿಗಳನ್ನು	-7071
▁ಭಾರತ್	-7072
▁ಬಹುಮತದ	-7073
▁ಬ್ಯಾಚ್	-7074
▁ಪಾಯಿಂಟ್	-7075
ಲಾಗುತ್ತಿದೆ	-7076
▁ಕೊನೆಯಲ್ಲಿ	-7077
▁ಸಮಾಜದಲ್ಲಿ	-7078
▁ಹೇಳಿಕೆಗಳು	-7079
.00	-7080
▁ಅಡೆ	-7081
ಪ್ಯಾರಾ	-7082
ಟ್ಟುಹಾಕ	-7083
▁ಟ್ರ್ಯಾ	-7084
▁ಬದಿಗಿಡ	-7085
▁ಪತ್ರಗಳನ್ನು	-7086
ಡಿಕಾ	-7087
▁ಸೇವಕನ	-7088
▁ಪ್ರಪಂಚ	-7089
▁ರಚಿಸಲು	-7090
ಗೊಳಿಸಲಾಯಿತು	-7091
▁ವಿಧಿಸುತ್ತದೆ	-7092
ಂಡಾ	-7093
▁VII	-7094
▁ಬಂದು	-7095
▁ಭಾಗಕ್ಕೆ	-7096
▁ಪಾರದರ್ಶಕ	-7097
▁ಕಾಪಾಡಿಕೊಳ್ಳಲು	-7098
▁ತ್ರ	-7099
ದಲ್ಲೇ	-7100
ಕಾರ್ಡ್	-7101
▁ರಹಸ್ಯ	-7102
▁ಪ್ರಮಾಣವಚ	-7103
▁ಪ್ರಶ್ನೆಗಳಿಗೆ	-7104
ಗೊಳಿಸಲಾಗುತ್ತದೆ	-7105
▁ಪ್ರಯತ್ನಿಸುತ್ತದೆ	-7106
ಕೇತ	-7107
ಾಂಗ	-7108
▁ಕೌರ್	-7109
▁ತಾವು	-7110
ಿಯಾಗುವ	-7111
▁ಕ್ಲಬ್	-7112
ಶಿಷ್ಟ್ಯ	-7113
▁ಅತಿಯಾದ	-7114
ಾಗಿರುವುದು	-7115
▁ಕ್ಷೇತ್ರದ	-7116
▁ಉತ್ಪಾದನೆಯ	-7117
▁ಉತ್ಪನ್ನಗಳು	-7118
▁ಬೌದ್ಧ	-7119
▁ಸಂಕೇತ	-7120
▁ದಿವಂಗತ	-7121
▁ಸಲ್ಲಿಕೆಗೆ	-7122
▁ಉದ್ದೇಶಿಸಿರುವ	-7123
▁ಉದಾ	-7124
▁ನಂದ	-7125
▁ಶೀಟ್	-7126
▁ೀಕರಿಸಲು	-7127
▁ಕೆಲಸಕ್ಕೆ	-7128
▁ಖರೀದಿಸಲು	-7129
ಮೀರ	-7130
▁ಸೊ	-7131
ಿಹಾಕ	-7132
▁ಅಡಚ	-7133
ಪರೀಕ್ಷ	-7134
ಿಸದಂತೆ	-7135
▁ಪೂರ್ವಾ	-7136
▁ಪ್ರೀಮಿಯಂ	-7137
▁ಅರ್ಜಿಗಳಲ್ಲಿ	-7138
▁ವಜಾಗೊಳಿಸಲಾಯಿತು	-7139
▁ಯುರೋ	-7140
▁ಕಪ್ಪು	-7141
▁ಕಳೆದು	-7142
▁ಯಶಸ್ಸ	-7143
▁ಮುಗಿಯುವ	-7144
▁ಹೆಯನ್ನು	-7145
▁ಮಾತನಾಡುವ	-7146
▁ಗಮನಿಸಿದರೆ	-7147
▁ಕ್ರಿಯಾತ್ಮಕ	-7148
▁ನಿರ್ಧರಿಸಬೇಕು	-7149
▁ಅಸ್ತಿತ್ವವನ್ನು	-7150
ೃಶ್ಯ	-7151
▁ಕೀಟ	-7152
ವರಿಂದ	-7153
▁ಹೋರಾಟ	-7154
▁ಡೇಟಾವನ್ನು	-7155
▁ನೀಡಿದ್ದರು	-7156
▁ಸ್ಟ್ರ	-7157
▁ಸಿಪಿಸಿ	-7158
▁ತಿಳಿದಿಲ್ಲ	-7159
▁ವೈಶಿಷ್ಟ್ಯ	-7160
▁ಸಾಧ್ಯವಾಗದ	-7161
▁ಸಂಖ್ಯೆಯಲ್ಲಿ	-7162
▁ಓದಬೇಕು	-7163
▁ವರ್ಷಗಳಿಂದ	-7164
▁ನೆನಪಿನಲ್ಲಿ	-7165
ೋಷ್	-7166
▁ಧನ	-7167
▁ಗಂಗ	-7168
▁ಘಟನೆಗಳ	-7169
▁ಬಂಡವಾಳದ	-7170
▁ವಿವೇಚನೆಯ	-7171
▁ಸೂಚನೆಗಳನ್ನು	-7172
ಒಂದು	-7173
▁ಪಾಟ್	-7174
▁ಪ್ರಸರಣ	-7175
ಪ್ರತಿವಾದಿ	-7176
▁ಕಾರ್ಯಕ್ರಮದ	-7177
▁ನಿರ್ಣಯಿಸಲು	-7178
▁ಸಲ್ಲಿಸಿದ್ದು	-7179
▁ಸಾಬೀತುಪಡಿಸುವ	-7180
▁ಫಂಡ್	-7181
▁ಬಾಗಿ	-7182
▁ಷೇರುಗಳ	-7183
▁ಒರಿಸ್ಸಾ	-7184
▁ಅದರೊಂದಿಗೆ	-7185
▁ಪರೋಕ್ಷವಾಗಿ	-7186
▁ಮಹತ್ವವನ್ನು	-7187
▁ವ್ಯಾಪಕವಾಗಿ	-7188
▁ಏನಾದರೂ	-7189
▁ಅರ್ಜಿಗಳ	-7190
▁ಸೆಂಟ್ರಲ್	-7191
▁ವಿಚಾರಣೆಗಳು	-7192
▁ಮಗು	-7193
ಾಗಬೇಕು	-7194
▁ಬಿಲ್ಡರ್	-7195
▁ವಲಯದಲ್ಲಿ	-7196
▁ದೀರ್ಘಕಾಲದ	-7197
▁ಮೇಲ್ವಿಚಾರಣಾ	-7198
▁ಹೆಚ್ಚಿಸುತ್ತದೆ	-7199
ಸ್ವ	-7200
ಿಂದರ್	-7201
▁ಜಸ್ಟ	-7202
▁ಫೋನ್	-7203
ುತ್ತಿವೆ	-7204
ಭು	-7205
▁ಯುಕೆ	-7206
▁ಹರಾಜ	-7207
▁ದ್ವೇಷ	-7208
▁ಕಾಶ್ಮೀರ	-7209
▁ಮುಂಚೆಯೇ	-7210
▁ಪ್ರವೃತ್ತ	-7211
▁ಮನಸ್ಸನ್ನು	-7212
▁ಪರಿಗಣಿಸಬೇಕಾದ	-7213
▁VI	-7214
ಕಾಡೆ	-7215
▁ಸ್ವಭಾವದ	-7216
▁ರಕ್ಷಿಸುವ	-7217
▁ಆಗಿರುತ್ತದೆ	-7218
▁ಭಿನ್ನವಾಗಿದೆ	-7219
ಖಿಲ	-7220
▁ಎಎ	-7221
▁ನೀರನ್ನು	-7222
▁ಸ್ಥಿತಿಯ	-7223
▁ವಿವರಿಸಲು	-7224
▁ಪ್ರಾಮಾಣಿಕ	-7225
▁ಉದ್ದೇಶವಾಗಿದೆ	-7226
ಂತು	-7227
ಯಾನ	-7228
▁ಹರ	-7229
▁ನಿಧನ	-7230
▁ಸಮಸ್ಯೆ	-7231
▁ಬಾಡಿಗೆಗೆ	-7232
▁ಐಒ	-7233
▁ಸುಗಮ	-7234
▁ಮೆಟ್ರ	-7235
▁ಯೋಗಕ್ಷೇ	-7236
▁ಹಿಂಪಡೆಯಲು	-7237
▁ತಿಳಿಸಲಾಯಿತು	-7238
▁ವಾದಿಸುತ್ತಾರೆ	-7239
▁ಹರಿಯ	-7240
ಿದೊಡ್ಡ	-7241
ೀಲಿಂಗ್	-7242
▁ತಿಳಿಯ	-7243
▁ಧಾನ್ಯ	-7244
▁ಬಾಂಬ್	-7245
▁ಹದಿನೈದು	-7246
▁ಚಲನಚಿತ್ರ	-7247
▁ಬ್ರಿಟಿಷ್	-7248
▁ಪ್ರಯೋಗಾಲಯ	-7249
▁ರಿಜಿಸ್ಟರ್	-7250
▁ಪರಿಶೀಲಿಸುವ	-7251
▁ಜಾಲ	-7252
▁ಭಾಷೆಯ	-7253
▁ಮೂವತ್ತು	-7254
▁ಸುಧಾರಣಾ	-7255
▁ತೃಪ್ತಿಪಡ	-7256
▁ಪ್ರವೇಶಿಸುವ	-7257
▁ದಿನಾಂಕದವರೆಗೆ	-7258
ಿಕಲ	-7259
ಬ್ಯಾ	-7260
ನುವಂಶ	-7261
▁ಒಂಬತ್ತು	-7262
▁ಶುಭಾಶಯಗಳು	-7263
▁ಸರಿಪಡಿಸಲು	-7264
▁ನಿಸ್ಸಂದಿಗ್ಧ	-7265
▁ಸ್ಥಾನಮಾನವನ್ನು	-7266
xx	-7267
ಂಕರ	-7268
▁ಅತಿದೊಡ್ಡ	-7269
▁ಬೇಡಿಕೆಯನ್ನು	-7270
▁ಅಂಗವಿಕಲ	-7271
▁ಪ್ಯಾರಾಗಳಲ್ಲಿ	-7272
▁ಮಾಡಬೇಕಾಗುತ್ತದೆ	-7273
▁ಕಾರ್ಯಕ್ರಮಗಳನ್ನು	-7274
▁ಫೌ	-7275
▁ಜೀವಿತ	-7276
▁ರೋಗಿಯ	-7277
▁ಆನುವಂಶ	-7278
▁ಮುನ್ನು	-7279
▁ಹೆಂಡತಿ	-7280
▁ಮಕ್ಕಳನ್ನು	-7281
▁ವಿಶ್ಲೇಷಣೆ	-7282
▁ದಾಖಲೆಯಲ್ಲಿರುವ	-7283
ve	-7284
ಸೀ	-7285
ಂಡನ್	-7286
ತಿಕವಾಗಿ	-7287
▁ಕಾಂಗ್ರ	-7288
▁ಬಳಕೆಗೆ	-7289
▁ಆಧಾರವನ್ನು	-7290
▁ಕಚೇರಿಯಿಂದ	-7291
▁ಪ್ರಾರಂಭಿಸುವ	-7292
ನ್ನಪ್ಪ	-7293
▁ಹೆಕ್ಟ	-7294
ರೂಪಕ್ಕೆ	-7295
▁ದೇಶಗಳಲ್ಲಿ	-7296
▁ಖಾತೆಗಳನ್ನು	-7297
▁ಸಂಸ್ಥೆಯನ್ನು	-7298
▁ಆವೃತ್ತಿಯನ್ನು	-7299
ದಂದು	-7300
ಿಸ್ಟ್	-7301
▁ಆವರಣದ	-7302
▁ಇಂಡಿಯಾದ	-7303
▁ದಾಖಲಿಸುವ	-7304
▁ಬಯೋಮೆಟ್ರಿಕ್	-7305
▁ನಿಬಂಧನೆಯಲ್ಲಿ	-7306
▁ಚಕ್ರ	-7307
▁ಅಂದಿನ	-7308
▁ಮಕ್ಕಳಿಗೆ	-7309
▁ಪಡೆಯುತ್ತದೆ	-7310
▁ಷರತ್ತುಗಳಲ್ಲಿ	-7311
▁ಅನುಮತಿಸುವುದಿಲ್ಲ	-7312
▁ನದಿ	-7313
ಷ್ಠರೋಗ	-7314
▁ನಿಧಿಯ	-7315
▁ಕಾರ್ಖಾನ	-7316
ೀಕರಣವನ್ನು	-7317
▁ಸಂಪರ್ಕವನ್ನು	-7318
▁ಸೆಕ್ಯುರಿಟೀಸ್	-7319
ಯಿ	-7320
ೋಲಿಯಂ	-7321
್ಯೂಟಿ	-7322
ವಿದೆಯೇ	-7323
▁#	-7324
ಳಿನ	-7325
ೋಗ್ರ	-7326
▁ಅಖಿಲ	-7327
▁ಬಿಎಸ್	-7328
▁ಅಧೀಕ್ಷ	-7329
ವಾಗಿರಬಹುದು	-7330
▁ಕಮ	-7331
▁ಸ್ಕೇ	-7332
▁ರಾಜಧಾನ	-7333
▁ವ್ಯಾನ್	-7334
▁ಅನುಮೋದಿತ	-7335
ಐಗೆ	-7336
▁ಬೊ	-7337
ಿಕಾರಕ	-7338
▁ಮಧ್ಯೆ	-7339
ಎಕ್ಸಾಡ್	-7340
▁ಸರಿಯಾಗಿದೆ	-7341
▁ವಸ್ತುನಿಷ್ಠ	-7342
▁ಮಹಿಳೆ	-7343
▁ಅಪಾಯಕಾರಿ	-7344
▁ರಾಜೀನಾಮೆ	-7345
▁ವಾದಿಸಿದ್ದಾರೆ	-7346
▁ಪ್ರಶ್ನೆಯಾಗಿದೆ	-7347
ಾಗತ	-7348
ಕ್ರಿಪ್	-7349
▁ರಲ್ಲಿರುವ	-7350
▁ಜವಾಬ್ದಾರಿಯುತ	-7351
ಶೇಷ	-7352
▁ಉದ್ಘಾ	-7353
▁ಉಪಾಧ್ಯ	-7354
▁ವೇಳೆಗೆ	-7355
▁ನೀಡುತ್ತವೆ	-7356
▁ಪ್ರದೇಶಗಳನ್ನು	-7357
▁ಮಾರ್ಗಸೂಚಿಗಳು	-7358
ಾತ್	-7359
ೃತಿ	-7360
ಭಾಗದ	-7361
▁ಗಂಟೆಗಳ	-7362
ಚಂದ್ರ	-7363
▁ಆತ್ಮೀಯ	-7364
▁ಸಮರ್ಪಕ	-7365
▁ಅರ್ಜಿಗೆ	-7366
▁ಕಂಡುಕೊಳ್ಳ	-7367
▁ಗುರುತಿಸಿದೆ	-7368
▁ಭವ	-7369
ಶ್ವಾಸ	-7370
ಾಗಿರಬೇಕು	-7371
▁ಕುರಿತಾದ	-7372
▁ದಾಖಲಾತಿ	-7373
▁ಎವಿಡೆನ್ಸ್	-7374
▁ಮರಣದಂಡನೆಯ	-7375
▁ಸಾವನ್ನಪ್ಪ	-7376
್ಯವಸ್ಥ	-7377
▁ಸುಂದರ	-7378
▁ದೂರವಾಣಿ	-7379
▁ಮನೆಯಿಂದ	-7380
▁ಕೇಂದ್ರೀಕರ	-7381
▁ನಿಯಮಗಳಿಂದ	-7382
ಆರ್ಥಿಕ	-7383
▁ಪ್ಯಾಕೇ	-7384
▁ಒಪ್ಪಂದಗಳ	-7385
▁ಪದಗಳಲ್ಲಿ	-7386
▁ಮಾಪ	-7387
ಲ್ಲರೂ	-7388
▁ಉದ್ಘಾಟ	-7389
▁ಆರ್ಥಿಕತೆಯ	-7390
ಿಕೆಗಳು	-7391
▁ಆಸ್ತಿಗಳ	-7392
▁ನಡೆಸುವುದು	-7393
▁ಬೆಳವಣಿಗೆಯನ್ನು	-7394
ಯರ್	-7395
▁ಘಟಕದ	-7396
▁ಉದ್ಯಾನ	-7397
▁ಜ್ಞಾನದ	-7398
▁ಸ್ವಾಗತ	-7399
▁ಇರುವುದರಿಂದ	-7400
▁ಚಟುವಟಿಕೆಗಳ	-7401
▁ಹೆಚ್ಚಾಗಿದೆ	-7402
▁ರೂಪಿಸಲಾಗಿದೆ	-7403
▁ಆಟೋ	-7404
▁ಕೊಂಡ	-7405
▁ಸ್ವಚ್	-7406
▁ಸಂಘಟಿತ	-7407
▁ಪಾವತಿಸಿ	-7408
▁ಸಾಧ್ಯತೆ	-7409
▁ಯಶಸ್ವಿಯಾಗಿ	-7410
▁ವಿಧಿಸುವುದು	-7411
,0	-7412
▁ಅಹ	-7413
▁ಹೀರ	-7414
ಣೆಯಿಂದ	-7415
ಿದಾರರು	-7416
▁ಒಬ್ಬರ	-7417
▁ಖಾತೆಯನ್ನು	-7418
▁ನಡೆಯುತ್ತದೆ	-7419
ಮೈ	-7420
▁ನಂಬಲು	-7421
▁ವಿಳಂಬದ	-7422
▁ಸ್ಮಾರಕ	-7423
▁ಸಬ್ಸಿಡಿ	-7424
▁ಆವರಣವನ್ನು	-7425
▁ಗಾಯಗಳನ್ನು	-7426
▁ಸಿದ್ಧಾಂತದ	-7427
ಿಸಿಕೊಳ್ಳಬೇಕು	-7428
ವಿರಲಿಲ್ಲ	-7429
▁ಕುಷ್ಠರೋಗ	-7430
▁ನಿರ್ಧರಿಸುವಲ್ಲಿ	-7431
ಇದು	-7432
▁ತೆರಳ	-7433
▁ಘೋಷಿಸಿದ	-7434
▁ವೇದಿಕೆಯ	-7435
▁ಸಮಾಲೋಚಿಸಿ	-7436
▁ಅರ್ಹತೆಗಳನ್ನು	-7437
▁ವಿವರಿಸುತ್ತದೆ	-7438
▁ಯಿಂದ	-7439
▁ಸೆಸ್	-7440
ಕ್ಷಣೀಯ	-7441
▁ಅಪವಾದ	-7442
▁ಶೂನ್ಯ	-7443
▁ವಿಭಾಗಗಳು	-7444
▁ಹೊಂದಿರಬಹುದು	-7445
▁ಕಾರ್ಯರೂಪಕ್ಕೆ	-7446
▁ಆಭ	-7447
▁ದುರ	-7448
▁ಭೂಷ	-7449
ಸಾಮಾನ್ಯ	-7450
ೇಕ್ಷಣೀಯ	-7451
▁ಹಾನಿಕಾರಕ	-7452
▁ಕೇಂದ್ರಗಳು	-7453
▁ಪೆಟ್ರೋಲಿಯಂ	-7454
ಮಾಚ	-7455
▁ಠೇವ	-7456
▁ಸಹಜ	-7457
ಸಂಬಂಧ	-7458
▁ಕಿರಿಯ	-7459
ಣಿಯಲ್ಲಿ	-7460
▁ಅನುವಾದ	-7461
▁ಸಂಬಂಧಗಳು	-7462
▁ತಿಳಿಸಿದಂತೆ	-7463
▁ಬಹಿರಂಗಪಡಿಸಿದ	-7464
▁ಹಿಡಿದಿಟ್ಟುಕೊಳ್ಳ	-7465
ೆಕ್ಸ್	-7466
▁ಪ್ರಭುತ್ವ	-7467
▁ಲೋಕಾಯುಕ್ತ	-7468
▁ಕುಂದುಕೊರತೆ	-7469
▁ವೆಚ್ಚದಲ್ಲಿ	-7470
▁ಇಂಡಸ್ಟ್ರೀಸ್	-7471
▁ಪಡೆದುಕೊಂಡಿದೆ	-7472
▁ಲಂಚ	-7473
▁ಯುಟಿ	-7474
▁ವರ್ಣ	-7475
▁ಸವಾಲಿನ	-7476
▁ನಿರ್ಮಿಸಲು	-7477
▁ಹೊಂದಿದ್ದು	-7478
ಯಾದರು	-7479
▁ಠಾಣೆ	-7480
▁ಪದ್ಧ	-7481
ಿಕೊಂಡು	-7482
▁ಅಕಾಡೆ	-7483
▁ಎತ್ತುವ	-7484
▁ಜನಸಂಖ್ಯೆಯ	-7485
▁ಸೂಚಿಸಲಾಯಿತು	-7486
ೋಕ	-7487
▁ಹೋಗಿ	-7488
▁ಹಸಿರು	-7489
▁ಸಮಾಜವು	-7490
▁ಅಪೇಕ್ಷಣೀಯ	-7491
▁ಸಂಗತಿಯನ್ನು	-7492
▁ಪ್ರವಾಸೋದ್ಯಮ	-7493
▁ಪರಿಭಾಷೆಯಲ್ಲಿ	-7494
ಿನಾ	-7495
▁ಅಯ್ಯ	-7496
ವರೆಗಿನ	-7497
▁ಜಂಟಿಯಾಗಿ	-7498
ಾಗಿದ್ದರಿಂದ	-7499
▁ಸ್ವೀಕರಿಸಲಾಗಿದೆ	-7500
▁ಬರಹ	-7501
▁ಹೆಚ್	-7502
▁ತೆರೆದ	-7503
ವ್ಯವಹಾರ	-7504
▁ಚೌಕಟ್ಟು	-7505
▁ಅನ್ವಯವಾಗ	-7506
▁ಸುರಕ್ಷತಾ	-7507
ಪುಟ	-7508
ೀವ್	-7509
್ವಾ	-7510
▁ರಿಪ	-7511
ಯಾಮರಣ	-7512
▁ಏಳನೇ	-7513
▁ಡೈರೆ	-7514
▁ಮಾಲಾ	-7515
▁ಜುಡಿಕಾ	-7516
▁ವಿರೋಧಿ	-7517
▁ಸೌಕರ್ಯ	-7518
▁ಸಾಕ್ಷ್ಯಗಳಿಂದ	-7519
ಂಪು	-7520
ಮಂತ	-7521
▁est	-7522
▁ರಿಟರ್ನ್	-7523
▁ವಿಶಾಲವಾದ	-7524
▁ಅಭ್ಯಾಸವನ್ನು	-7525
▁ವಿಸ್ತಾರವಾಗಿ	-7526
▁ತಿದ್ದುಪಡಿಗಳನ್ನು	-7527
ವಿಡ	-7528
▁ಸಿನ್	-7529
▁ಅನುಸರಿಸುವ	-7530
▁ಚು	-7531
▁ಡೆಪ	-7532
ಾಗಿಯೇ	-7533
▁ಕೋಟಾ	-7534
▁ಅತ್ಯು	-7535
▁ಅಲಿಯಾ	-7536
▁ಉಪಕುಲ	-7537
▁ಉತ್ಪಾದಕ	-7538
▁ಘಟಕಗಳನ್ನು	-7539
▁ಪರೀಕ್ಷೆಯು	-7540
ಲೀಲ	-7541
ುತ್ತಾ	-7542
▁ಪರಿಗಣನೆ	-7543
▁ಹತ್ತಿರದ	-7544
▁ಎಕ್ಸಿಬಿಟ್	-7545
▁ಬದಲಾವಣೆಯನ್ನು	-7546
▁ಆಸ್ಪತ್ರೆಯಲ್ಲಿ	-7547
ುಖ	-7548
gar	-7549
▁(“	-7550
▁ಪೀ	-7551
ತಾನ್	-7552
ವಿಭಾಗದ	-7553
ತೆಯಿಲ್ಲ	-7554
▁ಒಪ್ಪಿದ	-7555
▁ಯೊಂದಿಗೆ	-7556
▁ಕರ್ತವ್ಯಗಳು	-7557
▁ಪಾಲುದಾರಿಕೆ	-7558
▁ಬಯಸುತ್ತೇವೆ	-7559
ರ್ಚ್	-7560
ದಾರನು	-7561
▁ಗೋಚರ	-7562
▁ಅನಿಶ್ಚಿತ	-7563
▁ಪ್ರಾರ್ಥನೆ	-7564
▁ಆಡಳಿತವನ್ನು	-7565
▁ವರ್ಗಾಯಿಸಲು	-7566
▁ಪುನರುಜ್ಜೀವನ	-7567
▁ರದ್ದುಪಡಿಸಲಾಗಿದೆ	-7568
▁ಆಫೀ	-7569
▁ತಿರು	-7570
▁ಶೇಖ್	-7571
ಿಸಿದರೂ	-7572
▁ಧ್ವನಿ	-7573
▁ಇರಿಸಲು	-7574
▁ನಿಯಂತ್ರಣದ	-7575
▁ಕಂಡುಬಂದಿಲ್ಲ	-7576
ಕ್ನ	-7577
▁ಆಫ್ರ	-7578
ಕ್ಸಾದ್	-7579
▁ಖಾತೆಯ	-7580
▁ಲೋಕಸಭ	-7581
▁ಬರುವಂತೆ	-7582
▁ಪಡೆಯಬೇಕು	-7583
▁ಪೂರೈಸುತ್ತದೆ	-7584
▁ಗುರುತಿಸಲ್ಪಟ್ಟ	-7585
▁ಕಾದ	-7586
▁ಪೇಪ	-7587
▁ಆಭರಣ	-7588
ರ್ಜನ್ಯ	-7589
▁ನಿಖರವಾದ	-7590
▁ಅಧಿಕಾರಕ್ಕೆ	-7591
ಟಿಯಾ	-7592
▁ಕಿಂಗ್	-7593
ಿಸಿದ್ದರೂ	-7594
ುದಕ್ಕಿಂತ	-7595
▁ಸರಿಹೊಂದ	-7596
▁ಮಾಡುವಂತೆ	-7597
▁ಅಗತ್ಯವಾಗಿ	-7598
ಿಕೊಳ್ಳುತ್ತದೆ	-7599
▁ಕಂಡುಹಿಡಿಯುವುದು	-7600
ಾಹಿ	-7601
ಶಕ್ತಿ	-7602
▁ಎಸೆಯ	-7603
▁ಚರ್ಚೆ	-7604
▁ಮಸೂದೆಯ	-7605
▁ಸಿಮೆಂಟ್	-7606
▁ತಡೆಯಾಜ್ಞೆ	-7607
▁ಯಂತ್ರೋಪಕರಣಗಳು	-7608
▁ಚಂದ್	-7609
ಂಡೆಂಟ್	-7610
▁ಸಂಘಗಳ	-7611
▁ಖಾತ್ರಿ	-7612
ಿಸಲಾಗಿದೆಯೇ	-7613
▁ಲಾಭಕ್ಕಾಗಿ	-7614
▁ಪೂರ್ಣಗೊಳಿಸಿದ	-7615
ನೀ	-7616
ಎಲ್ಆರ್	-7617
▁ಭೇಟಿಯ	-7618
▁ರಚನಾತ್ಮಕ	-7619
............	-7620
▁ಪ್ರಕರಣವಾಗಿದೆ	-7621
▁१८	-7622
ಬಿಸಿ	-7623
ವಾಗಲು	-7624
▁ನಕ್ಷ	-7625
▁ಸಪ್	-7626
▁ಡೆವಲಪರ್	-7627
▁ಜಾರ್ಖಂಡ್	-7628
▁ವಿವಾದಾಸ್ಪದ	-7629
▁ಸಮತೋಲನವನ್ನು	-7630
▁ರಾಷ್ಟ್ರಪತಿಗೆ	-7631
▁ದುಬೈ	-7632
▁ಇಲ್ಲದ	-7633
ಎಸ್ಸಿಸಿ	-7634
▁ಭಾರತವನ್ನು	-7635
▁ನಿರ್ಧರಿಸಿದೆ	-7636
▁ಫಲಿತಾಂಶವನ್ನು	-7637
ಂಚರ್	-7638
ನಿಯಾ	-7639
▁ಬಗೆಹರ	-7640
▁ಸಂಜಯ್	-7641
▁ತಲುಪಿದ	-7642
▁ೀಕರಿಸುವ	-7643
▁ಆರೋಗ್ಯಕರ	-7644
▁ತಿಳಿದಿದೆ	-7645
▁ಕಳ್ಳಸಾಗಣೆ	-7646
▁ಅಂಗೀಕರಿಸಲಾಗಿದೆ	-7647
ಟ್ಸ್	-7648
್ದಾರ	-7649
▁ಕಷ್ಟಕರ	-7650
ಬಹುದೆಂದು	-7651
▁ಸಮಿತಿಗೆ	-7652
▁ಸಂಬಂಧಿಸಿವೆ	-7653
▁ಪ್ರಮಾಣಪತ್ರದ	-7654
▁ಚಲಾಯಿಸುವಲ್ಲಿ	-7655
▁ಭಾವಿಸುತ್ತೇನೆ	-7656
▁ಪ್ರಶ್ನಾರ್ಹವಾದ	-7657
ra	-7658
ಶೆ	-7659
▁ಕೊಠ	-7660
▁ತಾಣ	-7661
▁ಕಾರಣವಿಲ್ಲ	-7662
▁ಮುನ್ನಾದಿನ	-7663
▁ಉದ್ಯೋಗವನ್ನು	-7664
▁ಇತ್ಯಾದಿಗಳಿಗೆ	-7665
▁um	-7666
▁ಚಿಲ್ಲ	-7667
▁ತಂದೆಯ	-7668
▁ವಾರಗಳ	-7669
▁ಕಾರ್ಖಾನೆ	-7670
▁ಬಳಸಬಹುದು	-7671
▁ಮಂತ್ರಿಗಳ	-7672
▁ಆಗಿರಬಹುದು	-7673
▁ನಿರ್ವಹಣೆಯನ್ನು	-7674
▁ಸಂಪನ್ಮೂಲಗಳನ್ನು	-7675
garh	-7676
ಸೆಲ್	-7677
▁ಒಳಚರ	-7678
▁ದಯಾಮರಣ	-7679
▁ಕಾರ್ಯಗಳ	-7680
▁ಇಡಲಾಗಿದೆ	-7681
▁ಸಮಾಜಕ್ಕೆ	-7682
ಬೇಡಿ	-7683
ಳಿತಾಯ	-7684
ಕೆಯಲ್ಲಿ	-7685
▁ತೀರ್ಪಿಗೆ	-7686
▁ದೇಶಾದ್ಯಂತ	-7687
▁ಪ್ರತಿಸ್ಪಂದ	-7688
▁ಹೊಂದಿದ್ದಾನೆ	-7689
ವರ್ಡ್	-7690
▁ಸ್ಥಾಪಿತ	-7691
▁ಯೋಗಕ್ಷೇಮ	-7692
▁ಉದ್ಯೋಗಿಗಳ	-7693
▁IS	-7694
▁ಬೃಹ	-7695
▁ಕೊಳೆ	-7696
▁ಕ್ಯಾಬ	-7697
▁ತಿರುವ	-7698
ಿಸದಿರಲು	-7699
▁ತರುತ್ತದೆ	-7700
▁ಸಂಗ್ರಹಣೆ	-7701
▁ವರ್ಗಾವಣೆಯನ್ನು	-7702
▁ಅನುಮೋದನೆಯೊಂದಿಗೆ	-7703
▁ಕಾರಣವಾಗುವುದಿಲ್ಲ	-7704
ಮುತ್ತ	-7705
ಿನೆಟ್	-7706
▁ಬ್ರಾ	-7707
▁ದಿಕ್ಕ	-7708
▁ಸಮ್ಮುಖ	-7709
▁ಬಿಡ್ದಾರ	-7710
ಿಸಿದ್ದೇನೆ	-7711
▁ನ್ಯಾಯಮಂಡಳಿಗೆ	-7712
▁ಚಿಹ್	-7713
▁ಸೆಲ್	-7714
▁ಸಹಯೋಗ	-7715
▁ಬೇಸರಗೊಂಡ	-7716
▁ಸ್ಥಾಪನೆಯ	-7717
▁ಆತ್ಮಹತ್ಯೆ	-7718
▁ಉದ್ದೇಶಗಳು	-7719
▁ಶಿಕ್ಷೆಗೊಳಗ	-7720
▁ನೀಡುವುದನ್ನು	-7721
▁ನಡೆಸಲಾಗುತ್ತದೆ	-7722
ವಿಸ್	-7723
▁ಅಶ್	-7724
▁ನೆಹ	-7725
▁ಮಿಸ್	-7726
▁ವಿವೇಕ	-7727
ಸ್ವಾಮ್ಯ	-7728
▁ಅಪಘಾತದ	-7729
▁ಪಡಿಸಿದೆ	-7730
▁ಕಾಯ್ದೆಗೆ	-7731
▁ಸುತ್ತಮುತ್ತ	-7732
ಿಸಲ್ಪಡುತ್ತವೆ	-7733
▁ಎದುರಿಸುತ್ತಿರುವ	-7734
▁ವ್ಯಕ್ತಪಡಿಸಿದರು	-7735
▁ಅಣೆ	-7736
ಮಿಕಸ್	-7737
▁ಗಂಭೀರವಾಗಿ	-7738
▁ಸಂದರ್ಭವನ್ನು	-7739
▁ಸಮ್ಮುಖದಲ್ಲಿ	-7740
▁ಸಾಮರ್ಥ್ಯದಲ್ಲಿ	-7741
ಲಾಂ	-7742
▁ರಂಗ	-7743
▁ಮೈದಾನ	-7744
ಿಸುತ್ತಾ	-7745
▁ಅಸ್ವಸ್ಥ	-7746
▁ಚಿಲ್ಲರೆ	-7747
▁ಪ್ರಕಟವಾದ	-7748
▁ಸಹಾಯದಿಂದ	-7749
▁ಅಭಿಪ್ರಾಯದ	-7750
▁ಪ್ರಕ್ರಿಯೆಗೆ	-7751
▁ಗುಣಲಕ್ಷಣಗಳನ್ನು	-7752
ನ್ವಾ	-7753
▁ಮೇಲ	-7754
ಎಐಆರ್	-7755
ೊಕೇಟ್	-7756
▁ಜೊತೆ	-7757
▁ಸಜ್ಜ	-7758
▁ಲಾಭಾಂಶ	-7759
▁ವ್ಯಾಪಾರದ	-7760
▁ಅತ್ಯುನ್ನತ	-7761
▁ಕಾಂಗ್ರೆಸ್	-7762
▁ಹುಟ್ಟುಹಾಕ	-7763
▁ಒತ್ತಾಯಿಸಲಾಯಿತು	-7764
▁ನಬ	-7765
▁ಗೊಂದಲ	-7766
▁ಕಾಯಿಲೆ	-7767
▁ಘಟನೆಗೆ	-7768
▁ಮಾರುತಿ	-7769
▁ಪ್ರಾರ್ಥನೆಯನ್ನು	-7770
andi	-7771
ಅಂದರೆ	-7772
▁ಬಜೆಟ್	-7773
▁ಸೆಷನ್	-7774
▁ಅಮಿಕಸ್	-7775
▁ಸುತ್ತುವರ	-7776
▁ಸೂಕ್ಷ್ಮವಾಗಿ	-7777
▁ಪೂರ್ವನಿದರ್ಶನ	-7778
▁ಉಂಟುಮಾಡುತ್ತದೆ	-7779
▁ಸಿಸ್ಟ	-7780
▁ಹಕ್ಕಿಲ್ಲ	-7781
▁ಉದ್ಭವಿಸಿದೆ	-7782
▁ಪರಿಸ್ಥಿತಿಗಳು	-7783
ಹ್ತಾ	-7784
▁ನೆರವ	-7785
ಬಹುದಾಗಿದೆ	-7786
ಿಸದಿದ್ದರೂ	-7787
▁ಉಪಕರಣಗಳು	-7788
▁ನಿರ್ಧಾರಗಳ	-7789
▁ಅಭ್ಯರ್ಥಿಯು	-7790
▁ತಿರಸ್ಕರಿಸಿತು	-7791
ಪ್ರಿಯ	-7792
▁ಐಬಿಡ್	-7793
▁ಕ್ರೂರ	-7794
▁ಸಿನ್ಹಾ	-7795
▁ನಿಖರವಾಗಿ	-7796
▁ಪಕ್ಕಕ್ಕೆ	-7797
▁ಹಿರಿತನವನ್ನು	-7798
▁ಕಾರ್ಯವಿಧಾನವು	-7799
▁ನಿರ್ವಹಿಸುವಲ್ಲಿ	-7800
as	-7801
▁ಸಮೀಪ	-7802
▁ಅಭಿಪ್ರಾಯವು	-7803
▁ಅನುಸರಿಸಬೇಕು	-7804
▁ಅಸ್ತಿತ್ವಕ್ಕೆ	-7805
▁ಬಗ್	-7806
▁ರೂಪಾಯಿ	-7807
▁ದೌರ್ಜನ್ಯ	-7808
▁ಮೇಲ್ವಿಚಾರಣೆಯ	-7809
▁ಶಸ್ತ್ರಚಿಕಿತ್	-7810
▁ಚಟುವಟಿಕೆಯನ್ನು	-7811
.]	-7812
▁ಆಚ	-7813
▁ತಹ	-7814
ೈರ್ಯ	-7815
▁ಠಾಣ	-7816
▁ಸೌರ	-7817
▁ಉಳಿತಾಯ	-7818
▁ಷರತ್ತನ್ನು	-7819
ಂಚ್	-7820
ಫ್ರ	-7821
▁ಚೇ	-7822
ಗೆಯೂ	-7823
ಹಚ್ಚ	-7824
ಭಾವಿಕ	-7825
▁ಬೃಹತ್	-7826
▁ಖಾತೆಗಳ	-7827
▁ಮಂಡಿಸಿದ	-7828
▁ಪತ್ತೆಹಚ್ಚ	-7829
ೋಸ್	-7830
▁,,	-7831
▁ರೈಲು	-7832
ಲ್ಯಾಂಡ್	-7833
▁ನೌಕರರಿಗೆ	-7834
▁ಜೀವನದಲ್ಲಿ	-7835
▁ನೇಮಕಾತಿಗೆ	-7836
▁ಹುಟ್ಟಿಕೊಂಡ	-7837
▁ಸಿಟಿ	-7838
▁ಪೆಟ್ಟ	-7839
▁ಸ್ಕೇಲ್	-7840
ತೆಯಿಂದಾಗಿ	-7841
▁ಭೂಮಾಲೀಕರ	-7842
▁ಪರಿಷತ್ತಿನ	-7843
ಇನ್	-7844
ಹರಣ	-7845
ಾಗೆ	-7846
▁ೇದನ	-7847
▁ಅವಮಾನ	-7848
▁ಡಿಆರ್	-7849
▁ಹಡಗಿನ	-7850
▁Chandi	-7851
▁ಎರಡನ್ನೂ	-7852
▁ಏನೆಂದರೆ	-7853
▁ಬಗ್ಗೆಯೂ	-7854
▁ನೀಡಬಾರದು	-7855
▁ನೆಲೆಯಲ್ಲಿ	-7856
▁ಕ್ಯಾಬಿನೆಟ್	-7857
▁ಮೆಡ	-7858
▁ಸೆಟ್	-7859
▁ವರೆಗೆ	-7860
▁ಬರುತ್ತ	-7861
ಿಸಿಯನ್ನು	-7862
▁ಉಳಿದಿವೆ	-7863
▁ಖಾತೆಯಲ್ಲಿ	-7864
▁Chandigarh	-7865
▁ಒಳಗೊಂಡಿಲ್ಲ	-7866
▁ಬೇಗ	-7867
ಮಟ್ಟದ	-7868
▁ಏಕೀಕೃತ	-7869
▁ಪರಿಶೋಧ	-7870
▁ಮಾನವೀಯ	-7871
▁ಟ್ರಾನ್ಸ್	-7872
▁ಅಂಗೀಕರಿಸಲಾಯಿತು	-7873
ಲೊ	-7874
▁ಎಂಬಿ	-7875
▁ಕಾಪಾ	-7876
ಿಕೊಂಡರು	-7877
ುದ್ದೀನ್	-7878
▁ನಿಜಕ್ಕೂ	-7879
▁ವಾದಿಸಲು	-7880
▁ಕರ್ನಾಟಕದ	-7881
▁ಪ್ರಮಾಣವು	-7882
ಿಸುತ್ತಿಲ್ಲ	-7883
▁ಆತ್ಮಸಾಕ್ಷ	-7884
▁ಕಾರ್ಯಕ್ಷಮತೆ	-7885
▁ಸನ್ನಿವೇಶಗಳು	-7886
▁ಪ್ರಶಸ್ತಿಗಳನ್ನು	-7887
▁ಲೀ	-7888
▁ಉಸಿ	-7889
▁ವೇಗವಾಗಿ	-7890
▁ತಳ್ಳಿಹಾಕ	-7891
▁ಸಿದ್ಧಾಂತವು	-7892
▁ಖರೀದಿದಾರರಿಗೆ	-7893
▁ಸಂಸತ್ತಿನಲ್ಲಿ	-7894
ಯಾದರೂ	-7895
▁ಕಲಿಯ	-7896
▁ಸ್ಥಳದ	-7897
▁ಅಂತರ್ಜ	-7898
▁ಸಮೀಕ್ಷೆ	-7899
▁ಪ್ರದೇಶವು	-7900
▁ಠಾಣೆಯಲ್ಲಿ	-7901
▁ಸಲಹೆಗಳನ್ನು	-7902
▁ನಿರ್ಧರಿಸಿತು	-7903
▁ಅನುಷ್ಠಾನಕ್ಕೆ	-7904
▁ಅಳೆಯ	-7905
▁ಸಂಬಂಧಿಕ	-7906
▁ಹಾಜರುಪಡ	-7907
▁ಸಾಕ್ಷ್ಯದ	-7908
▁ಅವಕಾಶವಿದೆ	-7909
▁ಪರಿಣಾಮಗಳು	-7910
▁ಭಾಗಗಳಲ್ಲಿ	-7911
▁ಅನುಮಾನಾಸ್ಪದ	-7912
▁ಮಾಡುತ್ತಿದ್ದ	-7913
▁ಶಿಕ್ಷಿಸಬಹುದಾದ	-7914
ಗುಂಡು	-7915
▁ಲಿಕ್	-7916
ರಿಗಾಗಿ	-7917
▁ನಡಾವಳ	-7918
▁ಅನುಮಾನದ	-7919
▁ಸಂಭಾವ್ಯ	-7920
▁ಇಂಟರ್ನ್ಯಾಷನಲ್	-7921
ಖಂಡ	-7922
▁ಹನ್ನೆ	-7923
ನ್ನುವುದು	-7924
▁ನಡೆಸಿತು	-7925
▁ಕಾಯ್ದೆಯು	-7926
▁ತಡೆಗಟ್ಟಲು	-7927
▁ಸ್ಥಾನದಲ್ಲಿ	-7928
▁ಅವಕಾಶಗಳನ್ನು	-7929
▁ಒತ್ತಾಯಿಸಿದರು	-7930
ಣ್ಯ	-7931
ಷ್ಟಕ	-7932
▁ಗಂಡನ	-7933
▁ವರ್ಮಾ	-7934
▁ವಿಕಸನ	-7935
▁ಸಂಘಗಳು	-7936
▁ಗ್ರಾಹಕರು	-7937
▁ಹೆಕ್ಟೇರ್	-7938
▁ಕಂಡುಹಿಡಿದ	-7939
▁ದೂರುದಾರನು	-7940
▁ಪುನರ್ನಿರ್	-7941
▁ಬೆಂಬಲವಾಗಿ	-7942
▁ಫಿರ್ಯಾದಿದಾರರ	-7943
ಂಕಿತ	-7944
ತ್ತೈದು	-7945
▁ಭೂಷಣ್	-7946
▁ಹೊಡೆತ	-7947
▁ಎಐಸಿಟಿಇ	-7948
ನಿರ್ದಿಷ್ಟ	-7949
ಾವಧಿಯಲ್ಲಿ	-7950
▁ಚುನಾವಣೆಯ	-7951
▁ಅವಕಾಶವಿಲ್ಲ	-7952
▁ಮೌಲ್ಯಮಾಪಕರು	-7953
▁ಕಾರ್ಯಕ್ಷಮತೆಯ	-7954
▁ಶೋಷ	-7955
▁ಪತ್ರಗಳ	-7956
▁ಸಮರ್ಥಿಸಲು	-7957
▁ಗಮನಿಸಿದ್ದೇವೆ	-7958
▁ಸಂಘದ	-7959
▁ಇಲಾಖೆಯು	-7960
▁ಸಂಗತಿಗಳಲ್ಲಿ	-7961
▁ತಿಳಿಸಿದ್ದಾರೆ	-7962
▁ಉತ್ಪನ್ನಗಳನ್ನು	-7963
▁ಪ್ರಾರಂಭಿಸಿದರು	-7964
▁ಮಾರುಕಟ್ಟೆಯಲ್ಲಿ	-7965
▁ಕಾದಂಬ	-7966
▁ಟ್ರಕ್	-7967
▁ತಿಳಿಸುವ	-7968
▁ಅಡ್ವೊಕೇಟ್	-7969
▁ಭಾಷೆಯಲ್ಲಿ	-7970
▁ಸುರಕ್ಷತೆಯ	-7971
▁ನಿರಾಕರಿಸಿತು	-7972
▁ಮೌಲ್ಯಮಾಪಕರಿಂದ	-7973
▁ಪ್ರಬಲ	-7974
▁ಅವನಿಂದ	-7975
▁ಜಾಹೀರಾತ	-7976
▁ದೇವಾಲಯದ	-7977
▁ಹೆದ್ದಾರಿ	-7978
▁ಹುದ್ದೆಗಳು	-7979
▁ಗಮನಸೆಳೆದರು	-7980
▁ರಾಧ	-7981
▁ಅರ್ಪ	-7982
▁ಯುನಿ	-7983
▁ಬಣ್ಣದ	-7984
ಕ್ಕಾಗಿಯೇ	-7985
▁ಆಸ್ಪತ್ರೆಯ	-7986
▁ಮಹಿಳೆಯರಿಗೆ	-7987
ಗಾ	-7988
ಗೋಳ	-7989
▁00	-7990
▁ವಾಗಿ	-7991
ನಿಯಂತ್ರ	-7992
▁ಮಾರ್ಪಡ	-7993
▁ಉದ್ಯಮವು	-7994
▁ರೆಗ್ಯುಲೇಷ	-7995
▁ವಿದ್ಯಾರ್ಥಿ	-7996
▁ಸ್ವಾತಂತ್ರ್ಯವು	-7997
▁ಹಲವು	-7998
▁ಸಂಗೀತ	-7999
ನಾನುಕೂಲ	-8000
▁ತಯಾರಕರು	-8001
▁ಯಾರಾದರೂ	-8002
▁ಮ್ಯಾನೇಜ್	-8003
▁ಅರಿತುಕೊಂಡ	-8004
▁ಮಾರ್ಗಸೂಚಿಗಳ	-8005
▁ಸಲ್ಲಿಸಿದವರು	-8006
ಿಸಿಕೊಳ್ಳುವುದು	-8007
ಡೊ	-8008
ಾಲಾ	-8009
▁ಶವ	-8010
ೋಪಾಯ	-8011
▁ಮದ್ದು	-8012
▁ನೇಮಕಕ್ಕೆ	-8013
▁ಸೇರ್ಪಡೆಗೊಂಡ	-8014
▁ಬಡ್ಡಿಯೊಂದಿಗೆ	-8015
ರಾಮ	-8016
▁ಐದ	-8017
▁ಪರಂಪ	-8018
▁ಪಂಚನಾಮ	-8019
▁ಒಟ್ಟಾಗಿ	-8020
ರಾಗಿರಬೇಕು	-8021
▁ಸರಕುಗಳಿಗೆ	-8022
▁ಮದ್ದುಗುಂಡು	-8023
▁ವಿಧಿಸಲಾಗಿದೆ	-8024
▁ಗುತ್ತಿಗೆದಾರನು	-8025
ec	-8026
▁er	-8027
▁ನೋಯ್	-8028
▁ನಿರ್ಧರಿಸುವಾಗ	-8029
ಣ್ಣೆ	-8030
ಶಿಪ್	-8031
ಪಿಯನ್	-8032
▁ಮಾದಕ	-8033
▁ಸಲಿಂಗ	-8034
▁ತನಿಖೆಗೆ	-8035
▁ಕಂಡುಬಂದಲ್ಲಿ	-8036
▁ಬದಲಾವಣೆಗಳನ್ನು	-8037
▁ಸಂಪಾದ	-8038
▁ಅನಾನುಕೂಲ	-8039
▁ವಕೀಲರನ್ನು	-8040
▁ಉದ್ದೇಶಿಸಲಾಗಿದೆ	-8041
ಬೀರ್	-8042
ಾಡಾದ	-8043
▁ಕಣ್	-8044
▁ಎಕ್ಸ	-8045
▁ಮೃತರ	-8046
▁ಇತರರಿಗೆ	-8047
▁ಪ್ರತಿಭಟ	-8048
▁ನೋಂದಣಿಗೆ	-8049
▁ಚಟುವಟಿಕೆಯ	-8050
▁ನಾವೀನ್ಯತೆ	-8051
▁ವಿವರಿಸಿದೆ	-8052
▁ವಿಸ್ತೀರ್ಣ	-8053
▁ಪ್ರತಿಕ್ರಿಯೆ	-8054
▁ಅಗತ್ಯವಿದ್ದರೆ	-8055
▁ವ್ಯವಹಾರದಲ್ಲಿ	-8056
▁ಅಭಿವೃದ್ಧಿಪಡಿಸಲು	-8057
ಧು	-8058
ರಿನಿಂದ	-8059
▁ಟಾಡಾದ	-8060
▁ಸರೋವರ	-8061
▁ಕಾಯ್ದೆಯಲ್ಲಿ	-8062
▁ಗಮನಾರ್ಹವಾಗಿ	-8063
▁ಪರಿಕಲ್ಪನೆಯು	-8064
▁ನಿರ್ದೇಶಿಸಿತು	-8065
▁ಅರ್ಥಮಾಡಿಕೊಳ್ಳಲು	-8066
ಹಿಂ	-8067
▁ವಿಜಿ	-8068
ಆರೋಪಿಗಳ	-8069
ರನ್ನಾಗಿ	-8070
▁ಪದಾರ್ಥ	-8071
▁ತೋರಿಸಿದೆ	-8072
▁ಖರೀದಿದಾರರು	-8073
ನಾಲ್	-8074
▁ಕಲ್ಲು	-8075
▁ಅನುಕ್ರಮ	-8076
▁ರಾಜ್ಯದಿಂದ	-8077
▁ಮಾಡಬೇಕೆಂದು	-8078
▁ಮುಕ್ತವಾಗಿಲ್ಲ	-8079
ಡೇ	-8080
▁ಕ್ಕೂ	-8081
▁ಸೇರಿದೆ	-8082
▁ಅಪೆಕ್ಸ್	-8083
▁ಮುಸ್ಲಿಂ	-8084
▁ಪೂರ್ಣಗೊಳ	-8085
▁ಮಾಡಿಕೊಟ್ಟ	-8086
▁ಕರ್ತವ್ಯವಾಗಿದೆ	-8087
▁ಭವನದ	-8088
▁ಆಕ್ಸಾಡ್	-8089
▁ಅಸ್ತಿತ್ವದಲ್ಲಿದೆ	-8090
ಣದ	-8091
ಾಗಿವೆ	-8092
▁ಇಲಾಖಾ	-8093
▁ಅಶ್ಲೀಲ	-8094
▁ದೇಶಗಳು	-8095
▁ಅಭ್ಯಾಸದ	-8096
ಿಸಲಾಗಲಿಲ್ಲ	-8097
▁ಉದ್ದೇಶಕ್ಕೆ	-8098
▁ವಿಸ್ತರಿಸುವ	-8099
▁ಅಗತ್ಯಗಳನ್ನು	-8100
▁ಸ್ಥಾಪಿಸುವುದು	-8101
▁ಮೂಡ	-8102
▁ಗ್ರಂಥ	-8103
ಪಕ್ಷಪಾತ	-8104
▁ಅನುಪಾತದ	-8105
▁ಪುರುಷರು	-8106
▁ಸಂಸತ್ತಿಗೆ	-8107
▁ವಜಾಗೊಳಿಸಲು	-8108
▁ಒಪ್ಪಿಕೊಳ್ಳಲು	-8109
▁ಕಾರ್ಯಕ್ರಮವನ್ನು	-8110
▁ಆಮದ	-8111
▁ಭತ್ಯೆ	-8112
ಟಿಯಲ್ಲಿ	-8113
▁ಲಾಭಗಳು	-8114
▁ಉದಾಹರಣೆ	-8115
▁ಶ್ರೀಮಂತ	-8116
▁ನೀಡಬೇಕಾದ	-8117
▁ಸಾಕ್ಷಿಯಾಗಿದೆ	-8118
▁;	-8119
ಗ್ರಹ	-8120
▁ಇದರರ್ಥ	-8121
▁ಸ್ಥಾನದ	-8122
ಿಸುತ್ತದೆಯೇ	-8123
▁ಪರ್ಯಾಯವಾಗಿ	-8124
▁ಹಿತಾಸಕ್ತಿಯನ್ನು	-8125
ಾತರ	-8126
▁ಮನ್ನಾ	-8127
▁ಜನಪ್ರಿಯ	-8128
ಿಕೆಗಳನ್ನು	-8129
▁ತೂಕವನ್ನು	-8130
▁ವಿರುದ್ಧವಾದ	-8131
▁ತಿರಸ್ಕರಿಸಲಾಗಿದೆ	-8132
▁ಪರಿಶೀಲಿಸಲಾಗಿಲ್ಲ	-8133
,,	-8134
▁ಸೆರೆ	-8135
ಾಲಿಟನ್	-8136
▁ಹೆಜ್ಜ	-8137
ಿಸುತ್ತಿವೆ	-8138
▁ತಿರಸ್ಕರಿಸಿದೆ	-8139
ಎಟಿ	-8140
ಾನೆಲ್	-8141
ರಣೆಯಿಂದ	-8142
▁ಸಮಾನತೆ	-8143
▁ರೂಪಾಂತರ	-8144
▁ಸಮಯದವರೆಗೆ	-8145
▁ಪರವಾನಗಿಯನ್ನು	-8146
▁ಬಳಸಲಾಗುವುದಿಲ್ಲ	-8147
ಲಾಗದ	-8148
ುಲ್ಲ	-8149
▁ಘೋಷಿಸಲಾಗಿದೆ	-8150
▁ಸನ್ನಿವೇಶಗಳನ್ನು	-8151
▁ಡ್	-8152
▁ತಯಾರಿಕೆ	-8153
▁ಸಂಸ್ಕೃತಿ	-8154
ತ್ರಾ	-8155
▁ವಾದದ	-8156
▁ಕೇಳುವ	-8157
▁ಇದ್ದರು	-8158
▁ಕೋಷ್ಟಕ	-8159
▁ಪ್ರಿವಿ	-8160
▁ತೀವ್ರವಾದ	-8161
▁ಹಿನ್ನೆಲೆ	-8162
▁ಇರಿಸಲಾಯಿತು	-8163
▁ಪ್ರಾಜೆಕ್ಟ್	-8164
▁ಪ್ರಾಮುಖ್ಯತೆ	-8165
▁ಹೊಂದಿದ್ದೇವೆ	-8166
▁ಸುತ್ತಮುತ್ತಲಿನ	-8167
▁ವಲ	-8168
▁ಅರುಣಾ	-8169
▁ಪ್ರವಾಸಿ	-8170
▁ಸುಧಾರಣೆ	-8171
▁ಮೂಲವನ್ನು	-8172
▁ಒದಗಿಸಬೇಕು	-8173
▁ಕಾರ್ಯಕ್ರಮಗಳು	-8174
▁ಐಡಿ	-8175
▁ಮಲಗ	-8176
▁ಐಎಸ್	-8177
▁ನವೀನ	-8178
ತಿಯಿಂದ	-8179
▁ಗ್ರಾಂ	-8180
▁ನೋಡುವ	-8181
ಗಳಿಲ್ಲದೆ	-8182
▁ಅಧಿವೇಶನ	-8183
▁ಸಂಪತ್ತು	-8184
▁ಸುಧಾರಿತ	-8185
▁ಮುಂದಿರುವ	-8186
▁ದೀರ್ಘಾವಧಿಯ	-8187
▁ನಡೆಸಲಾಗಿದೆ	-8188
▁ವಿಷಯವೆಂದರೆ	-8189
▁ಜೇ	-8190
▁ಮೇಘ	-8191
ಜಿಂಗ್	-8192
▁ನೋಟು	-8193
▁ವೃದ್ಧ	-8194
▁ಕೋರಿಕೆಯ	-8195
▁ವಿವರಿಸಿದ	-8196
▁ಹಿಡಿದಿಡಲು	-8197
▁ಗುತ್ತಿಗೆಗೆ	-8198
▁ಅನ್ಯಾಯಕ್ಕೊಳಗಾದ	-8199
ವಿಯ	-8200
▁ಖಾತೆಗೆ	-8201
▁ಸಲಹೆಯು	-8202
▁ವಿಮರ್ಶೆ	-8203
▁ನ್ಯಾಯಾಂಗವು	-8204
▁ತಿದ್ದುಪಡಿಗೆ	-8205
ಬಲ್ಯ	-8206
ಿಮನ್	-8207
▁ಸವಕ	-8208
▁ರೂಪು	-8209
▁ಧೈರ್ಯ	-8210
▁ಚಾನೆಲ್	-8211
▁ಶಾಸನಗಳ	-8212
▁ಖಾತರಿಪಡಿಸುವ	-8213
▁ಸಲ್ಲಿಸುವಲ್ಲಿ	-8214
▁ಇತ್ಯರ್ಥಪಡಿಸಿದ	-8215
▁ಅಭ್ಯರ್ಥಿಗಳನ್ನು	-8216
ಕೋರ	-8217
ಕಗಳು	-8218
ಪಾಲು	-8219
▁ಐಆರ್	-8220
▁ಅಪಹರಣ	-8221
ಕಗಳನ್ನು	-8222
▁ಕೊರತೆಯ	-8223
▁ಸ್ನೇಹಪರ	-8224
▁ಅಭಿವ್ಯಕ್ತ	-8225
▁ಭಾಗಗಳನ್ನು	-8226
▁ಕಟ್ಟಡವನ್ನು	-8227
▁ಕೃತ್ಯವನ್ನು	-8228
▁ಪ್ರಾಮುಖ್ಯತೆಯ	-8229
▁ಅನುಮತಿಸುತ್ತದೆ	-8230
▁ನಿರ್ಧರಿಸಲಾಯಿತು	-8231
ಡಿಲ	-8232
ನೆಸ್	-8233
ಾಪುರ	-8234
▁ಹೋಲ್	-8235
▁ಪ್ರಪಂಚದ	-8236
▁ಲಿಕ್ವಿಡ	-8237
▁ಸ್ವೀಕಾರಾರ್ಹವಲ್ಲ	-8238
tic	-8239
ಪಿಎಫ್	-8240
ಶಾನ್ಯ	-8241
▁ತಲೆಯ	-8242
▁ಮೀರದ	-8243
▁ಹೊರಬ	-8244
ರೇಂದ್ರ	-8245
▁ಗಾಯಗಳ	-8246
▁ವಿಧಾನಗಳು	-8247
▁ಎನ್ನುವುದು	-8248
▁ನಿಬಂಧನೆಗೆ	-8249
▁ಅನುಕೂಲವಾಗುವಂತೆ	-8250
▁ಅರ	-8251
ಂಟೆಂಟ್	-8252
▁ಅಷ್ಟೇ	-8253
▁ಚಿನ್ನದ	-8254
▁ತಜ್ಞರು	-8255
▁ಫ್ಲ್ಯಾ	-8256
▁ಆಪರೇಟರ್	-8257
▁ಪರಿಣಾಮವು	-8258
▁ಅಸ್ತಿತ್ವದ	-8259
▁ಪ್ರತಿನಿಧಿಗಳು	-8260
▁ವಿಶ್ವಾಸವನ್ನು	-8261
▁ಅನುಮೋದನೆಯನ್ನು	-8262
is	-8263
▁ನಿರಾಕರಿಸಿದ	-8264
ದಾರ್	-8265
ವಾದುದು	-8266
▁ದ್ವೀಪ	-8267
▁ಖನಿಜಗಳ	-8268
▁ಯುಜಿಸಿ	-8269
▁ಟ್ರಸ್ಟಿ	-8270
▁ನಿರಾಕರಣ	-8271
▁ಪ್ರಾಬಲ್ಯ	-8272
▁ಅನ್ವಯಿಸಲು	-8273
▁ಪ್ರಯೋಜನಗಳು	-8274
▁ಅಧಿಸೂಚನೆಯಲ್ಲಿ	-8275
▁ಸ್ಥಾಪಿಸಲಾಯಿತು	-8276
ತೇಕ	-8277
▁ಜನ್ಮ	-8278
▁ವಿಲೀನ	-8279
ದಾರರಿಂದ	-8280
▁ಹೊರಹೊಮ್ಮುವ	-8281
▁ಅನುಮಾನಗಳನ್ನು	-8282
▁ಪ್ರಾಯೋಗಿಕವಾಗಿ	-8283
▁ಸಂವಿಧಾನದಡಿಯಲ್ಲಿ	-8284
▁ಡಿಸಿ	-8285
ಗುತ್ತಿಗೆ	-8286
▁ತತ್ತ್ವದ	-8287
▁ಆದಾಯಕ್ಕೆ	-8288
▁ಮಾಡಲ್ಪಟ್ಟಿದೆ	-8289
▁ಹೆಚ್ಚುತ್ತಿರುವ	-8290
▁ವಿಫಲರಾಗಿದ್ದಾರೆ	-8291
ಷ್ಕರ	-8292
▁ಮೆಸ	-8293
▁ಆಯುಧ	-8294
▁ಕಾಡು	-8295
▁ಕ್ಯಾಪ್	-8296
▁ಸ್ವಾಮ್ಯದ	-8297
▁ಮಧ್ಯವರ್ತಿ	-8298
▁ಉದ್ಯೋಗದಾತರ	-8299
▁ಸಂಪರ್ಕಿಸಲು	-8300
ೆಲ್	-8301
▁ತುಲ	-8302
▁ನರ್	-8303
ಟೇಶನ್	-8304
▁ನಷ್ಟದ	-8305
▁ಬಹುಪಾಲು	-8306
▁ತತ್ವಗಳಿಗೆ	-8307
▁ಉದ್ದೇಶಿಸಿದೆ	-8308
▁ಐಪಿಸಿಯೊಂದಿಗೆ	-8309
▁ಗುರುತಿಸುತ್ತದೆ	-8310
▁ಚಳ	-8311
▁ನೃ	-8312
ಸ್ಟೆ	-8313
▁XIII	-8314
▁ನಾಥ್	-8315
▁ಸಂಕಟ	-8316
▁ಸಹಕರ	-8317
▁ಸಿಂಗ	-8318
▁mation	-8319
▁ಅಡೆತಡೆ	-8320
▁ಟಿಕೆಟ್	-8321
ೋಪಾಲಿಟನ್	-8322
▁ವಿಭಾಗಗಳ	-8323
ಿಸಬಹುದೆಂದು	-8324
▁ಉಪಾಧ್ಯಕ್ಷ	-8325
▁ಉಳಿಸಿಕೊಂಡ	-8326
▁ನೀಡುತ್ತೇವೆ	-8327
▁ಕಥಾವಸ್ತುವಿನ	-8328
▁ಸಂಗತಿಯೆಂದರೆ	-8329
vii	-8330
▁ಉಪಶ	-8331
ಂಡಮಸ್	-8332
▁ಫೌಂಡ	-8333
▁ಮುನ್ಸ	-8334
▁ಪಾಟ್ನಾ	-8335
▁ಬಹುತೇಕ	-8336
▁ಮರೆಮಾಚ	-8337
▁ಒಳಚರಂಡಿ	-8338
▁ಜೀವನೋಪಾಯ	-8339
▁ಪ್ರತಿಯೊಂದ	-8340
▁ವರದಿಯಾಗಿದೆ	-8341
▁ಲಿಕ್ವಿಡೇಟರ್	-8342
▁ಕಳವಳ	-8343
▁ಮತದಾನದ	-8344
▁ಅರ್ಥವಲ್ಲ	-8345
▁ಘಟಕವನ್ನು	-8346
▁ಸ್ವತಂತ್ರವಾಗಿ	-8347
####	-8348
▁ಕನ್ಸ	-8349
▁ತೆರೆ	-8350
▁ತಾಯಿಯ	-8351
▁ಹೊಂದಿರದ	-8352
▁ಅಂಗಸಂಸ್ಥೆ	-8353
▁ಸುವ್ಯವಸ್ಥ	-8354
ಾನಯನ	-8355
▁ಆಚರಣೆ	-8356
▁ಕರುಣೆ	-8357
▁ದತ್ತಿ	-8358
▁ಪ್ರಯತ್ನಗಳು	-8359
▁ಪ್ರಯತ್ನವನ್ನು	-8360
ಐಒ	-8361
ವೊ	-8362
ಜೀವಿ	-8363
▁ಪೋರ್	-8364
▁ವಿಧಿಗಳ	-8365
▁ಬೆಂಬಲಿಸಿ	-8366
▁ಕೃತ್ಯಗಳನ್ನು	-8367
▁ಖಚಿತಪಡಿಸುತ್ತದೆ	-8368
ಟೋ	-8369
▁ತಡ	-8370
▁ಎಂಸಿ	-8371
▁ಭಾರಿ	-8372
▁ತೆಗೆಯ	-8373
▁ಮೀರಬಾರದು	-8374
▁ಮಾಡಬೇಕಾಗಿದೆ	-8375
ಗೇರಿ	-8376
▁ಹಾಲು	-8377
▁ಮುನ್ಸೂಚ	-8378
▁ಪ್ರಮಾಣಿತ	-8379
▁ಸಮಸ್ಯೆಗಳ	-8380
ga	-8381
ಉದಾ	-8382
ಪಟ್ಟರೆ	-8383
▁ಮಣ್ಣಿನ	-8384
▁ಮತದಾರರ	-8385
▁ಓದುವಿಕೆ	-8386
▁ದಿನಗಳವರೆಗೆ	-8387
▁ಮೊಕದ್ದಮೆಗೆ	-8388
▁ನಡೆಯುತ್ತಿರುವ	-8389
ರಚ	-8390
▁ಕುರು	-8391
ಂತಿಲ್ಲ	-8392
ಗೊಳಗಾದ	-8393
▁ನೀಡದೆ	-8394
▁ಪೇಪರ್	-8395
▁ಮೆಹ್ತಾ	-8396
▁ಮಿಲಿಟರಿ	-8397
▁ವಿಜಿಲೆನ್ಸ್	-8398
▁ಅಗತ್ಯವಿರುವಂತೆ	-8399
ಲೋಕ	-8400
ುವೆ	-8401
ಲೈಟ್	-8402
್ಯಾಮ್	-8403
▁ಇಲಾಖೆಗೆ	-8404
▁ಆಧಾರವಾಗಿ	-8405
▁ಖರೀದಿಸಿದ	-8406
▁ನಾಗರಿಕರು	-8407
ಿಸಬಹುದಾಗಿದೆ	-8408
▁ತಾರತಮ್ಯವನ್ನು	-8409
▁ರೂಪಾಯಿಗಳನ್ನು	-8410
ಗಾರರು	-8411
▁ಕೆಜಿ	-8412
▁ಸಡಿಲ	-8413
▁ಆದರ್ಶ	-8414
▁ದರ್ಜೆಯ	-8415
▁ದಿನಗಳು	-8416
▁ಪ್ರಮಾಣವಚನ	-8417
ಂಕು	-8418
ಕಮ್	-8419
tive	-8420
ಭದ್ರ	-8421
▁ಅಧ್ಯಯ	-8422
▁ಪ್ರಗತಿಯ	-8423
▁ತುಲನಾತ್ಮಕ	-8424
▁ನೇಮಿಸಲಾಯಿತು	-8425
▁ಅರ್ಥಮಾಡಿಕೊಂಡ	-8426
ಬರ	-8427
▁ಮಣಿ	-8428
▁ಘನತೆ	-8429
▁ಕೈಬಿಡ	-8430
ಿದಾರರಿಗೆ	-8431
▁ಪ್ರತಿಯನ್ನು	-8432
▁ಉತ್ಪಾದನೆಯನ್ನು	-8433
ವಲೋಕನ	-8434
▁ಕೇಳಲು	-8435
▁ಅವಲಂಬಿತವಾಗಿದೆ	-8436
▁ಕುಶಲ	-8437
▁ಪ್ರೆ	-8438
ಗೊಳಿಸಿ	-8439
▁ಅನಿಲ್	-8440
▁ಕಾಳಜಿಯ	-8441
▁ಸೀಲಿಂಗ್	-8442
▁ಸೊಸೈಟಿಯ	-8443
▁ಹೊರಗಿಡುವ	-8444
▁ಡಿಡಬ್ಲ್ಯೂ	-8445
▁ಸತ್ಯಗಳನ್ನು	-8446
▁ನಿಶ್ಚಿತಾರ್ಥ	-8447
▁ಪಾಲ್ಗೊಳ್ಳುವ	-8448
▁ಕ್ಷೇತ್ರವನ್ನು	-8449
▁ಪ್ರಕರಣವೆಂದರೆ	-8450
ಾಂತ್	-8451
▁ತ್ತ	-8452
▁ಮೆರವ	-8453
ನಾಗಿದ್ದ	-8454
▁ಸೆಂಟರ್	-8455
▁ಫ್ಲ್ಯಾಟ್	-8456
▁ಅಧಿಕಾರವಿಲ್ಲ	-8457
ಇಎಸ್	-8458
▁ಗೋಪ	-8459
▁ಠಾಕ	-8460
▁ವಿವಾ	-8461
▁ನಿಜವಾಗಿ	-8462
▁ಬಿಟ್ಟುಬಿಡ	-8463
▁ಹಕ್ಕುದಾರನು	-8464
▁ಹೇಳಿರುವಂತೆ	-8465
▁ಸೇರಿಸಲಾಯಿತು	-8466
▁ತಡೆಗಟ್ಟುವಿಕೆ	-8467
ಾಪೂರ್ವ	-8468
▁ಡಿವಿಷನ್	-8469
▁ಗಂಭೀರವಾದ	-8470
▁ಮಹಾನಿರ್ದೇಶ	-8471
▁ವಾಸ್ತವಿಕವಾಗಿ	-8472
▁ಅನುಸರಿಸುತ್ತದೆ	-8473
ಿರಾ	-8474
▁....	-8475
▁ಬ್ಯೂ	-8476
▁ಮೆಮೋ	-8477
▁ದಿನಾಚ	-8478
▁ಸಮನಾದ	-8479
▁ಮೊದಲನೆಯ	-8480
▁ಪ್ರಾಣಿಗಳ	-8481
ೋಹ	-8482
▁ಶೋ	-8483
▁ಉದಯ	-8484
▁ದೃಶ್ಯ	-8485
▁ತ್ತೀಸ್	-8486
ಿಸಲ್ಪಡುವ	-8487
▁ಅಂಶಕ್ಕೆ	-8488
▁ಪ್ರಯತ್ನಿಸಿದರು	-8489
▁ಮೆಟ್ರೋಪಾಲಿಟನ್	-8490
ದಂತಹ	-8491
ಸ್ಸು	-8492
▁ಅಂಡರ್	-8493
ಕೆಟಿಂಗ್	-8494
▁ಒಳಪಡುವ	-8495
▁ಜಾಗೃತಿ	-8496
▁ಒಪ್ಪಿಗೆಯೊಂದಿಗೆ	-8497
ೇನ್	-8498
▁ಅರವ	-8499
▁ಸಾಹ	-8500
ಆಕ್ಟ್	-8501
ಪ್ರತಿವಾದ	-8502
▁ಪ್ರಧಾನಿ	-8503
ಾಗಿದ್ದಲ್ಲಿ	-8504
▁ಮಾಲೀಕರಿಗೆ	-8505
▁ಕಟ್ಟುನಿಟ್ಟಾದ	-8506
▁ಉಲ್ಲಂಘನೆಯನ್ನು	-8507
▁ಸೃಷ್ಟಿಸುತ್ತದೆ	-8508
▁ಕಾರ್ಯಕ್ಷಮತೆಗಾಗಿ	-8509
▁ಖಾತರ	-8510
▁ಲೋಡ್	-8511
▁ಈಶಾನ್ಯ	-8512
▁ಆಗಿರಬೇಕು	-8513
▁ರಕ್ಷಣೆಗೆ	-8514
▁ಗುತ್ತಿಗೆದಾರರ	-8515
ಮೃತ	-8516
ಾಂವ್	-8517
▁ಎಳೆಯ	-8518
ಸ್ವಾಮಿ	-8519
▁ಪೋಷಕರ	-8520
▁ಲೇಖನದ	-8521
▁ಆಫೀಸರ್	-8522
▁ಕರೆನ್ಸಿ	-8523
▁ಗರ್ಭಪಾತ	-8524
▁ಬಂಧಿಸುವ	-8525
▁ಸೂಚ್ಯಂಕ	-8526
▁ಕೊಳೆಗೇರಿ	-8527
▁ಉಲ್ಲಂಘಿಸಿ	-8528
▁ಅಧ್ಯಾಯದಲ್ಲಿ	-8529
▁ನಿಷ್ಪಕ್ಷಪಾತ	-8530
▁ಅಧಿಕಾರಿಗಳಿಂದ	-8531
ಡನ್	-8532
▁ಷಾ	-8533
ಾಗಾರ	-8534
▁ಇಂದಿನ	-8535
▁ಹೋಗುವ	-8536
▁ಉಪಸ್ಥಿತ	-8537
▁ಪಕ್ಷಪಾತ	-8538
▁ಹುದ್ದೆಯ	-8539
▁ನಿರ್ಮೂಲನೆ	-8540
▁ಶಿಫಾರಸುಗಳ	-8541
ಎಂಎ	-8542
▁--	-8543
▁ಚಹಾ	-8544
▁ಸ್ಯಾ	-8545
▁ಪುರಸಭ	-8546
▁ಬದಲಾಗ	-8547
▁ಗಾಯವನ್ನು	-8548
▁ಸದಸ್ಯರಿಂದ	-8549
▁ಮಧ್ಯಪ್ರದೇಶದ	-8550
▁ವಿವಾದಗಳಿಲ್ಲ	-8551
▁ನ್ಯಾಯಾಲಯಗಳನ್ನು	-8552
▁ಸಲ್ಲಿಸಲಾಗುತ್ತದೆ	-8553
ಯೋಜ	-8554
ನಿಲ್	-8555
ೂರಿನ	-8556
ವಿವಾದ	-8557
▁ಪಿಸ್ತ	-8558
▁ನೋಡಬೇಕು	-8559
▁ತಾರತಮ್ಯದ	-8560
▁ಫೌಂಡೇಶನ್	-8561
▁ನಿಧನರಾದರು	-8562
▁ಸಲ್ಲಿಸುವವರ	-8563
▁ಹಸ್ತಕ್ಷೇಪವನ್ನು	-8564
ಪೊ	-8565
ಕವನ್ನು	-8566
▁ಜಾಗರೂ	-8567
▁ಶಿಫಾರಸನ್ನು	-8568
▁ವಿಶ್ವಾಸವಿದೆ	-8569
▁ಮುನ್ನಾದಿನದಂದು	-8570
ಂಗ್ಲಾದ	-8571
ೂನಿಯರ್	-8572
▁ಅರಿವು	-8573
▁ಹುದ್ದೆ	-8574
▁ನಾರಿಮನ್	-8575
▁ಖರೀದಿದಾರರ	-8576
▁ಮಾಡಿಕೊಡುವ	-8577
▁ಯಾವುದನ್ನೂ	-8578
▁ಹೋಲುತ್ತದೆ	-8579
▁ಅಂಗೀಕರಿಸುವ	-8580
▁ನಿರ್ಲಕ್ಷ್ಯದ	-8581
▁ಪ್ರತಿಗಳನ್ನು	-8582
▁ರಾಜ್ಯಪಾಲರಿಗೆ	-8583
▁ಉದ್ಭವಿಸುವುದಿಲ್ಲ	-8584
ಕ್ರೆ	-8585
▁ಹರ್	-8586
ಮೇರಿಕ	-8587
್ಯಾಟ್	-8588
▁ತಿಳಿಸಿ	-8589
▁ಕಾರ್ಯವು	-8590
▁ಮುಖ್ಯಮಂತ್ರ	-8591
▁ಆಮ್	-8592
▁ಕೈದಿ	-8593
▁ತನಗೆ	-8594
▁ಘನತೆಯ	-8595
▁ಸಂಬಂಧದ	-8596
▁ಸಂಸ್ಕರ	-8597
▁ನಿಯಮಕ್ಕೆ	-8598
▁ದೋಷಾರೋಪಣೆ	-8599
▁ಮಾದರಿಯನ್ನು	-8600
▁ವಿಸ್ತಾರವಾದ	-8601
▁ಸಂಸ್ಥೆಗಳಿಂದ	-8602
▁ಜವಾಬ್ದಾರಿಗಳನ್ನು	-8603
ನಗರ	-8604
ಿತೀಯ	-8605
▁ಕಂತು	-8606
▁ಜಡ್ಜ್	-8607
▁ದತ್ತು	-8608
▁ರಸ್ತೆಯ	-8609
▁ಪ್ರಚಾರದ	-8610
▁ಭದ್ರತೆಯ	-8611
▁ರೆಕಾರ್ಡ್	-8612
▁ಪ್ರಮಾಣೀಕೃತ	-8613
▁ಅನುದಾನವನ್ನು	-8614
▁ಲಭ್ಯವಾಗುವಂತೆ	-8615
▁ವಿಸ್ತರಿಸಬಹುದು	-8616
▁ನಡೆಸಿ	-8617
▁ನೀತಿಯು	-8618
ಿರುತ್ತವೆ	-8619
▁ಅಕೌಂಟೆಂಟ್	-8620
▁ಭಿನ್ನವಾಗಿ	-8621
▁ಹಾಗಿದ್ದಲ್ಲಿ	-8622
▁ಟೇ	-8623
ೊಯ್ಯ	-8624
ಲಾಗುವ	-8625
ಷ್ಣನ್	-8626
▁ಬಡತನ	-8627
▁ರಷ್ಟ	-8628
▁ಶ್ರಮ	-8629
▁ನೌಕರನ	-8630
▁ವಂಚಿತ	-8631
ಂಗ್ಲಾದೇಶ	-8632
▁ನಿರ್ಬಂಧಗಳು	-8633
▁ಸಂಬಂಧಗಳನ್ನು	-8634
ಿಯೊ	-8635
▁ಮೌನ	-8636
ುಲ್ಲಕ	-8637
▁ಪೋಷಕ	-8638
▁ಜಲಾನಯನ	-8639
▁ನೀಡಲ್ಪಟ್ಟ	-8640
▁ಕಾರ್ಮಿಕರಿಗೆ	-8641
ಮಿಯಾ	-8642
ಶ್ರೀ	-8643
▁ಕೋಶ	-8644
▁ಉಕ್ಕ	-8645
▁ಎರಡರ	-8646
▁ನಾಗ್	-8647
▁ಬಳಸಿ	-8648
ಮದಾಬಾದ್	-8649
ಂಟುಮಾಡುವ	-8650
▁ಕೇಂದ್ರೀಯ	-8651
AI	-8652
ಣಾಮ	-8653
ರೀತ	-8654
ಗ್ನಿ	-8655
▁ಅಮೆ	-8656
▁ಪೈಪ್	-8657
▁medic	-8658
▁ಮೀಸಲು	-8659
▁ವಿತ್ತ	-8660
ದ್ದನ್ನು	-8661
▁ಮೇಘಾಲಯ	-8662
ನಿಯಂತ್ರಣ	-8663
▁ಕಾಂಟ್ರಾ	-8664
▁ನಡೆಸಬೇಕು	-8665
▁ಪ್ಯಾಕೇಜ್	-8666
▁ಸಂಸ್ಕರಣಾ	-8667
▁ತಿಂಗಳಲ್ಲಿ	-8668
▁ವಿಸ್ತರಣೆಯ	-8669
▁ನಿಯಂತ್ರಿಸುತ್ತದೆ	-8670
ಮೇನ್	-8671
ಚಟುವಟ	-8672
ಡಬೇಕು	-8673
▁ಎಂಪಿ	-8674
▁ಮನವರ	-8675
▁ಬಳಸುವುದು	-8676
ಾಗಿರುತ್ತದೆ	-8677
▁ಕೊರತೆಯನ್ನು	-8678
▁ವ್ಯಾಪ್ತಿಯು	-8679
▁ಪಡೆಯುತ್ತಾರೆ	-8680
▁ವ್ಯಾಖ್ಯಾನಿಸಲಾದ	-8681
ನಾಥ್	-8682
▁ಓಡಿ	-8683
▁ಕುಲ	-8684
ುಕೊಂಡ	-8685
▁ಸಚಿವ	-8686
▁ಸ್ಕೂ	-8687
▁ಸಾಹಿತ್ಯ	-8688
▁ಪೂರ್ಣಗೊಳಿಸುವ	-8689
ನಿಗ	-8690
ೇಸಿ	-8691
▁ಅದ್	-8692
▁ಆಶಯ	-8693
▁ಚಾಕ	-8694
▁ಯಾರಿ	-8695
▁ಇರಿಸಿದ	-8696
ಗೊಳಿಸಿದರು	-8697
▁ಬೆಂಗಳೂರು	-8698
▁ಪರಿಹಾರಕ್ಕೆ	-8699
▁ಶಿಫಾರಸುಗಳು	-8700
▁ಸಲ್ಲಿಸಿದ್ದರು	-8701
१९	-8702
▁ಭೌಗೋಳ	-8703
▁ಅವಧಿಯು	-8704
▁ಗೋಪಾಲ್	-8705
▁ಘಟನೆಗಳು	-8706
ಿಸಿಕೊಂಡರು	-8707
▁ಕಾಯಿದೆಗಳ	-8708
ಭುತ	-8709
▁ಒಣ	-8710
▁ಕಮಾ	-8711
▁ಕುಡಿಯ	-8712
▁ಹೊಂದುವ	-8713
ವಾಗಿದೆಯೆ	-8714
ಲ್ಲಿದ್ದಾಗ	-8715
▁ಕಾರ್ಯಚಟುವಟ	-8716
▁ಫಿರ್ಯಾದಿಗೆ	-8717
▁ಅರ್ಹರಾಗಿದ್ದಾರೆ	-8718
▁ಎತ್ತರ	-8719
▁ನಾರಾಯ	-8720
ಿಸಲ್ಪಟ್ಟಿಲ್ಲ	-8721
▁ನಂಬಿಕೆಯನ್ನು	-8722
್ರೋ	-8723
ಇಆರ್	-8724
▁hen	-8725
▁ಮುಂ	-8726
▁ಸುದ	-8727
ಲ್ಪನಿಕ	-8728
▁ತಲುಪಲು	-8729
ಭಿವೃದ್ಧಿ	-8730
▁ಮಾರ್ಕೆಟಿಂಗ್	-8731
▁ನಿರ್ವಹಿಸುವುದು	-8732
▁ಸ್ವತ್ತುಗಳನ್ನು	-8733
▁ಹೊಂದಿರುತ್ತಾರೆ	-8734
ಎಡ್	-8735
ಕ್ಷಣದ	-8736
▁ಬದಲಿ	-8737
▁ಅದ್ಭುತ	-8738
▁ದೃಷ್ಟಿ	-8739
▁ಆಡಳಿತವು	-8740
▁ದೂರುದಾರರು	-8741
▁ವಹಿಸಲಾಗಿದೆ	-8742
▁ಚಟುವಟಿಕೆಗಳಲ್ಲಿ	-8743
ವತಿ	-8744
▁ಗೈ	-8745
▁ಮೈಸ	-8746
ಲೆಲ್ಲಾ	-8747
ಾಧಿಕಾರ	-8748
▁ಪಂಗಡದ	-8749
▁ಬೆಳ್ಳ	-8750
▁ನೀಡಿದ್ದ	-8751
▁ಸಬಲೀಕರಣ	-8752
▁ಮಾಲೀಕತ್ವ	-8753
▁ವರ್ಷದಿಂದ	-8754
▁ನಡೆದಿತ್ತು	-8755
▁ವೆಚ್ಚಗಳನ್ನು	-8756
▁ಗುತ್ತಿಗೆಯನ್ನು	-8757
▁ನಿಬಂಧನೆಗಳಲ್ಲಿ	-8758
▁ನ್ಯಾಯಾಧೀಶರಾಗಿ	-8759
▁ಉಲ್ಲೇಖಿಸಿರುವಂತೆ	-8760
ವೈದ್ಯ	-8761
▁ಅನ್ಸ	-8762
▁ದಾರಿ	-8763
ರಿಗಿಂತ	-8764
▁ಕೇರಳದ	-8765
▁ಮನವಿಯು	-8766
▁ಆದೇಶದಂತೆ	-8767
▁ವಿಶ್ವಸಂಸ್ಥ	-8768
▁ಸಂಬಂಧಿಸಿಲ್ಲ	-8769
ಿನ್	-8770
▁ನಿಘ	-8771
ಕ್ಕೊಳಗ	-8772
▁ಸಂತಾನ	-8773
▁ಸೈನ್ಯ	-8774
▁hentic	-8775
▁ಅಪೇಕ್ಷ	-8776
▁ಒಂದನ್ನು	-8777
▁ಬಯಸಿದರೆ	-8778
▁ಇಂದಿನಿಂದ	-8779
▁ನಿರಾಕರಣೆ	-8780
▁ಭಾಗವಹಿಸಲು	-8781
▁ಪ್ರಗತಿಯನ್ನು	-8782
▁ಸಮಾನತೆಯನ್ನು	-8783
▁ಸ್ವಯಂಚಾಲಿತವಾಗಿ	-8784
ಾಧ	-8785
ಟಿಐ	-8786
▁PA	-8787
▁ಎಮ್	-8788
▁ಗೋದ	-8789
ಅನುಬಂಧ	-8790
▁ವಿಮೋಚ	-8791
ವನ್ನಾಗಿ	-8792
ಿಸುವಂತಹ	-8793
▁ಇಡಬೇಕು	-8794
▁ವಾಹನಗಳ	-8795
▁ಅದಕ್ಕಾಗಿ	-8796
▁ಕಾಲ್ಪನಿಕ	-8797
▁ಕ್ಷುಲ್ಲಕ	-8798
▁ನಷ್ಟಕ್ಕೆ	-8799
▁ಆಡಳಿತಕ್ಕೆ	-8800
▁ಭಾಷೆಯನ್ನು	-8801
▁ಪ್ರಜ್ಞಾಪೂರ್ವ	-8802
▁ಯೂನಿ	-8803
▁ಡೊಮೇನ್	-8804
▁ಲೇಖನಗಳ	-8805
▁ಸಂದರ್ಶ	-8806
▁ಉಲ್ಲೇಖವು	-8807
▁ವ್ಯತ್ಯಾಸವು	-8808
▁ಅಧಿಕಾರಿಯಿಂದ	-8809
▁ಕಟ್ಟುಪಾಡುಗಳನ್ನು	-8810
ಹಾರ್ದ	-8811
▁ಸಜ್ಜು	-8812
▁ಜಮೀನಿನ	-8813
▁ಸಲಿಂಗಕ	-8814
▁ವಿತ್ತೀಯ	-8815
▁ಕಳುಹಿಸಿದ	-8816
▁ಬಂಧನಕ್ಕೆ	-8817
▁ರೂಪಿಸಿದೆ	-8818
ಆದ	-8819
ಜ್ಜೆ	-8820
ಪರಿಣಾಮ	-8821
▁ಆಕೆಗೆ	-8822
▁ದೇಹವು	-8823
▁ವಿಪರೀತ	-8824
▁ನೀತಿಗಳು	-8825
▁ವಾದವೆಂದರೆ	-8826
▁ಕಂಪನಿಗಳಿಗೆ	-8827
▁ಪುನರ್ನಿರ್ಮಾಣ	-8828
ಂಗೆ	-8829
ಜಿಯ	-8830
▁ಸೂರ್	-8831
ಸ್ತುಶಿ	-8832
▁ಉಪಶಮನ	-8833
▁ನಷ್ಟು	-8834
▁ಒಳಪಡಿಸುವ	-8835
▁ತಿಳಿಸಿದರು	-8836
▁ಅಧಿಸೂಚನೆಯು	-8837
▁ಕಾಯ್ದೆಯಿಂದ	-8838
ಾಟ್	-8839
▁ಒಡ	-8840
ಹಿಂಸೆ	-8841
ಾನೆಯೇ	-8842
▁ನೃತ್ಯ	-8843
▁ಮಾರ್ಕ್	-8844
▁ಸೌಹಾರ್ದ	-8845
▁ಪ್ರಕಟಣೆಯ	-8846
▁ಸಂಪರ್ಕಿತ	-8847
▁ಆಯುಕ್ತರಿಗೆ	-8848
▁ಪರಿಶೀಲನೆಗಾಗಿ	-8849
ಡಾದ	-8850
ನೋಡಿ	-8851
ಬಾರ್	-8852
▁ಎಸೆ	-8853
▁ಅಮೇರಿಕ	-8854
▁ಗಣಿಗಾರ	-8855
▁ಕೋರಿದರು	-8856
ಿಸದಿದ್ದಾಗ	-8857
▁ಎಚ್ಚರಿಕೆ	-8858
▁ಸಮಿತಿಗಳು	-8859
▁ಹಾನಿಯನ್ನು	-8860
ಿಸಿರುವುದರಿಂದ	-8861
▁ಬಂಧನಕ್ಕೊಳಗಾದ	-8862
▁ಹೊರತೆಗೆಯಲಾಗಿದೆ	-8863
ವೆನ್	-8864
▁ಹಾಸ	-8865
▁ಪ್ರಭ	-8866
▁ಐವತ್ತು	-8867
ಗೊಂಡಿರುವ	-8868
ಿನೊಂದಿಗೆ	-8869
▁ದ್ವಿತೀಯ	-8870
▁ವಾಸ್ತುಶಿ	-8871
▁ಬ್ಯಾಂಕುಗಳ	-8872
▁ಕರೆದೊಯ್ದರು	-8873
▁ನೋಂದಾಯಿಸಲು	-8874
▁ಯೋಜನೆಗಳಿಗೆ	-8875
▁ರೂಪಿಸುವುದು	-8876
▁ಕಂಡುಹಿಡಿಯುವ	-8877
▁ಪ್ರಕ್ರಿಯೆಗಳನ್ನು	-8878
ಡಲು	-8879
▁ದಾಳಿ	-8880
ಪಡಿಸಿದರೆ	-8881
▁ಯೋಜನೆಯಡಿಯಲ್ಲಿ	-8882
▁ಪರಿಶೀಲಿಸಿದ್ದೇವೆ	-8883
▁-.	-8884
▁ತಳ	-8885
ಾಂಶು	-8886
ಬ್ಬಾಳ	-8887
ಂನಲ್ಲಿ	-8888
▁ಸೆಳೆದ	-8889
▁ಉತ್ತರಾ	-8890
▁ಬೆಲೆಗೆ	-8891
▁ದಿನಕ್ಕೆ	-8892
▁ನಬಾರ್ಡ್	-8893
▁ಸಹವರ್ತಿ	-8894
▁ಸೆಕೆಂಡ್	-8895
▁ನಿರ್ಧರಿಸಬಹುದು	-8896
ಕಲ್	-8897
ಲೇಟ್	-8898
ಶಾತ್	-8899
▁ಬಾಲಕ	-8900
▁ಅಧ್ಯಾಪ	-8901
▁ಬ್ಯೂರೋ	-8902
▁ಅಸಹ್ಯಕರ	-8903
▁ಪ್ರಯಾಣಿಕ	-8904
▁ಸ್ಥಿರವಾದ	-8905
▁ನಿರ್ಬಂಧಿತ	-8906
▁ಹಕ್ಕುದಾರರ	-8907
▁ನಿರಾಕರಿಸುವುದು	-8908
▁ಗುರುತಿಸಿದ್ದಾರೆ	-8909
ಸಗ	-8910
▁ಬೀರ	-8911
ವಶಾತ್	-8912
ೈಸೇಶನ್	-8913
▁ಬಿದ್ದ	-8914
▁ಬೆಲೆಯ	-8915
▁ಮೆಗಾವ	-8916
▁ಹೆಜ್ಜೆ	-8917
ಬಹುದಿತ್ತು	-8918
▁ಅಧಿಸೂಚಿತ	-8919
▁ಉಳಿಸಿಕೊಳ್ಳುವ	-8920
▁ಚಟುವಟಿಕೆಗಳಿಗೆ	-8921
▁ms	-8922
ಮಾರು	-8923
▁ಆಲ್	-8924
▁ಟೀಕೆ	-8925
ದಲ್ಲಿಯೂ	-8926
▁ನೇಮಿಸುವ	-8927
▁ಮೆಡಿಕಲ್	-8928
▁ಉಪಕುಲಪತಿ	-8929
▁ಘಟಕಗಳಿಗೆ	-8930
▁ಸಲ್ಲಿಕೆಗಳು	-8931
▁ನಿಖರತೆಯನ್ನು	-8932
▁ನಿರ್ವಹಿಸುವಾಗ	-8933
▁ಇನ್ಫ	-8934
▁ಕ್ರೋ	-8935
▁ಪಡೆಗಳ	-8936
▁ಮನವಿಯ	-8937
ಾಂಶುಪಾಲ	-8938
▁ಉಡುಗೊರೆ	-8939
▁ಚೇತರಿಸಿಕೊಂಡ	-8940
▁ನಿರ್ದೇಶಿಸಿದೆ	-8941
ಸಂಶಯ	-8942
ಸ್ಥಳ	-8943
ುಗಳು	-8944
ೋತ್ಪ	-8945
▁ಸಾಲ್	-8946
▁ಕ್ಲೈಂಟ್	-8947
▁ಸಹಜವಾಗಿ	-8948
▁ನನ್ನನ್ನು	-8949
▁ಪಾವತಿಗಳನ್ನು	-8950
▁ಪ್ರಶ್ನಿಸಿದರು	-8951
▁ವಶಪಡಿಸಿಕೊಳ್ಳುವ	-8952
▁ಮೊಹರು	-8953
▁ಹಾಕಲು	-8954
▁ಗ್ರಾಮದ	-8955
▁ದಬ್ಬಾಳ	-8956
▁ಯುರೋಪಿಯನ್	-8957
▁ಮೆಗಾವ್ಯಾಟ್	-8958
▁ಪಡೆಯುವುದಿಲ್ಲ	-8959
ಚೆ	-8960
▁ಸ್ನ	-8961
ಮ್ಮುಖ	-8962
▁ಭಾಗಿಯ	-8963
▁ಸಾಯುವ	-8964
▁ಪುರಸಭೆಯ	-8965
▁ನಿಸ್ಸಂಶಯ	-8966
▁ಆಹಾರವನ್ನು	-8967
▁ಘಟನೆಯನ್ನು	-8968
▁ವಾರಗಳಲ್ಲಿ	-8969
▁ಸ್ಥಾನಕ್ಕೆ	-8970
▁ತಿರಸ್ಕರಿಸಲು	-8971
ವಾರ್	-8972
▁ಘಟಕವು	-8973
▁ಏಕರೂಪದ	-8974
▁ಸ್ಟೀಲ್	-8975
▁ಚರ್ಚೆಗಳು	-8976
▁ಬಾಂಗ್ಲಾದೇಶ	-8977
▁ಮೂರನೆಯದಾಗಿ	-8978
▁ವಿಭಾಗಗಳಲ್ಲಿ	-8979
at	-8980
ಹ್ರಾ	-8981
ಪೂರಿತ	-8982
▁ಕ್ಷಣ	-8983
▁ಜಾನ್	-8984
▁ಹಾಳು	-8985
ುದಾರರು	-8986
▁ಜಿಲ್ಲೆ	-8987
▁ಮನವಿಗೆ	-8988
▁ಮಾಡುತ್ತ	-8989
▁ಸಂಘರ್ಷದ	-8990
▁ಸದಸ್ಯತ್ವ	-8991
▁ಸಾಲಗಾರನಿಗೆ	-8992
ಿಸಿಕೊಳ್ಳಬಹುದು	-8993
▁ಎಂಒ	-8994
ರುದಿನ	-8995
▁ಕಾರು	-8996
▁ಕ್ರೀಡಾ	-8997
▁ಮಗುವಿಗೆ	-8998
▁ಮಾಲೀಕತ್ವದ	-8999
▁ದೂರುಗಳನ್ನು	-9000
▁ಲು	-9001
ಟಿಪಿ	-9002
ೇಟೆಡ್	-9003
▁ರೊಳಗೆ	-9004
▁ವಿಕಿರ	-9005
▁ಅಡಮಾನದ	-9006
▁ಧನಸಹಾಯ	-9007
▁ಉಪನ್ಯಾಸ	-9008
▁ವೃತ್ತಿಯ	-9009
▁ಸಂದರ್ಶನ	-9010
ರುವುದಿಲ್ಲ	-9011
▁ತೃಪ್ತಿಕರ	-9012
▁ಎಂಬಿಬಿಎಸ್	-9013
▁ಸಮಾರಂಭದಲ್ಲಿ	-9014
ೇಸ್	-9015
▁ಕಡಲ	-9016
▁ಆರ್ಥ	-9017
▁ವೆಂಕ	-9018
▁ಮಂತ್ರ	-9019
▁ರಮೇಶ್	-9020
▁ಶಾಲೆಯ	-9021
▁ಗ್ರೇಡ್	-9022
▁ನೀಡಲಿಲ್ಲ	-9023
▁ಪರಿವರ್ತನೆ	-9024
ಿಸಲ್ಪಟ್ಟಿತು	-9025
▁ಪ್ರಾಂಶುಪಾಲ	-9026
▁ಶೋಧನೆಯನ್ನು	-9027
▁ಮಹತ್ವದ್ದಾಗಿದೆ	-9028
▁ಮೊಕದ್ದಮೆಗಳನ್ನು	-9029
ಲಾಸ್	-9030
▁ಕರಾ	-9031
▁ಅಲ್ಲದ	-9032
ನ್ಯಾಯಾಲಯ	-9033
▁ಪರಿಗಣಿಸುವುದು	-9034
▁ನಿಯಂತ್ರಣದಲ್ಲಿ	-9035
▁ಅಳವಡಿಸಿಕೊಳ್ಳುವ	-9036
▁ವ್ಯವಸ್ಥೆಗಳನ್ನು	-9037
ಸದ	-9038
ಾಪು	-9039
ೋದ್	-9040
ಇಎಲ್	-9041
ರಿಟಿ	-9042
▁ಅಂಬ	-9043
▁ಯುಗ	-9044
▁ಪಿಡಿ	-9045
▁ಮಾರಕ	-9046
▁ರಾಯಧ	-9047
▁ನೋಯ್ಡಾ	-9048
▁ರೆಕಾರ್	-9049
▁ಭೌಗೋಳಿಕ	-9050
▁ಯಶಸ್ವಿಯ	-9051
▁ವಿವರಣೆಯು	-9052
▁ವರ್ಗಗಳಿಗೆ	-9053
▁ಬೇರ್ಪಡಿಸುವ	-9054
▁ಅರ್ಹರಾಗಿರುವ	-9055
▁ವ್ಯವಹಾರಗಳನ್ನು	-9056
ನಾಗ	-9057
ಟರ್ಸ್	-9058
▁ಆನಂದ್	-9059
▁ಸೂಪರ್	-9060
▁ಠಾಣೆಗೆ	-9061
▁ಮರುದಿನ	-9062
▁ಅಲ್ಲಿಗೆ	-9063
▁ನಡೆದಿದೆ	-9064
▁ನೀಡಿದ್ದು	-9065
▁ರೂಪಿಸಿತು	-9066
▁ಅನುಸರಿಸಿದ	-9067
▁ಮಂಡಳಿಯಿಂದ	-9068
▁ಪ್ರವೇಶಕ್ಕೆ	-9069
▁ವಿತರಣೆಯನ್ನು	-9070
▁ತಡೆಯುವುದಿಲ್ಲ	-9071
▁ಕಾನೂನುಬಾಹಿರವಾಗಿ	-9072
▁ಪ್ರತಿಕ್ರಿಯೆಯಾಗಿ	-9073
ನಾಲಯ	-9074
ಷ್ಣು	-9075
▁ಇಸಿ	-9076
ಕ್ಯಾಡೆ	-9077
▁ಚಾಲಕನ	-9078
▁ಕ್ರಿಯೆ	-9079
▁ನೀತಿಗೆ	-9080
▁ಅಪರಾಧಿಯ	-9081
▁ಕಾಮೆಂಟ್	-9082
▁ಅನುಮತಿಸಿತು	-9083
▁ಉದ್ದೇಶವೆಂದರೆ	-9084
▁ಪರಿಶೀಲಿಸಬೇಕು	-9085
▁ಹಣ್	-9086
▁ಕಾಲು	-9087
ಾಗಿನಿಂದ	-9088
▁ಅರ್ಹವಾದ	-9089
▁ಸಂಹಿತೆಯಡಿ	-9090
▁ನಿರ್ದೇಶನಾಲಯ	-9091
▁ನಿರ್ದೇಶಿಸಲು	-9092
ನಸ್	-9093
ಲೆಟ್	-9094
▁ಬಾಕ	-9095
ಪಿಟಲ್	-9096
ೇಟಿಂಗ್	-9097
▁ಸುಟ್ಟ	-9098
▁ವಿವಾದಿತ	-9099
▁ಸಂಸ್ಕೃತ	-9100
▁ನಿಂತಿರುವ	-9101
▁ಷೇರುದಾರರ	-9102
▁ಆಡಳಿತದಲ್ಲಿ	-9103
▁ಪ್ರಶಂಸಿಸಲು	-9104
▁ಗುಣಲಕ್ಷಣಗಳು	-9105
ನಾಗಿರುವುದಿಲ್ಲ	-9106
▁ಅಫಿಡವಿಟ್ನಲ್ಲಿ	-9107
ಪ್ತರ	-9108
▁ಪಿಎಂ	-9109
ಸ್ಟಿಕ್	-9110
▁ಕೆತ್ತ	-9111
▁ಶೇಖರಣ	-9112
▁ಸತ್ಯಗಳ	-9113
▁ಚೌಕಟ್ಟಿನ	-9114
▁ನಲ್ಲಿರುವ	-9115
▁ಸವಾಲುಗಳನ್ನು	-9116
ರಾವ್	-9117
▁ನೆರೆ	-9118
▁ಸಿನೆ	-9119
▁ಬೆಟ್ಟ	-9120
▁ಪಿಸ್ತೂಲ್	-9121
▁ನಡವಳಿಕೆಯು	-9122
▁ಪ್ರವೇಶಿಸಿದ	-9123
▁ನಿಸ್ಸಂಶಯವಾಗಿ	-9124
ಜಿತ	-9125
ಟೆಕ್	-9126
ಪೆಲ್	-9127
▁ಜಗಳ	-9128
ಲ್ಲಿನ	-9129
▁ನಿರ್ಗಮನ	-9130
▁ನಿಷೇಧಿತ	-9131
▁ಮರುಸಂಘಟ	-9132
▁ರಾಜ್ಯಸಭ	-9133
▁ಅಹಮದಾಬಾದ್	-9134
▁ಅಧ್ಯಕ್ಷರಾದ	-9135
▁ಸಂಗತಿಗಳಿಗೆ	-9136
▁ಹಂಚಿಕೆಯನ್ನು	-9137
▁ಅನುಸರಿಸಬೇಕಾದ	-9138
▁ನಿರಾಕರಿಸಲಾಗಿದೆ	-9139
▁ಮಧ್ಯಸ್ಥಗಾರನನ್ನು	-9140
ುವು	-9141
ಂತೀಯ	-9142
▁ಮೀಸಲ	-9143
▁ಠಾಕೂರ್	-9144
▁ನೌಕರನು	-9145
▁ಮನಸ್ಸು	-9146
▁ಇಪ್ಪತ್ತು	-9147
▁ಕಾಯಿದೆಗಳು	-9148
▁ಅಗತ್ಯವಾಗಿದೆ	-9149
▁ಘೋಷಿಸಲಾಯಿತು	-9150
▁ಮೂಲದ	-9151
▁ಜಗತ್ತ	-9152
▁ಪ್ರವಾಹ	-9153
▁ಸಿಸ್ಟಮ್	-9154
▁ಒದಗಿಸಿದೆ	-9155
▁ಖರೀದಿಸುವ	-9156
▁ಅನುಮತಿಸಲು	-9157
▁ಸಂಬಂಧದಲ್ಲಿ	-9158
▁ಕಂಡ	-9159
▁ನೆಲೆಸ	-9160
▁ಕೇಳಿದರು	-9161
▁ವಿಳಂಬವು	-9162
▁ಸಲಹೆಗಾರನು	-9163
▁ಪ್ರಶ್ನಿಸುವ	-9164
▁ಸಂಸ್ಥೆಯಲ್ಲಿ	-9165
ಟಿಕ	-9166
▁ಮಳೆ	-9167
ದಿಂದಲೂ	-9168
▁ಅಕ್ಷರಶಃ	-9169
▁ಆಗಿತ್ತು	-9170
▁ನೇತೃತ್ವದ	-9171
▁ಲಕ್ಷಣಗಳು	-9172
▁ವಿಷಯವಲ್ಲ	-9173
▁ಪಡೆದಿದ್ದಾರೆ	-9174
▁ಅಪರಿ	-9175
▁ಠಾಣೆಯ	-9176
▁ವ್ಯಭಿ	-9177
▁ಸಂಭಾಷ	-9178
ಹಿಕವಾಗಿ	-9179
▁ಕೃತಿಗಳ	-9180
▁ನೋಟೀಸ್	-9181
ಾವಧಿಯನ್ನು	-9182
▁ಸಂತಾನೋತ್ಪ	-9183
▁ಕಾರಣವೆಂದರೆ	-9184
▁ಸಲ್ಲಿಸುವವರು	-9185
▁ಅನೂರ್ಜಿತವಾಗಿದೆ	-9186
ಥೆ	-9187
▁ಅಳತೆಯ	-9188
▁ಮಾನವನ	-9189
▁ಗಳನ್ನು	-9190
▁ಸಂಯೋಜನೆ	-9191
▁ಅಂಶಗಳಿಗೆ	-9192
▁ಆರ್ಬಿಟ್ರ	-9193
▁ಸಂಯೋಜನೆಯ	-9194
▁ಸೌಲಭ್ಯಗಳ	-9195
▁ಹಿಂದಿರುಗಿದ	-9196
▁ತಿದ್ದುಪಡಿಯು	-9197
▁ಸಲ್ಲಿಸುತ್ತದೆ	-9198
▁ಸ್ಪೆ	-9199
▁ಬಂದರೆ	-9200
ಗೆಯಲ್ಲಿ	-9201
▁ವಶಕ್ಕೆ	-9202
▁medicin	-9203
▁ಉಲ್ಲೇಖಿತ	-9204
▁ನ್ಯಾಯಾಂಗಕ್ಕೆ	-9205
ಚೀ	-9206
ೋಟಾ	-9207
ಉದ್ಯ	-9208
ವಿಶೇಷ	-9209
ವರಲ್ಲಿ	-9210
▁ನಿಯೋಗ	-9211
▁ಬಹುಸಂ	-9212
▁ರಿಯಾಯಿತ	-9213
▁ಏಜೆನ್ಸಿಗಳು	-9214
▁ಕಾರಣಗಳಿಲ್ಲ	-9215
▁ಮಾಡುವುದರಿಂದ	-9216
▁ಸ್ವಾಧೀನಕ್ಕೆ	-9217
▁ಮಾಡುತ್ತಿದ್ದರು	-9218
▁ಪ್ರಾರಂಭಿಸಲಾಯಿತು	-9219
ಥಿ	-9220
▁g	-9221
ಇಲ್ಲಿ	-9222
ಾಂತಿಕ	-9223
▁ಪದ್ಧತಿ	-9224
▁ಬೆಳವಣಿಗೆಗೆ	-9225
ಮಕ್ಕ	-9226
ಿಸಿಕ	-9227
▁ದಾರ	-9228
▁ಹಾಲ್	-9229
▁ಜಾರಿಯಲ್ಲಿ	-9230
▁ಮಾಡುತ್ತೇವೆ	-9231
▁ಅನುಪಾತವನ್ನು	-9232
▁ಹುದ್ದೆಯಲ್ಲಿ	-9233
▁ಸುರಕ್ಷಿತವಾಗಿ	-9234
▁ಸ್ವಾತಂತ್ರ್ಯಕ್ಕೆ	-9235
▁ಎಒ	-9236
▁ತೇ	-9237
ವೆಯೇ	-9238
ಿದಾಯಕ	-9239
▁ಮಂದಿ	-9240
▁ಮೋಸದ	-9241
▁ಪೂರೈಕ	-9242
ಕವಾಗಿದೆ	-9243
▁ಣಾತ್ಮಕ	-9244
▁ಪಾತ್ರದ	-9245
▁ಬಾಧ್ಯತೆಯ	-9246
▁ಹೋಗುತ್ತದೆ	-9247
▁ಅಪರಾಧದಲ್ಲಿ	-9248
▁ಮೌಲ್ಯಮಾಪಕರ	-9249
▁ಕಾರ್ಯತಂತ್ರದ	-9250
▁ಅಳವಡಿಸಿಕೊಳ್ಳಲು	-9251
ತರು	-9252
ೋರೆ	-9253
ವುಗಳ	-9254
▁ಪೋರ್ಟ್	-9255
▁ಬಾಂಬೆಯ	-9256
▁ಅನಿವಾಸಿ	-9257
▁ಸೂಚಿಸಿದೆ	-9258
▁ದಿನಾಚರಣೆಯ	-9259
ಇಸಿ	-9260
ಪಾಳ	-9261
ನಂತಹ	-9262
ಅಪರಾಧ	-9263
ನಿರ್ಣ	-9264
ಾವಕಾಶ	-9265
ೊಪೆಲ್	-9266
▁ಸರಣಿ	-9267
ದ್ಯಕ್ಕೆ	-9268
▁ನೊಂದಿಗೆ	-9269
▁ಕಂಪೆನಿಗಳ	-9270
ಿಸುತ್ತಿತ್ತು	-9271
▁ತನಿಖಾಧಿಕಾರ	-9272
▁ಸೂಚಿಸಬಹುದು	-9273
▁ಕೊಡುಗೆಯನ್ನು	-9274
▁ಬಂಧಿಸಲಾಯಿತು	-9275
▁ತೀರ್ಮಾನಗಳನ್ನು	-9276
ಗುರು	-9277
▁ಇಆರ್	-9278
▁ಆಜ್ಞೆಯ	-9279
▁ಗಳಿಸಿದ	-9280
▁ನಿರ್ಣಯವು	-9281
▁ಸಹಭಾಗಿತ್ವ	-9282
▁ಆಕ್ರಮಿಸಿಕೊಂಡ	-9283
ಚು	-9284
ಹಣ	-9285
ರುಳ	-9286
ೋನಿ	-9287
ಅಂತಹ	-9288
ೆಲ್ಲ	-9289
▁ಡೈರಿ	-9290
▁ಕಾಮನ್	-9291
▁ಘೋಷಿಸುವ	-9292
▁ಇನ್ನಷ್ಟು	-9293
▁ಸಂಗ್ರಹಿಸುವ	-9294
ವೇದ	-9295
ಫಿಕ್	-9296
▁ಇದ್ದಾಗ	-9297
▁ಕಾಲೇಜಿನ	-9298
▁ವಾಸ್ತವದ	-9299
ಿಗಳೊಂದಿಗೆ	-9300
▁ತತ್ಕ್ಷಣದ	-9301
▁ಅದರಲ್ಲಿರುವ	-9302
▁ಪ್ರಯತ್ನಿಸುವ	-9303
▁ಪರಿಶೀಲಿಸಬಹುದು	-9304
ಕೈ	-9305
ರ್ಕ್	-9306
ಕುಮಾರ್	-9307
▁ಗಳಿಸುವ	-9308
▁ಗಾರ್ಡ್	-9309
▁ಗರ್ಭಧಾರಣ	-9310
▁ಪ್ರಖ್ಯಾತ	-9311
▁ೀಕರಣವನ್ನು	-9312
▁ಉತ್ಪಾದನೆಗೆ	-9313
▁ಸಿಬ್ಬಂದಿಗೆ	-9314
▁ಅನುಸರಣೆಯನ್ನು	-9315
▁ವಾತಾವರಣವನ್ನು	-9316
▁ನಿರ್ಧರಿಸುವುದು	-9317
ರಾತಿ	-9318
▁ಮಸೀ	-9319
▁ರಫ್ತ	-9320
▁ಸಲಕರಣ	-9321
▁ಡೆವಲಪ್	-9322
▁ಶಾಂತಿಯುತ	-9323
▁ಅಡಿಯಲ್ಲಿನ	-9324
▁ವಿವರಣಾತ್ಮಕ	-9325
▁ಸಹಾನುಭೂತಿಯ	-9326
ಗೊಳಿಸಲಾಗುವುದಿಲ್ಲ	-9327
ಟೈ	-9328
ಜಿಒ	-9329
▁XI	-9330
▁ದಾದ	-9331
▁ಓದಲು	-9332
▁ಬಂದೂ	-9333
ಸಂಪರ್ಕ	-9334
ೇಡ್ಕರ್	-9335
▁ಕೆಂಪು	-9336
▁ಅಮೆರಿಕ	-9337
ಿಯಲ್ಲಿದೆ	-9338
▁ಅದರಲ್ಲೂ	-9339
▁ಹೂಡಿಕೆಯ	-9340
ಿನಲ್ಲಿರುವ	-9341
▁ಹಂಚಿಕೊಳ್ಳ	-9342
▁ಪಾವತಿಸಬೇಕು	-9343
ನಕ	-9344
▁ಆಫೀಸ್	-9345
▁ತರಗತಿ	-9346
▁ತಂದಿದೆ	-9347
▁ಬಳಸಲಾದ	-9348
▁ಸರ್ಕಾರಗಳ	-9349
▁ಚೌಕಟ್ಟನ್ನು	-9350
▁ವಿವರಿಸಿದಂತೆ	-9351
▁of	-9352
▁ಜನನ	-9353
ಮಾಸಿಕ	-9354
▁ಶಬ್ದ	-9355
ಿಸಲಾಗುವ	-9356
▁ಇಕ್ವಿಟಿ	-9357
▁ಬೌದ್ಧಿಕ	-9358
▁ಕಾರ್ಮಿಕರು	-9359
▁ಬಯಸುತ್ತದೆ	-9360
▁ಲಗತ್ತಿಸಲಾದ	-9361
▁ಮುಖ್ಯವಾಗಿದೆ	-9362
▁ರದ್ದುಪಡಿಸಿದ	-9363
▁ವ್ಯವಸ್ಥೆಗಳು	-9364
▁ಅರ್ಜಿಯೊಂದಿಗೆ	-9365
▁ಸಾಧ್ಯತೆಯನ್ನು	-9366
▁ತಿದ್ದುಪಡಿಯಿಂದ	-9367
▁ತಾನ	-9368
▁ಹಕ್ಕಿಗೆ	-9369
▁ಸ್ಥಾಪನೆಗೆ	-9370
▁ವರ್ಷಗಳನ್ನು	-9371
▁ತೀರ್ಮಾನಿಸಿತು	-9372
▁ಪರೀಕ್ಷಿಸಲಾಯಿತು	-9373
▁ನಿಬಂಧನೆಯಡಿಯಲ್ಲಿ	-9374
ರಳು	-9375
▁ಜವಳಿ	-9376
▁ರದ್ದ	-9377
▁ರಾಜೀವ್	-9378
▁ರಾಜಧಾನಿ	-9379
▁ಸಂಬಂಧವು	-9380
▁ಕ್ರಿಕೆಟ್	-9381
▁ಪಟ್ಟಭದ್ರ	-9382
▁ಪ್ರಭಾವಿತ	-9383
▁ಇಲಾಖೆಯಿಂದ	-9384
▁ಮಾದರಿಗಳನ್ನು	-9385
▁ಅನುಗುಣವಾಗಿರಬೇಕು	-9386
ಗ್ನ	-9387
ನೇಡ್	-9388
ಲೇಶನ್	-9389
ವಾದಾಗ	-9390
▁ಷಧೀಯ	-9391
▁ಆರೋಗ್ಯದ	-9392
▁ವಿಧಿಸಿದ	-9393
▁ವಿಪತ್ತು	-9394
▁ಬದಲಾವಣೆಗೆ	-9395
▁ಪರಿಗಣಿಸಿತು	-9396
ಿತಾ	-9397
ರಾನ್	-9398
▁(&#	-9399
ಿದರ್ಶ	-9400
▁ಫೈನಾ	-9401
▁ಸಂಚಿತ	-9402
▁ಇಂದಿರಾ	-9403
▁ಕಡಿಮೆಯಿಲ್ಲದ	-9404
ಸೂಸ	-9405
ಜಾರ್	-9406
ಾಲಜಿ	-9407
▁ಸೋದ	-9408
▁ಡಿಡಿಎ	-9409
▁ಅವಿವೇಕ	-9410
▁ಶ್ರೇಣಿ	-9411
▁ಏನಿದ್ದರೂ	-9412
▁ಮಾಡಲಿಲ್ಲ	-9413
▁ಅರ್ಥಪೂರ್ಣ	-9414
▁ಬದಲಾಯಿಸಲು	-9415
▁ಅನಗತ್ಯವಾಗಿ	-9416
▁ಚರ್ಚೆಯನ್ನು	-9417
▁ಹೊಂದಿರಲಿಲ್ಲ	-9418
ೋಟೋ	-9419
ರಿಟ್	-9420
▁ಘೋರ	-9421
▁ಡಿಎಸ್	-9422
▁ಯುನಿಟ್	-9423
▁ಪ್ರೋಗ್ರ	-9424
▁ನಿರಾಕರಿಸಲು	-9425
▁ಉತ್ತೇಜಿಸುವುದು	-9426
▁ನ್ಯಾಯಶಾಸ್ತ್ರದ	-9427
ess	-9428
ಚನ್	-9429
▁ಭತ್ತ	-9430
▁ಮಾಲ್	-9431
▁ಹೂಡಲು	-9432
▁ಹನ್ನೆರಡು	-9433
▁ನಿಮ್ಮನ್ನು	-9434
▁ನಿರ್ವಿವಾದ	-9435
▁ಪ್ರಯೋಜನಕಾರಿ	-9436
▁ನಿರ್ಣಯಿಸಬೇಕು	-9437
್ಮಿ	-9438
▁ದೊ	-9439
▁ಗಮನಹರ	-9440
▁ಸಂವಾದ	-9441
ಮಟ್ಟಿಗೆ	-9442
▁ಸಿಕ್ಕಿ	-9443
▁ನಿಂತಿದೆ	-9444
▁ಟ್ರ್ಯಾಕ್	-9445
▁ಪತ್ರಕ್ಕೆ	-9446
▁ರೂಪಾಯಿಗಳ	-9447
▁ಸದ್ಯಕ್ಕೆ	-9448
▁ಕಾಲೇಜುಗಳು	-9449
▁ವಿವರಿಸಿದರು	-9450
▁ವಿವಾದಗಳಿಗೆ	-9451
▁ಸರ್ಕಾರದಲ್ಲಿ	-9452
ವಸ್ತು	-9453
ಷ್ಯಾದ	-9454
▁ಇಸ್ರ	-9455
▁ಅಲಿಯಾಸ್	-9456
▁ಮೆಚ್ಚುಗೆ	-9457
▁ಕಾರ್ಯಕರ್ತರ	-9458
▁ವ್ಯಕ್ತಿಗಳಿಂದ	-9459
▁ಬೆಂಬಲಿಸುತ್ತದೆ	-9460
▁ಸಲ್ಲಿಸುವವರಿಗೆ	-9461
ರೈ	-9462
ವ್ಯೂ	-9463
ುವಿನ	-9464
▁ಅಂಟ	-9465
ನಿರ್ಣಯ	-9466
▁ಅಗ್ನಿ	-9467
ಿಸುವಿಕೆ	-9468
▁ತಡೆರಹಿತ	-9469
▁ಶ್ರದ್ಧೆಯಿಂದ	-9470
▁ಸೃ	-9471
ಫೈಲ್	-9472
▁ಆಸಿ	-9473
▁ರೈಫ	-9474
ತ್ತಲ್	-9475
ರ್ಮಲ್ಯ	-9476
▁ನೈರ್ಮಲ್ಯ	-9477
▁ಅನಾರೋಗ್ಯದ	-9478
▁ಚಿತ್ರಹಿಂಸೆ	-9479
▁ಸಮರ್ಪಕವಾಗಿ	-9480
▁ರೆಕಾರ್ಡಿಂಗ್	-9481
▁ಪರಿಣಾಮಕಾರಿಯಾದ	-9482
▁ಪರೀಕ್ಷೆಗಳನ್ನು	-9483
ಂಟಲ್	-9484
ಫಿರ್	-9485
ಸಿಸ್	-9486
ಸಿಎಸ್	-9487
▁ಇಡುವ	-9488
▁ಬಾಲ್ಯ	-9489
ನ್ಯಜೀವಿ	-9490
▁ಖರ್ಚಿನ	-9491
▁ವಾರ್ಡ್	-9492
▁ಹೆಸರಿನ	-9493
▁ಹೊರಸೂಸ	-9494
▁ವಹಿಸುತ್ತದೆ	-9495
▁ವೆಚ್ಚಗಳಿಗೆ	-9496
▁ಸಂಗತಿಯಾಗಿದೆ	-9497
▁ನಿಯತಾಂಕಗಳನ್ನು	-9498
▁ನಿರ್ಧರಿಸಲಾಗಿದೆ	-9499
▁ಟು	-9500
▁ಪೂಜ	-9501
ಿಸ್ವಾ	-9502
▁ಐದನೇ	-9503
▁ಮಹಾತ್ಮ	-9504
▁ಪ್ರಾಯೋಜ	-9505
▁ವ್ಯಭಿಚಾರ	-9506
▁ಇಟ್ಟುಕೊಂಡ	-9507
▁ಪ್ರಕರಣವಲ್ಲ	-9508
▁ನೋಂದಣಿಯನ್ನು	-9509
▁ಮಧ್ಯಸ್ಥಗಾರರ	-9510
▁ಶಿಕ್ಷೆಗೊಳಪಡ	-9511
▁ಸಾಕ್ಷ್ಯಾಧಾರಗಳ	-9512
ಾನಲ್	-9513
▁ನಾರ್	-9514
▁ರೈತರು	-9515
▁ಸ್ತ್ರ	-9516
▁ಪುಟಗಳು	-9517
▁ಸ್ಕ್ರೀ	-9518
▁ಪರಿಣಾಮದ	-9519
▁ವ್ಯವಸ್ಥೆಗಳ	-9520
▁ಸೌಲಭ್ಯವನ್ನು	-9521
▁ಚುನಾವಣೆಯಲ್ಲಿ	-9522
▁ವ್ಯತ್ಯಾಸವಿದೆ	-9523
▁ಪರಿಶೀಲಿಸುವುದು	-9524
▁ಈಡೇ	-9525
ಕಾರರು	-9526
▁ಆಯಾಮ	-9527
▁ಆರೈಕ	-9528
▁ಚೀನಾ	-9529
ಕ್ಯೂಟ್	-9530
▁ಪಟೇಲ್	-9531
▁ಅರ್ಹರು	-9532
▁ಮೇಲ್ಮೈ	-9533
▁ಪ್ರಶ್ನೆಗಳ	-9534
▁ಪ್ರಶ್ನೆಯೇ	-9535
▁ನಿರ್ದೇಶನಗಳ	-9536
▁ಸಮಸ್ಯೆಗಳಿಗೆ	-9537
▁ನಿರ್ಧಾರಗಳಲ್ಲಿ	-9538
ಗ್ರಾ	-9539
ಚಾರ್ಜ್	-9540
ಟಿಕ್ಸ್	-9541
▁ಮುಷ್ಕರ	-9542
▁ಸಾಗಿಸಲು	-9543
▁ಇಲಾಖೆಗಳು	-9544
▁ಬದಲಿಯಾಗಿ	-9545
▁ಕುಟುಂಬಕ್ಕೆ	-9546
▁ಭೂಮಾಲೀಕರಿಗೆ	-9547
▁ವಿಭಾಗಗಳನ್ನು	-9548
ಐಡಿಎ	-9549
ಟಿನ್	-9550
▁ಕಟ್	-9551
▁ವಲಸೆ	-9552
ೈಮಾಸಿಕ	-9553
ಸ್ಟೆಬಲ್	-9554
ಾಗಲಿಲ್ಲ	-9555
▁ಪ್ಯಾನ್	-9556
▁ಕಾರ್ಟ್ರಿ	-9557
▁ಭೂಪ್ರದೇಶ	-9558
▁ನಿವಾಸಿಗಳು	-9559
▁ಬಳಸಿಕೊಂಡು	-9560
▁ಸ್ವತ್ತುಗಳು	-9561
▁ದಾಖಲೆಗಳಲ್ಲಿ	-9562
▁ನೇಮಕಗೊಳ್ಳಲು	-9563
▁ನಿರ್ಧಾರದಲ್ಲಿ	-9564
ಪಿಯ	-9565
ಟಿಸ್	-9566
▁drugs	-9567
▁ಪಾಲನೆ	-9568
▁ಯುಎಸ್ಎ	-9569
▁ಪ್ರಶಸ್ತಿಗೆ	-9570
ತಾರ್	-9571
▁IST	-9572
ಮಾಡಲು	-9573
▁ದಳ್ಳ	-9574
▁ದ್ರವ	-9575
▁ಒಮ್ಮತ	-9576
ಕ್ಯೂರಿಟಿ	-9577
▁ಅಪರಾಧಿಗಳ	-9578
▁ಅಭ್ಯರ್ಥಿ	-9579
▁ಪ್ರತಿಷ್ಠ	-9580
▁ವನ್ಯಜೀವಿ	-9581
▁ಉತ್ತರಿಸಲು	-9582
▁ಚುನಾವಣೆಗೆ	-9583
ಿಸಬಹುದಿತ್ತು	-9584
▁ನಿರ್ವಾಹಕರು	-9585
▁ಮ್ಯಾಟ್ರಿಕ್ಸ್	-9586
ಸಜ್ಜ	-9587
▁ಫೆಡರ	-9588
ಟ್ಟಿದೆ	-9589
ಸ್ತವ್ಯ	-9590
▁ಜೈಲಿನ	-9591
ಶಾಸ್ತ್ರದ	-9592
▁ಷೇರುಗಳು	-9593
▁ಗಮನಿಸಿತು	-9594
▁ಹಾದಿಯಲ್ಲಿ	-9595
▁ಓದುವುದರಿಂದ	-9596
▁ಸಲ್ಲಿಸಿದವರ	-9597
ಮಾದ	-9598
▁ಗಜ	-9599
ಹಾನ್	-9600
▁ಎಂಎ	-9601
ಗಾಂವ್	-9602
ಜನಶೀಲ	-9603
▁ಹೆಡ್	-9604
ಾದಲ್ಲಿ	-9605
▁ಅಸೆಂಬ್ಲಿಯ	-9606
▁ಕೈಗಾರಿಕೆಗಳು	-9607
▁ನಿರಾಕರಿಸಿದೆ	-9608
▁ತೆಗೆದುಕೊಂಡರು	-9609
▁ವ್ಯಾಪ್ತಿಯಿಂದ	-9610
▁ಒಳಗೊಳ್ಳುತ್ತದೆ	-9611
▁ಫಲಿತಾಂಶಗಳನ್ನು	-9612
▁ೆಯ	-9613
ತಿಯಾಗಿ	-9614
▁ಆಕ್ಯು	-9615
▁ಟೆಲಿಕ	-9616
▁ಅನುಚಿತ	-9617
▁ವಿಡಿಯೋ	-9618
▁ಪುರಾವೆಯ	-9619
▁ಹುಡುಗಿಯ	-9620
▁ಎರಡನೆಯದು	-9621
▁ಬೀರುತ್ತವೆ	-9622
▁ಪೂರ್ವನಿದರ್ಶ	-9623
▁ಪಡೆದುಕೊಳ್ಳಲು	-9624
२०	-9625
▁ಎಂಟರ್	-9626
ಗೊಂಡಿತು	-9627
▁ತೆರಿಗೆಗಳು	-9628
▁ದುರದೃಷ್ಟವಶಾತ್	-9629
▁at	-9630
ತ್ಯತ	-9631
ಕುಚಿತ	-9632
ೆನೇಡ್	-9633
▁ಆಕಾಶ	-9634
▁ಆಕರ್ಷಿತ	-9635
▁ತ್ರೈಮಾಸಿಕ	-9636
▁ನಿಷೇಧಿಸಲಾಗಿದೆ	-9637
▁ಸಾಂವಿಧಾನಿಕವಾಗಿ	-9638
ಕಾಯ	-9639
ಿಸೋಣ	-9640
ಗಳಂತೆ	-9641
▁ಅದಿರು	-9642
▁ಹಾನಿಯ	-9643
▁ಹಿಂಜರ	-9644
ಾಧಿಕಾರಿ	-9645
▁ಅವಿವೇಕದ	-9646
▁ವರದಿಯಾದ	-9647
▁ಸಂಕ್ಷೇಪ	-9648
▁ಸೇರಿಸಿದ	-9649
▁ಹುಟ್ಟಿದ	-9650
▁ತಿಂಗಳವರೆಗೆ	-9651
▁ಚಲಾಯಿಸಬಹುದು	-9652
▁ಬರೆದಿದ್ದಾರೆ	-9653
▁ನಿರ್ದೇಶಿಸಬಹುದು	-9654
▁ಪ್ರಾಧಿಕಾರವನ್ನು	-9655
▁ಪರಿಗಣಿಸಬೇಕಾಗಿದೆ	-9656
ega	-9657
▁ಎಕೆ	-9658
▁ಎಕ್	-9659
▁ಪರಾ	-9660
▁ಸೂರ	-9661
▁ಗೇಟ್	-9662
▁ಐಟಿಆರ್	-9663
▁ಸರಳವಾಗಿ	-9664
▁ಆನುವಂಶಿಕ	-9665
▁ತಪ್ಪಿಸುವ	-9666
▁ಪುಸ್ತಕಗಳು	-9667
▁ಪರಿಶೀಲಿಸಿದೆ	-9668
▁ಮೋಡ್	-9669
ತ್ಯತೀತ	-9670
▁ಅರುಣಾಚಲ	-9671
▁ಇಡುವುದು	-9672
▁ಕ್ರಿಶ್ಚ	-9673
▁ಸಂಕುಚಿತ	-9674
▁ಎಲೆಕ್ಟ್ರಾನಿಕ್ಸ್	-9675
▁ಕುಸ	-9676
▁ಪಾದ	-9677
ಕೇಂದ್ರ	-9678
▁ಅವಹೇಳ	-9679
▁ಯಾವುವು	-9680
▁ಪತ್ರಿಕಾ	-9681
▁ಕಳೆದುಹೋಗ	-9682
▁ನಿರೀಕ್ಷೆಯಿದೆ	-9683
▁ವಿವಾದದಲ್ಲಿಲ್ಲ	-9684
▁ವೇಳಾಪಟ್ಟಿಯನ್ನು	-9685
ವೇದಿ	-9686
▁ಒಡಿ	-9687
ಕೃಷ್ಟ	-9688
ವಾಸ್ತವ	-9689
▁ಅರ್ಹರ	-9690
▁ಎಲ್ಲರ	-9691
▁ಕೋರಿದ	-9692
▁ದಿವಾನ್	-9693
▁ವಿಕಿರಣ	-9694
▁ನಿಯೋಜಿತ	-9695
▁ವಿಧಾನಗಳ	-9696
▁ವಿಭಿನ್ನವಾಗಿ	-9697
ಯಾನ್	-9698
▁ಹೊರಗು	-9699
▁ಪ್ರಿಸ್	-9700
▁ಮ್ಯಾಂಡಮಸ್	-9701
ಕೇಶ್	-9702
ಿರಲಿ	-9703
ರಿಯನ್	-9704
▁ತಾನೇ	-9705
▁ನಕಲು	-9706
▁ಕುಳಿತ	-9707
▁ಸರ್ವಾ	-9708
▁ಸಂತೋಷದ	-9709
▁ಕಾಲೇಜಿಗೆ	-9710
▁ಬಲಪಡಿಸಲು	-9711
▁ಪರಿಚಯಿಸಲಾಯಿತು	-9712
ನೂ	-9713
ೀತ್	-9714
▁ದಂತ	-9715
▁ಅಳತೆ	-9716
▁ಫಾಸ್	-9717
▁ಟಿಎನ್	-9718
▁ಲಂಡನ್	-9719
▁ಎಕರೆಗೆ	-9720
▁ಟ್ರಸ್ಟ	-9721
▁ಸಂಭೋಗದ	-9722
▁ಶ್ರೇಣಿಯ	-9723
▁ಕೊಂಡೊಯ್ಯ	-9724
▁ಆದೇಶಗಳಿಗೆ	-9725
▁ಸಾಲಗಳನ್ನು	-9726
▁ಪ್ರಯತ್ನಿಸಲು	-9727
▁ಪ್ರತಿವಾದಿಯಿಂದ	-9728
▁ಹಿಂತೆಗೆದುಕೊಂಡ	-9729
ತುರ	-9730
ಸಾಲ	-9731
ತ್ರಿಯ	-9732
ಿಂದಲೂ	-9733
▁ಎಂಜಿ	-9734
▁ಸ್ವೀ	-9735
▁ಆಗಿರುವ	-9736
▁ಬಳಕೆಯು	-9737
▁ನಿಧಿಯಿಂದ	-9738
▁ಪ್ರಾಂತೀಯ	-9739
▁ಹೊರಗಿಡಲು	-9740
▁ಅಧ್ಯಕ್ಷರಾಗಿ	-9741
▁ಮಾಡಿಕೊಳ್ಳಲು	-9742
▁ಸಂವಿಧಾನಕ್ಕೆ	-9743
▁ಪರಿಸ್ಥಿತಿಗಳನ್ನು	-9744
ೆಟ್	-9745
▁ಟೊ	-9746
ಕಾರ್ಯ	-9747
▁ಅನ್ಯ	-9748
▁ಬೋಧಕ	-9749
ಗಳೆಂದು	-9750
▁ಬಂದವು	-9751
ಿರಬಾರದು	-9752
▁ಕ್ಲೈಮ್	-9753
▁ನಮ್ಮದು	-9754
▁ಅಪರಿಚಿತ	-9755
▁ಸೃಜನಶೀಲ	-9756
ಾಗಿರಬಹುದು	-9757
▁ಪಕ್ಷವನ್ನು	-9758
▁ಇಷ್ಟಪಟ್ಟರೆ	-9759
▁ಪರಿಸ್ಥಿತಿಗೆ	-9760
▁ಪ್ರಶಸ್ತಿಗಳು	-9761
▁ತೊಂದರೆಗಳನ್ನು	-9762
▁ಬಾಧ್ಯತೆಯನ್ನು	-9763
ಡಿಎಸ್	-9764
ಾನುಗುಣ	-9765
▁ಬಂಧಿಸಲು	-9766
▁ಹ್ಯಾಂಡ್	-9767
▁ಜಾತ್ಯತೀತ	-9768
▁ನೋಡಬಹುದು	-9769
▁ಸತ್ಯಗಳಿಗೆ	-9770
▁ಕ್ಷೇತ್ರಕ್ಕೆ	-9771
▁ನಿರ್ಣಯಕ್ಕಾಗಿ	-9772
ದಿಯನ್ನು	-9773
▁ದೇವಸ್ಥ	-9774
▁ರಾಜೇಶ್	-9775
▁ಸಾಧನವಾಗಿ	-9776
▁ಉಳಿದುಕೊಂಡ	-9777
▁ಉತ್ಪಾದಿಸಲು	-9778
▁ತಿಳಿದಿತ್ತು	-9779
▁ಸಕ್ರಿಯವಾಗಿ	-9780
▁ಸೆಕ್ಯೂರಿಟಿ	-9781
▁ಸಲ್ಲಿಸುವಂತೆ	-9782
▁ಅರ್ಜಿದಾರರಿಂದ	-9783
್ರಿ	-9784
▁ಚಾ	-9785
ಪಿಆರ್	-9786
▁ಬೆರಳ	-9787
▁ಅದೇನೇ	-9788
ವಾಗಿಸಲು	-9789
ಸಂವಿಧಾನ	-9790
ಿಕೆಗಾಗಿ	-9791
▁ಅವಳಿಗೆ	-9792
▁ಮನುಷ್ಯನ	-9793
▁ಉತ್ತೀರ್ಣ	-9794
▁ಜರುಗಿಸಲು	-9795
▁ಸಂಸ್ಕರಣೆ	-9796
ಿಸಲಿದ್ದಾರೆ	-9797
▁ಒದಗಿಸಬಹುದು	-9798
▁ಮಾಡಲಾಗಿದ್ದು	-9799
ತ್ತನೇ	-9800
ಉದ್ಯೋಗ	-9801
▁ರಿಯಲ್	-9802
▁ಸೇರಲು	-9803
▁ಸಾಕ್ಷರ	-9804
▁ಸ್ಪರ್ಶ	-9805
ವೊಂದನ್ನು	-9806
▁ಟೆಲಿಕಾಂ	-9807
le	-9808
ಿಡ್	-9809
▁ಫೀ	-9810
▁ಮರದ	-9811
▁ನೊಸ್	-9812
▁ಸ್ಟೆ	-9813
▁ಹೊರಬಂದ	-9814
▁ಸುತ್ತೋಲ	-9815
▁ಅನುಭವವನ್ನು	-9816
▁ಅನ್ವಯವನ್ನು	-9817
▁ಸಂಬಂಧವಿಲ್ಲ	-9818
▁ಸಂಸ್ಥೆಯಿಂದ	-9819
▁ಸಲ್ಲಿಸಿದಾಗ	-9820
▁ಅವಶ್ಯಕವಾಗಿದೆ	-9821
▁ವಹಿವಾಟುಗಳನ್ನು	-9822
▁ಮಾಡುತ್ತಿದ್ದಾರೆ	-9823
▁ಅನುಷ್ಠಾನಗೊಳಿಸುವ	-9824
▁ಚೈ	-9825
ನಿಕ್	-9826
ಬಿಗೆ	-9827
ವಿಸಿ	-9828
ೀರಿಯ	-9829
▁ಪತ್ತ	-9830
▁ಪ್ರಜ	-9831
▁ಕಿಶನ್	-9832
▁ಬಡ್ಡಿದ	-9833
▁ಸೆಕೆಂಡ	-9834
▁ಮಾತುಕತೆ	-9835
ದಲ್ಲಿದ್ದರೆ	-9836
▁ಒಳಗೊಂಡಿವೆ	-9837
▁ಮಾರಾಟಗಾರರ	-9838
▁ಪರಿಶೀಲಿಸಿತು	-9839
▁ಶಾಸಕಾಂಗಕ್ಕೆ	-9840
▁ಸಂದರ್ಭದಲ್ಲೂ	-9841
▁ಒಪ್ಪಿಕೊಂಡಿದೆ	-9842
▁ಸುರಕ್ಷತೆಯನ್ನು	-9843
ಟೊ	-9844
ನಂತರ	-9845
ೋತ್ಸವ	-9846
▁ಪಿಪಿಎ	-9847
▁ಸಮ್ಮತ	-9848
▁ಅವಹೇಳನ	-9849
▁ವರದಿಗೆ	-9850
▁ನಿಷೇಧಿಸುವ	-9851
▁ವಜಾಗೊಳಿಸಿ	-9852
▁ಹೇಳಿಕೊಳ್ಳ	-9853
▁ಕಂಡುಕೊಂಡರು	-9854
▁ಕಾರ್ಯಕ್ರಮಗಳ	-9855
▁ನಿರ್ಮಾಣಕ್ಕೆ	-9856
▁ಸುಗ್ರೀವಾಜ್ಞೆಯ	-9857
▁ಸೂಚಿಸುವುದಿಲ್ಲ	-9858
ನಿರ	-9859
ಬರಹ	-9860
ರೇಖ	-9861
▁ಮತಾ	-9862
▁ಗಾರ್	-9863
ಸಗೊಬ್ಬರ	-9864
▁ಕಲಿಕೆಯ	-9865
▁ಕೆಲವರು	-9866
▁ಮಾದರಿಯ	-9867
▁ಕೃತ್ಯಗಳು	-9868
▁ಪ್ರೊಫೈಲ್	-9869
▁ಕಡಿಮೆಯಿಲ್ಲ	-9870
▁ನಡೆಸುತ್ತದೆ	-9871
▁ಮಂಡಳಿಯನ್ನು	-9872
▁ವರ್ಗಾವಣೆಗೆ	-9873
▁ಅಭಿಪ್ರಾಯಗಳು	-9874
▁ನಟ	-9875
▁ಬೂ	-9876
▁ಜಲಾ	-9877
▁ation	-9878
egative	-9879
▁ದಳ್ಳಾಲಿ	-9880
▁	-9881
್	-9882
ಿ	-9883
ರ	-9884
ು	-9885
ಾ	-9886
ನ	-9887
ದ	-9888
ತ	-9889
ವ	-9890
ಲ	-9891
ಸ	-9892
ೆ	-9893
ಯ	-9894
ಗ	-9895
ಕ	-9896
ಮ	-9897
ಂ	-9898
ಪ	-9899
ಳ	-9900
ಅ	-9901
ೇ	-9902
ಡ	-9903
ಹ	-9904
.	-9905
ಬ	-9906
ಟ	-9907
,	-9908
ಧ	-9909
ೀ	-9910
ಶ	-9911
ಷ	-9912
ಣ	-9913
ೊ	-9914
ೂ	-9915
ಜ	-9916
ಎ	-9917
ಆ	-9918
ೋ	-9919
ಚ	-9920
०	-9921
ಭ	-9922
ಥ	-9923
ಇ	-9924
१	-9925
ಖ	-9926
)	-9927
(	-9928
u	-9929
ಉ	-9930
ಒ	-9931
c	-9932
ೈ	-9933
ಈ	-9934
२	-9935
-	-9936
;	-9937
ಫ	-9938
ೃ	-9939
३	-9940
&	-9941
ೌ	-9942
#	-9943
:	-9944
/	-9945
0	-9946
४	-9947
ಐ	-9948
ಘ	-9949
i	-9950
ಏ	-9951
ಠ	-9952
५	-9953
I	-9954
o	-9955
“	-9956
|	-9957
t	-9958
६	-9959
]	-9960
ಞ	-9961
a	-9962
[	-9963
७	-9964
e	-9965
ಓ	-9966
n	-9967
s	-9968
m	-9969
r	-9970
q	-9971
x	-9972
d	-9973
८	-9974
ಃ	-9975
%	-9976
p	-9977
h	-9978
l	-9979
९	-9980
?	-9981
A	-9982
v	-9983
C	-9984
V	-9985
g	-9986
S	-9987
f	-9988
X	-9989
O	-9990
P	-9991
T	-9992
E	-9993
