<unk>	0
<s>	0
</s>	0
UuRrLl	0
DdAaTtEe	0
NnUuMm	0
ന്	-0
ക്	-1
ത്	-2
തി	-3
ക്ക	-4
പ്	-5
▁അ	-6
ന്ന	-7
▁വ	-8
▁ക	-9
▁ന	-10
▁സ	-11
ും	-12
്ട	-13
്യ	-14
മാ	-15
യി	-16
ുന്ന	-17
▁പ	-18
ങ്	-19
പ്പ	-20
റ്	-21
ച്	-22
സ്	-23
ിക്ക	-24
ത്തി	-25
പ്ര	-26
ില	-27
ത്ത	-28
ിയ	-29
ങ്ങ	-30
ട്ട	-31
▁പ്ര	-32
രു	-33
▁മ	-34
ടെ	-35
ച്ച	-36
ുക	-37
്ല	-38
ിൽ	-39
റ്റ	-40
ാര	-41
▁എ	-42
▁ത	-43
ണ്ട	-44
ന്റ	-45
▁ച	-46
ിച്ച	-47
ുടെ	-48
▁ഉ	-49
ിക	-50
▁ആ	-51
ന്റെ	-52
▁ഒ	-53
ള്	-54
ള്ള	-55
▁ഇ	-56
▁വി	-57
മ്	-58
▁നി	-59
ുള്ള	-60
്ര	-61
െയ	-62
പ്പെ	-63
ക്ഷ	-64
ിക്കുന്ന	-65
ല്ല	-66
ാന	-67
ണ്	-68
രി	-69
ങ്ങൾ	-70
ങ്ക	-71
▁ഒരു	-72
▁ബ	-73
ക്ക്	-74
▁(	-75
▁സ്	-76
ദ്	-77
ന്ന്	-78
▁ല	-79
ായ	-80
ങ്ങള	-81
ടു	-82
ായി	-83
സി	-84
യും	-85
▁ര	-86
െങ്ക	-87
ോട	-88
തിന	-89
▁ചെയ	-90
ാൻ	-91
മായ	-92
സ്ഥ	-93
തു	-94
▁നിയ	-95
▁വ്യ	-96
മായി	-97
▁അവ	-98
▁ശ	-99
റി	-100
ത്തിൽ	-101
▁ജ	-102
ോടതി	-103
ിവ	-104
ുന്നു	-105
ദേ	-106
▁നിയമ	-107
ാക്ക	-108
മ്പ	-109
▁ഈ	-110
ാർ	-111
ില്ല	-112
കര	-113
▁എന്ന	-114
▁ഭ	-115
വി	-116
ഞ്	-117
▁സം	-118
ത്യ	-119
യോ	-120
യുടെ	-121
ൽക	-122
യിൽ	-123
▁നൽക	-124
ാൽ	-125
നു	-126
ാല	-127
ത്ര	-128
െങ്കിൽ	-129
േഷ	-130
ുകൾ	-131
ത്തിന്റെ	-132
റ്റ്	-133
െന്ന്	-134
▁മു	-135
▁മാ	-136
ുകള	-137
▁ചെയ്യ	-138
ത്തര	-139
ണം	-140
ംഗ	-141
ണ്ട്	-142
ാവ	-143
▁പരി	-144
▁നട	-145
കാര	-146
▁ഹ	-147
ാണ്	-148
ടി	-149
ഡ്	-150
▁കോടതി	-151
ലെ	-152
ദേശ	-153
െന്ന	-154
പ്പെട്ട	-155
കൾ	-156
ന്ധ	-157
▁ഏ	-158
ാമ	-159
▁കു	-160
വും	-161
നി	-162
കള	-163
ിച്ചു	-164
▁സമ	-165
മ്മ	-166
ച്ച്	-167
▁കേ	-168
▁അപ്പ	-169
▁നിർ	-170
▁സാ	-171
ഞ്ഞ	-172
▁പ്രതി	-173
▁അല്ല	-174
ിലും	-175
ുകയും	-176
ത്തെ	-177
▁അപ്പീ	-178
യ്	-179
▁സ്വ	-180
പ്പെടു	-181
▁ഡ	-182
ിര	-183
സ്ഥാന	-184
ീകര	-185
ദ്ധ	-186
▁ഓ	-187
▁ഗ	-188
നം	-189
▁അല്ലെങ്കിൽ	-190
▁ലെ	-191
▁അനു	-192
ദ്യ	-193
ാം	-194
ാപ	-195
▁വ്യക്	-196
ിന്	-197
ാണ	-198
ിന	-199
വർ	-200
▁സ്ഥ	-201
ിയി	-202
▁പര	-203
ിക്കുന്നു	-204
▁തീ	-205
▁-	-206
▁റ	-207
ിലെ	-208
▁ഫ	-209
ർക്ക	-210
േണ്ട	-211
▁കാര	-212
ാത	-213
&#	-214
മാണ്	-215
വശ	-216
ജി	-217
▁ഉപ	-218
ർപ്പ	-219
▁പു	-220
▁വാ	-221
െന്നും	-222
പ്പെട	-223
ുമ	-224
െങ്കിലും	-225
രണ	-226
തിര	-227
ധിക	-228
വ്	-229
▁ചെയ്	-230
ഷ്ട	-231
ിത	-232
തിന്	-233
ാശ	-234
ത്ത്	-235
കാരം	-236
ട്ര	-237
റ്റി	-238
യോഗ	-239
ട്ട്	-240
▁ക്	-241
വാ	-242
▁ഞ	-243
ത്തിന്	-244
ാഗ	-245
▁ന്	-246
ക്കുന്ന	-247
ട്ടു	-248
▁വ്യവ	-249
▁അഭ	-250
▁ഉത്തര	-251
ാധ	-252
ികള	-253
ങ്ങളുടെ	-254
▁യ	-255
തിനാൽ	-256
ോർ	-257
ിന്റെ	-258
▁അപ	-259
മാന	-260
റഞ്ഞ	-261
▁എന്നിവ	-262
▁ദ	-263
ോൾ	-264
▁പി	-265
▁ഇത്	-266
ത്തിന	-267
▁ബന്ധ	-268
വശ്യ	-269
െടു	-270
▁ആവശ്യ	-271
ീഷ	-272
ക്കോടതി	-273
ത്തില	-274
▁നിന്ന്	-275
▁കൂ	-276
ികൾ	-277
ദ്ദേശ	-278
▁ശ്ര	-279
▁അപ്പീൽ	-280
▁കഴ	-281
▁നിര	-282
കാശ	-283
▁സി	-284
▁അത്തര	-285
ിക്കാൻ	-286
യായ	-287
േഖ	-288
ിപ്പ	-289
ധികാര	-290
ന്ത്യ	-291
▁സെ	-292
ുമായി	-293
ാജ	-294
രെ	-295
▁ഹൈ	-296
പ്പ്	-297
ന്ത	-298
ഫ്	-299
രുടെ	-300
ര്യ	-301
▁/	-302
▁വിധ	-303
ഘട	-304
▁പോ	-305
്യൂ	-306
യാ	-307
ൂല	-308
▁ഇന്ത്യ	-309
▁തു	-310
ശ്	-311
ിയുടെ	-312
▁റി	-313
▁സമർപ്പ	-314
ോഗ	-315
ദേഹ	-316
േക്ഷ	-317
▁സംസ്ഥാന	-318
▁കുറ്റ	-319
▁ഹൈക്കോടതി	-320
▁വ്യവസ്ഥ	-321
▁നില	-322
ക്കു	-323
▁തെ	-324
▁അദ്	-325
▁അദ്ദേഹ	-326
ാത്ത	-327
മാണ	-328
തൽ	-329
മു	-330
രിക്ക	-331
ത്ഥ	-332
..	-333
ന്ത്ര	-334
തിൽ	-335
▁അത	-336
▁അധികാര	-337
ുവ	-338
തെങ്കിലും	-339
▁കൈ	-340
▁അത്തരം	-341
▁അഭി	-342
▁അപേക്ഷ	-343
ന്ദ	-344
്യം	-345
മി	-346
▁വ്യക്തി	-347
പി	-348
യെ	-349
ോധ	-350
ുന്നതിന	-351
ംഗ്	-352
ാതെ	-353
ങ്ങളിൽ	-354
യം	-355
▁ബന്ധപ്പെട്ട	-356
ഘടന	-357
▁പ്രകാരം	-358
ബന്ധ	-359
കു	-360
േക്ക്	-361
സ്റ്റ	-362
▁ഭരണ	-363
മെ	-364
പ്പെടുത്ത	-365
▁&#	-366
▁കോ	-367
യൂ	-368
രുന്നു	-369
ഡി	-370
സ്ത	-371
ിക്കുകയും	-372
ക്ര	-373
ജ്	-374
▁അപ്പീല	-375
യില	-376
▁അംഗ	-377
▁അവകാശ	-378
▁വ്യക്ത	-379
ാസ	-380
ൂപ	-381
▁നമ്പ	-382
▁വർ	-383
ക്കും	-384
വേ	-385
ഗണ	-386
്യത	-387
▁അടി	-388
ൂർ	-389
ക്ത	-390
▁നടപ	-391
തിന്റെ	-392
▁കേസ	-393
▁മാത്ര	-394
▁തീരു	-395
▁ഞങ്ങൾ	-396
ങ്ങളും	-397
പര	-398
ത്തിയ	-399
▁ഏതെങ്കിലും	-400
▁ഉൾ	-401
▁രൂപ	-402
ന്റ്	-403
ബി	-404
ധി	-405
▁അതിനാൽ	-406
നെ	-407
▁ആര	-408
ണക്ക	-409
▁നേ	-410
▁അത്	-411
▁നമ്പർ	-412
വന	-413
മാക്ക	-414
▁എസ്	-415
▁പ്രവർ	-416
▁അടിസ്ഥാന	-417
▁പൊ	-418
ണ്ണ	-419
▁എല്ല	-420
ിക്കുന്നതിന	-421
▁വസ്	-422
▁“	-423
ാക	-424
▁ഭരണഘടന	-425
▁സ്ഥാപ	-426
▁ചെയ്യുന്ന	-427
▁കണക്ക	-428
▁സർക്ക	-429
▁സു	-430
ത്തിലെ	-431
▁പ്രത്യ	-432
ഴ്	-433
ട്ടി	-434
▁വാദ	-435
മോ	-436
ർശ	-437
റയ	-438
യ്ക്ക	-439
▁ബാധ	-440
ബ്ല	-441
ാഷ	-442
നിർ	-443
▁വെ	-444
മല്ല	-445
ുകളിൽ	-446
വദ	-447
ിലുള്ള	-448
െയും	-449
ട്ടില്ല	-450
മ്പോൾ	-451
ാരണ	-452
▁തെള	-453
▁ഉണ്ട	-454
▁കമ്മ	-455
യിലെ	-456
ീക്ഷ	-457
േഷം	-458
േക	-459
ക്കാര	-460
▁ലഭ	-461
▁വസ്തു	-462
പോ	-463
▁അനുവദ	-464
ീയ	-465
മുള്ള	-466
ീസ്	-467
▁തിര	-468
സം	-469
▁ആശ	-470
▁|	-471
▁നിർദ്ദേശ	-472
▁രേഖ	-473
▁പ്രത്യേക	-474
▁പറഞ്ഞ	-475
▁പ്രോ	-476
▁കണ്ട	-477
ൽപ്പ	-478
▁പരിഗണ	-479
ൊരു	-480
ട്ടുണ്ട്	-481
ഷൻ	-482
▁മറ്റ	-483
▁പഠ	-484
▁ൽ	-485
▁എല്ലാ	-486
ിച്ചി	-487
ിക്ഷ	-488
▁തുട	-489
ർന്ന	-490
.0	-491
▁വിശ	-492
ുകളുടെ	-493
▁കര	-494
▁തീരുമാന	-495
▁പ്രാ	-496
വര	-497
ിക്കുക	-498
▁പരിശ	-499
▁പുറ	-500
▁ട്ര	-501
േഷൻ	-502
ാനുള്ള	-503
▁സാഹ	-504
▁ചെയ്തു	-505
▁പൊതു	-506
▁മറ്റ്	-507
▁മേ	-508
▁അന്	-509
ലോ	-510
താണ്	-511
▁ഉപയോഗ	-512
▁കാര്യ	-513
ൂടെ	-514
▁കാല	-515
ാട	-516
▁അട	-517
▁വില	-518
ചര്യ	-519
▁ചെയ്ത	-520
▁പെ	-521
▁കീ	-522
ബ്	-523
▁കൂട	-524
▁സാഹചര്യ	-525
ാർത്ഥ	-526
ഷ്ട്ര	-527
ാഷ്ട്ര	-528
്യു	-529
▁വീ	-530
ഞ്ച	-531
ക്ഷേ	-532
▁അദ്ദേഹം	-533
ധാന	-534
▁സൂ	-535
▁ആക്	-536
▁സാധ	-537
േറ്റ	-538
▁ശ്രീ	-539
▁ചോ	-540
ന്ദ്ര	-541
▁നടപട	-542
▁മുതൽ	-543
▁ജഡ്	-544
രിച്ച്	-545
യ്ക്ക്	-546
നങ്ങൾ	-547
▁വർഷ	-548
▁കീഴ	-549
ുതി	-550
▁ഡി	-551
▁ഭാഗ	-552
ഭാഗ	-553
തായി	-554
▁മെ	-555
യു	-556
▁ഭൂ	-557
പ്പെടുന്ന	-558
ഹാര	-559
▁സേ	-560
▁ഖ	-561
ിച്ച്	-562
ീതി	-563
ലി	-564
ാറ	-565
റിച്ച്	-566
ക്ട	-567
പരി	-568
രക്ഷ	-569
▁പോല	-570
ക്യൂ	-571
ബ്ല്യു	-572
▁ബി	-573
▁വകു	-574
▁[	-575
▁പഠിച്ച	-576
രിയ	-577
▁സ്റ്റ	-578
ൻസ്	-579
▁തെളിവ	-580
മേ	-581
വേഷ	-582
▁കണ്ടെ	-583
ിച്ചിര	-584
▁കാരണ	-585
ഷ്	-586
▁ചോദ്യ	-587
▁പരാമ	-588
▁അതിന്റെ	-589
റിയ	-590
ഭവ	-591
ഡബ്ല്യു	-592
▁പരാമർശ	-593
എസ്	-594
ിക്കുന്നത്	-595
യതി	-596
▁സഹ	-597
ാനും	-598
▁കൂടാതെ	-599
▁ശിക്ഷ	-600
▁തീയതി	-601
ളുടെ	-602
▁പരിശോധ	-603
തും	-604
▁ഉത്തരവ്	-605
ിന്യായ	-606
▁വിധിന്യായ	-607
ഖ്യ	-608
▁ഒഴ	-609
യിച്ച	-610
),	-611
രുത്ത	-612
ഭാഷ	-613
ല്യ	-614
ളി	-615
കളുടെ	-616
▁മുൻ	-617
▁ഐ	-618
തിക	-619
▁പേ	-620
▁നടത്ത	-621
▁ഇട	-622
▁മുമ്പ	-623
▁നടപ്പ	-624
പ്പെടുത്തി	-625
രുന്ന	-626
▁ജീ	-627
▁രാജ	-628
വു	-629
േക്ക	-630
▁രണ്ട്	-631
▁തട	-632
കൃ	-633
▁പ്രവർത്ത	-634
െടുക്ക	-635
▁കഴിയ	-636
ിയില്ല	-637
▁റിപ്പ	-638
▁ബാ	-639
▁വസ്തുത	-640
ിക്കേണ്ട	-641
യുള്ള	-642
പ്പെടുന്നു	-643
▁കമ്പ	-644
പരമായ	-645
സിക്യൂ	-646
ണ്ഡ	-647
▁അവരുടെ	-648
സരിച്ച്	-649
ിട	-650
കളും	-651
▁വ്യവസ്ഥകൾ	-652
േറ്റ്	-653
ണമ	-654
ട്ടുണ്ട	-655
▁അഭിഭാഷ	-656
▁കോടതിയുടെ	-657
ത്തു	-658
▁അവസ	-659
▁ചില	-660
▁ഏറ്റ	-661
കൻ	-662
പ്രകാരം	-663
▁നിയമം	-664
▁കമ്മീഷ	-665
റയുന്ന	-666
ആർ	-667
▁ട	-668
വിധ	-669
▁അന	-670
▁അസ	-671
▁കാരണം	-672
▁റെ	-673
ിനെ	-674
പ്രായ	-675
▁കൂടു	-676
ക്കുറിച്ച്	-677
▁പാർ	-678
ദ്ദ	-679
യാൾ	-680
ൽപ്പറഞ്ഞ	-681
ോള	-682
ാതി	-683
▁മേൽപ്പറഞ്ഞ	-684
ഭാവ	-685
ങ്ങളെ	-686
ത്വ	-687
▁എക്	-688
▁അന്വേഷ	-689
ക്ഷൻ	-690
▁നിലവ	-691
ാലും	-692
▁നൽകിയ	-693
▁രാഷ്ട്ര	-694
ഗ്	-695
ാക്കിയ	-696
▁അഭിപ്രായ	-697
ുകളും	-698
▁വിശദ	-699
▁വേ	-700
▁മൂല	-701
▁കാണ	-702
▁കേന്ദ്ര	-703
മാർ	-704
▁കൊ	-705
▁റിപ്പോർ	-706
▁കഴിയില്ല	-707
ടമ	-708
▁ഷ	-709
▁ധ	-710
ികളുടെ	-711
▁അർ	-712
▁ചെ	-713
ായിരുന്നു	-714
▁സർ	-715
ട്ടുള്ള	-716
▁അവർ	-717
യിക്ക	-718
▁പൂർ	-719
....	-720
ഡീഷ	-721
ുന്നതിന്	-722
ർച്ച	-723
▁നൽകിയി	-724
ോട്ട	-725
▁സേവന	-726
ുമ്പോൾ	-727
ദ്യോഗ	-728
ുപ	-729
ോപ	-730
ീസ	-731
▁ലി	-732
സാ	-733
പോലെ	-734
▁ജഡ്ജി	-735
▁ബെ	-736
ഗ്ര	-737
ുന്നത്	-738
ഞ്ച്	-739
▁അറി	-740
▁ഇൻ	-741
▁ഗ്ര	-742
▁ജന	-743
സ്താവ	-744
▁ശേഷം	-745
▁മൂ	-746
▁പ്രസ്താവ	-747
ചിത	-748
▁വള	-749
മില്ല	-750
ചാരണ	-751
▁നിയന്ത്ര	-752
ൊഴ	-753
▁നിന്ന	-754
▁ഓഫ്	-755
▁സംബന്ധ	-756
▁ഇനി	-757
മതി	-758
▁നൽകി	-759
ംഭ	-760
സ്സ	-761
ണി	-762
▁പ്രതികര	-763
ിക്കൽ	-764
▁ഇന്ത്യൻ	-765
ികുതി	-766
വാദ	-767
▁വിചാരണ	-768
്യൽ	-769
പ്പെട്ടു	-770
നിയ	-771
▁മാറ്റ	-772
▁ഗു	-773
പ്പറയുന്ന	-774
മാനം	-775
▁കൂടുതൽ	-776
▁ചെയ്യുന്നു	-777
തുപോലെ	-778
ണൽ	-779
സിന്റെ	-780
▁പ്രധാന	-781
ക്രമ	-782
▁എൻ	-783
ിരുന്ന	-784
സ്റ്റ്	-785
ിക്കുന്നതിന്	-786
▁ഉയ	-787
െതിര	-788
▁എന്ന്	-789
▁സാക്ഷ	-790
▁സർക്കാർ	-791
▁ഇനിപ്പറയുന്ന	-792
▁പുറപ്പെടു	-793
ാദ	-794
▁മന	-795
ിക്കും	-796
രോ	-797
മായും	-798
▁പുറപ്പെടുവ	-799
തിയ	-800
▁വരു	-801
▁വരെ	-802
▁വൈ	-803
▁വിവര	-804
ോറി	-805
▁ശ്രദ്ധ	-806
ർത്ത	-807
▁ആദ്യ	-808
▁സൂച	-809
ഴി	-810
▁നീ	-811
▁സ്വീകര	-812
▁സെക്ഷൻ	-813
ൃത	-814
▁ലക്ഷ	-815
▁വിക	-816
്ട്ര	-817
▁ഓഫ	-818
ാസ്	-819
▁ജു	-820
▁കക്ഷ	-821
ിലേക്ക്	-822
▁കേസ്	-823
▁കണക്കാക്ക	-824
ാള	-825
▁ചട്ട	-826
▁ഉദ്ദേശ	-827
േദ	-828
മെന്റ്	-829
നിൽ	-830
▁ഓർ	-831
ഗതി	-832
▁യോഗ	-833
▁മാന	-834
ന്നെ	-835
▁യു	-836
പ്പോൾ	-837
യാണ്	-838
തില	-839
റിച്ച	-840
പതി	-841
▁ന്യായ	-842
▁വിഷ	-843
മുണ്ട	-844
▁ഒഴിവ	-845
▁അംഗീകര	-846
▁വ്യക്തമാക്ക	-847
തുണ്ട്	-848
▁സമർപ്പിച്ച	-849
▁0	-850
▁ഫല	-851
▁പ്രോസിക്യൂ	-852
▁നഷ്ട	-853
ിരുന്നാലും	-854
▁ആർ	-855
▁പരാതി	-856
ത്തിനായി	-857
▁എന്നിരുന്നാലും	-858
ദ്ധതി	-859
▁തിരഞ്ഞ	-860
പ്പെടുത്തിയി	-861
▁യൂ	-862
▁പങ്ക	-863
▁സമയ	-864
▁ജുഡീഷ	-865
▁രാഷ്ട്രപതി	-866
മിന	-867
ിലെടു	-868
▁കണക്കിലെടു	-869
മ്പ്	-870
ക്കുറിച്ച	-871
▁നിരീക്ഷ	-872
ാണെന്ന്	-873
മെന്റ	-874
രുത	-875
ക്കായി	-876
ത്തിനും	-877
പെ	-878
ിലാക്ക	-879
▁തർക്ക	-880
▁.	-881
▁പദ്ധതി	-882
ാഭ	-883
േയ	-884
▁സ്ഥിര	-885
ങ്ങൾക്ക്	-886
▁വകുപ്പ്	-887
കർ	-888
ചെയ	-889
▁പുന	-890
ധ്യ	-891
▁എന്നാൽ	-892
▁രണ്ട	-893
പ്പോ	-894
ചന	-895
ംബ	-896
▁നിയമത്തിലെ	-897
ത്തിനുള്ള	-898
▁രീതി	-899
▁സൂചിപ്പ	-900
▁രജി	-901
▁വിൽ	-902
▁ചോദ്യം	-903
▁ന്റെ	-904
▁നിയമപ്രകാരം	-905
ായിരിക്ക	-906
ുല	-907
▁വിവിധ	-908
▁ഉറ	-909
▁തന്നെ	-910
▁രാജ്യ	-911
▁സംഭവ	-912
▁പിഡബ്ല്യു	-913
മാണെന്ന്	-914
ക്ഷേപ	-915
ബ്യൂ	-916
▁ഉദ്യോഗ	-917
▁കാ	-918
▁ഒന്ന	-919
▁കൈമാ	-920
▁വിദ്യ	-921
സ്ട്ര	-922
▁കേസിൽ	-923
ുകയോ	-924
▁വ്യത്യ	-925
▁ഉദ്യോഗസ്ഥ	-926
▁ക്രി	-927
മാക	-928
കളിൽ	-929
വുമായി	-930
രുദ്ധ	-931
▁കുറ	-932
▁അഭിഭാഷകൻ	-933
േദഗതി	-934
▁ഇല്ല	-935
▁പ്രവർത്തി	-936
ത്രി	-937
▁ആശ്ര	-938
▁തുക	-939
സഭ	-940
▁ബന്ധപ്പെട്ട്	-941
കളെ	-942
▁അവസാന	-943
▁ലോ	-944
പ്പം	-945
▁ചുമ	-946
ുകൂല	-947
▁അതിൽ	-948
▁സ്ഥാന	-949
▁ശരിയ	-950
▁പിന്	-951
▁അതിന	-952
ായ്	-953
തല	-954
▁ഹാജ	-955
▁എം	-956
ിതി	-957
▁പ്രതികരിക്കുന്ന	-958
▁ഉത്തരവ	-959
പ്ത	-960
▁മാർ	-961
▁വിഭാഗ	-962
ണ്ഡിക	-963
ായത്	-964
▁യഥ	-965
▁ഹാജര	-966
ശേഷം	-967
ഴ്ച	-968
യൽ	-969
▁ഞങ്ങളുടെ	-970
▁താൽ	-971
മിനൽ	-972
▁അതോറി	-973
▁സ്യൂ	-974
▁വിലയി	-975
▁സമ്മ	-976
ുകൊ	-977
▁അടിസ്ഥാനത്തിൽ	-978
മ്മാണ	-979
▁ഭേദഗതി	-980
ിയെ	-981
▁കെ	-982
ൂഹ	-983
▁തൊഴ	-984
സു	-985
ക്കുന്നു	-986
▁പിന്തു	-987
▁പ്രസ	-988
സ്റ്റി	-989
ീം	-990
▁പ്രയോഗ	-991
രം	-992
▁നിയമത്തിന്റെ	-993
ാനാവ	-994
കൃത്യ	-995
▁റിട്ട്	-996
▁നടപടി	-997
കം	-998
▁ഖണ്ഡിക	-999
േഖല	-1000
സൈ	-1001
▁അതായത്	-1002
▁ഒഴിവാക്ക	-1003
▁കണ്ടെത്ത	-1004
▁തമ്മ	-1005
▁ക്രിമിനൽ	-1006
▁കൈവശ	-1007
▁ബാധക	-1008
▁വീണ്ട	-1009
▁കുറ്റകൃത്യ	-1010
▁ദു	-1011
▁തന്റെ	-1012
▁നികുതി	-1013
▁ഓരോ	-1014
ീവ്	-1015
▁പ്രദേശ	-1016
▁ഉചിത	-1017
▁ക്ര	-1018
രിക്കുന്ന	-1019
തോ	-1020
ക്കുന്നതിന	-1021
▁ഓഫീസ	-1022
ോട്	-1023
വുമായ	-1024
▁സർക്കാര	-1025
▁യോഗ്യത	-1026
▁സ്ക	-1027
ഖ്യാപ	-1028
ിൾ	-1029
സിന	-1030
ജ്ഞ	-1031
ൈസ	-1032
സൃത	-1033
ുന്നതിനുള്ള	-1034
▁സുപ്ര	-1035
▁ജോ	-1036
▁ആരംഭ	-1037
ശ്ച	-1038
▁പ്രഖ്യാപ	-1039
ത്തിലും	-1040
വെന്ന്	-1041
▁വര	-1042
▁നിരസ	-1043
പാട	-1044
ലിയ	-1045
ക്കൊ	-1046
▁അനുസരിച്ച്	-1047
▁പ്രൊ	-1048
▁ദിവ	-1049
ീകരണ	-1050
१०	-1051
▁ഇതിന	-1052
രണം	-1053
▁നേട	-1054
▁സമർപ്പിച്ചു	-1055
▁ആക്റ്റ്	-1056
▁ജുഡീഷ്യൽ	-1057
▁സ്ഥാപന	-1058
ിക്	-1059
ാൾ	-1060
▁എടു	-1061
ങ്ങനെ	-1062
യ്യ	-1063
റിന്റെ	-1064
▁കട	-1065
▁പ്രവർത്തന	-1066
▁ഒര	-1067
▁റൂ	-1068
▁പുതിയ	-1069
▁നടപ്പാക്ക	-1070
▁എന്ത	-1071
▁പാ	-1072
ാവി	-1073
ൊന്ന	-1074
▁ഉയർന്ന	-1075
കാര്യ	-1076
▁തിരഞ്ഞെടു	-1077
എം	-1078
▁മറ്റൊരു	-1079
▁കീഴിലുള്ള	-1080
▁സിവ	-1081
▁സ്ഥല	-1082
യോജ	-1083
▁പ്രസ്താവന	-1084
▁ആയി	-1085
ത്സ	-1086
ക്ടർ	-1087
ാണെന്നും	-1088
▁നിയമനിർ	-1089
▁വേണ്ട	-1090
▁മുന്ന	-1091
കട	-1092
▁അന്ത	-1093
നും	-1094
▁നടത്തിയ	-1095
▁ഭൂമി	-1096
ക്തി	-1097
▁ടെ	-1098
ൺസ	-1099
▁പോലീസ്	-1100
ോടെ	-1101
▁പാല	-1102
▁നിയമപരമായ	-1103
▁പ്രശ്	-1104
രിച്ച	-1105
▁സംരക്ഷ	-1106
രമായ	-1107
▁പ്രതികൾ	-1108
ഘട്ട	-1109
▁ഉറപ്പ	-1110
ത്തിക	-1111
▁സിവിൽ	-1112
▁അധികാരപരി	-1113
▁കീഴിൽ	-1114
ൻസ	-1115
ിച്ചിട്ടില്ല	-1116
▁പറയ	-1117
▁അന്വേഷണ	-1118
ബല്യ	-1119
ംഘ	-1120
▁നിർണ്ണ	-1121
ക്തമായ	-1122
▁മാത്രമല്ല	-1123
▁നിർവ	-1124
ങ്ക്	-1125
ാനാവില്ല	-1126
▁ഉന്ന	-1127
▁പ്രാബല്യ	-1128
ിക്കുന്നതിനുള്ള	-1129
▁നിക്ഷേപ	-1130
▁മരണ	-1131
▁ശ്രമ	-1132
ുമെന്ന്	-1133
▁സാമ്പ	-1134
▁മൂല്യ	-1135
വിടെ	-1136
▁ബെഞ്ച്	-1137
സുപ്ര	-1138
▁ഏക	-1139
െതിരെ	-1140
▁അതേ	-1141
▁അക്ക	-1142
▁മാത്രമേ	-1143
▁അധികാരം	-1144
▁തെളിവുകൾ	-1145
▁ആരോപ	-1146
ൃഷ്ട	-1147
സ്റ്റർ	-1148
ുറ	-1149
▁വ്യാ	-1150
വല	-1151
▁യഥാർത്ഥ	-1152
യില്ല	-1153
▁മേഖല	-1154
ii	-1155
▁ജെ	-1156
ിയും	-1157
▁മുകളിൽ	-1158
▁ഞാൻ	-1159
പ്ല	-1160
▁ഡോ	-1161
ക്കാൻ	-1162
വേശ	-1163
▁മൊ	-1164
ാണി	-1165
▁മൂന്ന്	-1166
▁ഉള്ള	-1167
▁വിധേയ	-1168
വധി	-1169
▁കുട	-1170
▁പട്ട	-1171
ക്രിയ	-1172
്യാസ	-1173
ിവി	-1174
▁ലംഘ	-1175
പ്പോഴ	-1176
▁ചെയ്തി	-1177
).	-1178
▁വിള	-1179
▁നൽകുന്ന	-1180
കാര്യം	-1181
ാക്കി	-1182
ട്	-1183
▁കൃ	-1184
▁നടപടികൾ	-1185
▁അപ്പീലുകൾ	-1186
▁പ്രവേശ	-1187
മിറ്റ	-1188
▁അവകാശം	-1189
▁ചെല	-1190
▁അപേക്ഷക	-1191
▁കരാറ	-1192
▁വായി	-1193
▁കൈകാര്യം	-1194
റ്റം	-1195
ുശേഷം	-1196
▁ബോർ	-1197
റെ	-1198
▁മോ	-1199
▁സ്വഭാവ	-1200
ാവുന്ന	-1201
ത്തിലുള്ള	-1202
▁പദ	-1203
സന	-1204
സിസി	-1205
ികളെ	-1206
ാതന്ത്ര	-1207
പ്പര്യ	-1208
▁ബോ	-1209
▁അർത്ഥ	-1210
▁വിശദീകര	-1211
ഗമ	-1212
പ്തി	-1213
ച്ചു	-1214
▁ഉത്തരവി	-1215
▁തിരിച്ച	-1216
▁പ്രാബല്യത്തിൽ	-1217
ഡർ	-1218
▁I	-1219
▁ഭരണഘടനാ	-1220
ിക്കുമ്പോൾ	-1221
ശ്വാ	-1222
ുമില്ല	-1223
▁സുരക്ഷ	-1224
▁വാങ്ങ	-1225
രിപ്പ	-1226
യള	-1227
▁കാലയള	-1228
മുണ്ട്	-1229
▁വകുപ്പ	-1230
▁ലിമിറ്റ	-1231
▁കരാർ	-1232
ിറ്റി	-1233
▁ചെയ്യാൻ	-1234
▁ഫയൽ	-1235
▁അദ്ദേഹത്തിന്റെ	-1236
▁ഉടമ	-1237
കരണ	-1238
▁റിപ്പോർട്ട്	-1239
ണമെന്ന്	-1240
▁അനുമതി	-1241
▁ഡെ	-1242
ാഭ്യാസ	-1243
▁നടപടിക്രമ	-1244
▁എന്നതാണ്	-1245
്യമായ	-1246
യറ	-1247
റൽ	-1248
▁ദേശ	-1249
എൽ	-1250
ഗ്രഹ	-1251
▁സാമ്പത്തിക	-1252
▁കോടതിയിൽ	-1253
ുണ്ട	-1254
ഷ്യ	-1255
നുസരിച്ച്	-1256
ിച്ചിരിക്കുന്ന	-1257
▁സൃഷ്ട	-1258
▁തെറ്റ	-1259
▁കമ്പനി	-1260
ാണെങ്കിൽ	-1261
മാരുടെ	-1262
ീർ	-1263
പ്പെടെ	-1264
▁നമ്മ	-1265
കല	-1266
യാളുടെ	-1267
▁വളരെ	-1268
ിയോ	-1269
▁സംശ	-1270
▁നേരി	-1271
▁,	-1272
▁ആക്ടി	-1273
ക്കുന്നതിന്	-1274
▁പാസ	-1275
ുന്നതിനായി	-1276
▁സ്വാതന്ത്ര	-1277
വിൽ	-1278
ാനോ	-1279
▁ഭരണഘടനയുടെ	-1280
ിക്കപ്പെട്ട	-1281
ിക്കാനുള്ള	-1282
▁ബാധ്യത	-1283
▁വിദ്യാഭ്യാസ	-1284
▁ജീവന	-1285
ാമത്തെ	-1286
ീപ	-1287
▁പ്രസി	-1288
മൊരു	-1289
▁പറഞ്ഞു	-1290
▁വിഷയ	-1291
േജ്	-1292
ർപ്പറ	-1293
ദ്ര	-1294
ിരിക്കുന്ന	-1295
▁ചേ	-1296
▁തുറ	-1297
ുത	-1298
▁കമ്പന	-1299
▁നിയമങ്ങൾ	-1300
ണർ	-1301
▁പുറപ്പെടുവിച്ച	-1302
ീല	-1303
ാവകാശ	-1304
▁പാർല	-1305
തിനി	-1306
പരിഹാര	-1307
▁സിംഗ്	-1308
വിത	-1309
ണിയ	-1310
▁സുപ്രീം	-1311
ലും	-1312
▁റൂൾ	-1313
▁വേണ്ടി	-1314
▁പട്ടിക	-1315
മായിരിക്ക	-1316
▁തല	-1317
ോളം	-1318
യായി	-1319
പ്പന	-1320
▁നഷ്ടപരിഹാര	-1321
▁പരിഗണന	-1322
െഡ	-1323
▁മി	-1324
ുകൊണ്ട്	-1325
▁നിയമനിർമ്മാണ	-1326
ിക്കുന്നതിൽ	-1327
११	-1328
ചെയ്യ	-1329
▁പ്രക്രിയ	-1330
▁ജസ്റ്റി	-1331
▁അടങ്ങ	-1332
▁ഹൈക്കോടതിയുടെ	-1333
ൻസി	-1334
വാഹ	-1335
ിലൂടെ	-1336
▁തീർപ്പ	-1337
▁ഘട്ട	-1338
▁കോർപ്പറ	-1339
കാല	-1340
രും	-1341
▁വിലയിരുത്ത	-1342
▁അത്തരമൊരു	-1343
▁നൽകുന്നു	-1344
▁റദ്ദ	-1345
▁വ്യത്യസ്ത	-1346
▁നടന്ന	-1347
▁പരാജ	-1348
▁മാത്രം	-1349
ക്കം	-1350
▁തൊഴില	-1351
▁ഇവിടെ	-1352
സ്സ്	-1353
▁തമ്മിലുള്ള	-1354
▁വർദ്ധ	-1355
▁നിഗമ	-1356
ിക്കുകയോ	-1357
▁റിപ്പോർട്ട	-1358
mp	-1359
▁അംഗീ	-1360
വിഭാഗ	-1361
▁ബിസിന	-1362
ിലോ	-1363
ലോക	-1364
യുമായി	-1365
ത്തം	-1366
▁ദേശീയ	-1367
▁o	-1368
ക്കുറിച്ചുള്ള	-1369
▁മുഴ	-1370
തുമായ	-1371
ായം	-1372
▁ഉൽ	-1373
▁വിധി	-1374
▁വിത	-1375
ത്തോളം	-1376
റ്റീഷ	-1377
കത	-1378
▁സ്യൂട്ട്	-1379
േണ്ടതുണ്ട്	-1380
▁വിൽപ്പന	-1381
▁വഴി	-1382
▁മുഴുവ	-1383
▁കമ്മീഷൻ	-1384
▁നമ്മുടെ	-1385
ന്യ	-1386
▁ഉദ്ദേശ്യ	-1387
തിർന്ന	-1388
ിഷ്ട	-1389
▁പെറ്റീഷ	-1390
▁നിരവധി	-1391
ജ്യ	-1392
▁മുതിർന്ന	-1393
▁അതോറിറ്റി	-1394
ഗ്ഗ	-1395
▁അസാധ	-1396
ുവി	-1397
▁താൽപ്പര്യ	-1398
റുടെ	-1399
▁നീതി	-1400
ണല	-1401
ാറ്റ	-1402
▁ആന	-1403
▁സത്യ	-1404
▁തെളിയി	-1405
▁വിവേ	-1406
പ്പെടുത്തിയ	-1407
നായ	-1408
▁പ്രസക്തമായ	-1409
▁ഏർ	-1410
പക്ഷ	-1411
▁നടപ്പിലാക്ക	-1412
ന്തര	-1413
▁വലിയ	-1414
▁സാധാരണ	-1415
െയുള്ള	-1416
ബർ	-1417
പാദ	-1418
▁പരാജയ	-1419
ുംബ	-1420
▁സാഹചര്യത്തിൽ	-1421
▁ക്രമ	-1422
ീഫ്	-1423
തുവ	-1424
▁അവാർ	-1425
യിലേക്ക്	-1426
▁വ്യാപ	-1427
▁പിന്തുണ	-1428
▁തയ്യ	-1429
ികൾക്ക്	-1430
▁ഘട	-1431
▁തോ	-1432
▁തയ്യാറ	-1433
▁അഡ്	-1434
▁മറ	-1435
സൃതമായി	-1436
▁ഏറ്റവും	-1437
▁പൂർണ്ണ	-1438
ിട്ടുണ്ട്	-1439
▁ഉൾപ്പെടെ	-1440
ുന്നതിനും	-1441
ലെയി	-1442
ക്കുമ്പോൾ	-1443
▁ചർച്ച	-1444
ാർശ	-1445
ഫല	-1446
ാമസ	-1447
ന്തം	-1448
എൻ	-1449
▁ഫോ	-1450
ുപാർശ	-1451
▁നിയന്ത്രണ	-1452
▁അധ്യ	-1453
▁ഡിവി	-1454
▁ശുപാർശ	-1455
▁തത്വ	-1456
▁സന്ദ	-1457
▁ക്ല	-1458
കൾക്ക്	-1459
........	-1460
▁സീ	-1461
ികളും	-1462
പ്രദ	-1463
▁നിയമസഭ	-1464
▁ഉണ്ടാക	-1465
െയ്	-1466
▁കൊണ്ട	-1467
തായ	-1468
▁നോട്ട	-1469
▁മുഴുവൻ	-1470
ൽക്ക	-1471
▁സമീപ	-1472
ിക്കണം	-1473
▁തുല്യ	-1474
▁ഭാഗം	-1475
▁കാഴ്ച	-1476
▁ഉപവിഭാഗ	-1477
ിംഗ്	-1478
ക്കുന്നത്	-1479
▁ആവശ്യകത	-1480
▁അർഹ	-1481
▁പാട്ട	-1482
▁വീണ്ടും	-1483
ീന	-1484
ടക	-1485
വകു	-1486
ങ്കേ	-1487
▁വിജ്ഞ	-1488
▁ഭാര	-1489
ിക്കുന്നതിനും	-1490
ിക്കാം	-1491
▁മറ്റേ	-1492
തിലൂടെ	-1493
▁എഫ്	-1494
ർത്ഥ	-1495
ട്ടിക്ക	-1496
നത്തിന്റെ	-1497
▁കാര്യത്തിൽ	-1498
ക്കൊള്ള	-1499
ുന്നില്ല	-1500
▁രജിസ്റ്റർ	-1501
ശേഷ	-1502
▁പരിശോധന	-1503
ടുത്ത	-1504
▁ചെയ്യും	-1505
▁വ്യവഹാര	-1506
ിക്കാനും	-1507
ാരി	-1508
▁പ്രോസിക്യൂഷൻ	-1509
▁ബാങ്ക	-1510
▁ഡയറ	-1511
▁&	-1512
ത്തോടെ	-1513
ുമു	-1514
▁കൗ	-1515
▁ക്ലെയി	-1516
▁വിവാഹ	-1517
▁ചീഫ്	-1518
▁മെഡ	-1519
▁വാടക	-1520
ദ്ദിഷ്ട	-1521
▁ഇടപെ	-1522
ബന്ധന	-1523
ത്രീ	-1524
▁ന്യൂ	-1525
ക്കാല	-1526
▁തീരുമാനം	-1527
▁ദിവസ	-1528
ുകയ	-1529
ിക്കേണ്ടതുണ്ട്	-1530
▁കഴിയും	-1531
▁നിർബന്ധ	-1532
▁സർവ	-1533
▁പോലും	-1534
▁നിലവിലെ	-1535
▁ജില്ല	-1536
▁കൗൺസ	-1537
▁കണ്ടെത്തി	-1538
േജ	-1539
മിത	-1540
ക്കാർ	-1541
▁താ	-1542
▁കാർ	-1543
ിരിക്കുന്നു	-1544
▁നിർമ്മ	-1545
ിബ്യൂ	-1546
▁നൽകേണ്ട	-1547
രുത്	-1548
▁നിന്നും	-1549
▁ആവശ്യമായ	-1550
▁ഉചിതമായ	-1551
▁ട്രൈ	-1552
ജിസ്	-1553
▁നിബന്ധന	-1554
▁അടിസ്ഥാനമാക്ക	-1555
▁നിർദ്ദിഷ്ട	-1556
▁ആഗ്രഹ	-1557
▁അടങ്ങിയി	-1558
ിയിലെ	-1559
▁സാമ	-1560
ിക്കുന്നില്ല	-1561
ൊപ്പം	-1562
▁ആശ്രയിച്ച	-1563
▁അധികാരപരിധി	-1564
▁വിവരങ്ങൾ	-1565
്യസ്ഥ	-1566
ത്തിലൂടെ	-1567
ഷിക	-1568
▁പ്രകാര	-1569
▁ഘടക	-1570
▁കണക്കിലെടുത്ത്	-1571
ൻഡ	-1572
▁ക്ലോ	-1573
▁വിധിന്യായത്തിൽ	-1574
▁സ്വയം	-1575
ങ്കേതിക	-1576
തൃ	-1577
▁വെളി	-1578
▁മുമ്പാക	-1579
▁ചാർ	-1580
റിൽ	-1581
▁ശേഷ	-1582
▁റോ	-1583
▁മെഡിക്കൽ	-1584
ഹിത	-1585
▁ഇടപെട	-1586
സമ	-1587
ക്സ്	-1588
▁ട്രൈബ്യൂ	-1589
▁മുമ്പാകെ	-1590
▁ചൂ	-1591
പ്പർ	-1592
▁ഓഫീസർ	-1593
00	-1594
▁മനസ്സ	-1595
▁നടത്തി	-1596
ുകൾക്ക്	-1597
▁ഉം	-1598
യിലും	-1599
ിച്ചത്	-1600
▁ലിമിറ്റഡ്	-1601
▁കോടതിക്ക്	-1602
ത്തിലേക്ക്	-1603
▁സ്ത്രീ	-1604
▁സമാന	-1605
ൂര	-1606
▁വിജ്ഞാപ	-1607
ഫിക്ക	-1608
▁പിഴ	-1609
േഴ്	-1610
തായും	-1611
▁അയ	-1612
▁ന്യായമായ	-1613
▁ഉപവകു	-1614
amp	-1615
ബിട്ര	-1616
▁ഉപദേശ	-1617
▁രീതിയിൽ	-1618
▁ആനുകൂല	-1619
തിമ	-1620
▁സമയത്ത്	-1621
▁ബഹ	-1622
ങ്ങിയ	-1623
ത്തേക്ക്	-1624
▁ലക്ഷ്യ	-1625
ലിശ	-1626
▁വിചാരണക്കോടതി	-1627
ന്ത്രി	-1628
ോദ	-1629
ത്തെക്കുറിച്ച്	-1630
▁സമൂഹ	-1631
സ്വ	-1632
ർന്ന്	-1633
▁ആയ	-1634
▁കരുത	-1635
▁വികസന	-1636
▁വ്യാഖ്യ	-1637
വെന്നും	-1638
▁S	-1639
ശ്യ	-1640
ുന്നതിൽ	-1641
▁മുമ്പ്	-1642
ാലോ	-1643
▁അനുകൂല	-1644
സർ	-1645
▁അവി	-1646
▁മറ്റേതെങ്കിലും	-1647
▁പലിശ	-1648
ക്കൾ	-1649
▁കക്ഷികൾ	-1650
ങ്ങളിലും	-1651
▁വ്യാഖ്യാന	-1652
▁റദ്ദാക്ക	-1653
മിക	-1654
▁വാക്ക	-1655
▁സാങ്കേതിക	-1656
വ്വ	-1657
▁കേസിന്റെ	-1658
▁സമ്മതി	-1659
▁സംബന്ധിച്ച	-1660
▁സ്വാതന്ത്ര്യ	-1661
ടിപ്പ	-1662
മ്മാ	-1663
ണങ്ങൾ	-1664
▁സ്റ്റേറ്റ്	-1665
▁അഭ്യ	-1666
പൂർ	-1667
▁വ്യക്തമായി	-1668
▁മനു	-1669
റ്റർ	-1670
१२	-1671
മാണെന്നും	-1672
▁പിന്ന	-1673
▁നിയമത്തിൽ	-1674
▁വഹ	-1675
ഗുല	-1676
▁ജീവിത	-1677
▁അങ്ങനെ	-1678
▁മൂന്ന	-1679
ജീ	-1680
▁നെ	-1681
▁പ്രതിയുടെ	-1682
▁രൂപീകര	-1683
തുമായി	-1684
എഫ്	-1685
▁നിലനിർ	-1686
▁ഗ്രാമ	-1687
▁ട്രിബ്യൂ	-1688
▁സാധ്യത	-1689
▁വിപ	-1690
പ്പാട	-1691
▁ജഡ്ജ	-1692
▁ചര	-1693
▁കമ്മിറ്റി	-1694
പ്പെടും	-1695
▁ലൈ	-1696
▁ഇതിനകം	-1697
▁വിരുദ്ധ	-1698
▁പരിഹ	-1699
▁അന്തിമ	-1700
▁മനുഷ്യ	-1701
▁പ്രവർത്തനങ്ങൾ	-1702
▁i	-1703
▁നാല	-1704
▁കുട്ട	-1705
ലുകൾ	-1706
ത്തിനുള്ളിൽ	-1707
▁രജിസ്ട്ര	-1708
▁പ്രതിനി	-1709
▁റഫ	-1710
ക്കുകയും	-1711
▁കുടുംബ	-1712
▁നോ	-1713
ക്കള	-1714
ുപോ	-1715
വരി	-1716
▁ഇക്കാര	-1717
െഡ്യൂ	-1718
▁മജിസ്	-1719
▁സ്ഥിരീകര	-1720
▁ഉൾക്കൊള്ള	-1721
▁വാണി	-1722
ങ്ങളുടെയും	-1723
ത്മ	-1724
ിറ്റ	-1725
്രാ	-1726
▁പരീക്ഷ	-1727
▁പ്രവ	-1728
ികളിൽ	-1729
▁വർഷം	-1730
▁ഹര	-1731
▁അർഹത	-1732
റുകൾ	-1733
▁അന്വേഷണം	-1734
▁ഏറ്റെടുക്ക	-1735
▁ബാങ്ക്	-1736
ിക്കുന്നതിനായി	-1737
▁c	-1738
▁ഷെഡ്യൂ	-1739
നീയ	-1740
കരമായ	-1741
▁റെഗുല	-1742
▁എതി	-1743
ത്തിന്റെയും	-1744
യാൾക്ക്	-1745
▁ലഭിച്ച	-1746
▁അതിനുശേഷം	-1747
▁യൂണിയ	-1748
ിട്ട	-1749
▁ഏറ്റെടു	-1750
ുമതി	-1751
മാൻ	-1752
ടത്തോളം	-1753
▁വരുമാന	-1754
▁ഉപയോഗിച്ച്	-1755
▁ഡിവിഷൻ	-1756
▁വാദിച്ചു	-1757
ിച്ചിട്ടുണ്ട	-1758
ിക്കാത്ത	-1759
▁നിന്നുള്ള	-1760
ഹി	-1761
▁നിർവച	-1762
▁ഉത്തരവാദ	-1763
▁സ്വകാര്യ	-1764
ിഞ്ഞ	-1765
സിപ്പ	-1766
▁എന്നത്	-1767
▁നിഗമന	-1768
ായിരുന്ന	-1769
യാള	-1770
▁കരാ	-1771
ശ്വ	-1772
ർഭ	-1773
ശ്വാസ	-1774
ിരുന്നു	-1775
▁സമ്പ	-1776
ിച്ചിടത്തോളം	-1777
▁അറിയി	-1778
▁നൽകാൻ	-1779
▁നിശ്ച	-1780
▁വിജ	-1781
മൂല	-1782
▁പ്ല	-1783
▁വശ	-1784
ശിക്ഷ	-1785
ഡിന്റെ	-1786
▁അവളുടെ	-1787
േഷന	-1788
▁മുഖ	-1789
▁നിലനിർത്ത	-1790
▁നിർണ്ണയിക്ക	-1791
▁വന്ന	-1792
ത്തെയും	-1793
▁ഇര	-1794
▁ശത	-1795
ന്റർ	-1796
െയോ	-1797
▁പതി	-1798
▁കൈവശം	-1799
▁ലഭ്യ	-1800
▁സാമൂഹ	-1801
തം	-1802
▁സംസ്ഥാനം	-1803
▁മിക	-1804
▁പഞ്ച	-1805
▁ജസ്റ്റിസ്	-1806
▁ആശയ	-1807
▁പൊതുവ	-1808
▁എന്നിവയുടെ	-1809
ുകളെ	-1810
▁വെല്ല	-1811
▁നിറ	-1812
al	-1813
▁പേര	-1814
മാര	-1815
▁ഉട	-1816
വിരുദ്ധ	-1817
ത്രം	-1818
▁ബെഞ്ച	-1819
▁പക്ഷേ	-1820
▁മുന്നോ	-1821
ത്തിലാണ്	-1822
▁സ്വത്ത്	-1823
ുദ്ധ	-1824
▁ഏജ	-1825
▁C	-1826
▁വധ	-1827
▁പ്രകാരമുള്ള	-1828
പ്പോഴും	-1829
ട്ടിഫിക്ക	-1830
▁കാഴ്ചപ്പാട	-1831
▁ഉപവകുപ്പ്	-1832
ൊന്നും	-1833
ക്യ	-1834
▁ഏത്	-1835
▁പരിക്ക	-1836
ിട്ടില്ല	-1837
▁ഇപ്പോൾ	-1838
ുമുള്ള	-1839
സമ്മ	-1840
ിച്ചിരിക്കുന്നു	-1841
പാ	-1842
▁പ്രതിക്ക്	-1843
ാവ്	-1844
ങ്ങൾക്ക	-1845
▁വെല്ലുവി	-1846
്ബിട്ര	-1847
▁മാറ്റിവ	-1848
ംബർ	-1849
ക്ഷണ	-1850
▁സ്ഥാനാർത്ഥ	-1851
▁തോന്ന	-1852
നിമ	-1853
er	-1854
യുണ്ട്	-1855
▁ഗവ	-1856
ൗര	-1857
▁അറ	-1858
▁നിലവിലുള്ള	-1859
▁മന്ത്ര	-1860
▁വാണിജ്യ	-1861
ങ്ങളുമായി	-1862
ായുള്ള	-1863
▁അതി	-1864
▁അധിക	-1865
▁ആര്ബിട്ര	-1866
▁കോള	-1867
ദാ	-1868
▁മാസ	-1869
ക്ഷി	-1870
ടക്ക	-1871
▁അസാധുവ	-1872
▁ഞങ്ങൾക്ക്	-1873
▁ഭൂമ	-1874
▁പ്രായ	-1875
▁ധന	-1876
ിടയിൽ	-1877
▁ദില്ല	-1878
▁പരിധി	-1879
▁താമസ	-1880
▁വിവേചന	-1881
▁അപ്പീലിന്	-1882
പാത	-1883
▁ക്ലോസ്	-1884
റ്റിൽ	-1885
▁പരിമിത	-1886
▁നഷ്ടപരിഹാരം	-1887
സ്യ	-1888
▁അവലോക	-1889
▁കൃത്യ	-1890
സാഡ്	-1891
സർക്ക	-1892
▁ലൈസ	-1893
▁പെരു	-1894
▁അള	-1895
▁താഴ	-1896
▁വ്യവസ	-1897
▁ജീവ	-1898
സാഹ	-1899
▁സൂക്ഷ	-1900
രിക്കുന്നു	-1901
▁എക്സിക്യൂ	-1902
▁വരുത്ത	-1903
നികുതി	-1904
▁അഭിഭാഷക	-1905
▁നിലനിൽ	-1906
▁അഭ്യർത്ഥ	-1907
▁പാർലമെന്റ	-1908
▁അനുവദനീയ	-1909
▁എന്തെങ്കിലും	-1910
വരുടെ	-1911
സിയ	-1912
മായിരുന്നു	-1913
▁തിക	-1914
▁സോ	-1915
ിക്കപ്പെടുന്നു	-1916
റും	-1917
▁പെരുമാ	-1918
▁പശ്ച	-1919
ട്ടറി	-1920
▁ഗവൺ	-1921
ദണ്ഡ	-1922
▁അദ്ദേഹത്തിന്	-1923
▁ഇരു	-1924
▁ബഹു	-1925
▁കൈമാറ്റം	-1926
▁വ്യക്തമാണ്	-1927
▁സബ്	-1928
▁വിദേശ	-1929
ലിൽ	-1930
▁പരിഷ്	-1931
▁ബോർഡ്	-1932
▁ജനറൽ	-1933
ർക്കും	-1934
▁മാനദണ്ഡ	-1935
പര്യ	-1936
ത്ത്വ	-1937
▁സംബന്ധിച്ച്	-1938
ാരം	-1939
ട്ടർ	-1940
▁വ്യക്തിയുടെ	-1941
▁സൈ	-1942
▁കർ	-1943
ിയുള്ള	-1944
▁വധശിക്ഷ	-1945
▁മരിച്ച	-1946
▁വാദം	-1947
രുത്തി	-1948
നിർണ്ണ	-1949
...	-1950
▁പരിശീല	-1951
▁കി	-1952
▁ചൂണ്ട	-1953
▁എക്സ്	-1954
റ്റിന്റെ	-1955
ാപരമായ	-1956
▁എന്റെ	-1957
▁സഹായി	-1958
▁പരാതിക്കാര	-1959
▁ഇന്ത്യയുടെ	-1960
▁१	-1961
▁നൽകിയിട്ടുള്ള	-1962
▁വ്യത്യാസ	-1963
▁കൂട്ട	-1964
ou	-1965
▁തള്ള	-1966
▁അപകട	-1967
ബോധ	-1968
ഭരണ	-1969
ാക്കാൻ	-1970
ിയില	-1971
റോ	-1972
▁രേഖപ്പെടുത്തിയി	-1973
▁ചുമത്ത	-1974
▁ഉത്തരവാദി	-1975
▁നയ	-1976
▁ആർട്ടിക്ക	-1977
▁ടി	-1978
▁അനുബന്ധ	-1979
ുണ്ട്	-1980
ീര	-1981
ികെ	-1982
യുണ്ട	-1983
േക്കാം	-1984
ില്ലെന്ന്	-1985
സ്തിക	-1986
ബ്ലിക്	-1987
▁മികച്ച	-1988
▁അല	-1989
മുഖ	-1990
▁അനുഭവ	-1991
▁മാത്രമാണ്	-1992
വുമില്ല	-1993
▁തസ്തിക	-1994
കൃത	-1995
▁നീക്കം	-1996
ഗണന	-1997
▁ജോലി	-1998
▁വിതരണം	-1999
▁ചൂണ്ടിക്ക	-2000
▁ശേഖ	-2001
ധികം	-2002
▁കുറ്റവാ	-2003
േക്കുള്ള	-2004
യ്ക്കുള്ള	-2005
ാൻസ്	-2006
▁വിഷയം	-2007
ങ്ങൾക്കും	-2008
▁മതി	-2009
ത്സാഹ	-2010
▁ചെയ്യുകയും	-2011
വെ	-2012
▁വരുമാനം	-2013
നോ	-2014
▁സമിതി	-2015
▁തത്ത്വ	-2016
ങ്ങളിലെ	-2017
ിക്കപ്പെടുന്ന	-2018
▁ആനുകൂല്യ	-2019
കോ	-2020
▁കാരണങ്ങള	-2021
▁നിർദ്ദേശം	-2022
പ്രദേശ	-2023
▁ഉപവിഭാഗം	-2024
▁സർട്ടിഫിക്ക	-2025
▁കുറഞ്ഞ	-2026
▁ചുമതല	-2027
ജന	-2028
ൻറെ	-2029
▁സൗ	-2030
▁ആദ	-2031
യ്ക്കായി	-2032
▁പോക	-2033
▁വരുന്ന	-2034
▁സാഹചര്യങ്ങളിൽ	-2035
▁വ്യക്തമാക്കിയ	-2036
▁ഉണ്ടായിരിക്ക	-2037
പാട്	-2038
ശ്ര	-2039
▁A	-2040
ങ്ങൾക്കായി	-2041
ത്വം	-2042
▁വൈദ്യ	-2043
▁കേന്ദ്രസർക്ക	-2044
▁ടാ	-2045
▁എക്സിക്യൂട്ട	-2046
കൂ	-2047
േണ്ടത്	-2048
തന്ത്ര	-2049
ലിന	-2050
▁ഓർഡ	-2051
▁രണ്ടാമത്തെ	-2052
▁പ്രക	-2053
▁ഭാഷ	-2054
▁കോട	-2055
▁ജി	-2056
▁ഉൾപ്പെടുത്ത	-2057
▁ശക്തി	-2058
ഷുറ	-2059
ർജി	-2060
▁വെളിപ്പെടുത്ത	-2061
ാളി	-2062
▁കാലത	-2063
▁മൂല്യനിർണ്ണ	-2064
ചെയ്	-2065
റു	-2066
▁സംശയ	-2067
▁ഉന്നയിച്ച	-2068
▁ആക്ടിന്	-2069
▁വാഹ	-2070
▁അവർക്ക്	-2071
പാല	-2072
▁അറ്റ	-2073
▁നിരക്ക	-2074
▁കസ്റ്റ	-2075
ാധികാര	-2076
▁അഭിപ്രായത്തിൽ	-2077
▁തിരഞ്ഞെടുപ്പ്	-2078
▁ആദ്യത്തെ	-2079
സാര	-2080
▁വർദ്ധിപ്പ	-2081
ണ്ണം	-2082
▁ആവശ്യമാണ്	-2083
െതിരായ	-2084
ിന്ദ	-2085
ലിന്റെ	-2086
▁എന്നിവയിൽ	-2087
▁തടയ	-2088
▁അറിയ	-2089
▁നിയമവിരുദ്ധ	-2090
▁കുറ്റം	-2091
▁നോട്ടീസ്	-2092
▁ഗുണ	-2093
▁പ്രത	-2094
▁അതോറിറ്റ	-2095
▁ഗവർ	-2096
▁തുടങ്ങിയ	-2097
വർത്ത	-2098
▁ആക	-2099
ിക്ക്	-2100
ക്കുറിച്ചും	-2101
▁അവസാനിപ്പ	-2102
▁രോഗ	-2103
▁ചെലവ	-2104
▁കഴിവ	-2105
ിച്ചതുപോലെ	-2106
▁മന്ത്രാല	-2107
१३	-2108
യ്ക്കും	-2109
▁സിംഗ	-2110
ാസ്ത്ര	-2111
▁ക്ലെയിം	-2112
▁പിട	-2113
ക്ഷമ	-2114
ട്ടിട	-2115
സീ	-2116
▁ആർട്ടിക്കിൾ	-2117
▁പ്രകട	-2118
▁നിലയിൽ	-2119
ഗത	-2120
▁ശരിയായ	-2121
▁ഉൾപ്പെടുന്നു	-2122
ട്ടിൽ	-2123
▁a	-2124
▁കോടതികൾ	-2125
▁പൊരുത്ത	-2126
ക്കോ	-2127
മ്പള	-2128
ഹരണ	-2129
▁ചെയ്യുന്നത്	-2130
▁വിശ്വ	-2131
▁കഴിഞ്ഞ	-2132
ജ്ജ	-2133
ഡിംഗ്	-2134
▁പിൻ	-2135
ൻറ്	-2136
ത്തിനു	-2137
തുവരെ	-2138
▁നൽകിയിട്ടുണ്ട്	-2139
തെന്ന്	-2140
▁കെട്ടിട	-2141
ഥമിക	-2142
▁അടുത്ത	-2143
ാംശ	-2144
▁ഈട	-2145
▁വയ	-2146
ക്കുന്നതിനുള്ള	-2147
ഭോ	-2148
വേദ	-2149
▁പ്രോത്സാഹ	-2150
ദേശിക	-2151
▁പൂർണ്ണമായും	-2152
ീകരണം	-2153
ാമൂല	-2154
▁ജല	-2155
ാത്തതിനാൽ	-2156
▁പുതു	-2157
▁തൽ	-2158
▁പ്രസിഡ	-2159
ിക്കപ്പെട്ടു	-2160
▁ലോക	-2161
▁പോയി	-2162
▁രേഖാമൂല	-2163
▁പിന്തുട	-2164
▁ജാമ	-2165
▁ജില്ലാ	-2166
▁നവ	-2167
റാ	-2168
യെക്കുറിച്ച്	-2169
ഭോക്ത	-2170
▁അനുകൂലമായി	-2171
്യത്തിൽ	-2172
നിർദ്ദേശ	-2173
▁രേഖപ്പെടുത്ത	-2174
ക്കത്തിൽ	-2175
▁തുടർന്ന	-2176
▁ഖന	-2177
▁ശമ്പള	-2178
▁പ്രാഥമിക	-2179
▁അനുസൃതമായി	-2180
വർക്ക്	-2181
▁പ്രാദേശിക	-2182
▁ബ്ര	-2183
▁സ്വതന്ത്ര	-2184
രോധ	-2185
▁റിസർ	-2186
റ്റുകൾ	-2187
▁ലക്ഷം	-2188
▁ചെയ്യുക	-2189
▁ആവശ്യപ്പെട്ട	-2190
വേറ്റ	-2191
▁കേസുകളിൽ	-2192
▁തര	-2193
▁യൂണി	-2194
നത്തിൽ	-2195
സ്ഥിതി	-2196
ad	-2197
▁ക്ഷേ	-2198
സിയുടെ	-2199
കർഷ	-2200
▁നല്ല	-2201
▁കള	-2202
▁പാസാക്കിയ	-2203
▁വ്യവസായ	-2204
ട്രി	-2205
ക്കെതിരെ	-2206
മെന്ന്	-2207
ാധി	-2208
▁പല	-2209
▁ചരക്ക	-2210
ിക്കപ്പെട	-2211
യിലുള്ള	-2212
േക്കാൾ	-2213
▁സാമൂഹിക	-2214
ോർട്ട്	-2215
▁കോടി	-2216
ഷന	-2217
ൻഷൻ	-2218
▁സ്വീകരിച്ച	-2219
പിഡബ്ല്യു	-2220
▁ഏത	-2221
സമയം	-2222
▁ഒരേ	-2223
യുടെയും	-2224
▁അവാർഡ്	-2225
▁വീക്ഷ	-2226
ജെ	-2227
▁പൗര	-2228
▁നിങ്ങളുടെ	-2229
ിക്കുകയ	-2230
▁ഡയറക്ടർ	-2231
ംഗ്ല	-2232
ദ്യോഗിക	-2233
സ്സി	-2234
▁അവത	-2235
▁ആരോഗ	-2236
▁സേവനങ്ങൾ	-2237
ാലോചന	-2238
ിയായി	-2239
ക്കാ	-2240
ർക്ക്	-2241
▁നിരോധ	-2242
▁നൽകുകയും	-2243
▁പ്രകടിപ്പ	-2244
ക്കളുടെ	-2245
▁സെക്ര	-2246
▁മൊത്തം	-2247
▁ലേ	-2248
വാങ്	-2249
▁ദ്യോഗിക	-2250
വെന്ന	-2251
▁അനുവദിച്ച	-2252
▁ഘട്ടത്തിൽ	-2253
▁ഗ്രൂ	-2254
▁ഇൻസ്	-2255
▁പൊതുവായ	-2256
▁കരാറിന്റെ	-2257
▁വായ്	-2258
വാങ്മൂല	-2259
▁ബഹുമാന	-2260
--	-2261
▁പുനർ	-2262
▁ആസ്	-2263
തിരെ	-2264
▁പകര	-2265
തില്ല	-2266
ോഷ	-2267
ൃത്തി	-2268
േട	-2269
▁മത്സ	-2270
▁പുറത്ത	-2271
പരമായി	-2272
▁സത്യവാങ്മൂല	-2273
▁മറ്റുള്ള	-2274
ുമുമ്പ്	-2275
▁പരിഹാര	-2276
▁പ്രസിദ്ധ	-2277
നിയോഗ	-2278
▁സംസ്ഥാനത്തിന്റെ	-2279
ീമ	-2280
▁അക്കൗ	-2281
▁f	-2282
▁പുര	-2283
on	-2284
ക്കോർ	-2285
▁കൈമാറ	-2286
▁ഹിന്ദ	-2287
▁ഗുരുത	-2288
▁ബിസിനസ്സ്	-2289
▁കാലാവ	-2290
▁ഒപ്പ	-2291
▁മത	-2292
ti	-2293
▁കേൾ	-2294
നത്തിന്	-2295
ല്ലാം	-2296
േഷന്	-2297
ാന്	-2298
േക്കും	-2299
▁കുറ്റവാള	-2300
▁വ്യക്തമായ	-2301
റക്ക	-2302
കലാശ	-2303
കലാശാല	-2304
▁ഭവന	-2305
▁x	-2306
രായ	-2307
▁വിഭ	-2308
▁ദില്ലി	-2309
വ്യ	-2310
ർത്തി	-2311
ായിക	-2312
▁വെല്ലുവിള	-2313
▁വിദ	-2314
▁റെക്കോർ	-2315
ചാര	-2316
▁സൊ	-2317
▁ആയിരിക്ക	-2318
ിട്ടുണ്ട	-2319
▁പുനര	-2320
െടുത്ത	-2321
ഷ്യൽ	-2322
▁സിങ്ങ	-2323
▁കൊണ്ടുവ	-2324
▁തൊഴിൽ	-2325
▁തടസ്സ	-2326
ാനം	-2327
▁നിരീക്ഷിച്ചു	-2328
▁അപ്പീലിനെ	-2329
തുണ്ട	-2330
▁വൈക	-2331
▁അപേക്ഷകൻ	-2332
▁കേസുകൾ	-2333
ക്കുന്നതിൽ	-2334
▁സാധുത	-2335
▁ട്രൈബ്യൂണല	-2336
▁ജീവനക്കാര	-2337
▁അറിയിച്ച	-2338
ുന്നതിനോ	-2339
▁ഗോ	-2340
ഹ്	-2341
▁അവസര	-2342
▁ജൂ	-2343
▁അസം	-2344
▁നിറവേറ്റ	-2345
സ്തവ	-2346
ഷേ	-2347
▁ഇവ	-2348
▁ചു	-2349
▁സമയം	-2350
▁സീനിയ	-2351
ിച്ചിരുന്നു	-2352
▁കുമാർ	-2353
▁സ്വന്തം	-2354
▁ബാധ്യസ്ഥ	-2355
▁പബ്ലിക്	-2356
▁ഇന്ത്യയിലെ	-2357
▁സിംഗിൾ	-2358
▁റഫറ	-2359
▁ഓർഡർ	-2360
▁അധികാരങ്ങൾ	-2361
▁പ്രൊഫ	-2362
ീഡ	-2363
▁വിധേയമായി	-2364
ഷ്ഠ	-2365
▁II	-2366
മായിരിക്കും	-2367
നിക്ക്	-2368
▁നിർദ്ദേശങ്ങൾ	-2369
▁തിരിച്ചറിയ	-2370
▁മനസ്സിലാക്ക	-2371
▁അവൾ	-2372
ടങ്ങ	-2373
ാതിര	-2374
▁പ്രതീക്ഷ	-2375
▁യാത	-2376
▁പണം	-2377
നവും	-2378
▁u	-2379
iii	-2380
▁പശ്ചാത്ത	-2381
ങ്ങളില	-2382
▁ഈടാക്ക	-2383
▁ഉത്തരവുകൾ	-2384
▁അതനുസരിച്ച്	-2385
▁കൺ	-2386
▁ാലോചന	-2387
▁ചുവ	-2388
േഷന്റെ	-2389
▁നൽകുന്നതിന്	-2390
▁ആവശ്യമില്ല	-2391
ാബ	-2392
വിധാന	-2393
▁ഗൂ	-2394
മ്മാണം	-2395
▁പ്രവൃത്തി	-2396
ശ്ചിത	-2397
▁പരസ്	-2398
▁അവകാശങ്ങൾ	-2399
ത്തും	-2400
▁മഹ	-2401
▁യാതൊരു	-2402
▁സംഘ	-2403
▁ആള	-2404
▁വായ്പ	-2405
▁ലാഭ	-2406
ാണോ	-2407
▁ഫലപ്രദ	-2408
പ്റ്റ	-2409
▁അവിടെ	-2410
▁പശ്ചാത്തല	-2411
▁ഹൈക്കോടതിയിൽ	-2412
▁സമാനമായ	-2413
ിച്ചും	-2414
▁അഭാവ	-2415
▁യൂണിയൻ	-2416
ഡൽ	-2417
▁മരണപ്പെട്ട	-2418
▁മാർഗ്ഗ	-2419
▁രേഖകൾ	-2420
▁അവതരിപ്പ	-2421
▁മുമ്പായി	-2422
ികി	-2423
▁വിനിയോഗ	-2424
▁മുന്നോട്ട്	-2425
സേ	-2426
▁ആക്ടിന്റെ	-2427
▁പ്രോത്സാഹിപ്പ	-2428
▁സംവിധാന	-2429
ാവസ	-2430
▁നേട്ട	-2431
യിലൂടെ	-2432
വർത്തി	-2433
ൻഡ്	-2434
ദേശം	-2435
▁സ്ഥാപനങ്ങൾ	-2436
▁അതുപോലെ	-2437
▁വിലയിരുത്തി	-2438
▁അടയ്ക്ക	-2439
▁സ്കൂ	-2440
േറ്റീവ്	-2441
▁മതിയായ	-2442
മുക്ത	-2443
▁കണ്ടെത്തിയ	-2444
▁പരസ്പര	-2445
ിനും	-2446
യർ	-2447
▁എഴ	-2448
▁അവകാശവാദ	-2449
▁ഫെ	-2450
മിനി	-2451
▁എച്ച്	-2452
▁പ്രതിരോധ	-2453
▁മൂല്യനിർണ്ണയ	-2454
▁എണ്ണം	-2455
▁ഏപ്ര	-2456
ോസിയ	-2457
▁വിദ്യാർത്ഥ	-2458
▁സൊസൈ	-2459
▁അപ്പീലിന്റെ	-2460
ലിക	-2461
സ്തവത്തിൽ	-2462
▁യോഗ്യതയുള്ള	-2463
▁അന്തർ	-2464
▁ബോംബ	-2465
▁തെളിയിക്ക	-2466
ഷേധ	-2467
▁വിര	-2468
നില	-2469
▁ഹാജരായ	-2470
▁ഇക്കാര്യത്തിൽ	-2471
▁ഉറപ്പാക്ക	-2472
▁കര്യ	-2473
▁പാർട്ട	-2474
റിന്	-2475
ക്റ്റ	-2476
▁ആണ	-2477
▁ഉദാ	-2478
ുകളുടെയും	-2479
▁ഇൻഷുറ	-2480
▁പെറ്റീഷൻ	-2481
▁വാസ്തവത്തിൽ	-2482
ളിച്ച	-2483
▁തമ്മിൽ	-2484
▁സന്ദർശ	-2485
▁ഉപകരണ	-2486
▁കുറ്റവി	-2487
▁ശരിയായി	-2488
▁കമ്പനിയുടെ	-2489
▁പ്രയോജ	-2490
▁തീർപ്പാക്ക	-2491
▁എൽ	-2492
▁വാർ	-2493
▁ആകർഷ	-2494
സഹ	-2495
ാരോപ	-2496
ിനായി	-2497
സിൽ	-2498
▁യാ	-2499
▁ന്ന	-2500
യുക്ത	-2501
▁ദിവസം	-2502
▁വിസ്ത	-2503
▁പരിപാല	-2504
▁E	-2505
▁പ്രതിനിധ	-2506
▁കുറ്റവിമുക്ത	-2507
▁തൊഴിലാള	-2508
],	-2509
▁ഉടമസ്ഥ	-2510
▁തൃ	-2511
രംഭ	-2512
▁ണ്ട	-2513
▁തർക്കം	-2514
ിട്ടുള്ള	-2515
▁നിർബന്ധിത	-2516
▁പിന്നീ	-2517
▁പണ	-2518
▁പ്രാധ	-2519
ലാ	-2520
മ്പോ	-2521
▁തുറന്ന	-2522
ത്തിലോ	-2523
▁കേസിലെ	-2524
▁അസോസിയ	-2525
▁വെബ്	-2526
▁സംരംഭ	-2527
ാക്കൾ	-2528
▁കടമ	-2529
▁പ്രത്യേകിച്ചും	-2530
▁ഐപി	-2531
▁വ്യക്തിഗത	-2532
മെന്റിന്റെ	-2533
▁നേര	-2534
▁വ്യക്തിക്ക്	-2535
ൈവ	-2536
▁എഞ്ച	-2537
▁നഗ	-2538
▁പങ്കാളി	-2539
▁എന്നീ	-2540
ുന	-2541
ർച്ചയായ	-2542
കാര്യത	-2543
▁വിശദാംശ	-2544
▁സ്വീ	-2545
▁മുതല	-2546
▁എടുത്ത	-2547
ചേ	-2548
▁മെച്ച	-2549
▁പറയുന്നു	-2550
ണമെന്നും	-2551
ായനികുതി	-2552
▁എക്സിക്യൂട്ടീവ്	-2553
▁കമ്മീഷണർ	-2554
ിതമായ	-2555
യോജി	-2556
മിതി	-2557
▁ഡ്ര	-2558
▁കാര്യങ്ങൾ	-2559
▁R	-2560
▁ചട്ടങ്ങൾ	-2561
१४	-2562
▁തെറ്റായ	-2563
ംസ്	-2564
▁ലേഖ	-2565
▁തിരഞ്ഞെടുക്ക	-2566
▁സന്ദർഭ	-2567
▁മീ	-2568
▁സമഗ്ര	-2569
ാവസായിക	-2570
▁വയ്ക്ക	-2571
തിനുശേഷം	-2572
▁ആദായനികുതി	-2573
▁ആരോഗ്യ	-2574
യോടെ	-2575
പ്രതി	-2576
▁ഒപ്പം	-2577
രിത	-2578
▁വല	-2579
െയർ	-2580
▁ഇപ്പോഴ	-2581
▁വിഷയത്തിൽ	-2582
▁വാങ്ങുന്ന	-2583
▁വിശാല	-2584
▁ഏപ്രിൽ	-2585
മാരെ	-2586
ുകാര	-2587
ികമായി	-2588
▁ആയു	-2589
▁നീതിയുടെ	-2590
▁കാരണങ്ങളാൽ	-2591
ികിത്സ	-2592
▁ബോംബെ	-2593
ഡിറ്റ്	-2594
▁തെളിവുകളുടെ	-2595
▁സന്	-2596
▁വ്യാവസായിക	-2597
▁അധികാരപരിധ	-2598
▁വിപുല	-2599
▁സംസാര	-2600
ഡുകൾ	-2601
▁ഗുരുതരമായ	-2602
തിലും	-2603
▁ഉത്തരം	-2604
▁കുറ്റാരോപ	-2605
ാമെന്ന്	-2606
▁നിർമ്മാണ	-2607
ൈൽ	-2608
യറ്റ	-2609
ുകൽപ്പ	-2610
▁എഞ്ചിന	-2611
ുമെന്നും	-2612
▁അദ്ദേഹത്തെ	-2613
സെ	-2614
▁മുതലായ	-2615
▁ഉയർന്നുവ	-2616
ഡിന്	-2617
▁v	-2618
▁വേർ	-2619
▁അവധി	-2620
▁തീർപ്പുകൽപ്പ	-2621
▁ഹരജി	-2622
ിയാണ്	-2623
▁ക്രെ	-2624
▁ഇപ്പോഴത്തെ	-2625
▁പ്രാർത്ഥ	-2626
▁വിശ്വാസ	-2627
▁ഹെ	-2628
കരിച്ച്	-2629
▁ചെയർ	-2630
▁നേടിയ	-2631
▁വ്യക്തിയെ	-2632
▁വ്യക്തികൾ	-2633
▁ഉണ്ട്	-2634
▁കോഡ്	-2635
▁ഇന്ത്യയിൽ	-2636
▁ഉപഭോക്ത	-2637
▁ഉത്തരവാദിത്ത	-2638
▁ഇള	-2639
ാവശ്യ	-2640
ശ്വാസം	-2641
▁മാർച്ച്	-2642
ുള്ളിൽ	-2643
▁ആവർത്തി	-2644
നായി	-2645
▁ഇത	-2646
▁സെഷൻ	-2647
പ്രകാര	-2648
▁നിയമന	-2649
ുമെ	-2650
ഹ്യ	-2651
▁ചുവടെ	-2652
▁ചെയ്യുന്നതിന്	-2653
▁നൽകുന്നത്	-2654
എച്ച്	-2655
▁V	-2656
റിംഗ്	-2657
▁അവരെ	-2658
ില്ലെന്നും	-2659
▁ഡാറ്റ	-2660
ാധിപ	-2661
ിച്ചതിന്	-2662
▁മൗ	-2663
▁എഞ്ചിനീയ	-2664
ഫർ	-2665
▁ആവശ്യപ്പെടുന്ന	-2666
▁വിവേചനാധികാര	-2667
▁ഘടന	-2668
ീരിയ	-2669
കളിലെ	-2670
▁സ്ഥിതി	-2671
▁അതേസമയം	-2672
▁സേവ	-2673
▁കോൺ	-2674
▁പൂർത്തിയ	-2675
▁ഗണ	-2676
▁കാർഷിക	-2677
ങ്ങളോ	-2678
▁ഉൾപ്പെടുത്തിയി	-2679
ഹമ്മ	-2680
▁തി	-2681
ാണെന്ന	-2682
മിനിസ്ട്ര	-2683
▁ആരോപണ	-2684
വിശേഷ	-2685
▁പോലുള്ള	-2686
▁കരുതുന്നു	-2687
േള	-2688
▁നടത്താൻ	-2689
ാരു	-2690
വിട	-2691
▁ജോല	-2692
▁വച്ച	-2693
▁പ്രാപ്ത	-2694
▁സമ്	-2695
▁സ്യൂട്ട	-2696
▁ശര	-2697
▁P	-2698
▁മുകള	-2699
നാക്ക	-2700
പു	-2701
ോടൊപ്പം	-2702
▁ആധ	-2703
▁അടച്ച	-2704
▁ആദ്യം	-2705
▁സഹോദ	-2706
▁ഇന്റർ	-2707
▁അപ്പീലി	-2708
നാ	-2709
▁സർവകലാശാല	-2710
▁ട്രിബ്യൂണൽ	-2711
ക്ഷിപ്ത	-2712
▁കോടതിയെ	-2713
▁കുറ്റസമ്മ	-2714
▁ആണ്	-2715
▁സഹായ	-2716
▁വെളിച്ച	-2717
▁ആശുപ	-2718
ങ്ങളെയും	-2719
▁കിഴ	-2720
▁ജുഡീഷ്യ	-2721
▁അഡ്മിനിസ്ട്ര	-2722
▁ഇനിപ്പറയുന്നവ	-2723
ക്കേണ്ട	-2724
▁അഞ്ച്	-2725
▁തുടർന്ന്	-2726
മാനു	-2727
▁വ്യാപ്തി	-2728
▁നിലപാട്	-2729
▁അംഗീകാര	-2730
ുകളിലും	-2731
▁കൊണ്ടുപോ	-2732
▁ഭാര്യ	-2733
▁പണമ	-2734
▁അടയ്	-2735
ീഷ്	-2736
▁നൽകിയിട്ടില്ല	-2737
ീൽ	-2738
▁നിശ്ചയിച്ച	-2739
സിന്	-2740
▁നടപടിക്രമങ്ങൾ	-2741
▁സംഭാവ	-2742
കൃതി	-2743
വ്വം	-2744
സിക്ക്	-2745
▁വായിച്ച	-2746
ുചെയ്	-2747
▁നിർദ്ദേശിച്ച	-2748
▁ജനു	-2749
▁സമാ	-2750
▁ബുദ്ധ	-2751
▁സഹകരണ	-2752
വെങ്കിൽ	-2753
▁വസ്തുതകൾ	-2754
▁സംഭാവന	-2755
▁വികസിപ്പ	-2756
▁ശതമാനം	-2757
▁കൗൺസിൽ	-2758
രുപ	-2759
േഷ്	-2760
en	-2761
▁ഫലമായി	-2762
▁ഹോ	-2763
യോഗം	-2764
റ്റിംഗ്	-2765
▁വിധത്തിൽ	-2766
▁ഇറക്ക	-2767
▁നിവേദ	-2768
ഡിൽ	-2769
▁കാലയളവിൽ	-2770
▁ഫണ്ട	-2771
▁ഇന്ന്	-2772
▁ഫീസ്	-2773
▁നിഷേധ	-2774
▁ഒന്നാം	-2775
▁അഭിപ്രായം	-2776
▁ഉദ്ദേശ്യം	-2777
ികത	-2778
▁നാല്	-2779
ിടത്ത്	-2780
ോഗ്ര	-2781
▁തീയതിയിൽ	-2782
▁രക്ഷ	-2783
വിന്റെ	-2784
▁തൃപ്തി	-2785
▁മൂല്യം	-2786
ക്കാരുടെ	-2787
▁സ്പ	-2788
▁നേരത്തെ	-2789
ക്റ്റ്	-2790
▁അക്കൗണ്ട	-2791
പ്ലോ	-2792
ാടക	-2793
▁പരിമിതി	-2794
▁അഡ്വ	-2795
പ്പറ	-2796
▁വാദി	-2797
▁നാൻ	-2798
▁കൗൺസില	-2799
▁ബാഹ്യ	-2800
ുമോ	-2801
▁ചട്ടം	-2802
▁ഇല	-2803
▁പ്രോപ്പർ	-2804
▁മൊത്ത	-2805
ാപ്ത	-2806
▁അനുയോജ	-2807
▁നിശ്ചിത	-2808
റിഞ്ഞ	-2809
▁ജനുവരി	-2810
▁അനുവദിക്ക	-2811
ാഷണൽ	-2812
ിക്കുന്നതിനോ	-2813
▁രാഷ്ട്രീയ	-2814
ാരാഷ്ട്ര	-2815
▁വ്യാപാര	-2816
▁സ്വാധ	-2817
▁വർഷത്തിൽ	-2818
▁സവിശേഷ	-2819
▁പ്രി	-2820
es	-2821
▁ഭൂമിയുടെ	-2822
ില്ലെങ്കിൽ	-2823
▁ആശങ്ക	-2824
▁പരിധ	-2825
▁ഏതൊരു	-2826
▁തോന്നുന്നു	-2827
oun	-2828
▁നടത്തുന്ന	-2829
▁മുന്നിൽ	-2830
▁അനുമാന	-2831
▁അയാളുടെ	-2832
▁ലൈംഗ	-2833
▁മുമ്പുള്ള	-2834
▁പ്രോജ	-2835
▁വീണ്ടെടുക്ക	-2836
ോടും	-2837
▁ലക്ഷ്യം	-2838
▁വീക്ഷണ	-2839
▁ബാല	-2840
▁ഉണ്ടായിരുന്ന	-2841
ാമസം	-2842
ഷി	-2843
▁വിശകല	-2844
▁കാരണങ്ങൾ	-2845
▁എത്തി	-2846
▁അന്താരാഷ്ട്ര	-2847
▁നാമ	-2848
ക്കുള്ള	-2849
മാണോ	-2850
▁പങ്കാള	-2851
▁പിടിച്ച	-2852
▁ജഡ്ജിമാരുടെ	-2853
▁പണമട	-2854
ംസ	-2855
വിദ്യ	-2856
കോടതി	-2857
▁ജഡ്ജിയുടെ	-2858
▁കഴിയുന്ന	-2859
▁പരിസ്ഥിതി	-2860
ത്തിനോ	-2861
മല്ലാത്ത	-2862
വുമാണ്	-2863
▁പൂ	-2864
▁കൊല	-2865
ഡിയോ	-2866
കളുടെയും	-2867
ുകളിലെ	-2868
▁ചികിത്സ	-2869
▁കമ്മിറ്റ	-2870
▁പ്രമേ	-2871
▁ഇൻഷുറൻസ്	-2872
▁ശ്രീമതി	-2873
▁ചൂണ്ടിക്കാണ	-2874
ുചെയ്യ	-2875
▁ഷെഡ്യൂൾ	-2876
▁മന്ത്രി	-2877
ാമതായി	-2878
▁പ്രതിയെ	-2879
▁പേജ്	-2880
▁കുറ്റത്തിന്	-2881
▁ആശ്രയി	-2882
▁നിരസിച്ചു	-2883
▁വിലയിരുത്തൽ	-2884
▁ഉണ്ടാകുന്ന	-2885
▁കാരണമാക	-2886
▁ചെയ്തിട്ടുണ്ട്	-2887
▁കുറ്റാരോപിത	-2888
ിച്ചിട്ടുണ്ട്	-2889
മ്പോഴ	-2890
▁ഭർത്ത	-2891
▁മുതലായവ	-2892
▁പോളി	-2893
ക്കെ	-2894
▁സമ്മതിച്ച	-2895
▁പറഞ്ഞാൽ	-2896
▁ഡ്യൂ	-2897
▁സംരക്ഷണ	-2898
▁സാക്ഷ്യ	-2899
▁ന്യായീകര	-2900
▁മേൽ	-2901
▁സിദ്ധ	-2902
▁സംയോജി	-2903
▁പ്രസിദ്ധീകര	-2904
▁ആയുധ	-2905
▁ആക്രമ	-2906
ത്താൽ	-2907
▁മാനേജ്	-2908
▁പ്രോസിക്യൂഷ	-2909
താണെന്ന്	-2910
▁ബാധകമാക	-2911
▁പ്രേ	-2912
▁ഉദ്ധ	-2913
▁മെറ്റ	-2914
▁നേരിട	-2915
▁സർട്ടിഫിക്കറ്റ്	-2916
ർശന	-2917
▁നിർണ്ണയി	-2918
ട്രേറ്റ്	-2919
▁പാർലമെന്റ്	-2920
▁പാര	-2921
▁പരാജയപ്പെട്ട	-2922
▁അറിയിപ്പ്	-2923
ട്രിക്	-2924
ോക്ക	-2925
ാർഹ	-2926
▁വിരമ	-2927
വിനിമ	-2928
▁ഇറക്കുമതി	-2929
▁s	-2930
ഴ്സ	-2931
▁ഹാജരാക	-2932
▁കാലയളവ്	-2933
▁ആൻഡ്	-2934
▁ബഹുമാനപ്പെട്ട	-2935
മാർക്ക്	-2936
▁സുരക്ഷിത	-2937
▁പരസ്യ	-2938
▁ആത്മ	-2939
▁എതിർ	-2940
▁എതിര	-2941
▁വിദഗ്	-2942
ധന	-2943
▁നിയമാനു	-2944
▁ഡിസം	-2945
▁ഉൾപ്പെടെയുള്ള	-2946
▁സെക്രട്ടറി	-2947
▁ഫോർ	-2948
▁ഒരിക്ക	-2949
▁ആശയവിനിമ	-2950
▁മാറ്റി	-2951
െയാണ്	-2952
▁പിന്നീട്	-2953
▁ചി	-2954
ിച്ചതായി	-2955
▁അപ്പീലിൻറെ	-2956
▁കാര്യങ്ങളിൽ	-2957
▁ക്രോ	-2958
▁ഒന്നും	-2959
വർഷ	-2960
ത്തുനി	-2961
▁ഖണ്ഡികയിൽ	-2962
ലം	-2963
ുതിയ	-2964
മീ	-2965
▁കർണ	-2966
▁അവസരം	-2967
▁പിൻവല	-2968
ic	-2969
▁വിലമതി	-2970
▁ബിൽ	-2971
കളിലും	-2972
▁ഉൾപ്പെടുന്ന	-2973
▁റീ	-2974
▁ബോധ	-2975
▁കേന്ദ്രസർക്കാർ	-2976
ുകൂ	-2977
വുടമ	-2978
▁പ്രയോജന	-2979
▁ഷെഡ്യൂള	-2980
▁കത്ത്	-2981
തിനെ	-2982
ിച്ചുകൊണ്ട്	-2983
ായിരിക്കും	-2984
ലിന്	-2985
▁അവസ്ഥ	-2986
▁ഉദാഹരണ	-2987
▁അച്ച	-2988
▁പ്രവർത്തനം	-2989
ഷണൽ	-2990
കെ	-2991
▁r	-2992
▁മൗലിക	-2993
▁സെൻ	-2994
▁കുറവ	-2995
................	-2996
ed	-2997
▁ഫോറ	-2998
▁കാലതാമസം	-2999
▁സംസ്ഥാനത്തെ	-3000
▁കാര്യം	-3001
രുക	-3002
മല്ലെന്ന്	-3003
ലൈ	-3004
▁ഓഗ	-3005
ിച്ചിട്ടുള്ള	-3006
▁സമർപ്പിക്കുന്നു	-3007
▁നിർവഹ	-3008
▁പ്രസിഡന്റ്	-3009
▁തയ്യാറാക്ക	-3010
വരെ	-3011
ട്രാ	-3012
▁ഭാവി	-3013
ാന്യ	-3014
▁ബില്ല	-3015
ങ്ങന	-3016
▁യോജ	-3017
രിച്ചു	-3018
▁മുഖർജി	-3019
▁യുക്തി	-3020
▁ബന്ധം	-3021
ാധിപത്യ	-3022
▁കുടിയ	-3023
▁പ്രകൃതി	-3024
ാൻഡ്	-3025
▁തുടർന്നുള്ള	-3026
ോർട്ട	-3027
▁വിതരണ	-3028
ണിക്ക	-3029
േറ്റർ	-3030
▁രാ	-3031
▁ഇല്ലാത	-3032
▁സെപ്റ്റ	-3033
▁ഉണ്ടാക്ക	-3034
▁കർണാടക	-3035
▁മാർക്ക	-3036
▁പ്രശ്ന	-3037
ുകളുമായി	-3038
▁കോർപ്പറേഷൻ	-3039
ുക്ത	-3040
ോയിൽ	-3041
ത്തുട	-3042
▁പരമാ	-3043
;,	-3044
▁സ്വഭാവം	-3045
▁ഖനന	-3046
▁പൗരന്	-3047
ീത	-3048
ബ്ദ	-3049
▁ഗവേഷ	-3050
▁ട്രാൻസ്	-3051
▁ടെക്	-3052
▁വഴ	-3053
ാഗത	-3054
▁പ്രസ്താവിച്ചു	-3055
▁മാറ്റം	-3056
▁സെഷൻസ്	-3057
▁കല	-3058
വാസ	-3059
യെയും	-3060
▁പുരോഗ	-3061
▁അടിസ്ഥാനമാക്കി	-3062
▁കുറ്റകൃത്യങ്ങൾ	-3063
१५	-3064
ചാർ	-3065
ായക	-3066
▁പറഞ്ഞിരിക്കുന്ന	-3067
▁അപ്പീലിൽ	-3068
തകൾ	-3069
▁പ്രണ	-3070
▁ചെറിയ	-3071
tion	-3072
▁മാനേജ	-3073
ാനാക	-3074
േഷനിൽ	-3075
▁ഉത്തരവിൽ	-3076
▁നിഗമനത്തിലെ	-3077
▁നയിക്ക	-3078
പ്പെടുത്തുന്നു	-3079
ിലാണ്	-3080
ൂലൈ	-3081
▁പരിരക്ഷ	-3082
▁റെഗുലേഷൻ	-3083
ക്കാരൻ	-3084
▁കയറ്റ	-3085
▁അവഗണ	-3086
ളെ	-3087
തുവഴി	-3088
നുസൃതമായി	-3089
▁സമർപ്പണ	-3090
യാസ്	-3091
▁ബുദ്ധി	-3092
▁ർ	-3093
▁നന്ന	-3094
റ്റ്യൂ	-3095
ദ്ധ്യസ്ഥ	-3096
പ്യൂ	-3097
▁കുറി	-3098
▁ഉൾക്കൊള്ളുന്നു	-3099
▁ഉപവാ	-3100
▁തൽക്ഷണ	-3101
▁പ്രതികളെ	-3102
▁തുടര	-3103
▁ടൈ	-3104
▁അപേക്ഷകന്	-3105
യാക	-3106
▁ഭൂവുടമ	-3107
ടിയ	-3108
▁നടപടികള	-3109
▁ജീവനക്കാർ	-3110
▁വരെയുള്ള	-3111
▁അംഗീകാരം	-3112
▁മൗലികാവകാശ	-3113
സൈറ്റ്	-3114
▁പങ്ക്	-3115
ന്നി	-3116
വന്	-3117
മാക്കുന്ന	-3118
▁ന്യൂഡൽ	-3119
▁ദുരുപ	-3120
▁പ്രതികള	-3121
പ്രദേശ്	-3122
▁ചരി	-3123
▁പ്ലാ	-3124
▁സംയുക്ത	-3125
▁അറിയിക്ക	-3126
▁താൽക്കാല	-3127
▁അതുവഴി	-3128
▁ആഭ	-3129
▁മദ്ധ്യസ്ഥ	-3130
▁ചെയ്താൽ	-3131
▁മെയ്	-3132
ട്ടുണ്ടെന്ന്	-3133
ഒരു	-3134
മുണ്ടെന്ന്	-3135
▁ഇപ്രകാര	-3136
പദ	-3137
▁പര്യ	-3138
▁പഴ	-3139
▁ആഗ്രഹിക്കുന്നു	-3140
▁ഓഫീസ്	-3141
▁ധാരണ	-3142
▁ഭൂരി	-3143
▁വ്യവസ്ഥകളും	-3144
▁നിർത്ത	-3145
▁രാജ്യത്തിന്റെ	-3146
ബ്രു	-3147
▁പ്രതിഫല	-3148
രാ	-3149
ാര്യ	-3150
▁നൽകണം	-3151
ുടമ	-3152
▁തേട	-3153
▁ആര്ബിട്രേഷന്	-3154
തയും	-3155
▁സാക്ഷി	-3156
▁പ്രോഗ്ര	-3157
▁വെള്ള	-3158
ിക്കാതെ	-3159
▁മറിച്ച്	-3160
▁എനിക്ക്	-3161
▁വാഗ്	-3162
നിയമ	-3163
▁ഇംഗ്ല	-3164
▁പ്രവേശനം	-3165
ശ്ശ	-3166
▁ജൂലൈ	-3167
ബ്രുവരി	-3168
ക്ടോ	-3169
▁ധനകാര്യ	-3170
▁സർക്കാരിന്റെ	-3171
▁നിന്നോ	-3172
ഡീഷണൽ	-3173
▁ഏറ്റെടുക്കൽ	-3174
▁എസ്റ്റ	-3175
▁ഡിസ്	-3176
ഡിലെ	-3177
▁രണ്ടാം	-3178
▁ചെയ്തിട്ടില്ല	-3179
ിക്കൊ	-3180
▁വൈദ്യുതി	-3181
ട്ടുണ്ടെന്നും	-3182
▁പ്രവർത്തിക്ക	-3183
ോറ	-3184
▁വിഭജ	-3185
▁പൊതുത	-3186
▁ഡിസംബർ	-3187
▁ലഭ്യമായ	-3188
▁കർശന	-3189
▁അഡീഷണൽ	-3190
▁ഓഗസ്റ്റ്	-3191
യിലോ	-3192
▁അനിവ	-3193
ക്സാഡ്	-3194
▁അധ്യായ	-3195
▁സിദ്ധാ	-3196
▁പ്രണബ്	-3197
▁പെരുമാറ്റ	-3198
▁ചാർജ	-3199
മായുള്ള	-3200
▁കാലാവധി	-3201
▁മറുപ	-3202
മില്ലാത്ത	-3203
▁സംസ്ഥാനത്തിന്	-3204
▁വാഗ്ദ	-3205
▁പോലെ	-3206
▁ഉത്തരവിനെ	-3207
▁പരിഹരിക്ക	-3208
വരും	-3209
്മ	-3210
▁സർക്കാരു	-3211
▁ദി	-3212
ത്തേ	-3213
▁കിഴിവ	-3214
▁സ്വകാര്യത	-3215
െയി	-3216
▁സൗകര	-3217
▁പേരിൽ	-3218
an	-3219
▁കഴിയില്ലെന്ന്	-3220
ക്രി	-3221
പാദന	-3222
▁മെറ്റീരിയ	-3223
▁സൂചിപ്പിച്ച	-3224
▁സേവനം	-3225
▁ഇടക്കാല	-3226
▁സെപ്റ്റംബർ	-3227
▁ലൈംഗിക	-3228
▁നിലവില	-3229
ial	-3230
നിലവ	-3231
▁വളർച്ച	-3232
േഡ്	-3233
എല്ല	-3234
താണെന്നും	-3235
ഷ്ണ	-3236
▁മെമ്മ	-3237
▁മുമ്പത്തെ	-3238
▁സ്വാതന്ത്ര്യം	-3239
യ്ക്കുകയും	-3240
▁ഇപ്രകാരം	-3241
▁വരുത്തിയ	-3242
ക്വി	-3243
▁അപേക്ഷകർ	-3244
ിക്കാനോ	-3245
വാണി	-3246
▁പരിഹര	-3247
ുകയാണെങ്കിൽ	-3248
▁ഇലക്	-3249
െടുത്തു	-3250
▁സഹോദര	-3251
ുകൊണ്ട	-3252
३०	-3253
േർ	-3254
▁അധ്യാപ	-3255
രള	-3256
▁റിസർവ്	-3257
▁സുപ്രീംകോടതി	-3258
▁ട്രിബ്യൂണല	-3259
▁M	-3260
സിറ്റി	-3261
▁ലംഘന	-3262
▁പിത	-3263
▁ജനാധിപത്യ	-3264
▁വൈകല്യ	-3265
▁ഫെബ്രുവരി	-3266
നേ	-3267
റ്റിറ്റ്യൂ	-3268
രഹിത	-3269
▁m	-3270
▁വിജ്ഞാപനം	-3271
▁സംതൃ	-3272
▁ഭക്ഷ	-3273
▁പറയുന്ന	-3274
▁നിയമാനുസൃത	-3275
▁ആവശ്യങ്ങൾക്കായി	-3276
▁ഇടപാട	-3277
▁എങ്ങനെ	-3278
▁മാർഗ്ഗനിർദ്ദേശ	-3279
ാബ്	-3280
▁പേയ്	-3281
▁നിർദേശ	-3282
ച്ചും	-3283
ണറുടെ	-3284
▁ക്രോസ്	-3285
▁h	-3286
റിയുടെ	-3287
ിയിൽ	-3288
▁വിശദീകരണം	-3289
▁ചാർജ്	-3290
▁വളര	-3291
വശത്ത്	-3292
▁പ്രൊസീ	-3293
▁കമ്മീഷന്റെ	-3294
ണ്ടർ	-3295
പ്പെടുത്തുന്ന	-3296
▁സംശയാസ്	-3297
ഗർ	-3298
▁വിശദാംശങ്ങൾ	-3299
▁നിക്ഷേപം	-3300
പ്പെടുകയും	-3301
▁രജിസ്ട്രേഷൻ	-3302
േക്കോ	-3303
▁ലഭിച്ചു	-3304
▁ശ്രദ്ധയിൽ	-3305
▁സന്ത	-3306
▁അയച്ച	-3307
വൻ	-3308
▁മഹാര	-3309
▁നന്നായി	-3310
▁പോസ്റ്റ്	-3311
സിഡ	-3312
▁തടവ്	-3313
ഴിഞ്ഞ	-3314
▁ഇൻസ്റ്റിറ്റ്യൂ	-3315
xad	-3316
▁എല്ലായ്	-3317
ter	-3318
ാണെങ്കിലും	-3319
സിനെ	-3320
▁സ്വത്തു	-3321
▁അർത്ഥം	-3322
▁അസി	-3323
▁റെയിൽ	-3324
▁നിരീക്ഷണ	-3325
▁കയറ്റുമതി	-3326
▁മധ്യ	-3327
ഭാവിക	-3328
സ്തു	-3329
▁വേഗ	-3330
▁വേർതിര	-3331
▁ആശുപത്രി	-3332
▁ഇന്ത്യാ	-3333
▁നിക്ഷിപ്ത	-3334
▁നൽകും	-3335
▁മനസ	-3336
രുക്കത്തിൽ	-3337
ജീവ	-3338
നാണ്	-3339
▁പുനർനിർ	-3340
▁വെളിച്ചത്തിൽ	-3341
▁അഭിന	-3342
▁നേരിട്ട്	-3343
ിലാക്കിയ	-3344
▁തുറക്കുന്ന	-3345
▁ബീ	-3346
▁സ്ഥലത്ത്	-3347
▁മാറ	-3348
മെൻറ്	-3349
ുമെന്ന	-3350
സല	-3351
ധ്യം	-3352
▁ബ്ല	-3353
▁റഫറൻസ്	-3354
▁നഗര	-3355
▁പ്രശ്നം	-3356
▁മൈ	-3357
മുതൽ	-3358
▁ആകാശ	-3359
▁തികച്ചും	-3360
▁അനന്തര	-3361
▁ശാസ്ത്ര	-3362
or	-3363
ഇനി	-3364
▁പിസി	-3365
ാമെന്നും	-3366
▁ഗവർണർ	-3367
▁വിശ്വസ	-3368
▁കേരള	-3369
ട്രൽ	-3370
▁പരിഷ്കര	-3371
▁ആശംസ	-3372
▁നിയമനം	-3373
▁നിങ്ങൾ	-3374
ക്കാരന്റെ	-3375
▁നൂ	-3376
▁ഒഴികെ	-3377
▁അവന്റെ	-3378
▁സംഘടന	-3379
▁നിയന്ത്രണം	-3380
ഞ്ജ	-3381
▁കുടി	-3382
െയധികം	-3383
▁സിസ്റ്റ	-3384
വിന്	-3385
്രസ്വ	-3386
▁കോളേജ	-3387
▁ചെലവ്	-3388
▁മോട്ട	-3389
▁സർക്കാരിന്	-3390
▁ഇപ്രകാരമാണ്	-3391
▁വേത	-3392
▁ഒക്ടോ	-3393
▁തീരുമാനമ	-3394
▁സ്ഥാനം	-3395
▁വളരെയധികം	-3396
ശ്ശിക	-3397
.,	-3398
▁വിഭാഗം	-3399
▁ഡീ	-3400
▁ഏജൻസ	-3401
ന്ദർ	-3402
▁ക്ഷേമ	-3403
▁ഉപേക്ഷ	-3404
▁ഭാഗത്തുനി	-3405
ഫോ	-3406
സൂ	-3407
▁വികസ	-3408
പാടി	-3409
വലോക	-3410
▁ശതമാന	-3411
വ്യവ	-3412
ക്കെതിരായ	-3413
▁വിശാലമായ	-3414
പ്പൽ	-3415
▁രക്ത	-3416
▁പശ്ചാത്തലത്തിൽ	-3417
▁കേവല	-3418
▁പ്രവേശന	-3419
▁അപേക്ഷകൾ	-3420
▁സാഹചര്യങ്ങൾ	-3421
്യന്തര	-3422
ിയിട്ടില്ല	-3423
▁ചെയ്യുന്നവർ	-3424
▁ഉത്തരവും	-3425
▁കുടിശ്ശിക	-3426
ട്രോ	-3427
▁ഒരാൾ	-3428
ന്നത്തെ	-3429
▁ഡെപ്യൂ	-3430
ങ്ങളെക്കുറിച്ച്	-3431
പ്പുകൾ	-3432
▁ആസ്തി	-3433
ർച്ചയായും	-3434
ഫ്ര	-3435
▁രേഖാമൂലമുള്ള	-3436
▁തലക്കെ	-3437
▁ആനുകൂല്യങ്ങൾ	-3438
ൃദ	-3439
ങ്ങളായി	-3440
▁അംഗീകരിച്ച	-3441
▁വ്യവസ്ഥകള	-3442
▁നൽകുക	-3443
▁സ്റ്റാൻ	-3444
▁ഉണ്ടായിരുന്നു	-3445
ോളജി	-3446
▁എന്നും	-3447
െടുക്കുന്ന	-3448
▁പെൻഷൻ	-3449
നഷ്ട	-3450
▁മന്ത്രാലയം	-3451
▁പുനരവലോക	-3452
▁നിയമത്തിന്	-3453
▁സ്വാ	-3454
▁വർഷത്തെ	-3455
▁ബന്ധിപ്പ	-3456
ർബ	-3457
ഴിഞ്ഞാൽ	-3458
▁തീർച്ചയായും	-3459
പ്പെടുത്താൻ	-3460
ണിവ	-3461
േണ്ടതില്ല	-3462
▁നും	-3463
ഖ്	-3464
▁ക്രെഡിറ്റ്	-3465
▁കാഴ്ചപ്പാട്	-3466
▁അതോറിറ്റിയുടെ	-3467
▁ഉൾപ്പെട്ട	-3468
ബിൾ	-3469
േന്ദ്ര	-3470
ോടുള്ള	-3471
കുമ്പോൾ	-3472
▁സാന്നി	-3473
▁കമ്പനിയ	-3474
▁ഡ്യൂട്ടി	-3475
ണിവേഴ്	-3476
▁ആഭ്യന്തര	-3477
ഹാർ	-3478
▁ദേ	-3479
▁നിരക്ക്	-3480
ഫലമായി	-3481
▁പരിക്കേറ്റ	-3482
വിക	-3483
▁വാർഷിക	-3484
ിയിട്ടുണ്ട്	-3485
▁മുകളിലുള്ള	-3486
പ്പെടാൻ	-3487
▁മന്ത്രാലയ	-3488
▁വിളിക്കുന്നു	-3489
ഡന്റ	-3490
▁...	-3491
തയുടെ	-3492
വച്ച	-3493
▁വിജ്ഞാപന	-3494
മാസ	-3495
▁ക്ലെയിമ	-3496
▁നിരക്കിൽ	-3497
▁തീരുമാനത്തെ	-3498
▁of	-3499
▁നീക്ക	-3500
▁തൊഴിലുടമ	-3501
ിടെ	-3502
ണ്ടോ	-3503
▁സിബി	-3504
ഫ്റ്റ്	-3505
യ്ക്കുന്ന	-3506
ക്കിടയിൽ	-3507
▁സങ്ക	-3508
▁ഹാജരാക്ക	-3509
▁സ്വാഭാവിക	-3510
വണ	-3511
വൽക്ക	-3512
▁സമ്മത	-3513
▁അനുവദിക്കുകയും	-3514
▁ഉത്തരവിന്റെ	-3515
▁വസ്തുക്കൾ	-3516
ക്യൂരി	-3517
▁പൊതുജന	-3518
കൂല	-3519
▁വേണം	-3520
▁എല്ലാവ	-3521
▁തിരിച്ചറിഞ്ഞ	-3522
▁ഏകദേശം	-3523
▁റിപ്പോർട്ടിൽ	-3524
▁പ്രച	-3525
▁പ്രതികൂല	-3526
ബ്ര	-3527
▁ഗവൺമെന്റിന്റെ	-3528
▁അനുവദിച്ചു	-3529
▁രേഖപ്പെടുത്തിയ	-3530
▁അംഗങ്ങൾ	-3531
ിക്കേണ്ടതാണ്	-3532
▁മെമ്മോ	-3533
ട്ടും	-3534
▁ഓഹ	-3535
▁യൂണിവേഴ്	-3536
ിക്കേണ്ടത്	-3537
▁ആശ്രയിക്ക	-3538
▁രാജ്യത്തെ	-3539
▁പകർ	-3540
▁ou	-3541
▁മുനി	-3542
രാജ	-3543
ിട്ടും	-3544
ര്	-3545
▁മറ്റൊ	-3546
▁ഹിന്ദു	-3547
▁ചെയ്യുമ്പോൾ	-3548
▁ആകാശവാണി	-3549
പ്പിൽ	-3550
ക്യം	-3551
▁നടപടികളിൽ	-3552
▁അസിസ്റ്റ	-3553
▁ഫ്ല	-3554
▁അപേക്ഷകന്റെ	-3555
ചാർജ്	-3556
▁പിര	-3557
ാർമ്മ	-3558
▁നവംബർ	-3559
മാക്കി	-3560
ിക്കാവുന്ന	-3561
▁ട്രൈബ്യൂണൽ	-3562
ികളുടെയും	-3563
ീൻ	-3564
▁സഭ	-3565
▁നിബന്ധനകൾ	-3566
▁പൊതുതാൽ	-3567
▁തൊ	-3568
▁നാഗ	-3569
▁ഐപിസി	-3570
▁താഴെ	-3571
ട്രേറ്റ	-3572
യല്ല	-3573
▁സ്കീമ	-3574
▁മൂന്നാം	-3575
▁പ്രോപ്പർട്ടി	-3576
▁എന്നിവയുമായി	-3577
സിക	-3578
സ്ഥി	-3579
▁മത്സര	-3580
വ്യവസ്ഥ	-3581
തായിരുന്നു	-3582
▁വഞ്ച	-3583
▁L	-3584
▁പ്രാതിനി	-3585
▁ബാർ	-3586
ക്ഷമത	-3587
▁Vs	-3588
▁ജൂൺ	-3589
▁ഗ്യ	-3590
▁സ്റ്റാ	-3591
ൊന്നുമില്ല	-3592
▁ഉത്	-3593
▁ദുരിത	-3594
ിക്കുമെന്ന്	-3595
▁ചെയ്യാനുള്ള	-3596
▁നടപടിയ	-3597
▁പ്രശ്നങ്ങൾ	-3598
▁ഇളവ്	-3599
്വ	-3600
▁ഉയർത്ത	-3601
സ്ഥിര	-3602
▁പക	-3603
▁ഉദ്യോഗസ്ഥർ	-3604
കരണം	-3605
▁ചെയ്യപ്പെട്ട	-3606
▁വിദ്യാഭ്യാസം	-3607
▁വാഗ്ദാനം	-3608
▁പ്രാധാന്യ	-3609
▁സംസ്	-3610
▁p	-3611
▁പേര്	-3612
▁നിഗമനം	-3613
▁അയാൾ	-3614
▁പരിധിയിൽ	-3615
▁പ്രൊസീജ്യ	-3616
▁സ്ഥാപനം	-3617
▁ചിന്	-3618
▁റിട്ട	-3619
▁വസ്തുക്കളുടെ	-3620
▁ജാമ്യ	-3621
വക	-3622
▁ബുദ്ധിമു	-3623
▁അംഗീകരിച്ചു	-3624
പക്ഷം	-3625
▁അവലോകനം	-3626
▁അത്യ	-3627
▁സെക്യൂരി	-3628
▁പുരോഗതി	-3629
ത്തരം	-3630
▁സ്പെ	-3631
▁അക്കാദ	-3632
വിയ	-3633
േഴ്സ്	-3634
▁ദുരുപയോഗം	-3635
ിച്ചേ	-3636
▁മുനിസിപ്പ	-3637
▁മഹാരാഷ്ട്ര	-3638
▁Cr	-3639
▁ബാധകമല്ല	-3640
ാനി	-3641
ാവസ്ഥ	-3642
ാവിന്റെ	-3643
ിക്കില്ല	-3644
▁ആക്ഷേപ	-3645
▁നാശ	-3646
▁മോട്ടോർ	-3647
▁മറു	-3648
▁വേദ	-3649
പക്ഷീയ	-3650
▁ഡയറക്ട	-3651
▁എല്ലായ്പ്പോഴും	-3652
▁കൺസ	-3653
സോ	-3654
ിയം	-3655
നൈസ	-3656
▁നൽ	-3657
ുപ്പ	-3658
▁തീരുമാനങ്ങൾ	-3659
▁കഴിയൂ	-3660
ക്രമം	-3661
▁പദവി	-3662
▁ഒക്ടോബർ	-3663
▁വിജയ	-3664
▁കാണുക	-3665
▁നീട്ട	-3666
ളം	-3667
▁പകരം	-3668
െടുക്കാൻ	-3669
▁ഗുണനിലവ	-3670
▁പ്രത്യേകമായി	-3671
▁ഫാ	-3672
ിക്കുകയാണെങ്കിൽ	-3673
▁മനോ	-3674
▁അർത്ഥത്തിൽ	-3675
ട്ടോ	-3676
▁മാനദണ്ഡങ്ങൾ	-3677
റിലെ	-3678
▁വിഭാഗത്തിൽ	-3679
ക്കുന്നതിനും	-3680
▁എന്നിവയ്ക്ക്	-3681
▁പ്ലോ	-3682
ിയായ	-3683
▁അമ	-3684
ക്കുക	-3685
▁തെളിവുകള	-3686
ങ്ങളിലേക്ക്	-3687
സ്ഥാൻ	-3688
▁സ്കൂള	-3689
▁പ്രേരിപ്പ	-3690
ിള	-3691
രിയാന	-3692
II	-3693
ഫോട	-3694
മിഴ്	-3695
▁നിർദ്ദേശിച്ചു	-3696
മായോ	-3697
▁ഇൻഡ	-3698
▁ഏകപക്ഷീയ	-3699
റായി	-3700
▁തരം	-3701
വന്യൂ	-3702
▁സന്തോഷ	-3703
ക്കർ	-3704
▁ഫ്ര	-3705
in	-3706
ത്തുടർന്ന്	-3707
▁ഹൈക്കോടതിക്ക്	-3708
മിക്	-3709
▁അളവ്	-3710
▁ർജ്ജ	-3711
▁ഐഡന്റ	-3712
▁വീഡിയോ	-3713
▁സുപ്രധാന	-3714
▁വ്യക്തികളുടെ	-3715
▁കൊലപാത	-3716
▁കോർപ്പറേറ്റ്	-3717
ഠിന	-3718
▁ക്ലാസ്	-3719
സര	-3720
,00	-3721
ത്മക	-3722
▁ആഗ	-3723
ഹമ്മദ്	-3724
ുകഴിഞ്ഞാൽ	-3725
തമ	-3726
കൂട്ടി	-3727
▁പാസാക്ക	-3728
▁തർക്കങ്ങൾ	-3729
ിക്കാനാവില്ല	-3730
പദമായ	-3731
▁१६	-3732
▁താര	-3733
▁സീനിയർ	-3734
▁പകർപ്പ്	-3735
▁ഒരിക്കലും	-3736
▁സാങ്കേതികവിദ്യ	-3737
▁മറുവശത്ത്	-3738
മേധ	-3739
▁ശാര	-3740
ങ്ങനെയ	-3741
▁യുഎസ്	-3742
തെന്നും	-3743
▁തയ്യാറാക്കിയ	-3744
▁നാഷണൽ	-3745
▁എന്നാണ്	-3746
െന്നത്	-3747
▁തരത്തിലുള്ള	-3748
ജറാ	-3749
▁ധാർമ്മ	-3750
▁പ്രസക്ത	-3751
▁ഗത	-3752
ിലെയും	-3753
▁പെൺ	-3754
രുദ	-3755
▁ബാധകമാണ്	-3756
▁കഠിന	-3757
▁പൂർണ	-3758
▁സ്ഥലം	-3759
ചനം	-3760
▁യാത്ര	-3761
▁കാര്യമായ	-3762
ഘാത	-3763
▁തീരുമാനിച്ചു	-3764
▁പതിന	-3765
▁മെച്ചപ്പെടുത്ത	-3766
▁ന്നൽ	-3767
നീ	-3768
▁ഉറപ്പുവ	-3769
].	-3770
▁അനുശ	-3771
ിയുമായി	-3772
▁N	-3773
▁റവന്യൂ	-3774
▁മനസിലാക്ക	-3775
മേധയാ	-3776
▁ഉണ്ടെങ്കിൽ	-3777
▁അനുപാത	-3778
േത	-3779
▁തമിഴ്	-3780
▁മാനസിക	-3781
▁പരിശീലനം	-3782
▁നിയമനിർമ്മാണം	-3783
▁ഒഴിക	-3784
▁ഹരിയാന	-3785
ബാ	-3786
▁പദപ്ര	-3787
പ്ലിക്ക	-3788
▁ലൈസൻസ്	-3789
▁നേരിട്ടുള്ള	-3790
ിക്കുന്നതിലൂടെ	-3791
▁അഭിനന്ദ	-3792
▁ജീവപര്യ	-3793
▁ശാരീര	-3794
▁കൂടുതല	-3795
ികൾക്കും	-3796
പരിശ	-3797
▁സൗകര്യ	-3798
ാവകാശം	-3799
യ്ക്കാൻ	-3800
▁വിധിന്യായങ്ങൾ	-3801
▁അർഹതയുണ്ട	-3802
ത്തിനായുള്ള	-3803
▁വരും	-3804
▁പ്രതികളുടെ	-3805
ക്കാരന	-3806
▁ഏർപ്പെട്ട	-3807
▁സൂക്ഷ്മ	-3808
▁ദ്	-3809
സാധ	-3810
▁ന്യൂഡൽഹി	-3811
▁ഉന്നത	-3812
▁ആശ്വാസം	-3813
▁പ്രതികൾക്ക്	-3814
ാതു	-3815
ഷക	-3816
ൂർണ്ണ	-3817
▁പാർട്ട്	-3818
▁സുരക്ഷാ	-3819
▁ടാക്സ്	-3820
ായിരിക്കണം	-3821
ല്ലെങ്കിൽ	-3822
▁അഭ്യർത്ഥന	-3823
വ്ര	-3824
▁സ്വമേധയാ	-3825
▁ഗുജറാ	-3826
▁ദൃ	-3827
▁ഗ്രൂപ്പ്	-3828
▁എക്സൈ	-3829
▁എന്നിവരുടെ	-3830
▁കരാറിൽ	-3831
▁മുൻഗണന	-3832
▁അറസ്റ്റ്	-3833
▁വ്യാജ	-3834
▁ഉദ്യോഗസ്ഥൻ	-3835
മാക്കുന്നതിന്	-3836
ന്ത്	-3837
▁വീട്ടിൽ	-3838
രുമായി	-3839
ിച്ചേക്കാം	-3840
മന്ത്രി	-3841
ിക്കുന്നതും	-3842
▁മോശ	-3843
പത്രം	-3844
▁പുസ്ത	-3845
▁സ്കെ	-3846
ോക്ക്	-3847
▁പരിവർത്ത	-3848
▁വാക്കുകൾ	-3849
▁ഭാരം	-3850
▁ഗവേഷണ	-3851
▁അവലോകന	-3852
▁കടന്ന	-3853
▁ടെക്ന	-3854
▁ഉൾക്കൊള്ളുന്ന	-3855
▁വായ	-3856
യിലാണ്	-3857
▁പുതുക്ക	-3858
ത്തിന്റെയോ	-3859
----	-3860
▁സമ്പ്രദ	-3861
▁രേഖാമൂലം	-3862
▁വ്യക്തമാക്കി	-3863
ാക്കള	-3864
▁ബിരുദ	-3865
▁ഡെപ്യൂട്ടി	-3866
ക്കൊപ്പം	-3867
ഞ്ഞ്	-3868
▁വിശദീകരിച്ചു	-3869
▁ഭീഷ	-3870
▁പരാമർശിച്ചു	-3871
ശാസ്ത്ര	-3872
▁വർഷത്തേക്ക്	-3873
പരിശോധ	-3874
▁സത്യവാങ്മൂലം	-3875
▁തുടങ്ങിയവ	-3876
▁കഴിയാത്ത	-3877
▁ഓപ്പറ	-3878
▁നടത്തിയി	-3879
▁പെരുമാറ്റം	-3880
▁SC	-3881
▁അല്ലാത്ത	-3882
▁പഞ്ചാബ്	-3883
▁ഇതിൽ	-3884
▁പുല	-3885
ഗനൈസ	-3886
▁വിൻഡ	-3887
മാണെങ്കിൽ	-3888
▁നേടി	-3889
റിനെ	-3890
മാരും	-3891
▁തടവ	-3892
ാർട്ട്	-3893
▁ആശയം	-3894
▁സംശയമില്ല	-3895
▁ശിക്ഷാർഹ	-3896
▁സേവനത്തിൽ	-3897
▁ഫണ്ട്	-3898
▁വിസമ്മ	-3899
▁ഉറപ്പുവരുത്ത	-3900
ra	-3901
▁നിയമവും	-3902
▁ഇക്കാര്യം	-3903
▁മലിന	-3904
▁ചേർക്ക	-3905
▁നൽകാനുള്ള	-3906
ിലേക്കുള്ള	-3907
▁പുറപ്പെടുവിച്ചു	-3908
▁തടങ്ക	-3909
▁പരിച	-3910
▁ചെയ്യേണ്ട	-3911
▁ചൂണ്ടിക്കാ	-3912
▁അച്ചടക്ക	-3913
▁അവഹ	-3914
▁പരമാവധി	-3915
ുത്ത	-3916
▁മാർഗ	-3917
▁വസ്തുതാപരമായ	-3918
▁കുറച്ച്	-3919
മ്മാത	-3920
▁എണ്ണ	-3921
പ്പുറ	-3922
▁ജനറ	-3923
▁ആധാർ	-3924
▁സിബിഐ	-3925
ീകരിച്ച്	-3926
▁കാലതാമസ	-3927
▁വിസമ്മതി	-3928
▁ആഗ്രഹിക്കുന്ന	-3929
ഡിന	-3930
▁നയം	-3931
▁പ്രിൻസി	-3932
▁വിശകലനം	-3933
▁പ്രമോ	-3934
▁നൽകാം	-3935
സിബി	-3936
▁ധാര	-3937
ുവെന്ന്	-3938
▁പോലീ	-3939
▁ഗവൺമെന്റ്	-3940
േണ്ടി	-3941
▁ഘടകങ്ങൾ	-3942
▁വിധിന്യായവും	-3943
▁ചല	-3944
▁നിഷ്	-3945
▁ആലോ	-3946
▁സെൻട്രൽ	-3947
▁അനിവാര്യ	-3948
iv	-3949
▁ഒഴികെയുള്ള	-3950
ീണ	-3951
▁എന്നതിന്റെ	-3952
▁പ്രതിനിധീകര	-3953
▁താൻ	-3954
▁സൊസൈറ്റി	-3955
▁ഉന്നയിക്ക	-3956
ീകൃത	-3957
നോട്ട	-3958
ഡെ	-3959
▁വ്യവസ്ഥയുടെ	-3960
ഡിയ	-3961
ാളം	-3962
▁പ്രഖ്യാപനം	-3963
▁Rs	-3964
▁ദശ	-3965
ുകളോ	-3966
മാൻഡ്	-3967
▁ഉടമ്പ	-3968
▁ശരി	-3969
ിക്കൊണ്ട്	-3970
മേഖല	-3971
യെക്കുറിച്ചുള്ള	-3972
▁കൽക്ക	-3973
▁കൈവശമുള്ള	-3974
▁അമ്മ	-3975
▁ബന്ധപ്പെട്ടതാണ്	-3976
▁സംസ്ഥാനത്ത്	-3977
▁അംഗീകൃത	-3978
▁ജീവപര്യന്തം	-3979
▁കോടതിയിലെ	-3980
▁സഹായം	-3981
▁അർഹതയുണ്ട്	-3982
▁സീനിയോറി	-3983
നാട	-3984
▁അടിയ	-3985
▁അതില	-3986
ുമെന്റ	-3987
▁വികസനം	-3988
▁ധാതു	-3989
▁താരതമ	-3990
▁തീവ്ര	-3991
▁സ്കീം	-3992
▁അറ്റോർ	-3993
ക്കൂ	-3994
▁ഹരജ	-3995
ത്തിയാക	-3996
▁വിവാഹം	-3997
▁അറിയിച്ചു	-3998
▁ഉപയോഗിക്കുന്ന	-3999
ിക്കണമെന്ന്	-4000
▁ചെയ്യുന്നയാൾ	-4001
ഴിമതി	-4002
▁സ്വാധീന	-4003
▁പ്രോസിക്യൂട്ടർ	-4004
ൽപ്പന	-4005
▁ചെയ്ത്	-4006
യിക്കുന്ന	-4007
▁ആരംഭിച്ച	-4008
ക്കളും	-4009
▁ക്രമീകര	-4010
▁അടയാള	-4011
▁സമർപ്പിക്കാൻ	-4012
▁ശാരീരിക	-4013
▁ഹ്രസ്വ	-4014
▁അസംബ്ല	-4015
▁തത്ത്വം	-4016
▁കേവലം	-4017
▁കേന്ദ്രസർക്കാര	-4018
▁പഴയ	-4019
▁കാരണത്താൽ	-4020
▁അസിസ്റ്റന്റ്	-4021
▁ലൈസൻസ	-4022
ുന്നതിനെ	-4023
▁ഗണ്യമായ	-4024
▁വിശദമായ	-4025
▁സ്ഥിതിചെയ്യ	-4026
വസ്തു	-4027
▁ഡോക്ടർ	-4028
▁ലഭിക്കുന്ന	-4029
▁പരിശോധിച്ചു	-4030
▁നിരീക്ഷണങ്ങൾ	-4031
ുന്നതിനുമുമ്പ്	-4032
▁പേറ്റ	-4033
രാക്ക	-4034
▁സർവീസ്	-4035
▁വകുപ്പുകൾ	-4036
രാണ്	-4037
▁പ്രാർത്ഥന	-4038
▁സ്ഥാനക്ക	-4039
േക്കാവുന്ന	-4040
▁അപ്പീലുകൾക്ക്	-4041
്രോ	-4042
▁ലള	-4043
▁ഉടൻ	-4044
▁കുറ്റസമ്മത	-4045
▁കുറഞ്ഞത്	-4046
ൈവറ്റ്	-4047
▁അവഹേള	-4048
▁തെളിവ്	-4049
ത്തിനി	-4050
▁നാമനിർദ്ദേശ	-4051
▁നിർമ്മിച്ച	-4052
▁പുരു	-4053
▁ബിസിനസ്	-4054
▁മാതൃ	-4055
പ്പെടുത്തുകയും	-4056
▁നിയമത്തെ	-4057
ൃതദേഹ	-4058
▁പങ്കാളിത്ത	-4059
▁ആവശ്യപ്പെട്ടു	-4060
ച്ചേ	-4061
▁....	-4062
▁ചരിത്ര	-4063
▁മുറി	-4064
▁നിയോഗ	-4065
▁താൽക്കാലിക	-4066
▁പിരിച്ചു	-4067
▁നിയുക്ത	-4068
▁മനസ്സിൽ	-4069
▁അഞ്ച	-4070
മുണ്ടെങ്കിൽ	-4071
▁യഥാർത്ഥത്തിൽ	-4072
▁O	-4073
▁മൃതദേഹ	-4074
▁ഇല്ലാതാക്ക	-4075
▁അഴിമതി	-4076
▁എക്സൈസ്	-4077
,000	-4078
മാക്കുന്നു	-4079
▁കാണിക്കുന്നു	-4080
▁സൊസൈറ്റ	-4081
▁നടപ്പിലാക്കിയ	-4082
കളെയും	-4083
മന്ത്ര	-4084
ഇനിമുതൽ	-4085
ുകിട	-4086
ധികള	-4087
ന്ദ്	-4088
▁ആവി	-4089
െന്നാണ്	-4090
▁തെറ്റായി	-4091
▁നിർമ്മാത	-4092
മാക്കുന്നത്	-4093
നുമായി	-4094
▁ധാരാളം	-4095
▁വഞ്ചന	-4096
▁cy	-4097
▁ഇങ്ങനെ	-4098
▁ഐടി	-4099
ബോധന	-4100
▁അംഗീകരിക്കാൻ	-4101
സ്ഥല	-4102
▁ബെഞ്ചിന്റെ	-4103
▁അഭാവത്തിൽ	-4104
▁ശക്ത	-4105
▁ഇതിനായി	-4106
▁സമർപ്പണം	-4107
▁പ്രൈവറ്റ്	-4108
▁റോഡ്	-4109
▁ആവശ്യപ്പെടുന്നു	-4110
▁ഫെഡ	-4111
യിന്റ്	-4112
ട്ടുകൾ	-4113
സും	-4114
▁തുടക്കത്തിൽ	-4115
▁കൊണ്ടുപോക	-4116
▁മുഖ്യ	-4117
ാക്രമം	-4118
▁സിങ്ങിന്റെ	-4119
ർബല	-4120
▁വിൻഡോയിൽ	-4121
ത്തിനെതിരെ	-4122
ട്ടുണ്ടെങ്കിൽ	-4123
▁ഉണ്ടായിരിക്കണം	-4124
േൺ	-4125
മനു	-4126
▁സാധനങ്ങൾ	-4127
▁ഉപയോഗിക്കുന്നു	-4128
▁അലോ	-4129
▁ആവശ്യമുള്ള	-4130
▁അറ്റോർണി	-4131
▁ഒപ്പിട്ട	-4132
ൂരിലെ	-4133
▁ചെലവുകൾ	-4134
▁സുസ്ഥിര	-4135
▁കിലോ	-4136
റാം	-4137
▁ഖിത	-4138
▁ഉയർത്തി	-4139
▁ചോദ്യത്തിന്	-4140
മില്ലാതെ	-4141
▁ആലോച	-4142
▁ചെയ്യാം	-4143
തല്ല	-4144
▁ഫലം	-4145
യുള്ളൂ	-4146
▁ദുർബല	-4147
ില്ലാതെ	-4148
▁നിലവിൽ	-4149
▁പരാമർശിക്കുന്നു	-4150
ക്രൂ	-4151
▁ഇൻസ്പെ	-4152
▁നാശനഷ്ട	-4153
ar	-4154
▁കടം	-4155
▁ജാമ്യം	-4156
▁in	-4157
il	-4158
▁രൂപത്തിൽ	-4159
▁ചെയ്യുന്നതിൽ	-4160
▁യഥാക്രമം	-4161
▁ശർ	-4162
▁ചെക്ക്	-4163
▁എതിർപ്പ	-4164
▁വോട്ട	-4165
ർജ	-4166
se	-4167
പാദിപ്പ	-4168
▁ഭരണഘടനാപരമായ	-4169
പുതിയ	-4170
▁ആവശ്യങ്ങൾ	-4171
▁പ്രകടന	-4172
▁അഭിഭാഷകന്റെ	-4173
▁ശുപാർശകൾ	-4174
ിമ	-4175
▁മദ്ര	-4176
▁വിശദമായി	-4177
▁ഫി	-4178
േഷനുകൾ	-4179
▁കൂടിയ	-4180
▁കേന്ദ്രഭരണ	-4181
▁ദിവസത്തിനുള്ളിൽ	-4182
▁യുക്തിസഹ	-4183
▁വിശദീകരണ	-4184
▁തിരികെ	-4185
▁ആത്	-4186
ജിന	-4187
പരിശോധന	-4188
ലിനെ	-4189
▁കരു	-4190
▁സാക്ഷികളുടെ	-4191
മേഷൻ	-4192
▁ബംഗ	-4193
▁പറയാനാവില്ല	-4194
ട്ടെ	-4195
▁കസ്റ്റഡി	-4196
▁പര്യാപ്ത	-4197
▁d	-4198
▁സംയോജിത	-4199
▁പദ്ധതിയുടെ	-4200
വീ	-4201
▁പ്രൊവി	-4202
ൽക്കത്ത	-4203
▁കണ്ടെത്തൽ	-4204
ാക്കൽ	-4205
▁ചെയ്തിര	-4206
▁ചോദ്യങ്ങൾ	-4207
▁പെൻ	-4208
▁സർവേ	-4209
▁സംരക്ഷണം	-4210
ടപ	-4211
▁പകർപ്പ	-4212
▁നിർണ്ണയിക്കാൻ	-4213
ുശേഷ	-4214
▁സ്പീ	-4215
▁ഉപയോഗം	-4216
ജാതി	-4217
▁അനാവശ്യ	-4218
▁നടപടികളുടെ	-4219
▁ഗ്രാ	-4220
വെങ്കിലും	-4221
▁റെസ്	-4222
▁മൂലധന	-4223
▁പരിശോധിച്ച	-4224
▁റഫർ	-4225
▁ഗ്രൂപ്പ	-4226
േറിയ	-4227
ജു	-4228
▁ബിഡ്	-4229
ദ്രവ	-4230
▁കമ്മ്യൂ	-4231
▁ഏറ്റെടുക്കുന്ന	-4232
LP	-4233
▁ഷോ	-4234
▁പറയാൻ	-4235
▁അറസ്റ്റ	-4236
ായ്മ	-4237
ത്താൻ	-4238
▁രാം	-4239
ാലി	-4240
ലക്ഷ	-4241
ഷന്റെ	-4242
▁പദ്ധതികൾ	-4243
ഡോ	-4244
▁പൈ	-4245
ുമ്പോഴ	-4246
▁കൊൽക്കത്ത	-4247
▁സർക്കുല	-4248
▁അനന്തരഫല	-4249
▁വിരുദ്ധമായി	-4250
▁വന്നു	-4251
▁കോടതികളുടെ	-4252
ിനുള്ള	-4253
▁ആസൂ	-4254
▁മുമ്പിലുള്ള	-4255
▁ശാ	-4256
യ്ക്കൽ	-4257
പന	-4258
മെന്ന	-4259
ട്രേ	-4260
മായിരിക്കണം	-4261
പ്പന്ന	-4262
▁ഗ്രാമീണ	-4263
▁അസസ്സി	-4264
▁വായിക്കുന്നു	-4265
▁റിപ്പോർട്ടിന്റെ	-4266
▁മേഖലയിലെ	-4267
താ	-4268
▁അശ	-4269
▁ആവിഷ്	-4270
▁സമ്പൂർണ്ണ	-4271
▁കോഴ്	-4272
▁നിർത്തല	-4273
▁വിവേചനാധികാരം	-4274
രുടെയും	-4275
▁വിട്ടു	-4276
വൽ	-4277
▁ക്വാ	-4278
▁അസാധാരണ	-4279
ാപര	-4280
▁സെക്യൂരിറ്റ	-4281
▁ആഗോള	-4282
▁ആന്ധ	-4283
ുനൽക	-4284
▁മറ്റെ	-4285
▁മണിക്ക	-4286
▁നാ	-4287
ക്കുന്നതിനായി	-4288
▁ഹി	-4289
▁പേരു	-4290
ത്തിനുശേഷം	-4291
▁മേൽനോട്ട	-4292
▁ലിസ്റ്റ്	-4293
▁പരിശോധിക്കുകയും	-4294
▁സമു	-4295
യാളെ	-4296
▁e	-4297
റ്റാ	-4298
ഫർമേഷൻ	-4299
കൊ	-4300
▁റില	-4301
ിച്ചമ	-4302
ശ്രദ്ധ	-4303
സ്ഥാപ	-4304
▁എത്ര	-4305
▁ഉപയോഗിച്ച	-4306
ാന്ധ	-4307
▁ഓപ്	-4308
▁പരിഗണിക്കുകയും	-4309
കൂട	-4310
സംബോധന	-4311
▁അനുവദനീയമാണ്	-4312
ൈന	-4313
▁പ്രശ	-4314
▁അഭിസംബോധന	-4315
ാമി	-4316
▁രാത്രി	-4317
മല്ലെന്നും	-4318
ചി	-4319
യൻസ്	-4320
▁മറുപടി	-4321
▁സംവിധാനം	-4322
▁സ്ഥിരമായ	-4323
▁ശിക്ഷാ	-4324
▁പരിശീലന	-4325
▁അനുശാസ	-4326
▁ദിന	-4327
▁സംഗ്രഹ	-4328
▁१७	-4329
ിയിലുള്ള	-4330
▁ക്ഷേത്ര	-4331
▁ശേഷി	-4332
▁ഓൺ	-4333
▁ഫോം	-4334
▁ചൂണ്ടിക്കാട്ടി	-4335
അപ്പ	-4336
▁ആറ്	-4337
▁ഗുജറാത്ത്	-4338
ദിന	-4339
ന്തിക	-4340
▁നഷ്ടം	-4341
▁ചെയ്തത്	-4342
▁രജിസ്ട്രാർ	-4343
ങ്ങളാണ്	-4344
കളോ	-4345
▁തീരുമാനത്തിൽ	-4346
▁അതിന്	-4347
▁മുനിസിപ്പൽ	-4348
▁നിർണ	-4349
▁ഡിജി	-4350
ണിൽ	-4351
ലീന	-4352
▁ക്ഷണ	-4353
▁ശരീര	-4354
▁വ്യത്യാസം	-4355
ിയുടെയും	-4356
▁ആശ്രയിച്ച്	-4357
വിന	-4358
▁അപേക്ഷയിൽ	-4359
▁സാധാരണയായി	-4360
▁കണ്ടെത്തലുകൾ	-4361
ക്ച	-4362
▁തുല്യമായ	-4363
ഷന്	-4364
▁സ്വത്ത	-4365
▁തുടർച്ച	-4366
▁ഡിസ്ചാർജ്	-4367
▁രാജ്യത്ത്	-4368
▁ആവശ്യത്തിനായി	-4369
▁അയോഗ	-4370
▁പ്രായോഗ	-4371
▁കുറ്റകൃത്യം	-4372
സ്ട	-4373
▁പ്രദ	-4374
െടുത്തി	-4375
ുൾ	-4376
▁പോളിസി	-4377
ദി	-4378
▁ഉത്ത	-4379
▁കൺവെ	-4380
▁മെറി	-4381
ിക്കാര	-4382
▁തടഞ്ഞ	-4383
ത്യന്തിക	-4384
▁അവളെ	-4385
▁കൃത്യത	-4386
റ്റിംഗ	-4387
▁ജനങ്ങളുടെ	-4388
▁റിക്രൂ	-4389
▁കൽക്കരി	-4390
▁പുനർനിർമ്മ	-4391
▁ശക്തമായ	-4392
▁ഓർഗനൈസ	-4393
▁കൊണ്ടുവന്ന	-4394
▁മുന്നോട്ടു	-4395
ിലേക്കും	-4396
▁ഞങ്ങളെ	-4397
ാനാവാത്ത	-4398
▁ആത്യന്തിക	-4399
▁ബയോ	-4400
▁യൂണിറ്റ	-4401
▁പ്രായം	-4402
▁മൂന്നാമത്തെ	-4403
▁എന്നിവർ	-4404
▁വിദഗ്ദ്ധ	-4405
▁പ്രവർത്തിക്കാൻ	-4406
ുട	-4407
▁പഞ്ചായ	-4408
▁താരി	-4409
▁രൂപീകരിച്ച	-4410
െങ്കില	-4411
▁പ്രൊസീജ്യർ	-4412
▁വോ	-4413
ാക്കളുടെ	-4414
ിക്കേണ്ടതുണ്ട	-4415
▁ഹൈക്കോടതിയിലെ	-4416
താപ	-4417
കൽപ്പന	-4418
▁ബാധകമായ	-4419
നുബന്ധ	-4420
▁പരസ്പരം	-4421
▁സജീവ	-4422
▁വരുത്തി	-4423
▁ഉറപ്പുനൽക	-4424
▁നിർണായക	-4425
▁ഉണ്ടെന്ന്	-4426
ുകയായിരുന്നു	-4427
സനീയ	-4428
▁ചെയ്യുകയോ	-4429
▁വാദിക്കുന്നു	-4430
ത്തോട്	-4431
▁ആനുകൂല്യം	-4432
▁അക്കാദമിക്	-4433
▁തത്ത്വങ്ങൾ	-4434
▁ന്നിപ്പ	-4435
ങ്ങളിലൂടെ	-4436
▁പൊരുത്തക്ക	-4437
▁പെൺകു	-4438
▁കിഴിവ്	-4439
▁ചന്ദ്ര	-4440
▁പവർ	-4441
▁ഓർഡിന	-4442
▁സ്ഥാപിച്ച	-4443
ഹത്യ	-4444
▁എതിർപ്പ്	-4445
▁വ്യക്തിപരമായ	-4446
ാർഡ്	-4447
▁ആകെ	-4448
▁ആപ്ലിക്ക	-4449
▁പരാമർശിച്ച്	-4450
▁ഗസ	-4451
വായി	-4452
▁ജനങ്ങൾ	-4453
▁അശ്രദ്ധ	-4454
▁പ്രഭ	-4455
ില്ലാത്ത	-4456
▁താരതമ്യ	-4457
നങ്ങളുടെ	-4458
▁ആരംഭിച്ചു	-4459
▁പ്രിൻസിപ്പൽ	-4460
▁ആവശ്യപ്പെട്ട്	-4461
▁നിയമവിരുദ്ധമായ	-4462
ീറ്റ	-4463
▁പുസ്തക	-4464
▁പ്രമേയ	-4465
▁രൂപകൽപ്പന	-4466
▁പരാതിക്കാരൻ	-4467
ാഗ്ര	-4468
▁ക്യാ	-4469
ട്രേറ്റിന്	-4470
വേഷൻ	-4471
▁അലവ	-4472
▁വിന	-4473
▁നടത്തുകയും	-4474
;.	-4475
▁രഹ	-4476
▁നിലപാട	-4477
▁പരിഗണിച്ച	-4478
▁തെളിവുകളും	-4479
ണ്യ	-4480
▁SLP	-4481
▁അപ്ര	-4482
▁അന്തർലീന	-4483
ൃഗ	-4484
▁പരാജയപ്പെട്ടു	-4485
▁ഭക്ഷ്യ	-4486
▁സ്ഥാപിക്കാൻ	-4487
▁റാ	-4488
▁മുൻക	-4489
▁തടങ്കലിൽ	-4490
▁കാഴ്ചപ്പാടിൽ	-4491
▁അംഗം	-4492
ുകെ	-4493
▁വീട്ട	-4494
▁ഉദ്ദേശിച്ച	-4495
ാപൂർ	-4496
▁നാം	-4497
▁പ്രോസ	-4498
▁പരാമർശിച്ച	-4499
▁ചട്ടങ്ങളുടെ	-4500
▁സർവീസ	-4501
▁തൽഫലമായി	-4502
▁വ്യവസ്ഥകൾക്ക്	-4503
തുമാണ്	-4504
▁പാർട്ടി	-4505
▁ഗുപ്ത	-4506
ിച്ചുവെന്ന്	-4507
ംഗം	-4508
▁സ്ഫോട	-4509
▁t	-4510
▁യന്ത്ര	-4511
▁വിലയിരുത്തുന്ന	-4512
ിക്കള	-4513
▁ഇൻഫർമേഷൻ	-4514
▁സംഭവിച്ച	-4515
▁പ്രാക്ട	-4516
▁ചുവടെയുള്ള	-4517
രുന്നില്ല	-4518
▁റിക്രൂട്ട്	-4519
▁വിറ്റ	-4520
▁അടിസ്ഥാനം	-4521
▁ആവശ്യകതകൾ	-4522
▁സാഹചര്യങ്ങളും	-4523
▁സവിശേഷത	-4524
▁ജുഡീഷ്യറി	-4525
▁പരിഗണിക്കാൻ	-4526
ാവു	-4527
ക്കുമ	-4528
▁ആശംസകളും	-4529
▁വാക്ക്	-4530
▁നിയമനിർമ്മാണസഭ	-4531
▁അസാധുവാക്ക	-4532
▁വസ്തുതകളും	-4533
ല്	-4534
വിവ	-4535
▁ഇതുവരെ	-4536
▁നിലനിർത്താൻ	-4537
▁ചിത്ര	-4538
േന	-4539
▁ക്രൂര	-4540
▁പ്രായപൂർ	-4541
ഗാമ	-4542
▁പട്ടികയിൽ	-4543
കളുമായി	-4544
▁നേടാൻ	-4545
വിധി	-4546
▁ചുമത്തിയ	-4547
▁കൈവര	-4548
▁നിങ്ങൾക്ക്	-4549
▁ലഭ്യമാണ്	-4550
▁പട്ടികജാതി	-4551
▁നിയമങ്ങളുടെ	-4552
▁മിക്ക	-4553
ട്രാക്റ്റ	-4554
ങ്ങി	-4555
റിജിന	-4556
സിറ്റ	-4557
▁സാധുവ	-4558
യാണെന്ന്	-4559
▁എയർ	-4560
▁അത്യാവശ്യ	-4561
▁രാഷ്ട്രപതിയുടെ	-4562
ൈസ്	-4563
▁യുടെ	-4564
▁കൃത്യമായ	-4565
ക്സ	-4566
േണ്ടതുണ്ട	-4567
▁താഴെയുള്ള	-4568
ഫി	-4569
▁തത്വം	-4570
▁വിഭാവ	-4571
മാണെന്ന	-4572
▁അധികാരികൾ	-4573
▁കഴിയില്ലെന്നും	-4574
▁വിഭാവനം	-4575
▁പോസ്റ്റ	-4576
ക്കനുസൃതമായി	-4577
▁ഉത്തരവാദിത്തം	-4578
രുന്ന്	-4579
▁കാലഘട്ട	-4580
▁അസോസിയേഷൻ	-4581
▁ഇതിന്	-4582
മുണ്ടായിരുന്നു	-4583
േജി	-4584
▁പ്രധാനമായും	-4585
▁അങ്ങനെയ	-4586
▁നീക്കംചെയ്യ	-4587
ാന്യം	-4588
nd	-4589
ിന്റെയും	-4590
▁നീക്കിവ	-4591
സമയ	-4592
▁സാക്ഷികളെ	-4593
▁ഉപദേശം	-4594
▁ചെയ്തിട്ടുള്ള	-4595
▁ഇപ്പോഴും	-4596
പ്രവർത്ത	-4597
▁കൈമാറ്റ	-4598
▁ചതു	-4599
▁നടപടിയുടെ	-4600
▁പ്രൊഫഷണൽ	-4601
▁സെറ്റിൽ	-4602
▁അതോറിറ്റിക്ക്	-4603
രിൽ	-4604
ീർഘ	-4605
▁ഉൽപ്പ	-4606
▁സമ്പദ്	-4607
ഐആർ	-4608
▁അടു	-4609
മുണ്ടാക്ക	-4610
▁ശിക്ഷാർഹമായ	-4611
േഷനും	-4612
▁നമു	-4613
▁എന്നിവയിലെ	-4614
ക്കാരന്	-4615
▁നടപടിക്രമം	-4616
▁കോഡിന്റെ	-4617
▁നിയമസഭയുടെ	-4618
▁പ്രാതിനിധ്യം	-4619
▁തക	-4620
▁പരിഗണനയ്ക്കായി	-4621
▁[(	-4622
▁നര	-4623
▁രൂപയും	-4624
▁സമാധാന	-4625
▁ഗതാഗത	-4626
മാകുന്ന	-4627
▁കാലഹരണ	-4628
ുംബൈ	-4629
▁അവൻ	-4630
▁ജാതി	-4631
▁ണ്ട്	-4632
▁ഉണ്ടാക്കിയ	-4633
ാംഗ	-4634
▁പത്ര	-4635
▁നയിച്ച	-4636
▁നടപ്പിലാക്കാൻ	-4637
▁ദയ	-4638
▁ജീവനക്കാരുടെ	-4639
▁യൂണിവേഴ്സിറ്റി	-4640
ഡും	-4641
ർദ്ദ	-4642
▁ഡിപ്പ	-4643
▁ബല	-4644
▁xad	-4645
ഷ്യു	-4646
▁ഡ്രൈ	-4647
▁ഭരണകൂട	-4648
▁അധ്യായം	-4649
▁കവിയ	-4650
▁പ്രക്രിയയിൽ	-4651
ിലി	-4652
▁നൽകാനും	-4653
▁ദീർഘ	-4654
ുണ്ടെന്ന്	-4655
▁കോളേജ്	-4656
ൾട്ട	-4657
കുറ്റ	-4658
ാലാണ്	-4659
ിക്കുന്നതിനെ	-4660
▁ഭയ	-4661
പത്ര	-4662
ളുപ്പ	-4663
▁വാദിക്ക്	-4664
▁കളക്ടർ	-4665
▁നൽകണമെന്ന്	-4666
▁ഹിയ	-4667
▁ആസ്വദ	-4668
▁നിർവചന	-4669
ക്കായുള്ള	-4670
.)	-4671
ടുവിൽ	-4672
▁സീനിയോറിറ്റി	-4673
ലുള്ള	-4674
▁കൃത്യമായി	-4675
വലപ്	-4676
▁ചടങ്ങ	-4677
▁ഐക്യ	-4678
▁കണ്ടു	-4679
▁ചട്ടക്കൂ	-4680
▁തള്ളിക്കള	-4681
വരണ	-4682
▁മരണം	-4683
▁തുടരുന്ന	-4684
▁രഹസ്യ	-4685
▁പ്രത്യക്ഷ	-4686
ുമായിരുന്നു	-4687
▁ചരക്കുകളുടെ	-4688
ബോർ	-4689
▁Ex	-4690
ട്രോണി	-4691
▁ma	-4692
▁കുറയ്	-4693
▁മുംബൈ	-4694
ിത്	-4695
▁വിഹിത	-4696
▁നിർമ്മാണം	-4697
▁പാർലമെന്ററി	-4698
ണത	-4699
ട്രോള	-4700
▁ശിക്ഷാവി	-4701
▁ആവശ്യമാണെന്ന്	-4702
▁സെക്ക	-4703
▁വരുമാനത്തിന്റെ	-4704
▁മൂലം	-4705
▁ഗ്യാര	-4706
▁മാതൃക	-4707
▁ആശയവിനിമയം	-4708
▁സജ്ജ	-4709
▁തന്ത്ര	-4710
മാർക്കും	-4711
ാരംഭ	-4712
കൾക്കും	-4713
fic	-4714
▁ഇതിന്റെ	-4715
വമായ	-4716
ുന്നതിലൂടെ	-4717
▁ഭവനിലെ	-4718
▁നടപടികളും	-4719
▁കണക്കാക്കും	-4720
▁സന്തു	-4721
▁സന്ദേശ	-4722
▁പ്രാധാന്യം	-4723
▁ഏജൻസി	-4724
ന്തിര	-4725
▁കത്ത	-4726
▁ആളുകൾ	-4727
▁ഉപദ്രവ	-4728
▁ശ്രദ്ധിച്ചു	-4729
▁ഉത്തരവിലൂടെ	-4730
▁തുല	-4731
ധികമോ	-4732
ട്ടുണ്ടോ	-4733
▁പ്രോഗ്രാമ	-4734
▁വാഹനം	-4735
കരെ	-4736
ണമെന്ന	-4737
▁വ്യവസ്ഥകളുടെ	-4738
▁ദൈ	-4739
ൃദ്ധ	-4740
▁ഒടുവിൽ	-4741
▁സ്വീകരിക്കാൻ	-4742
ണ്ടെന്ന്	-4743
▁മദ്രാസ്	-4744
▁തിരഞ്ഞെടുപ്പ	-4745
▁തേ	-4746
▁പിശ	-4747
▁ആണെന്ന്	-4748
▁വർക്ക്	-4749
വോ	-4750
▁ബാഗ	-4751
▁വസ്തുതകളെ	-4752
▁സർക്കാരിനെ	-4753
▁മേൽപ്പറഞ്ഞവ	-4754
മീറ്റർ	-4755
▁സമർപ്പിക്കുകയും	-4756
▁ഷെയ	-4757
▁ആശയവിനിമയ	-4758
▁ശരിയാണ്	-4759
▁വിഭവ	-4760
ക്കര	-4761
▁ഉപവാക്യ	-4762
▁പുനരവലോകന	-4763
▁ഇസ്	-4764
▁ഇഷ്ട	-4765
▁കക്ഷികളുടെ	-4766
സ്മിക	-4767
ല്ലെന്നും	-4768
ത്തിയാകാത്ത	-4769
▁നശ	-4770
▁സ്വത്തിന്റെ	-4771
ക്കൽ	-4772
ന്ത്രിത	-4773
▁ഗുണനിലവാര	-4774
▁ലാൽ	-4775
▁അനുബന്ധം	-4776
▁ആറു	-4777
▁അനുയോജ്യമായ	-4778
▁ഫിന	-4779
▁കൈമാറി	-4780
▁ട്രസ്റ്റ	-4781
▁അടിയന്തിര	-4782
▁ട്രസ്റ്റ്	-4783
▁ചെറ	-4784
▁ശിക്ഷാവിധി	-4785
▁പരിശോധിക്കാൻ	-4786
▁സാധ്യ	-4787
▁ബാക്കി	-4788
▁അതിലധികമോ	-4789
▁യുവ	-4790
മനുസരിച്ച്	-4791
നാട്	-4792
▁പെറ്റീഷണർ	-4793
െല	-4794
▁കാരണമായ	-4795
▁ഒരാള	-4796
▁പതിപ്പ്	-4797
▁ലിസ്റ്റ	-4798
ചു	-4799
▁പുലർത്ത	-4800
▁അപ്പീലും	-4801
▁സംതൃപ്തി	-4802
▁തെറ്റി	-4803
▁കാരണമായി	-4804
യറ്റം	-4805
▁പ്രത്യേകിച്ച്	-4806
ൊന്ന്	-4807
▁മടങ്ങ	-4808
▁ചെയ്യാത്ത	-4809
▁പരിഗണിച്ചു	-4810
▁എന്താണ്	-4811
റ്റിക്	-4812
▁വകുപ്പിന്റെ	-4813
▁പ്രസ്താവനയിൽ	-4814
സ്പെ	-4815
terial	-4816
▁നിയമപരമായി	-4817
▁സ്ഥിരീകരിച്ചു	-4818
ൻറ	-4819
▁ഇൻഡസ്ട്ര	-4820
▁ഹോട്ട	-4821
▁നിസ്സ	-4822
▁ആയിരുന്നു	-4823
▁തീയതിയിലെ	-4824
▁:	-4825
യാസ	-4826
ണ്ടി	-4827
കളിലേക്ക്	-4828
▁വീണ്ടെടുക്കൽ	-4829
▁ഓഡി	-4830
▁material	-4831
▁ഒറിജിന	-4832
▁ഏഴ	-4833
വാദം	-4834
ലാത്സ	-4835
▁ആചാര	-4836
▁കസ്റ്റംസ്	-4837
ുകളായി	-4838
▁സെക്രട്ട	-4839
▁ഇൻസ്പെക്ടർ	-4840
▁ആവശ്യപ്പെട	-4841
വർഷം	-4842
ച്ചർ	-4843
▁വയസ്സ്	-4844
▁പങ്കാളിത്തം	-4845
ങ്ങളൊന്നും	-4846
▁പദപ്രയോഗ	-4847
ാമത്	-4848
▁യുപി	-4849
▁ശ്രമിച്ചു	-4850
▁പാർലമെന്റിന്റെ	-4851
▁ടാഡ	-4852
▁മൃഗ	-4853
▁യുക്	-4854
▁തുടരുക	-4855
സംഖ്യ	-4856
▁ഉള്ളടക്ക	-4857
യിട്ടുണ്ട്	-4858
▁വെല്ലുവിളി	-4859
നാമ	-4860
▁എന്നിവയാണ്	-4861
▁കൂട്ടിച്ചേ	-4862
നുകൾ	-4863
▁രാജസ്ഥാൻ	-4864
ഭൂ	-4865
▁അറിയിപ്പ	-4866
▁സാധുതയുള്ള	-4867
▁coun	-4868
▁അഭിമുഖ	-4869
മട	-4870
ാവിലെ	-4871
രുതെന്ന്	-4872
▁സമ്മേള	-4873
▁നിലനിൽക്കുന്ന	-4874
▁ആകസ്മിക	-4875
▁സമിതിയുടെ	-4876
ക്ല	-4877
▁ചതുര	-4878
നിമം	-4879
രാൻ	-4880
▁കുറയ്ക്ക	-4881
▁മാനു	-4882
▁മനുഷ്യാവകാശ	-4883
▁ഇംഗ്ലീഷ്	-4884
▁തെളിവുകളിൽ	-4885
▁തീരുവ	-4886
▁നീണ്ട	-4887
▁xx	-4888
▁യോഗ്യ	-4889
▁വർഗ്ഗ	-4890
▁താമസിക്കുന്ന	-4891
▁കാലയളവ	-4892
▁എക്സ്ചേ	-4893
ാലയ	-4894
▁ഏഴ്	-4895
▁അഭാവം	-4896
രിക്കും	-4897
▁ആസൂത്ര	-4898
▁പ്രത്യേകം	-4899
▁സ്വീകാര്യ	-4900
ുന്നുവെന്ന്	-4901
▁ചാർജുകൾ	-4902
▁ആരോപണങ്ങൾ	-4903
▁ദശലക്ഷ	-4904
▁സ്റ്റാറ്റ	-4905
റിന	-4906
▁പഠന	-4907
ർന്നു	-4908
▁ചരക്ക്	-4909
▁ആഴ	-4910
സന്ധ	-4911
▁അപൂർ	-4912
▁പ്രവർത്തിച്ച	-4913
▁ശിക്ഷയും	-4914
▁കണ്ടെത്തല	-4915
▁പറഞ്ഞതുപോലെ	-4916
മാസം	-4917
▁ആരോപണം	-4918
താപിത	-4919
മ്പ്യൂ	-4920
▁അനുവദിക്കുന്ന	-4921
▁ഉറവിട	-4922
ക്കാനുള്ള	-4923
▁സാന്നിധ്യ	-4924
▁കഴിഞ്ഞില്ല	-4925
ബോധം	-4926
▁വ്യക്തികളെ	-4927
▁തെളിയിക്കാൻ	-4928
▁നിൽ	-4929
▁കരാറുകാര	-4930
ിച്ചിരുന്ന	-4931
ക്സാ	-4932
▁അമ്	-4933
▁അമിത	-4934
▁ഉടമ്പടി	-4935
▁മാതാപിത	-4936
▁സമ്പ്രദായ	-4937
▁സ്ഥാപിതമായ	-4938
IR	-4939
േണ്ടതാണ്	-4940
▁സെല	-4941
▁വർദ്ധന	-4942
▁ഇലക്ട്രോണി	-4943
▁പീഡ	-4944
േറ്ററി	-4945
ികളുമായി	-4946
▁യൂണിറ്റ്	-4947
ായാലും	-4948
▁സ്ഥാനക്കയറ്റം	-4949
ിതം	-4950
മ്പര	-4951
▁ചെയ്യുന്നതിനായി	-4952
▁അവയുടെ	-4953
▁ശമ്പളം	-4954
ല്ലെന്ന്	-4955
▁ഹൈക്കോടതിയും	-4956
ുകൊടു	-4957
▁ഫാക്ട	-4958
▁സാഹചര്യങ്ങളിലും	-4959
▁മിനിമം	-4960
▁നടത്തുന്നതിന്	-4961
േസ്	-4962
▁അനുസ	-4963
▁സ്കൂൾ	-4964
പരവുമായ	-4965
▁എഞ്ചിനീയർ	-4966
▁അധികാരമുണ്ട്	-4967
▁സംഭവം	-4968
▁നിർവചനം	-4969
▁പ്രതിചേ	-4970
▁കോടതിയും	-4971
മാവ	-4972
▁ഒഴിവാക്കൽ	-4973
▁സ്വീകരിച്ചു	-4974
ജീവന	-4975
ാനു	-4976
▁അറിവ്	-4977
▁അവകാശവാദം	-4978
▁മാസത്തിനുള്ളിൽ	-4979
▁യുക്തിര	-4980
തെ	-4981
▁നിയമങ്ങളും	-4982
നിംഗ്	-4983
▁നാമനിർദ്ദേശം	-4984
▁കുറ്റപത്രം	-4985
▁വിധിന്യായത്തെ	-4986
മിച്ച്	-4987
▁ചെലവഴ	-4988
▁കണക്കിലെടുക്ക	-4989
മേൽ	-4990
▁ഡെൽ	-4991
▁വേതനം	-4992
▁കൊലപാതക	-4993
▁ക്രമീകരണ	-4994
▁സമൂഹത്തിന്റെ	-4995
▁അവ്യ	-4996
▁പരിപാട	-4997
▁ഉദാഹരണത്തിന്	-4998
▁ഫോട്ട	-4999
▁പ്രചോദ	-5000
▁തിരഞ്ഞെടുത്ത	-5001
▁ഉത്തർ	-5002
▁കുറ്റക്കാരന	-5003
ൈൻ	-5004
▁വിവേക	-5005
മാണിത്	-5006
▁വിപണി	-5007
▁വാങ്ങിയ	-5008
▁പ്രകടിപ്പിച്ച	-5009
മിട	-5010
▁അവശേഷ	-5011
▁ബെഞ്ചിന്	-5012
▁സാഹചര്യം	-5013
ൊക്ക	-5014
▁അടിത്ത	-5015
▁സ്വത്തുക്കൾ	-5016
ാമെന്ന	-5017
റ്റാണ്ട	-5018
▁ആര്ബിട്രേറ്റ	-5019
ംഖ	-5020
▁തങ്ങളുടെ	-5021
▁കമ്മിറ്റിയുടെ	-5022
▁തവണ	-5023
▁കക്ഷി	-5024
ികളെയും	-5025
▁ബലാത്സ	-5026
▁അനുയോജ്യ	-5027
▁ഗർഭ	-5028
▁ചേർ	-5029
▁കമ്പ്യൂ	-5030
▁ഹാജരാക്കിയ	-5031
▁നേരെ	-5032
▁ചതുരശ്ര	-5033
കമായ	-5034
പാദനം	-5035
▁എക്സ്പ്ര	-5036
വ്വഹ	-5037
▁പരസ	-5038
▁ഒത്തു	-5039
മേരിക്ക	-5040
▁ജഡ്ജിമാർ	-5041
▁പ്രതികരണ	-5042
▁വ്യവസ്ഥയിൽ	-5043
ടപട	-5044
▁ദിശ	-5045
▁തെറ്റ്	-5046
▁ചുമതലകൾ	-5047
▁മാർക്ക്	-5048
ിനോ	-5049
ക്കി	-5050
ട്ടിയ	-5051
ട്ടിംഗ്	-5052
ിയൽ	-5053
▁അവകാശപ്പെടുന്ന	-5054
േശ്	-5055
▁ട്രാ	-5056
▁ഇഷ്യു	-5057
▁പ്രമേയം	-5058
മാക്കിയ	-5059
▁സേന	-5060
▁ഉച്ച	-5061
▁ഭരണം	-5062
രാഷ്ട്ര	-5063
▁ലഭിക്കും	-5064
▁കടന്നുപോ	-5065
▁സ്പെഷ്യൽ	-5066
▁സെന്റ	-5067
▁പ്രദേശം	-5068
▁പ്രയാസ	-5069
▁കേസുകളുടെ	-5070
▁റിപ്പോർട്ടുകൾ	-5071
ക്ഷര	-5072
▁ജഡ്ജിമാരെ	-5073
ദാർ	-5074
▁ഹോൾ	-5075
▁കാണുന്നില്ല	-5076
വകാശ	-5077
▁നിലവാര	-5078
ഷനുകൾ	-5079
▁ബ്രാ	-5080
ന്റുകൾ	-5081
▁കുറച്ച	-5082
▁ആയിരിക്കും	-5083
▁സിദ്ധാന്തം	-5084
▁ശൃ	-5085
▁പൊതുതാൽപര്യ	-5086
▁വ്യക്തിയും	-5087
▁ബദ	-5088
ക്ട്	-5089
ംഖല	-5090
േയും	-5091
മുണ്ടെന്നും	-5092
യിപ്പ	-5093
▁ഡീഡ്	-5094
▁ശൃംഖല	-5095
▁നിവേദനം	-5096
▁അവസാനമായി	-5097
▁ഒഴിവാക്കാൻ	-5098
▁രണ്ടാമതായി	-5099
▁നമുക്ക്	-5100
▁കമ്പനികൾ	-5101
▁സിദ്ധാന്ത	-5102
▁അനുവദനീയമായ	-5103
▁വ്യത്യസ്തമായ	-5104
ാത്	-5105
▁१८	-5106
മുണ്ടാക	-5107
▁ശ്രദ്ധാപൂർ	-5108
▁ചെയർമാൻ	-5109
തിലെ	-5110
▁പദം	-5111
▁യുക്തിരഹിത	-5112
▁ഇടപെടൽ	-5113
▁രൂപയുടെ	-5114
▁തീരുമാനത്തിന്റെ	-5115
ഴ്സസ്	-5116
▁വൈവിധ	-5117
▁എളുപ്പ	-5118
▁പ്രഖ്യാപിച്ച	-5119
▁ജന്യ	-5120
▁കര്യങ്ങൾ	-5121
▁മറ്റുള്ളവ	-5122
രോഗ	-5123
ജിത്	-5124
▁നാലാം	-5125
▁വിട്ട	-5126
▁ആശ്വാസ	-5127
▁വിദഗ്ധ	-5128
▁സ്റ്റേ	-5129
കാരിക	-5130
▁പ്രയോഗം	-5131
ബൈൽ	-5132
ുവെ	-5133
▁വീക്ഷണത്തിൽ	-5134
ധികൾ	-5135
പ്പിട	-5136
▁ധനസഹ	-5137
ിക്കുന്നതിലും	-5138
▁സ്ഥിതിചെയ്യുന്ന	-5139
ാലങ്ങളിൽ	-5140
▁പൂർണമായും	-5141
ac	-5142
ിനു	-5143
ക്കുന്നതിനോ	-5144
▁ക്ലാസ	-5145
▁പരാമർശം	-5146
▁അപേക്ഷകനെ	-5147
മടഞ്ഞ	-5148
വൈ	-5149
▁കത്തി	-5150
പോർട്ട്	-5151
യില്ലാത്ത	-5152
വേണ്ടി	-5153
▁നടന്നു	-5154
▁ടെക്നോളജി	-5155
▁പരിമിതമായ	-5156
ിച്ചമർത്ത	-5157
പരവും	-5158
ീറ്റ്	-5159
▁പരിസര	-5160
▁പാരി	-5161
▁ഹരജിയിൽ	-5162
▁തെറ്റിദ്ധ	-5163
▁ഫലപ്രദമായ	-5164
▁രാജ്	-5165
▁ഭീഷണി	-5166
▁ഉപവാക്യം	-5167
▁വ്യാപാരം	-5168
ിച്ചിരിക്കുന്നത്	-5169
ിനോട്	-5170
സുകൾ	-5171
▁ലോക്	-5172
▁അല്ലാത	-5173
▁ഇടപാട്	-5174
▁പരമ്പര	-5175
▁രണ്ടും	-5176
▁ഡിപ്പാർട്ട്	-5177
കരം	-5178
▁നിന്നാണ്	-5179
▁സമീപനം	-5180
▁സംഘടിപ്പ	-5181
▁ബാധിക്കുന്ന	-5182
▁ഐഡന്റിറ്റി	-5183
▁പിരിച്ചുവിട	-5184
as	-5185
▁തുല്യത	-5186
▁കഴിയുമോ	-5187
ർക്കെതിരെ	-5188
▁കുറിപ്പ്	-5189
യിലേക്കുള്ള	-5190
ാലുള്ള	-5191
▁ഏജന്റ	-5192
▁ദിവസത്തെ	-5193
▁ജനസംഖ്യ	-5194
▁പരിവർത്തനം	-5195
▁വ്യാഖ്യാനം	-5196
▁അടിച്ചമർത്ത	-5197
ധികൃത	-5198
▁ആവശ്യം	-5199
ക്കുറിച്ചോ	-5200
▁അപ്പീലുകളിൽ	-5201
മർ	-5202
▁ലഘ	-5203
ീർണ്ണ	-5204
▁കരട്	-5205
▁കാലാക	-5206
▁ഒറിജിനൽ	-5207
▁താരിഫ്	-5208
▁തീരുമാനിച്ച	-5209
▁or	-5210
▁ഹൃദ	-5211
▁രേഖപ്പെടുത്തി	-5212
▁ഉടമസ്ഥത	-5213
▁എത്തിച്ചേ	-5214
▁ഉപയോഗിക്കാൻ	-5215
പ്പെടുന്നില്ല	-5216
▁പൂർത്തിയാക്ക	-5217
▁നിയമാനുസൃതമായ	-5218
▁ഇം	-5219
്വാസ	-5220
▁ക്യ	-5221
▁ബോർഡിന്റെ	-5222
▁താൽപ്പര്യം	-5223
▁l	-5224
▁കൂടി	-5225
ഥ്	-5226
▁ഓടെ	-5227
▁മദ്യ	-5228
ൊഴിപ്പ	-5229
പത്	-5230
കർക്ക്	-5231
▁ശ്രദ്ധേയ	-5232
ിവാസ	-5233
▁സമ്മതം	-5234
ുവെന്നും	-5235
ഷ്ഠിത	-5236
▁പ്രകാശ	-5237
▁പറ	-5238
▁III	-5239
▁എന്നിവരെ	-5240
▁തീയതിക്ക്	-5241
്രമ	-5242
▁കറ	-5243
ദ്ധ്യ	-5244
ാഘാത	-5245
ൻഷ്യൽ	-5246
▁ജാഗ്ര	-5247
▁അമേരിക്ക	-5248
ചുരുക്കത്തിൽ	-5249
▁അധികാരത്തിന്റെ	-5250
▁വേഴ്സസ്	-5251
▁ഏർപ്പെടുത്ത	-5252
▁കാലാകാലങ്ങളിൽ	-5253
▁രസീ	-5254
▁ഉപഭോക്തൃ	-5255
▁പാട്ടക്കര	-5256
▁കുടിയൊഴിപ്പ	-5257
ഥമ	-5258
▁അനുഭവം	-5259
##	-5260
ണാ	-5261
ത്തേത്	-5262
ഹ്മ	-5263
▁ശരിവ	-5264
▁ഡിജിറ്റ	-5265
▁മുന്നോട്ടുവച്ച	-5266
▁സ്ഥാപനത്തിന്റെ	-5267
▁ഡീല	-5268
▁രാമ	-5269
▁ഒരുമിച്ച്	-5270
ത്തോട	-5271
റാണ്ട	-5272
▁കപ്പ	-5273
▁പശ്ചിമ	-5274
▁സാമൂഹ്യ	-5275
▁നിരന്ത	-5276
ജിയ	-5277
വിധേയ	-5278
ഡിനേറ്റ്	-5279
▁പ്രഖ്യാപന	-5280
▁പ്രഥമ	-5281
▁വാഹന	-5282
മോർട്ട	-5283
▁പുനരധ	-5284
▁തിരിച്ചു	-5285
ലിത	-5286
▁വയ്	-5287
▁അവകാശമില്ല	-5288
നിയർ	-5289
▁ഉപകരണങ്ങൾ	-5290
വുകൾ	-5291
ടിന്റെ	-5292
▁offic	-5293
സിലെ	-5294
ുകൂട	-5295
ിലധികം	-5296
▁ചെറുകിട	-5297
▁ഭരണഘടനയിൽ	-5298
ിക്കപ്പെടും	-5299
▁മൊത്തത്തിൽ	-5300
▁ഓട	-5301
ുറമെ	-5302
▁സ്ഥിരമായി	-5303
തിയിൽ	-5304
സിംഗ്	-5305
▁മൃതദേഹം	-5306
മാക്കുകയും	-5307
▁മരണത്തിന്	-5308
▁അംഗങ്ങളുടെ	-5309
▁കേസുകളിലും	-5310
▁ജീവനക്കാർക്ക്	-5311
▁റേ	-5312
ൾപ്പെടെ	-5313
▁സ്വഭാവവും	-5314
▁ജുവ	-5315
▁മരണമടഞ്ഞ	-5316
ുനിക	-5317
▁റാം	-5318
▁മൊത്തത്തിലുള്ള	-5319
▁ബു	-5320
▁വിപണ	-5321
▁ബംഗാൾ	-5322
▁കണക്കാക്കിയ	-5323
▁കുറ്റസമ്മതം	-5324
▁ഭാഗത്തുനിന്ന്	-5325
▁പുറമേ	-5326
സാദ്	-5327
▁വ്യവസ്ഥകളെ	-5328
▁പാട്ടത്തിന്	-5329
▁ഏരിയ	-5330
▁ഗവർണറുടെ	-5331
▁ഭവൻ	-5332
▁ഉണ്ടായ	-5333
▁എക്സിക്യൂട്ടീ	-5334
▁ചെയ്യുന്നതിനും	-5335
▁ജോയിന്റ്	-5336
▁പ്രീ	-5337
▁വാക്കാലുള്ള	-5338
▁എഞ്ചിനീയറിംഗ്	-5339
ലൈൻ	-5340
▁മിനി	-5341
▁കോഴ്സ	-5342
▁ഭാഗത്ത്	-5343
▁മെമ്മോറാണ്ട	-5344
▁വന	-5345
യോക്ത	-5346
▁ഇന്ത്യയും	-5347
▁for	-5348
▁മറിക	-5349
▁പ്രകടനം	-5350
▁ഉൽപ്പന്ന	-5351
▁നൽകുന്നതിൽ	-5352
▁സന്ദർഭങ്ങളിൽ	-5353
ീനൽ	-5354
ണ്ടെന്നും	-5355
▁വിശ്വസനീയ	-5356
ാവര	-5357
മാകും	-5358
ചൽ	-5359
ഫറ	-5360
▁എന്നതിന്	-5361
▁റെക്കോർഡ	-5362
▁വാറ	-5363
എയുടെ	-5364
▁സ്വാധീ	-5365
▁മേഖലകളിൽ	-5366
▁കിട	-5367
▁പതിവ്	-5368
ുകളിലേക്ക്	-5369
▁വർഷങ്ങളിൽ	-5370
▁പ്രോസിക്യൂഷന്റെ	-5371
▁അനധികൃത	-5372
▁മോർട്ട്	-5373
▁മുഹമ്മദ്	-5374
▁റെക്കോർഡ്	-5375
▁മരിച്ചയാളുടെ	-5376
▁ട്ട്	-5377
▁ഉപയോക്ത	-5378
▁തുല്യമാണ്	-5379
പ്പെടുമ്പോൾ	-5380
▁തുടർച്ചയായ	-5381
സൺ	-5382
സ്തി	-5383
▁വിവാദ	-5384
▁ഇടപെടാൻ	-5385
▁തനിക്ക്	-5386
യോട്	-5387
▁നിബന്ധനകളും	-5388
▁പരിഗണിക്കുമ്പോൾ	-5389
േർഡ്	-5390
▁സ്വന്ത	-5391
ട്ടിന്റെ	-5392
▁ചെയ്യാനും	-5393
▁രാവിലെ	-5394
▁ഭാഗമായി	-5395
ധ്യമ	-5396
▁പേർ	-5397
▁പീനൽ	-5398
▁നിലവിലുണ്ട	-5399
യിൻ	-5400
നുപാ	-5401
ാഴ്ച	-5402
▁ഡോക്യ	-5403
▁എടുത്തി	-5404
ക്കുകൾ	-5405
നുപാതിക	-5406
▁കൺസൾട്ട	-5407
രൂപ	-5408
ല്ലാതെ	-5409
▁പന്ത്ര	-5410
▁മരിക്കുന്ന	-5411
▁ചുരുക്കത്തിൽ	-5412
▁ലേബർ	-5413
▁വൈവിധ്യ	-5414
▁ആവർത്തിച്ചു	-5415
▁ഹൈക്കോടതിയെ	-5416
▁പരിഗണിക്കുന്ന	-5417
ന്മ	-5418
▁കൃഷി	-5419
▁സൂപ്പർ	-5420
▁കക്ഷികൾക്ക്	-5421
▁പരാതികൾ	-5422
▁അവകാശമുണ്ട്	-5423
▁കുറ്റങ്ങൾക്ക്	-5424
▁ചോദ	-5425
▁നിക	-5426
▁സൂപ്ര	-5427
▁പ്രത്യാഘാത	-5428
▁ചാൻ	-5429
ട്ടുണ്ടെങ്കിലും	-5430
▁പൂർവ്വം	-5431
▁വ്യക്തികൾക്ക്	-5432
ഹൻ	-5433
▁ഫോമ	-5434
ൈറ്റ്	-5435
▁കയ്യ	-5436
▁കർശനമായി	-5437
▁സംയോജിപ്പ	-5438
▁സമർപ്പണങ്ങൾ	-5439
▁വ്യക്തിക്കും	-5440
ഷനിൽ	-5441
▁ലും	-5442
െടുക്കൽ	-5443
▁കാര്യങ്ങളും	-5444
▁സ്വാധീനം	-5445
ൂകര	-5446
▁പ്രദേശത്ത്	-5447
);	-5448
▁ved	-5449
റുകളുടെ	-5450
റ്റഡ്	-5451
▁ചടങ്ങിൽ	-5452
▁ഇന്ന	-5453
▁ലേലം	-5454
▁പ്രായോഗിക	-5455
▁അല്ലാത്തപക്ഷം	-5456
▁ഒറ്റ	-5457
▁ലംഘനം	-5458
▁നശിപ്പ	-5459
▁മെറ്റീരിയൽ	-5460
▁കണ	-5461
ാലോച	-5462
ികളായ	-5463
▁നിരാ	-5464
▁വിസ്താര	-5465
▁സാധുവായ	-5466
▁തുടരാൻ	-5467
▁ദീർഘകാല	-5468
ങ്ങളുണ്ട്	-5469
▁തത്വങ്ങൾ	-5470
▁മീറ്റിംഗ	-5471
സിഐ	-5472
സ്ടി	-5473
▁പിന്തുണച്ച	-5474
▁ബീഹാർ	-5475
▁മോർട്ട്ഗ	-5476
▁കൂടിയാലോച	-5477
▁നെറ്റ്	-5478
▁വീട്	-5479
ായു	-5480
കരമായി	-5481
▁അൻ	-5482
ച്ചെല	-5483
▁ചുറ്റ	-5484
▁വ്യായ	-5485
▁ഇല്ലയോ	-5486
▁അല്ലാതെയോ	-5487
▁ചെയ്യാവുന്ന	-5488
▁മിസ്റ്റർ	-5489
▁വിപുലീകര	-5490
▁സ്വയംഭരണ	-5491
▁അംഗീകരിക്കുകയും	-5492
▁മിശ്ര	-5493
▁അദ്ധ്യ	-5494
▁കമ്മ്യൂണി	-5495
▁തീയതികളിൽ	-5496
▁അപര്യ	-5497
▁ഉയർന്നുവരുന്ന	-5498
▁മാത്രമായി	-5499
▁വളർത്ത	-5500
▁കമ്മീഷണ	-5501
▁സ്ഥിരസ്ഥിതി	-5502
▁ഭാഗത്തുനിന്ന	-5503
ാവിന്	-5504
ുമെന്റ്	-5505
▁അവകാശങ്ങളും	-5506
ിക്കുന്നതിന്റെ	-5507
ത്തെക്കുറിച്ചും	-5508
▁കാര്യക്ഷമ	-5509
ഡിംഗ	-5510
▁അധി	-5511
വികസന	-5512
▁അന്യായ	-5513
▁സ്ഥാവര	-5514
▁അനി	-5515
▁ശിവ	-5516
▁ഏകീകൃത	-5517
▁പരസ്യം	-5518
▁അവ്യക്ത	-5519
▁പ്രോഗ്രാം	-5520
മാണെങ്കിലും	-5521
ംശ	-5522
മാർത്ഥ	-5523
സംസ്ഥാന	-5524
▁നടത്തുന്നു	-5525
▁ജയില	-5526
▁എവിടെ	-5527
▁ബാങ്കിംഗ്	-5528
▁നിയന്ത്രണങ്ങൾ	-5529
▁xxx	-5530
▁തൊട്ട	-5531
▁സ്ഥാപിച്ചു	-5532
▁കാറ്റ	-5533
രിക്കണം	-5534
ുന്നതും	-5535
▁ഒഴിവുകൾ	-5536
▁പങ്കിട	-5537
▁പിഴയും	-5538
▁കുമാ	-5539
▁ഇടയിൽ	-5540
▁നിരപര	-5541
▁വിലാസ	-5542
▁സെയിൽ	-5543
▁അപര്യാപ്ത	-5544
▁പ്രധാനപ്പെട്ട	-5545
▁n	-5546
സസ്	-5547
ത്തീ	-5548
റിംഗ	-5549
▁പൂരിപ്പ	-5550
▁ശക്തമായി	-5551
▁സമഗ്രമായ	-5552
▁അസാധാരണമായ	-5553
ട്ടിട്ടുണ്ട്	-5554
▁ശീർ	-5555
▁ആത്മാർത്ഥ	-5556
▁ആനുപാതിക	-5557
▁നൽകുമ്പോൾ	-5558
▁ഉണ്ടായിരിക്കും	-5559
ക്യു	-5560
ാനായി	-5561
▁രേഖകളും	-5562
▁വൈരുദ്ധ	-5563
ൻഡർ	-5564
▁തിരിച്ചട	-5565
▁മാസം	-5566
▁ഉയർന്നുവന്ന	-5567
▁നൈ	-5568
ോഗ്രാ	-5569
▁പ്രമാണ	-5570
േതര	-5571
▁പാട	-5572
ഫ്റ്റ	-5573
▁അവിഭ	-5574
▁വീണ്ടെടു	-5575
ായിരിക്കാം	-5576
▁നേതൃ	-5577
▁ബോഡി	-5578
ുമായുള്ള	-5579
▁വേഗത്തിൽ	-5580
▁ഉദ്ധരിച്ച	-5581
▁സ്ഥിരീകരണ	-5582
▁ഉദ്യോഗസ്ഥന്റെ	-5583
ാന്ധി	-5584
▁വിദൂര	-5585
▁മന്ത്രിസഭ	-5586
പാൽ	-5587
▁കൊള	-5588
▁ഡീഡ	-5589
-0	-5590
▁മാധ്യമ	-5591
▁നിരസിക്കാൻ	-5592
▁വഹിക്കുന്ന	-5593
▁ജുഡീഷ്യറിയുടെ	-5594
▁എന്റർ	-5595
▁ഓർമ്മ	-5596
▁തുകയുടെ	-5597
▁വ്യക്തമായും	-5598
▁വ്യായാമ	-5599
▁fac	-5600
▁അലി	-5601
▁ജയ്	-5602
▁സുത	-5603
▁കരാറുകൾ	-5604
നിര	-5605
പ്പി	-5606
ation	-5607
ാദിലെ	-5608
ുകളിലൂടെ	-5609
▁ചരക്കുകൾ	-5610
▁വർഷത്തിനുള്ളിൽ	-5611
ോഗ്	-5612
▁ആറാം	-5613
▁വിഭാഗത്തിലെ	-5614
▁ചെയ്യുന്നതിന	-5615
▁സൂക്ഷ്മപരിശോധന	-5616
▁വസ്തുക്കള	-5617
▁സ്റ്റേഷനിൽ	-5618
▁കാലയളവിന	-5619
▁ഡയ	-5620
ൂന്യ	-5621
▁ടെലി	-5622
വുമാണെന്ന്	-5623
നങ്ങൾക്ക്	-5624
▁നടക്കുന്ന	-5625
▁അഥ	-5626
▁ആത്മഹത്യ	-5627
▁പേറ്റന്റ്	-5628
▁ജാഗ്രത	-5629
▁വെള്ളം	-5630
യായിരുന്നു	-5631
▁എസ്റ്റേറ്റ്	-5632
യില്ലാതെ	-5633
ശു	-5634
▁നോൺ	-5635
▁പരിക്കുകൾ	-5636
▁വിമാന	-5637
▁ഉടമസ്ഥതയിലുള്ള	-5638
▁മാനേജർ	-5639
▁അഭ്യർത്ഥിച്ചു	-5640
▁ടൂ	-5641
ബാദ്	-5642
▁ചുമത്തി	-5643
▁ഭൂരിപക്ഷ	-5644
ിനൊപ്പം	-5645
പ്പെടാത്ത	-5646
ണോ	-5647
▁ഷാ	-5648
തുപോ	-5649
▁സമയപരി	-5650
▁തീവ്രവാദ	-5651
▁രൂപപ്പെടുത്ത	-5652
vi	-5653
▁)	-5654
▁ആവിഷ്കര	-5655
▁മുൻകൂർ	-5656
▁പരാതിയിൽ	-5657
▁പ്രതിവർഷം	-5658
ാകാൻ	-5659
▁നേത	-5660
കരുടെ	-5661
▁തന്ന	-5662
ടിയുടെ	-5663
▁ആന്റ്	-5664
▁തള്ളി	-5665
▁മാർക്കറ്റ്	-5666
യിട്ടില്ല	-5667
▁പ്രസ്താവനകൾ	-5668
തനുസരിച്ച്	-5669
▁ഉദ്യോഗസ്ഥരുടെ	-5670
ടക്കം	-5671
▁മയ	-5672
▁ജുവന	-5673
▁കാണിക്കാൻ	-5674
▁ഫലപ്രദമായി	-5675
▁നടപ്പാക്കാൻ	-5676
▁കേഡ	-5677
▁പണമടയ്ക്കൽ	-5678
▁വായന	-5679
▁മൊഴ	-5680
▁എക്സിബി	-5681
▁എന്നിവിട	-5682
▁ഓഹര	-5683
▁ചാൻസല	-5684
▁പ്രദേശത്തെ	-5685
▁പ്രധാനമാണ്	-5686
▁ശക്തിപ്പെടുത്ത	-5687
▁ഭാഗികമായി	-5688
▁ലക്ഷ്യങ്ങൾ	-5689
▁T	-5690
വാഴ്ച	-5691
▁ഇന്നത്തെ	-5692
▁പ്രതികളായ	-5693
▁സംസ്ഥാനങ്ങൾ	-5694
▁അഥവാ	-5695
▁ശ്രദ്ധാപൂർവ്വം	-5696
▁ബാധിച്ച	-5697
▁പാസാക്കി	-5698
▁അന്തർലീനമായ	-5699
▁ട്രൈബ്യൂണലിന്റെ	-5700
▁സൈക്ക	-5701
▁അയച്ചു	-5702
▁ശേഖരിക്ക	-5703
നിക	-5704
▁പാൽ	-5705
▁അറ്റാ	-5706
ന്റെയും	-5707
▁വിധിച്ചു	-5708
▁ൺ	-5709
യാത്ത	-5710
▁കൃഷ്ണ	-5711
▁വേർതിരിച്ച	-5712
▁മാനേജ്മെന്റ്	-5713
ഭാവം	-5714
▁ജീവിതം	-5715
▁പരിധിക്ക	-5716
▁സ്യൂട്ടിൽ	-5717
▁പാട്ടക്കരാർ	-5718
▁താൽപ്പര്യമുള്ള	-5719
▁കേട്ട	-5720
▁ഫെഡറൽ	-5721
ട്ടിക്കൊ	-5722
▁ഡോക്യുമെന്റ	-5723
ഭാഗം	-5724
ുമായും	-5725
യ്ക്കുന്നു	-5726
▁തീരുമാനിക്കാൻ	-5727
▁ക്ഷ	-5728
ഥാർത്ഥ	-5729
▁മറികട	-5730
▁പചാര	-5731
▁വർഷവും	-5732
▁സമർപ്പിക്ക	-5733
ിനെയും	-5734
▁വാദിക്കാൻ	-5735
▁പ്രവർത്തിപ്പ	-5736
▁കുറ്റാരോപിതനായ	-5737
▁വീട	-5738
സ്ഥിതിക	-5739
▁ലഭിക്കാൻ	-5740
▁തുടർച്ചയായി	-5741
mal	-5742
▁വാദിയുടെ	-5743
ഗം	-5744
▁..	-5745
▁ബന്ധു	-5746
▁പ്രദർശ	-5747
മുണ്ടോ	-5748
ക്കുകയോ	-5749
ുകളെയും	-5750
▁പരിഗണിച്ച്	-5751
പ്പോലും	-5752
▁നിരോധന	-5753
▁പ്രസിദ്ധീകരിച്ച	-5754
):	-5755
ലായി	-5756
▁വൈസ്	-5757
▁കേന്ദ്രീകര	-5758
▁പൊരുത്തക്കേട	-5759
▁ശത്	-5760
▁അബ്ദ	-5761
▁ആഴ്ച	-5762
▁സൂചന	-5763
▁അരു	-5764
ോപ്പ	-5765
േയൊരു	-5766
▁ഒന്ന്	-5767
▁പ്രതിഫലിപ്പ	-5768
ടിവ	-5769
പോണ്ട	-5770
▁സബോർ	-5771
ഗതിയിൽ	-5772
▁അക്കൗണ്ട്	-5773
വിനെ	-5774
▁ഒരേയൊരു	-5775
▁പരമ്പരാഗത	-5776
▁മേമ	-5777
▁പക്ഷ	-5778
▁പെൺകുട്ട	-5779
▁കോൾ	-5780
▁അവനെ	-5781
▁ലാൻഡ്	-5782
▁കൊണ്ടുപോയി	-5783
▁ആമുഖ	-5784
്ട്രക്ച	-5785
▁പിന്തുണയ്	-5786
ിക്കുന്നുവെന്ന്	-5787
തിയായി	-5788
പിച്ച്	-5789
ാക്കൾക്ക്	-5790
▁ധാർമ്മികത	-5791
ൈഡ്	-5792
ങ്ങളാൽ	-5793
അല്ലെങ്കിൽ	-5794
▁പ്രഖ്യാപിച്ചു	-5795
▁ആത്മവി	-5796
▁ലേക്ക്	-5797
ങ്ങൾക്കനുസൃതമായി	-5798
▁ലിക്വി	-5799
▁ചട്ടങ്ങളും	-5800
നീളം	-5801
ാറിൽ	-5802
ുമുണ്ട	-5803
▁പകരമായി	-5804
▁അതോ	-5805
▁സോളി	-5806
▁സംയോജ	-5807
▁നിരാകര	-5808
▁ഭാവിയിൽ	-5809
▁വിവാഹമോ	-5810
▁വിധേയമാണ്	-5811
നടി	-5812
സേന	-5813
▁ലേഖന	-5814
ക്രോ	-5815
▁ചെയ്യുന്നവരുടെ	-5816
▁നിർവ്വഹ	-5817
▁സിസ്റ്റം	-5818
▁വൈരുദ്ധ്യ	-5819
▁കസ്റ്റഡിയിൽ	-5820
▁ഇതേ	-5821
▁ആന്ധ്രാ	-5822
▁കുട്ടികളുടെ	-5823
▁പ്രതിചേർത്ത	-5824
ജീവി	-5825
▁അസീ	-5826
▁മുൻവിധ	-5827
ക്കേറ്റ്	-5828
▁ur	-5829
▁അന്നത്തെ	-5830
▁മറ്റൊന്ന	-5831
▁കമ്പനികളുടെ	-5832
▁രണ്ടാമ	-5833
▁സന്ദർഭത്തിൽ	-5834
▁പ്രയോഗിക്കാൻ	-5835
/0	-5836
gy	-5837
ൈം	-5838
റുകളും	-5839
▁അതിർത്തി	-5840
▁എക്സ്പ്രസ്	-5841
▁നടത്തുന്നത്	-5842
ലിവ	-5843
▁മകൻ	-5844
ർത്ഥം	-5845
▁വേദന	-5846
▁ന്യൂന	-5847
തിലേക്ക്	-5848
▁എന്നറിയ	-5849
ണ്ടെങ്കിലും	-5850
ിവരെ	-5851
േജിംഗ്	-5852
▁കണക്കാക്കുന്നു	-5853
്യമായി	-5854
ിക്കരുത്	-5855
▁പരിമിതപ്പെടുത്ത	-5856
ബു	-5857
ുമാണ്	-5858
്യൂഷൻ	-5859
▁എഴുതിയ	-5860
▁ഇല്ലാതെ	-5861
▁പരിധിവരെ	-5862
ാത്മക	-5863
▁ഉടനടി	-5864
▁തുടരും	-5865
▁അയാൾക്ക്	-5866
▁പുനരധിവാസ	-5867
▁ഇച്	-5868
തിരായ	-5869
▁വിശേഷ	-5870
▁വകുപ്പിന്	-5871
▁സബോർഡിനേറ്റ്	-5872
ing	-5873
ളയിൽ	-5874
▁സഹോദരൻ	-5875
▁കമ്മീഷണറുടെ	-5876
മന	-5877
▁വ്യതി	-5878
▁അവൾക്ക്	-5879
▁കുറയാത്ത	-5880
ഇന്ത്യ	-5881
വെന്നത്	-5882
▁സൃഷ്ടിച്ച	-5883
▁ബൈ	-5884
റികൾ	-5885
▁കാണാൻ	-5886
രീക്ഷ	-5887
▁കമ്മീഷന്	-5888
നുബന്ധിച്ച്	-5889
१९	-5890
ട്ടാണ്	-5891
▁റെസിഡ	-5892
▁ഉപയോഗപ്രദ	-5893
ഫോർ	-5894
▁സംഭ	-5895
▁വശങ്ങൾ	-5896
▁ചെയ്യണം	-5897
▁യോഗ്യതാ	-5898
▁അനുവദനീയമല്ല	-5899
ergy	-5900
ദ്ധത	-5901
▁ഇക്വി	-5902
▁വിഭാഗത്തിന്റെ	-5903
▁പ്രവർത്തനങ്ങളിൽ	-5904
▁ശർമ	-5905
▁വിശേഷിപ്പ	-5906
▁ആരോപണവിധേയ	-5907
ിക്കുന്നതായി	-5908
ർമ്മ	-5909
ങ്ങളോട്	-5910
മോർട്ടം	-5911
▁പ്രൊമോ	-5912
▁അന്തരീക്ഷ	-5913
▁ആയിരിക്കണം	-5914
ിന്ത	-5915
വർഗ	-5916
ഫിക്	-5917
ത്തായ	-5918
മ്പര്യ	-5919
▁ഒന്നോ	-5920
▁ആക്രമണ	-5921
▁എന്റർപ്ര	-5922
▁അസാധുവായ	-5923
ാനാവില്ലെന്ന്	-5924
▁ആത്യന്തികമായി	-5925
ili	-5926
▁കൊല്ല	-5927
ിടത്തോളം	-5928
▁സമകാല	-5929
▁ആധുനിക	-5930
കമ്പ	-5931
▁കസ്റ്റഡ	-5932
▁പരിഹാരം	-5933
▁മയക്കുമ	-5934
▁പ്രതിപാദ	-5935
▁പലപ്പോഴും	-5936
യിലെയും	-5937
▁ചിന്തി	-5938
▁ഘ	-5939
▁രാസ	-5940
▁വിട	-5941
▁നിയമവാഴ്ച	-5942
ിക്കുമെന്നും	-5943
▁ഇൻഫ്ര	-5944
▁തുടരുന്നു	-5945
▁അധ	-5946
▁പത്ത്	-5947
▁സമ്മർദ്ദ	-5948
ിട്ടുണ്ടെന്നും	-5949
ഞ്ഞു	-5950
▁പെട്ട	-5951
▁മറ്റൊര	-5952
തസ്സ	-5953
▁ഇവയാണ്	-5954
▁നൽകിയിരുന്നു	-5955
▁സാധാരണഗതിയിൽ	-5956
▁മണ്ണ	-5957
ിരിക്കും	-5958
യ്ക്കുള്ളിൽ	-5959
▁കണ്ടെത്തിയാൽ	-5960
▁ജീവൻ	-5961
▁ടൈഗർ	-5962
▁സുഗമ	-5963
▁അധികാരമില്ല	-5964
ാനാകും	-5965
▁കരുതുന്ന	-5966
▁റെഗുലേറ്ററി	-5967
▁പേജ	-5968
▁ഖണ്ഡികകളിൽ	-5969
▁എഴുതി	-5970
▁പ്ലാന്റ	-5971
▁മരിച്ചു	-5972
▁അവകാശത്തിന്റെ	-5973
▁ട്രൈബ്യൂണലിന്	-5974
സിറ്റർ	-5975
▁വ്യതിയ	-5976
▁കശ്	-5977
▁ഡെൽഹി	-5978
▁പ്രസക്തമാണ്	-5979
മാണം	-5980
▁മൊബൈൽ	-5981
▁പ്രതിജ്ഞ	-5982
▁പാരമ്പര്യ	-5983
▁പാരിസ്ഥിതിക	-5984
▁മാറ്റിസ്ഥാപ	-5985
ിട്ടുണ്ടെന്ന്	-5986
സിയിൽ	-5987
പ്പുറം	-5988
▁പിതാവ്	-5989
▁പാന	-5990
▁കോഡിലെ	-5991
▁പുറത്ത്	-5992
▁റദ്ദാക്കിയ	-5993
▁രൂപീകരിച്ചു	-5994
ോക്	-5995
▁ഭവനിൽ	-5996
▁വാദത്തെ	-5997
▁മാറ്റിവച്ച	-5998
പിറ്റ	-5999
ാണിത്	-6000
▁പാപ്പ	-6001
▁ആരംഭിക്കുന്ന	-6002
▁മെച്ചപ്പെട്ട	-6003
ഗ്ന	-6004
ties	-6005
വർഗ്ഗ	-6006
▁ശ്രമം	-6007
മുണ്ടായ	-6008
▁സെലക്ഷൻ	-6009
▁സംസ്ഥാനങ്ങളിൽ	-6010
▁അസ്വ	-6011
▁ആക്സാഡ്	-6012
▁നിലനിൽക്കുന്നു	-6013
▁ശു	-6014
വിംഗ്	-6015
▁ആദ്യമായി	-6016
▁കെട്ടിടം	-6017
▁പരാമർശിക്കുകയും	-6018
ീപ്	-6019
▁റീഫ	-6020
ലേറ്റ്	-6021
േണ്ടിവ	-6022
▁കൺവെൻ	-6023
▁പ്രാരംഭ	-6024
▁സഹിതം	-6025
▁രേഖയിൽ	-6026
▁ദശലക്ഷം	-6027
▁പുറത്തി	-6028
ാസ്ട്രക്ച	-6029
നിക്ക	-6030
ാറ്റ്	-6031
▁പുനരു	-6032
തിന്യായ	-6033
▁സമൂഹം	-6034
േൽ	-6035
▁ഹിമാ	-6036
▁ഹർജി	-6037
▁official	-6038
ഹർ	-6039
ായുധ	-6040
▁വശം	-6041
▁മുദ്ര	-6042
▁ജഡ്ജിയെ	-6043
▁ബാധ്യസ്ഥന	-6044
▁ഒന്നിലധികം	-6045
ിക്കണമെന്നും	-6046
▁കോടതികൾക്ക്	-6047
▁മല	-6048
▁ഒബ്	-6049
▁ചുരു	-6050
▁വാങ്ങുന്നയാൾ	-6051
▁ഹിന്ദി	-6052
▁വസ്തുതകളിൽ	-6053
ണ്ടുപോ	-6054
▁ഉൾപ്പെടുത്തി	-6055
▁എൻട്രി	-6056
▁കടുത്ത	-6057
▁ട്രെയി	-6058
▁നിരസിച്ച	-6059
▁എന്നിവയും	-6060
▁സ്രോ	-6061
▁അവശ്യ	-6062
▁സമയത്തും	-6063
▁വിരുദ്ധമാണ്	-6064
▁അഡ്വക്കേറ്റ്	-6065
▁ഷെ	-6066
▁അറിവ	-6067
▁ലിംഗ	-6068
റുകളിൽ	-6069
▁facili	-6070
ക്കൻ	-6071
▁പൊതുജ	-6072
▁നിസ്സാര	-6073
ൻസിന്റെ	-6074
▁ക്രെഡി	-6075
▁വയസ്സി	-6076
ക്കൊണ്ട്	-6077
▁പെറ്റീഷനിൽ	-6078
▁con	-6079
▁മുസ്	-6080
ുവിന്റെ	-6081
▁അടിത്തറ	-6082
▁തുടങ്ങി	-6083
▁സവിശേഷതകൾ	-6084
▁വ്യക്തമാക്കുന്ന	-6085
േശ	-6086
തുത	-6087
▁en	-6088
▁ത്രി	-6089
▁ഭർത്താവ്	-6090
▁അവകാശവും	-6091
▁ഉത്തരവിനെതിരെ	-6092
▁പട്	-6093
▁റെഡ്	-6094
▁പൂർണ്ണമായ	-6095
▁ഷെഡ്യൂളിൽ	-6096
▁വച്ചിരിക്കുന്ന	-6097
പ്രാ	-6098
▁ഗവർണ	-6099
▁നോട്ടീസ	-6100
യാണെന്നും	-6101
▁വിശ്വാസ്യത	-6102
▁ശ്രമിക്കുന്നു	-6103
േറ	-6104
▁formal	-6105
▁സംതൃപ്ത	-6106
▁ഗുണഭോക്ത	-6107
▁നടപടികൾക്ക്	-6108
▁നൽകിക്കൊണ്ട്	-6109
is	-6110
മാറ്റ	-6111
െല്ലാം	-6112
▁വിഹിതം	-6113
▁ട്രസ്റ്റി	-6114
▁സോളിസിറ്റർ	-6115
▁യോജിക്കുന്നു	-6116
▁പാസ്	-6117
▁ഭാഗിക	-6118
▁പാപ്പര	-6119
▁കരാറിലെ	-6120
▁സന്തുലിത	-6121
▁അപ്പീലിനായി	-6122
▁മൂല്യനിർണ്ണയം	-6123
ുൽ	-6124
ാഗതം	-6125
▁ഷെയർ	-6126
▁ധനസഹായം	-6127
▁നടന്നത്	-6128
▁ഒരേസമയം	-6129
▁പദ്ധതിയിൽ	-6130
▁പ്രതികരിച്ച	-6131
▁പ്രഭു	-6132
ാനുമുള്ള	-6133
ുകൾക്കും	-6134
▁ലിക്വിഡ	-6135
▁ബാങ്കിന്റെ	-6136
▁മനുഷ്യന്റെ	-6137
▁വ്യാപ്തിയും	-6138
▁ഇലക്ട്രോണിക്	-6139
ഡിനെ	-6140
▁തുല്യമായി	-6141
▁ഇൻഫ്രാസ്ട്രക്ച	-6142
▁ഘട്ടം	-6143
▁വെടിയ	-6144
▁തരത്തിൽ	-6145
▁സ്കെയില	-6146
▁ഒൻ	-6147
ുകാർ	-6148
▁ലാൻ	-6149
ുപകരം	-6150
▁നിലവാരം	-6151
▁സാക്ഷികൾ	-6152
ഗോ	-6153
▁ഗോവ	-6154
നാഷണൽ	-6155
▁ഭരണഘടനയ്ക്ക്	-6156
▁സ്റ്റാറ്റ്യൂ	-6157
▁പരാതിക്കാരന്റെ	-6158
▁മീറ്റർ	-6159
▁കാരണവും	-6160
ുന്നതിന്റെ	-6161
ഡ്യൂ	-6162
▁മാര	-6163
▁എട്ട	-6164
▁ഡ്രാ	-6165
▁പുറമെ	-6166
മാക്കുക	-6167
▁പ്ലാന്റ്	-6168
▁ഉദ്	-6169
▁പെർ	-6170
▁ലേല	-6171
മെമ്പ	-6172
ിയിരുന്നു	-6173
▁ന്യൂനപക്ഷ	-6174
▁സമ്മതിച്ചു	-6175
▁സുഹ	-6176
▁അതത്	-6177
▁അഭിവ	-6178
ൽത്ത്	-6179
▁കെട്ട	-6180
കുറ്റപ്പ	-6181
▁ട്രാൻസ്ഫർ	-6182
ഐയുടെ	-6183
▁കത്തിൽ	-6184
ന്റേ	-6185
▁വിരമിച്ച	-6186
ത്തെയോ	-6187
▁ഉൽപാദന	-6188
▁ചാന	-6189
▁താഴ്	-6190
▁പാക്ക	-6191
▁ഫയ	-6192
▁വീഴ്ച	-6193
ക്കാനും	-6194
▁പ്ലോട്ട്	-6195
▁പ്രക്രിയയുടെ	-6196
▁ചെയ്യപ്പെടുന്ന	-6197
▁ശുദ്ധ	-6198
▁സാംസ്	-6199
ായതിനാൽ	-6200
▁ചെയ്തുവെന്ന്	-6201
ണൈ	-6202
ുചെയ്ത	-6203
▁ബാധകമാകും	-6204
▁അങ്ങനെയാണെങ്കിൽ	-6205
▁ഖിതനായ	-6206
▁അഗ്ര	-6207
▁അപമാന	-6208
▁ലളിതമായ	-6209
▁ധാർമ്മിക	-6210
▁കിലോമീറ്റർ	-6211
▁പുറത്താക്ക	-6212
▁അറ്റകുറ്റപ്പ	-6213
ന്വ	-6214
▁കന	-6215
മെയ്	-6216
മ്മു	-6217
▁സത്യസന്ധ	-6218
▁പ്രതിവിധി	-6219
▁മരുന്ന	-6220
▁കണക്കാക്കുകയും	-6221
▁and	-6222
റ്റീവ്	-6223
സിറ്റ്	-6224
ാശ്വാസ	-6225
▁ബാലൻസ്	-6226
▁ശാസ്ത്രീയ	-6227
▁വസ്തുതകളുടെ	-6228
▁ണ്ടർ	-6229
▁ഇതിനെ	-6230
▁അർഹതയില്ല	-6231
▁സാംസ്കാരിക	-6232
▁സാധ്യതയുള്ള	-6233
▁കശ്മ	-6234
▁വാദങ്ങൾ	-6235
▁സ്വഭാവമുള്ള	-6236
▁ട്രേ	-6237
▁പ്രവേശിപ്പ	-6238
▁എന്നി	-6239
▁റിപ്പോർട്ടു	-6240
▁കോർപ്പറേഷന്റെ	-6241
വാർ	-6242
വിള	-6243
▁au	-6244
▁അലഹ	-6245
▁സെന്റർ	-6246
▁കർശനമായ	-6247
▁അപ്പലേറ്റ്	-6248
ുന്നില്ലെങ്കിൽ	-6249
▁പഠിച്ചു	-6250
▁ട്രിബ്യൂണലിന്റെ	-6251
;)	-6252
▁ലഭ്യത	-6253
▁സമകാലിക	-6254
▁ഭരണപരമായ	-6255
ട്ടിക്കൊണ്ടുപോ	-6256
▁എന്നിവയ്ക്കായി	-6257
▁സമന്വ	-6258
▁പ്രദേശങ്ങളിൽ	-6259
ത്തോടനുബന്ധിച്ച്	-6260
▁വാച	-6261
വരിക്ക	-6262
▁പോകാൻ	-6263
▁തുടർന്നു	-6264
ിച്ചാൽ	-6265
▁പ്രമുഖ	-6266
ുകൊണ്ടാണ്	-6267
▁ദാത	-6268
▁ആശുപത്രിയിൽ	-6269
രിദ്ര	-6270
▁യൂണിറ്റുകൾ	-6271
▁സഹായിക്കുന്നു	-6272
▁പേരുകൾ	-6273
▁സംഭവസ്ഥല	-6274
ts	-6275
ിയർ	-6276
ന്മാര	-6277
ത്തെടു	-6278
ശ്യമായ	-6279
▁മറ്റെല്ല	-6280
▁കഴിയുമെന്ന്	-6281
▁ഉദ്യോഗസ്ഥർക്ക്	-6282
▁പൂർത്തിയാക്കിയ	-6283
▁ജനന	-6284
ൈസേഷൻ	-6285
▁നിരക്കുകൾ	-6286
ിക്കേണ്ടതില്ല	-6287
▁ചെയ്തുകൊണ്ട്	-6288
▁വസ	-6289
സില	-6290
ണ്ഡ്	-6291
▁നടപടികളെ	-6292
▁സ്റ്റോക്ക്	-6293
▁വൃ	-6294
▁ശരാശ	-6295
▁അറിഞ്ഞ	-6296
▁No	-6297
▁അളവ	-6298
▁കുടുംബാംഗ	-6299
▁ലക്ഷ്യവും	-6300
▁ഇടപ	-6301
▁വിമ	-6302
▁മുപ്പ	-6303
▁ലേഖനങ്ങൾ	-6304
▁ചെയ്യേണ്ടത്	-6305
ec	-6306
▁നദ	-6307
വൽക്കരണ	-6308
▁പൂർത്ത	-6309
ിയിലേക്ക്	-6310
▁വിജയിക്ക	-6311
▁വഹിക്കുന്നു	-6312
▁മക	-6313
▁ലാ	-6314
▁ക്ലിയ	-6315
▁പരിചയ	-6316
▁ഓഫീസിൽ	-6317
ക്കാർക്ക്	-6318
▁കൂട്ടിച്ചേർക്ക	-6319
▁അസമ	-6320
▁അനുചിത	-6321
▁ഒത്തുത	-6322
▁നീതിന്യായ	-6323
▁വ്യത്യസ്തമായി	-6324
ഹൃദ	-6325
▁കള്ള	-6326
▁അതിനെ	-6327
▁സൈനിക	-6328
▁വാങ്ങൽ	-6329
▁ഡബ്ല്യു	-6330
▁എന്നിവയ്ക്കുള്ള	-6331
▁സഞ്ച	-6332
▁ട്രേഡ്	-6333
▁തിരുത്ത	-6334
▁തരത്തിലും	-6335
എസി	-6336
▁അതുമായി	-6337
▁നിർത്തലാക്ക	-6338
▁സ്ഥാപനങ്ങളിൽ	-6339
സിൻ	-6340
ഖണ്ഡ്	-6341
▁തരംതിര	-6342
താം	-6343
▁ലാഭം	-6344
▁സ്വർ	-6345
▁ഡൊ	-6346
സ്സം	-6347
വിശ്യ	-6348
▁ഭക്ഷണ	-6349
▁വിനോദ	-6350
▁കൂട്ടായ	-6351
▁വീക്ഷണം	-6352
▁ഉചിതമാണെന്ന്	-6353
▁നൽകേണ്ടതുണ്ട്	-6354
കളില	-6355
▁ഗാർ	-6356
▁ആറുമാസ	-6357
▁എടുക്ക	-6358
▁കണ്ടെത്താൻ	-6359
▁കമ്പനിക്ക്	-6360
ഭോഗ	-6361
ിയുള്ളതാണ്	-6362
▁ചെയ്തതായി	-6363
ിച്ചിട്ടുണ്ടോ	-6364
▁പരിഗണിക്കാതെ	-6365
്യാ	-6366
ത്തിലല്ല	-6367
▁കണ്ടെത്തിയില്ല	-6368
ിയോടെ	-6369
ണൈറ്റഡ്	-6370
▁ടെസ്റ്റ്	-6371
ത്തിനെതിരായ	-6372
▁ഉത്തർപ്രദേശ്	-6373
വറി	-6374
കളാണ്	-6375
ികളായി	-6376
▁ദരിദ്ര	-6377
▁ഭരണഘടനാപര	-6378
▁നയിക്കുന്ന	-6379
▁അപേക്ഷകരുടെ	-6380
▁സാന്നിധ്യത്തിൽ	-6381
ച്ചി	-6382
മാക്കാൻ	-6383
▁പ്രദർശിപ്പ	-6384
സാധ്യത	-6385
▁സമൂഹത്തിലെ	-6386
െങ്കിലുമുണ്ട	-6387
▁സ്വീകരിക്കുന്ന	-6388
ചിന്ത	-6389
▁ജലസേ	-6390
▁പ്രതിനിധി	-6391
▁ഏകോപ	-6392
സ്സിന്റെ	-6393
▁മേഖലയിൽ	-6394
വത്	-6395
ന്നു	-6396
▁സന്ന	-6397
▁തള്ളിക്കളയ	-6398
▁ദുരിതാശ്വാസ	-6399
▁കോഡിന്	-6400
▁വസ്തുതകളിലും	-6401
▁സുഹൃ	-6402
▁കുറിപ്പ	-6403
▁എടുക്കാൻ	-6404
ഹോൾ	-6405
▁സ്ട്ര	-6406
െടുപ്പ്	-6407
▁സോഫ്റ്റ്	-6408
▁ഹെഡ്	-6409
യെന്ന്	-6410
ർക്കായി	-6411
▁സമ്മാന	-6412
▁നൽകുന്നതിനുള്ള	-6413
ാകാം	-6414
▁പ്രവിശ്യ	-6415
▁ഉപദേശങ്ങൾ	-6416
▁സഞ്ജ	-6417
▁അയോഗ്യ	-6418
▁കൈമാറാൻ	-6419
▁ഇല്ലെങ്കിൽ	-6420
▁സാന്നിധ്യം	-6421
▁ഉറപ്പുനൽകുന്ന	-6422
▁പ്രവർത്തനങ്ങളും	-6423
സൽ	-6424
സാമ	-6425
▁കഥ	-6426
▁അംബ	-6427
▁കണക്കുകൂ	-6428
ായുക്ത	-6429
▁അനുവദിക്കാൻ	-6430
▁നൽകിയിരിക്കുന്ന	-6431
ഐടി	-6432
ാനന്തര	-6433
▁റിമാൻഡ്	-6434
▁സർക്കുലർ	-6435
▁അംഗങ്ങൾക്ക്	-6436
▁ശേഖര	-6437
▁അക്രമ	-6438
▁ഏക്കർ	-6439
▁അല്ലാതെ	-6440
▁സ്വഭാവത്തിൽ	-6441
▁ഉദ	-6442
▁എസി	-6443
▁രൂപപ്പെടുത്തിയ	-6444
രിക	-6445
▁തൂ	-6446
▁ഗോപ	-6447
കക്ഷി	-6448
▁മാറ്റങ്ങൾ	-6449
▁നിർദേശങ്ങൾ	-6450
ുകളില	-6451
പന്ന	-6452
▁അർദ്ധ	-6453
▁ഓഹരികൾ	-6454
▁പുരുഷന്	-6455
▁സങ്കീർണ്ണ	-6456
▁കൗൺസിലിന്റെ	-6457
▁മാറ്റിവയ്ക്ക	-6458
▁മരിച്ചയാൾ	-6459
▁നീക്കിവച്ച	-6460
ഇൻ	-6461
▁നിർത്തി	-6462
▁അതിനുശേഷ	-6463
▁എന്റ	-6464
▁തേടി	-6465
ങ്ങളായ	-6466
▁ഫോട്ടോ	-6467
▁അസംബ്ലി	-6468
▁വിവേചനം	-6469
ാതിരിക്കാൻ	-6470
▁സ്ഥാപനങ്ങളുടെ	-6471
നെയും	-6472
▁റെസല	-6473
▁കേസും	-6474
ഭേദഗതി	-6475
ബ്ലിക്ക	-6476
▁സിറ്റി	-6477
▁നടത്തുക	-6478
▁ഫലത്തിൽ	-6479
▁ബാധ്യതകൾ	-6480
▁സ്രോതസ്സ	-6481
▁ഉദ്ദേശിച്ചുള്ള	-6482
ണു	-6483
ഭയ	-6484
ദ്ദേശീയ	-6485
▁പറഞ്ഞ്	-6486
▁അടയ്ക്കാൻ	-6487
▁മാനേജിംഗ്	-6488
▁റോയൽ	-6489
▁ലളിത	-6490
▁എന്നിവര	-6491
▁റെസ്പോണ്ട	-6492
▁അധ്യായത്തിൽ	-6493
▁അവയിൽ	-6494
▁സ്കെയിൽ	-6495
▁കാലാവസ്ഥ	-6496
▁സ്ഥാനത്ത്	-6497
▁പ്രോജക്റ്റ്	-6498
▁സർവ്വ	-6499
▁അടങ്ങിയ	-6500
▁പുനരുജ്	-6501
ത്വത്തിന്റെ	-6502
▁സ്വീകാര്യത	-6503
▁ജസ്റ്റിസിന്റെ	-6504
എക്	-6505
ുള്ളൂ	-6506
ിയിലും	-6507
▁ഇരയുടെ	-6508
▁സുര	-6509
ുന്നേ	-6510
▁അജ്ഞ	-6511
ഫ്റ്റന	-6512
▁ക്രമം	-6513
▁രീതികൾ	-6514
മാരുടെയും	-6515
▁യുണൈറ്റഡ്	-6516
▁വ്യാപിപ്പ	-6517
▁സഹായത്തോടെ	-6518
ണ്ടാം	-6519
▁ഉണ്ടോ	-6520
▁ഉപഭോഗ	-6521
▁പരിശോധനയിൽ	-6522
ട്രാക്റ്റുചെയ്	-6523
▁കഷ്ട	-6524
▁സെബി	-6525
▁ഓഫീസർക്ക്	-6526
▁വംശ	-6527
▁ജയിൽ	-6528
▁തടവും	-6529
▁സമയത്തിനുള്ളിൽ	-6530
രാബ	-6531
▁ക്ലയ	-6532
▁അപൂർവ	-6533
▁ജമ്മു	-6534
▁സൗഹൃദ	-6535
▁പ്രാമാണ	-6536
▁പ്രസിഡന്റ	-6537
▁വിവരങ്ങളുടെ	-6538
▁ഉടമസ്ഥാവകാശം	-6539
കളായി	-6540
▁പതിവായി	-6541
ദഗ്	-6542
▁പരിക്ക്	-6543
▁വർദ്ധനവ്	-6544
▁ചെയ്തിരുന്നു	-6545
▁സാഹചര്യത്തിലും	-6546
▁ഇതര	-6547
സിവിൽ	-6548
▁ബ്രിട്ട	-6549
▁മയക്കുമരുന്ന്	-6550
ോളജ	-6551
▁അൽ	-6552
▁വസ്ത്ര	-6553
ഷണ	-6554
▁ഡോള	-6555
നംദിന	-6556
▁മാറി	-6557
ത്താണ്	-6558
▁ഓട്ടോ	-6559
പ്പെടാം	-6560
▁നിശ്ചയിക്ക	-6561
ഭാഗ്യ	-6562
ാര്യത	-6563
▁ഓപ്പ	-6564
▁തലത്തിൽ	-6565
▁വാടകക്കാര	-6566
▁തസ്തികയിലേക്ക്	-6567
താണോ	-6568
▁cons	-6569
▁പൊതുസേ	-6570
▁കാലയളവിനുള്ളിൽ	-6571
▁മണിക്കൂർ	-6572
▁അമേരിക്കൻ	-6573
▁മാനേജുമെന്റ്	-6574
▁ആരാധ	-6575
ലിനായി	-6576
▁അവിഭാജ	-6577
▁വേളയിൽ	-6578
▁ബോർഡിന്	-6579
▁റദ്ദാക്കി	-6580
േട്	-6581
▁വാല	-6582
ടുള്ള	-6583
▁സ്റ്റാൻഡ	-6584
▁നിയമിച്ചു	-6585
▁അതീത	-6586
പൂരിലെ	-6587
▁ഇത്തരം	-6588
യ്ക്കിടെ	-6589
െന്നതാണ്	-6590
▁........	-6591
▁പ്രക്ഷേപ	-6592
റിയിൽ	-6593
▁ഉറപ്പ്	-6594
▁ക്രൂരത	-6595
▁ഏർപ്പെടുത്തിയി	-6596
ാദ്	-6597
രഞ്ഞ	-6598
▁പെട	-6599
▁ചെറു	-6600
▁മില്ല	-6601
▁നടത്തിയിട്ടില്ല	-6602
വെയർ	-6603
▁രൂപയിൽ	-6604
▁യോഗത്തിൽ	-6605
▁ഒതു	-6606
▁പോയ	-6607
റ്റിലെ	-6608
മാക്കും	-6609
▁ഗ്രാന്റ്	-6610
▁പുതുതായി	-6611
▁യൂണിയന്റെ	-6612
▁പ്രതികൂലമായി	-6613
has	-6614
▁ദൈനംദിന	-6615
▁നടക്കുന്നു	-6616
▁ശിക്ഷിക്കുകയും	-6617
ദൃഷ്ട	-6618
ത്തിൻറ	-6619
▁ഫലങ്ങൾ	-6620
▁സമർപ്പിച്ചത്	-6621
ഗു	-6622
▁ദോഷ	-6623
നിഷ്ഠ	-6624
▁ഘടകം	-6625
▁ചെന്ന	-6626
▁മുമ്പോ	-6627
ദൃഷ്ട്യാ	-6628
▁കണക്കുകൂട്ട	-6629
▁സമ്മതിക്കുന്നു	-6630
മെങ്കിൽ	-6631
▁ഒഴിഞ്ഞ	-6632
▁നവീകരണ	-6633
ത്തിനിടെ	-6634
▁അക	-6635
ാരായ	-6636
▁അവാർഡുകൾ	-6637
▁മറ്റെല്ലാ	-6638
▁എടുക്കുന്ന	-6639
▁പ്രോസിക്യൂഷന്	-6640
▁ടീ	-6641
▁മുഖേന	-6642
ലപ	-6643
ങ്കർ	-6644
▁അവല	-6645
▁താക്ക	-6646
മറിച്ച്	-6647
▁ജോലികൾ	-6648
▁തെറ്റാണ്	-6649
▁ബിസിനസ്സ	-6650
▁തീരുമാനങ്ങളിൽ	-6651
▁പ്രഥമദൃഷ്ട്യാ	-6652
▁ടൺ	-6653
ലിന്യ	-6654
▁ചിന്ത	-6655
കളിലൂടെ	-6656
▁ഭേദഗതികൾ	-6657
▁സ്റ്റേഷൻ	-6658
▁പ്രാക്ടീസ്	-6659
▁ബ്യൂ	-6660
▁മോശം	-6661
▁അക്ഷര	-6662
▁മറുപട	-6663
▁തെളിയിച്ച	-6664
▁പുറത്തുള്ള	-6665
▁കേഡർ	-6666
▁ബാധിക്കുന്നു	-6667
▁പരാജയപ്പെട്ടാൽ	-6668
ജല	-6669
▁കവർ	-6670
▁ഏക്ക	-6671
▁ഡെലിവ	-6672
▁പ്രസാദ്	-6673
ാടി	-6674
▁ഭൂരിപക്ഷം	-6675
ാഷ്	-6676
▁ഓഹരി	-6677
▁അവലംബ	-6678
▁കാർഡ്	-6679
മാവുകയും	-6680
▁അസ്വസ്ഥ	-6681
▁രൂപയായി	-6682
▁വൈകുന്നേ	-6683
പ്പെടുന്നത്	-6684
▁facilities	-6685
▁പ്രദേശങ്ങൾ	-6686
▁ജനങ്ങൾക്കും	-6687
▁സ്ഥാനാർത്ഥി	-6688
▁അന്വേഷണത്തിൽ	-6689
ഘോഷ	-6690
▁മണി	-6691
ളിറ്റ	-6692
▁ചെയർമാന	-6693
▁നിയമിച്ച	-6694
▁പരിഷ്കരണ	-6695
▁പങ്കെടുത്തു	-6696
▁വ്യത്യസ്തമാണ്	-6697
▁സ്യൂട്ടിന്റെ	-6698
▁ജുവനൈൽ	-6699
▁പരിഷ്കാര	-6700
വാല	-6701
ുകാല	-6702
േറ്റഡ്	-6703
ചല	-6704
ദായ	-6705
▁ഇരട്ട	-6706
▁ശരാശരി	-6707
▁പുറത്തുവ	-6708
▁ഒന്നാമതായി	-6709
▁നേരെമറിച്ച്	-6710
മനുഭവ	-6711
▁റിവി	-6712
വരിൽ	-6713
▁സ്ല	-6714
▁ശബ്ദ	-6715
▁എല്ലാം	-6716
▁ഭക്ഷണം	-6717
▁പ്രതിമാസം	-6718
▁വാടകയ്ക്ക്	-6719
▁യാദ	-6720
ലുകളും	-6721
▁പേപ്പ	-6722
▁സ്പീക്ക	-6723
പ്പെടുകയോ	-6724
▁ഉദ്യോഗസ്ഥന്	-6725
▁ഹു	-6726
▁ആകാം	-6727
▁പ്രതിയായ	-6728
▁നിയമനങ്ങൾ	-6729
യൻ	-6730
സിഡി	-6731
ത്തേക്കാൾ	-6732
ബാധ	-6733
ജിസ്ല	-6734
▁മ്യൂ	-6735
റുമായി	-6736
▁മടക്ക	-6737
▁മുൻകാല	-6738
മെട്രിക്	-6739
▁ഡിസ്ട്ര	-6740
▁ഹാജരായി	-6741
▁ആശ്രയിച്ചു	-6742
▁ബദൽ	-6743
▁സാഹി	-6744
യുടെയോ	-6745
▁സംശയം	-6746
▁ചേർത്തു	-6747
▁ഡിമാൻഡ്	-6748
▁അപകടസാധ്യത	-6749
▁വിശ്വസിക്കുന്നു	-6750
mphas	-6751
▁യാഥാർത്ഥ	-6752
രിക്കുന്നത്	-6753
▁നിഗമനത്തിലെത്തി	-6754
▁ടൂറി	-6755
നാത്മക	-6756
▁കഴിവ്	-6757
▁എതിർക്ക	-6758
▁റിട്ടേൺ	-6759
▁അന്വേഷണത്തിന്റെ	-6760
ound	-6761
പേഴ്	-6762
യാക്ക	-6763
ങ്ങളിലോ	-6764
▁ഭാഗമാണ്	-6765
▁പുതുക്കിയ	-6766
ുകാ	-6767
ഭായ്	-6768
▁ഗ്ല	-6769
▁ബോഡ	-6770
ുപുറമെ	-6771
▁വോട്ടർ	-6772
▁റിലയൻസ്	-6773
▁കൈക്കൊള്ള	-6774
ിയൻ	-6775
▁ഉണ്ടായി	-6776
▁സെക്കൻഡ	-6777
▁വെളിപ്പെടുത്തൽ	-6778
യിട	-6779
ാവിനെ	-6780
▁മോഹൻ	-6781
▁വാക്യ	-6782
▁......	-6783
മെന്റുകൾ	-6784
▁നിർദേശം	-6785
▁സ്ഥലങ്ങളിൽ	-6786
▁പാലിക്കാത്ത	-6787
▁ഒറ	-6788
▁ബോധ്യ	-6789
▁emphas	-6790
▁അനുപാതം	-6791
▁ചെലുത്ത	-6792
▁പൊതുമേഖല	-6793
▁രേഖകളുടെ	-6794
▁നിരസിക്കുകയും	-6795
▁എട്ട്	-6796
പ്പിന്റെ	-6797
ണ്ഡി	-6798
▁നേരിടുന്ന	-6799
▁ലീ	-6800
▁പിശക	-6801
▁മൊഴി	-6802
ാറിന്റെ	-6803
▁അവകാശത്തെ	-6804
▁ഡീലർ	-6805
▁കൈമാറിയ	-6806
ഫ്റ്റനന്റ്	-6807
▁ദുരിതമനുഭവ	-6808
ഹോ	-6809
▁എപ്പോൾ	-6810
▁എന്നതും	-6811
▁പങ്കെടുക്ക	-6812
▁വാക്കുകളിൽ	-6813
ൻസും	-6814
▁കരുതി	-6815
തിനുശേഷ	-6816
▁വശത്ത്	-6817
▁ശത്രുത	-6818
▁ഉണ്ടാകില്ല	-6819
▁സർവ്വകലാശാല	-6820
▁താൽക്കാലികമായി	-6821
▁അധികാരപരിധിയിലെ	-6822
▁നടപ്പിലാക്കുന്ന	-6823
ly	-6824
വരു	-6825
▁പാരാമ	-6826
--------	-6827
▁ക്രമീകരണം	-6828
▁കം	-6829
▁വനി	-6830
▁ഒബ്ജ	-6831
▁വിലക്ക	-6832
▁അധിഷ്ഠിത	-6833
▁അവിഭാജ്യ	-6834
▁വരുത്താൻ	-6835
▁സാധ്യതയുണ്ട്	-6836
▁എന്നതായിരുന്നു	-6837
ാർവ	-6838
ന്മാർ	-6839
▁counter	-6840
▁പരമാധികാര	-6841
▁ആക്റ്റിന്റെ	-6842
ിട്ടില്ലെന്നും	-6843
ിംഗ	-6844
ജുഡീഷ	-6845
▁റാങ്ക	-6846
▁ലെജിസ്ല	-6847
▁ഗണ്യമായി	-6848
▁വ്യവസ്ഥകളിൽ	-6849
ഹിയിലെ	-6850
▁പ്രതിയും	-6851
പ്പെടുമെന്ന്	-6852
▁വ്യക്തിപരമായി	-6853
२०	-6854
▁പ്രതികൾക്കെതിരെ	-6855
ുകിൽ	-6856
മാരായി	-6857
▁energy	-6858
▁കേസിലും	-6859
▁ഇന്റർനാഷണൽ	-6860
സമയത്ത്	-6861
▁ഇല്ലാത്ത	-6862
▁യുക്തിസഹമായ	-6863
▁ലഘൂകര	-6864
മെന്നും	-6865
▁പരിപാലന	-6866
▁ന്നിപ്പറഞ്ഞ	-6867
▁സേവനത്തിന്റെ	-6868
▁AIR	-6869
▁ബാംഗ്ല	-6870
▁നിർഭാഗ്യ	-6871
▁പ്രതിരോധം	-6872
▁മറ്റൊന്ന്	-6873
▁വികസിപ്പിച്ച	-6874
റ്റോ	-6875
കരമാണ്	-6876
▁അനുസൃത	-6877
▁ശ്രമങ്ങൾ	-6878
ിക്കുമ്പോഴ	-6879
▁നൂറ്റാണ്ട	-6880
▁ഹൈദ	-6881
▁കുട്ടികൾ	-6882
▁റെസല്യൂഷൻ	-6883
▁അടയ്ക്കേണ്ട	-6884
ുര	-6885
ാകും	-6886
ധിക്ക	-6887
▁എതിരാള	-6888
പിസി	-6889
▁പദവ	-6890
▁വിലയ	-6891
▁അപേക്ഷയുടെ	-6892
▁പാർലമെന്റിന്	-6893
▁അനിയ	-6894
▁ഇതാണ്	-6895
▁രണ്ടോ	-6896
▁ഓർഡറുകൾ	-6897
▁മണിക്കൂ	-6898
▁വ്യവസായം	-6899
▁വാഹനത്തിന്റെ	-6900
▁ശിക്ഷിക്കപ്പെട	-6901
pi	-6902
മയം	-6903
കരാറ	-6904
▁കാലം	-6905
▁ആശുപത്ര	-6906
▁കാര്യമാണ്	-6907
ാവൂ	-6908
▁അഫ	-6909
▁ഏൽപ്പ	-6910
▁സ്ഥിരത	-6911
▁കക്ഷികളെ	-6912
▁വൈകല്യമുള്ള	-6913
▁അനുശാസിക്കുന്ന	-6914
▁നടപ്പാക്കുന്നത്	-6915
▁ഇന്ത്യയ്ക്ക്	-6916
▁ഉദ്ദേശ്യത്തോടെ	-6917
ാനാണ്	-6918
▁നടപ്പാക്കി	-6919
▁നിയമിക്കാൻ	-6920
▁പങ്കെടുത്ത	-6921
വാൾ	-6922
കമായി	-6923
▁ഇടപാടുകൾ	-6924
ാമായിരുന്നു	-6925
▁പ്രതിജ്ഞാബ	-6926
▁വൈകുന്നേരം	-6927
▁അറിയപ്പെടുന്ന	-6928
പൊ	-6929
▁സസ്യ	-6930
▁ഓപ്ഷൻ	-6931
▁തുറമുഖ	-6932
▁കരാറിന്	-6933
▁വിഭാഗങ്ങൾ	-6934
▁അനിയന്ത്രിത	-6935
ുണ്ടായിരുന്നു	-6936
▁അത്യാവശ്യമാണ്	-6937
ബൽ	-6938
ാല്	-6939
▁ആർബിട്ര	-6940
ിട്ടുണ്ടോ	-6941
▁ഒന്നുകിൽ	-6942
▁ജോലിക്കാര	-6943
▁വാദമുണ്ട്	-6944
▁കുട്ടിയുടെ	-6945
▁കുറ്റകരമായ	-6946
▁നന്ദ	-6947
▁വിവരണ	-6948
▁ഓഡിറ്റ്	-6949
▁പ്രദേശ്	-6950
▁അഭിവൃദ്ധ	-6951
▁ആവശ്യമായി	-6952
▁വിരമിക്കൽ	-6953
▁റാവു	-6954
▁സാക്ഷിയുടെ	-6955
▁സ്റ്റാൻഡിംഗ്	-6956
▁ബിസിനസ്സിന്റെ	-6957
ഷിപ്പ	-6958
▁ഇരുപ	-6959
▁കണ്ണ	-6960
▁നോട്ടീ	-6961
▁ഖാൻ	-6962
▁ഡെവലപ്	-6963
▁വാദികൾ	-6964
▁അപേക്ഷയും	-6965
▁വരുമാനത്തിൽ	-6966
ോപിച്ച്	-6967
▁അലവൻസ്	-6968
▁ബയോമെട്രിക്	-6969
▁തിരിച്ചറിയാൻ	-6970
▁അനുവദിക്കുന്നു	-6971
▁കോമ	-6972
കുന്ന	-6973
▁ആർക്ക	-6974
മാകുമ്പോൾ	-6975
▁ഇന	-6976
▁ജൂനിയർ	-6977
പാദിപ്പിക്കുന്ന	-6978
ധനം	-6979
ർത്തിയ	-6980
▁ഭാഗങ്ങൾ	-6981
▁ബാങ്കുകൾ	-6982
▁ലോകമെമ്പ	-6983
▁തിരിച്ചറിഞ്ഞു	-6984
▁സമർപ്പിക്കുന്ന	-6985
AR	-6986
ഡിക	-6987
▁അനുര	-6988
▁ഹൈദരാബ	-6989
▁മാറ്റാൻ	-6990
ിച്ചതായും	-6991
▁ഇക്വിറ്റി	-6992
▁ഓർഡറിന്റെ	-6993
▁മധ്യപ്രദേശ്	-6994
ouse	-6995
▁മതം	-6996
▁വയസ്സിന്	-6997
▁ഉത്തരവിന്	-6998
▁ബാധ്യസ്ഥനാണ്	-6999
ാനാവില്ലെന്നും	-7000
▁അൾ	-7001
▁കോം	-7002
തുതകൾ	-7003
ലിംഗ്	-7004
പ്പിനെ	-7005
▁അളവിൽ	-7006
▁സ്ഥിരസ്ഥി	-7007
▁കൃഷ	-7008
ങ്ങളുള്ള	-7009
ത്തക	-7010
ഷ്വർ	-7011
മ്പത്	-7012
ക്ടറുടെ	-7013
മായതിനാൽ	-7014
▁റെസിഡൻഷ്യൽ	-7015
▁ഓപ്പൺ	-7016
▁പ്രീമ	-7017
▁കാറ്റഗ	-7018
▁പ്രവണത	-7019
എല്ലിന്റെ	-7020
▁രൂപയ്ക്ക്	-7021
▁ഇൻഫ്രാസ്ട്രക്ചർ	-7022
▁ജയ	-7023
▁അവയ	-7024
▁ഒറീസ	-7025
ഖണ്ഡിക	-7026
▁ഐപിസിയുടെ	-7027
▁പിന്നോക്ക	-7028
▁തയ്യാറാക്കി	-7029
േണ	-7030
ാമോ	-7031
ക്കിന്റെ	-7032
▁ഇതുമായി	-7033
▁ഒരിക്കൽ	-7034
▁സാധ്യമായ	-7035
ട്രേറ്റിന്റെ	-7036
▁നഷ്ടപ്പെട്ട	-7037
▁മറ്റുള്ളവരും	-7038
ാപ്	-7039
ജീവിത	-7040
▁സായുധ	-7041
ിക്കാമെന്ന്	-7042
സിനായി	-7043
▁സംസാരിച്ച	-7044
▁അപ്പീലുകളും	-7045
ുവര	-7046
▁നോർ	-7047
ക്കണക്ക	-7048
▁ഫാക്കൽ	-7049
മെന്റിന്	-7050
▁നിലപാടി	-7051
▁സാക്ഷ്യം	-7052
▁രാഷ്ട്രപതിക്ക്	-7053
▁ഫിനാൻ	-7054
▁നടത്തിയത്	-7055
ലാൽ	-7056
▁ഉഭയ	-7057
▁നിരീക്ഷണം	-7058
▁പാട്ടത്തിന	-7059
▁വിഭജനം	-7060
▁ക്ലെയിമുകൾ	-7061
▁തലക്കെട്ട്	-7062
▁ഷെഡ്യൂളിലെ	-7063
ിച്ചുവെന്നും	-7064
ൊറ്റ	-7065
▁ആക്ട്	-7066
▁റിക്ക	-7067
ത്തിനിട	-7068
റയുന്നു	-7069
▁കാത്തി	-7070
▁കാരണവുമില്ല	-7071
▁പരാമർശിക്കുന്ന	-7072
▁ഭഗ	-7073
മൂലം	-7074
ഴപ്പ	-7075
ുമുമ്പ	-7076
െങ്കിലോ	-7077
▁ഇടപാടി	-7078
▁വാട്ടർ	-7079
▁തടസ്സപ്പെടുത്ത	-7080
ക്കട	-7081
ത്യം	-7082
ാലത്ത്	-7083
▁പ്രിയ	-7084
▁പ്രതിബ	-7085
േറ്റിംഗ്	-7086
▁അടുത്തി	-7087
▁ഓഫീസറുടെ	-7088
യുണ്ടെന്ന്	-7089
▁കാണിക്കുന്ന	-7090
ഡ്ര	-7091
▁മായ	-7092
▁ഉഭയകക്ഷി	-7093
▁നഷ്	-7094
ാരിദ്ര	-7095
കി	-7096
ാജ്	-7097
ാവേ	-7098
▁അവരിൽ	-7099
▁ഡയറക്ടറ	-7100
▁സർവീസസ്	-7101
യെക്കുറിച്ചും	-7102
ുകളാണ്	-7103
▁വിവരം	-7104
▁കേസിനെ	-7105
▁തീരുമാനങ്ങളെ	-7106
▁സിഎ	-7107
▁അതിനു	-7108
▁അലോട്ട്	-7109
▁അവസരങ്ങൾ	-7110
▁സമർപ്പിക്കും	-7111
▁മനസ്സിലാക്കാൻ	-7112
pira	-7113
▁പോര	-7114
രാജ്യ	-7115
▁conspira	-7116
▁ഉദ്യോഗസ്ഥനെ	-7117
ാതന	-7118
▁ആസൂത്രണ	-7119
▁വിവാഹിത	-7120
▁കൈവരിക്ക	-7121
▁പ്രചരിപ്പ	-7122
ക്കുന്നില്ല	-7123
▁ലക്ഷ്യത്തോടെ	-7124
▁അനുവദിക്കുന്നത്	-7125
▁IS	-7126
▁ടോ	-7127
▁കാരണത്ത	-7128
▁ചെയർപേഴ്	-7129
▁ശേഖരിച്ച	-7130
രിഞ്ഞ	-7131
്ക്ക്	-7132
▁പച്ച	-7133
ത്വവും	-7134
▁ലഭ്യമല്ല	-7135
▁അനുകൂലമായ	-7136
മന്ത്രിയുടെ	-7137
▁ഉറപ്പുണ്ട്	-7138
▁നയിക്കുന്നു	-7139
▁റിപ്പബ്ലിക്ക	-7140
ുഖ	-7141
മേണ	-7142
▁മാനവ	-7143
കവസ്തു	-7144
▁അഞ്ചാം	-7145
▁മാലിന്യ	-7146
▁ശേഷമുള്ള	-7147
തന	-7148
ങ്ങളിലൊന്ന	-7149
▁ബന്ധത്തിൽ	-7150
▁സമ്മതത്തോടെ	-7151
▁ചെയ്യണമെന്ന്	-7152
▁വിധിന്യായങ്ങളിൽ	-7153
എക്സ്	-7154
▁യൂറോ	-7155
▁എന്നെ	-7156
▁കുടിയാന്	-7157
▁സമൂഹത്തിൽ	-7158
അപ്പീൽ	-7159
ട്രികൾ	-7160
▁ഒരൊറ്റ	-7161
▁തസ്തികകൾ	-7162
▁കുറ്റവാളി	-7163
▁ദില്ലിയിലെ	-7164
▁സർക്കാരുകൾ	-7165
▁അഭിപ്രായപ്പെട്ട	-7166
▁എന്	-7167
പ്രതിജ്ഞ	-7168
▁ഓർഡിനൻസ്	-7169
▁സ്കീമിന്	-7170
ബോറ	-7171
▁ശി	-7172
▁ആണെങ്കിൽ	-7173
▁വിജയിച്ച	-7174
▁എന്നിട്ടും	-7175
▁വർദ്ധിച്ചു	-7176
▁അവതരിപ്പിച്ച	-7177
▁പ്രോസിക്യൂട്ട	-7178
▁മേധ	-7179
▁കോൺഫറ	-7180
▁ചാൻസലർ	-7181
▁ദാരിദ്ര	-7182
▁നൽകില്ല	-7183
▁കൊലപാതകം	-7184
▁നിയമങ്ങളിൽ	-7185
▁ഉദ്ദേശിക്കുന്ന	-7186
നിലെ	-7187
▁പോയിന്റ	-7188
▁ജഡ്ജിക്ക്	-7189
▁പാത	-7190
ൊഴികെ	-7191
▁തിരു	-7192
▁രാജ്യസഭ	-7193
▁അടുത്തിടെ	-7194
▁സേവനങ്ങളുടെ	-7195
▁അപ്പീലിനുള്ള	-7196
▁മെമ്മോറാണ്ടം	-7197
▁പിടിച്ചെടുത്ത	-7198
▁ഹൃദയ	-7199
▁ആന്തര	-7200
▁സമ്പന്ന	-7201
▁ഉത്തരവിട	-7202
▁ലെജിസ്ലേറ്റീവ്	-7203
▁ഫീസ	-7204
▁പോഷക	-7205
▁ഫോറം	-7206
▁ടെണ്ടർ	-7207
▁ഹരജികൾ	-7208
▁അഡ്വാൻസ്	-7209
നോട്	-7210
ീഡിയ	-7211
▁ഫുൾ	-7212
▁ലബോറ	-7213
▁ചെന്നൈ	-7214
വർക്കായി	-7215
▁നിർദേശപ്രകാരം	-7216
ക്കാൾ	-7217
മാരിൽ	-7218
▁നൽകുന്നില്ല	-7219
▁സൂചിപ്പിക്കുന്ന	-7220
▁ചൗ	-7221
▁അഭ്യർ	-7222
▁മെട്ര	-7223
▁അംഗങ്ങളെ	-7224
▁പ്രതിമാസ	-7225
▁മലിനീകരണ	-7226
▁വീക്ഷണകോ	-7227
▁അന്വേഷണത്തിന്	-7228
▁സ്ഥാപിക്കുകയും	-7229
▁പ്രയോജനത്തിനായി	-7230
അപ്പീല	-7231
▁സംവേദ	-7232
▁അപ്പീലിനെതിരെ	-7233
▁തട്ടിക്കൊണ്ടുപോ	-7234
▁ബജ	-7235
▁അപലപ	-7236
ക്കെതിര	-7237
▁അവഹേളന	-7238
▁പരിപാടി	-7239
▁വസ്തുവക	-7240
ാമത്തെയും	-7241
▁സംക്ഷിപ്ത	-7242
▁സർക്കാരും	-7243
▁അധികാരങ്ങളും	-7244
വിധികള	-7245
ലുകളുടെ	-7246
▁നിർമാണ	-7247
▁പേപ്പർ	-7248
▁ബ്യൂറോ	-7249
▁നേരിടാൻ	-7250
▁അനിശ്ചിത	-7251
▁അക്കൗണ്ടുകൾ	-7252
▁നേടുന്നതിന്	-7253
എമ്മ	-7254
▁പാക	-7255
▁മുത്ത	-7256
▁ആരോഗ്യം	-7257
▁വാദിച്ച	-7258
▁റിക്കവറി	-7259
▁റിസർച്ച്	-7260
▁ലഭിക്കുന്നു	-7261
ഷിപ്പ്	-7262
▁ഭൂമിയിൽ	-7263
▁വകുപ്പിലെ	-7264
▁വക്	-7265
▁വിചാരണയിൽ	-7266
ിട്ടില്ലെന്ന്	-7267
▁പരീക്ഷിക്കുക	-7268
▁തീരുമാനത്തിന്	-7269
▁റെസ്പോണ്ടന്റ്	-7270
റോൾ	-7271
▁സാര	-7272
▁അയ്യ	-7273
▁പുരാതന	-7274
▁ഇല്ലെന്ന്	-7275
▁IV	-7276
▁അപ്	-7277
ത്രിക	-7278
സാധുത	-7279
▁ലൈഫ്	-7280
▁അപവാദ	-7281
▁പൊതുന	-7282
▁മതപരമായ	-7283
▁കാന	-7284
▁ഖനനം	-7285
▁ശാക്ത	-7286
▁അതിനായി	-7287
▁നയത്തിന്റെ	-7288
▁പിന്തുണച്ച്	-7289
▁അർഹതയുണ്ടെന്ന്	-7290
▁പ്രോസിക്യൂട്ട്	-7291
തൊരു	-7292
ാസ്ത്രം	-7293
▁കൂട്ടം	-7294
▁കൂട്ടു	-7295
▁പിന്നീടുള്ള	-7296
▁കോർ	-7297
ശക്തി	-7298
▁ഉപദേശക	-7299
സ്മെന്റ്	-7300
▁ാലോചനയുടെ	-7301
▁വിവരങ്ങളും	-7302
ച്ചവ	-7303
▁കർഷ	-7304
▁എസ്ടി	-7305
▁ഹിമാചൽ	-7306
▁എതിരായി	-7307
▁വിപുലമായ	-7308
▁വിദ്യാർത്ഥികളെ	-7309
▁ചെയ്യുന്നതിലൂടെ	-7310
▁വയറ	-7311
▁പ്രയോജനം	-7312
▁ഹിയറിംഗ്	-7313
▁താൽപ്പര്യങ്ങൾ	-7314
▁മാന്യ	-7315
▁വ്യവസ്ഥയെ	-7316
▁അധികാരികളുടെ	-7317
▁ചെയ്യേണ്ടതുണ്ട്	-7318
▁കഴു	-7319
▁ദുര	-7320
▁സ്വത്തിൽ	-7321
▁സത്യപ്രതിജ്ഞ	-7322
▁തൃപ്തിപ്പെടുത്ത	-7323
ാഹ	-7324
സാക്ഷ	-7325
▁ഇന്റ	-7326
▁പ്ലാൻ	-7327
▁എന്നിവയു	-7328
▁റിസർവേഷൻ	-7329
▁വിശ്വസ്ത	-7330
▁സ്വീകരിച്ച്	-7331
▁പറഞ്ഞിട്ടുണ്ട്	-7332
▁ലഭിക്കുന്നതിന്	-7333
▁തടയാൻ	-7334
▁പേരും	-7335
▁ആയുധങ്ങൾ	-7336
▁വ്യതിയാന	-7337
▁കോടതിയിലേക്ക്	-7338
െയായി	-7339
▁ആശംസകൾ	-7340
▁കുട്ടി	-7341
ല്ല്	-7342
പൂർവ്വം	-7343
▁വായിക്ക	-7344
▁മെറിറ്റ്	-7345
▁പറയുന്നത്	-7346
▁മൾ	-7347
▁എപി	-7348
യെന്ന	-7349
▁എളുപ്പത്തിൽ	-7350
▁മോർട്ട്ഗേജ്	-7351
▁രംഗ	-7352
കൊള്ള	-7353
▁ടെലിഫോ	-7354
▁നികത്ത	-7355
രുമെന്ന്	-7356
ാവശ്യമായ	-7357
▁ഉറപ്പാക്കാൻ	-7358
ബന്ധിത	-7359
▁ഉത്ഭവ	-7360
ക്കിംഗ്	-7361
▁ഡാറ്റാ	-7362
▁ഡ്രൈവർ	-7363
▁തടവിന്	-7364
▁പാരാമീറ്റ	-7365
▁ലോകത്തിലെ	-7366
ുനിൽ	-7367
▁യുകെ	-7368
▁നിയമസാധുത	-7369
▁പഞ്ചായത്ത്	-7370
No	-7371
ബെ	-7372
▁രീതിയും	-7373
മെൻ	-7374
ഹീന	-7375
▁റൈ	-7376
▁സമീപന	-7377
▁സസ്പെ	-7378
▁വകുപ്പിൽ	-7379
▁അഭിമുഖീകര	-7380
▁വിപര	-7381
▁പ്ലാന	-7382
ണമെങ്കിൽ	-7383
▁തൊഴിലാളികളുടെ	-7384
▁ജഗ	-7385
ക്സി	-7386
▁ഒരാ	-7387
മനുഷ്ഠ	-7388
മാരെയും	-7389
▁കീഴടങ്ങ	-7390
▁ബാധ്യതയുണ്ട്	-7391
▁സംശയാസ്പദമായ	-7392
▁ഉൾപ്പെടുത്താൻ	-7393
▁പ്രകടിപ്പിച്ചു	-7394
III	-7395
ഷണല	-7396
▁ഓയിൽ	-7397
▁ജോലിയുടെ	-7398
▁സേവനമനുഷ്ഠ	-7399
▁ചെയ്യപ്പെട്ടു	-7400
▁ഓസ്	-7401
മുദ്ര	-7402
സ്കൃത	-7403
▁സംഭാഷ	-7404
▁അയയ്ക്ക	-7405
▁അയോഗ്യത	-7406
▁ജീവനക്കാരൻ	-7407
▁രാജ്യങ്ങളിൽ	-7408
കരും	-7409
▁സെൽ	-7410
▁ഗ്രേ	-7411
▁വനിതാ	-7412
▁മുൻഗാമ	-7413
ിയാണെന്ന്	-7414
▁ചുമതലയുള്ള	-7415
▁വെളിപ്പെടുത്തി	-7416
▁അജ	-7417
ാശക്തി	-7418
▁ജെയിൻ	-7419
▁അന്തസ്സ	-7420
▁പ്രമാണം	-7421
▁കുട്ടിയെ	-7422
▁ലക്ഷ്യമിട	-7423
▁തീയതികളിലെ	-7424
▁മഴ	-7425
▁ശർമ്മ	-7426
▁ഗാന്ധി	-7427
▁ലോക്സഭ	-7428
▁ഒരാളുടെ	-7429
▁ബ്ലോക്ക	-7430
▁ഹാജരാക്കി	-7431
▁പർ	-7432
▁കോൺഗ്ര	-7433
ില്ലായ്മ	-7434
ധാര	-7435
ാവന	-7436
▁നഗർ	-7437
▁ടെലിക	-7438
▁കടമയാണ്	-7439
▁ടെസ്റ്റ	-7440
▁ഡെലിവറി	-7441
▁കണ്ടെടുത്ത	-7442
▁വിരുദ്ധമായ	-7443
▁കൂട്ടുപ്രതി	-7444
▁ഉയർത്തിപ്പിട	-7445
▁ചെയ്യുന്നില്ല	-7446
▁അടിസ്ഥാനപരമായി	-7447
▁മര	-7448
േഷ്യ	-7449
▁ബലഹീന	-7450
േണ്ടതിന്റെ	-7451
▁പരസ്യരഹിത	-7452
▁അഭിഭാഷകനായ	-7453
▁കക്ഷികൾക്കിടയിൽ	-7454
ഷനും	-7455
▁സമുദായ	-7456
▁ഇൻസ്റ്റ	-7457
▁സമീപകാല	-7458
▁വ്യക്തവും	-7459
▁ആപ്ലിക്കേഷൻ	-7460
▁റിപ്പബ്ലിക്	-7461
▁ci	-7462
▁ഓവർ	-7463
ഡന്റ്	-7464
യിരുന്നു	-7465
▁തടവുകാര	-7466
▁പ്രമോഷൻ	-7467
▁ഇന്ത്യയെ	-7468
▁നിലകൊള്ള	-7469
▁അറ്റാച്ചു	-7470
ent	-7471
▁ഇന്ധ	-7472
ുതന്നെ	-7473
ലിം	-7474
പക്ഷേ	-7475
ില്	-7476
ീന്ദർ	-7477
▁വിഭജന	-7478
▁ഗുരുതര	-7479
▁കാറ്റഗറി	-7480
ബ്ബ	-7481
▁ഉയർന്നു	-7482
▁ഒരാൾക്ക്	-7483
▁ഒഴിവാക്കി	-7484
▁വിഷയങ്ങളിൽ	-7485
▁സ്റ്റാമ്പ്	-7486
▁കമ്പ്യൂട്ടർ	-7487
▁ലംഘിക്കുന്ന	-7488
▁g	-7489
ാകർ	-7490
▁കറൻസി	-7491
ുപേ	-7492
▁ദേവി	-7493
▁ഫെഡറ	-7494
▁ഉപജീവന	-7495
▁ആന്തരിക	-7496
പ്രദേശിലെ	-7497
▁നിബന്ധനകളിൽ	-7498
▁സന്ദേശത്തിൽ	-7499
▁കമ്മ്യൂണിറ്റി	-7500
ായിരം	-7501
ിയല്ല	-7502
▁അവയവ	-7503
യുമില്ല	-7504
▁നടപടിയും	-7505
▁അധികാരമുള്ള	-7506
▁എന്നിവയിലൂടെ	-7507
സ്ര	-7508
ിവെ	-7509
▁ഇറ	-7510
▁ഡേ	-7511
▁ആന്റ	-7512
▁നിയന്ത്രണവും	-7513
യന	-7514
ഗ്ഗനിർ	-7515
ർത്തും	-7516
▁പാടില്ല	-7517
▁അസംസ്കൃത	-7518
▁ഗുണനിലവാരം	-7519
▁പ്രായമുള്ള	-7520
▁നിർമ്മിക്കാൻ	-7521
ഷയ	-7522
▁ഭേദഗതിക്ക്	-7523
▁പ്രാതിനിധ്യ	-7524
▁കേട്ടിട്ടുണ്ട്	-7525
ാസമയം	-7526
▁അവഗണന	-7527
▁ഒപ്പ്	-7528
▁ആര്ബിട്രല്	-7529
▁എക്സ്ചേഞ്ച്	-7530
▁വസ്തുക്കളും	-7531
▁അവകാശങ്ങളുടെ	-7532
▁സ്ഥാപനങ്ങളും	-7533
ിലേ	-7534
▁ഷി	-7535
▁അണ്ടർ	-7536
മാക്കിയി	-7537
▁ഗ്യാരണ്ടി	-7538
▁മറ്റേതൊരു	-7539
▁പ്രാപ്തരാക്ക	-7540
▁ഷ്	-7541
▁മോഡ	-7542
▁ഫണ്ടുകൾ	-7543
ുകളൊന്നും	-7544
▁ഉദ്യോഗസ്ഥരെ	-7545
▁മുഖ്യമന്ത്രി	-7546
ചിപ്പ	-7547
▁കടക്കാര	-7548
▁ക്രമക്ക	-7549
▁കേൾക്കാൻ	-7550
▁നാശനഷ്ടങ്ങൾ	-7551
▁വലു	-7552
▁പത്ത	-7553
മാർക്ക	-7554
▁ഒരാളെ	-7555
▁ഹിയറിംഗ	-7556
ിക്കെതിരെ	-7557
ുന്നതുവരെ	-7558
▁വിപുലീകരണ	-7559
ഭി	-7560
സാമ്പ	-7561
▁കോമ്പ	-7562
▁വിപരീത	-7563
ീഷ്യ	-7564
നായിരുന്നു	-7565
▁യാഥാർത്ഥ്യ	-7566
വത	-7567
വരണം	-7568
▁സാർവ	-7569
▁അശോക്	-7570
▁നൽകിയയാൾ	-7571
.00	-7572
ികളോ	-7573
▁വിൻ	-7574
▁കേസുകളും	-7575
▁പരിസരത്ത്	-7576
▁പൂർണ്ണമായി	-7577
▁അവതരിപ്പിച്ചു	-7578
വയാണ്	-7579
▁അമ്ര	-7580
▁സയൻസ്	-7581
▁സർക്കാരിനും	-7582
ക്ഷേമ	-7583
▁യഥാസമയം	-7584
▁ബ്ലോക്ക്	-7585
▁പവി	-7586
ട്രേലിയ	-7587
▁തുകയും	-7588
ഫിക്കേഷൻ	-7589
▁പണമടച്ച	-7590
ഐക്ക്	-7591
▁ക്യൂ	-7592
▁അധ്യാപക	-7593
▁സ്റ്റീൽ	-7594
▁ഉചിതമെന്ന്	-7595
▁സർട്ടിഫിക്കറ്റ	-7596
.-	-7597
▁പാഠ	-7598
▁ഫീൽ	-7599
ിളുകൾ	-7600
പ്പോലെ	-7601
▁നേതൃത്വ	-7602
▁എക്സ്റ്റ	-7603
ിച്ചിട്ടില്ലാത്ത	-7604
▁നിശ്ചയി	-7605
▁ശേഷമാണ്	-7606
ത്തോടുള്ള	-7607
▁കുറിച്ച്	-7608
▁ചെയ്യില്ല	-7609
▁കാര്യത്തിലും	-7610
▁വീട്ടിലേക്ക്	-7611
▁ലിമിറ്റഡിന്റെ	-7612
▁സ്വതന്ത്രമായി	-7613
▁നിയമവിരുദ്ധമായി	-7614
▁അന്യ	-7615
▁താഴ്ന്ന	-7616
ണ്ഡിഗ	-7617
▁തിരയ	-7618
ാക്കളെ	-7619
▁ശൂന്യ	-7620
▁നടത്തും	-7621
▁സ്റ്റേഷന	-7622
▁സൗകര്യങ്ങൾ	-7623
▁നടത്താനുള്ള	-7624
▁അപേക്ഷകർക്ക്	-7625
▁ഡോക്യുമെന്ററി	-7626
▁രച	-7627
▁പഠനം	-7628
ത്തിയായ	-7629
▁കോടതികളിൽ	-7630
▁മറുപടിയായി	-7631
▁ഇനം	-7632
▁സോള	-7633
▁ഒരുപക്ഷേ	-7634
▁പ്രാഥമികമായി	-7635
▁കാലഹരണപ്പെട്ട	-7636
▁കാര്യങ്ങളുമായി	-7637
യിഡ	-7638
▁പീ	-7639
ടുമുള്ള	-7640
▁ഇൻഷ്വർ	-7641
▁സമഗ്രത	-7642
▁ബാങ്കിൽ	-7643
▁കാണിക്കുന്നത്	-7644
▁ചെയ്യുന്നതിനോ	-7645
▁ജീവിതത്തിന്റെ	-7646
▁പ്രധാനമന്ത്രി	-7647
▁സ്ഥാനാർത്ഥിയുടെ	-7648
▁അര	-7649
▁കോട്ട	-7650
▁വ്യതിചല	-7651
▁കുറ്റവാളിയെ	-7652
▁വിസ്താരത്തിൽ	-7653
▁സ്ഥിരസ്ഥിതിയായി	-7654
ികാമ	-7655
▁നിശ	-7656
▁പരിസ	-7657
▁കൈക്ക	-7658
▁സ്ത്രീകൾ	-7659
▁ഏറ്റെടുക്കാൻ	-7660
ഫെ	-7661
▁അവള	-7662
ട്രോൾ	-7663
ികളാണ്	-7664
▁ഭാഷയിൽ	-7665
▁അഭിഭാഷകർ	-7666
▁ഉടമസ്ഥാവകാശ	-7667
അത	-7668
ാസി	-7669
▁നബ	-7670
▁ous	-7671
സ്പിറ്റ	-7672
▁അജ്ഞാത	-7673
തിനെത്തുടർന്ന്	-7674
നടപട	-7675
േഷനെ	-7676
▁പചാരിക	-7677
▁മോചിപ്പ	-7678
▁തീർത്തും	-7679
ുന്നുവെന്നും	-7680
ക്കേഷൻ	-7681
▁യുദ്ധ	-7682
▁ബാക്ക്	-7683
▁ഓഡിറ്റർ	-7684
▁തലക്കെട്ട	-7685
▁സൃഷ്ടിക്കുന്നു	-7686
▁വരച്ച	-7687
▁തെറ്റാണെന്ന്	-7688
ബായി	-7689
▁കശ്മീർ	-7690
▁നിഷ്പക്ഷ	-7691
▁നേട്ടങ്ങൾ	-7692
ത്തിലൂടെയും	-7693
▁നടപടിയെടുക്ക	-7694
▁അധികാരികൾക്ക്	-7695
▁ചൈന	-7696
▁മെഷ	-7697
▁ആഘോഷ	-7698
▁ക്വാട്ട	-7699
▁പിന്തുടര	-7700
▁ബലാത്സംഗം	-7701
▁റിവ	-7702
ച്ചവട	-7703
▁സ്ഥലങ്ങൾ	-7704
▁കൈവശാവകാശം	-7705
▁ബിരുദാനന്തര	-7706
▁ചെയ്യുന്നവർക്ക്	-7707
sic	-7708
നേഹ	-7709
ിലിയ	-7710
ക്കാം	-7711
▁ഡെപ്പോ	-7712
▁സാക്ഷിയെ	-7713
▁ഈടാക്കുന്ന	-7714
▁അപക	-7715
▁ഇടപഴ	-7716
▁ചണ്ഡിഗ	-7717
▁സഹകരണം	-7718
▁ഏറ്റെടുത്ത	-7719
▁തിരിച്ചറിയൽ	-7720
മായിരിക്കില്ല	-7721
▁സംസ്ഥാനങ്ങളുടെ	-7722
▁പണയം	-7723
▁പവിത്ര	-7724
▁ലഭിക്ക	-7725
▁സംവരണം	-7726
നാക്കാനുള്ള	-7727
▁നിരന്തരമായ	-7728
ഞ്ജന	-7729
ഹമ്മദ	-7730
▁ഭാരത്	-7731
▁മൈക്രോ	-7732
▁പ്രാധാന്യമുള്ള	-7733
ാക്ക്	-7734
▁തുടക്കം	-7735
ത്തിനുമായി	-7736
▁ഐബി	-7737
▁സിമ	-7738
▁സിനിമ	-7739
▁നൽകാത്ത	-7740
▁വിവർത്ത	-7741
▁മാസത്തിൽ	-7742
▁ജീവനക്കാരെ	-7743
രിട	-7744
▁സയ	-7745
▁ചിലപ്പോൾ	-7746
▁സമയപരിധി	-7747
തിനുശേഷവും	-7748
▁മറ്റുള്ളവർ	-7749
▁പൗരന്മാരുടെ	-7750
▁അനുവദിക്കില്ല	-7751
▁സ്വാതന്ത്ര്യവും	-7752
▁ചേർത്ത	-7753
റ്റിയുടെ	-7754
▁പ്രോജക്ട	-7755
▁എന്റർപ്രൈസ	-7756
▁സംസ്ഥാനങ്ങളിലെ	-7757
പഞ്ച	-7758
▁നയി	-7759
▁പാണ്	-7760
▁എട്ടാം	-7761
▁ശേഷിക്കുന്ന	-7762
ൈമ	-7763
sel	-7764
ീർത്തി	-7765
▁സംഭരണ	-7766
▁ഇംഗ്ലണ്ട	-7767
▁പ്രൊഫഷണല	-7768
२१	-7769
മള	-7770
റർ	-7771
എന്ന	-7772
▁res	-7773
▁വെങ്ക	-7774
▁ഗ്രേഡ്	-7775
▁തെരഞ്ഞ	-7776
▁മൾട്ടി	-7777
▁പെട്രോള	-7778
▁പ്രകാശ്	-7779
▁ഖണ്ഡികകൾ	-7780
▁മേൽനോട്ടം	-7781
ഘാട	-7782
ികളിലെ	-7783
▁നേട്ടം	-7784
▁ഹോട്ടൽ	-7785
▁എക്സിബിറ്റ്	-7786
▁ഫാർ	-7787
▁വിഷമ	-7788
▁ഉദ്ഘാട	-7789
▁മനസ്സ്	-7790
ിച്ചില്ല	-7791
▁നേടുകയും	-7792
▁പോയിന്റ്	-7793
▁സ്പീക്കർ	-7794
യില്ലെന്ന്	-7795
▁പരാതിക്കാരന്	-7796
▁#	-7797
ിനൽക	-7798
െട്ട	-7799
എക്സാഡ്	-7800
▁അഭികാമ	-7801
▁പരിസരം	-7802
▁കുറവാണ്	-7803
രുതെന്നും	-7804
▁ഏറ്റെടുത്തി	-7805
കളെക്കുറിച്ച്	-7806
ഗൽ	-7807
▁(“	-7808
ക്കിട	-7809
വലപ്പർ	-7810
▁ഗസറ്റിൽ	-7811
▁സ്ത്രീധന	-7812
▁ശിക്ഷയുടെ	-7813
▁ആവശ്യമെങ്കിൽ	-7814
▁ചൗധ	-7815
▁നൂതന	-7816
▁ഡിഗ്ര	-7817
▁രസീത്	-7818
▁സമുദ്ര	-7819
▁രൂപയാണ്	-7820
ങ്ങളിലെയും	-7821
▁ാർ	-7822
ആറിൽ	-7823
പാലി	-7824
▁ജനി	-7825
▁റോഡ	-7826
▁കുറവ്	-7827
▁അല്ലയോ	-7828
▁ഡിക്രി	-7829
▁വർഷമായി	-7830
▁സങ്കൽപ്പ	-7831
▁പൊതുമേഖലാ	-7832
▁ഹോസ്പിറ്റ	-7833
▁എല്ലാവർക്കും	-7834
▁സംഭവിക്കുന്ന	-7835
▁ട്രിബ്യൂണലിന്	-7836
▁ഉപയോഗപ്പെടുത്ത	-7837
▁ഐസി	-7838
വരാണ്	-7839
▁കോമൺ	-7840
▁പേരെ	-7841
▁എന്ത്	-7842
ത്തിലധികം	-7843
റൂ	-7844
ഗേഷൻ	-7845
▁പുതുമ	-7846
▁ഒതുങ്ങ	-7847
തുപോലുള്ള	-7848
▁അധികാരത്തെ	-7849
▁ബ്രിട്ടീഷ്	-7850
▁നാണ്	-7851
ത്തുള്ള	-7852
▁എക്സ്ചേഞ്ച	-7853
▁റദ്ദാക്കാൻ	-7854
▁ഉദ്ദേശ്യവും	-7855
▁വിശദീകരിക്കാൻ	-7856
▁ബോം	-7857
▁നിയോ	-7858
▁എതിർപ്പുകൾ	-7859
▁അനന്തരഫലങ്ങൾ	-7860
▁പ്രസിദ്ധീകരണ	-7861
re	-7862
ാളും	-7863
ാരായണ	-7864
▁ടിക്ക	-7865
▁വിമർശ	-7866
▁മാസ്റ്റർ	-7867
▁പദപ്രയോഗം	-7868
രുതി	-7869
▁തകരാറ	-7870
റ്റുകളിൽ	-7871
▁സന്നദ്ധ	-7872
▁പ്രതിജ്ഞാബദ്ധ	-7873
യുട	-7874
വാൻ	-7875
▁അനുക	-7876
▁പോലീസിന്	-7877
▁വിൽക്കാൻ	-7878
▁തള്ളുകയും	-7879
▁എന്നിവിടങ്ങളിൽ	-7880
,0	-7881
ാപേക്ഷ	-7882
▁ഉപകരണം	-7883
▁പൊതുവെ	-7884
▁റദ്ദാക്കൽ	-7885
പുര	-7886
▁ഹോം	-7887
റിയും	-7888
▁അവസാനിച്ച	-7889
▁ന്യായീകരണ	-7890
▁കുറ്റവിമുക്തന	-7891
▁ആൺ	-7892
വേണ്ട	-7893
ഡികേറ്റ	-7894
▁മാസത്തെ	-7895
▁അധികാരവും	-7896
▁ഭാഗങ്ങളിൽ	-7897
▁അടിവ	-7898
▁തടഞ്ഞുവ	-7899
സാമ്പത്തിക	-7900
▁ആവർത്തിച്ച	-7901
▁അനുശാസിക്കുന്നു	-7902
▁ഗുരു	-7903
▁മാറിയ	-7904
ഫ്രിക്ക	-7905
ാടുമുള്ള	-7906
▁തൃപ്തികര	-7907
ാമെങ്കിലും	-7908
▁സ്റ്റാൻഡേർഡ്	-7909
▁അപ്പോ	-7910
▁വൈദഗ്	-7911
▁അപകീർത്തി	-7912
▁പ്രതിഭാഗം	-7913
▁കയ്യിലുള്ള	-7914
▁പ്രതിനിധികൾ	-7915
▁ചേർന്ന	-7916
▁ചർച്ചകൾ	-7917
▁സൂപ്രണ്ട്	-7918
ിയായിരുന്നു	-7919
▁ചുമത്തുന്ന	-7920
▁എന്നിവയുൾപ്പെടെ	-7921
▁ഓഫർ	-7922
▁സിൻ	-7923
▁ഡവലപ്	-7924
ജീവിപ്പ	-7925
▁പരിശ്രമ	-7926
▁നിഗമനങ്ങളിൽ	-7927
▁സമൻസ്	-7928
ക്കാർക്കും	-7929
▁എസ്റ്റേറ്റ	-7930
▁മാറ്റിവച്ച്	-7931
▁സ്ഥാനാർത്ഥികൾ	-7932
▁പുനരുജ്ജീവിപ്പ	-7933
എഫ	-7934
പാടുകൾ	-7935
▁കൈക്കൂല	-7936
▁പോലീസിന്റെ	-7937
▁അതിനനുസരിച്ച്	-7938
രാജ്	-7939
▁സിആർ	-7940
ാപിറ്റ	-7941
▁ഇത്തര	-7942
▁എന്നിവയെ	-7943
പ്പെടുത്തൽ	-7944
ഷണം	-7945
▁അഖ	-7946
ന്റൽ	-7947
▁ഇടത്	-7948
▁ഒഴുക	-7949
ബാദിലെ	-7950
▁അസീസി	-7951
ല്ലാത്ത	-7952
▁നേരിട്ടോ	-7953
▁ഉദ്ദേശ്യത്തെ	-7954
ോപൊ	-7955
▁ബോർഡ	-7956
▁വിയോ	-7957
▁വില്ല	-7958
▁പാപ്പരത്ത	-7959
▁ശതമാനത്തിൽ	-7960
▁വിഭാഗത്തിന്	-7961
▁അധികാരത്തിന്	-7962
ുമായോ	-7963
▁ദാസ്	-7964
▁ആക്സസ്	-7965
▁ജലസേചന	-7966
▁മാറുന്നു	-7967
▁നിലനിൽക്ക	-7968
▁മുൻകൂട്ടി	-7969
▁പരിഗണിക്കും	-7970
▁തൊഴിലാളികൾക്ക്	-7971
▁ri	-7972
▁റൂള	-7973
ത്രിമ	-7974
▁സുതാര്യത	-7975
▁അഡ്മിനിസ്ട്രേഷൻ	-7976
ro	-7977
ാര്	-7978
ിഷ്	-7979
േണി	-7980
▁ഷെയ്	-7981
▁വിശ്വാസം	-7982
▁പാർട്ടികൾ	-7983
▁കണ്ടെടുത്തു	-7984
ടിക്ക്	-7985
▁ദൃശ്യ	-7986
▁അമ്രപാലി	-7987
▁ബലാത്സംഗ	-7988
▁വിവാഹമോചന	-7989
▁ആന്ധ്രാപ്രദേശ്	-7990
ോമ	-7991
ാവധ	-7992
▁അസുഖ	-7993
ചെയ്യൽ	-7994
▁വിസ്തീർ	-7995
തിനേക്കാൾ	-7996
▁അധികാരപരിധിയിൽ	-7997
▁കുഷ്ഠ	-7998
▁ഡൊമെയ്	-7999
ജുഡീഷ്യൽ	-8000
▁വിലയേറിയ	-8001
▁പകർപ്പുകൾ	-8002
▁പ്രതിബദ്ധത	-8003
▁ഭരണഘടനാപരമായി	-8004
▁നിഗമനത്തിലെത്ത	-8005
▁വിധിന്യായങ്ങളെ	-8006
▁ഡ്രോ	-8007
▁ഭാഷാ	-8008
▁സ്പോ	-8009
▁വ്യക്തത	-8010
ിച്ചുവെന്ന	-8011
▁നൽകേണ്ടതില്ല	-8012
രായി	-8013
▁വെടിവ	-8014
▁സംവരണ	-8015
▁അദ്ധ്യാപ	-8016
▁പരിഗണനയിൽ	-8017
▁കവ	-8018
ചെയ്ത	-8019
▁പാകി	-8020
▁തനിക്ക	-8021
▁അതിലൂടെ	-8022
▁നൽകിയില്ല	-8023
▁അധ്യായത്തിലെ	-8024
സൈൻ	-8025
▁ഇൻവെ	-8026
മരിച്ച	-8027
▁ചിലത്	-8028
▁ബംഗ്ല	-8029
▁രജിസ്റ്റ	-8030
▁ക്യാപിറ്റ	-8031
▁പ്രകാരമാണ്	-8032
▁വ്യവസ്ഥയും	-8033
ങ്ങൾക്കായുള്ള	-8034
▁അവകാശപ്പെടാൻ	-8035
▁മണ	-8036
ത്തോ	-8037
▁ചക്ര	-8038
▁തുടർ	-8039
▁കീഴിലോ	-8040
▁കൃത്രിമ	-8041
▁സാധ്യതകൾ	-8042
▁പുറത്തിറക്ക	-8043
▁കുടുംബത്തിലെ	-8044
▁കെട്ടിടത്തിന്റെ	-8045
ഡൻസ്	-8046
▁മെഗ	-8047
▁നീണ്ടുനിൽ	-8048
▁പങ്കെടുക്കാൻ	-8049
▁അകല	-8050
മില്ലെന്ന്	-8051
ുണ്ടെന്നും	-8052
▁പദ്ധതിക്ക്	-8053
▁ഉത്തരവുകളും	-8054
▁സ്ത്രീകളുടെ	-8055
ാവാ	-8056
ിക്കാ	-8057
▁ഉന്നയി	-8058
▁കീഴിലും	-8059
▁മുപ്പത്	-8060
▁കുട്ടികളെ	-8061
▁ന്യായമായും	-8062
▁സമ്പ്രദായം	-8063
▁നിർദ്ദേശങ്ങളും	-8064
at	-8065
ot	-8066
▁;	-8067
ോപൊളിറ്റ	-8068
▁വരുന്നു	-8069
▁ചിത്രീകര	-8070
മാകുമെന്ന്	-8071
▁നിർണ്ണായക	-8072
▁അസസ്മെന്റ്	-8073
▁ആസ്തികളുടെ	-8074
▁പ്രവൃത്തികൾ	-8075
ട്ടില്ലെന്നും	-8076
ട്ടില	-8077
▁ഷ്മള	-8078
▁ഗോത്ര	-8079
▁അനുവാദ	-8080
▁അലഹബാദ്	-8081
▁ഉരുത്തി	-8082
▁വിറ്റുവര	-8083
▁സംഭവങ്ങൾ	-8084
▁ബാധകമാകുന്ന	-8085
▁ഉയർന്നുവരുന്നു	-8086
ോഗ്യ	-8087
▁മേഘ	-8088
▁നിശബ്ദ	-8089
▁ആയതിനാൽ	-8090
▁പ്രോസസ്സ്	-8091
ങ്ങൾക്കുള്ള	-8092
▁സംസ്ഥാനവും	-8093
ൊര	-8094
▁എയ്	-8095
▁നെഗ	-8096
▁നൈപു	-8097
▁വിജ്ഞാന	-8098
ങ്ങളിലേക്കും	-8099
▁is	-8100
ുടനീളം	-8101
▁സമാനമാണ്	-8102
▁തൊഴിലാളികൾ	-8103
▁നടത്തുമ്പോൾ	-8104
പാർ	-8105
ണിയൽ	-8106
പതാം	-8107
ക്കൊണ്ട	-8108
▁തിരിച്ചുവിള	-8109
▁പാർട്ടിയുടെ	-8110
ിയോട്	-8111
▁ജുഡികേറ്റ	-8112
▁ഉന്നയിക്കാൻ	-8113
▁പാലിക്കുന്നു	-8114
ബോ	-8115
രാക	-8116
▁കർഷക	-8117
വർഷത്തെ	-8118
ിലേക്കോ	-8119
▁പ്രസംഗ	-8120
▁കഴിവുള്ള	-8121
▁ആളുകൾക്ക്	-8122
ത്തെത്തുടർന്ന്	-8123
▁മെട്രോപൊളിറ്റ	-8124
▁കൂടിയാലോചിച്ച്	-8125
▁മഹി	-8126
▁അനീതി	-8127
▁വിൽക്കുന്ന	-8128
▁പൊതുജനങ്ങളുടെ	-8129
ികൂ	-8130
ുകാണ	-8131
▁തകർക്ക	-8132
ട്രിബ്യൂ	-8133
▁പന്ത്രണ്ടാം	-8134
▁കാലഘട്ടത്തിൽ	-8135
▁സമർ	-8136
യേക്കാൾ	-8137
▁രാജ്യം	-8138
ങ്ങളെല്ലാം	-8139
▁നടത്താനും	-8140
▁അനുവദിക്കും	-8141
▁അപ്പീലുകളുടെ	-8142
▁പിടിച്ചെടുക്ക	-8143
ിയാൻ	-8144
ാകുമ്പോൾ	-8145
▁സെക്കൻഡറി	-8146
▁വിജയകരമായി	-8147
▁നടപ്പാക്കിയ	-8148
▁സെറ്റിൽമെന്റ്	-8149
▁പ്രവർത്തനത്തിൽ	-8150
തരം	-8151
കർത്ത	-8152
▁ആരാധന	-8153
▁ക്രൈം	-8154
▁പാർക്ക്	-8155
▁പുറത്തു	-8156
▁ഉള്ളതിനാൽ	-8157
▁നിരീക്ഷിച്ചത്	-8158
ായിരുന്നുവെന്ന്	-8159
ഫൈഡ്	-8160
ലിനും	-8161
യുമാണ്	-8162
▁കപ്പൽ	-8163
▁സമൂഹത്തിന്	-8164
▁കൺവെൻഷൻ	-8165
▁പ്രദേശത്തിന്റെ	-8166
▁ഗൗര	-8167
ടിഞ്ഞ	-8168
▁തടാക	-8169
▁ആരാണ്	-8170
▁ദയാവധ	-8171
▁നിരാശ	-8172
▁മുഖർജ	-8173
▁പൂർത്തീകര	-8174
▁പുനരവലോകനം	-8175
സ്സിംഗ്	-8176
▁കോടതികളും	-8177
▁ഡ്രാഫ്റ്റ്	-8178
▁ആരോപണവിധേയമായ	-8179
▁നൽകുന്നതിനായി	-8180
▁പരിശോധനയ്ക്ക്	-8181
മൊ	-8182
തയെ	-8183
ാറിലെ	-8184
▁ഇക്ക	-8185
▁വേതന	-8186
ക്കാലം	-8187
▁ക്ലിയറ	-8188
▁സംരംഭങ്ങൾ	-8189
▁സർക്കാരിൽ	-8190
പിയുടെ	-8191
▁ഉൽപാദ	-8192
ികളിലും	-8193
▁മാരുതി	-8194
പ്പെടില്ല	-8195
▁കാര്യക്ഷമത	-8196
ട്ടില്ലെന്ന്	-8197
▁ഇൻഡസ്ട്രിയൽ	-8198
▁ത്വ	-8199
ിക്കോ	-8200
▁നയപരമായ	-8201
▁തെളിവായി	-8202
ിക്കാമെന്നും	-8203
ിട്ടുണ്ടെങ്കിൽ	-8204
▁സ്ഥാനാർത്ഥികളെ	-8205
▁ഏഷ്യ	-8206
▁വാചകം	-8207
▁മറ്റൊരാൾ	-8208
▁വഹിക്കാൻ	-8209
▁അനുസരിച്ച	-8210
▁ഏറ്റെടുത്തു	-8211
▁ഡിജിറ്റലായി	-8212
▁വീക്ഷണകോണിൽ	-8213
▁ഭർത്താവിന്റെ	-8214
▁സംഭവസ്ഥലത്ത്	-8215
നായുള്ള	-8216
▁കഠിനമായ	-8217
▁ഉചിതമായി	-8218
▁വരുമ്പോൾ	-8219
▁സഹായിക്കും	-8220
ഐഡി	-8221
മുല	-8222
▁ദുരാ	-8223
▁നെഹ്	-8224
ൊക്കെയ	-8225
▁ജനറലിന്റെ	-8226
▁കുറ്റവാളിയുടെ	-8227
ടാ	-8228
ബിയുടെ	-8229
▁ഘടകമാണ്	-8230
▁കുഷ്ഠരോഗ	-8231
▁നികുതിയുടെ	-8232
▁വസ്തുനിഷ്ഠ	-8233
▁നൽകാനാവില്ല	-8234
▁കാരണമാകുന്നു	-8235
hy	-8236
▁അദ	-8237
▁യിൽ	-8238
▁സിജെ	-8239
ിയെയും	-8240
▁മറച്ച	-8241
ടുങ്ങിയ	-8242
ട്രിക്സ്	-8243
യോടൊപ്പം	-8244
▁അഭികാമ്യ	-8245
തലോ	-8246
▁ശരിയല്ല	-8247
▁ചട്ടങ്ങളിൽ	-8248
▁വിട്ടുകൊടു	-8249
▁മെട്രോപൊളിറ്റൻ	-8250
നീതി	-8251
▁മുറ	-8252
▁ആഘാത	-8253
▁ബോണ്ട	-8254
▁കൂടുതലോ	-8255
▁തുകയ്ക്ക്	-8256
▁ദ്വ	-8257
▁ബസ്	-8258
ിതനായ	-8259
ിലൻസ്	-8260
▁നിലപാടാണ്	-8261
മായിരിക്കാം	-8262
▁സമന്വയിപ്പ	-8263
▁മുൻവിധിയോടെ	-8264
കളായ	-8265
ലിനു	-8266
ോർഡ്	-8267
പ്പും	-8268
യോഗ്യ	-8269
രിക്കാൻ	-8270
▁അമിക്ക	-8271
ത്തിലാക്ക	-8272
▁യന്ത്രങ്ങൾ	-8273
▁അവലോകനത്തിന്റെ	-8274
ഉദാ	-8275
സിസ്	-8276
▁നോയിഡ	-8277
▁സ്ക്ര	-8278
ുകൂടാതെ	-8279
▁ചാർട്ട	-8280
▁വാല്യം	-8281
▁ചുമത്താൻ	-8282
▁പ്രയാസമാണ്	-8283
▁പരോ	-8284
പേക്ഷ	-8285
▁നൽകാതെ	-8286
▁അപേക്ഷാ	-8287
▁ആശയങ്ങൾ	-8288
▁സമീപിച്ചു	-8289
▁എത്രത്തോളം	-8290
ിക്കേണ്ടതിന്റെ	-8291
ലാണ്	-8292
ാവും	-8293
കളൊന്നും	-8294
▁ചരിത്രം	-8295
▁കുറ്റപത്ര	-8296
▁വിസ്തീർണ്ണം	-8297
▁rie	-8298
▁ഹാർ	-8299
ാർഹിക	-8300
▁ഒന്നാണ്	-8301
▁സംഭവത്തിൽ	-8302
▁ഘട്ടത്തിലും	-8303
▁ബുദ്ധിമുട്ടുകൾ	-8304
മാർന്ന	-8305
▁നെഗറ്റീവ്	-8306
▁ചെയ്തതുപോലെ	-8307
▁വിദ്യാർത്ഥികൾ	-8308
ൻസുകൾ	-8309
▁റീജിയ	-8310
▁സംസ്കാര	-8311
▁വിസ്താരം	-8312
▁സാർവത്രിക	-8313
▁നിർവചനത്തിൽ	-8314
▁അറ്റകുറ്റപ്പണ	-8315
▁ആശ്രയിക്കുകയും	-8316
ഗെ	-8317
ഷകം	-8318
▁അഭില	-8319
▁കാണാം	-8320
▁ലേഖനം	-8321
യിലേക്കും	-8322
▁അർഹതയുള്ള	-8323
▁പരിപാടികൾ	-8324
▁കണക്കാക്കണം	-8325
▁കാരണമാകുന്ന	-8326
▁മൗലികാവകാശങ്ങൾ	-8327
ണ്ഡല	-8328
▁ദീപ	-8329
▁കൂടുതലാണ്	-8330
▁പോരാ	-8331
ാർത്ഥം	-8332
േറെയായി	-8333
▁വയ്ക്കാൻ	-8334
▁വാദത്തിൽ	-8335
ുന്നതിനാണ്	-8336
▁ഡിസി	-8337
▁കുമ്പ	-8338
ാര്യമായ	-8339
▁റെഡ്ഡി	-8340
▁മറച്ചുവെ	-8341
▁ഉടമയ്ക്ക്	-8342
▁അറിയാവുന്ന	-8343
▁തുറന്നുകൊടു	-8344
▁പിന്തുടരുന്ന	-8345
ലിംഗ	-8346
▁തന്	-8347
ന്ദിര	-8348
വീഴ്ച	-8349
▁പെട്രോളിയം	-8350
▁പ്രോപ്പർട്ട	-8351
▁സന്തോഷമുണ്ട്	-8352
േഷി	-8353
▁ഗംഗ	-8354
▁പരോക്ഷ	-8355
▁ബിസിസി	-8356
▁രേഖകളിൽ	-8357
▁അവാർഡിന്	-8358
▁എന്നിവയ്	-8359
▁പൊതുവായി	-8360
▁വർദ്ധിച്ച	-8361
▁സ്ഥാപനങ്ങൾക്ക്	-8362
ul	-8363
കളാൽ	-8364
▁പ്രാവ	-8365
▁ഒപ്പിട	-8366
▁റെഗുലറ	-8367
▁ക്രമത്തിൽ	-8368
▁അനുവദിക്കുക	-8369
▁സൊസൈറ്റിയുടെ	-8370
▁കൈവശപ്പെടുത്ത	-8371
▁എവി	-8372
▁ഓർമ	-8373
▁പണ്ഡ	-8374
▁വേഗത	-8375
മിക്കൽ	-8376
▁കർത്ത	-8377
▁പിശക്	-8378
▁ലൈസൻസി	-8379
യിലേക്കോ	-8380
▁സ്റ്റാഫ്	-8381
▁അവകാശപ്പെട്ടു	-8382
ിനി	-8383
▁ഗി	-8384
▁ടേ	-8385
പട്ട	-8386
▁ഓടി	-8387
▁ഹാൻഡ്	-8388
▁സഞ്ജയ്	-8389
▁കണ്ടുപി	-8390
▁വേണ്ടത്ര	-8391
▁അംഗങ്ങളും	-8392
▁ഫിനാൻഷ്യൽ	-8393
ിനെക്കുറിച്ച്	-8394
ങ്ങളെക്കുറിച്ചും	-8395
വിഭവ	-8396
്ലീല	-8397
ത്താവ	-8398
▁വികല	-8399
പ്പിന്	-8400
െന്നതിൽ	-8401
▁കൺട്രോള	-8402
▁സമയബന്ധിത	-8403
▁ഗ്രാമത്തിലെ	-8404
▁സൃഷ്ടിക്കാൻ	-8405
▁റദ്ദാക്കുകയും	-8406
▁തെളിവുകളൊന്നും	-8407
ണ്ടു	-8408
പ്യൻ	-8409
▁ഓൺലൈൻ	-8410
▁ബില്ലുകൾ	-8411
▁രോഗിയുടെ	-8412
ക്കേണ്ടതാണ്	-8413
▁കണക്കാക്കാം	-8414
▁അംഗീകരിക്കുന്നു	-8415
▁ക്രിയ	-8416
രഹിതമായ	-8417
▁വർഷത്തില	-8418
▁ഹാജരാകാൻ	-8419
സ്വാതന്ത്ര	-8420
▁ചെയ്തതിന്	-8421
▁തോന്നുന്ന	-8422
ക്കുന്നതിനെ	-8423
▁നിയമസഭയ്ക്ക്	-8424
▁പൊതുപ്രവർത്ത	-8425
കിയ	-8426
▁തഹ	-8427
റാണ്	-8428
▁ചെയ്യാനോ	-8429
▁ഒഴിവാക്കിയ	-8430
▁ജീവനക്കാരന്	-8431
ിൾസ്	-8432
▁ടൂറിസം	-8433
▁പ്രതിഷേധ	-8434
▁സമ്മർദ്ദം	-8435
▁പരിഹാരങ്ങൾ	-8436
▁അൺ	-8437
oundation	-8438
▁കുറ്റങ്ങൾ	-8439
▁നിയോഗിച്ച	-8440
▁അവസാനിക്കുന്ന	-8441
ാവോ	-8442
▁കരി	-8443
▁പരീക്ഷണ	-8444
▁റീഫണ്ട്	-8445
▁അടങ്ങുന്ന	-8446
▁നിർവചിക്കുന്നു	-8447
മയ	-8448
▁ആസി	-8449
▁ജൈവ	-8450
▁പുരുഷ	-8451
▁നിയമമാണ്	-8452
▁പ്രസിഡൻറ്	-8453
▁അക്കാലത്ത്	-8454
▁പിരിച്ചുവി	-8455
▁ആഴത്തിലുള്ള	-8456
▁നിയമിക്കുന്ന	-8457
▁അനുമതിയില്ലാതെ	-8458
ലിലെ	-8459
▁ഗതി	-8460
അതായത്	-8461
▁പ്രസ്	-8462
ആക്റ്റ്	-8463
▁നിവേദന	-8464
▁പ്രസക്തി	-8465
യട	-8466
രാമ	-8467
▁ac	-8468
▁പട്ന	-8469
▁അതിലെ	-8470
▁അപ്രസ	-8471
▁നോക്ക	-8472
ആറിന്റെ	-8473
ത്തുമ്പോൾ	-8474
▁റെഗുലേഷൻസ്	-8475
▁വിമാനത്താവ	-8476
▁വിട്ടുവീഴ്ച	-8477
▁സെക്യൂരിറ്റീസ്	-8478
ക്കിൽ	-8479
▁ഓരോന്ന	-8480
ാതിരുന്ന	-8481
▁അതിക്രമ	-8482
▁ഇടയാക്ക	-8483
▁കത്തുകൾ	-8484
▁നൈപുണ്യ	-8485
▁ആസൂത്രണം	-8486
▁ലോകായുക്ത	-8487
▁സേവനങ്ങളും	-8488
▁ഉപവിഭാഗത്തിൽ	-8489
▁തെറ്റിദ്ധാരണ	-8490
ർഗ	-8491
ിക്കാർ	-8492
▁നിങ്ങളെ	-8493
മൊന്നുമില്ല	-8494
വ്യവസ്ഥയുടെ	-8495
▁അറിയിക്കുകയും	-8496
ൃതി	-8497
▁ശിശു	-8498
▁ഷീറ്റ്	-8499
ക്കുമായി	-8500
▁ദുരാചാര	-8501
▁ഫിനാൻസ്	-8502
▁മാറ്റിയ	-8503
പ്തിയുള്ള	-8504
ിച്ചപ്പോൾ	-8505
▁വികസനത്തിന്	-8506
▁അഭിപ്രായങ്ങൾ	-8507
▁പൗരന്മാർക്ക്	-8508
ോഭ	-8509
▁അസ്	-8510
നിയും	-8511
സ്ഥലം	-8512
▁സത്ത	-8513
▁ഗതാഗതം	-8514
▁പ്രശസ്ത	-8515
▁വിജിലൻസ്	-8516
▁കോർപ്പറേഷന	-8517
▁ഉചിതമായിരിക്കും	-8518
▁്	-8519
ങ്കൽപ്പ	-8520
▁സ്വർണ്ണ	-8521
▁അസസ്സിംഗ്	-8522
▁ബാധിക്കില്ല	-8523
▁സന്തുലിതാവസ്ഥ	-8524
.]	-8525
▁രൂപം	-8526
▁പ്രോജക്ട്	-8527
▁മേഖലകളിലെ	-8528
▁ഇന്ത്യക്ക്	-8529
▁ശ്രമിക്കുന്ന	-8530
,“	-8531
▁th	-8532
ട്ടം	-8533
മേഴ്	-8534
▁നിമി	-8535
നെറ്റ്	-8536
▁ഭാഗമോ	-8537
താണെന്ന	-8538
▁ആന്ധ്ര	-8539
▁വെടിയുണ്ട	-8540
▁നിയന്ത്രിത	-8541
▁വിസമ്മതിച്ച	-8542
▁പരാമർശിക്കാം	-8543
▁പ്രസ്താവനയുടെ	-8544
ന്തി	-8545
വിഷയ	-8546
ബന്ധം	-8547
▁ലൈസൻ	-8548
▁കാണുന്നു	-8549
▁വികസനവും	-8550
▁അന്യായമായ	-8551
▁ചട്ടക്കൂട	-8552
▁ഒഴിവാക്കുക	-8553
മുറ	-8554
▁ആധികാര	-8555
യില്ലെന്നും	-8556
ശയ	-8557
മാറ	-8558
ജ്യം	-8559
▁nan	-8560
▁ഡ്രൈവ	-8561
▁നടത്തണം	-8562
▁ഫ്ലാറ്റ്	-8563
ത്തിൻറെയും	-8564
▁മനസ്സിന്റെ	-8565
▁ഉദ്ദേശ്യങ്ങൾ	-8566
▁ഉദ്യോഗസ്ഥരും	-8567
▁ട്രസ്റ്റിന്റെ	-8568
ri	-8569
▁തഹസിൽ	-8570
▁അൾട്രാ	-8571
▁അഹമ്മദ്	-8572
▁ഷെയർഹോൾ	-8573
▁വർഗ്ഗീകരണം	-8574
▁പ്രാമാണീകരണ	-8575
▁സ്ഥാപിക്കുക	-8576
▁വിശ്വസിക്കാൻ	-8577
▁അയൽ	-8578
ുന്നതുമായി	-8579
▁സർക്കാരിനു	-8580
▁വസ്തുക്കളുടെയും	-8581
ടിത	-8582
▁വട	-8583
സിയും	-8584
െയുടെ	-8585
▁ഭീകര	-8586
▁ഭാവിയിലെ	-8587
▁ബാധ്യസ്ഥര	-8588
▁ഓപ്പറേറ്റർ	-8589
▁st	-8590
ായും	-8591
സ്ത്ര	-8592
▁സംഘം	-8593
രുകയും	-8594
▁വിധിക	-8595
ണിക്കേഷൻ	-8596
▁വായിക്കാൻ	-8597
▁എന്നിങ്ങനെ	-8598
▁കടക്കാരന്റെ	-8599
▁അടയ്ക്കുന്നതിന്	-8600
ഡഡ്	-8601
▁ഹർ	-8602
ാന്ത്	-8603
▁യോജി	-8604
▁നടക്ക	-8605
▁കാലാവധ	-8606
▁ഗാർഹിക	-8607
▁വരെയും	-8608
▁സംശയിക്ക	-8609
▁ഐക്യരാഷ്ട്ര	-8610
▁പ്രത്യാഘാതങ്ങൾ	-8611
▁മിൽ	-8612
▁ഫാർമ	-8613
▁മീറ്റ	-8614
▁ആർബിട്രൽ	-8615
▁മാനദണ്ഡം	-8616
പ്പെടുന്നതിന്	-8617
▁അവകാശപ്പെട്ട	-8618
▁പറയപ്പെടുന്നു	-8619
ൊഴില	-8620
▁കാൻ	-8621
▁പേറ്റന്റ	-8622
▁പ്രതികളും	-8623
▁സാങ്കൽപ്പ	-8624
▁ഉത്തരവിനും	-8625
ങ്ങൾക്കിടയിൽ	-8626
ഴു	-8627
കണ്	-8628
▁ബേ	-8629
പരമോ	-8630
ക്രിപ്	-8631
യെങ്കിലും	-8632
▁കൈക്കൂലി	-8633
ത്തേക്കുള്ള	-8634
▁അടുത്തുള്ള	-8635
▁ആരംഭിക്കാൻ	-8636
ാതിരിക്കുകയും	-8637
വള	-8638
ഐസി	-8639
ൻസിൽ	-8640
ൾച്ച	-8641
▁സെർ	-8642
▁ഉടലെ	-8643
▁ട്യൂ	-8644
▁അവാർഡ	-8645
▁ഇടപഴക	-8646
▁സമീപം	-8647
▁എഫ്ഐആർ	-8648
▁മനോഭാവ	-8649
▁കടക്കാരൻ	-8650
▁വിഷയങ്ങൾ	-8651
▁വിവരാവകാശ	-8652
▁അന്തരീക്ഷം	-8653
▁നിയമപ്രകാര	-8654
▁ആശ്രയിക്കുന്നത്	-8655
२२	-8656
നർ	-8657
യിത	-8658
സിയെ	-8659
▁മത്സ്യ	-8660
▁നടത്താം	-8661
▁കമ്മീഷനെ	-8662
▁ബ്രാഞ്ച്	-8663
▁മടക്കിനൽക	-8664
▁മനസിലാക്കാൻ	-8665
▁ന്നിപ്പറഞ്ഞു	-8666
▁ശ്രദ്ധേയമാണ്	-8667
▁ഷെഡ്യൂളിന്റെ	-8668
arm	-8669
▁ബസ	-8670
▁ഭവ	-8671
ഡ്സ്	-8672
▁ആധി	-8673
▁ശാഖ	-8674
▁കേസാണ്	-8675
▁വിവരണം	-8676
▁നമ്പറിൽ	-8677
▁പലിശയും	-8678
▁വരുന്നത്	-8679
▁ഉണ്ടെന്നും	-8680
▁കേന്ദ്രങ്ങൾ	-8681
ജോ	-8682
▁00	-8683
▁സംഗ	-8684
▁മേമൻ	-8685
▁ആരുടെ	-8686
▁ഇരയായ	-8687
▁മേഖലകൾ	-8688
▁ശേഷവും	-8689
▁സൈറ്റ്	-8690
▁അമ്മായി	-8691
▁ബ്രാഞ്ച	-8692
▁മധ്യസ്ഥ	-8693
▁കൊണ്ടുവര	-8694
▁എടുത്തുകള	-8695
▁മുമ്പുതന്നെ	-8696
പേജ്	-8697
മിഷൻ	-8698
▁റായ്	-8699
▁സമാഹ	-8700
▁നിരന്തരം	-8701
▁പരിധിക്കുള്ളിൽ	-8702
്യൺ	-8703
രെയും	-8704
തിയാണ്	-8705
▁അഫിലിയ	-8706
▁അശ്ലീല	-8707
താണെങ്കിൽ	-8708
▁സംഭവത്തിന്	-8709
▁ധാതുക്കളുടെ	-8710
▁നൽകുന്നതിനും	-8711
ട്രാക്റ്റുചെയ്യ	-8712
▁വ്യവഹാരത്തിന്റെ	-8713
▁വിധവ	-8714
റ്റിനെ	-8715
▁ദൃക്സാ	-8716
▁ഫ്രെയി	-8717
ിനായുള്ള	-8718
▁സാക്ഷാത്	-8719
▁വിശദാംശങ്ങളും	-8720
പ്പെടുത്തുമ്പോൾ	-8721
ബിയ	-8722
▁വലതു	-8723
▁പ്രൈമ	-8724
▁ശരിക്കും	-8725
▁ലഭിക്കാത്ത	-8726
▁ചെയ്യുമെന്ന്	-8727
▁ജീവനക്കാരന്റെ	-8728
▁CA	-8729
▁നു	-8730
▁പകു	-8731
▁ആരും	-8732
ത്തിനക	-8733
▁ജയിലിൽ	-8734
▁അമിക്കസ്	-8735
▁കോൺസ്റ്റ	-8736
▁വീടിന്റെ	-8737
▁ഗ്രാമത്തിൽ	-8738
▁ഇൻഡസ്ട്രീസ്	-8739
വാള	-8740
ment	-8741
▁ലോർഡ്	-8742
▁വിട്ടയ	-8743
▁യാന്ത്ര	-8744
▁വിശിഷ്ട	-8745
▁എന്നതിനെ	-8746
▁തീയതിയും	-8747
▁യോഗ്യതയും	-8748
▁അതിനുശേഷമോ	-8749
▁നിലനിൽപ്പ്	-8750
▁പര്യാപ്തമല്ല	-8751
▁പിടിച്ചെടുക്കൽ	-8752
ിഡ്	-8753
നല്ല	-8754
▁അതിനുള്ള	-8755
▁ന്യൂഡൽഹിയിലെ	-8756
▁വായിക്കുകയും	-8757
ുകളെക്കുറിച്ച്	-8758
▁ഇടവേ	-8759
▁എൻറോൾ	-8760
▁അധ്യയന	-8761
▁സഭയുടെ	-8762
ത്തകർച്ച	-8763
ുകയുള്ളൂ	-8764
▁മുഹമ്മദ	-8765
▁പരാതിയുടെ	-8766
▁ഉപയോഗിച്ചു	-8767
കേ	-8768
ബീർ	-8769
▁counsel	-8770
▁കരാറുകാരൻ	-8771
▁ആത്മവിശ്വാസം	-8772
▁വയ്ക്കാനുള്ള	-8773
▁സോഫ്റ്റ്വെയർ	-8774
▁സംസ്ഥാനങ്ങൾക്ക്	-8775
മല	-8776
നാക	-8777
▁ഹേ	-8778
▁തീർ	-8779
ഡോയിൽ	-8780
സിനും	-8781
▁വേർപ	-8782
▁മിച്ച	-8783
▁യൂറോപ്യൻ	-8784
▁വ്യായാമം	-8785
▁പട്ടികവർഗ്ഗ	-8786
▁കഴിവില്ലായ്മ	-8787
ഗർഭ	-8788
മർഹ	-8789
▁കാൽ	-8790
▁റാമ	-8791
യോടും	-8792
വത്കര	-8793
വിതീയ	-8794
▁ന്യായയുക്ത	-8795
▁ഉദാഹരണത്തിൽ	-8796
▁വ്യവസ്ഥയ്ക്ക്	-8797
▁അവകാശപ്പെടുന്നു	-8798
ന്നത	-8799
▁അപാക	-8800
▁പ്രിവ	-8801
▁പരിചരണ	-8802
▁സിങ്ങിനെ	-8803
▁സുരക്ഷയും	-8804
▁നടപടിയെടുക്കാൻ	-8805
വസര	-8806
▁ആറ	-8807
▁സിസി	-8808
▁ആമുഖം	-8809
▁ബുക്ക്	-8810
▁സംരംഭക	-8811
രിക്കുകയും	-8812
▁പ്രാക്ടീഷ	-8813
▁നിക്ഷേപിച്ച	-8814
▁പ്രാധാന്യമർഹ	-8815
▁ലെഫ്റ്റനന്റ്	-8816
▁കോഗ്	-8817
വർക്കും	-8818
▁പാട്ടം	-8819
▁സ്റ്റെ	-8820
▁എതിർത്തു	-8821
▁കുറ്റമാണ്	-8822
ിക്കുന്നുവെന്നും	-8823
ർഘ	-8824
▁അതും	-8825
▁ഇൻപു	-8826
▁വന്യ	-8827
▁അപകടം	-8828
പ്പെടണം	-8829
▁ഗവേഷണം	-8830
▁ഫലപ്രാ	-8831
▁നിരോധനം	-8832
▁പോർട്ട്	-8833
▁വിഭവങ്ങൾ	-8834
ത്തിലേക്കും	-8835
▁പ്രക്രിയയെ	-8836
▁മരിച്ചയാളെ	-8837
▁ആനുകൂല്യങ്ങളും	-8838
ാഥ	-8839
വിവര	-8840
▁പീഡന	-8841
▁കമ്പനിയിൽ	-8842
▁വാക്കിന്റെ	-8843
▁തത്വങ്ങളുടെ	-8844
▁ബന്ധവുമില്ല	-8845
ഡൻ	-8846
▁സത	-8847
####	-8848
യെയോ	-8849
ങ്ങളോടെ	-8850
▁ഇരുമ്പ്	-8851
▁നിയമവുമായി	-8852
▁വിസമ്മതിച്ചു	-8853
▁പൊതുജനങ്ങൾക്ക്	-8854
ൊക്കെയാണെങ്കിലും	-8855
മിയ	-8856
മേശ്	-8857
▁ആധിപ	-8858
▁കൊടു	-8859
▁സെസ്	-8860
ത്തീസ്	-8861
▁അനുമാനം	-8862
പ്പറേറ്റീവ്	-8863
▁സമർപ്പണത്തെ	-8864
▁ഹൈക്കോടതികൾ	-8865
,,	-8866
കണ്ഠ	-8867
▁വക്ഫ്	-8868
▁ഉത്തരവിട്ടു	-8869
▁കാര്യങ്ങളിലും	-8870
ഗി	-8871
▁on	-8872
▁പിടികൂ	-8873
നാണെന്ന്	-8874
▁ഫാക്ടറി	-8875
▁പ്രസ്ഥാന	-8876
ത്തിലേക്കുള്ള	-8877
ക്ടി	-8878
▁ലിങ്ക	-8879
ത്തീസ്ഗ	-8880
ിലേന്ത്യ	-8881
▁ആർക്കും	-8882
▁മാനുഷിക	-8883
▁അന്തസ്സ്	-8884
▁കുമ്പസാര	-8885
▁നൽകേണ്ടത്	-8886
▁എടുത്തുകാണ	-8887
▁കാരണങ്ങളും	-8888
▁കമ്മിറ്റിക്ക്	-8889
▁വീതം	-8890
▁വർമ്മ	-8891
അനുബന്ധ	-8892
▁സൗകര്യം	-8893
▁ഇടുങ്ങിയ	-8894
▁നിഷേധിച്ചു	-8895
▁പ്രശ്നങ്ങളും	-8896
▁സ്വീകാര്യമായ	-8897
Cr	-8898
vii	-8899
▁യോഗം	-8900
▁സ്നേഹ	-8901
▁അവകാശി	-8902
▁ഒന്നിൽ	-8903
▁കേസിന്	-8904
▁ചെയ്യൽ	-8905
സ്റ്റിക്	-8906
▁സമയങ്ങളിൽ	-8907
▁നിവേദനത്തിൽ	-8908
▁പരിഗണനയ്ക്ക്	-8909
▁പരിഗണിക്കേണ്ട	-8910
▁പരാജയപ്പെടുന്നു	-8911
ഗോപ	-8912
വരെയും	-8913
▁വിഭാഗങ്ങളിൽ	-8914
▁മത്സരിക്കുന്ന	-8915
ലാംഗ	-8916
▁കീഴ്	-8917
പ്രധാന	-8918
സംരക്ഷ	-8919
▁അതിവേ	-8920
▁ഇന്നൊ	-8921
▁ഏജൻസികൾ	-8922
▁കഴിവുകൾ	-8923
▁നിഷ്ക്രിയ	-8924
▁ഉത്തരവിട്ട	-8925
▁വിപുലീകരണം	-8926
▁തീരുമാനമെടുക്ക	-8927
വാന	-8928
▁കരക	-8929
കല്യം	-8930
േശ്വർ	-8931
▁സത്യം	-8932
▁അഭ്യാസ	-8933
▁സെറ്റ്	-8934
▁എടുത്തു	-8935
▁ാർഖണ്ഡ്	-8936
▁കാഴ്ചപ്പ	-8937
▁വീട്ടിലെ	-8938
▁അനാവശ്യമായ	-8939
▁കുറ്റക്കാര	-8940
▁ആരംഭിക്കുകയും	-8941
▁തർക്കത്തിന്റെ	-8942
നുവേണ്ടി	-8943
▁ഓഫീസിലെ	-8944
▁തൊഴിലവസര	-8945
▁നടത്തുകയോ	-8946
▁അഖിലേന്ത്യ	-8947
▁സാങ്കൽപ്പിക	-8948
▁ബാധകമല്ലെന്ന്	-8949
ദേവ്	-8950
▁ദൂര	-8951
▁ഗൗരവ	-8952
ചന്ദ്ര	-8953
▁രചയിത	-8954
▁ആസ്തികൾ	-8955
▁ദിവസത്തിൽ	-8956
▁മുന്നേറ്റ	-8957
▁അക്കൗണ്ടിൽ	-8958
▁സംവിധാനങ്ങൾ	-8959
▁വ്യാപാരമുദ്ര	-8960
▁phy	-8961
െന്നോ	-8962
▁രോഗം	-8963
▁ഓപ്പറേഷൻ	-8964
▁പോകുന്നു	-8965
▁വാണിജ്യം	-8966
▁പ്രയോജനകരമായ	-8967
തക	-8968
ഷൺ	-8969
ജിയുടെ	-8970
▁തന്മൂലം	-8971
▁ഉൾപ്പെടും	-8972
▁പ്രതികരണം	-8973
▁വർഗ്ഗീകരണ	-8974
▁വർഷങ്ങളായി	-8975
▁നൽകേണ്ടതാണ്	-8976
▁അനന്തരഫലമായി	-8977
▁വിജ്ഞാപനത്തിൽ	-8978
ുടേ	-8979
▁എഡി	-8980
▁കന്ന	-8981
▁ഒപ്പി	-8982
▁നിമിഷ	-8983
▁ഫോർമുല	-8984
ാവിരുദ്ധ	-8985
▁എന്നതിന	-8986
▁പ്രതിവാദ	-8987
▁വായിച്ചാൽ	-8988
ാനിരിക്കുന്ന	-8989
▁സംസ്ഥാനങ്ങളും	-8990
യാൽ	-8991
▁നരി	-8992
sical	-8993
▁ചന്ദ്	-8994
▁അഭിമാന	-8995
▁ആളുകളെ	-8996
ോളജിക്കൽ	-8997
സ്ത്രക്രിയ	-8998
▁ന്യായാധിപ	-8999
▁ഭേദഗതിയുടെ	-9000
▁രാജ്യങ്ങളും	-9001
▁അന്വേഷിക്കാൻ	-9002
▁കാര്യങ്ങളുടെ	-9003
▁അത്തരത്തിലുള്ള	-9004
it	-9005
xx	-9006
ോൺ	-9007
വശാൽ	-9008
▁അഗർ	-9009
▁ത്ര	-9010
ക്കാരെ	-9011
▁മുസ്ല	-9012
റിലേക്ക്	-9013
▁സീറ്റുകൾ	-9014
▁എല്ലാവരും	-9015
▁കാലാവസ്ഥാ	-9016
മാക്കുന്നതിനും	-9017
▁മൂല്യത്തകർച്ച	-9018
▁തിരഞ്ഞെടുപ്പിൽ	-9019
▁രേഖപ്പെടുത്താൻ	-9020
ഗൂ	-9021
ിയാൽ	-9022
▁അനിൽ	-9023
▁അറുപ	-9024
േഷനായി	-9025
ുവേണ്ടി	-9026
▁അധികൃത	-9027
▁ശിക്ഷാന	-9028
▁ഏഴാമത്തെ	-9029
വുമില്ലാതെ	-9030
▁മതത്തിന്റെ	-9031
▁അപേക്ഷിച്ച്	-9032
▁വൈവിധ്യമാർന്ന	-9033
▁ഭരണഘടനാവിരുദ്ധ	-9034
ബില	-9035
ിയു	-9036
മറ്റ	-9037
ഭരണഘടന	-9038
▁physical	-9039
▁ഘടകങ്ങളും	-9040
▁മാർക്കറ്റിംഗ്	-9041
ിക്കുന്നതിനിടയിൽ	-9042
എയിൽ	-9043
ൻസസ്	-9044
▁കഴി	-9045
▁നായി	-9046
ുകളിലോ	-9047
▁പൊള്ള	-9048
▁സഹോദരി	-9049
▁കഴിഞ്ഞ്	-9050
▁ക്ലയന്റ	-9051
▁ഉചിതമാണ്	-9052
▁ബന്ധങ്ങൾ	-9053
▁ചെയ്തില്ല	-9054
▁ശരിയാണെന്ന്	-9055
അവ	-9056
പീ	-9057
ായോ	-9058
▁ടെൻഡ	-9059
▁മോഡൽ	-9060
▁ധാരണാപ	-9061
വൽക്കരണം	-9062
▁തലസ്ഥാന	-9063
▁മഹത്തായ	-9064
▁ഇല്ലെന്നും	-9065
▁വകുപ്പുകളിൽ	-9066
▁കേസുകളുടെയും	-9067
▁ജീവിക്കാനുള്ള	-9068
▁ഇത്തരത്തിലുള്ള	-9069
രേഖ	-9070
്രു	-9071
▁org	-9072
▁ദ്ര	-9073
▁ഫാമ	-9074
ച്ചിൽ	-9075
▁കിംഗ്	-9076
▁നയിച്ചു	-9077
ിച്ചതിനാൽ	-9078
▁ദുരുപയോഗ	-9079
ത്തിനുമുള്ള	-9080
മൽ	-9081
▁--	-9082
സ്കോ	-9083
▁SCR	-9084
▁വനം	-9085
▁അംഗങ്ങള	-9086
▁സ്റ്റാഫ	-9087
▁ആരോപിച്ച്	-9088
▁ജില്ലയിലെ	-9089
▁ആത്മവിശ്വാസ	-9090
▁റിപ്പോർട്ടും	-9091
▁കണ്ടെത്തുന്നു	-9092
▁പൊരുത്തക്കേടുകൾ	-9093
ുതല	-9094
ലങ്ക	-9095
ത്രയും	-9096
▁നിവാസ	-9097
▁അനുകമ്പ	-9098
▁വികലാംഗ	-9099
▁വൈകല്യം	-9100
▁പിന്നിലെ	-9101
▁ഉള്ളടക്കം	-9102
▁ചെയ്യരുത്	-9103
▁അറിയിക്കാൻ	-9104
▁നടപ്പാക്കൽ	-9105
▁സംയുക്തമായി	-9106
▁വാദിക്കുകയും	-9107
▁സംഭവത്തിന്റെ	-9108
കാണ	-9109
ാജി	-9110
▁കിര	-9111
ടിയിൽ	-9112
▁തെരു	-9113
ഹ്രസ്വ	-9114
▁മെക്ക	-9115
▁കൊണ്ട്	-9116
▁സമ്പാദ	-9117
▁പരിക്കേ	-9118
▁പിസ്റ്റ	-9119
▁ആകർഷിച്ചു	-9120
▁വിധികർത്ത	-9121
▁മാസത്തേക്ക്	-9122
േണ്ടതുണ്ടെന്ന്	-9123
▁കുറ്റകൃത്യത്തിൽ	-9124
ലു	-9125
ാദേശ	-9126
▁ഡിഗ്രി	-9127
▁ദുരന്ത	-9128
▁ടെലിഫോൺ	-9129
▁നേരുന്നു	-9130
▁വായിക്കുക	-9131
▁വെട്ടിക്ക	-9132
▁ചട്ടക്കൂട്	-9133
▁ഫലപ്രാപ്തി	-9134
▁പ്	-9135
▁നിഘ	-9136
ട്ടിന്	-9137
ട്ടുപി	-9138
▁വികാര	-9139
▁പേർക്ക്	-9140
▁എന്റിറ്റ	-9141
▁എന്നതിനാൽ	-9142
▁തലക്കെട്ടിൽ	-9143
ഷർ	-9144
▁അയയ്	-9145
▁കേടു	-9146
▁പേഴ്	-9147
▁മനോഹ	-9148
▁തിരയൽ	-9149
▁ബുള്ള	-9150
▁ബോംബ്	-9151
ാലിറ്റി	-9152
▁ഗ്യാസ്	-9153
▁ഉത്പാദനം	-9154
▁വാഹനങ്ങൾ	-9155
▁വകുപ്പുതല	-9156
▁കൊണ്ടുവരാൻ	-9157
▁കണക്കാക്കാൻ	-9158
▁ശസ്ത്രക്രിയ	-9159
▁പ്രസ്താവനയും	-9160
▁വർദ്ധിച്ചുവര	-9161
ാഗ്	-9162
▁ഭൂഗർഭ	-9163
▁മേത്ത	-9164
▁അവസാനം	-9165
▁സ്വന്തമായി	-9166
▁കണക്കാക്കുന്നത്	-9167
▁ശീർഷകം	-9168
▁സബ്സിഡ	-9169
▁കോർട്ട്	-9170
▁ആണെന്നും	-9171
ണമെങ്കിലും	-9172
▁നൽകാമെന്ന്	-9173
▁സംരക്ഷിക്കുക	-9174
▁മൂല്യത്തിന്റെ	-9175
▁പങ്കെടുക്കുന്ന	-9176
▁ആവശ്യപ്പെടുകയും	-9177
മറ	-9178
ോം	-9179
▁പെൻഷന	-9180
▁പഠിപ്പ	-9181
▁വിളിച്ചു	-9182
▁സ്ഥാനക്കയറ്റ	-9183
▁രക്തം	-9184
വകുപ്പ്	-9185
▁സന്ദർഭം	-9186
▁കേസുമായി	-9187
▁പാർപ്പിട	-9188
▁പ്രവർത്തനക്ഷമ	-9189
;&#	-9190
നിയമം	-9191
▁എഴുത്ത	-9192
▁ന്യായവും	-9193
▁നിയമത്തിലും	-9194
▁വെട്ടിക്കുറ	-9195
ിക്കുന്നതുമായി	-9196
ag	-9197
▁:,	-9198
▁കോഡ	-9199
▁ദേവ	-9200
കമാണ്	-9201
▁നാഗ്	-9202
▁വിഭവശ	-9203
▁ലാഭവും	-9204
▁കണ്ടുകെ	-9205
▁ഡിജിറ്റൽ	-9206
▁കടന്നുപോക	-9207
▁വേണമെങ്കിലും	-9208
▁ടു	-9209
▁മധ	-9210
▁കോസ്	-9211
മാകില്ല	-9212
▁ഇനിയും	-9213
ണ്ടെങ്കിൽ	-9214
▁ഉരുത്തിരിഞ്ഞ	-9215
▁മുക	-9216
ണ്ടാമ	-9217
ൻസിക്	-9218
ഭാഗവും	-9219
ലുകളിൽ	-9220
ീർപ്പ്	-9221
▁തടയുക	-9222
▁നൽകാനോ	-9223
▁ക്രിക്ക	-9224
ദ്ദേശങ്ങൾ	-9225
ത്തിലൂടെയോ	-9226
▁കോർപ്പറേഷന്	-9227
▁സംശയത്തിന്റെ	-9228
പൊതു	-9229
ലുമായി	-9230
▁ദക്ഷി	-9231
▁മുക്ത	-9232
▁റെൻഡർ	-9233
▁ശീർഷക	-9234
▁സീറ്റ	-9235
▁സൂര്യ	-9236
▁പ്രഭാവം	-9237
▁പരിഹരിക്കാൻ	-9238
▁പ്രയോഗക്ഷമത	-9239
▁സമർപ്പിക്കലുകൾ	-9240
▁അൻസ	-9241
▁പര്യവ	-9242
ചികിത്സ	-9243
യല്ലാതെ	-9244
▁പരിവർത്തന	-9245
പ്പെടുത്തുക	-9246
▁ഒത്തുതീർപ്പ്	-9247
▁പിന്തുടരുന്നു	-9248
നാശ	-9249
▁har	-9250
ാന്റെ	-9251
▁ഭൂഷൺ	-9252
▁വായു	-9253
ാരോഗ്യ	-9254
ത്തോടും	-9255
▁ആശ്രിത	-9256
▁മതിയാക	-9257
▁ലൈറ്റ്	-9258
ിരിക്കണം	-9259
▁ഉടമയുടെ	-9260
▁പഞ്ചനാമ	-9261
ിയാണെന്നും	-9262
▁ഡിസ്ട്രിക്	-9263
▁രണ്ടാമത്തേത്	-9264
ON	-9265
ഹരി	-9266
െക്സ്	-9267
▁കളങ്ക	-9268
▁മെഗാവാ	-9269
▁വാറന്റ	-9270
▁പൊതുസേവക	-9271
▁ശതമാനവും	-9272
▁പാലിക്കാൻ	-9273
▁മാറ്റിവയ്	-9274
▁വർഷത്തിന്	-9275
▁അഖിലേന്ത്യാ	-9276
ിക്കുന്നതിനാണ്	-9277
▁വ്യവസായത്തിന്റെ	-9278
▁,.	-9279
ാകർതൃ	-9280
ളമുള്ള	-9281
▁ഐബിഡ്	-9282
▁സൂപ്രണ്ട	-9283
▁സ്ത്രീയുടെ	-9284
▁രൂപപ്പെടുത്തിയി	-9285
▁to	-9286
▁IST	-9287
▁തൂക്ക	-9288
▁കർത്തൃ	-9289
▁ഭാഗവും	-9290
▁മേഘാലയ	-9291
▁വൈദ്യുത	-9292
▁അറസ്റ്റില	-9293
▁കക്ഷിയുടെ	-9294
▁കഴിയുമായി	-9295
▁കുറ്റബോധം	-9296
▁അപേക്ഷകളും	-9297
▁സെക്രട്ടേറിയ	-9298
േണ്ടതുണ്ടെന്നും	-9299
▁ഹൈക്കോടതികളുടെ	-9300
▁നടപ്പാക്കാനുള്ള	-9301
uot	-9302
▁ഹർജ	-9303
ജിപ്പ	-9304
▁അതിരു	-9305
▁ജഡ്ജ്	-9306
▁വർക്ക	-9307
▁നിശ്ചയ	-9308
▁വെണ്ടർ	-9309
▁കേന്ദ്രം	-9310
▁ഫോറൻസിക്	-9311
▁ചെയ്തപ്പോൾ	-9312
▁എന്നിവർക്ക്	-9313
▁പ്രാർത്ഥിച്ചു	-9314
▁സാഹചര്യങ്ങളുടെ	-9315
ഫാ	-9316
ട്ടാൻ	-9317
ിയ്ക്ക്	-9318
▁അബ്ദുൾ	-9319
▁നൽകുകയോ	-9320
▁പരീക്ഷാ	-9321
▁അമ്മായിയ	-9322
▁ദാരിദ്ര്യ	-9323
▁സാക്ഷാത്കര	-9324
IC	-9325
ൂരിൽ	-9326
▁acc	-9327
ദ്ദീൻ	-9328
ൻസിന്	-9329
▁യുഎൻ	-9330
ഹമ്മദാ	-9331
▁അലോട്ട	-9332
▁ഭരണഘടനയെ	-9333
▁കക്ഷിക്ക്	-9334
▁തസ്തികയിൽ	-9335
▁സ്റ്റേറ്റ	-9336
ട്ടില്ലാത്ത	-9337
ായിരുന്നില്ല	-9338
▁എന്നിവയ്ക്ക	-9339
▁മിന	-9340
ുമല്ല	-9341
▁ചേരി	-9342
▁സെല്ല	-9343
ുമുണ്ട്	-9344
▁സ്ഥലവും	-9345
▁സഹായിക്ക	-9346
▁പാർട്ടികളുടെ	-9347
▁റിവിഷൻ	-9348
ത്തിനിടയിൽ	-9349
▁ചർച്ചയുടെ	-9350
▁വിലമതിക്ക	-9351
▁നൽകുമെന്ന്	-9352
▁പിതാവിന്റെ	-9353
▁കാഴ്ചപ്പാടുകൾ	-9354
▁അപ്പീലുകൾക്കായി	-9355
ജൻ	-9356
▁മൈസ	-9357
▁വയസ്സ	-9358
▁ഇന്ദിര	-9359
▁ദുബായി	-9360
▁നിറഞ്ഞ	-9361
ിക്കൊണ്ട	-9362
RA	-9363
ിൻ	-9364
നാൽ	-9365
▁എന	-9366
▁മകൾ	-9367
ത്മകത	-9368
റിയാൻ	-9369
▁മോഡ്	-9370
ഡിയുടെ	-9371
▁ഇനങ്ങൾ	-9372
▁ഗതിയിൽ	-9373
തിനാലാണ്	-9374
▁ജഡ്ജിയും	-9375
സ്യൂ	-9376
ൊപ്പ	-9377
▁വാസ	-9378
▁തത്സ	-9379
ഞ്ജിത്	-9380
▁എതിരെ	-9381
▁വിശകലന	-9382
▁അന്തരിച്ച	-9383
▁ചെലവഴിച്ച	-9384
▁തർക്കവിഷയ	-9385
▁ഭാഗികമായോ	-9386
▁മൂല്യങ്ങൾ	-9387
▁രക്ഷാകർതൃ	-9388
▁വിളിക്കാൻ	-9389
▁പാലിക്കേണ്ട	-9390
▁നടപടിക്രമങ്ങളും	-9391
നിസ	-9392
പൂർണ്ണ	-9393
▁ഇതിനാൽ	-9394
▁ബ്രോക്ക	-9395
സമയങ്ങളിൽ	-9396
▁പ്രതിഫലം	-9397
▁ഓർഗനൈസേഷൻ	-9398
▁വ്യക്തികളും	-9399
ൂസ	-9400
ട്സ്	-9401
വനും	-9402
കാണുക	-9403
▁ശുചി	-9404
▁ഗോപാൽ	-9405
▁സപ്പ്	-9406
മെന്റും	-9407
തുകൊണ്ട്	-9408
▁കക്ഷികള	-9409
▁ചേർന്ന്	-9410
▁പക്ഷപാത	-9411
▁വ്യവസായങ്ങൾ	-9412
▁സ്ഫോടകവസ്തു	-9413
▁സർക്കാറിന്റെ	-9414
െടുക്കുന്നതിന്	-9415
മൂ	-9416
▁ആസിഡ്	-9417
▁വിവരമ	-9418
▁ഇടത്തരം	-9419
▁എവിഡൻസ്	-9420
▁അഭിഭാഷകനും	-9421
പ്രേ	-9422
▁ബിരുദം	-9423
അനുബന്ധം	-9424
▁പുതുക്കൽ	-9425
ത്തോടൊപ്പം	-9426
▁വധശിക്ഷയ്ക്ക്	-9427
▁വ്യവസ്ഥകൾക്കും	-9428
▁തീർപ്പാക്കുന്നു	-9429
എഎ	-9430
▁നൃ	-9431
ലോക്കു	-9432
▁കൂടാത്ത	-9433
▁സജ്ജീകര	-9434
▁ഇലക്ട്രി	-9435
ous	-9436
കാർ	-9437
ണവും	-9438
മാത്ര	-9439
▁ഉപസം	-9440
▁എഴുത	-9441
▁അടിവര	-9442
ച്ചെലവ്	-9443
പൂർവമായ	-9444
▁ഡവലപ്പർ	-9445
▁ഫോറസ്റ്റ്	-9446
▁നിക്ഷിപ്തമായി	-9447
▁നിഗമനത്തിലേക്ക്	-9448
▁ഉയര	-9449
▁വീഴ	-9450
വികാസ	-9451
▁സെന്റി	-9452
▁ജോലിയിൽ	-9453
അപ്പീലുകൾ	-9454
▁സംഭവവികാസ	-9455
▁ഖണ്ഡികയിലെ	-9456
▁ബന്ധത്തിന്റെ	-9457
▁അടിസ്ഥാനത്തില	-9458
▁ഇന്ത്യയിലേക്ക്	-9459
വില	-9460
▁പരു	-9461
▁ടെൻഡർ	-9462
▁തുകയിൽ	-9463
▁വരില്ല	-9464
▁ആശയക്കു	-9465
▁കുറിച്ച	-9466
▁ഉണ്ടാകാം	-9467
▁പുറത്തെടു	-9468
▁എന്തായാലും	-9469
▁നാൽ	-9470
▁സമയാ	-9471
▁ഒൻപതാം	-9472
▁സൗത്ത്	-9473
▁നേടുന്ന	-9474
▁അഭിഭാഷകനെ	-9475
▁ക്യാപിറ്റൽ	-9476
▁വിധിന്യായങ്ങളും	-9477
റിയി	-9478
▁ഉത്തരാ	-9479
▁പരാജയം	-9480
തിയുമായി	-9481
ക്കുമ്പോഴ	-9482
▁ഷീ	-9483
ഴ്സ്	-9484
▁രാജി	-9485
▁അവാര്	-9486
▁പ്രകോപ	-9487
▁സമാനമായി	-9488
▁വസ്തുവകകൾ	-9489
▁പ്രാപ്തിയുള്ള	-9490
tp	-9491
പാന	-9492
സരണം	-9493
▁ടൈം	-9494
ശുദ്ധ	-9495
▁പൂനെ	-9496
എല്ലിന്	-9497
ാനുസരണം	-9498
ട്ടിപ്പ്	-9499
▁അസാധുവാണ്	-9500
▁ബംഗ്ലാദേശ	-9501
▁പ്രയോഗത്തിൽ	-9502
▁മാനേജ്മെൻറ്	-9503
▁വിമാനത്താവള	-9504
▁കേൾക്കാനുള്ള	-9505
▁നടപടികളുമായി	-9506
ay	-9507
ർണ	-9508
▁രോ	-9509
വോയ്	-9510
▁അസെ	-9511
മാറ്റി	-9512
ത്തിലേക്കോ	-9513
▁അനുമതിയോടെ	-9514
▁നിയമസഭയിലെ	-9515
▁പതിറ്റാണ്ട	-9516
▁തൊഴിലാളികളെ	-9517
▁രൂപപ്പെടുത്തി	-9518
ിക്കേണ്ടിവ	-9519
ുന്നില്ലെന്ന്	-9520
▁അസോസിയേഷന്റെ	-9521
▁പ്രോഗ്രാമുകൾ	-9522
▁സമയാസമയങ്ങളിൽ	-9523
▁വരുത്തുന്നതിന്	-9524
സ്ക്	-9525
▁കീട	-9526
▁താപ	-9527
▁പുക	-9528
▁യാദവ്	-9529
വാന്മാര	-9530
▁മേഖലയുടെ	-9531
▁ഇതുകൂടാതെ	-9532
▁അലോട്ട്മെന്റ്	-9533
▁ദൗ	-9534
യിര്	-9535
▁ചാരി	-9536
▁ദൈർഘ	-9537
▁വികാസ	-9538
▁ഭാഗമായ	-9539
▁വരൾച്ച	-9540
▁ചെയ്തതോ	-9541
▁നൽകിയാൽ	-9542
ങ്ങനെയാണ്	-9543
▁അറിയില്ല	-9544
▁എന്നിവരും	-9545
▁വ്യാപകമായി	-9546
▁അവശേഷിക്കുന്ന	-9547
ോഷ്	-9548
ടിക്ക	-9549
വത്തായ	-9550
▁ആയുധം	-9551
▁കാമ്പ	-9552
▁പറയാം	-9553
▁സ്പർശ	-9554
രുത്തിയ	-9555
▁വിശ്രമ	-9556
▁അഹമ്മദാ	-9557
▁പരീക്ഷണം	-9558
▁നാലാമത്തെ	-9559
▁പരീക്ഷയിൽ	-9560
▁വിജയകരമായ	-9561
▁സിഡബ്ല്യു	-9562
▁നിയമങ്ങൾക്ക്	-9563
▁സ്ഥലത്തിന്റെ	-9564
▁മറ്റുള്ളവരുടെ	-9565
▁ഇലക്ട്രിസിറ്റി	-9566
▁കൊലപ്പെടുത്തിയ	-9567
२३	-9568
േദ്	-9569
ാശ്വ	-9570
ഡിക്ക	-9571
▁മെഡി	-9572
▁ജീവിതകാല	-9573
ക്കണക്കിന്	-9574
ിക്കുകയാണ്	-9575
▁ഇന്നൊവേഷൻ	-9576
▁ക്യാപ്റ്റ	-9577
▁ഇടപാടിന്റെ	-9578
▁ഭരണഘടനയിലെ	-9579
▁നിർണ്ണയിക്കുന്ന	-9580
രേ	-9581
Crl	-9582
▁ലാല	-9583
▁സീരിയ	-9584
▁സ്മാര	-9585
▁പുനർവി	-9586
▁ഉത്തരവോ	-9587
▁കാരണമാകും	-9588
▁ക്ഷണിച്ചു	-9589
▁പണത്തിന്റെ	-9590
▁ബോധവാന്മാര	-9591
▁രക്ഷാധികാര	-9592
▁അപേക്ഷിക്കാൻ	-9593
▁ആവശ്യമില്ലെന്ന്	-9594
▁കൾ	-9595
സ്വര	-9596
ാനിട	-9597
ിക്കുമെന്ന	-9598
▁തുടർന്നും	-9599
▁പദത്തിന്റെ	-9600
▁നീക്കംചെയ്യൽ	-9601
▁മാനദണ്ഡങ്ങളും	-9602
ാതക	-9603
▁അരി	-9604
ാശ്വത	-9605
▁സിക്ക	-9606
▁അംഗമായി	-9607
വർക്കുള്ള	-9608
▁ഉദ്ഘാടനം	-9609
▁തീരുമാനങ്ങളുടെ	-9610
ty	-9611
ൂൺ	-9612
രുമ	-9613
ോഡ്	-9614
▁സുഖ	-9615
▁നിസ്സം	-9616
▁പതിനഞ്ച്	-9617
▁വിലയ്ക്ക്	-9618
▁ബാധ്യതകളും	-9619
▁വിചാരണയുടെ	-9620
▁വേണ്ടിയുള്ള	-9621
▁നിക്ഷിപ്തമാണ്	-9622
▁സൃഷ്ടിക്കുന്ന	-9623
ിക്കുകയായിരുന്നു	-9624
ണമോ	-9625
▁ഉരു	-9626
കളുള്ള	-9627
▁വ്യഭി	-9628
▁ഹോൾഡർ	-9629
▁ഏജന്റു	-9630
▁ഐഡന്റി	-9631
ണത്തിന്റെ	-9632
▁പൂർത്തിയായ	-9633
▁രേഖയിലുള്ള	-9634
▁പാരാമീറ്ററുകൾ	-9635
▁സർവകലാശാലയുടെ	-9636
▁നിയന്ത്രിക്കാൻ	-9637
ിക്കുന്നതിനുമായി	-9638
▁ശിക്ഷിക്കാവുന്ന	-9639
ങ്ങ്	-9640
ാനിക	-9641
െണ്ണ	-9642
▁കറു	-9643
▁ലെവൽ	-9644
റ്റിന്	-9645
▁കട്ട്	-9646
▁വഴിയോ	-9647
▁എഫ്എസ്	-9648
▁പങ്കാളികള	-9649
▁ഭരണാധികാര	-9650
▁വിട്ടുനിൽ	-9651
ലോക്കുട്ടറി	-9652
▁ഭൂരിഭാഗവും	-9653
▁ശാസ്ത്രജ്ഞ	-9654
▁ഉയർത്തിക്കാ	-9655
വിധികളില്ലാതെ	-9656
▁ദാ	-9657
▁തീര	-9658
▁കഴിയുമ	-9659
▁കുടുംബം	-9660
▁ഫ്ലാറ്റ	-9661
▁അടിയന്തര	-9662
▁തുടർനടപട	-9663
▁സമീപിക്കാൻ	-9664
▁ബാധകമാണെന്ന്	-9665
▁ഇല്ലാത്തതിനാൽ	-9666
AC	-9667
ലിവി	-9668
▁കാള	-9669
▁ജന്മ	-9670
▁പിൻഗാമ	-9671
▁ബലഹീനത	-9672
ങ്ങളുണ്ട	-9673
▁അധികാരികളെ	-9674
▁സ്വത്തവകാശ	-9675
▁വസ്തുതകളെയും	-9676
▁ഒഴിവാക്കുന്നു	-9677
▁ചോദ്യങ്ങൾക്ക്	-9678
ിട്ടുണ്ടെങ്കിലും	-9679
പേ	-9680
കുട്ട	-9681
▁എഡ്യൂ	-9682
▁വ്യോമ	-9683
▁ചേർത്തി	-9684
▁നോർത്ത്	-9685
▁യോഗ്യതകൾ	-9686
▁തീർപ്പാക്കി	-9687
▁ഭേദഗതിയിലൂടെ	-9688
ാമൻ	-9689
▁,,	-9690
ണലും	-9691
▁ഇസി	-9692
കന്റെ	-9693
▁അഹ്മ	-9694
ോഗ്രാഫ	-9695
▁ഭാരതി	-9696
▁ഗ്രാന്റ	-9697
▁ജനതയുടെ	-9698
▁സൃഷ്ടിക്കുകയും	-9699
കാ	-9700
ഗണനാ	-9701
ഹാരം	-9702
▁മൂർ	-9703
മാകാൻ	-9704
സ്വാമി	-9705
ുമുട്ട	-9706
▁അസ്തി	-9707
▁റൂൾസ്	-9708
ുകളുള്ള	-9709
▁അഭിലാഷ	-9710
▁തള്ളിയ	-9711
▁പദങ്ങൾ	-9712
▁വിലാസം	-9713
▁ഒരുപോലെ	-9714
▁പ്ലോട്ട	-9715
▁സന്ദർശന	-9716
▁സ്ത്രീകളെ	-9717
▁പോളിസിയുടെ	-9718
ട്രിക്സിന്റെ	-9719
▁പിന്തുടർന്ന്	-9720
▁മരണപ്പെട്ടയാൾ	-9721
ct	-9722
താന	-9723
മരണ	-9724
▁സിൽ	-9725
▁കല്ല	-9726
▁ക്രൂ	-9727
▁ആത്മാ	-9728
രിക്കാം	-9729
ിയുടെയോ	-9730
▁സമൃദ്ധ	-9731
▁ദൃക്സാക്ഷ	-9732
തായിരിക്കണം	-9733
▁ചുറ്റുമുള്ള	-9734
▁നിർവഹിക്കാൻ	-9735
▁സുരക്ഷിതമായ	-9736
▁തൊട്ടുമുമ്പ്	-9737
ാത്മാ	-9738
ീർപ്പ	-9739
▁പ്രോട്ട	-9740
▁കെമിക്കൽ	-9741
▁വിഭവശേഷി	-9742
േണ്ടതായിരുന്നു	-9743
ാളെ	-9744
▁NO	-9745
ണ്ണ്	-9746
മാകൂ	-9747
ികള്	-9748
വാകർഷ	-9749
▁പ്രതീ	-9750
▁അസാധ്യ	-9751
▁സമയവും	-9752
മാരുമായി	-9753
▁കുറ്റകര	-9754
രുത്വാകർഷ	-9755
ുന്നതിലും	-9756
▁പ്രൊവിഡന്റ്	-9757
▁കഴിയാത്തതിനാൽ	-9758
▁അപേക്ഷകർക്കായി	-9759
▁ഭരണകൂടത്തിന്റെ	-9760
▁ഉത്തരവാദിത്തവും	-9761
▁രാധ	-9762
കൃഷ്ണ	-9763
വിവാഹ	-9764
▁നഗ്ന	-9765
▁കർമ്മ	-9766
▁പകുതി	-9767
▁സാഹിത്യ	-9768
▁പ്രീമിയം	-9769
▁അസോസിയേഷന	-9770
▁തെളിവുകളെ	-9771
▁ഫണ്ടിന്റെ	-9772
▁ഹാജരാകുന്ന	-9773
▁ഹാജരാക്കാൻ	-9774
▁ഗുരുത്വാകർഷ	-9775
▁ജാമ്യാപേക്ഷ	-9776
▁പിൻവലിക്കാൻ	-9777
▁മദ്ധ്യസ്ഥനെ	-9778
▁അടയ്ക്കുന്നതിൽ	-9779
▁പാൻ	-9780
സ്റ്റിംഗ്	-9781
▁കത്തിന്റെ	-9782
▁വിവർത്തനം	-9783
▁അനിവാര്യമായ	-9784
▁ശ്രദ്ധേയമായ	-9785
▁സെക്യൂരിറ്റി	-9786
ഗ്നി	-9787
മാരു	-9788
▁VII	-9789
ില്യൺ	-9790
▁അന്ധ	-9791
▁ഗർഭം	-9792
▁അഗ്രികൾ	-9793
ട്ടുചെയ്യ	-9794
▁ഓഫീസർമാർ	-9795
▁നിലപാടിനെ	-9796
▁ക്രിയാത്മക	-9797
▁പ്രൊമോട്ടർ	-9798
ിക്കുകയുള്ളൂ	-9799
IT	-9800
മാൻഡ	-9801
▁ഹരി	-9802
▁ഇടവേള	-9803
െങ്കില്	-9804
▁ശമ്പളവും	-9805
▁ബെഞ്ചിലേക്ക്	-9806
▁വാണിജ്യപരമായ	-9807
▁പ്രവർത്തിക്കും	-9808
പിൽ	-9809
ൗണ്ട	-9810
▁അങ്ങ	-9811
▁അമ്പ	-9812
ലിനുള്ള	-9813
▁റിവ്യൂ	-9814
▁സജീവമായി	-9815
▁സ്യൂട്ടുകൾ	-9816
▁ഏർപ്പെടുന്ന	-9817
▁നിബന്ധനകൾക്ക്	-9818
പ്പെട്ടിട്ടില്ല	-9819
ക്ലോ	-9820
▁അവര	-9821
തിനും	-9822
▁മന്ദ	-9823
▁കെട്ടിപ്പ	-9824
▁പൂർത്തിയായി	-9825
▁വയ്ക്കുകയും	-9826
▁ലഭിക്കുന്നത്	-9827
▁വിനിയോഗിക്കാൻ	-9828
▁ജോൺ	-9829
ചിത്ര	-9830
▁കാരു	-9831
▁ലയിപ്പ	-9832
▁സംയോജന	-9833
▁വിപണിയിൽ	-9834
▁സ്ഥലത്തെ	-9835
▁അവസരത്തിൽ	-9836
സ്വാതന്ത്ര്യ	-9837
▁അറിയിപ്പുകൾ	-9838
▁നിയമിക്കുകയും	-9839
▁പ്രയോഗിക്കുന്ന	-9840
▁അറിയാമായിരുന്നു	-9841
ലംഘ	-9842
വതി	-9843
▁ജാ	-9844
▁ful	-9845
ഹിക്ക	-9846
സ്സിനെ	-9847
മൊന്നും	-9848
▁അവസ്ഥയിൽ	-9849
▁കോഴ്സുകൾ	-9850
▁സന്തുഷ്ട	-9851
▁വ്യാജമായി	-9852
▁അടയ്ക്കുന്ന	-9853
▁ഡവലപ്മെന്റ്	-9854
▁പുരോഗതിക്കും	-9855
▁വേഗത്തിലുള്ള	-9856
▁ആശ്രയിക്കുന്ന	-9857
▁താഴെപ്പറയുന്ന	-9858
▁പിടിച്ചെടുത്തു	-9859
▁ഉപയോഗിക്കുന്നത്	-9860
▁പ്രൊസീജ്യറിന്റെ	-9861
ുഡ്	-9862
▁നയങ്ങൾ	-9863
▁പ്രക്ഷേപണം	-9864
▁ലിമിറ്റഡും	-9865
മാക്കുന്നില്ല	-9866
റേ	-9867
മൊഴ	-9868
ബറിൽ	-9869
▁കലാപ	-9870
്	-9871
▁	-9872
ി	-9873
ക	-9874
ന	-9875
ത	-9876
ു	-9877
ാ	-9878
യ	-9879
പ	-9880
ര	-9881
ട	-9882
െ	-9883
വ	-9884
മ	-9885
സ	-9886
ം	-9887
ല	-9888
റ	-9889
ച	-9890
ൽ	-9891
ള	-9892
ണ	-9893
അ	-9894
ങ	-9895
ോ	-9896
ർ	-9897
.	-9898
േ	-9899
,	-9900
ദ	-9901
ീ	-9902
ഷ	-9903
ൾ	-9904
ശ	-9905
ധ	-9906
ൻ	-9907
ഗ	-9908
എ	-9909
ൂ	-9910
ബ	-9911
०	-9912
u	-9913
ജ	-9914
c	-9915
ഡ	-9916
ഭ	-9917
ഹ	-9918
१	-9919
ആ	-9920
ഉ	-9921
ഥ	-9922
ഒ	-9923
ഇ	-9924
ഞ	-9925
)	-9926
(	-9927
ഴ	-9928
२	-9929
ൈ	-9930
ഫ	-9931
ൊ	-9932
-	-9933
ഈ	-9934
३	-9935
ഖ	-9936
;	-9937
ഏ	-9938
४	-9939
ൃ	-9940
ഓ	-9941
ഘ	-9942
&	-9943
#	-9944
:	-9945
0	-9946
५	-9947
/	-9948
i	-9949
ൺ	-9950
ഐ	-9951
६	-9952
a	-9953
ഠ	-9954
“	-9955
७	-9956
|	-9957
ൗ	-9958
o	-9959
I	-9960
e	-9961
s	-9962
r	-9963
]	-9964
[	-9965
n	-9966
८	-9967
t	-9968
d	-9969
९	-9970
l	-9971
C	-9972
m	-9973
A	-9974
p	-9975
x	-9976
R	-9977
S	-9978
f	-9979
v	-9980
P	-9981
%	-9982
E	-9983
?	-9984
h	-9985
L	-9986
O	-9987
y	-9988
g	-9989
T	-9990
V	-9991
N	-9992
M	-9993
