<unk>	0
<s>	0
</s>	0
UuRrLl	0
DdAaTtEe	0
NnUuMm	0
्य	-0
्या	-1
▁क	-2
▁आ	-3
▁स	-4
▁प	-5
ार	-6
्र	-7
▁अ	-8
▁न	-9
▁व	-10
र्	-11
ेल	-12
▁म	-13
▁त	-14
च्या	-15
या	-16
हे	-17
▁द	-18
वा	-19
ती	-20
▁ज	-21
क्	-22
▁आण	-23
ला	-24
ही	-25
▁आणि	-26
▁प्र	-27
▁आहे	-28
ां	-29
िक	-30
▁कर	-31
ात	-32
ण्या	-33
ान	-34
▁केल	-35
▁ह	-36
ित	-37
▁श	-38
▁या	-39
▁अस	-40
चा	-41
▁र	-42
्ह	-43
स्	-44
▁त्या	-45
चे	-46
ून	-47
सा	-48
ले	-49
▁वि	-50
▁नि	-51
ची	-52
▁उ	-53
▁का	-54
▁ए	-55
ंत	-56
▁ग	-57
ील	-58
▁सं	-59
ता	-60
ना	-61
▁ब	-62
क्ष	-63
ने	-64
ते	-65
िं	-66
▁ना	-67
णे	-68
वर	-69
त्	-70
द्	-71
ठी	-72
ल्या	-73
▁(	-74
▁को	-75
ष्	-76
साठी	-77
▁घ	-78
▁भ	-79
▁नाही	-80
्ये	-81
▁स्	-82
▁की	-83
▁हो	-84
ली	-85
ेश	-86
लेल	-87
▁किं	-88
▁पर	-89
नी	-90
▁करण्या	-91
मा	-92
▁किंवा	-93
वि	-94
▁ख	-95
ष्ट	-96
▁न्या	-97
▁दि	-98
▁रा	-99
▁म्ह	-100
ध्ये	-101
▁जा	-102
कार	-103
▁य	-104
ास	-105
रण	-106
ेव	-107
▁न्याया	-108
▁दे	-109
▁हे	-110
▁म्हण	-111
▁कार	-112
त्या	-113
यद	-114
दी	-115
ाने	-116
▁पु	-117
▁वा	-118
▁अध	-119
▁अप	-120
सी	-121
ेत	-122
▁ल	-123
ाव	-124
▁शक	-125
▁केले	-126
तील	-127
र्ण	-128
लेल्या	-129
▁कायद	-130
▁सा	-131
ल्	-132
मध्ये	-133
ाच्या	-134
ाल	-135
▁एक	-136
ुस	-137
▁ठ	-138
▁कोण	-139
पी	-140
र्ट	-141
्री	-142
▁इ	-143
▁तर	-144
णी	-145
ंद	-146
धी	-147
स्थ	-148
▁फ	-149
ंच्या	-150
हि	-151
न्	-152
▁गेल	-153
ोग	-154
र्व	-155
ति	-156
देश	-157
▁प्रक	-158
स्त	-159
ाग	-160
ंड	-161
▁अश	-162
ंनी	-163
▁न्यायाल	-164
कर्	-165
▁सु	-166
ारी	-167
▁केलेल	-168
▁व्य	-169
टी	-170
▁अपील	-171
ाप	-172
▁राज	-173
रो	-174
ारे	-175
्यक	-176
क्त	-177
▁पा	-178
री	-179
▁च	-180
▁ला	-181
▁म्हणून	-182
▁असे	-183
ाब	-184
तर	-185
ंध	-186
▁कोर्ट	-187
▁झ	-188
णा	-189
ार्	-190
िका	-191
▁आव	-192
्हा	-193
▁हा	-194
▁आहेत	-195
ुसार	-196
यम	-197
च्	-198
जे	-199
▁मु	-200
श्	-201
का	-202
▁-	-203
नि	-204
▁झा	-205
▁परि	-206
ोज	-207
मी	-208
▁उप	-209
क्ती	-210
▁केली	-211
▁ड	-212
कड	-213
ंतर	-214
पर	-215
▁कायद्या	-216
▁सम	-217
▁ज्या	-218
दा	-219
शी	-220
ांच्या	-221
प्र	-222
िती	-223
▁ते	-224
बंध	-225
श्यक	-226
..	-227
द्ध	-228
▁अधिक	-229
▁केला	-230
र्ग	-231
▁आम	-232
रा	-233
चार	-234
▁गु	-235
▁आवश्यक	-236
▁प्रति	-237
▁होते	-238
▁अशा	-239
ब्	-240
वी	-241
▁शकत	-242
की	-243
त्र	-244
ंना	-245
▁घे	-246
▁ट	-247
र्भ	-248
▁निर्ण	-249
मु	-250
▁न्यायालया	-251
वारे	-252
नुसार	-253
▁/	-254
धार	-255
पू	-256
ंब	-257
ाद	-258
ंत्र	-259
▁प्रकरण	-260
ळे	-261
▁केलेल्या	-262
द्वारे	-263
▁जात	-264
ण्यात	-265
दार	-266
▁अन	-267
वे	-268
▁च्या	-269
▁उत्	-270
▁सर्व	-271
▁कोणत्या	-272
▁करणे	-273
▁शि	-274
कर्त्या	-275
▁संबंध	-276
▁दो	-277
▁ठेव	-278
▁घट	-279
▁कोणत्याही	-280
र्या	-281
▁आप	-282
▁दा	-283
पणे	-284
ेट	-285
र्थ	-286
▁मा	-287
▁नो	-288
णार	-289
▁वे	-290
ण्यासाठी	-291
ईल	-292
▁'	-293
च्च	-294
▁ये	-295
▁सर	-296
्यू	-297
▁मान	-298
▁स्प	-299
ंग	-300
▁पू	-301
▁करण्यासाठी	-302
▁गेले	-303
▁क्र	-304
ोग्य	-305
शि	-306
▁भार	-307
पास	-308
ोर	-309
क्षा	-310
▁आरो	-311
▁राज्य	-312
ृत	-313
मुळे	-314
▁घेत	-315
▁निर्	-316
▁कार्य	-317
से	-318
▁व्यक्ती	-319
▁असेल	-320
मान	-321
▁आय	-322
▁पी	-323
कडे	-324
र्गत	-325
▁पुर	-326
▁केल्या	-327
▁काही	-328
्यां	-329
▁नियम	-330
लम	-331
नंतर	-332
▁जे	-333
▁मि	-334
▁याच	-335
▁ऑ	-336
▁खट	-337
▁स्पष्ट	-338
▁संद	-339
चित	-340
▁जाऊ	-341
▁वर	-342
र्ज	-343
▁विचार	-344
▁संदर्भ	-345
ांना	-346
ाय	-347
▁तरत	-348
िस	-349
तो	-350
▁संबंधित	-351
▁एस	-352
▁सरकार	-353
▁मध्ये	-354
ूद	-355
द्द	-356
▁.	-357
धान	-358
व्ह	-359
▁लाग	-360
▁आदेश	-361
ांग	-362
▁उच्च	-363
क्क	-364
▁कोर्टाने	-365
▁व्या	-366
ातील	-367
ीन	-368
ंतर्गत	-369
▁मह	-370
ोक	-371
▁स्थ	-372
▁मू	-373
वान	-374
रू	-375
धील	-376
ाज	-377
िया	-378
▁अधिकार	-379
▁इतर	-380
्ही	-381
▁रोज	-382
▁|	-383
तात	-384
िंग	-385
स्थिती	-386
आय	-387
▁ध	-388
▁क्	-389
डी	-390
ये	-391
▁असा	-392
▁होता	-393
▁पाहि	-394
▁श्री	-395
▁माल	-396
थे	-397
▁सह	-398
▁भाग	-399
▁समा	-400
▁वै	-401
▁ही	-402
▁चा	-403
धिक	-404
▁ठर	-405
▁स्व	-406
रु	-407
क्षण	-408
▁नस	-409
धीश	-410
▁असलेल्या	-411
▁रोजी	-412
▁के	-413
▁पुढ	-414
▁असल्या	-415
▁एख	-416
प्	-417
मां	-418
स्ट	-419
▁योग्य	-420
▁पो	-421
्यंत	-422
ाना	-423
ळा	-424
र्श	-425
ेव्हा	-426
▁विक	-427
मे	-428
ंतु	-429
खल	-430
भाग	-431
मि	-432
आर	-433
▁न्यायाधीश	-434
▁याचिका	-435
ण्यास	-436
▁म्हणजे	-437
ीर	-438
ंचे	-439
▁आरोपी	-440
▁अपीलकर्त्या	-441
▁यांनी	-442
र्ष	-443
ंट	-444
▁आले	-445
▁तो	-446
▁निर्णया	-447
जी	-448
▁दु	-449
▁“	-450
क्र	-451
पा	-452
्यात	-453
वादी	-454
गी	-455
माणे	-456
▁व्यव	-457
▁प्रा	-458
ळी	-459
▁कारण	-460
ंचा	-461
▁परंतु	-462
▁त्याच्या	-463
दर	-464
▁उद्	-465
एस	-466
▁शकते	-467
▁क्ष	-468
▁सांग	-469
▁न्यायालय	-470
ेत्र	-471
▁त्यांच्या	-472
ंप	-473
ब्ल	-474
ोड	-475
▁से	-476
▁पुन	-477
▁कलम	-478
क्स	-479
वाद	-480
माण	-481
▁नोंद	-482
करण	-483
शन	-484
▁सी	-485
को	-486
▁अनु	-487
प्रमाणे	-488
्ञ	-489
▁वापर	-490
▁बाब	-491
▁दाखल	-492
र्ड	-493
ण्याची	-494
▁काम	-495
▁राष्ट	-496
▁अंतर्गत	-497
▁नम	-498
ब्ल्यू	-499
खील	-500
रे	-501
▁प्रत	-502
▁नमूद	-503
्म	-504
▁आम्ही	-505
▁एखाद	-506
▁लक्ष	-507
▁प्रकार	-508
▁स्वत	-509
▁दिले	-510
▁ति	-511
ांनी	-512
▁प्रतिवादी	-513
▁ओ	-514
▁होती	-515
ारा	-516
ंज	-517
▁वर्ष	-518
▁एखाद्या	-519
▁केव	-520
▁अभ	-521
▁अधि	-522
▁मो	-523
▁भर	-524
▁परिस्थिती	-525
ारख	-526
▁केवळ	-527
हित	-528
▁खटल्या	-529
ूर	-530
त्त्	-531
▁निय	-532
▁निर्णय	-533
पूर्ण	-534
तीय	-535
ुदी	-536
रि	-537
▁करण्यास	-538
▁तरतुदी	-539
▁पाहिजे	-540
िल	-541
शे	-542
च्छ	-543
▁भा	-544
▁करण्यात	-545
▁तथ	-546
डब्ल्यू	-547
ांची	-548
▁लोक	-549
▁सि	-550
▁गेली	-551
▁कायदा	-552
वात	-553
▁प्रश्	-554
र्वी	-555
▁[	-556
यार	-557
▁ने	-558
्त	-559
ाचे	-560
नात	-561
▁आपल्या	-562
ांचे	-563
ंद्र	-564
धिकरण	-565
▁गो	-566
मांक	-567
लेख	-568
ुक	-569
ेच्या	-570
▁अर्ज	-571
वेश	-572
लेले	-573
▁जाते	-574
▁एससी	-575
लंब	-576
....	-577
ज्ञ	-578
कर	-579
▁प्रकरणात	-580
्याच्या	-581
▁अव	-582
िट	-583
▁तयार	-584
द्दल	-585
सह	-586
▁उत्तर	-587
▁जाईल	-588
बी	-589
ाचा	-590
▁यांच्या	-591
▁जी	-592
▁पूर्ण	-593
ावर	-594
ेड	-595
पीठ	-596
▁अशी	-597
▁क्रमांक	-598
▁त्यांनी	-599
▁म्हणूनच	-600
▁दिली	-601
▁कर्	-602
▁संस्थ	-603
ताना	-604
िम	-605
▁उत्प	-606
हिती	-607
▁बाज	-608
▁देखील	-609
ण्याच्या	-610
ेशीर	-611
व्य	-612
▁संदर्भात	-613
ूत	-614
▁काढ	-615
▁कु	-616
▁माहिती	-617
मधील	-618
▁निव	-619
▁लागू	-620
▁प्रक्र	-621
पासून	-622
पत्र	-623
ष्टी	-624
▁कंप	-625
▁सल्	-626
मत्	-627
ांत	-628
▁यु	-629
शेष	-630
▁दोन	-631
ूक	-632
ल्प	-633
ाची	-634
▁परवान	-635
▁मत	-636
शिष्ट	-637
पर्यंत	-638
▁मालमत्	-639
लेला	-640
द्य	-641
▁वरील	-642
बाब	-643
▁आला	-644
ंची	-645
▁हक्क	-646
निक	-647
्रा	-648
▁परिणा	-649
ष्ठ	-650
▁अं	-651
ण्याचा	-652
्मक	-653
▁पक्ष	-654
▁माग	-655
्रीय	-656
▁क्षेत्र	-657
▁मिळ	-658
▁विशेष	-659
जाव	-660
▁सू	-661
▁मुख	-662
▁गुन	-663
ुक्त	-664
ांमध्ये	-665
द्या	-666
श्चित	-667
▁देण्यात	-668
▁करण्याच्या	-669
टले	-670
▁ती	-671
लेली	-672
▁मृत	-673
▁सादर	-674
▁सेवा	-675
▁विभाग	-676
▁प्रमाण	-677
▁तपास	-678
▁अर्थ	-679
▁जर	-680
विध	-681
कडून	-682
▁भारतीय	-683
ालील	-684
्स	-685
▁लि	-686
ाळ	-687
ात्र	-688
▁वाढ	-689
▁परवानगी	-690
ांचा	-691
▁नाहीत	-692
.0	-693
▁कोणती	-694
▁हाय	-695
▁नव्ह	-696
▁कायद्याच्या	-697
▁वस्त	-698
बद्दल	-699
तीने	-700
ेक्षा	-701
▁रु	-702
तीत	-703
▁कोणतीही	-704
ित्	-705
▁चौ	-706
सु	-707
▁मूल	-708
पती	-709
▁म्हटले	-710
▁खालील	-711
ोध	-712
के	-713
▁अह	-714
▁राष्ट्र	-715
))	-716
दान	-717
▁दुस	-718
क्ट	-719
▁साम	-720
ावे	-721
▁जेव्हा	-722
कोर्ट	-723
▁घटने	-724
क्षे	-725
▁थ	-726
▁पुढे	-727
▁मार्	-728
▁आधार	-729
▁आर	-730
▁खंड	-731
ल्यास	-732
▁एससीसी	-733
एल	-734
▁प्रश्न	-735
▁लक्षात	-736
▁कमी	-737
▁तसे	-738
▁गेला	-739
▁हायकोर्ट	-740
ोष	-741
▁फि	-742
▁त्याला	-743
भाव	-744
▁अंम	-745
▁उल्	-746
▁करार	-747
▁अधिनि	-748
डे	-749
▁सद	-750
योग	-751
लाव	-752
वाय	-753
▁दर्श	-754
▁करू	-755
▁सांगित	-756
▁न्यायालयात	-757
ण्याचे	-758
पूर्वी	-759
▁हेत	-760
कर्ता	-761
▁शकतो	-762
▁मंज	-763
दे	-764
मीन	-765
▁कंपनी	-766
साय	-767
पु	-768
ीय	-769
वज	-770
वास	-771
▁योज	-772
▁मान्य	-773
▁आली	-774
▁करते	-775
▁विशिष्ट	-776
मान्य	-777
▁दृ	-778
▁चाल	-779
ेद	-780
▁प्रत्ये	-781
▁साक्ष	-782
▁करून	-783
▁आमच्या	-784
▁मर्या	-785
▁अहवा	-786
▁सदस	-787
▁पीडब्ल्यू	-788
▁कायदेशीर	-789
▁केंद्र	-790
▁जो	-791
ताही	-792
▁निष्	-793
▁मुख्य	-794
कर्ष	-795
▁निवड	-796
▁न्याय	-797
▁डी	-798
क्षम	-799
▁नवी	-800
▁कॉ	-801
▁निश्चित	-802
लब	-803
▁जाग	-804
मोर	-805
ूल	-806
▁स्थाप	-807
ाला	-808
▁बद	-809
▁त्यांना	-810
▁दर	-811
▁कोणताही	-812
ार्थ	-813
गार	-814
वरील	-815
भूत	-816
णार्या	-817
र्स	-818
▁राष्ट्रपती	-819
न्स	-820
▁करण्याचा	-821
▁देश	-822
न्न	-823
▁न्यायालयाने	-824
▁त्यानंतर	-825
▁करण्याची	-826
▁कोणते	-827
▁दिला	-828
र्यादी	-829
▁सार्	-830
▁लेख	-831
▁शु	-832
दर्श	-833
▁शिक	-834
▁सामान्य	-835
▁खटला	-836
ग्र	-837
▁कोणतेही	-838
▁दावा	-839
▁राज्या	-840
▁फिर्यादी	-841
▁शब्	-842
मार	-843
्यक्ष	-844
▁अभि	-845
▁लाव	-846
▁न्यायालयीन	-847
▁खंडपीठ	-848
ाली	-849
▁प्रत्येक	-850
स्तव	-851
▁पद	-852
ासाठी	-853
▁झाला	-854
▁दोष	-855
▁सिद्ध	-856
▁विश्	-857
▁हस्त	-858
▁असल्याचे	-859
▁अवलंब	-860
▁वेग	-861
ापि	-862
▁संपूर्ण	-863
▁परिणाम	-864
▁असू	-865
▁कोर्टाच्या	-866
▁तेव्हा	-867
▁उत्पाद	-868
▁तथापि	-869
एम	-870
▁ताब	-871
▁पुढील	-872
▁पात्र	-873
▁येथे	-874
▁झाले	-875
्यावर	-876
लिस	-877
लावधी	-878
▁कालावधी	-879
ानुसार	-880
णूक	-881
घट	-882
▁तसेच	-883
ग्	-884
गर	-885
▁समिती	-886
▁सल्ला	-887
तिरि	-888
तिरिक्त	-889
चना	-890
थम	-891
▁मे	-892
▁तक्र	-893
▁मधील	-894
जावणी	-895
लबजावणी	-896
▁मी	-897
▁एका	-898
शा	-899
▁अंमलबजावणी	-900
वजनिक	-901
ृत्	-902
भा	-903
हा	-904
एक्स	-905
ल्यानंतर	-906
▁शिक्षा	-907
▁उद्देश	-908
▁याचिकाकर्त्या	-909
ीदार	-910
▁ट्र	-911
▁पाठ	-912
▁दंड	-913
मती	-914
▁निर्देश	-915
ळख	-916
णारे	-917
ंदर्भ	-918
ोल	-919
वार	-920
ंक	-921
▁तरी	-922
▁दिलेल्या	-923
बा	-924
▁सार्वजनिक	-925
▁ऑफ	-926
▁हेतू	-927
▁निका	-928
रावा	-929
ांवर	-930
ीकरण	-931
भव	-932
▁परिस्थितीत	-933
▁फा	-934
▁त्याने	-935
▁अधिनियम	-936
▁बन	-937
▁चे	-938
ारखे	-939
▁शकतात	-940
नाव	-941
▁सुधार	-942
हार	-943
▁महत्त्	-944
यत्	-945
ेशन	-946
न्या	-947
▁जमीन	-948
▁चौक	-949
न्हे	-950
▁निष्कर्ष	-951
सं	-952
▁राह	-953
▁मार्ग	-954
▁सुरू	-955
▁कृ	-956
ुकी	-957
▁प्रयत्	-958
वाई	-959
▁केलेली	-960
▁वस्तू	-961
▁वाट	-962
▁संर	-963
▁भू	-964
▁पोलिस	-965
ध्य	-966
▁रे	-967
▁प्रकारे	-968
▁तपासणी	-969
▁वक	-970
▁आढ	-971
▁कार्यवा	-972
हन	-973
▁आधी	-974
्रे	-975
गळ	-976
ंडळ	-977
वित	-978
▁बँ	-979
▁रक्क	-980
▁अन्य	-981
ांड	-982
रूद्ध	-983
▁झालेल्या	-984
▁कार्यवाही	-985
▁स्वी	-986
▁मिळा	-987
▁केलेले	-988
▁सांगितले	-989
▁बाबतीत	-990
णारी	-991
▁रक्कम	-992
▁विविध	-993
▁विधान	-994
दारी	-995
▁करतो	-996
तेच्या	-997
▁सब	-998
▁आध	-999
▁आरोप	-1000
▁विक्री	-1001
▁न्यायाधिकरण	-1002
▁ओळख	-1003
ूप	-1004
▁औ	-1005
▁मंजूर	-1006
्यु	-1007
नीय	-1008
▁सध	-1009
▁तरतूद	-1010
क्ति	-1011
▁शब्द	-1012
▁समान	-1013
▁गुन्हे	-1014
▁स्ट	-1015
▁विष	-1016
▁पद्ध	-1017
▁बदल	-1018
▁व्यवस्थ	-1019
▁सो	-1020
▁करण्याचे	-1021
▁दिस	-1022
शिवाय	-1023
▁प्राधिकरण	-1024
▁तु	-1025
▁महि	-1026
▁अटी	-1027
▁पुन्हा	-1028
▁जास्त	-1029
▁प्रयत्न	-1030
ेला	-1031
▁पाल	-1032
▁मोठ	-1033
▁अवलंबून	-1034
▁दिव	-1035
ऊन	-1036
▁तत्त्	-1037
▁नवीन	-1038
ैकी	-1039
▁वेळी	-1040
▁खालीलप्रमाणे	-1041
ंदर्भात	-1042
मिशन	-1043
▁चौकशी	-1044
▁स्वीकार	-1045
▁अपीलकर्ता	-1046
▁सुर	-1047
ोट	-1048
▁एम	-1049
▁उद्देशाने	-1050
▁साक्षीदार	-1051
रोध	-1052
ंमध्ये	-1053
▁एन	-1054
▁प्रदेश	-1055
ल्ली	-1056
▁प्रक्रि	-1057
▁गुन्ह	-1058
स्ता	-1059
्हाला	-1060
▁डि	-1061
लक	-1062
द्वान	-1063
▁दर्शवि	-1064
क्षित	-1065
▁विद्या	-1066
▁शोध	-1067
▁विद्वान	-1068
र्डर	-1069
▁होईल	-1070
▁रि	-1071
▁वाच	-1072
पाई	-1073
▁होऊ	-1074
▁करतात	-1075
न्ही	-1076
▁बाजू	-1077
र्त	-1078
लं	-1079
द्योग	-1080
▁संस्था	-1081
सुप्र	-1082
पेक्षा	-1083
पीसी	-1084
र्म	-1085
▁जबाब	-1086
▁झाली	-1087
▁प्रवेश	-1088
▁व्याप	-1089
▁शुल्	-1090
▁ऑर्डर	-1091
ाप्त	-1092
▁तीन	-1093
▁काळ	-1094
र्थिक	-1095
लब्	-1096
▁ताब्यात	-1097
▁कारवाई	-1098
▁पै	-1099
लब्ध	-1100
▁प्रक्रिया	-1101
▁कौ	-1102
▁आपण	-1103
विष	-1104
ूने	-1105
▁त्याच	-1106
्याने	-1107
ॉर्ड	-1108
▁पुरावा	-1109
्यास	-1110
तीच्या	-1111
यी	-1112
▁उपलब्ध	-1113
दत	-1114
▁हायकोर्टाने	-1115
▁मूलभूत	-1116
▁खटल्याच्या	-1117
▁करा	-1118
▁भारता	-1119
जा	-1120
▁करता	-1121
लंघ	-1122
नात्मक	-1123
▁उल्लंघ	-1124
▁निकाला	-1125
▁धो	-1126
विरूद्ध	-1127
▁स्पष्टपणे	-1128
▁सोड	-1129
▁दोन्ही	-1130
▁सक्षम	-1131
▁कारणा	-1132
▁आम्हाला	-1133
▁मालमत्ता	-1134
शास	-1135
▁युक्ति	-1136
ंभ	-1137
कीय	-1138
▁बी	-1139
▁टा	-1140
▁विध	-1141
▁भाडे	-1142
▁मूल्या	-1143
▁शक्ती	-1144
▁भरपाई	-1145
▁मृत्यू	-1146
▁बे	-1147
▁डॉ	-1148
▁उद्भव	-1149
▁पुराव	-1150
▁पूर्व	-1151
घड	-1152
विष्ट	-1153
▁गुण	-1154
कारी	-1155
▁आधारे	-1156
ात्मक	-1157
▁भारत	-1158
वेद	-1159
ंवर	-1160
पाल	-1161
▁स्वर	-1162
▁बाबी	-1163
▁नुक	-1164
मत	-1165
▁गुंत	-1166
ुन	-1167
▁त्याचा	-1168
▁आर्थिक	-1169
▁ठरवि	-1170
र्क	-1171
▁छ	-1172
▁वाद	-1173
▁कि	-1174
▁यांना	-1175
▁समाविष्ट	-1176
▁निक	-1177
▁पहि	-1178
▁())	-1179
वातंत्र	-1180
▁अधिकारी	-1181
▁आकार	-1182
▁दोषी	-1183
▁रिट	-1184
▁संप	-1185
खी	-1186
▁अंत	-1187
▁दिल्ली	-1188
▁स्वातंत्र	-1189
▁आढळ	-1190
▁प्रस्ता	-1191
........	-1192
▁0	-1193
▁स्पष्टीकरण	-1194
▁खरे	-1195
▁कर्म	-1196
वन	-1197
हो	-1198
स्थित	-1199
▁शक्य	-1200
▁देय	-1201
▁बा	-1202
्हे	-1203
▁प्रदान	-1204
च्छेद	-1205
कलम	-1206
▁त्यांचे	-1207
▁संस	-1208
▁त्याचे	-1209
▁निर्द	-1210
▁झाल्या	-1211
सान	-1212
▁सेव	-1213
ज्ञान	-1214
बर	-1215
यात	-1216
▁सुनाव	-1217
▁प्रो	-1218
▁वतीने	-1219
क्षेप	-1220
▁उल्लंघन	-1221
▁बँक	-1222
▁बां	-1223
▁स्वतंत्र	-1224
▁रद्द	-1225
▁प्राप्त	-1226
▁नंतर	-1227
▁असते	-1228
स्ती	-1229
▁आयोग	-1230
▁समज	-1231
▁दुरु	-1232
▁तिच्या	-1233
▁शुल्क	-1234
▁समावेश	-1235
ीत	-1236
नाच्या	-1237
▁जिल	-1238
▁घोष	-1239
▁दुर्	-1240
▁प्रक्रिये	-1241
▁घटनात्मक	-1242
▁कर्त	-1243
▁शकेल	-1244
▁नाकार	-1245
रोक्त	-1246
▁ग्रा	-1247
▁आता	-1248
▁नुकसान	-1249
),	-1250
तिक	-1251
▁कायद्यानुसार	-1252
▁दुसर्या	-1253
▁उपरोक्त	-1254
▁घटना	-1255
ंकन	-1256
▁केलेला	-1257
वादा	-1258
▁प्रमाणात	-1259
▁,	-1260
▁गोष्टी	-1261
पैकी	-1262
चणी	-1263
िला	-1264
▁तक्रार	-1265
साद	-1266
▁जन	-1267
▁गुन्हा	-1268
▁वेळ	-1269
षण	-1270
▁असल्यास	-1271
▁राष्ट्रीय	-1272
िय	-1273
▁आव्ह	-1274
▁विरोध	-1275
▁उपस्थित	-1276
प्प	-1277
्यांच्या	-1278
▁काग	-1279
▁रो	-1280
▁सर्वो	-1281
वून	-1282
▁विन	-1283
टक	-1284
▁करारा	-1285
रात	-1286
▁उघड	-1287
िसू	-1288
▁गर	-1289
▁जारी	-1290
▁अपीलकर्त्याने	-1291
र्चा	-1292
▁देणे	-1293
णारा	-1294
्तित्	-1295
▁अस्तित्	-1296
नेक	-1297
्ट	-1298
एन	-1299
समोर	-1300
्ल	-1301
▁नये	-1302
योग्य	-1303
▁अधिसू	-1304
▁अनेक	-1305
नां	-1306
घटने	-1307
▁सर्	-1308
म्या	-1309
▁नेम	-1310
ग्रह	-1311
ाश	-1312
▁अनि	-1313
▁खात	-1314
क्षक	-1315
पणा	-1316
▁फक्त	-1317
▁आवश्यकता	-1318
▁मुला	-1319
▁कागद	-1320
▁लागेल	-1321
▁प्रभाव	-1322
ंबर	-1323
▁घटक	-1324
▁प्रथम	-1325
िन	-1326
एफ	-1327
▁निवेद	-1328
▁इच्छ	-1329
▁महा	-1330
▁सत	-1331
▁अधीन	-1332
▁अहवाल	-1333
▁विकास	-1334
▁महत्त्व	-1335
शील	-1336
ख्या	-1337
धारक	-1338
क्षेत्र	-1339
▁युक्तिवाद	-1340
वले	-1341
▁गुन्हेग	-1342
▁त्यास	-1343
▁मोठ्या	-1344
वळ	-1345
▁सामा	-1346
ावी	-1347
▁नोंदवि	-1348
▁आव्हान	-1349
▁फायद	-1350
▁स्वतः	-1351
▁कायम	-1352
▁सध्याच्या	-1353
व्हे	-1354
▁एफ	-1355
त्ता	-1356
र्ती	-1357
वरून	-1358
▁त्यानुसार	-1359
▁परत	-1360
स्कार	-1361
▁जातो	-1362
▁पोट	-1363
▁मते	-1364
था	-1365
▁वाज	-1366
▁विश्वास	-1367
▁चुकी	-1368
▁पे	-1369
▁बांध	-1370
नास	-1371
िके	-1372
धानिक	-1373
▁विचारात	-1374
ंती	-1375
भे	-1376
▁धोरण	-1377
स्प	-1378
▁पालन	-1379
▁योजना	-1380
▁खरेदी	-1381
▁स्थिती	-1382
म्यान	-1383
▁अध्यक्ष	-1384
▁जोड	-1385
▁पड	-1386
▁ज्यात	-1387
▁इंड	-1388
▁दृष्टी	-1389
▁पत्र	-1390
ँड	-1391
▁येईल	-1392
▁कारणास्तव	-1393
▁बह	-1394
▁मानले	-1395
▁कार्या	-1396
▁पूर्णपणे	-1397
▁नोंदणी	-1398
मिट	-1399
▁ई	-1400
रित	-1401
▁गुन्हेगारी	-1402
युक्त	-1403
ृत्ती	-1404
▁चांग	-1405
ॅन	-1406
▁करीत	-1407
ासून	-1408
▁पार	-1409
▁स्थान	-1410
▁करेल	-1411
रक	-1412
▁उत्पादन	-1413
▁नियंत्र	-1414
▁तारखे	-1415
▁जिल्हा	-1416
▁जि	-1417
सि	-1418
कॉर्ड	-1419
▁अहवाला	-1420
▁कर्ज	-1421
▁मालमत्ते	-1422
द्यक	-1423
▁शास	-1424
चल	-1425
▁कागदपत्र	-1426
▁वकील	-1427
▁सबमिशन	-1428
बु	-1429
▁शा	-1430
▁वर्ग	-1431
▁एकत्र	-1432
▁संरक्षण	-1433
▁प्रकाश	-1434
द्यकीय	-1435
▁मर्याद	-1436
▁अंतिम	-1437
▁प्रशास	-1438
▁सर्वोच्च	-1439
र्ध	-1440
वरित	-1441
▁रेकॉर्ड	-1442
▁व्यवस्थाप	-1443
्रम	-1444
▁घेण्यात	-1445
▁सुनावणी	-1446
्यांना	-1447
▁व्याव	-1448
▁हित	-1449
▁पुरस्कार	-1450
▁फेट	-1451
ii	-1452
▁बि	-1453
▁मान्यता	-1454
ांसाठी	-1455
▁फेटाळ	-1456
वाह	-1457
▁द्या	-1458
न्व	-1459
मेंट	-1460
चने	-1461
धारण	-1462
▁टी	-1463
व्या	-1464
▁मूल्यांकन	-1465
▁कार्यक्षेत्र	-1466
▁काय	-1467
▁बो	-1468
इट	-1469
▁वगळ	-1470
▁वैद्यकीय	-1471
िष्ठ	-1472
▁जमा	-1473
▁सिं	-1474
▁रुप	-1475
▁चाचणी	-1476
▁मला	-1477
▁खंडपीठाने	-1478
▁ठेवले	-1479
▁व्याज	-1480
▁योजने	-1481
▁लवाद	-1482
▁विनंती	-1483
▁न्यायाधीशांच्या	-1484
▁मूळ	-1485
▁याचा	-1486
▁कार्यक	-1487
सिंग	-1488
ल्यामुळे	-1489
जिक	-1490
मेद	-1491
क्तिक	-1492
▁वरिष्ठ	-1493
यक्तिक	-1494
▁करत	-1495
ंदी	-1496
▁ची	-1497
▁साध	-1498
▁घेता	-1499
▁जातात	-1500
▁अनुस	-1501
लि	-1502
▁ऐ	-1503
▁प्रकरणातील	-1504
▁शे	-1505
सुप्रा	-1506
▁व्यक्त	-1507
00	-1508
वाणी	-1509
--	-1510
▁टाक	-1511
रुद्ध	-1512
▁प्रकारच्या	-1513
ैर	-1514
▁प्रतिनि	-1515
▁परिच्छेद	-1516
ुक्ती	-1517
▁उमेद	-1518
ग्री	-1519
▁त्यांची	-1520
▁व्यवहार	-1521
▁दुरुस्ती	-1522
▁वित	-1523
▁यावर	-1524
टे	-1525
▁घ्या	-1526
▁माझ	-1527
पट	-1528
म्	-1529
▁संक	-1530
ातून	-1531
▁खाली	-1532
▁अतिरिक्त	-1533
▁ठिका	-1534
ाले	-1535
▁आज	-1536
▁परी	-1537
▁उल्लेख	-1538
▁घेतला	-1539
▁पूर्वी	-1540
▁विशेषत	-1541
कृत	-1542
▁शिक्षण	-1543
▁मन	-1544
र्प	-1545
▁निरी	-1546
▁असणे	-1547
जन	-1548
टर	-1549
▁वैयक्तिक	-1550
▁यांचे	-1551
▁नव्हती	-1552
गा	-1553
▁युनि	-1554
▁म्हणाले	-1555
▁टप्प	-1556
▁वैधानिक	-1557
कायद	-1558
▁दिसून	-1559
▁तेथे	-1560
▁घेण्यास	-1561
▁भाष	-1562
धून	-1563
▁संश	-1564
▁मंत्र	-1565
▁याची	-1566
▁त्र	-1567
▁मांड	-1568
▁बाजूने	-1569
▁सुविध	-1570
ाद्वारे	-1571
▁आंतर	-1572
▁खा	-1573
▁येत	-1574
सर्ग	-1575
बाबत	-1576
▁नियुक्ती	-1577
यक	-1578
▁समाज	-1579
▁कामगार	-1580
फार	-1581
▁नै	-1582
▁आधारित	-1583
ांमधील	-1584
▁प्रतिसाद	-1585
▁सल्ल्या	-1586
क्षणा	-1587
डा	-1588
त्म	-1589
्व	-1590
▁तत्त्वा	-1591
▁त्यातील	-1592
▁गैर	-1593
▁राम	-1594
ूण	-1595
▁देण्यास	-1596
▁उपयोग	-1597
▁संचा	-1598
अंतर्गत	-1599
▁गरज	-1600
▁सदस्य	-1601
▁विषया	-1602
ण्यापूर्वी	-1603
त्व	-1604
▁करणार्या	-1605
संदर्भात	-1606
▁मदत	-1607
्यांचा	-1608
▁भूम	-1609
▁संधी	-1610
▁शिफार	-1611
▁नाग	-1612
▁संहित	-1613
ंसाठी	-1614
▁जग	-1615
▁घेतलेल्या	-1616
▁जेथे	-1617
▁सरकारच्या	-1618
▁घेतली	-1619
कारक	-1620
सायिक	-1621
ौज	-1622
▁विस्त	-1623
र्च	-1624
▁विरुद्ध	-1625
लक्ष	-1626
▁सामाजिक	-1627
विला	-1628
▁गुणव	-1629
▁तंत्र	-1630
▁नकार	-1631
▁नव्हते	-1632
▁पॅ	-1633
▁असतील	-1634
▁पहिल्या	-1635
▁मालक	-1636
ुल	-1637
ंभीर	-1638
▁एखा	-1639
▁विद्यापीठ	-1640
▁नियुक्त	-1641
).	-1642
▁प्रकल्प	-1643
▁दिवस	-1644
▁मध्य	-1645
ासमोर	-1646
ौजदारी	-1647
▁बंध	-1648
▁लेखी	-1649
▁जबाबदार	-1650
▁समर्थ	-1651
...	-1652
पे	-1653
▁लाभ	-1654
▁गंभीर	-1655
▁क्षम	-1656
▁प्रश्ना	-1657
▁अधिकृत	-1658
▁तप	-1659
ांतर	-1660
▁येणार	-1661
खाली	-1662
क्रम	-1663
▁घेणे	-1664
ारख्या	-1665
हेर	-1666
▁आयपीसी	-1667
▁म्हणजेच	-1668
▁अड	-1669
हक	-1670
ापत्र	-1671
ुष	-1672
▁देण्यासाठी	-1673
▁कुमार	-1674
▁करुन	-1675
▁अॅ	-1676
▁व्यावसायिक	-1677
मुख	-1678
▁मागणी	-1679
प्त	-1680
▁न्यायालयाच्या	-1681
▁फौजदारी	-1682
▁बाजूला	-1683
टीस	-1684
नंद	-1685
▁करणारे	-1686
▁मूल्य	-1687
्यासाठी	-1688
▁निर्माण	-1689
▁निकाल	-1690
अर	-1691
▁दिलेली	-1692
▁घटनेच्या	-1693
▁व्ह	-1694
पुर	-1695
▁सहाय	-1696
▁पुरावे	-1697
▁राज्यघटने	-1698
▁कायद्यात	-1699
▁उद्योग	-1700
▁रोख	-1701
▁गुंतव	-1702
ावा	-1703
संग	-1704
▁कार्याल	-1705
▁करताना	-1706
▁आलेल्या	-1707
ंगिक	-1708
याच्या	-1709
▁आणखी	-1710
ुंब	-1711
▁बहु	-1712
▁सामग्री	-1713
▁स्वा	-1714
जर	-1715
▁एकूण	-1716
▁अभ्यास	-1717
ोन	-1718
णू	-1719
▁मर्यादित	-1720
▁दूर	-1721
मधून	-1722
विषयी	-1723
▁खास	-1724
▁समु	-1725
▁जख	-1726
ंच	-1727
्याय	-1728
▁होत	-1729
▁एज	-1730
व्यव	-1731
टुंब	-1732
▁असून	-1733
▁वेगवे	-1734
▁हिं	-1735
▁सत्य	-1736
▁व्यापार	-1737
्यांची	-1738
▁प्रतिबंध	-1739
काम	-1740
राष्ट	-1741
ोप	-1742
▁दरम्यान	-1743
▁कॅ	-1744
न्वये	-1745
▁उपाय	-1746
पूर	-1747
ुरी	-1748
स्त्र	-1749
▁शेव	-1750
पूर्व	-1751
▁पुरे	-1752
▁कायदे	-1753
▁ज्यामध्ये	-1754
▁स्वातंत्र्य	-1755
▁ग्र	-1756
▁सरकारने	-1757
▁समाधान	-1758
▁पुनर	-1759
ामध्ये	-1760
▁चि	-1761
मार्	-1762
▁नोटीस	-1763
▁वस्तु	-1764
▁शिकलेल्या	-1765
मिटेड	-1766
कृ	-1767
▁लिमिटेड	-1768
आयआर	-1769
▁न्यायाधीशांनी	-1770
▁वैध	-1771
ृह	-1772
▁सीआर	-1773
▁रक	-1774
▁शं	-1775
▁नव्हता	-1776
नांक	-1777
रित्या	-1778
▁यू	-1779
▁घाल	-1780
▁दिनांक	-1781
▁सरकारी	-1782
▁घड	-1783
वासी	-1784
▁अग	-1785
▁असल्याने	-1786
रल	-1787
िरी	-1788
▁कराराच्या	-1789
▁ठिकाणी	-1790
▁अनुसू	-1791
▁ठेवला	-1792
व्ही	-1793
▁शै	-1794
▁देऊन	-1795
र्मा	-1796
▁वेत	-1797
▁कर्मचार	-1798
▁असले	-1799
द्दा	-1800
तेचा	-1801
▁कोर्टाचे	-1802
▁वाजवी	-1803
▁त्	-1804
लीज	-1805
▁होतो	-1806
▁हात	-1807
▁मुद्द	-1808
क्टर	-1809
▁व्यवसा	-1810
▁पद्धतीने	-1811
▁होणार	-1812
▁उमेदवार	-1813
▁मुद्दा	-1814
▁रकमे	-1815
▁निर्णयावर	-1816
मिक	-1817
▁राहि	-1818
▁यादी	-1819
▁अपय	-1820
▁घेऊन	-1821
▁चालू	-1822
▁प्रमाणपत्र	-1823
ठा	-1824
▁उदा	-1825
ल्पना	-1826
▁वास्तव	-1827
▁इंडिया	-1828
▁कालावधीत	-1829
▁एल	-1830
▁गेलेल	-1831
▁अभिव्य	-1832
स्वी	-1833
▁पार्	-1834
िष्ट	-1835
▁अत	-1836
▁दुर्लक्ष	-1837
▁एक्स	-1838
▁केंद	-1839
▁असलेले	-1840
फा	-1841
▁उद्दी	-1842
▁ले	-1843
▁जरी	-1844
ष्टिक	-1845
▁हस्तक्षेप	-1846
दू	-1847
▁असेही	-1848
ाकडे	-1849
▁पॉ	-1850
योज	-1851
▁सूट	-1852
▁सर्वात	-1853
▁उद्दीष्ट	-1854
▁विका	-1855
▁देऊ	-1856
ग्ण	-1857
िता	-1858
▁बोल	-1859
कायदेशीर	-1860
प्ती	-1861
जेत	-1862
▁थेट	-1863
▁शिक्षे	-1864
सर	-1865
▁पाहिजेत	-1866
टा	-1867
ंगाने	-1868
▁देख	-1869
▁बजाव	-1870
▁काढून	-1871
▁असतात	-1872
▁अनुष	-1873
▁पाव	-1874
▁महत्त्वपूर्ण	-1875
▁इत्या	-1876
▁जाणे	-1877
सूल	-1878
गळ्या	-1879
▁आदेशानुसार	-1880
▁समर्थन	-1881
▁विकासा	-1882
लंबित	-1883
▁मंत्राल	-1884
▁स्थापित	-1885
▁कायद्यातील	-1886
शस्वी	-1887
▁पैसे	-1888
एक्सएक्स	-1889
क्षणिक	-1890
▁वेगवेगळ्या	-1891
्यांनी	-1892
▁इत्यादी	-1893
लट	-1894
▁अन्यथा	-1895
चन	-1896
▁अनुषंगाने	-1897
▁विधिम	-1898
▁बंधन	-1899
▁विधानस	-1900
ह्य	-1901
रिक	-1902
ांतरण	-1903
▁त्वरित	-1904
▁मार्गदर्श	-1905
▁मर्यादा	-1906
▁त्याची	-1907
देखील	-1908
▁स्वरूप	-1909
▁मुद	-1910
▁नागर	-1911
▁एकत्रित	-1912
▁मंडळ	-1913
▁शैक्षणिक	-1914
▁केंद्रीय	-1915
नाची	-1916
ांकडून	-1917
▁चर्चा	-1918
▁दिलेला	-1919
▁प्रकरणांमध्ये	-1920
▁कार्यकारी	-1921
ित्व	-1922
▁तक्रारी	-1923
▁सुधारित	-1924
विली	-1925
▁सिंह	-1926
▁पाह	-1927
▁विकस	-1928
▁फॉ	-1929
▁आयुक्त	-1930
▁जिथे	-1931
▁सिंग	-1932
▁दृष्टिक	-1933
थील	-1934
▁विद्य	-1935
▁संचालक	-1936
▁वास्तविक	-1937
▁पर्यंत	-1938
पीडब्ल्यू	-1939
▁फेटाळून	-1940
्टी	-1941
▁व्यवसाय	-1942
्याचे	-1943
ांतर्गत	-1944
ाधिक	-1945
ंडळा	-1946
▁कॉर्प	-1947
डित	-1948
राष्ट्रीय	-1949
रोबर	-1950
विण्यात	-1951
वाच्या	-1952
बल	-1953
▁जागा	-1954
▁बेकायदेशीर	-1955
▁पाच	-1956
▁तपशील	-1957
▁कम	-1958
ांद्वारे	-1959
▁ग्राहक	-1960
▁नेमणूक	-1961
▁कृती	-1962
▁विरोधात	-1963
▁मुक्त	-1964
▁आढळले	-1965
होत	-1966
▁येते	-1967
▁कर्तव्य	-1968
माच्या	-1969
▁यंत्र	-1970
करी	-1971
▁पाड	-1972
▁नागरी	-1973
▁वस्तुस्थिती	-1974
ॅट	-1975
▁ठो	-1976
▁आहोत	-1977
वजी	-1978
▁अभिव्यक्ती	-1979
मन	-1980
▁अयोग्य	-1981
भाष	-1982
▁प्रभावी	-1983
▁तिला	-1984
खंड	-1985
▁शंका	-1986
तक	-1987
विणे	-1988
▁पुरव	-1989
▁त्यात	-1990
▁घेतले	-1991
चि	-1992
▁विमा	-1993
▁भूमिका	-1994
▁निर्दोष	-1995
▁वर्ण	-1996
▁पुनराव	-1997
▁द्	-1998
वाचे	-1999
िर	-2000
▁आठ	-2001
▁असताना	-2002
▁इमार	-2003
वल	-2004
]]	-2005
▁नागरिक	-2006
▁प्रत्यक्ष	-2007
▁ऐक	-2008
वेळी	-2009
▁वकिला	-2010
▁निदर्श	-2011
▁घर	-2012
भार	-2013
विण्यासाठी	-2014
ंधी	-2015
▁पट	-2016
▁निर्दिष्ट	-2017
▁अपीलकर्त्याच्या	-2018
▁स्थापना	-2019
▁अगदी	-2020
▁वार	-2021
▁पुरेसे	-2022
▁मज	-2023
▁अंतर	-2024
▁भि	-2025
▁दृष्टीने	-2026
▁भाडेक	-2027
▁किंमती	-2028
▁टप्प्यावर	-2029
पण	-2030
▁संघ	-2031
▁जवळ	-2032
▁पदा	-2033
द्योगिक	-2034
▁आधारावर	-2035
▁पीडित	-2036
▁परिणामी	-2037
▁वाह	-2038
▁आयोज	-2039
▁केल्याप्रमाणे	-2040
्येष्ठ	-2041
▁नियमित	-2042
▁गेल्या	-2043
▁प्रशि	-2044
राज	-2045
▁बस	-2046
चारी	-2047
▁सूचना	-2048
▁निवेदन	-2049
न्सी	-2050
एच	-2051
नातून	-2052
▁वेतन	-2053
▁जागे	-2054
▁औद्योगिक	-2055
▁केल्यावर	-2056
▁व्यक्तीच्या	-2057
ांशी	-2058
▁निदर्शनास	-2059
पड	-2060
ीला	-2061
▁कबु	-2062
▁जेणे	-2063
▁कॉर्पोर	-2064
▁आंतरराष्ट्रीय	-2065
▁हमी	-2066
▁खर्च	-2067
▁खु	-2068
▁कल	-2069
▁जसे	-2070
▁कुटुंब	-2071
▁न्याय्य	-2072
▁व्यक्तीला	-2073
ंटर	-2074
वत	-2075
▁लवादा	-2076
▁अपयशी	-2077
गिरी	-2078
त्वात	-2079
ांतरित	-2080
▁याचिक	-2081
त्री	-2082
▁ज्येष्ठ	-2083
▁रुपये	-2084
▁कधी	-2085
कु	-2086
▁कठ	-2087
ढे	-2088
▁संसद	-2089
▁आपले	-2090
वेत	-2091
▁कारणे	-2092
ासह	-2093
▁तरीही	-2094
धान्य	-2095
नाचा	-2096
▁तारखेपासून	-2097
ऐवजी	-2098
▁नियंत्रण	-2099
हरण	-2100
▁बंद	-2101
▁प्रव	-2102
सर्गिक	-2103
▁काळजी	-2104
▁आमचे	-2105
थमिक	-2106
▁आनंद	-2107
▁अस्तित्त्वात	-2108
▁जन्	-2109
▁कामका	-2110
▁ज्ञ	-2111
▁चार	-2112
▁घेतल्या	-2113
▁सुविधा	-2114
▁कठोर	-2115
नासाठी	-2116
्याचा	-2117
तेवर	-2118
▁सुरक्षित	-2119
▁प्रे	-2120
दाय	-2121
▁तारख	-2122
▁क्षमता	-2123
▁नसते	-2124
▁घोषित	-2125
तेची	-2126
▁गेलेल्या	-2127
▁नुसार	-2128
▁अर्जदार	-2129
▁हस्तांतरण	-2130
▁सुरक्षा	-2131
▁पासून	-2132
▁प्राथमिक	-2133
▁घेण्यासाठी	-2134
तेचे	-2135
▁अट	-2136
▁विवे	-2137
▁ज्यामुळे	-2138
▁निर्धार	-2139
▁वाहन	-2140
▁सूचित	-2141
व्यवस्थ	-2142
▁पुनर्	-2143
▁येथील	-2144
▁फरक	-2145
▁दाव	-2146
▁पुष्टी	-2147
▁अटक	-2148
हीर	-2149
▁काढला	-2150
▁इत	-2151
विद्या	-2152
,,	-2153
▁अधिनिय	-2154
ेवारी	-2155
▁रू	-2156
▁सभ	-2157
▁सहभाग	-2158
▁उत्पन्	-2159
▁परिष	-2160
मो	-2161
ज्ञापत्र	-2162
सारख्या	-2163
▁जोपर्यंत	-2164
▁विद्यार्थ	-2165
▁सर्वसा	-2166
▁गट	-2167
भाव्य	-2168
▁एकदा	-2169
▁विधिमंडळ	-2170
भू	-2171
▁एच	-2172
▁विषय	-2173
▁नोंदव	-2174
ांनुसार	-2175
▁वन	-2176
▁कायद्याने	-2177
जि	-2178
▁आपला	-2179
▁त्यांचा	-2180
▁माझ्या	-2181
▁((	-2182
▁भिन्न	-2183
र्देश	-2184
▁आत	-2185
▁तक्रारदार	-2186
लात	-2187
▁देताना	-2188
▁तंत्रज्ञान	-2189
▁देण्याची	-2190
लोक	-2191
▁जोर	-2192
▁नेह	-2193
णि	-2194
▁फे	-2195
विद्याल	-2196
▁स्थापन	-2197
▁संभाव्य	-2198
▁पद्धती	-2199
▁मंजुरी	-2200
▁असतो	-2201
गु	-2202
▁जाहीर	-2203
▁अन्वये	-2204
▁विकसित	-2205
▁देत	-2206
▁नैसर्गिक	-2207
▁देण्याच्या	-2208
त्ती	-2209
ृता	-2210
▁परवा	-2211
▁प्रतिज्ञापत्र	-2212
पूर्वक	-2213
शाही	-2214
▁सत्र	-2215
▁स्थानिक	-2216
▁कामकाज	-2217
▁उपचार	-2218
वारी	-2219
▁अत्यंत	-2220
▁रूप	-2221
▁पाया	-2222
▁प्रग	-2223
ेल्	-2224
▁डेट	-2225
्रेणी	-2226
द्र	-2227
र्न	-2228
्यांचे	-2229
▁आत्म	-2230
▁दावे	-2231
▁बाजार	-2232
▁स्त्र	-2233
▁संयुक्त	-2234
▁मागे	-2235
त्रिक	-2236
▁प्रलंबित	-2237
▁क्षेत्रात	-2238
ैंगिक	-2239
▁राज्यातील	-2240
सम	-2241
संबंध	-2242
▁असो	-2243
▁महाविद्याल	-2244
▁कायद्याचा	-2245
णूकी	-2246
त्सा	-2247
▁प्रस्ताव	-2248
▁कायद्याचे	-2249
▁व्यक्तीने	-2250
▁एकल	-2251
▁जीव	-2252
▁भांड	-2253
▁पीसी	-2254
▁टक्क	-2255
▁दाख	-2256
इन	-2257
▁भाडेकरू	-2258
विधान	-2259
▁यात	-2260
▁पोहो	-2261
▁तां	-2262
ारण	-2263
▁एफआयआर	-2264
ग्न	-2265
▁निर्म	-2266
ठाव	-2267
▁कौत	-2268
नाचे	-2269
▁संब	-2270
▁ऑपर	-2271
▁मृता	-2272
▁आवा	-2273
▁पत्	-2274
▁घेऊ	-2275
▁बार	-2276
▁प्रोत्सा	-2277
काळ	-2278
▁परदेश	-2279
▁रोजीच्या	-2280
▁धर	-2281
▁मागील	-2282
▁युनिट	-2283
▁नसल्या	-2284
ित्र	-2285
▁देण्याचे	-2286
................	-2287
कर्ते	-2288
▁ठोठाव	-2289
▁वर्णन	-2290
▁मॅ	-2291
▁ठरव	-2292
ंत्री	-2293
▁अपीला	-2294
▁सुट	-2295
म्म	-2296
▁माध्य	-2297
दंड	-2298
▁देव	-2299
▁रुग्ण	-2300
▁विवाद	-2301
▁बाहेर	-2302
घात	-2303
▁म्हणणे	-2304
खा	-2305
हर	-2306
श्च	-2307
▁पृ	-2308
व्यतिरिक्त	-2309
हून	-2310
▁पर्यावर	-2311
▁बांधकाम	-2312
▁यापूर्वी	-2313
▁प्राधान्य	-2314
▁शक्यता	-2315
यन	-2316
▁मुदत	-2317
▁वर्षे	-2318
▁किंमत	-2319
▁ठेवणे	-2320
▁वाटप	-2321
▁सात	-2322
▁गुणवत्	-2323
▁ब्र	-2324
▁वेब	-2325
ळ्या	-2326
▁यासाठी	-2327
एलपी	-2328
सीआय	-2329
▁जीवन	-2330
▁स्वाक्ष	-2331
दात	-2332
▁नियमन	-2333
▁महिला	-2334
▁प्रशिक्षण	-2335
▁दर्शवित	-2336
▁खर	-2337
▁बै	-2338
▁ठरेल	-2339
▁संविधान	-2340
▁जावे	-2341
ख्ये	-2342
▁परिभाष	-2343
ज्	-2344
▁ज्याने	-2345
करिता	-2346
मस	-2347
▁पोहोच	-2348
▁यामुळे	-2349
बीआय	-2350
▁समस	-2351
ंबंधी	-2352
▁सर्वसाधारण	-2353
ारीख	-2354
र्जी	-2355
▁जाहि	-2356
▁सेवे	-2357
▁यांच्यात	-2358
▁व्याख्या	-2359
▁सहकार	-2360
ूर्ती	-2361
▁आल्या	-2362
फत	-2363
यू	-2364
▁संदर्भित	-2365
ल्ट	-2366
ानंतर	-2367
▁अध्या	-2368
▁असता	-2369
▁प्रमुख	-2370
▁सुस	-2371
▁मानवी	-2372
▁प्रतिनिधी	-2373
▁न्यायालयासमोर	-2374
▁खाण	-2375
▁निर्णयाच्या	-2376
द्धी	-2377
ार्थी	-2378
▁कर्मचारी	-2379
▁नसल्यास	-2380
काश	-2381
▁कार्यक्रम	-2382
▁अधिसूचने	-2383
णाली	-2384
ॉक	-2385
▁जन्म	-2386
▁न्यायालये	-2387
▁केल्याने	-2388
▁करावा	-2389
▁परवाना	-2390
▁शिकलेला	-2391
स्ट्र	-2392
▁घेण्याची	-2393
▁संशोध	-2394
▁नोट	-2395
▁रिक्त	-2396
▁वैशिष्ट	-2397
▁फायदा	-2398
▁प्रतिक	-2399
▁दिवाणी	-2400
भाज	-2401
▁ज्याचा	-2402
▁निधी	-2403
▁प्रार्थ	-2404
▁अधिका	-2405
पाला	-2406
ृत्त	-2407
▁किमान	-2408
▁विहित	-2409
पक्ष	-2410
साइट	-2411
▁व्यवस्थापन	-2412
ोत	-2413
▁तारीख	-2414
लन	-2415
फॉ	-2416
▁पेट	-2417
▁याचिके	-2418
ल्ड	-2419
▁झाल्यास	-2420
▁मुल	-2421
▁हायकोर्टाच्या	-2422
▁गोप	-2423
पुढे	-2424
▁उलट	-2425
▁दखल	-2426
▁आक्षेप	-2427
▁खासगी	-2428
वड	-2429
ांमुळे	-2430
▁न्यायाधिकरणाने	-2431
▁हजर	-2432
▁मालकी	-2433
▁कमिशन	-2434
▁पोस्ट	-2435
▁वड	-2436
▁भेट	-2437
▁न्यायम	-2438
▁मोज	-2439
▁जाणार	-2440
▁समितीने	-2441
▁तुम	-2442
▁लोकांच्या	-2443
नावर	-2444
▁विश्ले	-2445
▁वर्षांच्या	-2446
▁हर	-2447
▁ठा	-2448
▁देशातील	-2449
▁शिफारस	-2450
▁व्यक्तीस	-2451
▁कौतुक	-2452
▁पक्षा	-2453
▁खर्चा	-2454
खे	-2455
तीसाठी	-2456
▁सापड	-2457
निश्चित	-2458
▁गोपनीय	-2459
ांकडे	-2460
▁काहीही	-2461
▁वाग	-2462
▁आपली	-2463
▁उत्पन्न	-2464
▁मार	-2465
श्व	-2466
▁भविष	-2467
▁मार्गदर्शक	-2468
▁बचा	-2469
▁तात	-2470
स्थाप	-2471
▁कायद्याची	-2472
▁कंपन्या	-2473
ोरे	-2474
ांश	-2475
▁पाहिले	-2476
▁केल्यास	-2477
▁करणार	-2478
▁निवडणूक	-2479
▁राज्याच्या	-2480
▁त्याद्वारे	-2481
▁विस्तृत	-2482
वाची	-2483
▁पूर्वीच्या	-2484
▁नेहमी	-2485
▁वितरण	-2486
▁ता	-2487
लीन	-2488
▁प्रणाली	-2489
ठे	-2490
▁आरोग्य	-2491
▁थोड	-2492
▁तिने	-2493
▁लव	-2494
▁आयोजित	-2495
गड	-2496
▁वेबसाइट	-2497
स्थान	-2498
पो	-2499
ुर	-2500
▁निर्णयाचा	-2501
▁न्यायमूर्ती	-2502
▁खात्री	-2503
▁ठेवण्यात	-2504
▁बोर्ड	-2505
ापासून	-2506
▁दुसरे	-2507
▁लैंगिक	-2508
▁साहित	-2509
▁जबाबदारी	-2510
▁महान	-2511
▁सुनिश्चित	-2512
▁नाव	-2513
क्शन	-2514
ग्रहण	-2515
ॉन	-2516
▁शिक्षक	-2517
▁तत्	-2518
ंबई	-2519
ल्स	-2520
▁आधीच	-2521
▁पूर्त	-2522
लू	-2523
ांसह	-2524
खर	-2525
▁अंमलात	-2526
ंनुसार	-2527
▁बॉ	-2528
▁वी	-2529
▁योग	-2530
▁भेद	-2531
▁वगळता	-2532
▁सचि	-2533
लो	-2534
न्मान	-2535
्याची	-2536
▁कार्यक्षम	-2537
▁पाळ	-2538
▁तांत्रिक	-2539
▁करावी	-2540
▁कल्या	-2541
▁लवादाच्या	-2542
▁बंधनकारक	-2543
वार्य	-2544
▁सार	-2545
▁नव्हे	-2546
ादन	-2547
▁उदाहरण	-2548
▁दी	-2549
▁विद्यमान	-2550
▁मुंबई	-2551
▁सुरु	-2552
वाचा	-2553
▁उर्	-2554
▁खटल्याची	-2555
▁पॅरा	-2556
शल	-2557
▁एखादी	-2558
लत	-2559
▁सवल	-2560
▁अनिवार्य	-2561
▁जातील	-2562
▁सहा	-2563
रस	-2564
▁नान	-2565
▁मिळव	-2566
क्ता	-2567
▁त्यामध्ये	-2568
▁नोंदी	-2569
▁एजन्सी	-2570
▁लाख	-2571
▁सहकारी	-2572
▁पुनरु	-2573
▁तिस	-2574
▁ठेवली	-2575
▁एसएलपी	-2576
▁अँड	-2577
ल्याप्रमाणे	-2578
तून	-2579
मिळ	-2580
▁तथ्य	-2581
ाशी	-2582
ंडो	-2583
▁हस्तांतरित	-2584
्यातील	-2585
▁प्रस	-2586
▁प्रशासकीय	-2587
डि	-2588
ोन्न	-2589
▁क्षेत्रातील	-2590
▁अल्प	-2591
▁पत्नी	-2592
▁लोकशाही	-2593
पात	-2594
ूदी	-2595
▁प्रतिबंधित	-2596
ापेक्षा	-2597
▁...	-2598
▁इन्	-2599
▁सन्मान	-2600
▁भौ	-2601
▁अनुसूचित	-2602
▁पदोन्न	-2603
▁अपंग	-2604
▁तरतूदी	-2605
▁श्रेणी	-2606
▁राज्यात	-2607
▁शेवटी	-2608
▁पि	-2609
▁कागदपत्रे	-2610
फ्ट	-2611
▁जनरल	-2612
▁शी	-2613
▁जु	-2614
▁कोटी	-2615
▁ठेवण्यासाठी	-2616
ब्र	-2617
▁निरा	-2618
लीजबाब	-2619
▁अपवाद	-2620
▁दुसरी	-2621
ंता	-2622
▁देते	-2623
करून	-2624
र्जा	-2625
▁असूनही	-2626
ाप्र	-2627
▁आरोपींना	-2628
▁कबुलीजबाब	-2629
ंशी	-2630
▁आरोपींनी	-2631
फोट	-2632
▁वर्षां	-2633
ल्ला	-2634
▁त्रास	-2635
▁संघट	-2636
▁कंपनीच्या	-2637
▁श्रीमती	-2638
▁झाल्यानंतर	-2639
▁जाती	-2640
▁स्वाक्षरी	-2641
▁भाड	-2642
▁महिन्या	-2643
▁सर्वा	-2644
▁लो	-2645
▁कोर्टाला	-2646
▁बैठ	-2647
सिक	-2648
भूमी	-2649
वर्त	-2650
▁गुंतवणूक	-2651
▁पात	-2652
▁जेणेकरून	-2653
▁भवन	-2654
▁अपीलकर्त्यास	-2655
▁हेतूने	-2656
▁व्यवसाया	-2657
ॉट	-2658
▁पुनरावलोक	-2659
दृ	-2660
▁तुल	-2661
▁परिषद	-2662
▁अय	-2663
पट्टी	-2664
▁विंडो	-2665
नीकरण	-2666
▁खरेदीदार	-2667
क्यात	-2668
▁राजकीय	-2669
▁प्रतिनिध	-2670
▁टे	-2671
▁अस्	-2672
ेशी	-2673
धन	-2674
▁व्ही	-2675
▁आणून	-2676
ान्स	-2677
▁संसदे	-2678
▁दोघ	-2679
▁ठरले	-2680
▁एखादा	-2681
▁चांगले	-2682
▁आणले	-2683
▁अधिग्रहण	-2684
▁अधिसूचना	-2685
▁गण	-2686
▁वं	-2687
ाजगी	-2688
▁तरतुदीनुसार	-2689
▁देतो	-2690
ांब	-2691
याम	-2692
▁कल्पना	-2693
▁तत्त्वे	-2694
▁मुखर्जी	-2695
निव	-2696
▁फॉर्म	-2697
▁मंडळा	-2698
▁असलेली	-2699
▁पूर्तता	-2700
काशवाणी	-2701
मसलत	-2702
▁नसेल	-2703
िव्ह	-2704
▁सहाय्यक	-2705
▁ठेवून	-2706
▁मर्यादे	-2707
ाबाद	-2708
▁आतापर्यंत	-2709
ाट	-2710
▁बनवि	-2711
▁लिहि	-2712
▁प्रगती	-2713
▁उपक्रम	-2714
▁माजी	-2715
तः	-2716
▁पहा	-2717
▁पात्रता	-2718
गरपाल	-2719
▁दिवशी	-2720
बे	-2721
▁आपल्याला	-2722
▁घेण्याचा	-2723
▁इच्छा	-2724
▁कामगिरी	-2725
स्टर	-2726
सव	-2727
▁मोह	-2728
▁क्रिया	-2729
▁सामील	-2730
बात	-2731
ॉड	-2732
▁टाळ	-2733
लीकडे	-2734
▁व्यापक	-2735
न्य	-2736
▁आहेः	-2737
▁फी	-2738
▁जखमी	-2739
▁यांचा	-2740
▁प्रार्थना	-2741
योगे	-2742
▁ज्ञान	-2743
▁शरी	-2744
▁जामीन	-2745
▁पृष्ठ	-2746
▁डॉक्टर	-2747
▁सरकारला	-2748
झा	-2749
▁करावे	-2750
▁निर	-2751
▁विंडोमध्ये	-2752
▁नावे	-2753
मातील	-2754
लॉ	-2755
▁तोपर्यंत	-2756
▁मै	-2757
▁यशस्वी	-2758
▁भारतात	-2759
▁खाजगी	-2760
षी	-2761
ाधिकारी	-2762
▁परदेशी	-2763
तम	-2764
▁राख	-2765
ियन	-2766
यंत्र	-2767
▁उभे	-2768
▁इंग	-2769
▁मंद	-2770
▁आढावा	-2771
हान	-2772
▁न्यायाच्या	-2773
▁प्रस्तावित	-2774
शान	-2775
▁विधे	-2776
▁भारतातील	-2777
▁नसलेल्या	-2778
प्रे	-2779
▁अडथ	-2780
▁पार्श्व	-2781
▁आधीच्या	-2782
▁वाढी	-2783
▁सल्लामसलत	-2784
▁पैलू	-2785
▁महिन	-2786
मार्फत	-2787
▁कायद्यांतर्गत	-2788
▁टिक	-2789
▁डो	-2790
▁शब्दा	-2791
▁स्क	-2792
▁रजा	-2793
▁लवकर	-2794
▁त्याचप्रमाणे	-2795
iii	-2796
▁आवाहन	-2797
▁पार्श्वभूमी	-2798
वू	-2799
▁सुधारणा	-2800
वते	-2801
ापर	-2802
▁भागात	-2803
▁पातळी	-2804
▁ज्याच्या	-2805
▁कट	-2806
▁निवि	-2807
▁पुराव्यां	-2808
▁करण्यापूर्वी	-2809
▁काळात	-2810
▁सिद्धांत	-2811
कालीन	-2812
मंडळ	-2813
▁पदवी	-2814
▁संख्या	-2815
▁आकर्ष	-2816
षिक	-2817
▁सुम	-2818
▁व्यतिरिक्त	-2819
रत	-2820
▁कालावधीसाठी	-2821
▁निष	-2822
ार्षिक	-2823
▁देखभ	-2824
कला	-2825
▁अवि	-2826
▁केस	-2827
▁हि	-2828
▁जाणार्या	-2829
▁चुकीचे	-2830
▁आरोपीला	-2831
▁डब्ल्यू	-2832
▁आयात	-2833
न्ट	-2834
▁कल्याण	-2835
▁अंद	-2836
कल	-2837
र्चे	-2838
अप	-2839
्ड	-2840
श्वास	-2841
तेक	-2842
000	-2843
परि	-2844
ोरी	-2845
▁कोर्टासमोर	-2846
▁स्तर	-2847
▁कृषी	-2848
▁शासन	-2849
▁कोर्टाचा	-2850
▁चुकीच्या	-2851
▁गुंतवणूकी	-2852
णु	-2853
▁रुग्णाल	-2854
▁पदार्थ	-2855
▁सल्ल्यानुसार	-2856
▁उपस्थिती	-2857
▁नव	-2858
सायटी	-2859
▁महसूल	-2860
▁विलंब	-2861
ल्हे	-2862
▁भाव	-2863
▁अहवालात	-2864
व्हर	-2865
ाप्	-2866
▁[]]	-2867
▁संशोधन	-2868
▁बाय	-2869
िक्री	-2870
▁मना	-2871
▁चर्चे	-2872
▁सामर्थ	-2873
▁राज्यपाला	-2874
▁संमती	-2875
चर	-2876
▁पण	-2877
▁बहुतेक	-2878
▁परिभाषित	-2879
▁कर्ना	-2880
ापर्यंत	-2881
तेने	-2882
▁जाहिरात	-2883
मिनी	-2884
वाट	-2885
यं	-2886
▁अमे	-2887
▁निकाली	-2888
तीची	-2889
▁तरतुदींच्या	-2890
▁अत्या	-2891
एससी	-2892
▁तर्क	-2893
▁पाठवि	-2894
ार्ह	-2895
▁चूक	-2896
▁अनुदान	-2897
क्का	-2898
▁सल्लागार	-2899
स्टम	-2900
▁खनि	-2901
▁पॉलि	-2902
▁येऊ	-2903
ार्ड	-2904
ंकडे	-2905
मीण	-2906
यीन	-2907
▁संबोध	-2908
डू	-2909
बद्ध	-2910
णुकी	-2911
यल	-2912
▁संसा	-2913
▁त्यामुळे	-2914
▁दृष्टिको	-2915
▁खो	-2916
कारे	-2917
▁नियमांनुसार	-2918
त्तर	-2919
ेल्वे	-2920
▁आकाशवाणी	-2921
▁प्रकाशात	-2922
.,	-2923
▁जप्त	-2924
▁निर्णयामध्ये	-2925
न्याया	-2926
▁विवेक	-2927
▁सुमारे	-2928
▁विषयावर	-2929
पद्ध	-2930
▁गा	-2931
▁प्राधिकरणाने	-2932
▁अॅड	-2933
ेन	-2934
▁थांब	-2935
▁तारखेला	-2936
▁पुस्त	-2937
▁ट्रस्ट	-2938
▁घात	-2939
▁इन	-2940
रुन	-2941
▁डेटा	-2942
▁निरीक्षण	-2943
ेने	-2944
▁मुली	-2945
▁जागतिक	-2946
▁सां	-2947
----	-2948
▁घटनेत	-2949
▁याचिकाकर्त्याने	-2950
▁पाठिं	-2951
▁खटल्याचा	-2952
▁व्यवस्था	-2953
▁विल्हे	-2954
▁स्पर्ध	-2955
▁असला	-2956
▁दर्शविली	-2957
स्पर	-2958
▁नोंदणीकृत	-2959
▁कार्यक्षेत्रात	-2960
▁केल्यानुसार	-2961
▁बॅ	-2962
▁राहून	-2963
▁सहमत	-2964
▁साठी	-2965
ांपैकी	-2966
▁ग्रामीण	-2967
सन	-2968
याने	-2969
▁असावा	-2970
▁विश्लेषण	-2971
▁रेल्वे	-2972
बरोबर	-2973
▁घेण्या	-2974
▁भौतिक	-2975
ंचाय	-2976
▁सुच	-2977
▁नेहमीच	-2978
ापती	-2979
▁संव	-2980
▁समितीच्या	-2981
▁ठराव	-2982
्यांसाठी	-2983
▁विस्तार	-2984
इल	-2985
ंसह	-2986
▁लॉ	-2987
ार्मिक	-2988
▁त्यावर	-2989
▁वस्तूंच्या	-2990
ष्ट्या	-2991
▁कर्नाटक	-2992
▁खटल्यात	-2993
▁सभाग	-2994
▁तथ्ये	-2995
▁झाल्यावर	-2996
▁ताबा	-2997
▁महत्	-2998
ंडी	-2999
▁नात	-3000
▁नोकरी	-3001
▁सोसायटी	-3002
▁ट्राय	-3003
ुत	-3004
ारीरिक	-3005
▁कार्यपद्ध	-3006
▁व्याप्ती	-3007
▁सौ	-3008
▁ज्यायोगे	-3009
िटी	-3010
१०	-3011
ाबद्दल	-3012
▁देण्याचा	-3013
▁विसंग	-3014
▁परस्पर	-3015
▁निर्बंध	-3016
▁दृष्टीको	-3017
प्रिल	-3018
▁आयोगाने	-3019
फी	-3020
्रॉ	-3021
नियम	-3022
▁मार्गाने	-3023
▁पायाभूत	-3024
▁केल्याबद्दल	-3025
ाध	-3026
▁निकष	-3027
पन	-3028
▁दिसते	-3029
▁सेवानिव	-3030
तेनुसार	-3031
▁शेवट	-3032
▁नसल्यामुळे	-3033
▁निर्या	-3034
▁दुख	-3035
सीटी	-3036
ईपर्यंत	-3037
▁प्रतिनिधित्व	-3038
▁कब	-3039
▁औचित	-3040
▁भेदभाव	-3041
▁डे	-3042
रणे	-3043
▁विल्हेवाट	-3044
▁शारीरिक	-3045
▁लोकांना	-3046
▁भारताचे	-3047
▁दुसरीकडे	-3048
▁कंत्र	-3049
▁पुरवठा	-3050
▁स्वरु	-3051
▁वार्षिक	-3052
साची	-3053
▁होण्याची	-3054
▁मिळाला	-3055
▁उचल	-3056
लाल	-3057
कांच्या	-3058
▁एकाच	-3059
शानि	-3060
▁व्हि	-3061
शानिर्देश	-3062
शीर	-3063
ाया	-3064
▁धार्मिक	-3065
▁उत्तरदाय	-3066
▁चांगल्या	-3067
भर	-3068
▁सेट	-3069
▁कर्तव	-3070
▁सै	-3071
▁अंतरिम	-3072
▁एकम	-3073
▁खरं	-3074
▁संहिता	-3075
म्मद	-3076
क्षि	-3077
▁एप्रिल	-3078
▁दिशानिर्देश	-3079
▁करणारा	-3080
▁पाठिंबा	-3081
सो	-3082
प्ता	-3083
स्पद	-3084
लेक्ट	-3085
ष्टात	-3086
णीव	-3087
▁संपु	-3088
,000	-3089
▁धर्म	-3090
▁देखभाल	-3091
जेक्ट	-3092
▁खनिज	-3093
▁अपात्र	-3094
ंगत	-3095
▁प्रोत्साहन	-3096
▁संपुष्टात	-3097
▁आयुष	-3098
▁केर	-3099
▁जान	-3100
ामुळे	-3101
▁विधानसभ	-3102
▁रहि	-3103
▁कमतर	-3104
▁लॉर्ड	-3105
ाई	-3106
▁वय	-3107
▁पास	-3108
▁औष	-3109
वाल	-3110
▁उद्य	-3111
▁वाचन	-3112
▁जमिनी	-3113
▁निविदा	-3114
राज्य	-3115
▁वेगळे	-3116
▁सभागृह	-3117
▁दुसरा	-3118
▁उत्तरदात	-3119
चारिक	-3120
बाह्य	-3121
सिए	-3122
▁वाजता	-3123
शास्त्र	-3124
▁चुक	-3125
▁मार्च	-3126
जय	-3127
▁फार	-3128
▁उर्वरित	-3129
▁औचित्य	-3130
▁ज्याला	-3131
▁शीर्ष	-3132
येत	-3133
▁बाल	-3134
▁तत्व	-3135
▁मध्यस्थ	-3136
▁नफा	-3137
▁माननीय	-3138
▁अपघात	-3139
▁तित	-3140
▁आयटी	-3141
▁देईल	-3142
ाव्या	-3143
▁विवाह	-3144
णव	-3145
रातील	-3146
▁मंत्री	-3147
▁माध्यम	-3148
▁राज्याने	-3149
▁नावा	-3150
ंद्वारे	-3151
▁प्	-3152
▁कबूल	-3153
▁प्रदर्श	-3154
ेव्ह	-3155
▁हुक	-3156
▁गुणवत्ता	-3157
त्कार	-3158
▁पॉलिसी	-3159
गण	-3160
▁कृत	-3161
▁घेण्याच्या	-3162
▁यांची	-3163
▁जाणीव	-3164
ंजाब	-3165
▁अनुप	-3166
▁अभियोग	-3167
▁अप्र	-3168
▁स्टेशन	-3169
न्सिल	-3170
▁भारताच्या	-3171
▁लाल	-3172
आयटी	-3173
▁ज्यांना	-3174
फे	-3175
कांना	-3176
▁वर्षाच्या	-3177
ध्या	-3178
▁सॉ	-3179
ित्तीय	-3180
▁समजले	-3181
▁मानसिक	-3182
▁नाम	-3183
▁वापरली	-3184
ारंभ	-3185
▁असोसिए	-3186
▁पदोन्नती	-3187
दृष्ट्या	-3188
▁सुरुवा	-3189
▁सोप	-3190
▁धोका	-3191
ष्ण	-3192
▁ब्ल	-3193
▁आयकर	-3194
▁थक	-3195
▁शर्मा	-3196
▁केरळ	-3197
▁जै	-3198
तेसाठी	-3199
▁असणारी	-3200
डीए	-3201
रिटी	-3202
▁मागित	-3203
▁नियमांच्या	-3204
द्धा	-3205
▁विश्व	-3206
क्षेच्या	-3207
▁कार्यपद्धती	-3208
▁प्रतिवादीने	-3209
▁वाटते	-3210
▁पंजाब	-3211
▁खोट	-3212
▁हितासाठी	-3213
ूतनीकरण	-3214
▁परीक्षा	-3215
▁रचना	-3216
▁वादा	-3217
▁अनुसूची	-3218
▁स्वतंत्रपणे	-3219
ानी	-3220
▁कार्यरत	-3221
.)	-3222
▁केल्यामुळे	-3223
त्प	-3224
स्तीत	-3225
▁नैतिक	-3226
▁दृष्टिकोन	-3227
▁तिचा	-3228
▁गाव	-3229
▁समाधानी	-3230
▁अपीलकर्त्यांनी	-3231
▁बंग	-3232
▁नूतनीकरण	-3233
▁साव	-3234
▁अम	-3235
▁अर्थाने	-3236
▁वित्तीय	-3237
▁मिळवि	-3238
▁ओळखले	-3239
▁कॉर्पोरेशन	-3240
▁अपीलीय	-3241
लभ	-3242
▁पद्धत	-3243
▁विधेयक	-3244
रोखर	-3245
ावरील	-3246
▁विशेषतः	-3247
▁अनुभव	-3248
▁आई	-3249
लाय	-3250
व्हिल	-3251
▁वसूल	-3252
▁खरोखर	-3253
▁इच्छित	-3254
श्र	-3255
▁सामान्यत	-3256
▁पैश	-3257
▁फाशी	-3258
▁तरतुदींचा	-3259
▁वाहत	-3260
▁सामना	-3261
▁पूर्वग्रह	-3262
जार	-3263
▁गां	-3264
▁वीज	-3265
▁सीबीआय	-3266
दाना	-3267
दि	-3268
▁गर्भ	-3269
ांक	-3270
ोवेळी	-3271
▁शांत	-3272
▁अडथळा	-3273
माग	-3274
त्मक	-3275
▁टक्के	-3276
▁ठेवता	-3277
▁..	-3278
▁एकमेव	-3279
▁वर्गीकरण	-3280
हास	-3281
▁हिंदू	-3282
▁संपर्क	-3283
▁मालमत्तेच्या	-3284
▁खूप	-3285
▁खंडपीठाच्या	-3286
प्री	-3287
▁वेळोवेळी	-3288
स्य	-3289
▁अच	-3290
ायचे	-3291
विरोध	-3292
आरो	-3293
▁दह	-3294
द्दी	-3295
▁यापुढे	-3296
▁घटन	-3297
▁द्वि	-3298
बिं	-3299
ैध	-3300
साच्या	-3301
▁घोषणा	-3302
▁यासारख्या	-3303
▁नार	-3304
▁स्वरू	-3305
▁सतत	-3306
▁जाण	-3307
▁निर्मिती	-3308
ईट	-3309
ंदर	-3310
▁अपरा	-3311
▁इलेक्ट	-3312
▁तेल	-3313
▁संघटने	-3314
▁नसताना	-3315
▁केल्याचा	-3316
▁भाड्याने	-3317
काळी	-3318
ायी	-3319
क्वि	-3320
पचारिक	-3321
▁पर्याय	-3322
▁स्वरूपा	-3323
▁अपीलमध्ये	-3324
काची	-3325
▁कराराचा	-3326
▁कॉर्पोरेट	-3327
शनल	-3328
▁प्रकरणे	-3329
▁प्रश्नावर	-3330
यिक	-3331
▁देखरे	-3332
चरण	-3333
खेरी	-3334
आरोपी	-3335
▁गृ	-3336
न्शन	-3337
ूह	-3338
▁बाह्य	-3339
▁सिक	-3340
▁अयशस्वी	-3341
▁दश	-3342
▁गॅ	-3343
▁वॉ	-3344
▁भाषा	-3345
हाण	-3346
▁व्यक्तींना	-3347
▁अवैध	-3348
एक्सएक्सएक्सएक्स	-3349
▁तात्	-3350
▁विक्रे	-3351
िकी	-3352
▁समजून	-3353
▁न्यायिक	-3354
▁होण्यापूर्वी	-3355
▁करणारी	-3356
▁कार्ये	-3357
काला	-3358
▁निकालाच्या	-3359
▁ऑग	-3360
▁अपीलार्थी	-3361
▁संहितेच्या	-3362
▁साध्य	-3363
▁स्त्रोत	-3364
▁मद	-3365
▁फसव	-3366
ंकडून	-3367
नेत	-3368
▁लीज	-3369
काच्या	-3370
▁पुनर्प्र	-3371
▁घेतल्यानंतर	-3372
▁दस्त	-3373
▁सेवेत	-3374
ूम	-3375
▁तोड	-3376
▁एक्	-3377
▁लावला	-3378
▁आकर्षित	-3379
कृष्ट	-3380
▁शस्त	-3381
रणार	-3382
विवाद	-3383
▁बाळ	-3384
▁सुलभ	-3385
▁अभिय	-3386
▁अर्ध	-3387
▁खे	-3388
▁रोजगार	-3389
▁प्रतिस्प	-3390
▁दहा	-3391
▁योगदान	-3392
▁री	-3393
▁पर्य	-3394
▁ऑगस्ट	-3395
▁राष्ट्रपतींनी	-3396
▁देवी	-3397
▁त्यापैकी	-3398
गो	-3399
▁वंचित	-3400
काचा	-3401
▁डिसे	-3402
ाराष्ट	-3403
▁चालवि	-3404
▁उपाययोज	-3405
र्घ	-3406
िन्ह	-3407
▁गुप्ता	-3408
▁पदावर	-3409
▁सुसंगत	-3410
ॅड	-3411
द्याप	-3412
ल्याबद्दल	-3413
ऊस	-3414
▁प्रणव	-3415
▁त्यानंतरच्या	-3416
चलित	-3417
▁रस्	-3418
▁वापरला	-3419
▁जास्तीत	-3420
▁दर्शविला	-3421
▁अद्याप	-3422
ासंदर्भात	-3423
ेध	-3424
भेद	-3425
▁नं	-3426
▁गौ	-3427
▁करु	-3428
ाराष्ट्र	-3429
तीचा	-3430
▁गृह	-3431
खित	-3432
▁वचन	-3433
▁तरतुदींचे	-3434
ित्त	-3435
नशील	-3436
ण्यानुसार	-3437
फॉल्ट	-3438
▁जानेवारी	-3439
▁प्रतिवादीला	-3440
▁याबद्दल	-3441
ज्य	-3442
▁केल्यानंतर	-3443
कूल	-3444
ॅक्ट	-3445
▁प्रत्यक्षात	-3446
▁पुरुष	-3447
ण्यापासून	-3448
▁प्रस्तावा	-3449
वापर	-3450
▁सध्या	-3451
▁डिक्री	-3452
▁निसर्ग	-3453
विरोधात	-3454
बाकी	-3455
▁देतात	-3456
स्कृत	-3457
▁निषेध	-3458
नादेश	-3459
▁डिसेंबर	-3460
▁विरूद्ध	-3461
▁सप्	-3462
▁शिक्षणा	-3463
न्यायाधीश	-3464
▁राज्यघटनेच्या	-3465
▁बंदी	-3466
▁महत्त्वाचे	-3467
▁सहाय्य	-3468
▁आधीपासून	-3469
▁याचिकाकर्ता	-3470
▁औषध	-3471
▁लाद	-3472
▁क्रियाकला	-3473
चित्र	-3474
▁तज्ञ	-3475
▁पर्यावरण	-3476
▁पाणी	-3477
▁धर्मा	-3478
▁स्वयं	-3479
माव	-3480
िटल	-3481
▁पंचाय	-3482
▁न्यायालयातील	-3483
िसो	-3484
▁दार	-3485
▁रुपया	-3486
▁संकल्पना	-3487
▁वित्त	-3488
▁महाराष्ट्र	-3489
▁संख्ये	-3490
मद	-3491
▁रेड	-3492
▁भरती	-3493
▁अशाप्र	-3494
▁पारित	-3495
▁कथ	-3496
▁पावले	-3497
▁थोडक्यात	-3498
पोर्ट	-3499
कता	-3500
▁थकबाकी	-3501
▁मिळाली	-3502
▁पक्षांनी	-3503
▁दिवसांच्या	-3504
क्षणे	-3505
▁आरोपीने	-3506
ेचे	-3507
▁आचरण	-3508
▁स्टेट	-3509
▁तत्त्व	-3510
ॅक	-3511
▁नगर	-3512
अपील	-3513
▁अर्थात	-3514
▁सुप्री	-3515
▁मोहम्मद	-3516
च्छा	-3517
ल्लक	-3518
▁देणारी	-3519
▁निर्णयाची	-3520
▁धनादेश	-3521
▁नमु	-3522
सर्स	-3523
▁कर्जदार	-3524
▁रक्त	-3525
▁व्यक्तीची	-3526
मिस	-3527
▁रच	-3528
प्रति	-3529
▁काढले	-3530
ंमधील	-3531
पदेश	-3532
▁मिळू	-3533
▁नियोज	-3534
शासित	-3535
▁सारांश	-3536
▁यंत्रणा	-3537
तिहास	-3538
▁दराने	-3539
▁समुपदेश	-3540
ेटर	-3541
णिज्य	-3542
▁अभिया	-3543
▁वेळे	-3544
▁आकारणी	-3545
▁घरी	-3546
▁होईपर्यंत	-3547
▁अशाप्रकारे	-3548
▁शह	-3549
▁कौन्सिल	-3550
▁समुदा	-3551
▁प्रसाद	-3552
▁तात्पुर	-3553
▁सुप्रीम	-3554
▁संरक्षणा	-3555
व्र	-3556
▁बरे	-3557
▁राहू	-3558
▁बर्या	-3559
▁नसल्याचे	-3560
▁जावी	-3561
ॅक्स	-3562
▁संदेश	-3563
▁युक्तिवादा	-3564
▁बु	-3565
▁कोळ	-3566
▁बैठकी	-3567
▁अमेरिक	-3568
▁ज्यांनी	-3569
्रि	-3570
▁प्रसंग	-3571
▁म्हणण्यानुसार	-3572
▁व्यक्तींच्या	-3573
▁ठरवले	-3574
▁क्रियाकलाप	-3575
▁पुराव्यांच्या	-3576
ाधिकार	-3577
▁पक्षांच्या	-3578
टन	-3579
▁असम	-3580
▁संत	-3581
घा	-3582
▁ठरला	-3583
▁प्रसार	-3584
▁पार्श्वभूमीवर	-3585
ेचा	-3586
▁सेवेच्या	-3587
▁अधिवेश	-3588
्रिक	-3589
▁गुज	-3590
▁उशीर	-3591
यर	-3592
▁....	-3593
▁एजंट	-3594
▁हरिया	-3595
▁दंडनीय	-3596
▁असोसिएशन	-3597
▁इंटर	-3598
▁एकतर	-3599
▁जाणारे	-3600
▁उपयुक्त	-3601
▁देशाच्या	-3602
▁जय	-3603
▁हल	-3604
टेंबर	-3605
▁पलीकडे	-3606
▁तीव्र	-3607
ख्य	-3608
▁बँके	-3609
▁संदर्भातील	-3610
ार्ज	-3611
दाचित	-3612
बुद्धी	-3613
दरम्यान	-3614
▁वाणिज्य	-3615
ऐवज	-3616
त्त	-3617
▁मोट	-3618
▁उघडतात	-3619
▁मांडले	-3620
▁विश्वासार्ह	-3621
कां	-3622
▁अपेक्षा	-3623
ाबत	-3624
▁वर्त	-3625
▁कधीही	-3626
▁सदस्यां	-3627
▁कला	-3628
▁पर्या	-3629
▁ऑपरेशन	-3630
▁शब्दांत	-3631
▁वेगळ्या	-3632
ायला	-3633
▁कॉल	-3634
▁राहिले	-3635
▁असल्याचा	-3636
▁जुल	-3637
▁प्राय	-3638
वर्क	-3639
डीच्या	-3640
▁कमतरता	-3641
▁संकल्प	-3642
ुटी	-3643
▁होणे	-3644
▁मतदार	-3645
▁यंत्रणे	-3646
▁प्री	-3647
▁न्यायाधीशांना	-3648
▁खुला	-3649
▁करतील	-3650
▁घोषणे	-3651
▁वडिला	-3652
▁दस्तऐवज	-3653
ुनिक	-3654
वणे	-3655
११	-3656
▁पेन्शन	-3657
▁मेसर्स	-3658
▁शिस्त	-3659
▁कदाचित	-3660
▁निरीक्षणे	-3661
▁केंद्रशासित	-3662
▁क्षेत्राच्या	-3663
ॅशनल	-3664
▁कल्प	-3665
▁परता	-3666
▁प्रोव्ह	-3667
▁सप्टेंबर	-3668
▁डिस	-3669
▁सत्यता	-3670
▁सिस्टम	-3671
नाथ	-3672
स्वर	-3673
देशिक	-3674
▁रॉ	-3675
▁जल	-3676
▁ऑब्	-3677
▁योग्यरित्या	-3678
▁पेटंट	-3679
▁इतके	-3680
▁मनाई	-3681
▁असलेला	-3682
एसी	-3683
काचे	-3684
▁भ्र	-3685
▁सहमती	-3686
▁राज्ये	-3687
बि	-3688
▁जुलै	-3689
▁हाताळ	-3690
▁गुन्ह्या	-3691
▁महिन्यांच्या	-3692
ासंगिक	-3693
▁निराकरण	-3694
लित	-3695
▁विभाज	-3696
पक	-3697
▁प्रती	-3698
▁याचिकाकर्ते	-3699
▁आहेतः	-3700
▁आयोगाच्या	-3701
्द	-3702
ंदा	-3703
▁कड	-3704
▁शुभे	-3705
▁वापरल्या	-3706
दायक	-3707
मिळना	-3708
▁अग्र	-3709
▁स्वतःच	-3710
▁कायद्याद्वारे	-3711
राम	-3712
▁बर्याच	-3713
▁शुभेच्छा	-3714
▁स्वीकारले	-3715
▁सचिव	-3716
ल्याच्या	-3717
▁अली	-3718
▁भी	-3719
▁गैरवापर	-3720
▁महानगरपाल	-3721
▁फिर्यादीने	-3722
ोम	-3723
कृती	-3724
▁ऑफर	-3725
▁दिवा	-3726
▁ट्रायल	-3727
▁कळ	-3728
▁गुजरात	-3729
▁निवासी	-3730
▁नोंदवले	-3731
▁घ्यावा	-3732
िब	-3733
▁नेट	-3734
▁हवा	-3735
▁मतभेद	-3736
▁पक्षांना	-3737
्यून	-3738
शु	-3739
ाराची	-3740
▁वात	-3741
कुमार	-3742
▁त्रुटी	-3743
▁औपचारिक	-3744
्युरिटी	-3745
▁प्रक्रियेत	-3746
▁कुल	-3747
▁दंडाधिकारी	-3748
ॉल	-3749
▁आंध	-3750
▁शिफारशी	-3751
▁असमर्थ	-3752
▁पुनर्व	-3753
▁प्रादेशिक	-3754
अल	-3755
▁हु	-3756
▁अर्थव्यवस्थ	-3757
▁किती	-3758
▁मृतदे	-3759
▁दिलेले	-3760
▁मंत्रालय	-3761
▁युनियन	-3762
▁कार्यालय	-3763
▁विधानसभे	-3764
▁आदर	-3765
निष्ठ	-3766
▁शासकीय	-3767
▁असं	-3768
▁ठरणार	-3769
▁प्रतिकूल	-3770
▁पुनरावलोकन	-3771
▁माध्यमातून	-3772
▁संपत्ती	-3773
▁तारण	-3774
▁साधन	-3775
स्पती	-3776
▁मानक	-3777
▁प्रतिष्ठ	-3778
फर	-3779
नावश्यक	-3780
▁पक्षांमधील	-3781
▁आरोग	-3782
▁विज्ञान	-3783
ारोप	-3784
▁पुनर्प्राप्	-3785
▁अन्न	-3786
्रजी	-3787
्याला	-3788
▁भागधारक	-3789
ब्रु	-3790
▁नाते	-3791
▁मृतदेह	-3792
▁रेकॉर्डवर	-3793
▁अज	-3794
प्रा	-3795
▁हुकूम	-3796
▁बचाव	-3797
▁देण्या	-3798
्यांमध्ये	-3799
णीय	-3800
क्रिय	-3801
ज्ञाना	-3802
ईन	-3803
▁हरियाणा	-3804
शय	-3805
▁डाय	-3806
▁द्वारे	-3807
ब्रुवारी	-3808
ांता	-3809
माचा	-3810
▁दीर्घ	-3811
श्चिम	-3812
▁भूखंड	-3813
▁दिल्या	-3814
▁भ्रष्ट	-3815
▁पालक	-3816
निर्	-3817
▁दृढ	-3818
▁अहमद	-3819
▁होण्यासाठी	-3820
जवळ	-3821
▁ऑफिस	-3822
डर	-3823
व्हि	-3824
▁मता	-3825
▁अनुकूल	-3826
▁ऑन	-3827
▁दुखाप	-3828
दु	-3829
▁मौ	-3830
ंदर्भातील	-3831
▁मसु	-3832
▁अनुक्र	-3833
▁ड्र	-3834
एसआय	-3835
कात	-3836
▁अस्प	-3837
▁शर्ती	-3838
▁कसे	-3839
▁आठवड	-3840
▁शासनाने	-3841
▁भाडेपट्टी	-3842
▁फेब्रुवारी	-3843
▁रेकॉर्डवरील	-3844
▁अध्यादेश	-3845
▁शिवाय	-3846
मिळनाडू	-3847
करुन	-3848
▁चित्र	-3849
▁अनुपस्थिती	-3850
▁नसतात	-3851
▁बिहार	-3852
▁समस्या	-3853
▁लेन	-3854
▁उपकर	-3855
▁चंद्र	-3856
▁वनस्पती	-3857
▁लहान	-3858
धा	-3859
नेट	-3860
▁प्रोव्हिसो	-3861
▁उद	-3862
▁त्याऐवजी	-3863
▁न्यायालयांनी	-3864
▁संसाधन	-3865
भास	-3866
बातल	-3867
▁गुन्ह्यासाठी	-3868
▁अवा	-3869
▁सिव्हिल	-3870
र्धी	-3871
▁प्रकाशित	-3872
▁मास	-3873
▁आंध्र	-3874
▁कार्यक्र	-3875
▁कोणी	-3876
▁साहित्य	-3877
▁स्वरूपात	-3878
▁गांधी	-3879
▁कर्मचार्यांना	-3880
▁वाचले	-3881
▁विरोधा	-3882
सिद्ध	-3883
▁मुलगा	-3884
▁रद्दबातल	-3885
▁ठरविण्यात	-3886
▁इंग्रजी	-3887
▁भांडव	-3888
श्री	-3889
▁सबमिट	-3890
ल्यांकन	-3891
▁जन्मठे	-3892
▁वातावर	-3893
▁भागातील	-3894
▁संसदेच्या	-3895
▁रंग	-3896
▁असावे	-3897
▁देता	-3898
▁)	-3899
यंत्रित	-3900
▁सिक्युरिटी	-3901
▁अब्	-3902
ग्रहित	-3903
तकमी	-3904
▁कंत्राट	-3905
▁यास	-3906
],	-3907
▁राय	-3908
▁संस्	-3909
▁प्रतिस्पर्धी	-3910
▁नोंदविला	-3911
▁प्रतिबिं	-3912
▁गोळा	-3913
▁शिकले	-3914
▁बाबींचा	-3915
▁दृष्टिकोनातून	-3916
क्य	-3917
▁वादी	-3918
▁प्रमाणे	-3919
▁वेळापत्र	-3920
्रोल	-3921
▁नियमांचे	-3922
▁प्रतिबिंब	-3923
▁सांगण्यात	-3924
▁ठेवू	-3925
व्हेंबर	-3926
▁ठेवण्यास	-3927
▁नियाम	-3928
▁राज्याचे	-3929
▁कमीतकमी	-3930
▁प्रक्रियेच्या	-3931
दीय	-3932
▁समृ	-3933
▁निर्णयाला	-3934
याचे	-3935
वयीन	-3936
▁अनावश्यक	-3937
वर्तन	-3938
▁बॉम्	-3939
▁सामोरे	-3940
▁फ्ल	-3941
▁बला	-3942
मच्या	-3943
िकल	-3944
धिकार	-3945
▁घरात	-3946
▁बाळग	-3947
▁सार्व	-3948
▁आरोपीच्या	-3949
▁अति	-3950
▁मॉड	-3951
▁बांधका	-3952
शत	-3953
▁याद	-3954
▁प्रकारचे	-3955
▁आदेशाच्या	-3956
▁होण्याच्या	-3957
▁प्रमाणित	-3958
▁नोव्हेंबर	-3959
▁काळजीपूर्वक	-3960
▁लग्न	-3961
▁गुन्हेगार	-3962
▁पहिला	-3963
▁वाढवि	-3964
▁विवेकबुद्धी	-3965
▁तृ	-3966
▁वाटा	-3967
▁कै	-3968
▁विकासासाठी	-3969
▁मृत्यूच्या	-3970
▁कायमस्वर	-3971
▁अरु	-3972
▁नसून	-3973
▁सामायिक	-3974
▁समाजातील	-3975
▁विना	-3976
▁शिल्लक	-3977
स्क	-3978
▁वजन	-3979
▁केल्याच्या	-3980
▁त्याच्यावर	-3981
▁छोट	-3982
ाकडून	-3983
▁ऑब्जेक्ट	-3984
▁अंदाज	-3985
▁गोष्ट	-3986
▁तिची	-3987
▁अनियंत्रित	-3988
▁संपूर्णपणे	-3989
ळक	-3990
वंत	-3991
प्रयोग	-3992
▁वर्षात	-3993
▁जून	-3994
▁लोकसं	-3995
▁कौशल	-3996
▁मोठा	-3997
▁उद्भवू	-3998
▁उत्तरदायित्व	-3999
तीस	-4000
▁घेतल्यास	-4001
पीए	-4002
रोज	-4003
▁मंडळाच्या	-4004
▁अन्याय	-4005
▁स्फोट	-4006
▁डिसमिस	-4007
▁कोर्टात	-4008
▁याव्यतिरिक्त	-4009
▁नाकारले	-4010
ंबद्दल	-4011
क्टो	-4012
▁प्रमा	-4013
▁नियामक	-4014
▁सामर्थ्य	-4015
मुक्त	-4016
▁नंबर	-4017
▁बरेच	-4018
▁दुखापत	-4019
▁स्थितीत	-4020
▁अचूक	-4021
▁इमारत	-4022
▁प्रकारची	-4023
▁तिसर्या	-4024
त्ये	-4025
▁पुरेशी	-4026
▁टेल	-4027
शेने	-4028
▁धार	-4029
▁निवृत्ती	-4030
▁संसदीय	-4031
ेवा	-4032
ळणी	-4033
ार्ट	-4034
▁बलात्कार	-4035
ूट	-4036
ाधिका	-4037
▁कारभ	-4038
▁चिन्ह	-4039
▁सर्व्ह	-4040
▁नसतानाही	-4041
▁वेध	-4042
विभाग	-4043
▁कारणांमुळे	-4044
▁सश	-4045
▁तिचे	-4046
▁मोठे	-4047
तेत	-4048
▁खान	-4049
▁मंडळाने	-4050
▁कंपन	-4051
▁गणना	-4052
▁अपीलला	-4053
▁याचिकेत	-4054
▁पंत	-4055
▁श्र	-4056
ोग्रा	-4057
▁हाती	-4058
प्रधान	-4059
▁घेतलेले	-4060
द्रास	-4061
▁मानली	-4062
▁घेण्याचे	-4063
▁सरन्यायाधीश	-4064
▁शेत	-4065
▁लावली	-4066
▁कोठ	-4067
▁सूचने	-4068
ज्ञानिक	-4069
▁रोखण्यासाठी	-4070
▁लग्	-4071
▁खाते	-4072
▁संरक्षित	-4073
नल	-4074
▁सन	-4075
▁घटनेची	-4076
▁न्यायपाल	-4077
▁घेतलेला	-4078
▁मुदतीच्या	-4079
▁ट्रान्स	-4080
ेंट	-4081
▁जखम	-4082
याची	-4083
▁संप्रे	-4084
▁लांब	-4085
▁घेताना	-4086
▁त्यांच्यावर	-4087
▁अपीलकर्त्याला	-4088
▁निर्यात	-4089
▁स्वीकारला	-4090
▁अधिसूचित	-4091
▁अधिनियमातील	-4092
विक	-4093
सुद्धा	-4094
▁अडचणी	-4095
लाच्या	-4096
▁अपे	-4097
▁कॉन्	-4098
▁नाकारला	-4099
▁पुढीलप्रमाणे	-4100
मागील	-4101
▁शेती	-4102
क्टोबर	-4103
▁विरोधाभास	-4104
▁विभागीय	-4105
▁पडता	-4106
▁विधानसभेच्या	-4107
▁दुक	-4108
▁भाऊ	-4109
▁सोडले	-4110
▁देणार्या	-4111
अर्स	-4112
▁सक्ती	-4113
▁दावेदार	-4114
▁प्रारंभ	-4115
ीदारी	-4116
▁हजार	-4117
▁मुख्यम	-4118
ंजन	-4119
▁बनव	-4120
▁दिल्यास	-4121
▁लोकस	-4122
▁जोरदार	-4123
▁संघटना	-4124
▁जनहित	-4125
▁कायद्यान्वये	-4126
रोधी	-4127
▁न्यू	-4128
▁रक्षण	-4129
रूंग	-4130
▁ऑक्टोबर	-4131
▁आणण्यासाठी	-4132
वण	-4133
वै	-4134
सेस	-4135
▁दृश	-4136
▁अपरि	-4137
ंत्रिकी	-4138
▁उत्कृष्ट	-4139
ात्री	-4140
लेट	-4141
ांपेक्षा	-4142
ंपैकी	-4143
▁निर्धारण	-4144
▁उपाययोजना	-4145
ीच्या	-4146
▁आमचा	-4147
▁मद्रास	-4148
▁मालमत्तेचे	-4149
पुरव	-4150
वर्ती	-4151
▁अंमलबजावणीसाठी	-4152
▁भागीदारी	-4153
याचा	-4154
▁अस्तित्वात	-4155
▁पश्चिम	-4156
▁जाण्यासाठी	-4157
गत	-4158
मृत	-4159
▁जन्मठेपे	-4160
कोर	-4161
▁जह	-4162
▁केल्याचे	-4163
▁पती	-4164
▁प्ल	-4165
▁संतु	-4166
▁पुरवि	-4167
▁परिपत्र	-4168
▁अध्याय	-4169
▁तुरूंग	-4170
▁फंड	-4171
▁नेटवर्क	-4172
▁जिल्ह	-4173
▁जण	-4174
▁निवडी	-4175
▁रात्री	-4176
▁राजस्थान	-4177
▁पक्षाच्या	-4178
▁येतील	-4179
▁भव	-4180
ायण	-4181
▁मंदिर	-4182
▁अधिनियमांतर्गत	-4183
▁रिझ	-4184
▁माहित	-4185
घु	-4186
▁छान	-4187
▁हिंदी	-4188
▁कर्तव्ये	-4189
▁अविभाज	-4190
▁आधुनिक	-4191
▁अनुप्रयोग	-4192
▁इलेक्ट्रॉ	-4193
▁पीओ	-4194
▁राजी	-4195
▁भोग	-4196
▁आकारले	-4197
कि	-4198
यांनी	-4199
▁जाणून	-4200
▁मिळालेल्या	-4201
व्हेट	-4202
▁यासंदर्भात	-4203
▁प्रकरणाची	-4204
▁नंतरच्या	-4205
▁विधिमंडळाने	-4206
्वये	-4207
संबंधित	-4208
लिक	-4209
▁आमची	-4210
▁अनुक्रमे	-4211
▁प्रतिसादकर्ता	-4212
▁दिशेने	-4213
▁सभापती	-4214
▁कर्तव्या	-4215
▁कामा	-4216
टीच्या	-4217
▁एससीआर	-4218
▁दिल्यानंतर	-4219
▁मोटार	-4220
▁तथ्यां	-4221
▁कुटुंबातील	-4222
▁साक्षीदारांच्या	-4223
डिओ	-4224
ेश्	-4225
▁अधिकाराचा	-4226
हारा	-4227
▁नॅशनल	-4228
▁अस्पष्ट	-4229
काद्वारे	-4230
ुण	-4231
ेची	-4232
भावा	-4233
▁समानता	-4234
▁विशेषाधिकार	-4235
▁विस	-4236
ेंद्र	-4237
▁नियो	-4238
▁जाण्याची	-4239
▁हट	-4240
▁दोषारोप	-4241
▁प्रतिसादकर्त्या	-4242
निर्देश	-4243
▁ज्यास	-4244
कोळ	-4245
▁इमारती	-4246
▁स्थापने	-4247
▁उद्भवलेल्या	-4248
▁पत	-4249
ंवार	-4250
▁खोटे	-4251
▁प्रवर्ग	-4252
▁लढ	-4253
▁शहर	-4254
दायी	-4255
▁तपशीलवार	-4256
▁नियंत्रित	-4257
लग्न	-4258
मानी	-4259
सुली	-4260
▁फेड	-4261
▁घ्यावी	-4262
▁आरोपपत्र	-4263
▁कंत्राटदार	-4264
ांती	-4265
नामा	-4266
▁संसदेने	-4267
▁उदाहरणार्थ	-4268
▁वैज्ञानिक	-4269
बूत	-4270
▁न्यायालयाचा	-4271
▁यासह	-4272
▁बंगाल	-4273
▁पंचायत	-4274
▁लेनदार	-4275
ान्वये	-4276
▁चिंता	-4277
▁यादव	-4278
ल्याचा	-4279
▁समभाग	-4280
▁पक्षाने	-4281
▁प्रासंगिक	-4282
▁मालमत्तेचा	-4283
ेस	-4284
▁नेल	-4285
▁मनोर	-4286
▁लागला	-4287
तन	-4288
▁मॉडेल	-4289
▁मृत्यूदंड	-4290
▁निवेदनात	-4291
▁शिक्षेच्या	-4292
▁निः	-4293
▁आवृत्ती	-4294
▁कथित	-4295
▁अभियंता	-4296
▁कंपनीने	-4297
▁आरक्षण	-4298
▁तुमच्या	-4299
▁रहिवासी	-4300
▁टाय	-4301
▁सीए	-4302
▁म्हणता	-4303
▁प्रदर्शन	-4304
▁ट्रिब	-4305
▁मजबूत	-4306
▁स्वतःच्या	-4307
▁अभ्यासक्रम	-4308
▁जागेवर	-4309
सीने	-4310
▁चालविला	-4311
पट्ट	-4312
▁डीड	-4313
▁प्रज	-4314
▁कृत्य	-4315
▁तथ्या	-4316
▁जन्मठेपेची	-4317
▁विमान	-4318
▁सक्रिय	-4319
▁वारंवार	-4320
▁शक्तीचा	-4321
▁दंडाधिका	-4322
▁हेतूसाठी	-4323
▁पंतप्रधान	-4324
▁न्यायालयांच्या	-4325
कडील	-4326
▁हॉट	-4327
समवेत	-4328
▁म्हणतात	-4329
▁अधिनियमान्वये	-4330
ंडा	-4331
▁उद्ध	-4332
▁छाननी	-4333
▁ढ	-4334
▁यूएस	-4335
▁कॅन	-4336
▁असावी	-4337
▁वसुली	-4338
रीत	-4339
▁रोग	-4340
ाविरूद्ध	-4341
▁पोलिसांनी	-4342
ट्या	-4343
िंदर	-4344
▁तुलनेत	-4345
▁होय	-4346
▁प्रक्रियेचा	-4347
ून्य	-4348
▁निर्णयामुळे	-4349
क्चर	-4350
▁कोड	-4351
▁अभ्या	-4352
▁बरोबर	-4353
स्ट्री	-4354
▁समाप्ती	-4355
▁प्रथा	-4356
▁शब्दाचा	-4357
▁फाशीची	-4358
▁पडताळणी	-4359
].	-4360
▁हक्का	-4361
अन	-4362
योजन	-4363
▁दहशत	-4364
▁भाषण	-4365
▁दक्षि	-4366
सीच्या	-4367
▁द्यावी	-4368
▁राज्यपाल	-4369
▁डेव्ह	-4370
▁निष्कर्षापर्यंत	-4371
िटर	-4372
▁रजि	-4373
▁शकले	-4374
▁डिझा	-4375
कीला	-4376
▁वाईट	-4377
▁निवास	-4378
▁आदेशात	-4379
▁प्रशासन	-4380
▁स्त्रिया	-4381
▁न्यायालयाचे	-4382
रिया	-4383
▁अन्	-4384
▁भंग	-4385
▁लेखा	-4386
क्षेत	-4387
ठीण	-4388
▁होतील	-4389
▁महाम	-4390
▁डीफॉल्ट	-4391
यातील	-4392
▁राखी	-4393
पुरवठा	-4394
▁देशात	-4395
▁परीक्षण	-4396
▁कामां	-4397
बाहेर	-4398
▁धारक	-4399
▁हॉटेल	-4400
ियम	-4401
ेश्वर	-4402
▁दिलासा	-4403
▁नोंदवलेल्या	-4404
▁कठीण	-4405
▁प्रभ	-4406
▁अभियांत्रिकी	-4407
▁साक्षीदारांची	-4408
▁किर	-4409
▁शाळा	-4410
▁हाऊस	-4411
▁स्त्री	-4412
▁वकिलांनी	-4413
▁रुग्णालयात	-4414
▁जंग	-4415
▁राव	-4416
▁लागतो	-4417
▁दर्शविते	-4418
ॉर्ट	-4419
कांनी	-4420
▁सर्वे	-4421
▁पुनरावृत्ती	-4422
▁भागीदार	-4423
▁मर्यादेपर्यंत	-4424
▁मरण	-4425
▁हल्ला	-4426
▁शिक्षेची	-4427
सीआर	-4428
▁अंश	-4429
▁ठरविले	-4430
▁लावण्यात	-4431
▁आवड	-4432
▁जमाती	-4433
फेड	-4434
ाचार	-4435
▁वाढव	-4436
ॅनेल	-4437
▁माण	-4438
▁जहाज	-4439
रंट	-4440
▁गरजा	-4441
▁पेक्षा	-4442
▁प्रतिवादींनी	-4443
एसई	-4444
▁ज्याचे	-4445
▁वैशिष्ट्य	-4446
▁कामे	-4447
▁चिंत	-4448
▁सहकार्य	-4449
▁बनाव	-4450
▁वकीला	-4451
▁समन्व	-4452
▁करारामध्ये	-4453
कूर	-4454
▁अशाच	-4455
▁सदस्यांना	-4456
▁एकमे	-4457
समा	-4458
▁तंत्रज्ञाना	-4459
▁ऊ	-4460
णुका	-4461
भोग	-4462
▁ठेवण्याची	-4463
▁तोंडी	-4464
▁ठेवलेल्या	-4465
▁चुकीचा	-4466
▁शस्त्रे	-4467
बद	-4468
धीन	-4469
▁तरुण	-4470
▁आग्रह	-4471
▁आलेली	-4472
▁खात्यात	-4473
▁जेणेकरुन	-4474
▁प्रोत्साहित	-4475
▁मेड	-4476
तेबद्दल	-4477
▁प्रतिबिंबित	-4478
ाता	-4479
▁दाय	-4480
▁सरकारचे	-4481
▁सीआरपीसी	-4482
▁व्यक्तीचे	-4483
▁किरकोळ	-4484
▁मैत्री	-4485
रावर	-4486
्यूनल	-4487
स्फोट	-4488
▁हितसंबंध	-4489
▁सेवानिवृत्ती	-4490
▁आणली	-4491
▁कारणावरून	-4492
वाढ	-4493
स्तान	-4494
भाई	-4495
▁सहज	-4496
ग्रस्त	-4497
▁स्वच्छ	-4498
▁निर्देशित	-4499
▁स्थायी	-4500
▁त्यापेक्षा	-4501
साम	-4502
▁प्रश	-4503
▁दर्शविण्यासाठी	-4504
▁संगण	-4505
▁प्रश्नाचे	-4506
▁यश	-4507
स्टेट	-4508
▁[(	-4509
प्पा	-4510
▁सुधारणे	-4511
▁कार्यकार	-4512
३०	-4513
िणी	-4514
▁तेच	-4515
▁काहीच	-4516
▁ट्रेड	-4517
गे	-4518
ज्ज	-4519
▁राजपत्र	-4520
▁निवृत्तीवेत	-4521
र्य	-4522
▁द्व	-4523
▁संख्येने	-4524
कीच	-4525
▁शीर्षक	-4526
▁अनुभ	-4527
▁संवाद	-4528
▁सहभागी	-4529
▁प्रतिवादीच्या	-4530
वती	-4531
पक्षीय	-4532
▁विद्युत	-4533
▁नका	-4534
▁विल	-4535
▁ज्यावर	-4536
▁सर्वेक्षण	-4537
▁सीमा	-4538
▁मुलगी	-4539
▁यामध्ये	-4540
पथ	-4541
बत	-4542
डीआर	-4543
▁आकड	-4544
▁जामि	-4545
▁येतो	-4546
▁शून्य	-4547
प्रमाणेच	-4548
▁प्रभावीपणे	-4549
▁समर्थनार्थ	-4550
▁सेल	-4551
▁तोडगा	-4552
▁अनुमान	-4553
▁नाकारली	-4554
▁वापरासाठी	-4555
▁धम	-4556
मांड	-4557
▁शकला	-4558
▁आश्वास	-4559
▁तामिळनाडू	-4560
▁करण्यायोग्य	-4561
१२	-4562
धरी	-4563
▁टि	-4564
▁जैन	-4565
▁राही	-4566
तेला	-4567
▁नॉन	-4568
▁ब्लॉक	-4569
▁अपीलकर्ते	-4570
▁माझे	-4571
▁उर्जा	-4572
▁अधिनियमात	-4573
स्थापित	-4574
▁आणला	-4575
ळू	-4576
वर्ष	-4577
▁देणारा	-4578
▁मूल्यमा	-4579
▁वैशिष्ट्ये	-4580
गम	-4581
▁अवमान	-4582
▁कार्ड	-4583
▁राखीव	-4584
▁वाटेल	-4585
▁भावना	-4586
▁राहील	-4587
▁अल्पवयीन	-4588
▁कारभारा	-4589
ध्द	-4590
▁अधिनियमाच्या	-4591
षड	-4592
सू	-4593
कीस	-4594
ट्ट	-4595
▁कबुली	-4596
▁लावले	-4597
▁घटनेतील	-4598
▁मीटर	-4599
▁सिद्धांता	-4600
▁अर्जावर	-4601
व्हर्न	-4602
▁आशा	-4603
▁दास	-4604
▁शुद्ध	-4605
▁ट्रिब्यूनल	-4606
माल	-4607
▁सत्	-4608
लायन्स	-4609
▁खटल्यातील	-4610
▁नसतो	-4611
▁मुल्यांकन	-4612
▁साठ	-4613
प्राप्त	-4614
चेंज	-4615
▁फ्र	-4616
▁साइट	-4617
टुंबिक	-4618
मूल	-4619
▁मग	-4620
▁भीती	-4621
▁उघडकीस	-4622
▁केंद्रित	-4623
हिम	-4624
▁चौधरी	-4625
▁दुर्द	-4626
▁सराव	-4627
▁हानी	-4628
▁कराराची	-4629
शोर	-4630
माणिक	-4631
▁असली	-4632
▁कपात	-4633
▁प्रधान	-4634
▁साक्षी	-4635
▁व्यवसायाच्या	-4636
जीव	-4637
▁अत्याचार	-4638
▁निरीक्षणा	-4639
▁करण्यापासून	-4640
▁मित्र	-4641
▁कार्यालयात	-4642
▁सावध	-4643
▁सत्या	-4644
▁संलग्न	-4645
रच्या	-4646
लेज	-4647
▁नफ	-4648
ज्ञात	-4649
▁वातावरण	-4650
▁केल्याशिवाय	-4651
ांबद्दल	-4652
▁अपीलकर्त्याची	-4653
्रो	-4654
▁उपक्र	-4655
▁इच्छुक	-4656
▁प्रायव्हेट	-4657
▁उद्धृत	-4658
▁कौटुंबिक	-4659
▁अपीलकर्त्याचे	-4660
▁शेअर्स	-4661
▁भरपाईची	-4662
▁दृष्टीकोन	-4663
▁कोठडी	-4664
▁सांगणे	-4665
तु	-4666
आयसी	-4667
▁जगातील	-4668
▁ज्याची	-4669
कारात्मक	-4670
सारखे	-4671
▁प्रयोग	-4672
्यांमधील	-4673
▁संविधानाच्या	-4674
वाश	-4675
डीने	-4676
▁गैरवर्तन	-4677
▁घडवून	-4678
▁करणार्यांना	-4679
बरद	-4680
▁षड	-4681
▁वैधता	-4682
▁स्थग	-4683
▁एकत्रितपणे	-4684
▁ठोठावली	-4685
यांना	-4686
▁कार्यकारिणी	-4687
▁पुनर्प्राप्ती	-4688
▁कौशल्य	-4689
▁आरोपींच्या	-4690
यित	-4691
च्चार	-4692
▁कलमा	-4693
▁आकारला	-4694
▁आस्थाप	-4695
कल्प	-4696
▁तृतीय	-4697
निम	-4698
▁वाय	-4699
च्छिक	-4700
▁मोठी	-4701
▁अपमान	-4702
▁घटनास्थ	-4703
तीला	-4704
धिकारी	-4705
▁उपकरणे	-4706
▁उत्पादक	-4707
▁ऐकले	-4708
▁बनावट	-4709
गाव	-4710
ल्क	-4711
विले	-4712
सेवा	-4713
▁जबरद	-4714
▁नव्याने	-4715
▁सुनावणीच्या	-4716
▁छळ	-4717
▁न्यायद	-4718
▁सकारात्मक	-4719
▁कलमांतर्गत	-4720
एड	-4721
▁आजार	-4722
▁वारस	-4723
ासत्ता	-4724
▁अक्षम	-4725
▁अधिग्रहित	-4726
▁निहित	-4727
▁पुनरुत्प	-4728
▁यांच्यातील	-4729
▁संघर्ष	-4730
▁स्तरावर	-4731
जित	-4732
▁हॉ	-4733
▁आत्मह	-4734
▁पं	-4735
तपास	-4736
▁मेह	-4737
▁कोळसा	-4738
गुती	-4739
▁जोडले	-4740
▁परतफेड	-4741
▁योजनेत	-4742
▁अस्तित्व	-4743
▁नोंदविण्यात	-4744
▁वचनबद्ध	-4745
▁आढळून	-4746
▁उत्तरे	-4747
▁नसा	-4748
▁विसंब	-4749
▁बोलताना	-4750
टू	-4751
केट	-4752
म्प	-4753
स्कृतिक	-4754
ंविरूद्ध	-4755
▁पातळीवर	-4756
▁रिलायन्स	-4757
▁दया	-4758
▁मुले	-4759
▁अका	-4760
▁विसंबून	-4761
▁नामनिर्देश	-4762
थून	-4763
▁मानव	-4764
▁लावणे	-4765
▁योजनेच्या	-4766
▁प्रजासत्ता	-4767
ारिक	-4768
▁प्रसंगी	-4769
▁न्यायाधीशांची	-4770
लमेंट	-4771
▁प्ला	-4772
▁कारख	-4773
▁रूग्ण	-4774
▁भूमिके	-4775
▁विसंगती	-4776
▁प्रॉ	-4777
पाळ	-4778
त्यक्ष	-4779
▁सिक्युरिटीज	-4780
झे	-4781
▁गमाव	-4782
▁परतावा	-4783
ण्याकरिता	-4784
▁पुनर्वसन	-4785
▁हल्	-4786
▁दुष्	-4787
पुरावा	-4788
▁ठेवण्याचा	-4789
▁फिर्यादीच्या	-4790
▁धोक	-4791
भि	-4792
▁कंट	-4793
▁शोष	-4794
▁भरण्यासाठी	-4795
भौ	-4796
▁पगार	-4797
िकेच्या	-4798
लॉज	-4799
▁प्रभाग	-4800
▁होण्यास	-4801
प्स	-4802
▁पंच	-4803
▁मृताच्या	-4804
क्षेपा	-4805
▁शासित	-4806
्डी	-4807
ायक	-4808
वेअर	-4809
▁एसी	-4810
ेनुसार	-4811
▁मालमत्तेची	-4812
▁ऑनला	-4813
▁घटनेचे	-4814
▁वेगळा	-4815
▁घ्यावे	-4816
▁अख	-4817
▁अजून	-4818
▁प्रवाह	-4819
▁पारदर्श	-4820
▁आकडेवारी	-4821
▁नसलेले	-4822
▁काढलेल्या	-4823
▁इक्वि	-4824
▁पक्षाला	-4825
देव	-4826
संप	-4827
तपासणी	-4828
▁घालून	-4829
▁लक्ष्य	-4830
दुल	-4831
▁मुद्दे	-4832
▁विसंगत	-4833
▁संबोधले	-4834
▁कोर्टाची	-4835
आयएल	-4836
विषयक	-4837
▁घरगुती	-4838
▁चांगली	-4839
▁नियोजन	-4840
▁मुद्द्यां	-4841
▁पट्ट	-4842
▁पॉवर	-4843
▁दुकान	-4844
▁दिवाळख	-4845
▁रॉय	-4846
▁अखंड	-4847
ंपर	-4848
विस्त	-4849
व्हर्स	-4850
▁सीपीसी	-4851
▁मूल्यमापन	-4852
▁वाहतुकी	-4853
▁नियंत्रणा	-4854
▁उद्योज	-4855
▁कोर्टाकडे	-4856
नं	-4857
▁वडील	-4858
▁डिझाइन	-4859
केच	-4860
▁सकाळी	-4861
▁नातेवाई	-4862
▁नारायण	-4863
ादित	-4864
▁फाय	-4865
▁वाटले	-4866
बार	-4867
▁भूमी	-4868
▁वेगळी	-4869
▁उत्तम	-4870
▁याचिकाकर्त्याला	-4871
▁मानला	-4872
▁अल्पसं	-4873
▁कोणाला	-4874
▁दुर्दै	-4875
▁द्वारा	-4876
▁तरतुदींनुसार	-4877
हारिक	-4878
▁निर्णयाचे	-4879
▁विभागातील	-4880
वायत्त	-4881
▁सरकारची	-4882
▁ठरविलेल्या	-4883
हार्य	-4884
▁रकमेच्या	-4885
फि	-4886
रव	-4887
घटना	-4888
▁दिसत	-4889
▁बदला	-4890
ंपारिक	-4891
▁भविष्यातील	-4892
िकर	-4893
र्शी	-4894
पणाने	-4895
▁सवलत	-4896
'.	-4897
सीएल	-4898
▁वेधले	-4899
▁व्यक्ति	-4900
▁आधीपासूनच	-4901
▁विद्यार्थ्यांना	-4902
ंश	-4903
मारी	-4904
▁लिहिले	-4905
▁भ्रष्टाचार	-4906
खेरीज	-4907
समावेश	-4908
▁स्थिर	-4909
▁कृत्या	-4910
▁मनमानी	-4911
टम	-4912
▁फायदे	-4913
▁हिताचे	-4914
▁डब्ल्यूपी	-4915
▁करण्याबाबत	-4916
▁नियुक्तीसाठी	-4917
षणा	-4918
चंद्र	-4919
▁काटे	-4920
▁व्यवहारा	-4921
▁किशोर	-4922
▁मिळवून	-4923
▁संपादन	-4924
▁कंपनीला	-4925
ंगा	-4926
धिकृत	-4927
▁अनुसरण	-4928
▁जबाबदा	-4929
▁घेतलेली	-4930
▁स्वायत्त	-4931
ृती	-4932
▁उत्तरदायी	-4933
उलट	-4934
▁मिश	-4935
▁इतकी	-4936
्युअल	-4937
▁ठेवा	-4938
▁राहिला	-4939
▁झाल्याचे	-4940
▁सांस्कृतिक	-4941
ंस	-4942
▁संवेद	-4943
▁मार्गदर्शन	-4944
▁व्यावहारिक	-4945
▁रकमेची	-4946
मीर	-4947
▁पदे	-4948
▁वेळा	-4949
▁ज्यासाठी	-4950
▁मिळविण्यासाठी	-4951
ंडर	-4952
▁पाय	-4953
वलेल्या	-4954
▁विचारा	-4955
▁संवर्ग	-4956
▁उलटतपासणी	-4957
▁अप्रत्यक्ष	-4958
जो	-4959
किं	-4960
▁परवानाधारक	-4961
▁हक्कांच्या	-4962
▁टप्प्यात	-4963
▁सांगायचे	-4964
▁प्रतिज्ञापत्रात	-4965
रुप	-4966
ण्यायोग्य	-4967
▁अविभाज्य	-4968
िंद	-4969
▁गरी	-4970
▁मृतक	-4971
▁शरीर	-4972
▁सांगू	-4973
▁न्यायव्यवस्थ	-4974
▁तड	-4975
▁क्रेड	-4976
▁पावती	-4977
▁खुलासा	-4978
एमई	-4979
▁ओरस	-4980
▁सुटका	-4981
▁संप्रेषण	-4982
▁अधिकाराच्या	-4983
ुप	-4984
वेल	-4985
रीक्षण	-4986
▁ड्राय	-4987
▁देखरेख	-4988
▁फसवणूक	-4989
▁काटेकोर	-4990
▁शोधण्यासाठी	-4991
▁निघ	-4992
▁खोली	-4993
▁अज्ञात	-4994
खालील	-4995
▁दारू	-4996
ांमधून	-4997
▁महामंडळ	-4998
▁योग्यता	-4999
▁सेटलमेंट	-5000
▁पारंपारिक	-5001
लय	-5002
डिया	-5003
▁किल	-5004
▁कोर्स	-5005
▁इस्टेट	-5006
▁विश्वस्त	-5007
▁सबमिशनचा	-5008
▁निश्चितपणे	-5009
▁तास	-5010
▁शपथ	-5011
▁वर्षांत	-5012
▁एक्सचेंज	-5013
▁हरक	-5014
▁प्रदेशात	-5015
▁वेळापत्रक	-5016
▁संस्थेच्या	-5017
▁शेवटच्या	-5018
▁न्यायालयानं	-5019
णीभूत	-5020
वण्यासाठी	-5021
▁मंदि	-5022
▁अब्दुल	-5023
▁वळ	-5024
▁ग्रॅ	-5025
▁प्रदू	-5026
▁खरोखरच	-5027
▁कारणीभूत	-5028
▁नागरिकांना	-5029
▁अंग	-5030
▁राब	-5031
▁आत्मवि	-5032
▁टिकवून	-5033
▁सारख्या	-5034
▁स्वीकारली	-5035
▁घेण्यासारखे	-5036
▁रण	-5037
▁बदली	-5038
▁पाहता	-5039
मेल	-5040
▁रोड	-5041
▁उचित	-5042
▁समस्ये	-5043
▁व्यायाम	-5044
▁मान्यताप्राप्त	-5045
▁नेले	-5046
▁अपराध	-5047
▁पाडले	-5048
▁वेगवान	-5049
▁विचाराधीन	-5050
वाने	-5051
▁मनी	-5052
▁पाठपुरावा	-5053
▁गुंतवणूकदार	-5054
ोरम	-5055
▁अटके	-5056
▁सोयी	-5057
▁अवास्तव	-5058
▁बाजारपे	-5059
▁सर्वसाधारणपणे	-5060
कू	-5061
विस्तर	-5062
▁सविस्तर	-5063
▁सार्वभौ	-5064
तेस	-5065
▁शकतील	-5066
▁स्वार	-5067
इड	-5068
▁मोक	-5069
▁फर्म	-5070
▁अपंगत्व	-5071
▁नियोक्ता	-5072
▁पर्यावरणीय	-5073
▁पुनरुच्चार	-5074
▁नोंदविलेल्या	-5075
▁नष्ट	-5076
▁मोबा	-5077
▁प्रेम	-5078
▁हिंसा	-5079
खन	-5080
रीव	-5081
▁निवडले	-5082
▁आवश्यकतेनुसार	-5083
आयए	-5084
▁अला	-5085
▁समोर	-5086
▁प्रभारी	-5087
आरटी	-5088
▁अजि	-5089
▁बोलाव	-5090
▁होतात	-5091
▁संबोधित	-5092
▁अधिसूचनेद्वारे	-5093
्यम	-5094
पालन	-5095
▁नेत	-5096
▁मॅन	-5097
▁तोंड	-5098
▁पुराव्यांचा	-5099
क्या	-5100
नातील	-5101
▁कडून	-5102
▁मोहन	-5103
▁डेव्हल	-5104
▁विभाजन	-5105
▁क्षेत्राचा	-5106
▁रचने	-5107
▁उपाया	-5108
▁पाळले	-5109
▁रूपात	-5110
▁तत्काळ	-5111
▁लवादाची	-5112
▁त्याअंतर्गत	-5113
▁वेद	-5114
▁सुश्री	-5115
ोद	-5116
▁सभास	-5117
ंपेक्षा	-5118
▁अजिबात	-5119
▁नोंदविली	-5120
▁माहितीच्या	-5121
▁अपीलकर्त्यासाठी	-5122
▁बळी	-5123
▁विजय	-5124
▁मानवा	-5125
▁विवादा	-5126
▁प्रकरणाचा	-5127
ल्टी	-5128
दर्शी	-5129
▁शहरी	-5130
▁भारती	-5131
▁क्रेडिट	-5132
▁प्रसिद्ध	-5133
क्रि	-5134
किंवा	-5135
▁मनुष	-5136
▁मेमन	-5137
▁काढणे	-5138
▁झाल्यामुळे	-5139
▁व्यक्तीचा	-5140
▁इंट	-5141
▁जिवंत	-5142
▁समाजात	-5143
▁परिपूर्ण	-5144
▁लप	-5145
▁यूपी	-5146
▁लेखन	-5147
▁मिश्रा	-5148
▁महिन्यां	-5149
▁महत्वाचे	-5150
▁आगा	-5151
▁ओला	-5152
ंबाबत	-5153
▁विरोधी	-5154
▁अपीलकर्त्याचा	-5155
ग्रा	-5156
्रमण	-5157
▁.0	-5158
▁विक्रीच्या	-5159
▁:	-5160
हीत	-5161
▁रह	-5162
▁ठरू	-5163
▁नसले	-5164
▁योजन	-5165
▁अंशतः	-5166
▁जवळपास	-5167
▁संकल्पने	-5168
▁१	-5169
▁डोक	-5170
▁लघु	-5171
▁बोली	-5172
▁प्रवास	-5173
▁सांगून	-5174
▁कार्यवाहीत	-5175
▁एअर	-5176
▁एकर	-5177
▁झाल्याने	-5178
▁वारसा	-5179
ल्याची	-5180
▁गुणवत्तेवर	-5181
▁विक्रेत्या	-5182
एनए	-5183
त्य	-5184
▁उज	-5185
किंग	-5186
्सच्या	-5187
▁अशक्य	-5188
▁प्राप्तिकर	-5189
▁पूरक	-5190
पणाचा	-5191
▁पोर्ट	-5192
▁पेमेंट	-5193
▁असुर	-5194
▁दिशा	-5195
▁शिफारसी	-5196
▁खून	-5197
▁दत्	-5198
र्व्ह	-5199
समावेशक	-5200
णीकरण	-5201
शिप	-5202
सेव	-5203
ानु	-5204
▁एपी	-5205
कंप	-5206
नार	-5207
▁लिंग	-5208
तेमुळे	-5209
▁गव्हर्न	-5210
▁समुपदेशन	-5211
यमित	-5212
▁बजावली	-5213
▁रेड्डी	-5214
ांकित	-5215
▁छाया	-5216
▁शांतता	-5217
--------	-5218
▁सरकारकडून	-5219
▁डिज	-5220
▁बिल्ड	-5221
▁चुकीची	-5222
आयडी	-5223
▁तोटा	-5224
▁निष्पक्ष	-5225
▁अधिकारांचा	-5226
▁व्याया	-5227
ण्याबाबत	-5228
▁अनियमित	-5229
▁संबंधात	-5230
▁सर्वोत्	-5231
▁उत्पादित	-5232
▁दृष्टीकोनातून	-5233
टो	-5234
▁अधिनियमा	-5235
▁इलेक्ट्रॉनिक	-5236
ल्य	-5237
▁कार्यक्षमता	-5238
▁अंमलबजावणीच्या	-5239
▁सल्ल्याद्वारे	-5240
ॉस	-5241
▁ठाम	-5242
▁सहन	-5243
▁उक्त	-5244
कासाठी	-5245
निर्माण	-5246
▁विभागात	-5247
▁काटेकोरपणे	-5248
▁काढण्यासाठी	-5249
आधी	-5250
मार्ग	-5251
▁हत्ये	-5252
सीए	-5253
▁इक्विटी	-5254
आणि	-5255
ुसं	-5256
▁ओझे	-5257
▁काळा	-5258
▁मासिक	-5259
▁पीएस	-5260
▁सल्ले	-5261
▁सत्ता	-5262
पद	-5263
कधी	-5264
▁फु	-5265
▁वागणूक	-5266
ावरून	-5267
▁इतका	-5268
▁गृहित	-5269
▁कोणालाही	-5270
▁अनुपस्थितीत	-5271
म्मू	-5272
वाडा	-5273
▁लँड	-5274
ांवरील	-5275
▁इंग्ल	-5276
▁स्टील	-5277
▁फायदेशीर	-5278
याला	-5279
वाला	-5280
▁अवस्थ	-5281
▁दिवसा	-5282
▁आयुष्य	-5283
▁दुरुस्	-5284
▁आदेशाला	-5285
▁संस्कृती	-5286
िओ	-5287
ध्यापक	-5288
विलेल्या	-5289
▁तेव्हाच	-5290
▁यादीमध्ये	-5291
▁निवडलेल्या	-5292
पीएल	-5293
▁कुठ	-5294
▁द्यावा	-5295
▁सरकारकडे	-5296
▁रस्ता	-5297
▁सोडण्यात	-5298
नाला	-5299
▁काढली	-5300
▁संस्थांना	-5301
▁परिषदे	-5302
टीने	-5303
श्वर	-5304
ज्ज्ञ	-5305
▁वक्त	-5306
▁मालकीच्या	-5307
ोमेट	-5308
▁भरीव	-5309
▁जप्ती	-5310
▁मुख्यमंत्र	-5311
▁फायद्यासाठी	-5312
वावे	-5313
▁घटस्फोट	-5314
▁रस्त्या	-5315
▁महत्त्वाचा	-5316
वारा	-5317
व्हिजन	-5318
▁दक्षिण	-5319
महा	-5320
योजित	-5321
▁घेईल	-5322
ण्यावर	-5323
▁प्रचलित	-5324
▁सावधगिरी	-5325
▁सर्वसमावेशक	-5326
▁कोणीही	-5327
्ज	-5328
▁त्रि	-5329
्यूट	-5330
ल्यावर	-5331
फिक	-5332
पीएस	-5333
▁अधी	-5334
▁चाच	-5335
▁भरणे	-5336
▁ज्याद्वारे	-5337
▁फ्लॅट	-5338
▁घटनेचा	-5339
ंवरील	-5340
▁चालना	-5341
▁अनिश्चित	-5342
▁कर्मचार्यांच्या	-5343
▁सदर	-5344
ख्यात	-5345
▁प्राण	-5346
▁अटींमध्ये	-5347
▁प्रमाणीकरण	-5348
▁हेच	-5349
▁पुरवठ	-5350
▁मसुदा	-5351
▁मागास	-5352
▁एकट्या	-5353
▁असुरक्षित	-5354
बळ	-5355
▁अल	-5356
▁सेंट	-5357
▁आमंत्र	-5358
▁निलंबित	-5359
▁मनोरंजन	-5360
▁ऑर्डरच्या	-5361
चक	-5362
▁दत्तक	-5363
▁हत्या	-5364
▁अक्ष	-5365
ांनाही	-5366
▁अमेरिकन	-5367
▁डेव्हलप	-5368
वश्यक	-5369
▁दर्शविले	-5370
▁निर्विवाद	-5371
▁शाळ	-5372
लिसिटर	-5373
▁लिलाव	-5374
▁छोट्या	-5375
▁बँकिंग	-5376
▁गुन्ह्यां	-5377
नाम	-5378
▁भग	-5379
▁राज्यस	-5380
▁अधीनस्थ	-5381
एक	-5382
▁आयोजन	-5383
▁व्यवसायात	-5384
▁व्यक्तींनी	-5385
▁टाळण्यासाठी	-5386
▁निर्देशानुसार	-5387
▁सद्य	-5388
▁पेट्रोल	-5389
▁उपस्थितीत	-5390
▁फिर्यादींनी	-5391
ाकार	-5392
▁गुरु	-5393
▁समित	-5394
▁सेबी	-5395
▁जवळजवळ	-5396
▁सॉलिसिटर	-5397
▁दड	-5398
▁सभासद	-5399
▁प्रश्नांची	-5400
▁पळ	-5401
▁फेडरल	-5402
▁मात्र	-5403
▁अपरिहार्य	-5404
▁उद्दीष्टे	-5405
▁विद्यार्थी	-5406
▁ठेवी	-5407
▁वापरले	-5408
▁समन्वय	-5409
▁वर्षांपेक्षा	-5410
ांसमोर	-5411
▁ठेवण्याचे	-5412
▁मिळाल्यानंतर	-5413
नो	-5414
▁मोड	-5415
▁टाकले	-5416
▁शस्त्र	-5417
रणा	-5418
रीच	-5419
▁अॅक्ट	-5420
▁बांधील	-5421
▁पत्राद्वारे	-5422
▁रम	-5423
▁कधीकधी	-5424
▁कंपनीचे	-5425
▁पाठविला	-5426
▁धोरणात्मक	-5427
▁प्रवृत्ती	-5428
▁संस्थांच्या	-5429
▁न्यायाधीशांचे	-5430
गारा	-5431
्वनी	-5432
▁एकच	-5433
▁हस्तक्षेपा	-5434
१३	-5435
वासा	-5436
▁चौरस	-5437
▁अपिला	-5438
▁समन्स	-5439
शिया	-5440
▁एमएस	-5441
▁आढळली	-5442
▁इतिहास	-5443
▁सुधारण	-5444
▁दर्शवितो	-5445
तरी	-5446
▁गुन्ह्यास	-5447
▁अल्	-5448
▁प्रामाणिक	-5449
▁आदेशाविरूद्ध	-5450
ोगी	-5451
एमसी	-5452
संगत	-5453
▁रस्ते	-5454
मुख्याने	-5455
▁तरच	-5456
▁ग्राम	-5457
▁कारावा	-5458
लिंग	-5459
▁यापैकी	-5460
▁साह	-5461
▁टायगर	-5462
▁प्रभावित	-5463
▁बायोमेट	-5464
वीन	-5465
▁बैठकीत	-5466
▁त्यावरील	-5467
▁आयपीसीच्या	-5468
कंपनी	-5469
विचार	-5470
▁अपराधी	-5471
▁देणारे	-5472
▁मुदतवाढ	-5473
▁प्रामुख्याने	-5474
▁व्हा	-5475
▁शाखा	-5476
▁कॉलेज	-5477
▁देखरेखी	-5478
र्नी	-5479
▁परिणामा	-5480
थी	-5481
▁ठिकाण	-5482
▁दिवाळखोरी	-5483
▁बच	-5484
▁सॉफ्ट	-5485
',	-5486
▁शाख	-5487
▁अधीक्षक	-5488
▁सदस्यांच्या	-5489
▁कसा	-5490
▁माप	-5491
▁वितरित	-5492
▁साधारण	-5493
▁अनुच्छेद	-5494
▁आत्मविश्वास	-5495
▁तक्रारदाराने	-5496
र्वा	-5497
पेक्ष	-5498
▁जम्मू	-5499
▁निवारण	-5500
▁बळक	-5501
पणाची	-5502
हाबाद	-5503
▁निर्धारित	-5504
▁प्रत्यक्षदर्शी	-5505
िंट	-5506
▁बरीच	-5507
▁मेडिकल	-5508
▁कार्यवाहीच्या	-5509
जन्य	-5510
▁वॉरंट	-5511
कायुक्त	-5512
▁रिझर्व्ह	-5513
▁तारखेच्या	-5514
▁पाट	-5515
▁मॅने	-5516
ूहिक	-5517
▁हद्दी	-5518
▁वृ	-5519
▁बिल	-5520
प्रथम	-5521
▁खाणी	-5522
▁संकेत	-5523
ांविरूद्ध	-5524
▁त्यासाठी	-5525
न्ड	-5526
▁तिसरा	-5527
▁राहिली	-5528
▁बाबींवर	-5529
ल्याशिवाय	-5530
वासाची	-5531
▁ग्रुप	-5532
▁ठराविक	-5533
▁अपेक्षित	-5534
▁निर्धारणा	-5535
▁मिळाल्यास	-5536
क्फ	-5537
▁चंद	-5538
▁आवार	-5539
▁चाचण्या	-5540
▁उपक्रमां	-5541
▁बँकेच्या	-5542
▁पुराव्यांची	-5543
▁कने	-5544
▁साय	-5545
▁नियमात	-5546
▁आमच्यासमोर	-5547
▁यांच्याकडे	-5548
चण	-5549
▁पहिली	-5550
▁क्लॉज	-5551
▁पोलिसांना	-5552
▁विषयावरील	-5553
▁सदस्यांनी	-5554
▁एड	-5555
चार्ज	-5556
▁वर्षांची	-5557
▁त्यांच्याकडे	-5558
एमएस	-5559
तिहासिक	-5560
▁उपविभाग	-5561
▁भे	-5562
▁वाक	-5563
▁खुले	-5564
▁पुढाकार	-5565
▁लोकांचे	-5566
▁स्थगिती	-5567
ण्यासारखे	-5568
▁लवादाने	-5569
▁निर्णायक	-5570
▁तत्त्वावर	-5571
वित्र	-5572
▁बीसी	-5573
▁इंग्लंड	-5574
▁शिक्षित	-5575
▁अन्यायकारक	-5576
▁मंड	-5577
▁धरले	-5578
▁ओलांड	-5579
▁आश्वासन	-5580
दीप	-5581
▁न्यायदंड	-5582
▁नियमितपणे	-5583
▁कप	-5584
फॉर्म	-5585
▁अपहरण	-5586
▁ठरावा	-5587
▁लिहून	-5588
▁वाहतूक	-5589
▁चित्रपट	-5590
▁वाढविण्यासाठी	-5591
चीन	-5592
ुपी	-5593
▁अडचण	-5594
▁किलो	-5595
वासाठी	-5596
रोप	-5597
▁साधला	-5598
▁जमीनदार	-5599
गरी	-5600
ोरेखित	-5601
▁कार्यकाळ	-5602
▁निर्धारक	-5603
▁फोन	-5604
▁मालमत्त	-5605
संशय	-5606
▁अशोक	-5607
▁स्वे	-5608
▁जुन्या	-5609
▁नगरपाल	-5610
▁मुलाच्या	-5611
▁पुरेसा	-5612
▁मानदंड	-5613
त्तीस	-5614
▁इच्छितो	-5615
बरी	-5616
▁ली	-5617
▁नक्	-5618
▁फ्रे	-5619
▁व्हिडिओ	-5620
▁एकापेक्षा	-5621
नंदन	-5622
वावर	-5623
▁दिन	-5624
▁नावि	-5625
▁महिने	-5626
▁सोडून	-5627
▁चांगला	-5628
▁आस	-5629
▁मंत्रालयाने	-5630
ुती	-5631
▁ऐतिहासिक	-5632
▁राज्यघटना	-5633
▁ऑड	-5634
ंमुळे	-5635
पणाच्या	-5636
▁दुर्मिळ	-5637
▁वाढविणे	-5638
लर	-5639
▁चलन	-5640
▁मतदान	-5641
▁परा	-5642
▁असती	-5643
▁परिसर	-5644
▁निर्णयाद्वारे	-5645
▁तुकड	-5646
▁बैठक	-5647
▁सामूहिक	-5648
▁महानगरपालिका	-5649
▁प्राधिकरणाच्या	-5650
फो	-5651
खेरीस	-5652
▁उत्स	-5653
ल्यवान	-5654
▁घेतात	-5655
▁याविषयी	-5656
▁अलाहाबाद	-5657
▁अधिकारांच्या	-5658
▁कोर्टाद्वारे	-5659
िने	-5660
▁[]	-5661
र्पण	-5662
▁व्हे	-5663
▁भत्ता	-5664
▁स्पर्धा	-5665
▁निरीक्षक	-5666
पाती	-5667
▁सही	-5668
▁अन्वे	-5669
▁........	-5670
▁परिस	-5671
▁महास	-5672
▁मध्यम	-5673
▁विकासाच्या	-5674
▁पोच	-5675
नाद्वारे	-5676
▁निःसंशय	-5677
म्स	-5678
▁विधी	-5679
▁संभोग	-5680
▁नेतृत्	-5681
▁अधिकाराचे	-5682
▁सीई	-5683
▁उपकलम	-5684
▁हवामान	-5685
▁मर्यादेच्या	-5686
ूब	-5687
ोत्तर	-5688
▁वापरुन	-5689
▁संवेदनशील	-5690
▁साज	-5691
▁कृष्ण	-5692
▁शिक्षेस	-5693
▁त्यावेळी	-5694
▁झोप	-5695
▁उभार	-5696
▁गोपनीयता	-5697
▁प्रवृत्त	-5698
▁मौल्यवान	-5699
▁विभागाने	-5700
▁ओरि	-5701
▁एआयआर	-5702
▁निबंध	-5703
▁नावाने	-5704
▁राज्यासाठी	-5705
ेक्ट	-5706
वाहिक	-5707
▁आचार	-5708
▁विकृत	-5709
▁महामहिम	-5710
▁प्रकारचा	-5711
गुरू	-5712
मूल्य	-5713
▁गोंध	-5714
▁व्याख्ये	-5715
▁नक्कीच	-5716
्यांकडून	-5717
▁तर्कसंगत	-5718
▁भविष्यात	-5719
▁हिंसाचार	-5720
▁लु	-5721
▁गरीब	-5722
▁मिनि	-5723
भरातील	-5724
▁बहुसं	-5725
▁तिच्यावर	-5726
▁रस	-5727
▁स्म	-5728
▁पेंड	-5729
▁वाटत	-5730
▁जागरू	-5731
▁डीएनए	-5732
▁आदेशास	-5733
▁करतांना	-5734
लिम	-5735
▁जुळ	-5736
नच्या	-5737
▁स्टॉक	-5738
▁जाहिरा	-5739
▁पाठविली	-5740
▁अटींच्या	-5741
▁विधिमंडळा	-5742
▁स्वरुप	-5743
▁द्विपक्षीय	-5744
▁रिका	-5745
▁अभ्यासा	-5746
▁मृत्यूची	-5747
ोलिक	-5748
▁अखे	-5749
▁पुनर्र	-5750
ागु	-5751
आरआय	-5752
कातील	-5753
▁मुख्या	-5754
▁लागतील	-5755
▁उत्पादने	-5756
▁आत्महत्या	-5757
टूंब	-5758
न्हा	-5759
▁वक्फ	-5760
▁पुराव्या	-5761
ब्लिक	-5762
▁धारणा	-5763
▁मिळेल	-5764
▁अभिनंदन	-5765
▁निवडणुकी	-5766
▁वादविवाद	-5767
▁सुरुवातीला	-5768
थोड	-5769
▁मॉ	-5770
▁कोर	-5771
▁भूत	-5772
पात्र	-5773
▁कोलक	-5774
▁डिस्	-5775
▁युनिट्स	-5776
▁भागाच्या	-5777
▁इस्	-5778
▁हॉस्प	-5779
▁अखेरीस	-5780
िश	-5781
िंह	-5782
यारी	-5783
▁लागले	-5784
▁त्याशिवाय	-5785
टेड	-5786
▁मध	-5787
▁शिव	-5788
पणाचे	-5789
▁शोधून	-5790
▁सेंटर	-5791
▁ग्रस्त	-5792
▁तातडीने	-5793
▁निकालात	-5794
▁घटनांमध्ये	-5795
ूड	-5796
▁खाती	-5797
▁भांडवल	-5798
▁प्रतिकार	-5799
कल्पिक	-5800
▁मालमत्तेत	-5801
▁ठेवण्याच्या	-5802
वर्ग	-5803
▁आयए	-5804
▁राहत	-5805
▁आदेशाने	-5806
▁लोकसंख्या	-5807
▁प्रस्थापित	-5808
र्धन	-5809
स्टे	-5810
▁मेमो	-5811
▁संशया	-5812
▁लवादाचा	-5813
▁पुष्टीकरण	-5814
▁क्रि	-5815
▁मुस्	-5816
▁संसाध	-5817
▁एमसीआय	-5818
▁बॉम्बे	-5819
▁व्यवस्थापकीय	-5820
नाय	-5821
▁खासदार	-5822
▁है	-5823
बिट	-5824
न्वित	-5825
▁आगाऊ	-5826
स्तू	-5827
▁कडे	-5828
▁पां	-5829
▁ऐच्छिक	-5830
▁कुटूंब	-5831
▁बांधकामा	-5832
▁मध्यस्थी	-5833
ारक	-5834
▁टो	-5835
▁हवे	-5836
शक्ती	-5837
▁सचिवा	-5838
घातक	-5839
▁काउ	-5840
ेशन्स	-5841
▁वर्मा	-5842
▁उद्भवत	-5843
▁ठरविणे	-5844
▁संसदेत	-5845
▁पर्यायी	-5846
▁प्रोग्रा	-5847
▁ग्राहकांना	-5848
▁युनिव्हर्स	-5849
▁ठरली	-5850
▁भरला	-5851
▁अधिनियमित	-5852
▁नदी	-5853
र्किट	-5854
▁कारभार	-5855
▁द्यावे	-5856
▁मुलांना	-5857
▁जागेच्या	-5858
▁जप	-5859
स्वा	-5860
▁अंतर्भ	-5861
▁मागितली	-5862
▁दंडात्मक	-5863
▁माध्यमिक	-5864
▁इंडस्ट्री	-5865
▁विभागाच्या	-5866
ुका	-5867
▁असत	-5868
▁वंश	-5869
ंचालक	-5870
▁लेखक	-5871
▁भविष्य	-5872
थोडक्यात	-5873
▁समृद्धी	-5874
▁स्वतःला	-5875
▁वैकल्पिक	-5876
पार	-5877
न्ना	-5878
ेमध्ये	-5879
▁नावावर	-5880
▁घटनापीठ	-5881
▁यांच्याशी	-5882
▁कायमस्वरुपी	-5883
मला	-5884
ालचा	-5885
▁कोट	-5886
▁अटींनुसार	-5887
-0	-5888
पया	-5889
▁कराय	-5890
▁गोळी	-5891
▁पुस्तक	-5892
▁अहवालाच्या	-5893
▁सूचन	-5894
▁गुंतागु	-5895
▁कलमाच्या	-5896
साह	-5897
▁अब	-5898
▁फर	-5899
▁ज्यांचे	-5900
▁गृहनिर्माण	-5901
णाला	-5902
▁कौर	-5903
▁दोघे	-5904
्यांसह	-5905
▁पहिले	-5906
न्यपूर्ण	-5907
▁नकारात्मक	-5908
▁खरा	-5909
▁अजूनही	-5910
▁कनिष्ठ	-5911
▁वैवाहिक	-5912
▁याचिकाकर्त्यास	-5913
श्मीर	-5914
▁कॉन्ट	-5915
▁गृहीत	-5916
▁वाचना	-5917
▁परीक्षे	-5918
▁कारवाईचे	-5919
▁सदस्यांची	-5920
▁निःसंशयपणे	-5921
▁मानवाधिकार	-5922
▁राष्ट्रपतींच्या	-5923
उंड	-5924
टिल	-5925
▁ग्री	-5926
▁मानतो	-5927
▁असणार्या	-5928
▁परिपत्रक	-5929
▁यापूर्वीच	-5930
▁संपल्यानंतर	-5931
▁त्यासंदर्भात	-5932
डतो	-5933
जेरी	-5934
▁मारहाण	-5935
▁फसवणूकी	-5936
▁आदेशामुळे	-5937
.'	-5938
▁टॉ	-5939
▁माफी	-5940
▁पवित्र	-5941
▁वकिलाने	-5942
प्रतिवादी	-5943
▁तुम्हाला	-5944
▁टक्केवारी	-5945
▁वर्षासाठी	-5946
▁सॉफ्टवेअर	-5947
सीसी	-5948
▁(())	-5949
▁क्रम	-5950
▁मोबद	-5951
▁शकणार	-5952
ाप्रमाणे	-5953
▁वस्तूंचे	-5954
▁उत्पन्नाच्या	-5955
्वळ	-5956
▁पाऊ	-5957
▁असाव	-5958
▁प्रक्रियेचे	-5959
▁ऑडिट	-5960
▁छत्तीस	-5961
▁प्राणघातक	-5962
यला	-5963
▁दै	-5964
▁एखादे	-5965
▁भाषेत	-5966
▁तारखेस	-5967
▁अनधिकृत	-5968
▁कराराचे	-5969
भंग	-5970
ोदर	-5971
▁क्रॉस	-5972
▁विधानमंडळ	-5973
▁सुधारण्यासाठी	-5974
▁इति	-5975
▁सशस्त्र	-5976
धर	-5977
षित	-5978
▁आणणे	-5979
▁आदर्श	-5980
▁टॅक्स	-5981
▁आदेशाचा	-5982
▁प्रभावा	-5983
▁खर्चाच्या	-5984
▁ज्यांच्या	-5985
▁तरतुदींमध्ये	-5986
▁ठोस	-5987
▁ठेवत	-5988
▁हालचा	-5989
▁डिव्हिजन	-5990
▁सुरुवातीच्या	-5991
वणी	-5992
▁अँ	-5993
स्कर	-5994
▁याला	-5995
▁मांडली	-5996
▁कारणांसाठी	-5997
▁सेवानिवृत्त	-5998
▁आयपीसीअंतर्गत	-5999
केश	-6000
ारखी	-6001
द्दीन	-6002
वाहित	-6003
▁अगोदर	-6004
▁गोंधळ	-6005
कृष्ण	-6006
▁अवघड	-6007
▁ऊर्जा	-6008
▁वकीलाने	-6009
▁कारावासाची	-6010
▁परिस्थितीचा	-6011
कॉ	-6012
▁खेळ	-6013
▁धाव	-6014
वक्ता	-6015
▁कधीच	-6016
▁दक्ष	-6017
▁धमकी	-6018
▁संग्रह	-6019
इस	-6020
दास	-6021
▁पृथ	-6022
▁सूर	-6023
मर	-6024
डतोब	-6025
▁चुकून	-6026
▁खंडपीठासमोर	-6027
▁पडला	-6028
▁तज्ज्ञ	-6029
▁तितकेच	-6030
▁ठरलेल्या	-6031
▁कायदेशीररित्या	-6032
▁हून	-6033
▁होणारी	-6034
▁प्रदूषण	-6035
▁प्रश्नच	-6036
▁सुव्यवस्थ	-6037
▁असल्यामुळे	-6038
▁जाणीवपूर्वक	-6039
रुंग	-6040
▁मशी	-6041
▁शेख	-6042
▁कोठे	-6043
▁व्यवहार्य	-6044
▁वाढविण्यात	-6045
म्ह	-6046
▁शोक	-6047
▁रहिवाश	-6048
▁ताबडतोब	-6049
▁उपलब्धता	-6050
▁आमच्याकडे	-6051
▁प्रक्रियात्मक	-6052
▁मेट	-6053
▁सभा	-6054
▁हार्	-6055
▁राहणे	-6056
▁असंख्य	-6057
▁पहिल्यांदा	-6058
▁प्रदेशातील	-6059
▁चर्चेच्या	-6060
▁कार्यात	-6061
▁भरलेल्या	-6062
▁आवाज	-6063
▁अन्वेषण	-6064
सीटीई	-6065
▁अखेर	-6066
▁जागी	-6067
▁हक्कांचे	-6068
▁सख	-6069
तेशी	-6070
ार्क	-6071
▁उतर	-6072
▁चिक	-6073
▁फारच	-6074
▁इतिहा	-6075
▁तुरुंग	-6076
▁आदेशाची	-6077
▁निकालाचा	-6078
वहन	-6079
▁ऑफिसर	-6080
▁गॅस	-6081
▁व्यक्तीवर	-6082
जीवन	-6083
▁ट्रॅ	-6084
▁अनुमती	-6085
▁त्याच्याकडे	-6086
ष्णा	-6087
▁भरपाईच्या	-6088
▁दाव्याच्या	-6089
▁निर्णयासाठी	-6090
निया	-6091
▁कित	-6092
▁हजेरी	-6093
▁निव्वळ	-6094
▁लिक्वि	-6095
ब्ली	-6096
ळावर	-6097
▁बचत	-6098
▁कारा	-6099
▁मास्टर	-6100
त्यानंतर	-6101
▁अनुपालन	-6102
▁प्रश्नातील	-6103
▁बायोमेट्रिक	-6104
▁हायकोर्टाचे	-6105
▁गोपनीयतेच्या	-6106
क्षी	-6107
जीसी	-6108
▁क्रूर	-6109
▁पुराव्यांवरून	-6110
▁आद	-6111
ारखा	-6112
▁विमाधारक	-6113
▁विपण	-6114
▁अधोरेखित	-6115
▁राजीनामा	-6116
▁नियमांद्वारे	-6117
▁बहि	-6118
▁कराव	-6119
▁कृपया	-6120
▁शोधणे	-6121
▁आवश्यकत	-6122
▁ग्राहकांच्या	-6123
▁मिळते	-6124
▁चिन्हांकित	-6125
▁स्पर्धात्मक	-6126
ाबा	-6127
णाची	-6128
▁आपत्	-6129
▁ठेवतो	-6130
▁सामंज	-6131
▁तात्पुरते	-6132
▁लावण्यासाठी	-6133
घाट	-6134
िकाऊ	-6135
▁काप	-6136
▁अपयश	-6137
▁पैकी	-6138
▁मुलांच्या	-6139
▁विद्यापीठाच्या	-6140
▁इंद	-6141
▁कॉपी	-6142
▁तिथे	-6143
विण्याच्या	-6144
▁मैत्रीपूर्ण	-6145
▁एनआय	-6146
▁मनुष्य	-6147
▁करारावर	-6148
▁गोष्टींचा	-6149
▁कामगारांना	-6150
चरा	-6151
▁गती	-6152
वर्षी	-6153
▁शकली	-6154
श्रेणी	-6155
ूपी	-6156
▁हैदर	-6157
एससीसी	-6158
▁गावात	-6159
▁यावेळी	-6160
▁नुकसानी	-6161
▁पुनर्विचार	-6162
▁महाविद्यालय	-6163
▁नागरिकांच्या	-6164
▁स्वातंत्र्या	-6165
चंद	-6166
▁डा	-6167
ौद्ध	-6168
▁कमि	-6169
▁सुंदर	-6170
▁ठरविला	-6171
▁जतन	-6172
आर्थिक	-6173
▁हातात	-6174
▁समुदाय	-6175
▁तत्कालीन	-6176
▁राहण्याची	-6177
▁कार्यक्रमां	-6178
्रेस	-6179
▁साख	-6180
▁निपट	-6181
▁कलमात	-6182
▁ऑनलाईन	-6183
▁सर्वप्रथम	-6184
धानी	-6185
शियल	-6186
▁देण	-6187
मतीने	-6188
राष्ट्र	-6189
▁दायित्	-6190
▁विमानत	-6191
▁नेमणुकी	-6192
▁वयाच्या	-6193
▁दडप	-6194
▁स्र	-6195
▁मुद्दय	-6196
▁कारावास	-6197
ाबाबत	-6198
▁पेपर	-6199
▁नसलेली	-6200
▁स्वतःचे	-6201
▁पाण्याचे	-6202
ओएस	-6203
▁आक	-6204
नाशी	-6205
▁एकस	-6206
▁जमी	-6207
▁संशय	-6208
▁वाचतो	-6209
▁ऑस्ट्र	-6210
▁परिवहन	-6211
ज्ञे	-6212
▁कच्	-6213
▁चालव	-6214
▁शंकर	-6215
▁ऑपरेट	-6216
क्षिप्त	-6217
▁प्रकल्	-6218
▁किंमतीवर	-6219
▁पाठविण्यात	-6220
क्सा	-6221
▁बिड	-6222
▁घेतो	-6223
▁कुमारी	-6224
▁स्वेच्छ	-6225
▁अत्यावश्यक	-6226
िकेट	-6227
ांपर्यंत	-6228
▁युनिव्हर्सिटी	-6229
न्नई	-6230
▁चरण	-6231
▁पकड	-6232
▁कृष्णा	-6233
▁स्वरुपात	-6234
▁हेतूंसाठी	-6235
▁उमेदवारांना	-6236
▁घेण्यापूर्वी	-6237
▁बॉम्ब	-6238
▁षडयंत्र	-6239
▁अपीलकर्त्यांना	-6240
ट्र	-6241
▁बुक	-6242
ंमधून	-6243
▁डिजिटल	-6244
अनु	-6245
व्हा	-6246
ासरी	-6247
▁काल	-6248
▁वजा	-6249
▁सवलती	-6250
▁ठेवल्या	-6251
▁न्यायालयांना	-6252
मेन	-6253
ंब्ली	-6254
▁फार्	-6255
▁कार्यान्वित	-6256
▁साक्षीदाराने	-6257
▁धात	-6258
▁पीक	-6259
▁अतिक	-6260
▁पुनर्स	-6261
▁कर्जाची	-6262
▁हैदराबाद	-6263
▁प्राध्यापक	-6264
▁कामगारांच्या	-6265
पिंग	-6266
▁पाऊल	-6267
▁बनले	-6268
▁उचलली	-6269
▁मुदती	-6270
▁अपीलच्या	-6271
▁मार्गावर	-6272
▁संस्थांमध्ये	-6273
▁कन्	-6274
शुल्क	-6275
णासाठी	-6276
▁असमान	-6277
▁पर्यवे	-6278
▁वादाचा	-6279
▁कोलकाता	-6280
ृत्तीच्या	-6281
▁पुनर्संच	-6282
▁कायमस्वरूपी	-6283
उट	-6284
ौढ	-6285
▁--	-6286
धिका	-6287
पाली	-6288
▁ठार	-6289
▁पध्द	-6290
▁इंडियन	-6291
▁छत्तीसगड	-6292
▁वादग्रस्त	-6293
▁सल्ल्याने	-6294
उदा	-6295
णूस	-6296
▁उपनि	-6297
▁बौद्ध	-6298
▁माणूस	-6299
▁कित्ये	-6300
▁झालेली	-6301
▁वस्तूंवर	-6302
▁प्रक्रियेस	-6303
▁डेव्हलपमेंट	-6304
ढी	-6305
ाजे	-6306
▁बर	-6307
▁निम	-6308
▁बदलू	-6309
▁सुसं	-6310
▁आरोपा	-6311
▁टिप्प	-6312
▁दाखवा	-6313
▁डिस्चार्ज	-6314
▁याचिकेच्या	-6315
▁योजनेंतर्गत	-6316
ाजी	-6317
▁टॅ	-6318
▁बँका	-6319
▁शोषण	-6320
▁अभिलेख	-6321
▁समृद्ध	-6322
▁सध्याचे	-6323
▁सामान्यपणे	-6324
नक	-6325
आरए	-6326
▁मंच	-6327
▁घडली	-6328
▁परंपर	-6329
▁कुलगुरू	-6330
म्हण	-6331
हरणे	-6332
▁जखमां	-6333
्यांकडे	-6334
▁उदाहरणे	-6335
▁विधानसभा	-6336
▁उत्तरदायित्	-6337
▁चतु	-6338
धारित	-6339
▁आलेला	-6340
▁तयारी	-6341
▁मूल्यांक	-6342
बाई	-6343
▁पथ	-6344
▁दला	-6345
▁सूत्र	-6346
▁खटल्याला	-6347
१४	-6348
वरा	-6349
परिष	-6350
▁आणू	-6351
▁आदि	-6352
▁शाह	-6353
▁प्रका	-6354
▁स्रोत	-6355
▁अंदाजे	-6356
▁आदेशाचे	-6357
▁व्यायामा	-6358
पदा	-6359
पित	-6360
▁द्र	-6361
▁दुर्ग	-6362
▁येतात	-6363
▁विक्रीसाठी	-6364
ऊक	-6365
▁मूल्ये	-6366
▁असेंब्ली	-6367
▁नातेवाईक	-6368
▁हॉस्पिटल	-6369
▁राज्यपालांनी	-6370
प्ट	-6371
▁तह	-6372
▁नाथ	-6373
▁टीका	-6374
▁विघट	-6375
▁खाणकाम	-6376
▁लिक्विड	-6377
ाटी	-6378
▁आसाम	-6379
▁एसटी	-6380
▁दररोज	-6381
▁राखून	-6382
▁चेन्नई	-6383
▁झालेला	-6384
▁मिस	-6385
▁नोटिस	-6386
▁सांगितलेल्या	-6387
ृद	-6388
्यूशन	-6389
▁घेते	-6390
णीच्या	-6391
▁कार्यालया	-6392
नवीन	-6393
त्याने	-6394
▁उद्युक्त	-6395
▁बनविलेले	-6396
▁आंतरराज्य	-6397
▁अपवादात्मक	-6398
सचि	-6399
हाय	-6400
कार्य	-6401
▁भेटी	-6402
▁संघटन	-6403
▁कित्येक	-6404
▁प्रकाशन	-6405
▁मालकीची	-6406
ल्याही	-6407
▁आमंत्रित	-6408
▁व्यक्तींची	-6409
▁प्रजासत्ताक	-6410
ालय	-6411
▁अपू	-6412
▁एकमत	-6413
▁रक्ता	-6414
ल्यानुसार	-6415
▁जोरदारपणे	-6416
लग	-6417
्मी	-6418
्रल	-6419
ज्ञा	-6420
▁सूची	-6421
▁मैदान	-6422
▁सरासरी	-6423
▁मालमत्तेवर	-6424
गामी	-6425
्यांवर	-6426
▁दर्जा	-6427
▁पर्यटन	-6428
▁प्लांट	-6429
एसएल	-6430
▁सखोल	-6431
एक्सएड	-6432
▁अधिवेशन	-6433
▁पुनर्संचयित	-6434
▁कंपन्यांच्या	-6435
')	-6436
तेसह	-6437
▁देतील	-6438
▁साजरा	-6439
▁दक्षता	-6440
▁मुलाला	-6441
▁केंद्रे	-6442
▁प्रसारण	-6443
बंद	-6444
▁माझा	-6445
▁वृत्त	-6446
▁निपटारा	-6447
▁ऑस्ट्रेल	-6448
▁बीसीसीआय	-6449
▁इंडस्ट्रीज	-6450
एए	-6451
▁उदय	-6452
टीकरण	-6453
▁बिया	-6454
▁इन्स्ट	-6455
▁कारखान	-6456
▁नेमणुका	-6457
▁ऑर्डरमध्ये	-6458
▁फिर्यादीला	-6459
▁सद्यस्थिती	-6460
▁जिल्हाधिकारी	-6461
▁क्षेत्रामध्ये	-6462
):	-6463
खीम	-6464
▁इजा	-6465
▁संबंधी	-6466
▁ज्येष्ठता	-6467
▁भूसंप	-6468
▁वेदना	-6469
िंगच्या	-6470
▁जागेचा	-6471
▁दशलक्ष	-6472
▁अग्रवाल	-6473
▁प्रेरणा	-6474
▁स्वरुपा	-6475
▁सर्व्हिस	-6476
माचल	-6477
्रिक्स	-6478
▁घटनेने	-6479
▁पाठविले	-6480
▁जनतेच्या	-6481
▁गुन्ह्याच्या	-6482
लना	-6483
▁अर्जदाराने	-6484
▁नियंत्रणाखाली	-6485
कळ	-6486
ंसा	-6487
▁शतक	-6488
खत	-6489
ेज	-6490
▁;	-6491
▁एआय	-6492
▁क्ल	-6493
▁प्रौढ	-6494
▁......	-6495
▁आवारात	-6496
▁सुनावली	-6497
▁जाण्याचा	-6498
▁आपत्कालीन	-6499
▁कलक	-6500
▁सुरुवात	-6501
▁प्रसारित	-6502
ात्	-6503
णावर	-6504
▁बाग	-6505
▁मिट	-6506
प्रिय	-6507
स्टिक	-6508
▁प्रीमि	-6509
▁जोडलेले	-6510
▁बाहेरील	-6511
▁उमेदवारा	-6512
▁सर्वांना	-6513
▁समाधानकारक	-6514
▁सुनावण्यात	-6515
▁लिला	-6516
▁मुस्लिम	-6517
▁घटनास्थळी	-6518
▁लोकसंख्ये	-6519
▁स्वेच्छेने	-6520
ऊंड	-6521
राचा	-6522
्रिया	-6523
▁दर्शवते	-6524
▁भरण्यास	-6525
▁विचारला	-6526
▁कुठल्याही	-6527
▁देशांमध्ये	-6528
्यव	-6529
नेने	-6530
▁पत्ता	-6531
▁आरक्षित	-6532
▁त्यापूर्वी	-6533
▁वेतनश्रेणी	-6534
▁साक्षीदारांनी	-6535
दरी	-6536
▁बड	-6537
▁हृद	-6538
▁शरीरावर	-6539
▁घेतल्यामुळे	-6540
जोड	-6541
सील	-6542
▁सभ्य	-6543
मंत्री	-6544
▁संज्ञान	-6545
ंटी	-6546
संत	-6547
▁एंटर	-6548
▁दरमहा	-6549
▁हुंडा	-6550
▁स्वामी	-6551
▁पूर्वीचे	-6552
▁निवासस्थान	-6553
▁तळ	-6554
ात्म	-6555
▁ठरते	-6556
▁विक्रेता	-6557
कोण	-6558
धित	-6559
क्रमण	-6560
▁धातू	-6561
▁महिले	-6562
▁कंत्राटी	-6563
▁त्याबद्दल	-6564
▁फर्	-6565
▁अभाव	-6566
▁अशक्त	-6567
▁वर्षी	-6568
▁निरंतर	-6569
▁याशिवाय	-6570
▁सांगितला	-6571
▁प्रकरणांच्या	-6572
व्यु	-6573
▁बेल	-6574
स्वामी	-6575
▁तुलना	-6576
किस्तान	-6577
▁प्रतिप	-6578
▁मोबाइल	-6579
▁प्राचीन	-6580
▁प्रख्यात	-6581
▁पुराव्यावर	-6582
▁खटल्यांमध्ये	-6583
झी	-6584
▁इंध	-6585
रेंद्र	-6586
▁नमुना	-6587
▁रकमेचा	-6588
▁सिमेंट	-6589
▁सुप्र	-6590
▁दुर्बल	-6591
▁त्याकडे	-6592
▁बहुसंख्य	-6593
▁स्वारस्य	-6594
रेज	-6595
स्व	-6596
▁मिशन	-6597
▁वाढत	-6598
▁उत्ते	-6599
▁कॉन्ट्र	-6600
▁निकालावर	-6601
▁पुनरीक्षण	-6602
▁संक्षिप्त	-6603
▁प्राधिकरणास	-6604
रला	-6605
▁ऐकून	-6606
▁समूह	-6607
्रपाली	-6608
▁डाव्या	-6609
▁मृत्यु	-6610
▁बाजारात	-6611
भी	-6612
▁कामात	-6613
▁मार्केट	-6614
▁करणार्यांच्या	-6615
▁हायकोर्टासमोर	-6616
लेशन	-6617
्याम	-6618
▁कलकत्ता	-6619
▁ज्यांची	-6620
▁तितक्या	-6621
▁महामार्ग	-6622
▁राज्यांच्या	-6623
▁नियुक्तीच्या	-6624
▁राज्यघटनेतील	-6625
▁नी	-6626
▁टाकणे	-6627
▁हिमाचल	-6628
▁प्रोग्राम	-6629
▁यांच्यासह	-6630
▁रूपांतरित	-6631
▁तत्त्वांचे	-6632
▁सोपविण्यात	-6633
ताच	-6634
रणी	-6635
ज्ञेय	-6636
निर्म	-6637
▁प्रेस	-6638
▁आम्रपाली	-6639
▁समायोजित	-6640
▁तात्पुरती	-6641
चिक	-6642
▁नाश	-6643
▁सूच	-6644
काळजी	-6645
▁जोखीम	-6646
▁सापडले	-6647
▁अधिकारात	-6648
▁विचारासाठी	-6649
▁प्रक्रियेमध्ये	-6650
▁अश्ल	-6651
▁निधन	-6652
▁ऑपरेटर	-6653
▁एनडी	-6654
▁वजाव	-6655
नामध्ये	-6656
▁मापदंड	-6657
▁उद्भवला	-6658
▁शिकलेले	-6659
झिट	-6660
▁बिन	-6661
भरपाई	-6662
ववि	-6663
▁बरा	-6664
▁गुन्ह्यांचा	-6665
तर्	-6666
▁अनै	-6667
▁खाद	-6668
▁पसं	-6669
▁भत्	-6670
▁रवी	-6671
▁फोरम	-6672
▁ग्रेड	-6673
व्युत्तर	-6674
▁वादाच्या	-6675
▁संघटनेच्या	-6676
.00	-6677
▁फॉर	-6678
▁बिं	-6679
▁जावा	-6680
▁पॅके	-6681
▁वायू	-6682
▁बँकेने	-6683
▁घराच्या	-6684
▁बाजारपेठ	-6685
▁न्यायालयांचे	-6686
उंट	-6687
आरसी	-6688
निमय	-6689
▁उपकरण	-6690
▁प्रकरणांचा	-6691
▁आरोग्यासाठी	-6692
लाम	-6693
िद्ध	-6694
▁प्रि	-6695
▁टिकाऊ	-6696
▁संध्या	-6697
▁सेवांच्या	-6698
थ्या	-6699
▁अवय	-6700
▁खाल	-6701
▁ढकल	-6702
▁समितीचे	-6703
▁प्रतिपादन	-6704
/0	-6705
ुम	-6706
▁लॅ	-6707
व्यात	-6708
▁घातली	-6709
▁निलंब	-6710
▁मतदाना	-6711
▁सिन्हा	-6712
▁परिषदेच्या	-6713
▁बाबींमध्ये	-6714
▁एसपी	-6715
्यांशी	-6716
▁यासंबंधी	-6717
▁त्याप्रमाणे	-6718
▁स्वीकारण्यास	-6719
▁नऊ	-6720
योगी	-6721
▁म्हट	-6722
▁थोड्या	-6723
▁काढण्यात	-6724
▁संस्थात्मक	-6725
▁नामनिर्देशित	-6726
ंपा	-6727
नरी	-6728
ापू	-6729
राचे	-6730
▁सुख	-6731
▁प्ले	-6732
▁शस्त्रा	-6733
▁शिक्षेचा	-6734
▁वस्तुस्थितीच्या	-6735
ापूर	-6736
▁मॅनेज	-6737
वैधानिक	-6738
▁स्वीकारणे	-6739
▁एओ	-6740
एलआर	-6741
▁आयटम	-6742
▁धारण	-6743
ाशिवाय	-6744
▁तहसील	-6745
▁साखळी	-6746
▁आरक्षणा	-6747
▁जाहिराती	-6748
▁वर्षांचा	-6749
▁सार्वभौम	-6750
▁स्वयंसेव	-6751
▁होण्याचे	-6752
▁आरा	-6753
िकारक	-6754
▁ज्यु	-6755
च्छेदन	-6756
▁अर्जाच्या	-6757
▁नाविन्यपूर्ण	-6758
मास	-6759
वता	-6760
▁बल	-6761
र्टी	-6762
▁बाकी	-6763
▁शकता	-6764
ाबाहेर	-6765
▁असणारा	-6766
▁तपासणीसाठी	-6767
▁पदव्युत्तर	-6768
▁चेक	-6769
▁तीस	-6770
▁सास	-6771
मारास	-6772
▁उद्या	-6773
विण्याचा	-6774
▁सुमारास	-6775
▁न्यायाधीशांचा	-6776
▁भो	-6777
▁पंध	-6778
▁क्लि	-6779
▁गुणध	-6780
▁विपणन	-6781
▁जागेचे	-6782
▁प्रयत्नात	-6783
▁मिळण्याचा	-6784
▁कशी	-6785
▁धोकादायक	-6786
▁वाचलेल्या	-6787
वाज	-6788
▁मनो	-6789
▁अस्थ	-6790
▁विपर	-6791
▁श्रे	-6792
▁स्मार	-6793
▁प्रशंसा	-6794
कर्त्याने	-6795
▁मध्यवर्ती	-6796
▁विश्लेषणा	-6797
▁न्यायदंडाधिकारी	-6798
▁मोटर	-6799
भेच्या	-6800
▁एकमेक	-6801
▁लवकरात	-6802
भरात	-6803
▁एमएम	-6804
▁क्लब	-6805
▁वसाह	-6806
▁एकात्म	-6807
▁प्रथमच	-6808
▁निषिद्ध	-6809
▁तक्रारीत	-6810
▁भाडेपट्ट	-6811
्यांद्वारे	-6812
▁नगरपालिका	-6813
▁पीठ	-6814
स्त्रीय	-6815
▁अटींचे	-6816
▁क्रमां	-6817
▁राहतील	-6818
▁आदिवासी	-6819
▁कामाच्या	-6820
▁प्रकल्पा	-6821
▁लोकायुक्त	-6822
▁व्यवस्थापक	-6823
रूप	-6824
▁विप	-6825
▁सोबत	-6826
▁ठाकूर	-6827
▁अश्लील	-6828
▁जबरदस्	-6829
▁सहकार्याने	-6830
धि	-6831
बीर	-6832
▁फॅ	-6833
र्थक	-6834
शीला	-6835
▁भांडण	-6836
▁एकत्री	-6837
▁जीवनात	-6838
▁सत्कार	-6839
▁अंतर्भूत	-6840
▁लग्नाच्या	-6841
▁पेट्रोलियम	-6842
पॉ	-6843
दीत	-6844
ादक	-6845
▁अचल	-6846
▁कार्	-6847
▁पीपी	-6848
▁समुद्र	-6849
▁गंभीरपणे	-6850
▁दहशतवादी	-6851
▁गि	-6852
ादार	-6853
▁संजय	-6854
▁सर्ज	-6855
▁दृश्य	-6856
▁पॅनेल	-6857
▁मुद्र	-6858
▁सांगितलेली	-6859
▁तारखेपर्यंत	-6860
▁तंत्रज्ञानाच्या	-6861
▁टू	-6862
▁आयओ	-6863
▁तला	-6864
▁दाग	-6865
▁खोटी	-6866
▁सीसी	-6867
▁देणार	-6868
▁मोकळे	-6869
▁होण्या	-6870
▁जामिनावर	-6871
▁नियमांमध्ये	-6872
▁सौर	-6873
िंग्ज	-6874
▁अमेर	-6875
▁आयडी	-6876
नायटेड	-6877
यांच्या	-6878
▁सापडला	-6879
▁आरोपींची	-6880
▁संशयास्पद	-6881
▁आयुक्तांनी	-6882
ंथ	-6883
शः	-6884
ीकृत	-6885
▁सैन्य	-6886
▁सील	-6887
▁एमसी	-6888
▁उद्भवली	-6889
▁सत्यापित	-6890
यस	-6891
एसए	-6892
फ्र	-6893
हात	-6894
▁दब	-6895
▁पिक	-6896
▁पाण्याची	-6897
▁मतानुसार	-6898
ईटी	-6899
िव्हि	-6900
▁फाइल	-6901
ंविषयी	-6902
▁देणगी	-6903
▁ठामपणे	-6904
▁दर्शवितात	-6905
▁चिड	-6906
▁कॉंग	-6907
सायनिक	-6908
▁नसतील	-6909
▁मृताला	-6910
▁शिस्तभंग	-6911
▁कर्जाच्या	-6912
▁पाकिस्तान	-6913
▁पुनर्रचना	-6914
▁पुरविल्या	-6915
▁सातत्याने	-6916
▁वर्षापेक्षा	-6917
▁त्यांच्याकडून	-6918
क्रो	-6919
▁तस्	-6920
रेन्स	-6921
▁शाळे	-6922
▁काराग	-6923
▁अंतरावर	-6924
▁दुरुस्त	-6925
▁भांडवली	-6926
▁उल्लेखनीय	-6927
▁गुन्ह्यांसाठी	-6928
);	-6929
कावर	-6930
जारी	-6931
र्जे	-6932
▁वेळेत	-6933
▁एखाद्याला	-6934
▁तत्त्वांचा	-6935
▁मनात	-6936
▁ज्ञाना	-6937
▁प्रीमियम	-6938
▁नुकसानभरपाई	-6939
▁प्रच	-6940
▁भागावर	-6941
▁कॉन्ट्रॅक्ट	-6942
▁पाडण्यासाठी	-6943
कॅ	-6944
देशी	-6945
हेरी	-6946
ांपासून	-6947
▁निरर्थक	-6948
▁गुंतलेल्या	-6949
▁प्रकरणाच्या	-6950
▁पुनरुत्पादित	-6951
▁कागदपत्रांच्या	-6952
टर्स	-6953
▁ऑटो	-6954
▁क्व	-6955
▁जमीनी	-6956
▁संगणक	-6957
▁रीतीने	-6958
▁संसाधने	-6959
▁घटनेनुसार	-6960
▁उड	-6961
क्ष्म	-6962
▁नोकर	-6963
्समध्ये	-6964
▁आरबीआय	-6965
▁पदांवर	-6966
▁महत्त्वाची	-6967
▁दोघेही	-6968
▁हालचाली	-6969
▁केल्याची	-6970
▁शिक्षणाच्या	-6971
▁इं	-6972
बीसी	-6973
▁लेखाप	-6974
▁होणारा	-6975
▁अतिक्रमण	-6976
▁याचिकेला	-6977
▁सल्ल्याच्या	-6978
▁अनिल	-6979
▁वगळले	-6980
▁इमारतीच्या	-6981
▁अंमलबजावणीत	-6982
▁सुनावणीसाठी	-6983
▁हायकोर्टाचा	-6984
▁परिस्थितीजन्य	-6985
फाइल	-6986
लॉजी	-6987
▁गुर	-6988
▁माय	-6989
्यातून	-6990
▁नामांक	-6991
▁सामंजस्य	-6992
▁उत्पन्नाची	-6993
▁वकिलांच्या	-6994
▁कागदपत्रांची	-6995
पिक	-6996
श्चय	-6997
सनीय	-6998
▁समारंभ	-6999
▁प्रोजेक्ट	-7000
%%	-7001
संबंधी	-7002
▁अॅडव्ह	-7003
▁वेगवेग	-7004
▁याचिकेवर	-7005
▁युनायटेड	-7006
▁सबमिशनमध्ये	-7007
▁उमेदवाराच्या	-7008
रोग	-7009
▁महे	-7010
▁बारा	-7011
▁धक्का	-7012
▁साधने	-7013
▁प्राप्	-7014
▁रकमेवर	-7015
▁महत्त्वाच्या	-7016
मल	-7017
ंगी	-7018
▁दबाव	-7019
▁युरोप	-7020
▁प्रचंड	-7021
▁लोकांचा	-7022
▁लाभार्थी	-7023
▁व्यापारी	-7024
▁होण्याचा	-7025
▁व्यक्तींचा	-7026
दिक	-7027
▁कान	-7028
▁याउलट	-7029
▁समर्प	-7030
विण्यास	-7031
▁सूक्ष्म	-7032
▁अध्यक्षते	-7033
▁महिन्याच्या	-7034
ळव	-7035
▁मात	-7036
▁निष्काळजी	-7037
▁प्रतिष्ठा	-7038
▁जबरदस्तीने	-7039
▁गेलेले	-7040
▁तस्करी	-7041
▁त्याहून	-7042
▁मंत्रालयाच्या	-7043
नंट	-7044
▁दू	-7045
बिया	-7046
▁दगड	-7047
▁गुप्त	-7048
▁बिंदू	-7049
▁मोजणी	-7050
▁व्हॅन	-7051
▁स्कूल	-7052
▁झालेले	-7053
▁सुट्टी	-7054
▁समितीची	-7055
▁कल्याणकारी	-7056
▁निवृत्तीवेतन	-7057
▁चां	-7058
रुस्ती	-7059
▁चॅनेल	-7060
▁पूर्वसू	-7061
▁वर्तमान	-7062
▁परिशिष्ट	-7063
▁वाढीसाठी	-7064
▁निर्धारिती	-7065
फ्	-7066
यु	-7067
एसटी	-7068
▁फूट	-7069
▁संमत	-7070
दाराने	-7071
▁टाकला	-7072
▁वाचला	-7073
▁कोठडीत	-7074
कर्त्याच्या	-7075
भाळ	-7076
▁अंध	-7077
मृत्यू	-7078
▁खाद्य	-7079
▁स्ट्र	-7080
विरुद्ध	-7081
▁प्राण्या	-7082
▁लवादाकडे	-7083
▁ड्रायव्हर	-7084
व्यवहार	-7085
▁उद्घाट	-7086
▁सहजपणे	-7087
▁पुनरुज्	-7088
श्य	-7089
▁उत	-7090
▁सोन	-7091
तीर्ण	-7092
▁उत्तीर्ण	-7093
िसेस	-7094
▁इंज	-7095
▁जॉन	-7096
▁शहाण	-7097
▁ओरिसा	-7098
▁अनुरुप	-7099
▁सुरक्षे	-7100
▁मिळालेला	-7101
डीपी	-7102
बीएस	-7103
▁धरण	-7104
प्राय	-7105
▁आपल्याकडे	-7106
▁राजपत्रात	-7107
▁वर्षांपासून	-7108
▁प्रक्रियेद्वारे	-7109
सचिव	-7110
वस्तू	-7111
ाराचा	-7112
▁अतिशय	-7113
▁मजकूर	-7114
प्रकारे	-7115
▁सांभाळ	-7116
▁जवळच्या	-7117
▁शासनाच्या	-7118
▁नर	-7119
▁रोह	-7120
▁घडले	-7121
▁जटिल	-7122
▁पंचना	-7123
▁स्तरावरील	-7124
▁वन्य	-7125
▁रिमांड	-7126
▁भाडेकरु	-7127
▁अधिकारावर	-7128
्वी	-7129
▁विघटन	-7130
▁म्हणतो	-7131
▁अधिवक्ता	-7132
▁निर्धारणाद्वारे	-7133
इत	-7134
▁फेर	-7135
ॅक्चर	-7136
रीच्या	-7137
▁संतप्त	-7138
▁सुप्रा	-7139
▁बाजूंनी	-7140
▁रासायनिक	-7141
▁प्रकटीकरण	-7142
▁एफआयआरमध्ये	-7143
डॉ	-7144
▁आख	-7145
वितो	-7146
▁हँड	-7147
▁नेहरू	-7148
▁मिनिट	-7149
▁संतुलन	-7150
▁जाण्यास	-7151
▁मंडळाचे	-7152
▁ठरवण्यासाठी	-7153
कम	-7154
िफ	-7155
▁सोल	-7156
ार्किक	-7157
▁सादरी	-7158
▁जाणारा	-7159
▁तपासले	-7160
▁कलमातील	-7161
▁कॉंग्रेस	-7162
▁नावाच्या	-7163
▁वस्तूंचा	-7164
▁प्रतिवादीचा	-7165
ळु	-7166
लेश	-7167
िंक	-7168
▁परकीय	-7169
▁कोर्टा	-7170
▁द्वितीय	-7171
▁यादीतील	-7172
▁छायाचित्र	-7173
▁परिस्थितीची	-7174
▁महाविद्यालये	-7175
▁आढळला	-7176
▁ज्ञात	-7177
▁परीक्षक	-7178
▁स्वीकार्य	-7179
ंशिक	-7180
त्रा	-7181
▁तपा	-7182
प्रेस	-7183
▁असेच	-7184
▁भरली	-7185
िट्यूट	-7186
▁चार्ट	-7187
▁तडजोड	-7188
▁अभियोजन	-7189
▁वृत्तपत्र	-7190
▁सीमाशुल्क	-7191
▁निसर्गाच्या	-7192
कट	-7193
साई	-7194
▁00	-7195
वरुन	-7196
▁घरे	-7197
▁ऐकला	-7198
स्टेबल	-7199
▁एमएसएमई	-7200
▁निर्णयाने	-7201
▁होम	-7202
लच्या	-7203
▁खंडपीठाकडे	-7204
▁विद्यापीठे	-7205
▁वित्तपुरवठा	-7206
▁वैयक्तिकरित्या	-7207
विना	-7208
▁विजे	-7209
▁असावेत	-7210
▁सेंट्रल	-7211
▁सेवेतून	-7212
ग्ध	-7213
▁टाडा	-7214
▁सोडला	-7215
▁उघडणारी	-7216
▁वस्तूंची	-7217
संघ	-7218
च्यु	-7219
▁अखिल	-7220
▁तेथील	-7221
▁व्यास	-7222
▁बदल्या	-7223
▁इंटरनेट	-7224
▁दुर्दैवाने	-7225
▁दाब	-7226
▁अल्ट	-7227
▁बळकट	-7228
फ्टनंट	-7229
▁आसपास	-7230
▁ओव्हर	-7231
▁पर्वा	-7232
▁सुटके	-7233
▁सरकारचा	-7234
▁आढळल्यास	-7235
▁लावण्यास	-7236
▁सवलतीच्या	-7237
▁प्रक्रियेची	-7238
▁न्यायाधिकरणाकडे	-7239
जण	-7240
ुसे	-7241
▁मिश्र	-7242
▁लवकरच	-7243
▁निर्वाह	-7244
▁पोहोचले	-7245
▁मंत्रिम	-7246
▁सीबीआयने	-7247
▁खंडपीठाचा	-7248
▁चौकशीच्या	-7249
▁इच्छेनुसार	-7250
▁देशांतर्गत	-7251
ाराम	-7252
न्नास	-7253
▁भवनात	-7254
▁उठ	-7255
रीक्षक	-7256
▁लांबी	-7257
स्ट्रार	-7258
▁इतरांना	-7259
▁पारदर्शक	-7260
▁आल्यानंतर	-7261
▁धोरणाच्या	-7262
▁पुराव्यांचे	-7263
▁दुरुस्तीच्या	-7264
▁उदार	-7265
▁वेंक	-7266
ळीत	-7267
▁मल	-7268
निक्स	-7269
▁कचरा	-7270
▁सांगत	-7271
▁पुस्तके	-7272
▁सांगण्या	-7273
▁सर्व्हिसेस	-7274
▁प्रतिक्रिया	-7275
एनएल	-7276
काने	-7277
डीसी	-7278
भक्त	-7279
िद्र	-7280
▁पसर	-7281
▁सीजे	-7282
▁कारवा	-7283
▁हद्दीत	-7284
▁उद्भवते	-7285
▁वगळण्यात	-7286
▁गुन्ह्यात	-7287
▁साधारणपणे	-7288
▁किंमतीच्या	-7289
▁कामकाजाच्या	-7290
पारी	-7291
▁गोवा	-7292
▁घालणे	-7293
▁अपूर्ण	-7294
▁राजधानी	-7295
▁अपीलमधील	-7296
▁आणलेल्या	-7297
▁सभागृहात	-7298
िड	-7299
श्वत	-7300
▁स्त	-7301
▁बनविला	-7302
▁अटकेच्या	-7303
▁प्रोफाइल	-7304
▁प्रारंभिक	-7305
▁न्यायपालिके	-7306
म्मा	-7307
स्टी	-7308
ार्ध	-7309
▁बिले	-7310
▁शववि	-7311
▁हद्द	-7312
▁पार्क	-7313
▁सोडली	-7314
▁आपत्ती	-7315
▁प्राणी	-7316
लास	-7317
▁मॅट	-7318
▁हान	-7319
▁वर्षा	-7320
▁रोजीचा	-7321
▁शाश्वत	-7322
▁समकालीन	-7323
▁तत्त्वांच्या	-7324
▁देण्यापूर्वी	-7325
ठ्	-7326
जोर	-7327
ियल	-7328
णाचे	-7329
▁आर्	-7330
▁झोन	-7331
▁रिक	-7332
▁इंधन	-7333
▁जाणा	-7334
▁सहसा	-7335
▁मेहता	-7336
▁मुदतीत	-7337
▁असंवैधानिक	-7338
म्य	-7339
यचे	-7340
वानी	-7341
▁छाप	-7342
ारखंड	-7343
▁जोडी	-7344
▁कृत्ये	-7345
▁लेफ्टनंट	-7346
▁देशांमधील	-7347
ँक	-7348
स्सर	-7349
▁रेट	-7350
लिखित	-7351
▁क्रौ	-7352
▁डीजी	-7353
▁नोट्स	-7354
▁विपरीत	-7355
▁कॉन्स्टेबल	-7356
सर्व	-7357
▁एनजे	-7358
▁धरला	-7359
▁वरून	-7360
▁विधेय	-7361
▁खालच्या	-7362
▁निमित्त	-7363
▁निर्णयांचा	-7364
▁संरक्षणासाठी	-7365
निर	-7366
▁जळ	-7367
आरएस	-7368
रिमन	-7369
▁दुब	-7370
▁उपास	-7371
▁एनजी	-7372
▁भूषण	-7373
▁शेतात	-7374
▁साध्या	-7375
▁खाणपट्ट	-7376
▁सूचीबद्ध	-7377
▁मालकाच्या	-7378
▁आंतरराज्यीय	-7379
हरी	-7380
▁माफ	-7381
▁हुंड	-7382
तेमध्ये	-7383
पुरस्सर	-7384
▁ठरल्यास	-7385
▁रॉयल्टी	-7386
▁पक्षांचे	-7387
▁कारवाईच्या	-7388
▁अनुसूचीमध्ये	-7389
▁रजे	-7390
▁हवी	-7391
गोलिक	-7392
▁वाढीव	-7393
▁संताप	-7394
▁शेतकरी	-7395
▁अभ्यासक्र	-7396
▁अल्पसंख्या	-7397
▁गोपनीयतेचा	-7398
जू	-7399
नॉ	-7400
ओसी	-7401
▁पुष्	-7402
▁स्वागत	-7403
▁मॅन्युअल	-7404
▁अधिकाराची	-7405
▁दोघांनाही	-7406
▁याचिकेमध्ये	-7407
▁ठळक	-7408
मार्क	-7409
▁उजव्या	-7410
▁लक्ष्मी	-7411
▁उत्तरदात्यांनी	-7412
नील	-7413
शाळा	-7414
प्राइ	-7415
▁ठेवते	-7416
▁विश्र	-7417
▁करारात	-7418
▁पार्टी	-7419
▁पृथ्वी	-7420
▁सूचनां	-7421
▁ऑर्डरची	-7422
▁हानिकारक	-7423
१५	-7424
▁जित	-7425
ूच्या	-7426
▁विस्तारित	-7427
▁डॉक्टरांनी	-7428
▁मेघ	-7429
▁चौकशीत	-7430
▁बेस	-7431
▁एसआय	-7432
▁पांडे	-7433
▁समितीला	-7434
▁अर्थपूर्ण	-7435
▁गोष्टींवर	-7436
▁समाजाच्या	-7437
ांव्यतिरिक्त	-7438
एमए	-7439
▁खेड	-7440
मत्त्	-7441
▁अरुणा	-7442
▁कव्हर	-7443
▁एनसीटी	-7444
▁चतुर्थ	-7445
▁ठाण्यात	-7446
▁नेतृत्व	-7447
▁संचालना	-7448
▁सर्वोत्तम	-7449
▁पोलिसांच्या	-7450
▁रोजगाराच्या	-7451
कास	-7452
प्ले	-7453
▁डील	-7454
▁विकत	-7455
▁ठरवून	-7456
▁नरिमन	-7457
▁पदाचा	-7458
▁न्यायाचा	-7459
▁खटल्यांचा	-7460
▁प्रतिबंधक	-7461
▁पारदर्शकता	-7462
काव	-7463
कोच	-7464
▁आंब	-7465
▁आश्च	-7466
▁दुबई	-7467
▁रमेश	-7468
▁रोखले	-7469
▁प्रदात	-7470
परिच्छेद	-7471
▁मानल्या	-7472
▁हॅ	-7473
▁बेद	-7474
▁लोह	-7475
▁वर्	-7476
▁बॉक्स	-7477
कांक्षा	-7478
▁तिन्ही	-7479
▁मांडला	-7480
▁लोकसेवा	-7481
▁विमानतळ	-7482
▁,,	-7483
लाची	-7484
वावा	-7485
▁आरटी	-7486
▁प्रगत	-7487
▁कंट्रोल	-7488
▁प्रतिमा	-7489
▁समर्पित	-7490
ोरणे	-7491
▁जेव	-7492
▁पटेल	-7493
▁फायन	-7494
▁संगी	-7495
▁सिंघ	-7496
▁ओळखला	-7497
▁वादात	-7498
▁तुम्ही	-7499
▁विधाने	-7500
ण्याऐवजी	-7501
▁भौगोलिक	-7502
▁एआयसीटीई	-7503
▁विषयांवर	-7504
▁कार्यक्रमात	-7505
आप	-7506
िरा	-7507
▁श्	-7508
राइट	-7509
▁डाग	-7510
▁चोरी	-7511
▁ट्रक	-7512
▁दर्ज	-7513
▁चौकटी	-7514
▁लोखंड	-7515
▁गर्भपात	-7516
▁परीक्षेत	-7517
▁एखाद्याच्या	-7518
▁पुराव्यांद्वारे	-7519
▁घोट	-7520
डच्या	-7521
▁आलेले	-7522
▁झारखंड	-7523
▁नसलेला	-7524
▁वेळेवर	-7525
▁उत्तेजन	-7526
▁राज्याचा	-7527
▁महिन्यांत	-7528
▁गुन्हेगारीच्या	-7529
मता	-7530
लाढ	-7531
▁ओर	-7532
राची	-7533
▁अंर	-7534
▁दात	-7535
▁नवरा	-7536
▁बायो	-7537
▁धोरणे	-7538
▁पॅकेज	-7539
▁असल्याची	-7540
▁सदस्याने	-7541
▁सबमिशनला	-7542
▁अपीलांच्या	-7543
▁निर्णयानुसार	-7544
▁राज्यपालांच्या	-7545
डल	-7546
यास	-7547
▁एमओ	-7548
ोपत्री	-7549
▁विपरित	-7550
▁श्रद्ध	-7551
▁भरपाईचा	-7552
▁अटीनुसार	-7553
▁निश्चितच	-7554
▁अय्य	-7555
▁आर्ट	-7556
▁राजा	-7557
▁लाभांश	-7558
▁रजिस्टर	-7559
▁हिताच्या	-7560
▁एकत्रीकरण	-7561
▁स्वातंत्र्यावर	-7562
▁गमा	-7563
▁बोट	-7564
▁जोडला	-7565
▁पाहणे	-7566
▁म्हणू	-7567
▁वेळेस	-7568
▁अल्पसंख	-7569
▁धोक्यात	-7570
▁विवाहित	-7571
▁स्वयंचलित	-7572
▁कागदोपत्री	-7573
▁व्यवसायाचे	-7574
▁संध्याकाळी	-7575
जल	-7576
ंडन	-7577
जेस	-7578
▁(“	-7579
ंट्स	-7580
मिनल	-7581
ीकडे	-7582
लांतर	-7583
▁टेक्	-7584
▁निरोगी	-7585
▁स्वयंसेवी	-7586
▁आक्षेपार्ह	-7587
पॅ	-7588
्सल	-7589
खोरी	-7590
सिंह	-7591
▁आराख	-7592
▁ड्रा	-7593
▁देवा	-7594
▁अस्सल	-7595
▁कक्षेत	-7596
▁राजकार	-7597
▁सुरूवा	-7598
▁अर्जाची	-7599
▁स्वातंत्र्याचा	-7600
ठित	-7601
▁जॉ	-7602
▁माघ	-7603
▁हिर	-7604
परिणा	-7605
क्त्या	-7606
प्रकरण	-7607
▁बदलले	-7608
▁चौथ्या	-7609
▁विभक्त	-7610
▁सेवेची	-7611
▁विचारले	-7612
▁विवादास्पद	-7613
▁संरक्षणाची	-7614
▁व्यक्तिमत्त्	-7615
र्धित	-7616
▁आजारी	-7617
▁टप्पा	-7618
▁भगवान	-7619
िंदरसिंग	-7620
▁गर्भधार	-7621
▁वाढत्या	-7622
▁संरक्षक	-7623
सात	-7624
मालक	-7625
▁एएस	-7626
▁तहक	-7627
▁मां	-7628
▁कस्टम	-7629
▁मारुती	-7630
▁सुसज्ज	-7631
▁प्रवासी	-7632
▁तरतुदीचा	-7633
▁खटल्यांच्या	-7634
ळात	-7635
हरा	-7636
▁आरोपीची	-7637
▁अहवालावर	-7638
▁महत्वाची	-7639
▁वापरण्यास	-7640
▁करारानुसार	-7641
▁सबमिशनच्या	-7642
गन	-7643
पुट	-7644
फाय	-7645
क्यू	-7646
▁साथ	-7647
▁बिघड	-7648
▁भारताला	-7649
▁अध्यायात	-7650
ासंदर्भातील	-7651
कुल	-7652
▁टीप	-7653
▁बॅग	-7654
▁एकीकडे	-7655
▁पन्नास	-7656
▁संस्थे	-7657
▁अर्थातच	-7658
▁पुरविली	-7659
▁सध्याची	-7660
▁उमेदवारी	-7661
▁वापरण्यासाठी	-7662
▁तंत्रज्ञानाचा	-7663
ेक	-7664
मंत	-7665
्यो	-7666
▁कमा	-7667
▁वास	-7668
ध्वनी	-7669
▁मशीन	-7670
▁वाहि	-7671
▁समजू	-7672
▁लागते	-7673
▁एनजेएसी	-7674
▁डीडब्ल्यू	-7675
▁अभिव्यक्तीचा	-7676
एटी	-7677
▁श्याम	-7678
▁ओळखल्या	-7679
▁पदासाठी	-7680
▁परदेशात	-7681
▁योजनेचा	-7682
पृ	-7683
ाड	-7684
▁शेड	-7685
0,000	-7686
▁गहाण	-7687
▁सिने	-7688
▁ओळखली	-7689
▁ठेवेल	-7690
▁निराश	-7691
▁सेवेतील	-7692
▁तुरूंगात	-7693
▁उत्तरार्ध	-7694
▁महासंचालक	-7695
▁निर्देशांचे	-7696
▁तक्रारदाराच्या	-7697
बो	-7698
ंट्री	-7699
▁ओळखी	-7700
▁महार	-7701
▁कनेक्ट	-7702
▁मिळविला	-7703
▁याचिकेतील	-7704
▁मुद्द्यांचा	-7705
▁व्यवस्थापित	-7706
▁परिस्थितीच्या	-7707
▁इश	-7708
▁आरडी	-7709
▁चर्च	-7710
▁गोळीबार	-7711
▁याद्वारे	-7712
▁रजिस्ट्रार	-7713
आयएस	-7714
वावी	-7715
संचार	-7716
▁उलाढ	-7717
▁देणा	-7718
▁बिला	-7719
वास्तव	-7720
ांविषयी	-7721
▁मिळावी	-7722
▁योजनेची	-7723
▁संमतीने	-7724
▁आरोपींवर	-7725
▁आदेशाद्वारे	-7726
संध	-7727
▁खड	-7728
ग्नि	-7729
▁वर्च	-7730
▁सापडत	-7731
▁उद्घाटन	-7732
▁कठोरपणे	-7733
▁न्यायनि	-7734
▁मंडळाची	-7735
▁मुक्तता	-7736
▁राजेंद्र	-7737
▁%	-7738
▁एके	-7739
▁आठवण	-7740
▁महाग	-7741
▁यावी	-7742
▁तहकूब	-7743
▁वृद्ध	-7744
▁शांती	-7745
▁जागेची	-7746
विण्याची	-7747
▁विनामूल्य	-7748
▁प्रकरणांची	-7749
▁समुपदेशनाने	-7750
▁विश	-7751
▁अत्य	-7752
▁कुशल	-7753
▁वाटपा	-7754
▁आयोगाचे	-7755
▁दायित्व	-7756
डीएस	-7757
पुरा	-7758
▁कोल	-7759
▁खेळा	-7760
▁हिस्	-7761
▁पुरात	-7762
▁याकडे	-7763
▁सेवेचा	-7764
▁ज्यांचा	-7765
▁पदाच्या	-7766
▁गव्हर्नर	-7767
▁स्वरूपाचा	-7768
रणीय	-7769
▁मंजू	-7770
▁कुष्ठ	-7771
▁राजीव	-7772
▁अल्ट्रा	-7773
▁अवस्थेत	-7774
▁यांच्यावर	-7775
▁हक्काच्या	-7776
▁राज्यघटनेने	-7777
टीसी	-7778
पीएफ	-7779
▁आपाप	-7780
▁कीटक	-7781
▁कोळश	-7782
लैंगिक	-7783
▁बेदखल	-7784
▁निवेदने	-7785
▁एखाद्याने	-7786
▁स्वरूपाचे	-7787
▁अधिकारांचे	-7788
▁उत्पन्नाचा	-7789
▁गुन्ह्याचा	-7790
▁भांडवलाच्या	-7791
▁कायद्यांच्या	-7792
वेळ	-7793
▁तै	-7794
गण्य	-7795
रहित	-7796
▁खराब	-7797
म्हणजे	-7798
▁माघार	-7799
▁असणारे	-7800
▁अनुदाना	-7801
▁बौद्धिक	-7802
▁पक्षांकडून	-7803
▁सार्वत्रिक	-7804
▁प्रवर्गातील	-7805
▁स्वाक्षर्या	-7806
▁साक्षीदारांना	-7807
मू	-7808
िप	-7809
श्रम	-7810
▁रिस	-7811
▁खटले	-7812
▁रुग्	-7813
▁पंधरा	-7814
▁बहुमत	-7815
▁खर्चाची	-7816
▁प्रवर्त	-7817
▁मुदतीसाठी	-7818
स्को	-7819
▁अना	-7820
▁हप्	-7821
▁निर्मात	-7822
▁संस्थेने	-7823
▁भागामध्ये	-7824
कत	-7825
ाक	-7826
)),	-7827
ल्ल	-7828
▁फस	-7829
▁हाच	-7830
नंदिन	-7831
▁किमी	-7832
▁बनविणे	-7833
▁विवेकी	-7834
ंछ	-7835
झाड	-7836
रीय	-7837
▁घस	-7838
▁फो	-7839
▁ताण	-7840
स्पष्ट	-7841
ांवरून	-7842
▁वगळणे	-7843
▁सुरेश	-7844
▁एनआयटी	-7845
▁इतिहासा	-7846
▁तार्किक	-7847
▁दरवर्षी	-7848
▁दुखापती	-7849
▁अहवालाचा	-7850
▁गुणवत्ते	-7851
▁दुष्परिणा	-7852
▁अमेरिकेच्या	-7853
▁उमेदवारांच्या	-7854
बन	-7855
▁जम	-7856
▁नॉ	-7857
झेशन	-7858
िक्स	-7859
▁जीप	-7860
पृष्ठ	-7861
▁घेतील	-7862
▁परिवर्त	-7863
▁व्यासपीठ	-7864
▁कार्यालये	-7865
▁गुंतागुंत	-7866
▁त्यांच्यात	-7867
▁भारताबाहेर	-7868
▁अफ	-7869
▁आग	-7870
नामी	-7871
▁हरी	-7872
▁उद्द	-7873
▁उपाध	-7874
▁हवाई	-7875
कृष्णन	-7876
▁जाणारी	-7877
▁विवादित	-7878
▁असण्याची	-7879
▁नामांकित	-7880
▁वेगवेगळे	-7881
▁सादरीकरण	-7882
▁कंपन्यांना	-7883
▁शवविच्छेदन	-7884
ट्स	-7885
सूर	-7886
ंदणी	-7887
▁कॉम	-7888
▁बांग	-7889
▁दुपारी	-7890
▁दैनंदिन	-7891
▁भारताने	-7892
▁हेदेखील	-7893
▁असल्यासच	-7894
▁दूरसंचार	-7895
▁हक्कांचा	-7896
संदर्भातील	-7897
▁'.	-7898
तीवर	-7899
▁टर्	-7900
▁लाच	-7901
▁[]],	-7902
▁किशन	-7903
▁खंडन	-7904
▁नसता	-7905
▁पटना	-7906
▁तेथून	-7907
▁फाउंड	-7908
▁वाटाघा	-7909
▁पासपोर्ट	-7910
▁बाबींच्या	-7911
▁आठवड्यांच्या	-7912
▁लखन	-7913
▁अंतर्	-7914
▁वडिलांनी	-7915
▁त्यासंबंधी	-7916
▁शस्त्रास्त्र	-7917
ोत्	-7918
आयपी	-7919
सायकल	-7920
▁राजेश	-7921
र्सच्या	-7922
▁अटींवर	-7923
▁संरचने	-7924
▁गौण	-7925
आयडीए	-7926
▁पसंत	-7927
▁इतकेच	-7928
▁अकाउंट	-7929
▁खुल्या	-7930
▁काहीतरी	-7931
▁लिहिलेले	-7932
▁समानतेच्या	-7933
▁सोसायटीच्या	-7934
▁साक्षीदाराची	-7935
▁कपड	-7936
▁निबंधक	-7937
▁विलक्षण	-7938
▁जोडलेल्या	-7939
▁ठरवलेल्या	-7940
▁करण्याऐवजी	-7941
▁शुल्काच्या	-7942
▁जिल्ह्यातील	-7943
▁झाल्यापासून	-7944
▁मुख्यमंत्री	-7945
▁प्राधिकरणाकडे	-7946
ारीत	-7947
दर्शन	-7948
▁नमुन	-7949
▁बरखा	-7950
▁युद्ध	-7951
ांकरिता	-7952
▁उद्भवणारे	-7953
डु	-7954
थॉ	-7955
नस	-7956
झेड	-7957
ग्या	-7958
माला	-7959
▁पिश	-7960
▁आवडत	-7961
▁प्रभा	-7962
▁पंचनामा	-7963
▁मंडळाला	-7964
▁करण्यावर	-7965
▁कपडे	-7966
▁परेड	-7967
ल्याचे	-7968
▁देवाण	-7969
▁उद्दिष्ट	-7970
▁फिर्यादीचा	-7971
▁सद्यस्थितीत	-7972
▁()	-7973
▁पौ	-7974
▁खोल	-7975
▁नयेत	-7976
ांबाबत	-7977
▁समजाव	-7978
▁मीडिया	-7979
▁निवडणुका	-7980
▁लोकप्रिय	-7981
▁तपासणीच्या	-7982
▁प्रतिनिधित्	-7983
▁पदोन्नतीसाठी	-7984
चय	-7985
गृह	-7986
वेदी	-7987
▁खरी	-7988
गार्ड	-7989
▁सुपर	-7990
▁दृढनि	-7991
▁मोबदला	-7992
दुरुस्ती	-7993
▁आश्चर्य	-7994
▁एकात्मिक	-7995
▁पूर्वगामी	-7996
▁अधिकारक्षेत्र	-7997
ंचर	-7998
रंग	-7999
ुरा	-8000
▁गह	-8001
▁बंदर	-8002
▁याने	-8003
▁राजव	-8004
▁अरुंद	-8005
▁करूनही	-8006
▁तपशीला	-8007
▁प्रेरित	-8008
▁सिटी	-8009
▁हायड	-8010
▁ब्रिट	-8011
▁संकोच	-8012
▁हरकती	-8013
▁शेवटचा	-8014
▁संवर्धन	-8015
ंगल	-8016
▁उभा	-8017
▁टाइ	-8018
▁बेट	-8019
▁आयसी	-8020
ममध्ये	-8021
नाबद्दल	-8022
▁काउंटर	-8023
▁रिटर्न	-8024
▁गुणोत्तर	-8025
▁एंटरप्राइ	-8026
ळुरू	-8027
▁तत्सम	-8028
▁संप्र	-8029
▁प्रचार	-8030
नासंदर्भात	-8031
▁अर्थव्यवस्था	-8032
वेष	-8033
▁अर्	-8034
▁इम्	-8035
▁यूक	-8036
▁करणा	-8037
▁गठित	-8038
▁रेडिओ	-8039
▁व्यभि	-8040
▁अभियंत	-8041
▁बियाणे	-8042
▁याच्या	-8043
▁श्रद्धा	-8044
▁दिवसाच्या	-8045
▁मागासवर्ग	-8046
▁कंपन्यांनी	-8047
▁अधिसूचनेच्या	-8048
▁मिळाल्यामुळे	-8049
▁सांगण्यावरून	-8050
▁नाब	-8051
▁हरकत	-8052
नामुळे	-8053
व्हिंग	-8054
▁अवांछ	-8055
▁इंद्र	-8056
▁कल्पने	-8057
▁साक्षर	-8058
▁लक्षणीय	-8059
अपीलकर्ता	-8060
▁जागरूकता	-8061
▁राज्यांना	-8062
▁लिहिलेल्या	-8063
▁संदेशामध्ये	-8064
▁पंड	-8065
ात्मा	-8066
▁नसणे	-8067
▁पाठव	-8068
▁हेतु	-8069
▁ट्रॅक	-8070
▁सीआरअंतर्गत	-8071
ानक	-8072
मिया	-8073
त्रिम	-8074
दाराच्या	-8075
▁फाउंडेशन	-8076
▁व्यक्तींचे	-8077
▁तक्रारीच्या	-8078
धे	-8079
▁लष्	-8080
▁सीओ	-8081
▁चौकट	-8082
▁गोळ्या	-8083
▁राहणार	-8084
▁हिस्सा	-8085
▁नियोजित	-8086
▁फेटाळले	-8087
▁हद्दपार	-8088
▁मनापासून	-8089
▁मॅनेजमेंट	-8090
▁चालविण्यास	-8091
▁प्रतिष्ठित	-8092
▁लावण्याच्या	-8093
शाली	-8094
▁ईआर	-8095
फरन्स	-8096
▁विली	-8097
▁नमुने	-8098
▁सुनील	-8099
▁प्रशासक	-8100
▁मंदिरात	-8101
▁परिच्छेदात	-8102
▁बनविलेल्या	-8103
▁परिस्थितींमध्ये	-8104
ॉप	-8105
एडी	-8106
▁बसला	-8107
स्तरीय	-8108
▁आमदार	-8109
▁लँडिंग	-8110
▁सेवेसाठी	-8111
▁प्रत्येकी	-8112
▁क्षेत्राचे	-8113
▁पाठविलेल्या	-8114
▁अपीलकर्त्यावर	-8115
मक	-8116
एसआर	-8117
▁डेबिट	-8118
▁लावून	-8119
▁अर्जास	-8120
▁अतिरे	-8121
▁अपुरी	-8122
▁अभिमान	-8123
▁अपीलांना	-8124
▁पाण्याच्या	-8125
मोडी	-8126
▁नाय	-8127
मावली	-8128
विकास	-8129
▁अशीच	-8130
▁जाऊन	-8131
▁ज्यो	-8132
ोल्यूशन	-8133
▁उत्तरा	-8134
▁सचिवाल	-8135
निरपेक्ष	-8136
▁कर्तव्याची	-8137
▁गुणवत्तेच्या	-8138
.]	-8139
जीत	-8140
त्नी	-8141
कायदा	-8142
ांतील	-8143
▁खूपच	-8144
▁पडले	-8145
▁खोलीत	-8146
▁आणल्या	-8147
▁मृताचा	-8148
▁सत्तेचा	-8149
▁न्यायाचे	-8150
▁प्रकारात	-8151
▁माहितीचा	-8152
लेस	-8153
एमपी	-8154
शियन	-8155
ासीन	-8156
ेतून	-8157
▁मणि	-8158
▁खरंच	-8159
▁बराच	-8160
▁बाबू	-8161
▁साठा	-8162
▁बुद्ध	-8163
▁लवचिक	-8164
▁वरच्या	-8165
▁व्यस्त	-8166
▁बाबतीतही	-8167
▁दर्शविलेल्या	-8168
ईंट	-8169
ईसी	-8170
त्याच	-8171
▁केडर	-8172
▁गार्ड	-8173
▁देवाणघ	-8174
▁मिळणार	-8175
▁विनियम	-8176
▁कारवाईचा	-8177
▁सुविधांच्या	-8178
िज	-8179
र्द	-8180
एफसी	-8181
कुवत	-8182
बीने	-8183
▁वीर	-8184
▁वेल	-8185
ैधानिक	-8186
▁प्रकट	-8187
▁एंट्री	-8188
▁कोठेही	-8189
▁टक्क्यां	-8190
▁राष्ट्रा	-8191
▁उत्तरदाता	-8192
▁दोषारोपपत्र	-8193
▁राखण्यासाठी	-8194
----------------	-8195
डत	-8196
▁टन	-8197
▁घडा	-8198
▁निंद	-8199
डाच्या	-8200
▁मानके	-8201
▁स्केल	-8202
▁प्रांत	-8203
▁होत्या	-8204
▁घडामोडी	-8205
▁गुंतलेले	-8206
▁शक्तीच्या	-8207
▁सेवांमध्ये	-8208
ह्म	-8209
▁वग	-8210
▁माती	-8211
▁भाष्य	-8212
▁कृत्रिम	-8213
▁नियमावली	-8214
▁एकमेकांशी	-8215
▁संवैधानिक	-8216
▁नोंदणीसाठी	-8217
▁विस्तृतपणे	-8218
ोकेट	-8219
▁समजूत	-8220
▁सिंचन	-8221
▁केश	-8222
▁चक्र	-8223
▁सदोष	-8224
▁स्तंभ	-8225
ार्टमेंट	-8226
▁तरतुदीच्या	-8227
▁महानगरपालिके	-8228
▁अॅट	-8229
पंचाय	-8230
▁एक्झ	-8231
▁कमकुवत	-8232
▁वेगाने	-8233
▁अल्पसंख्याक	-8234
▁निर्विवादपणे	-8235
▁प्रजा	-8236
▁भत्ते	-8237
▁होल्ड	-8238
ापूर्वी	-8239
▁दुष्काळ	-8240
▁स्वतःची	-8241
▁कॉपीराइट	-8242
▁तथ्यात्मक	-8243
▁वापरलेल्या	-8244
▁प्रतिवादींना	-8245
▁.-	-8246
▁आराम	-8247
▁एमपी	-8248
▁ड्यु	-8249
▁बोलले	-8250
▁असामान्य	-8251
▁कुष्ठरोग	-8252
▁घालण्यात	-8253
▁नसल्याने	-8254
▁पगाराच्या	-8255
णुक	-8256
रीज	-8257
▁वस	-8258
न्टी	-8259
▁अणु	-8260
▁ग्ल	-8261
▁बरो	-8262
पत्नी	-8263
▁रेखा	-8264
▁तिवारी	-8265
▁राहतात	-8266
▁शब्दात	-8267
▁मिळण्यास	-8268
▁तत्त्वाचा	-8269
▁निर्णयाशी	-8270
▁लोकांसाठी	-8271
▁शब्दाच्या	-8272
▁कार्यकक्षा	-8273
▁रेकॉर्डिंग	-8274
मात	-8275
योगट	-8276
ृत्य	-8277
▁कौश	-8278
▁तडजो	-8279
्यंत्र	-8280
▁सैनिक	-8281
▁उद्योजक	-8282
▁कारवाईत	-8283
▁नाकारणे	-8284
▁भरण्याच्या	-8285
▁त्यांच्याशी	-8286
इंड	-8287
▁भु	-8288
▁हरि	-8289
लादेश	-8290
▁काढू	-8291
▁नेते	-8292
▁गुणधर्म	-8293
▁महात्मा	-8294
▁रिपोर्ट	-8295
▁राज्याची	-8296
▁विलीनीकरण	-8297
▁फिर्यादीचे	-8298
▁वापरकर्त्या	-8299
यत	-8300
ोटो	-8301
एसपी	-8302
मतीत	-8303
▁अमर	-8304
▁इष्ट	-8305
▁क्यू	-8306
ध्यक्ष	-8307
▁कृतीत	-8308
▁वयोगट	-8309
कोणत्या	-8310
▁किंमतीत	-8311
▁नोंदविले	-8312
▁युरोपियन	-8313
▁अस्तित्वा	-8314
▁श्रेणीतील	-8315
▁उमेदवाराने	-8316
▁दिल्लीच्या	-8317
▁लिक्विडेटर	-8318
▁विधानसभेचे	-8319
▁अर्जदाराच्या	-8320
टिक	-8321
लेम	-8322
संक	-8323
डीची	-8324
सार्	-8325
▁अडक	-8326
▁तंद	-8327
▁पॅन	-8328
▁लगे	-8329
▁एमबी	-8330
▁कॉम्	-8331
▁वापरणे	-8332
▁अनिवासी	-8333
▁संतुलित	-8334
▁इतरांच्या	-8335
▁साक्षीदाराच्या	-8336
लबा	-8337
िनि	-8338
माचे	-8339
ाब्द	-8340
▁इनो	-8341
▁डोळ	-8342
▁तार	-8343
▁तीच	-8344
▁नसला	-8345
▁राजू	-8346
ाब्दिक	-8347
▁तपासा	-8348
▁पट्टे	-8349
▁मदतीने	-8350
▁त्याउलट	-8351
▁कायद्यास	-8352
▁सीडब्ल्यू	-8353
▁अनुसूचीच्या	-8354
एसओ	-8355
▁तिक	-8356
गोपाल	-8357
पुरते	-8358
▁बाजूस	-8359
▁बजावले	-8360
▁अर्जाचा	-8361
▁आजपासून	-8362
▁पूर्वसंध	-8363
▁ऑस्ट्रेलिया	-8364
▁परिस्थितीवर	-8365
▁फळ	-8366
▁शो	-8367
विता	-8368
▁उपस	-8369
क्झाड	-8370
पक्षी	-8371
्येला	-8372
▁आहार	-8373
▁ख्रि	-8374
▁घोषण	-8375
▁मुलाख	-8376
▁क्रिकेट	-8377
▁दडपशाही	-8378
▁शीर्षका	-8379
▁संसदेला	-8380
▁आणण्याचा	-8381
▁काळासाठी	-8382
▁ऑब्जेक्ट्स	-8383
▁राज्यघटनेत	-8384
▁न्यायशास्त्र	-8385
थित	-8386
▁''	-8387
▁आणत	-8388
▁अद्य	-8389
▁पुणे	-8390
▁लगेच	-8391
▁ग्रंथ	-8392
▁देयके	-8393
रेन्सिक	-8394
▁वर्गात	-8395
▁स्थाना	-8396
▁डिफॉल्ट	-8397
▁काळापासून	-8398
▁सरकारद्वारे	-8399
▁क्षेत्रासाठी	-8400
▁तुरूंगवासाची	-8401
,0	-8402
नगर	-8403
बिड	-8404
▁सप	-8405
भागी	-8406
▁ठाऊक	-8407
▁चार्ज	-8408
▁अलीकडील	-8409
▁काढलेला	-8410
▁विचित्र	-8411
्याद्वारे	-8412
▁तथ्यांचा	-8413
▁भूसंपादन	-8414
▁निर्णयांवर	-8415
▁व्यापाराच्या	-8416
उन	-8417
मीटर	-8418
रेशन	-8419
िमित्त	-8420
▁बदलली	-8421
▁वाढविली	-8422
▁रूपांतरण	-8423
▁मंत्रालया	-8424
▁मंत्रिमंडळ	-8425
▁हेतुपुरस्सर	-8426
ेल्थ	-8427
▁करम	-8428
▁बाद	-8429
▁लोड	-8430
वल्ली	-8431
▁एन्ट	-8432
▁औषधे	-8433
▁फाईल	-8434
गुन्हे	-8435
र्सिंग	-8436
▁निष्प	-8437
▁मिळवणे	-8438
▁जमिनीवर	-8439
▁माध्यमां	-8440
▁षड्यंत्र	-8441
▁धर्मनिरपेक्ष	-8442
नेश	-8443
ोता	-8444
▁('	-8445
▁पह	-8446
िकरण	-8447
र्मां	-8448
▁दुवा	-8449
▁अचानक	-8450
▁मृताचे	-8451
▁होणारे	-8452
▁करपात्र	-8453
▁वाटाघाटी	-8454
नर	-8455
नासह	-8456
फ्रा	-8457
▁बॅक	-8458
▁शरण	-8459
▁क्री	-8460
▁गेलो	-8461
▁रोखणे	-8462
▁कल्पित	-8463
▁विकृती	-8464
▁स्फोटक	-8465
▁समुदाया	-8466
▁फॉरेन्सिक	-8467
▁सांगण्याची	-8468
▁कालावधीच्या	-8469
▁व्यक्तीद्वारे	-8470
एफआर	-8471
जिकल	-8472
▁ताल	-8473
▁हेड	-8474
▁पळून	-8475
▁बनली	-8476
पणामुळे	-8477
▁पाठवले	-8478
▁ठोठावला	-8479
▁निर्मूल	-8480
कोणत्याही	-8481
▁निमित्ताने	-8482
▁संवर्गातील	-8483
▁अल्पसंख्यां	-8484
▁समुदायाच्या	-8485
▁इन्स्टिट्यूट	-8486
पान	-8487
ग्यु	-8488
▁उर्फ	-8489
▁झोपड	-8490
▁भरले	-8491
▁उत्खन	-8492
▁नृत्य	-8493
▁पिस्त	-8494
▁प्लॉट	-8495
▁लागवड	-8496
▁सागरी	-8497
▁इंदिरा	-8498
▁दुहेरी	-8499
्यामध्ये	-8500
▁कंपनीचा	-8501
▁प्राधान	-8502
▁राज्यां	-8503
▁दीर्घकाळ	-8504
▁दूरध्वनी	-8505
▁व्यवस्थित	-8506
▁क्षेत्राची	-8507
▁न्यायाधीशांसमोर	-8508
▁आत्	-8509
▁चळव	-8510
▁नसती	-8511
पलीकडे	-8512
▁स्टँड	-8513
▁अपीलचा	-8514
▁महाराज	-8515
▁नाबार्ड	-8516
▁विकासास	-8517
▁विक्रीचा	-8518
▁सुव्यवस्था	-8519
▁सर्वोत्कृष्ट	-8520
.-	-8521
जोग	-8522
नेस	-8523
द्वि	-8524
▁गुड	-8525
▁गॅर	-8526
▁हुस	-8527
सेक्शन	-8528
▁येथून	-8529
▁वाक्य	-8530
▁शोधात	-8531
▁लागतात	-8532
▁उद्भवतो	-8533
▁पत्रकार	-8534
▁जगभरातील	-8535
▁पैशाच्या	-8536
▁व्यभिचार	-8537
▁संघटनेने	-8538
▁युक्तिवादाला	-8539
वट	-8540
▁इतक	-8541
▁व्हॅ	-8542
▁श्रम	-8543
▁गैरसो	-8544
▁श्वास	-8545
▁जीवनाचा	-8546
▁दोघांनी	-8547
▁घेण्याबाबत	-8548
▁जिल्हाधिका	-8549
▁गुंतवणूकीच्या	-8550
▁रिप	-8551
▁एसडी	-8552
विरोधी	-8553
सामग्री	-8554
▁जनतेला	-8555
▁निवडून	-8556
▁पूर्वज	-8557
▁इमारतीत	-8558
▁तिच्याशी	-8559
▁मिळाल्या	-8560
▁तारखेनंतर	-8561
▁त्याच्याकडून	-8562
झर	-8563
षा	-8564
य्यम	-8565
▁दंत	-8566
▁मद्य	-8567
स्टिंग	-8568
▁द्वेष	-8569
▁वाहने	-8570
काश्मीर	-8571
▁बारावी	-8572
▁बोलावले	-8573
▁शाब्दिक	-8574
▁पेंडन्सी	-8575
▁हक्कांची	-8576
▁भरपाईसाठी	-8577
शै	-8578
▁खी	-8579
चेरी	-8580
ोर्ट	-8581
▁कॅप	-8582
▁वॉटर	-8583
▁घटनां	-8584
▁ठरतील	-8585
▁पाहून	-8586
▁अटर्नी	-8587
▁आयटीआर	-8588
सार्वजनिक	-8589
▁पातळीवरील	-8590
▁राज्यपालांना	-8591
▁अध्यक्षतेखाली	-8592
▁बनू	-8593
ित्तल	-8594
▁राधा	-8595
▁आशिया	-8596
▁ठरवते	-8597
▁तिकिट	-8598
▁राकेश	-8599
▁वाहून	-8600
▁उत्सुक	-8601
▁पत्रात	-8602
▁ब्रिटी	-8603
▁धर्मादाय	-8604
▁वर्गातील	-8605
▁सामग्रीच्या	-8606
▁राष्ट्रपतींना	-8607
वीस	-8608
▁पाई	-8609
▁युग	-8610
▁सलग	-8611
नॉलॉजी	-8612
प्रकरणी	-8613
▁दारूगो	-8614
▁चर्चेचा	-8615
▁दोषरहित	-8616
▁योगदाना	-8617
▁जिल्ह्यात	-8618
▁राज्यांनी	-8619
▁उत्पन्नाचे	-8620
▁उमेदवारांची	-8621
ॅम	-8622
कीम	-8623
प्शन	-8624
▁पडत	-8625
र्याद	-8626
▁अग्नि	-8627
▁कमिटी	-8628
▁निष्ठ	-8629
▁उलटपक्षी	-8630
▁घेणार्या	-8631
▁कारणासाठी	-8632
▁तरतुदींची	-8633
▁निकालांचा	-8634
▁लवादासाठी	-8635
▁स्वीकारल्या	-8636
ान्	-8637
▁ओम	-8638
गारी	-8639
ेडकर	-8640
▁आश्र	-8641
▁एनसी	-8642
▁गरजे	-8643
▁नोटि	-8644
▁पब्लिक	-8645
▁प्रस्त	-8646
▁लोखंडी	-8647
ानिमित्त	-8648
▁कंपनीची	-8649
▁रूपांतर	-8650
▁सहाव्या	-8651
▁अहमदाबाद	-8652
▁मिळालेली	-8653
▁धर्माच्या	-8654
▁बचावासाठी	-8655
▁इलेक्ट्रॉनिक्स	-8656
हीन	-8657
▁कडक	-8658
▁ब्रा	-8659
▁म्है	-8660
विवादा	-8661
▁प्रॉप	-8662
▁शिकवण	-8663
▁अबकारी	-8664
▁खर्चासाठी	-8665
▁संस्थांनी	-8666
▁म्हटल्याप्रमाणे	-8667
लँड	-8668
▁छेड	-8669
▁ताक	-8670
▁वीस	-8671
ाराचे	-8672
▁अन्स	-8673
▁कमाई	-8674
▁हृदय	-8675
▁विशाल	-8676
▁दुय्यम	-8677
▁येणारी	-8678
▁साथीदार	-8679
▁नुकत्याच	-8680
............	-8681
▁प्रशासनाच्या	-8682
▁विधिमंडळाच्या	-8683
▁याचिकाकर्त्याची	-8684
ंबा	-8685
▁ग्	-8686
सोबत	-8687
ेतील	-8688
▁यावे	-8689
▁फ्रेम	-8690
▁मताशी	-8691
नांच्या	-8692
▁मांडणे	-8693
▁आरोपीचा	-8694
▁प्रजाती	-8695
▁स्वीकृती	-8696
▁राहण्याचे	-8697
▁खटल्यासाठी	-8698
▁उद्भवणार्या	-8699
▁न्यायाधिकरणाची	-8700
▁नजर	-8701
▁गाडी	-8702
▁जनता	-8703
▁जस्ट	-8704
▁धरुन	-8705
▁पूजा	-8706
समर्पण	-8707
▁पीपीए	-8708
आयडीएआय	-8709
▁नंतरचे	-8710
▁मित्तल	-8711
▁स्पर्श	-8712
▁पूर्वसंध्येला	-8713
ैरे	-8714
▁ठरवू	-8715
▁रणनी	-8716
▁अक्षर	-8717
▁तैनात	-8718
▁पदाची	-8719
▁कारवाया	-8720
▁भारताची	-8721
▁भाषांतर	-8722
▁मर्यादेत	-8723
▁प्रतिबंधात्मक	-8724
▁न्यायाधीशांकडे	-8725
लेय	-8726
एचआर	-8727
▁आयु	-8728
▁गाठ	-8729
▁जर्म	-8730
▁सीबी	-8731
▁काढता	-8732
▁प्रसि	-8733
▁वगैरे	-8734
▁इतक्या	-8735
▁परिमाण	-8736
▁मुलाची	-8737
▁वाढवणे	-8738
▁काढल्या	-8739
▁दारिद्र	-8740
▁मुख्यतः	-8741
▁येण्यास	-8742
▁सातव्या	-8743
▁अधिलिखित	-8744
▁असमर्थता	-8745
▁मृत्यूचे	-8746
▁स्पष्टीकरणात	-8747
▁पुरस्काराच्या	-8748
▁उम	-8749
▁फेक	-8750
परिषद	-8751
▁किरण	-8752
▁खोटा	-8753
▁हंगा	-8754
ॅक्सॅड	-8755
▁अभयार	-8756
▁डीडीए	-8757
▁स्थावर	-8758
▁प्रदर्शित	-8759
▁उलटतपासणीत	-8760
▁कराराद्वारे	-8761
▁कालावधीनंतर	-8762
▁अंमलबजावणीची	-8763
सल	-8764
वनो	-8765
समज	-8766
माची	-8767
सच्या	-8768
▁पोषण	-8769
▁नावनो	-8770
▁प्रिंट	-8771
निर्मिती	-8772
▁टप्प्या	-8773
▁पोहोचला	-8774
▁तक्रारीची	-8775
▁विश्रांती	-8776
▁कर्तव्याचे	-8777
▁उत्पादनांच्या	-8778
▁त्यांच्याद्वारे	-8779
▁गति	-8780
▁त्व	-8781
▁कमाल	-8782
ंबरोबर	-8783
▁पाहिली	-8784
▁मुलाचे	-8785
▁ठेवलेले	-8786
▁विक्रीची	-8787
▁मिळण्याची	-8788
▁विधानसभेत	-8789
▁सामग्रीचा	-8790
▁निकालानुसार	-8791
▁येण्यापूर्वी	-8792
▁रसाय	-8793
▁एक्स्	-8794
▁जयपूर	-8795
▁वाढवू	-8796
▁विकली	-8797
▁कर्मचा	-8798
▁शुद्धता	-8799
▁इंडियाने	-8800
▁घटकांच्या	-8801
▁तरतुदींना	-8802
▁तरतुदींवर	-8803
▁हस्तक्षेपाची	-8804
▁खत	-8805
टीशन	-8806
रियल	-8807
ेटरी	-8808
▁नॅन	-8809
▁फटा	-8810
विशेष	-8811
▁एओआर	-8812
▁वाचा	-8813
▁प्लॅन	-8814
▁आरोपित	-8815
▁प्रतिसा	-8816
▁ब्रिटीश	-8817
▁आणण्याची	-8818
▁प्रस्तुत	-8819
▁वर्गीकृत	-8820
▁विकासाची	-8821
▁सुस्पष्ट	-8822
▁आत्मसमर्पण	-8823
▁ट्रस्टच्या	-8824
▁समृद्धीसाठी	-8825
▁सुटण्याच्या	-8826
▁त्यांच्यासाठी	-8827
▁अपीलकर्त्याकडे	-8828
▁चहा	-8829
▁शहा	-8830
▁धरून	-8831
▁प्रां	-8832
▁आंबेडकर	-8833
▁हार्दिक	-8834
▁क्षेत्रे	-8835
▁जाण्याचे	-8836
▁याचिकेचा	-8837
▁वेळापत्रकात	-8838
तार	-8839
▁१६	-8840
▁वयाची	-8841
▁करायचे	-8842
▁अर्थसंक	-8843
▁प्रमाणावर	-8844
▁देण्याबाबत	-8845
▁फिर्यादीची	-8846
▁सीपीसीच्या	-8847
लीम	-8848
णाचा	-8849
▁चीन	-8850
मंडळा	-8851
▁कन्स	-8852
ंपाऊंड	-8853
▁बहुधा	-8854
▁मोजमा	-8855
▁परंपरा	-8856
▁पैलूवर	-8857
▁लावल्या	-8858
▁वाक्यां	-8859
▁अपीलांनी	-8860
▁राज्याला	-8861
▁नेमलेल्या	-8862
▁बेकायदेशीरपणे	-8863
उप	-8864
▁ओडि	-8865
▁गोव	-8866
▁बंड	-8867
रुध्द	-8868
▁आयआर	-8869
▁आवाह	-8870
▁चौदा	-8871
▁थोडा	-8872
▁अय्यर	-8873
▁घातला	-8874
▁हिंदु	-8875
▁शब्दाची	-8876
▁निकालाने	-8877
▁रामचंद्र	-8878
▁राहण्यास	-8879
▁सत्यतेवर	-8880
▁तुलनात्मक	-8881
▁असल्याच्या	-8882
▁महिलांच्या	-8883
कीकरण	-8884
▁जगात	-8885
▁तंदु	-8886
▁मूलत	-8887
यानंतर	-8888
▁गैरसमज	-8889
▁दाखवून	-8890
▁परीक्ष	-8891
▁बरोबरी	-8892
▁एकसारखे	-8893
▁पडलेल्या	-8894
▁व्यवहारात	-8895
▁नोंदविलेले	-8896
▁स्वरूपाच्या	-8897
▁राज्यांमध्ये	-8898
वेरी	-8899
शाळे	-8900
ेवाण	-8901
▁ओपन	-8902
▁कथा	-8903
▁बाई	-8904
निहित	-8905
▁त्याग	-8906
▁ब्लॅक	-8907
▁बांधले	-8908
प्तीच्या	-8909
▁अटकपूर्व	-8910
▁अहवालातील	-8911
▁कॉन्फरन्स	-8912
▁उपनिरीक्षक	-8913
▁वर्षांपूर्वी	-8914
ंगीण	-8915
ॉक्स	-8916
▁सती	-8917
▁सेन	-8918
▁अलिक	-8919
▁नसली	-8920
गाराची	-8921
▁मोजले	-8922
सिव्हिल	-8923
▁नेत्या	-8924
▁म्हैसूर	-8925
▁राहण्याचा	-8926
▁प्रश्नांचा	-8927
▁न्यायपालिका	-8928
▁अपीलकर्त्यांचा	-8929
डो	-8930
▁अर	-8931
ब्बल	-8932
शिला	-8933
ील्ड	-8934
▁मिल	-8935
▁सोपे	-8936
▁सातत्य	-8937
▁निंदनीय	-8938
▁अधिकाधिक	-8939
▁इन्स्ट्र	-8940
▁पृष्ठभाग	-8941
▁मर्यादीत	-8942
▁आघा	-8943
▁जीओ	-8944
▁बेड	-8945
▁अरुण	-8946
▁स्कू	-8947
▁पदवीधर	-8948
▁एन्ट्री	-8949
▁कारागृह	-8950
▁स्थलांतर	-8951
▁रस्त्यावर	-8952
▁प्रशिक्षित	-8953
▁श्रीवास्तव	-8954
▁प्रकल्पाच्या	-8955
▁अबा	-8956
पॉझिट	-8957
▁गोदा	-8958
▁निगम	-8959
▁सेवक	-8960
▁आज्ञा	-8961
▁इनपुट	-8962
▁अपंगत्	-8963
▁मेघालय	-8964
▁व्यत्य	-8965
▁भारताचा	-8966
▁लोकांची	-8967
▁पदांच्या	-8968
▁इच्छामृत्यू	-8969
▁न्यायनिवाडा	-8970
▁होण्यापासून	-8971
-))	-8972
▁कपा	-8973
▁असाइन	-8974
▁खंडणी	-8975
▁माणसा	-8976
▁लिफ्ट	-8977
▁शालेय	-8978
▁बाबींची	-8979
▁ट्रॅक्टर	-8980
▁नियमांची	-8981
▁उत्तराखंड	-8982
▁परिसरातील	-8983
▁सर्वांगीण	-8984
▁राज्यघटनेचे	-8985
षक	-8986
▁चल	-8987
▁ताप	-8988
▁पाहू	-8989
▁बेंच	-8990
▁क्षणी	-8991
▁ग्रीन	-8992
▁मिळतो	-8993
▁अधिभार	-8994
▁आर्किट	-8995
▁टीव्ही	-8996
▁सुरवात	-8997
▁पुस्तकात	-8998
▁फायनान्स	-8999
▁भाषेच्या	-9000
▁भेटवस्तू	-9001
▁सुविधांचा	-9002
▁टाकण्यासाठी	-9003
▁युक्तिवादाचा	-9004
▁कार्यवाहीमध्ये	-9005
गल	-9006
ानंद	-9007
▁रोल	-9008
▁पराव	-9009
▁संकट	-9010
क्रिया	-9011
▁केलेः	-9012
▁बनवते	-9013
▁ठेवतात	-9014
▁मुख्यत	-9015
▁अत्यधिक	-9016
▁दिनाच्या	-9017
▁स्वच्छता	-9018
▁हक्कांवर	-9019
▁सांगण्यासाठी	-9020
यचा	-9021
्यूल	-9022
▁परम	-9023
▁भास	-9024
▁गुला	-9025
▁जंगम	-9026
▁तलाव	-9027
▁लायस	-9028
बीच्या	-9029
▁गोपाळ	-9030
▁लिखित	-9031
▁शब्दको	-9032
▁पूर्ववत	-9033
▁वर्चस्व	-9034
▁भरण्याची	-9035
▁व्यक्तीकडून	-9036
▁गुन्हेगाराच्या	-9037
म्ड	-9038
▁अक	-9039
▁दरवा	-9040
्याकडे	-9041
▁डोमेन	-9042
▁मुळात	-9043
▁पराभूत	-9044
▁शुल्का	-9045
▁सांगता	-9046
▁अवांछित	-9047
▁निःपक्ष	-9048
▁परराष्ट्र	-9049
▁मृत्युदंड	-9050
▁प्रतिवादीची	-9051
सार	-9052
▁अंक	-9053
▁सेफ	-9054
हम्मद	-9055
▁आकलन	-9056
▁माझी	-9057
विल्या	-9058
▁डायरी	-9059
▁नामित	-9060
▁स्टेन	-9061
▁अपीलची	-9062
▁वादाचे	-9063
▁नैतिकता	-9064
▁नसल्याचा	-9065
▁निर्णयाकडे	-9066
▁वर्षांसाठी	-9067
▁आमच्याद्वारे	-9068
▁धड	-9069
▁“.	-9070
निंग	-9071
प्पट	-9072
▁फिर	-9073
्याशी	-9074
▁उन्न	-9075
▁बनवू	-9076
▁मसुद	-9077
▁संमेल	-9078
▁भूतकाळ	-9079
▁संघटित	-9080
▁नेण्यात	-9081
▁रुपयांची	-9082
▁विकसनशील	-9083
▁संग्रहित	-9084
▁वयोगटातील	-9085
▁अधिकारांवर	-9086
▁तिसर्यांदा	-9087
▁नियुक्तीची	-9088
▁व्यवहाराच्या	-9089
टल	-9090
ापक	-9091
▁धन	-9092
निकल	-9093
▁नंद	-9094
▁लढा	-9095
▁चालक	-9096
र्याने	-9097
▁प्रोब	-9098
▁मालकास	-9099
▁निवृत्त	-9100
▁परताव्या	-9101
▁रुग्णालय	-9102
▁उत्पादनात	-9103
▁सदस्यांचा	-9104
▁पक्षांमध्ये	-9105
▁प्रवेशासाठी	-9106
▁मिळवण्यासाठी	-9107
यची	-9108
राण	-9109
▁ब्	-9110
▁रहा	-9111
्यासह	-9112
▁आरएफ	-9113
▁लंडन	-9114
काकडून	-9115
▁जोडली	-9116
▁विधवा	-9117
▁हेक्टर	-9118
▁चारित्र	-9119
▁जोडीदार	-9120
▁म्हणजेः	-9121
▁आकारण्यात	-9122
▁परवानग्या	-9123
▁पुरवठादार	-9124
▁याचिकाकर्त्याचा	-9125
ागत	-9126
स्पे	-9127
ूर्त	-9128
▁दाद	-9129
▁साफ	-9130
नांचा	-9131
संहित	-9132
▁दशकां	-9133
▁लेखात	-9134
▁विनोद	-9135
▁हार्ड	-9136
र्जेदार	-9137
▁रेग्यु	-9138
▁अक्षरशः	-9139
▁लायसन्स	-9140
▁हप्त्या	-9141
▁औपचारिकता	-9142
▁प्रॉपर्टी	-9143
▁इलेक्ट्रिक	-9144
फल	-9145
पहा	-9146
▁गे	-9147
▁संच	-9148
▁एकूणच	-9149
▁शिक्ष	-9150
▁दूरस्थ	-9151
▁वापरून	-9152
▁मालकांना	-9153
▁वापरलेले	-9154
▁समलैंगिक	-9155
▁कामांसाठी	-9156
▁नातेसंबंध	-9157
▁अॅडव्होकेट	-9158
▁पात्रतेच्या	-9159
दीश	-9160
वीर	-9161
सेट	-9162
मिकस	-9163
▁कसो	-9164
▁मशि	-9165
▁आरआय	-9166
▁एनटी	-9167
▁पांड	-9168
▁बीएस	-9169
▁मुता	-9170
▁अनन्य	-9171
▁चळवळी	-9172
▁चेंबर	-9173
▁म्हणत	-9174
▁मार्शल	-9175
▁वन्यजीव	-9176
▁संस्थेत	-9177
▁बांगलादेश	-9178
▁शरीराच्या	-9179
▁देवाणघेवाण	-9180
▁न्यायाधिकरणाचे	-9181
डीओ	-9182
▁छा	-9183
कर्म	-9184
▁नोडल	-9185
▁हुसेन	-9186
▁मणिपूर	-9187
▁घटकांचा	-9188
▁विचारवि	-9189
▁डोक्यावर	-9190
▁दर्जेदार	-9191
▁पद्धतीचा	-9192
▁झोपडपट्टी	-9193
▁मॅट्रिक्स	-9194
▁सहाय्याने	-9195
▁क्षेत्राला	-9196
▁सुप्रसिद्ध	-9197
▁घेतल्याशिवाय	-9198
▁परिस्थितीनुसार	-9199
▁घा	-9200
ुमेंट	-9201
▁पीएच	-9202
▁जावेत	-9203
न्यायिक	-9204
▁पक्षाचे	-9205
▁न्यायाची	-9206
▁होणार्या	-9207
▁विश्वसनीय	-9208
▁खनिजांच्या	-9209
▁रुपयांच्या	-9210
▁त्यासंबंधित	-9211
▁यांच्यामार्फत	-9212
▁न्यायपालिकेच्या	-9213
पत	-9214
ुद्ध	-9215
्युक	-9216
▁अर्क	-9217
▁कलंक	-9218
▁ललित	-9219
▁स्टो	-9220
▁शक्यतो	-9221
शास्त्रीय	-9222
▁प्राप्ती	-9223
▁संशयाच्या	-9224
▁कोर्टाकडून	-9225
▁खरेदीदारास	-9226
▁कागदपत्रांवर	-9227
ईड	-9228
खमी	-9229
य्य	-9230
ापु	-9231
ोटी	-9232
कांत	-9233
ाबेस	-9234
▁उंच	-9235
▁पत्रे	-9236
▁निवाडा	-9237
▁पायावर	-9238
▁सर्किट	-9239
▁टिप्पणी	-9240
▁त्यातून	-9241
▁दुर्दैवी	-9242
▁शब्दांचा	-9243
▁संयुक्तपणे	-9244
▁निकालामध्ये	-9245
▁प्रवेशाच्या	-9246
▁महाविद्यालया	-9247
जली	-9248
▁घाई	-9249
▁सुब	-9250
अरिंग	-9251
▁बनला	-9252
▁याचे	-9253
द्यावर	-9254
▁आयआयटी	-9255
▁मृताची	-9256
▁अरुणाचल	-9257
▁तरतुदीचे	-9258
▁पर्याप्त	-9259
कर्त्यांनी	-9260
▁प्रसिद्धी	-9261
▁मर्यादेचा	-9262
▁नामनिर्देशन	-9263
▁उत्पादनाच्या	-9264
▁वस्तुस्थितीवर	-9265
▁दुध	-9266
गावॅट	-9267
ाशक्ती	-9268
▁मोजमाप	-9269
▁अॅटर्नी	-9270
▁यांनीही	-9271
▁सर्जनशील	-9272
▁रिझोल्यूशन	-9273
▁विद्यापीठाने	-9274
▁ओपी	-9275
ंपासून	-9276
▁डायरे	-9277
▁निघून	-9278
▁अबाधित	-9279
▁अमेरिके	-9280
्यतिरिक्त	-9281
▁उपायुक्त	-9282
▁जीवनातील	-9283
▁प्रवर्तक	-9284
▁विभागाचे	-9285
▁करणार्यांनी	-9286
▁निःपक्षपाती	-9287
थिल	-9288
पला	-9289
ेवर	-9290
विते	-9291
▁आया	-9292
▁शंभ	-9293
मीटर्स	-9294
▁राहतो	-9295
▁विक्रम	-9296
▁योजनेचे	-9297
▁अधिवेशनात	-9298
▁आदेशावरून	-9299
▁दारिद्र्य	-9300
▁करण्यासारखे	-9301
▁विश्वासार्हता	-9302
ढा	-9303
वाहा	-9304
चार्य	-9305
व्हरी	-9306
स्टोप	-9307
▁ड्रॉ	-9308
▁ब्रे	-9309
▁उपभोग	-9310
▁टिकून	-9311
▁जोडल्या	-9312
▁दहशतवाद	-9313
▁नोंदवून	-9314
▁मेगावॅट	-9315
▁समायोजन	-9316
कळत	-9317
▁फ्	-9318
▁आहात	-9319
▁उंची	-9320
▁नकळत	-9321
▁ब्यु	-9322
▁यूके	-9323
▁“...	-9324
▁मजुरी	-9325
▁अलीकडे	-9326
▁करायची	-9327
▁डेटाबेस	-9328
▁सुरूवात	-9329
▁विश्वासा	-9330
▁वर्षानंतर	-9331
▁सन्माननीय	-9332
▁फॉर्ममध्ये	-9333
▁............	-9334
झम	-9335
िए	-9336
▁गळ	-9337
▁भिं	-9338
▁अस्व	-9339
▁डोंग	-9340
▁नोटा	-9341
▁प्रथ	-9342
▁लाइट	-9343
युक्ती	-9344
▁मेमोर	-9345
▁रणजित	-9346
▁शेजार	-9347
▁ऑनलाइन	-9348
▁नाकारता	-9349
▁परिभाषा	-9350
▁वक्तव्य	-9351
▁सर्वाधिक	-9352
▁शिक्षणाची	-9353
▁आपल्यासमोर	-9354
▁ठोठावण्यात	-9355
▁लोकांमध्ये	-9356
▁आव्हानात्मक	-9357
▁कर्तव्याच्या	-9358
रने	-9359
वला	-9360
डीचा	-9361
नाइट	-9362
र्मू	-9363
▁बात	-9364
▁मूर्	-9365
▁सायक	-9366
बरोबरच	-9367
▁वर्तन	-9368
▁आरोपीं	-9369
▁स्मारक	-9370
▁अग्रगण्य	-9371
▁ट्रेडिंग	-9372
▁द्विवेदी	-9373
▁घेण्याकरिता	-9374
▁याचिकाकर्त्याचे	-9375
वाड	-9376
▁झाक	-9377
क्काम	-9378
▁छोटा	-9379
आधारित	-9380
▁बदलला	-9381
▁भागाचा	-9382
▁इन्फ्रा	-9383
▁कंपाऊंड	-9384
▁लवादाचे	-9385
▁सांगितली	-9386
▁प्रार्थने	-9387
▁अर्जामध्ये	-9388
▁परीक्षेच्या	-9389
▁शीर्षकाखाली	-9390
▁डिल	-9391
क्रीय	-9392
▁गणित	-9393
▁पीडी	-9394
▁संयम	-9395
▁सेमी	-9396
▁धान्य	-9397
▁बहिणी	-9398
▁ऑपरेशनल	-9399
▁पिस्तूल	-9400
▁प्रॅक्ट	-9401
ण्याशिवाय	-9402
▁उद्भवतात	-9403
▁मनुष्यबळ	-9404
▁तत्त्वाचे	-9405
▁सापडलेल्या	-9406
▁राजपत्रातील	-9407
▁इन्स्ट्रुमेंट	-9408
रिस	-9409
सेफ	-9410
स्टॉ	-9411
▁बनते	-9412
णाच्या	-9413
▁उदयास	-9414
▁मोजली	-9415
▁चालवणे	-9416
▁जस्टिस	-9417
▁मुलाचा	-9418
▁सोन्या	-9419
▁व्यत्यय	-9420
▁निर्णयात	-9421
▁मध्यभागी	-9422
▁अनियमितता	-9423
▁नावनोंदणी	-9424
▁पॅरामीटर्स	-9425
▁संस्थांकडून	-9426
▁ठरविण्याच्या	-9427
▁तण	-9428
▁मोती	-9429
▁संकु	-9430
00,000	-9431
▁नव्या	-9432
▁अप्रिय	-9433
▁मजल्या	-9434
▁सरकारे	-9435
▁वादविवादा	-9436
▁सरकारांनी	-9437
▁उमेदवाराला	-9438
▁रुपयांपेक्षा	-9439
नाश	-9440
माही	-9441
िस्ट	-9442
▁लाइ	-9443
मेन्ट	-9444
▁दिनेश	-9445
▁मिळकत	-9446
▁स्पेश	-9447
▁प्रवाश	-9448
▁ठेवलेली	-9449
▁निवडणुक	-9450
▁स्पेक्ट	-9451
▁असाइनमेंट	-9452
▁कौन्सिलने	-9453
▁देशांच्या	-9454
▁सत्तेच्या	-9455
▁स्वरूपाची	-9456
▁गुन्ह्याचे	-9457
भाडे	-9458
वेळे	-9459
▁पिढ	-9460
▁सैन	-9461
व्हास	-9462
▁ऑक्स	-9463
ल्पनिक	-9464
▁क्षेत	-9465
▁कारवाईची	-9466
▁इच्छाशक्ती	-9467
▁ट्रेडमार्क	-9468
▁पुनरुत्पादन	-9469
▁प्रतिनिधीत्व	-9470
▁न्यायालयांमध्ये	-9471
ताप	-9472
िनी	-9473
आयआय	-9474
एमएल	-9475
▁आपो	-9476
▁अतुल	-9477
▁कोटा	-9478
▁मीना	-9479
ांनंतर	-9480
▁पाळली	-9481
वण्याचा	-9482
▁कनेक्शन	-9483
▁राज्यसभे	-9484
▁आणण्याच्या	-9485
▁योजनेनुसार	-9486
▁अधिसूचनेमध्ये	-9487
▁अप्रत्यक्षपणे	-9488
कोट	-9489
सिस	-9490
ब्रा	-9491
लाही	-9492
▁ईसी	-9493
▁अंडर	-9494
▁पडली	-9495
▁साखर	-9496
▁सीजी	-9497
▁आपोआप	-9498
▁स्वप्	-9499
▁गेलेला	-9500
▁पत्त्या	-9501
▁वाढविला	-9502
▁सक्तीने	-9503
▁समितीचा	-9504
▁नियमांना	-9505
▁क्षेत्रीय	-9506
▁प्रतिवादींच्या	-9507
एडा	-9508
ण्य	-9509
▁उल	-9510
पीजी	-9511
▁एम्	-9512
▁हेही	-9513
▁जोखमी	-9514
▁वेधून	-9515
▁अर्जात	-9516
▁आयसीटी	-9517
▁राजवटी	-9518
▁संघाने	-9519
▁आयोगाचा	-9520
▁काल्पनिक	-9521
▁दोषमुक्त	-9522
▁काढण्याची	-9523
▁यूआयडीएआय	-9524
▁वर्गाच्या	-9525
▁असल्याचेही	-9526
▁उत्पन्नावर	-9527
▁दुष्परिणाम	-9528
ौर	-9529
पूस	-9530
एसएस	-9531
पीपी	-9532
भारत	-9533
▁तुळ	-9534
▁रॉक	-9535
▁लढाई	-9536
प्लेक्स	-9537
▁अनैतिक	-9538
▁मागण्या	-9539
▁कामकाजात	-9540
▁फाशीच्या	-9541
▁संस्थांचे	-9542
▁सावधगिरीने	-9543
▁साहित्याचा	-9544
▁खरेदीदाराने	-9545
▁रेकॉर्डमध्ये	-9546
▁आरोपींविरूद्ध	-9547
▁त्याच्याद्वारे	-9548
▁चो	-9549
िंगर	-9550
▁पवन	-9551
▁पशु	-9552
▁रॉड	-9553
▁ट्रे	-9554
▁पडतो	-9555
▁पाळत	-9556
▁लागव	-9557
▁नोएडा	-9558
▁फॅक्ट	-9559
▁श्रेय	-9560
▁अपीलंट	-9561
▁आदरणीय	-9562
्यानुसार	-9563
▁आरोपींचा	-9564
▁टाकण्यात	-9565
▁उद्भवणारी	-9566
▁मुतावल्ली	-9567
▁इंडियाच्या	-9568
▁गुन्ह्याची	-9569
▁व्यवसायाचा	-9570
▁शिक्षकांना	-9571
▁कार्यवाहीचा	-9572
▁शिक्षकांच्या	-9573
▁अधिसूचनेनुसार	-9574
▁वस्तुस्थितीचा	-9575
ूस	-9576
▁अनो	-9577
▁गेट	-9578
▁मदन	-9579
▁विज	-9580
▁मोफत	-9581
▁उत्सव	-9582
▁मनोहर	-9583
▁एकसमान	-9584
▁हातभार	-9585
▁विविधता	-9586
▁सदस्यता	-9587
▁उद्योगात	-9588
▁खात्यावर	-9589
▁गुंतलेली	-9590
▁प्रश्नाचा	-9591
▁वडिलांच्या	-9592
▁सूचनेनुसार	-9593
▁झाल्याबद्दल	-9594
▁मिळविण्याच्या	-9595
▁युक्तिवादाच्या	-9596
▁))	-9597
▁वाघ	-9598
▁आरंभ	-9599
▁वाढू	-9600
व्हेशन	-9601
▁कसोटी	-9602
▁वाढीस	-9603
▁घेणारा	-9604
▁परवाने	-9605
▁संकलित	-9606
▁संसर्ग	-9607
▁स्कूटर	-9608
▁परिषदेत	-9609
▁परावृत्त	-9610
▁अंतर्निहित	-9611
▁व्यवसायाची	-9612
▁दिनानिमित्त	-9613
णात	-9614
हीम	-9615
▁उध	-9616
▁थॉ	-9617
▁एडी	-9618
-----	-9619
▁छेडछ	-9620
▁विधि	-9621
▁निर्भ	-9622
▁प्रतीक	-9623
▁अध्यापन	-9624
▁असतानाही	-9625
▁महिन्यात	-9626
▁मुद्रांक	-9627
▁स्थितीचा	-9628
▁झाल्याच्या	-9629
▁इत्यादींच्या	-9630
▁यशस्वीरित्या	-9631
समान	-9632
▁वर्क	-9633
▁संतोष	-9634
▁पर्यटक	-9635
▁संशयित	-9636
▁समजावून	-9637
▁कॅनव्हास	-9638
▁भवनाच्या	-9639
▁तरीसुद्धा	-9640
▁प्रत्येकाला	-9641
एट	-9642
उत्प	-9643
▁सरळ	-9644
ार्टर	-9645
▁गंगा	-9646
▁गौरव	-9647
▁घालू	-9648
▁विचल	-9649
▁विसर	-9650
▁सीएम	-9651
▁वास्त	-9652
▁संगीत	-9653
▁सेक्र	-9654
▁कैद्या	-9655
▁देशाला	-9656
▁मंजूरी	-9657
▁ऑपरेशन्स	-9658
▁फॉर्म्यु	-9659
▁उत्पादकता	-9660
▁प्रश्नचिन्ह	-9661
ीम	-9662
▁हळ	-9663
▁बर्	-9664
▁सद्	-9665
▁माला	-9666
▁अप्रा	-9667
▁ग्रॅम	-9668
▁पगारा	-9669
▁शाळेत	-9670
▁अनुभवा	-9671
▁एक्स्ट	-9672
▁गॅरंटी	-9673
▁मोबाईल	-9674
▁लोकसभे	-9675
▁सेक्शन	-9676
▁दर्शविणे	-9677
▁नियंत्रक	-9678
▁राज्यांत	-9679
▁आकारण्यास	-9680
▁कमिशनच्या	-9681
▁सेवांसाठी	-9682
▁उद्योगांना	-9683
▁राष्ट्राध्यक्ष	-9684
▁घन	-9685
▁निग	-9686
पत्रे	-9687
ॉर्टम	-9688
▁परवड	-9689
▁खंडित	-9690
▁जगदीश	-9691
▁सहायक	-9692
न्यायाल	-9693
▁अॅमिकस	-9694
▁डिग्री	-9695
▁ड्युटी	-9696
▁परिश्रम	-9697
▁बदल्यात	-9698
▁वाक्यांश	-9699
▁सोयीस्कर	-9700
▁राहण्यासाठी	-9701
▁यांच्यासमवेत	-9702
मज	-9703
टेज	-9704
पोष	-9705
ोन्	-9706
निधी	-9707
्युफ	-9708
मंत्र	-9709
▁एलजी	-9710
▁काडत	-9711
▁साली	-9712
अनुदान	-9713
▁वापरत	-9714
▁करायचा	-9715
▁जागरूक	-9716
▁वाढवून	-9717
▁लाभार्थ	-9718
▁घडलेल्या	-9719
▁शुल्काची	-9720
▁मूल्याच्या	-9721
▁पीडब्ल्यूएस	-9722
▁प्रयत्नांना	-9723
▁प्राधिकरणाची	-9724
टीओ	-9725
डीत	-9726
र्दी	-9727
▁एएम	-9728
▁ताज	-9729
▁भाज	-9730
▁म्यु	-9731
▁असणार	-9732
▁कालबा	-9733
▁निदान	-9734
ेपर्यंत	-9735
▁अटींचा	-9736
▁चालविली	-9737
▁मालकाने	-9738
▁बोर्डाच्या	-9739
▁समाप्तीनंतर	-9740
फळ	-9741
▁दल	-9742
सागर	-9743
ेशनल	-9744
▁जलद	-9745
▁गोयल	-9746
▁चंदी	-9747
स्थाना	-9748
▁जोडणे	-9749
▁पॉईंट	-9750
▁एज्युक	-9751
▁महागाई	-9752
▁रूग्णाल	-9753
▁अनुज्ञेय	-9754
▁कालबाह्य	-9755
▁अपार्टमेंट	-9756
▁भाडेकरूंनी	-9757
▁तरतूदीनुसार	-9758
▁न्यायालयाला	-9759
▁पहिल्यांदाच	-9760
▁जाण्यापूर्वी	-9761
▁व्यक्तींसाठी	-9762
कीत	-9763
बाद	-9764
▁-.	-9765
द्री	-9766
भावी	-9767
▁झाडे	-9768
▁वेणु	-9769
▁स्टी	-9770
ट्याने	-9771
यापुढे	-9772
▁मिळवू	-9773
▁गहाणखत	-9774
▁सुचवले	-9775
▁राज्यास	-9776
▁समर्थित	-9777
▁अविभाजित	-9778
▁गोष्टीचा	-9779
▁प्रिव्हि	-9780
▁कायदेविषयक	-9781
▁तरतुदींद्वारे	-9782
▁वज	-9783
▁घरा	-9784
▁रेस	-9785
ाखाली	-9786
▁असमा	-9787
▁कक्ष	-9788
▁गिरी	-9789
▁निकट	-9790
थॉरिटी	-9791
▁आयबिड	-9792
▁दोनदा	-9793
▁सामान	-9794
द्वितीय	-9795
नांसाठी	-9796
▁पुढच्या	-9797
▁संशयाचा	-9798
्युफॅक्चर	-9799
▁घटनापीठाने	-9800
▁सार्वभौमत्	-9801
▁योग्यप्रकारे	-9802
ॅप	-9803
वादन	-9804
शैली	-9805
▁एटी	-9806
▁दूध	-9807
काकडे	-9808
लायंट	-9809
▁अडथळे	-9810
▁आधीची	-9811
▁घेणार	-9812
▁नसावे	-9813
▁मार्क	-9814
▁मॅक्स	-9815
▁लगेचच	-9816
▁दुप्पट	-9817
▁सिंघवी	-9818
▁चौकशीचे	-9819
▁ड्राफ्ट	-9820
▁कामासाठी	-9821
▁नसल्याची	-9822
▁कामकाजाचा	-9823
▁कामांच्या	-9824
▁त्रासदायक	-9825
▁विचारांवर	-9826
▁संभाव्यता	-9827
▁इत्यादींचा	-9828
▁कायद्यांचा	-9829
▁ठरल्यामुळे	-9830
▁नौ	-9831
एनजी	-9832
वरही	-9833
▁जाळ	-9834
▁सिल	-9835
ानुभू	-9836
ामधील	-9837
▁कपूर	-9838
▁ध्ये	-9839
▁फरार	-9840
विताना	-9841
▁पसंती	-9842
▁भाडेकर	-9843
▁अभिवादन	-9844
▁उत्तरात	-9845
▁घटकांना	-9846
▁चौकशीचा	-9847
▁तपासणीत	-9848
▁मागितला	-9849
▁अर्जदाराला	-9850
▁क्षेत्रांमध्ये	-9851
यॉ	-9852
ळीस	-9853
जमीन	-9854
▁उभी	-9855
▁गंग	-9856
क्साड	-9857
मुख्य	-9858
▁औषधी	-9859
▁कॉमन	-9860
विक्री	-9861
▁वाढली	-9862
न्सच्या	-9863
▁ब्युरो	-9864
▁विधिवत	-9865
▁स्वभाव	-9866
ण्यामुळे	-9867
▁अतिरेकी	-9868
▁कराच्या	-9869
▁क्रौर्य	-9870
▁मिळविली	-9871
▁वागणुकी	-9872
▁अनुपस्थित	-9873
▁सर्वसामान	-9874
▁ठरविण्याचा	-9875
▁यंत्रसामग्री	-9876
▁राष्ट्रपतींचे	-9877
▁स्पष्टीकरणात्मक	-9878
क्झ	-9879
टका	-9880
णेश	-9881
नेड	-9882
ट्टी	-9883
▁भावी	-9884
सामान्य	-9885
▁मालवाह	-9886
▁संबद्ध	-9887
▁कारवाईस	-9888
▁मुद्दाम	-9889
▁लोकांनी	-9890
▁सहानुभू	-9891
▁झाल्याची	-9892
▁एकमेकांना	-9893
▁ग्रामपंचाय	-9894
▁वस्तुनिष्ठ	-9895
▁घटनेअंतर्गत	-9896
▁परिस्थितीशी	-9897
पुल	-9898
ियर	-9899
▁घुस	-9900
▁झाड	-9901
▁रवि	-9902
▁राणी	-9903
▁सीपी	-9904
▁वाचून	-9905
▁चंदीगड	-9906
▁आरोपीचे	-9907
▁इतरांनी	-9908
▁तोंडावर	-9909
▁अपरिवर्त	-9910
▁विश्वासू	-9911
▁शिक्षेचे	-9912
▁नोकरीच्या	-9913
▁स्वायत्तता	-9914
▁प्रक्रियेवर	-9915
▁राष्ट्रपतींकडे	-9916
ॉम	-9917
बाग	-9918
▁कब्	-9919
▁भूग	-9920
▁बाला	-9921
▁चौहान	-9922
ानुवर्ष	-9923
▁चिन्हे	-9924
▁परिचित	-9925
▁वायर्स	-9926
▁अर्ध्या	-9927
▁मिळविणे	-9928
▁प्रतिवादीचे	-9929
खान	-9930
तीन	-9931
▁एसए	-9932
▁विझ	-9933
▁आवडी	-9934
▁त्वर	-9935
▁परिचय	-9936
▁नागपूर	-9937
▁पर्याया	-9938
▁मालकीचे	-9939
▁हक्काचा	-9940
▁करांच्या	-9941
▁माहितीची	-9942
▁अलिकडच्या	-9943
▁प्राथमिकता	-9944
▁विधानसभेने	-9945
▁प्रस्तावावर	-9946
▁संरक्षणाच्या	-9947
▁करणार्यांसाठी	-9948
सहाय	-9949
स्मिक	-9950
▁सूर्य	-9951
▁आजच्या	-9952
▁क्रीडा	-9953
▁नोटिसा	-9954
▁लोकहित	-9955
▁कारखाना	-9956
▁दारूगोळा	-9957
▁अप्रासंगिक	-9958
▁दीर्घकालीन	-9959
▁नोंदविण्यास	-9960
▁शिस्तभंगाची	-9961
फु	-9962
अशा	-9963
वतात	-9964
तेकडे	-9965
▁आणते	-9966
▁उंबर	-9967
▁अनेकदा	-9968
▁महानगर	-9969
▁मिळाले	-9970
▁वर्धित	-9971
▁ऑर्डरचा	-9972
▁क्लायंट	-9973
▁निराधार	-9974
▁पाठविणे	-9975
▁किंमतीची	-9976
▁पूर्वीची	-9977
▁जमिनीच्या	-9978
▁फायद्याचे	-9979
▁मंजुरीसाठी	-9980
▁मुद्द्यावर	-9981
▁काढण्याच्या	-9982
▁वर्षानुवर्ष	-9983
▁सभागृहाच्या	-9984
▁प्राधिकरणाचे	-9985
▁न्यायालयांमधील	-9986
एमटी	-9987
ड्या	-9988
▁आउट	-9989
▁गाय	-9990
एच्या	-9991
▁हरीश	-9992
रीत्या	-9993
▁फिंगर	-9994
▁शाखेत	-9995
▁स्थित	-9996
▁आकर्षक	-9997
▁यूजीसी	-9998
▁सहयोगी	-9999
▁रिपब्लिक	-10000
▁न्यायालयांची	-10001
खोर	-10002
ष्णु	-10003
▁जैव	-10004
▁आपणास	-10005
▁कच्च्या	-10006
▁एमबीबीएस	-10007
▁वापरलेली	-10008
▁पक्षांकडे	-10009
▁ऑर्डरद्वारे	-10010
निवड	-10011
▁एन्	-10012
▁एमए	-10013
▁साळ	-10014
नॅशनल	-10015
▁तिसरे	-10016
▁स्वतःचा	-10017
▁अहवालाची	-10018
▁पक्षपाती	-10019
▁पोस्टमार्	-10020
▁प्रतिस्पर्ध	-10021
▁तत्त्वानुसार	-10022
ंशन	-10023
बदल	-10024
▁थे	-10025
ोरेज	-10026
▁वाव	-10027
सरकार	-10028
▁फोटो	-10029
▁सतीश	-10030
▁टाकली	-10031
▁रिफाय	-10032
▁संकलन	-10033
▁सायकल	-10034
▁बहुमता	-10035
▁संस्कृ	-10036
▁प्रांता	-10037
▁महेंद्र	-10038
▁संक्रमण	-10039
▁आपापल्या	-10040
▁मुलीच्या	-10041
▁लावण्याचा	-10042
▁ट्रिब्यूनलने	-10043
▁व्यक्तींकडून	-10044
▁कर्मचार्यांनी	-10045
ोलॉ	-10046
ल्को	-10047
फोर्ड	-10048
ाकथित	-10049
▁आफ्र	-10050
▁करील	-10051
▁वाचली	-10052
▁सिंगल	-10053
▁सुशील	-10054
▁उपासना	-10055
▁कलाकार	-10056
▁छेडछाड	-10057
▁रोस्टर	-10058
▁स्क्री	-10059
▁तथाकथित	-10060
▁बरखास्त	-10061
▁मागितले	-10062
▁विकल्या	-10063
▁पाण्याचा	-10064
▁पूर्वीचा	-10065
▁सुनावणीची	-10066
▁पॉलिसीच्या	-10067
जिन	-10068
▁अजय	-10069
▁द्रव	-10070
▁कमांड	-10071
▁धमकाव	-10072
▁नेपाळ	-10073
▁यार्ड	-10074
▁सुचवि	-10075
▁स्वभा	-10076
मानुसार	-10077
ांशिवाय	-10078
▁उत्खनन	-10079
▁सरकारांना	-10080
्यांविरूद्ध	-10081
▁दुरुस्तीची	-10082
▁असल्याशिवाय	-10083
▁दरम्यानच्या	-10084
▁पूर्वस्थिती	-10085
▁राज्यांमधील	-10086
▁वर्षानुवर्षे	-10087
▁गुन्ह्याबद्दल	-10088
धू	-10089
िग	-10090
एमओ	-10091
वरण	-10092
ॅमि	-10093
▁एए	-10094
▁आच्छ	-10095
▁ग्रे	-10096
▁लाइन	-10097
ण्याने	-10098
▁फार्म	-10099
▁वेस्ट	-10100
▁घेणारी	-10101
▁निलंबन	-10102
▁पुरातन	-10103
▁भरल्या	-10104
▁आकस्मिक	-10105
▁खर्चाचा	-10106
▁पतीच्या	-10107
▁रोजगारा	-10108
▁हक्काची	-10109
▁नियमांचा	-10110
▁समस्येचे	-10111
▁प्रतीक्षा	-10112
▁वेणुगोपाल	-10113
▁जामिनासाठी	-10114
▁शिक्षेसाठी	-10115
▁पुनरुज्जीवन	-10116
▁निर्देशांच्या	-10117
)]	-10118
मह	-10119
शो	-10120
▁मथ	-10121
▁कॅप्	-10122
▁भव्य	-10123
▁मेंद	-10124
▁उद्यम	-10125
▁ट्रेन	-10126
▁बँकेत	-10127
▁भोगावा	-10128
▁विचारस	-10129
▁स्वारस	-10130
▁दुकानात	-10131
▁फ्रान्स	-10132
▁तमिळनाडू	-10133
▁महिलांना	-10134
▁मालकांनी	-10135
▁टिप्पण्या	-10136
▁ट्रान्सफर	-10137
▁व्यवसायातील	-10138
▁असोसिएशनच्या	-10139
▁ट्रान्सपोर्ट	-10140
▁तपासण्यासाठी	-10141
▁याचिकांमध्ये	-10142
▁व्यवसायासाठी	-10143
▁वस्तुस्थितीची	-10144
▁वाढविण्याच्या	-10145
आयओ	-10146
पक्	-10147
तर्फे	-10148
▁उंचा	-10149
▁पुडु	-10150
पदार्थ	-10151
▁पैशाची	-10152
▁पत्नीला	-10153
▁समित्या	-10154
▁झाल्याचा	-10155
▁प्रक्रिय	-10156
▁उपाध्यक्ष	-10157
▁एक्सएक्सएक्स	-10158
▁भागविण्यासाठी	-10159
ईस	-10160
ापन	-10161
र्जन	-10162
▁मधून	-10163
▁मोहि	-10164
▁ऑटोमो	-10165
▁किनार	-10166
▁कॉलनी	-10167
▁क्लिक	-10168
▁बचावा	-10169
▁विपुल	-10170
विरुध्द	-10171
▁अर्धवट	-10172
▁मिळावा	-10173
▁संतुष्ट	-10174
▁काढण्यास	-10175
▁त्यायोगे	-10176
▁बोर्डाने	-10177
▁लॉर्डशिप	-10178
▁लावण्याची	-10179
▁नाकारण्याचे	-10180
▁परवानगीशिवाय	-10181
▁कार्यालयाच्या	-10182
▁साक्षीदारांचे	-10183
इम	-10184
,,,	-10185
▁धु	-10186
▁जला	-10187
▁स्ल	-10188
उत्तर	-10189
िकेला	-10190
▁डीलर	-10191
▁सीएल	-10192
▁सीमे	-10193
ंत्रिक	-10194
भारतीय	-10195
▁स्मरण	-10196
▁घरातून	-10197
▁सांगते	-10198
▁ग्रॅच्यु	-10199
▁संचालनालय	-10200
▁भाड्याच्या	-10201
▁घालण्यासाठी	-10202
बां	-10203
नाथन	-10204
▁नीति	-10205
▁रिअल	-10206
▁शत्र	-10207
▁केमिक	-10208
▁तेव्ह	-10209
▁वजावट	-10210
▁पध्दती	-10211
▁मायक्रो	-10212
▁अभिप्राय	-10213
▁आसपासच्या	-10214
▁चौकशीसाठी	-10215
▁पद्धतींचा	-10216
▁बाजारपेठे	-10217
▁व्यक्तीकडे	-10218
▁आरक्षणाच्या	-10219
▁खालीलप्रमाणेः	-10220
▁महाविद्यालयात	-10221
हु	-10222
रिट	-10223
्हो	-10224
श्चन	-10225
▁मेल	-10226
▁बेंग	-10227
▁मानस	-10228
पीच्या	-10229
▁किंगड	-10230
▁सुभाष	-10231
ुकीच्या	-10232
▁अनुकरण	-10233
▁गेलेली	-10234
▁शेजारी	-10235
▁उद्भवले	-10236
▁काश्मीर	-10237
▁स्टोरेज	-10238
▁यांत्रिक	-10239
▁सिंगापूर	-10240
ांप्रमाणेच	-10241
▁वापराच्या	-10242
▁सन्मानाने	-10243
▁एंटरप्राइझ	-10244
▁आवश्यकतांचे	-10245
▁पोहोचण्यासाठी	-10246
▁अभिव्यक्तीच्या	-10247
नेला	-10248
वाहर	-10249
लमधील	-10250
विवाह	-10251
▁टाटा	-10252
व्हीसी	-10253
▁रुंदी	-10254
▁अपेक्षे	-10255
▁नेण्यासाठी	-10256
▁कॉम्प्लेक्स	-10257
▁निष्कर्षांवर	-10258
▁व्यक्तीविरूद्ध	-10259
ईने	-10260
▁ओएस	-10261
▁तेव	-10262
द्वार	-10263
▁एलजे	-10264
▁उतारा	-10265
▁ओळखणे	-10266
▁मारले	-10267
▁एकाधिक	-10268
▁कंपनीत	-10269
▁कुरिया	-10270
▁क्वचित	-10271
▁विनिमय	-10272
▁ऑर्डरचे	-10273
▁फेटाळली	-10274
▁वर्षाची	-10275
▁प्रांतीय	-10276
▁शिक्षणाचे	-10277
▁अध्यायातील	-10278
▁मंदिराच्या	-10279
▁अहवालानुसार	-10280
▁गुंतवणूकीची	-10281
▁आयुक्तांच्या	-10282
▁न्यायाधिकरणाचा	-10283
ऑपर	-10284
▁ठे	-10285
ृष्ट	-10286
▁संग	-10287
▁हाड	-10288
नाकडे	-10289
▁चाकू	-10290
▁जर्न	-10291
ण्याशी	-10292
▁जवाहर	-10293
▁स्टेज	-10294
▁कलमाचा	-10295
▁देशाची	-10296
▁रेस्टॉ	-10297
▁विवेका	-10298
▁पुनर्मू	-10299
▁स्वभावा	-10300
▁कन्स्ट्र	-10301
▁एकत्रिकरण	-10302
▁विचारांच्या	-10303
▁सूचनांनुसार	-10304
▁उत्तरदात्याने	-10305
▁गुन्ह्यांच्या	-10306
▁मुद्द्यांवरील	-10307
जनक	-10308
पुढ	-10309
ंदोल	-10310
डीआय	-10311
वराज	-10312
धुनिक	-10313
▁एलआर	-10314
▁ग्लो	-10315
▁वयाचे	-10316
▁वेंकट	-10317
▁केव्ही	-10318
▁सीआरएल	-10319
▁डिपॉझिट	-10320
▁देखभाली	-10321
▁संस्थापक	-10322
▁संस्थेचे	-10323
▁आत्महत्ये	-10324
▁कालावधीची	-10325
▁चाचणीच्या	-10326
ंकर	-10327
▁बारी	-10328
▁अकाली	-10329
▁निवडक	-10330
▁शिथिल	-10331
▁घरातील	-10332
▁फेडरेशन	-10333
▁रुपांतर	-10334
▁संदेशात	-10335
▁घटनेनंतर	-10336
▁रिकव्हरी	-10337
▁निष्क्रीय	-10338
▁ड्रायव्हिंग	-10339
▁निर्णयांमध्ये	-10340
ईआर	-10341
मोट	-10342
निका	-10343
्युलर	-10344
▁आयआय	-10345
▁सिंड	-10346
तेबाबत	-10347
▁जैविक	-10348
▁होतेः	-10349
▁सिंचना	-10350
▁जबरदस्त	-10351
▁प्रत्या	-10352
▁शास्त्र	-10353
ण्यामध्ये	-10354
▁सर्वांनी	-10355
▁इनोव्हेशन	-10356
▁मूलभूतपणे	-10357
▁वाणिज्यिक	-10358
▁अपरिवर्तनीय	-10359
▁संहितेनुसार	-10360
▁डॉक्टरांच्या	-10361
ाजनक	-10362
्रीट	-10363
▁डॉल	-10364
▁भरत	-10365
यॉर्क	-10366
▁टीएन	-10367
▁यावा	-10368
केंद्र	-10369
मॉर्टम	-10370
▁मल्टी	-10371
▁चौकटीत	-10372
▁दुर्गम	-10373
▁अस्वस्थ	-10374
▁हक्काचे	-10375
▁महत्वाचा	-10376
▁महामंडळा	-10377
▁स्वीकारू	-10378
▁मागासवर्गीय	-10379
▁विधिमंडळाचा	-10380
▁करण्यासंदर्भात	-10381
ंटल	-10382
वर्ण	-10383
▁एफओ	-10384
▁मूर्त	-10385
▁करायला	-10386
▁गमावला	-10387
▁फसव्या	-10388
▁रोजीची	-10389
▁संप्रदा	-10390
▁तत्त्वाच्या	-10391
▁प्रस्तावाला	-10392
▁चालविण्यासाठी	-10393
नु	-10394
टीए	-10395
पदी	-10396
बंदी	-10397
िफोन	-10398
स्त्री	-10399
▁कब्जा	-10400
▁शिकलो	-10401
▁सशर्त	-10402
▁अस्थिर	-10403
▁मिश्रण	-10404
अनुदानित	-10405
▁असतांना	-10406
▁धोरणाचे	-10407
▁रवींद्र	-10408
▁आकांक्षा	-10409
▁एनडीपीएस	-10410
▁मतदानाचा	-10411
▁उद्योगाच्या	-10412
▁टाकण्याच्या	-10413
▁पोस्टमार्टम	-10414
▁प्रमाणपत्रे	-10415
▁गुंतवणूकीसाठी	-10416
▁न्यायाधिकरणास	-10417
▁भाडेपट्टीच्या	-10418
▁लोकसंख्येच्या	-10419
▁सोडविण्यासाठी	-10420
▁पुनरावलोकनाच्या	-10421
काल	-10422
शीट	-10423
घाती	-10424
ेखील	-10425
▁इन्श	-10426
▁जवळचे	-10427
▁जातीय	-10428
▁विलीन	-10429
▁खेळाडू	-10430
▁तपासली	-10431
▁नागरिका	-10432
▁सध्याचा	-10433
▁विकासाचे	-10434
▁कारणामुळे	-10435
▁रेस्टॉरंट	-10436
▁घेतल्याबद्दल	-10437
▁]	-10438
दूर	-10439
ैया	-10440
▁तिर	-10441
वेळेस	-10442
पासूनच	-10443
▁बदलणे	-10444
▁मिल्स	-10445
्यावरील	-10446
▁अटकेचा	-10447
▁कॅपिटल	-10448
वैयक्तिक	-10449
▁आयोगाला	-10450
▁उपराज्य	-10451
▁दिल्लीत	-10452
▁निकृष्ट	-10453
▁निवडीच्या	-10454
▁सुरूवातीस	-10455
▁पूर्वसूचना	-10456
▁पाहिल्याप्रमाणे	-10457
खू	-10458
ोडा	-10459
.0.0	-10460
▁अंब	-10461
▁अलि	-10462
▁बेश	-10463
ाराला	-10464
▁आंदोल	-10465
▁दुर्ल	-10466
▁नसावी	-10467
▁साठवण	-10468
स्टोपेल	-10469
▁अनुभवी	-10470
▁ठरल्या	-10471
▁आस्थापन	-10472
▁टेलिफोन	-10473
▁मान्यवर	-10474
▁ख्रिश्चन	-10475
▁ठेवल्यास	-10476
▁अपघाताच्या	-10477
▁तारखेपूर्वी	-10478
▁माहितीनुसार	-10479
▁आकारण्याच्या	-10480
▁मृत्यूदंडाची	-10481
लंड	-10482
क्सी	-10483
लोकन	-10484
वायचे	-10485
▁ताकद	-10486
▁बहाद	-10487
▁बिगर	-10488
क्शनरी	-10489
▁ओडिशा	-10490
▁पावत्या	-10491
▁स्थिरता	-10492
▁संदर्भही	-10493
▁घटनांच्या	-10494
▁घालण्याची	-10495
▁व्यापकपणे	-10496
▁सदस्यांचे	-10497
▁जोडण्यासाठी	-10498
घर	-10499
िव	-10500
शाख	-10501
रियन	-10502
ल्टर	-10503
▁तंत	-10504
▁पोह	-10505
▁मुस	-10506
▁क्षमा	-10507
▁प्रवी	-10508
▁फील्ड	-10509
▁इन्शुर	-10510
▁संवर्ध	-10511
▁आत्मसात	-10512
▁दक्षिणे	-10513
▁वाचल्या	-10514
▁समवर्ती	-10515
▁एकट्याने	-10516
▁मुदतीनंतर	-10517
▁ऐकल्यानंतर	-10518
▁गुन्ह्यांची	-10519
▁विनाअनुदानित	-10520
▁वस्तुस्थितीचे	-10521
इतर	-10522
झील	-10523
मेट	-10524
रेन	-10525
▁बाट	-10526
▁मटे	-10527
▁अँटी	-10528
▁एमएल	-10529
दृष्टी	-10530
सीआरएल	-10531
▁घातले	-10532
▁जनावर	-10533
मोहम्मद	-10534
वण्याची	-10535
▁सेवेचे	-10536
आकाशवाणी	-10537
▁चौकशीची	-10538
▁त्वरेने	-10539
▁निधीतून	-10540
▁ब्रिटिश	-10541
▁लॉर्ड्स	-10542
प्रतिनिधी	-10543
▁आणण्याचे	-10544
▁पत्राच्या	-10545
▁येईपर्यंत	-10546
▁प्रस्तावना	-10547
▁यांच्यासमोर	-10548
▁स्थापनेसाठी	-10549
▁स्त्रोतांकडून	-10550
परा	-10551
सरा	-10552
हीण	-10553
्डा	-10554
▁जस	-10555
य्या	-10556
शन्स	-10557
्युट	-10558
▁मेन	-10559
ेसाठी	-10560
▁सीआय	-10561
▁चांदी	-10562
▁ध्वनी	-10563
▁नसावा	-10564
▁मनोरंज	-10565
▁आणण्यात	-10566
▁संचालित	-10567
▁सेवांचा	-10568
▁अमेरिकेत	-10569
▁आठवड्यात	-10570
▁अर्जदारास	-10571
▁मुलांसाठी	-10572
▁गेल्यानंतर	-10573
▁कामगिरीसाठी	-10574
▁गुंतवणूकीचे	-10575
▁बनविण्यासाठी	-10576
▁निर्धारकाच्या	-10577
▁दम	-10578
ळाशी	-10579
स्ते	-10580
क्सॅड	-10581
स्टोन	-10582
▁बंधु	-10583
▁बच्च	-10584
▁लेटर	-10585
▁सांड	-10586
र्शियल	-10587
▁आत्मा	-10588
▁कच्चा	-10589
▁मनाची	-10590
▁मुलीला	-10591
▁गर्भवती	-10592
▁मुदतीची	-10593
▁दिवसांची	-10594
▁येण्याची	-10595
गुन्हेगारी	-10596
▁न्यूयॉर्क	-10597
▁सेक्रेटरी	-10598
▁त्याच्याशी	-10599
▁दुरुस्तीचा	-10600
▁कबुलीजबाबात	-10601
▁शब्दांमध्ये	-10602
पीओ	-10603
▁डीओ	-10604
▁यूएसए	-10605
▁शॉर्ट	-10606
▁समजला	-10607
व्यवसाय	-10608
▁सुब्रमण	-10609
▁मदतीसाठी	-10610
▁वकिलांना	-10611
▁कामगिरीचा	-10612
▁चिडलेल्या	-10613
▁स्टेटमेंट	-10614
▁तज्ञांच्या	-10615
▁स्पेक्ट्रम	-10616
▁प्राधिकरणाकडून	-10617
▁इको	-10618
▁आरपी	-10619
▁पराभव	-10620
▁वाढती	-10621
▁साळवे	-10622
▁अखंडता	-10623
▁एनसीएल	-10624
▁रणनीती	-10625
▁रिसर्च	-10626
▁सीसीआय	-10627
्याबद्दल	-10628
स्ट्रक्चर	-10629
▁करारनामा	-10630
▁जातीच्या	-10631
▁डिक्शनरी	-10632
▁प्रक्षेप	-10633
▁रुग्णाला	-10634
▁व्याजासह	-10635
▁प्रतिसादा	-10636
▁राधाकृष्णन	-10637
परी	-10638
शाळ	-10639
्मण	-10640
ज्यु	-10641
यावत	-10642
सिडे	-10643
▁बहीण	-10644
▁मादक	-10645
▁वाळू	-10646
▁सेल्	-10647
मतवादी	-10648
▁तेलंग	-10649
▁नाराज	-10650
▁लागली	-10651
▁सीलबंद	-10652
▁सेक्टर	-10653
▁नर्सिंग	-10654
▁पत्नीने	-10655
▁सुसंवाद	-10656
▁सदस्याला	-10657
▁वेबसाइटवर	-10658
▁अर्थसंकल्प	-10659
▁निकालानंतर	-10660
▁प्रतिनियुक्ती	-10661
▁राज्यघटनेनुसार	-10662
,.	-10663
अधि	-10664
गंज	-10665
धीर	-10666
ोडी	-10667
पयोग	-10668
लाइट	-10669
▁सोय	-10670
पुढील	-10671
▁टॉवर	-10672
▁अस्वी	-10673
▁इब्रा	-10674
दारांना	-10675
▁एफएसएल	-10676
▁गमावले	-10677
▁तंदुरु	-10678
▁नाकारू	-10679
▁संज्ञेय	-10680
▁अद्ययावत	-10681
▁अशक्तपणा	-10682
▁एकाचवेळी	-10683
▁जागेसाठी	-10684
▁दृढनिश्चय	-10685
▁संस्थांची	-10686
▁गुन्ह्यातील	-10687
▁निर्णयांच्या	-10688
▁मॅन्युफॅक्चर	-10689
▁विवेकबुद्धीचा	-10690
चरल	-10691
शब्	-10692
पोषण	-10693
▁हेल	-10694
तर्फी	-10695
ेट्टी	-10696
▁गणेश	-10697
▁मिसळ	-10698
▁मुळी	-10699
▁ठरतात	-10700
▁पाडणे	-10701
▁वाचणे	-10702
▁स्कॅन	-10703
▁दंडाची	-10704
▁वैधतेवर	-10705
▁श्रीमंत	-10706
▁इन्शुरन्स	-10707
▁अधिकारांची	-10708
लाइ	-10709
बीटी	-10710
▁उशी	-10711
▁पद्	-10712
भापती	-10713
▁घातक	-10714
▁येणे	-10715
▁सज्ज	-10716
▁पंडित	-10717
▁पकडले	-10718
▁ब्रँड	-10719
▁निश्चय	-10720
▁मृताने	-10721
▁वेळाने	-10722
▁आणण्यास	-10723
▁खाणपट्टे	-10724
▁निर्मूलन	-10725
▁देशभरातील	-10726
▁वापरण्यात	-10727
▁प्रक्रियेतील	-10728
▁विद्यापीठाचे	-10729
▁प्रतिवादीद्वारे	-10730
भूल	-10731
्रु	-10732
▁चौथा	-10733
▁ठरतो	-10734
▁प्लॅट	-10735
▁राखणे	-10736
▁जाताना	-10737
▁व्यर्थ	-10738
▁गुंतलेला	-10739
▁जीवनशैली	-10740
▁बिल्डिंग	-10741
▁दर्शविणारी	-10742
▁निर्णयावरून	-10743
▁गोष्टींबद्दल	-10744
भो	-10745
यो	-10746
ट्टा	-10747
पॅरा	-10748
बांध	-10749
▁पूर	-10750
▁मत्	-10751
पुरती	-10752
▁पाठी	-10753
▁पिके	-10754
▁रामा	-10755
ंद्रिय	-10756
प्रिंट	-10757
▁पुत्र	-10758
▁लावता	-10759
्यूनंतर	-10760
▁काळ्या	-10761
▁दागिने	-10762
▁प्रवीण	-10763
▁लोकसभा	-10764
वासाच्या	-10765
्यांपैकी	-10766
▁कायद्यावर	-10767
▁क्षमतेच्या	-10768
▁पालकांच्या	-10769
▁मृत्यूनंतर	-10770
▁वास्तविकता	-10771
▁सुरक्षितता	-10772
▁वस्तूंमध्ये	-10773
▁गुंतवणूकदारांना	-10774
▁एव	-10775
▁यो	-10776
▁अजे	-10777
शिप्स	-10778
ोपचार	-10779
▁तिरु	-10780
▁लहरी	-10781
▁सय्य	-10782
▁सलीम	-10783
▁करूया	-10784
व्याच्या	-10785
▁खासकरुन	-10786
▁दिशाभूल	-10787
▁फेटाळला	-10788
▁विमाधार	-10789
▁अनुदानित	-10790
▁आयुष्यात	-10791
▁उत्पत्ती	-10792
▁बेंगळुरू	-10793
▁राहिल्यास	-10794
▁लिमिटेडने	-10795
▁तत्त्वांवर	-10796
▁निर्देशांक	-10797
▁स्वीकारलेल्या	-10798
ध्	-10799
सद	-10800
एनआर	-10801
ूहळू	-10802
▁धरम	-10803
▁हॉल	-10804
▁क्षु	-10805
एलच्या	-10806
हिष्णु	-10807
▁राहते	-10808
▁लपवून	-10809
बाहेरील	-10810
▁अपील्स	-10811
▁बँकेला	-10812
▁एकतर्फी	-10813
▁कमिशनने	-10814
▁मटेरियल	-10815
▁संसदेचे	-10816
▁दुरुपयोग	-10817
▁नमुन्यात	-10818
▁ठरविण्यास	-10819
▁पत्नीच्या	-10820
▁संप्रेषणा	-10821
▁लेखापरीक्षण	-10822
▁लेनदारांच्या	-10823
▁विवेकबुद्धीने	-10824
गट	-10825
भरा	-10826
टिया	-10827
▁.....	-10828
▁टाकून	-10829
▁ध्येय	-10830
स्थापना	-10831
▁हळूहळू	-10832
▁अतुलनीय	-10833
▁अधिग्रह	-10834
▁आव्हाना	-10835
▁पदावरून	-10836
▁संबंधीत	-10837
▁चार्टर्ड	-10838
▁सामग्रीचे	-10839
▁अत्याधुनिक	-10840
▁अपील्समध्ये	-10841
▁चालविण्याचा	-10842
▁अल्पसंख्यांक	-10843
▁तक्रारदाराला	-10844
बू	-10845
▁अंज	-10846
▁टेक	-10847
▁फिट	-10848
▁लसी	-10849
▁विर	-10850
न्याय	-10851
▁एकता	-10852
▁मुळीच	-10853
ामार्फत	-10854
▁चर्चेत	-10855
▁पोर्टल	-10856
▁ब्रह्म	-10857
▁असमानता	-10858
▁प्रायोज	-10859
▁मार्जिन	-10860
▁आच्छादित	-10861
▁भागासाठी	-10862
▁मतदारसंघ	-10863
कलमांतर्गत	-10864
▁निर्धारणास	-10865
▁पीडितेच्या	-10866
▁रिलायन्सला	-10867
▁विधानसभेची	-10868
▁ज्याप्रमाणे	-10869
▁देण्याकरिता	-10870
▁निर्णयाबद्दल	-10871
▁त्याच्याविरूद्ध	-10872
कडी	-10873
यंकर	-10874
रचना	-10875
▁कैद	-10876
ळीच्या	-10877
▁बोलणे	-10878
▁सरदार	-10879
▁आकारणे	-10880
▁कायमचे	-10881
करणाच्या	-10882
▁कामकाजा	-10883
▁सचिवालय	-10884
▁विधेयकात	-10885
▁मिळवलेल्या	-10886
▁विधिमंडळात	-10887
▁यंत्रणेच्या	-10888
ेली	-10889
▁तट	-10890
टीएस	-10891
▁चालत	-10892
▁शंभर	-10893
हाराची	-10894
▁भयंकर	-10895
▁लिपिक	-10896
▁सावकार	-10897
▁दाव्याचा	-10898
▁नव्हत्या	-10899
▁किशोरवयीन	-10900
▁तंदुरुस्त	-10901
▁प्लास्टिक	-10902
▁सांगण्यास	-10903
▁क्षेत्रावर	-10904
▁ठोठावलेल्या	-10905
▁प्रदेशाच्या	-10906
ँग	-10907
आउट	-10908
वर्	-10909
▁'(	-10910
लिया	-10911
ष्कार	-10912
▁ध्या	-10913
▁मनोज	-10914
▁यूएन	-10915
▁राईट	-10916
लीच्या	-10917
▁शिकला	-10918
▁संपली	-10919
विज्ञान	-10920
▁करमणूक	-10921
▁विचलित	-10922
▁संचालन	-10923
▁पाचव्या	-10924
▁पीठासीन	-10925
▁आदेशांचे	-10926
▁आस्थापना	-10927
▁इब्राहिम	-10928
▁सोयीसाठी	-10929
▁एक्सप्रेस	-10930
▁जनहितार्थ	-10931
अपीलकर्त्या	-10932
▁सुचविलेल्या	-10933
▁कायद्यामध्ये	-10934
▁सरन्यायाधीशांनी	-10935
जसे	-10936
तुल	-10937
ोपा	-10938
काठी	-10939
▁उधळ	-10940
▁एएफ	-10941
▁जादा	-10942
▁मासे	-10943
▁सीडी	-10944
▁टाळता	-10945
▁निभाव	-10946
▁बच्चन	-10947
▁भेदभा	-10948
▁मूर्ख	-10949
▁जणांना	-10950
▁तपासात	-10951
▁परिपक्	-10952
▁प्रताप	-10953
▁स्थगित	-10954
▁अपिलाला	-10955
▁साक्षरता	-10956
▁घातलेल्या	-10957
▁सामान्यतः	-10958
▁दिवसापासून	-10959
▁अंमलबजावणीस	-10960
ांद	-10961
▁झु	-10962
▁डु	-10963
तक्र	-10964
राला	-10965
ेटेड	-10966
▁कैदी	-10967
▁साहू	-10968
▁पटवून	-10969
▁सय्यद	-10970
ण्यातील	-10971
▁भावनिक	-10972
▁समांतर	-10973
▁सांडपा	-10974
▁सापडली	-10975
▁हल्लेख	-10976
▁अलीकडेच	-10977
▁आव्हाने	-10978
▁काडतुसे	-10979
▁गैरवर्त	-10980
▁जीवनाचे	-10981
वण्याच्या	-10982
▁अधिकारास	-10983
▁रिफायनरी	-10984
▁लेखाच्या	-10985
▁समितीकडे	-10986
▁जीवनाच्या	-10987
▁उद्भवल्यास	-10988
▁प्रासंगिकता	-10989
▁मसुद्याच्या	-10990
▁उत्तराधिकारी	-10991
▁उत्पादनासाठी	-10992
▁एजन्सीद्वारे	-10993
▁न्यायव्यवस्था	-10994
रम	-10995
सक	-10996
रिफ	-10997
हेब	-10998
▁सच	-10999
ार्द	-11000
▁टीम	-11001
▁पंप	-11002
▁बजा	-11003
▁अवयव	-11004
▁चाला	-11005
▁थॉमस	-11006
▁दुवे	-11007
▁बोलत	-11008
दाराला	-11009
परिषदे	-11010
▁उत्कट	-11011
▁एएसजी	-11012
▁प्रथे	-11013
▁प्रिय	-11014
▁प्रोट	-11015
वार्षिक	-11016
▁उभारणी	-11017
▁हाताने	-11018
▁अभियोगी	-11019
▁एनआयओएस	-11020
▁जोडलेली	-11021
▁नरेंद्र	-11022
▁भरतीसाठी	-11023
▁तत्वज्ञान	-11024
▁दर्शविलेले	-11025
▁पर्यवेक्षण	-11026
▁तात्पुरत्या	-11027
▁निवासस्थानी	-11028
▁प्रश्नावरील	-11029
▁करण्यासंबंधी	-11030
तोल	-11031
▁ओढ	-11032
एलने	-11033
▁आणी	-11034
▁धवन	-11035
नियमन	-11036
▁आयबी	-11037
▁ट्यू	-11038
▁इस्ला	-11039
▁कम्यु	-11040
▁पावसा	-11041
▁बद्दल	-11042
▁संपाद	-11043
▁अमूर्त	-11044
▁बजावते	-11045
▁बदनामी	-11046
▁सुवर्ण	-11047
▁अधिसूचन	-11048
▁पक्षाची	-11049
▁बुद्धिम	-11050
▁स्वरुपाचे	-11051
▁वापरण्याची	-11052
▁संभोगाच्या	-11053
▁देखरेखीसाठी	-11054
▁दुरुस्तीसाठी	-11055
जात	-11056
▁चढ	-11057
बाईल	-11058
यांश	-11059
▁नरस	-11060
▁भूक	-11061
ंबद्ध	-11062
▁अवयवा	-11063
▁दहावी	-11064
▁करारास	-11065
▁डिव्हा	-11066
▁बाळगणे	-11067
्यांवरील	-11068
▁अन्सारी	-11069
▁मुलांचे	-11070
▁त्यावरून	-11071
▁परिणामां	-11072
▁भागधारकांना	-11073
▁विचारलेल्या	-11074
▁प्रस्तावाच्या	-11075
▁महिन्यांपेक्षा	-11076
िशन	-11077
▁उर	-11078
▁सव	-11079
भाषण	-11080
▁डिट	-11081
▁“..	-11082
▁बाँड	-11083
▁रोखू	-11084
▁खातून	-11085
▁दर्शन	-11086
▁भोपाळ	-11087
▁मूत्र	-11088
ारासाठी	-11089
▁उलाढाल	-11090
▁कुलपती	-11091
▁गुंतले	-11092
▁दुकाने	-11093
▁भरल्यास	-11094
▁एज्युकेशन	-11095
▁प्रश्नाची	-11096
▁सामग्रीची	-11097
▁कौन्सिलच्या	-11098
▁मिळण्यासाठी	-11099
▁प्राधिकरणाला	-11100
राव	-11101
मोहन	-11102
▁एसई	-11103
▁तेज	-11104
दारास	-11105
ापुढे	-11106
▁आणता	-11107
▁तरूण	-11108
चित्रे	-11109
नमध्ये	-11110
व्हरेज	-11111
स्त्रा	-11112
ंपर्यंत	-11113
▁वसाहती	-11114
▁व्हावे	-11115
▁आठवड्या	-11116
▁लावताना	-11117
▁परिषदेने	-11118
▁वर्षांहून	-11119
▁सहानुभूती	-11120
▁उमेदवारांनी	-11121
▁कायदेशीरपणा	-11122
▁निकालाद्वारे	-11123
▁नाकारण्यासाठी	-11124
खाद	-11125
खिक	-11126
जून	-11127
क्ला	-11128
न्नी	-11129
▁टोक	-11130
कार्ड	-11131
▁एसआर	-11132
नावरील	-11133
▁टाळले	-11134
▁दुग्ध	-11135
▁समाकल	-11136
स्पेक्टर	-11137
▁भांडवला	-11138
▁अविश्वास	-11139
▁करारातील	-11140
▁हल्लेखोर	-11141
▁ग्रॅच्युइ	-11142
▁प्रॅक्टिस	-11143
▁आदेशांच्या	-11144
▁प्रकरणांवर	-11145
▁प्रयोगशाळा	-11146
▁विरोधाभासी	-11147
▁कामगिरीच्या	-11148
▁वर्तमानपत्र	-11149
▁महाविद्यालयाने	-11150
▁सांगितल्यानुसार	-11151
▁सीआरपीसीअंतर्गत	-11152
िंड	-11153
▁शौ	-11154
शासन	-11155
िकेत	-11156
ृश्य	-11157
ोतंत	-11158
▁डोके	-11159
▁सौदा	-11160
रोजगार	-11161
▁उघडले	-11162
▁वाढेल	-11163
▁अखत्या	-11164
▁धोरणात	-11165
▁योजनेस	-11166
▁वाढवते	-11167
▁तंतोतंत	-11168
▁धर्माचा	-11169
▁पैशांची	-11170
▁दाव्याची	-11171
▁कार्यकाळात	-11172
▁कार्यवाहीची	-11173
▁पद्धतीनुसार	-11174
▁दिवसांपेक्षा	-11175
▁स्वातंत्र्याचे	-11176
त्स	-11177
ायचा	-11178
▁अनौ	-11179
▁रघु	-11180
वायला	-11181
ांजली	-11182
▁पाटणा	-11183
▁स्क्र	-11184
▁देशाचे	-11185
▁असंबद्ध	-11186
▁ठेवलेला	-11187
▁तुलनेने	-11188
▁उपसभापती	-11189
▁शोधण्यात	-11190
▁बेकायदेशीरपणा	-11191
▁सदस्यांद्वारे	-11192
ईएफ	-11193
केव	-11194
जचे	-11195
कक्ष	-11196
ज्या	-11197
▁गरम	-11198
▁डेम	-11199
भाविक	-11200
▁ड्रग	-11201
▁रचला	-11202
▁रोहत	-11203
▁स्टॅ	-11204
ेटिव्ह	-11205
▁दिवाण	-11206
▁प्रमो	-11207
▁वस्ती	-11208
▁अनुवाद	-11209
▁कॅन्टी	-11210
▁गोविंद	-11211
▁प्रशंस	-11212
▁वापरता	-11213
▁जीवनाची	-11214
▁भरण्याचे	-11215
▁वाढीच्या	-11216
▁अधिसूचनेत	-11217
▁त्यानंतरच	-11218
▁त्यापासून	-11219
▁गुणवत्तेचा	-11220
▁फिर्यादीद्वारे	-11221
▁बढ	-11222
सीपी	-11223
ाग्र	-11224
िग्ध	-11225
▁रेख	-11226
▁लॅब	-11227
▁शिष	-11228
णातील	-11229
▁तृती	-11230
▁पीजी	-11231
▁लखनऊ	-11232
▁सीएफ	-11233
इंडिया	-11234
▁जीर्ण	-11235
▁बुलेट	-11236
▁खोट्या	-11237
▁समाप्त	-11238
▁स्पेशल	-11239
▁स्वराज	-11240
▁.......	-11241
▁लक्ष्मण	-11242
▁क्षुल्लक	-11243
▁वेळेच्या	-11244
▁होल्डिंग	-11245
▁अनौपचारिक	-11246
▁खंडपीठाचे	-11247
▁खरेदीसाठी	-11248
▁गर्भधारणा	-11249
▁आधुनिकीकरण	-11250
▁ओळखण्यासाठी	-11251
▁कल्याणासाठी	-11252
▁विचारविनिमय	-11253
▁स्टेशनमध्ये	-11254
▁दुरुस्तीनंतर	-11255
चूड	-11256
नीत	-11257
▁आफ	-11258
▁चॅ	-11259
▁लुट	-11260
प्लिक	-11261
▁घोटा	-11262
▁चौथे	-11263
▁जिंक	-11264
▁जोशी	-11265
▁देसाई	-11266
▁मुलास	-11267
▁नावाचा	-11268
▁रोहतगी	-11269
▁शिपिंग	-11270
्यांमधून	-11271
▁दहाव्या	-11272
▁पंचायती	-11273
▁किलोमीटर	-11274
▁डिव्हाइस	-11275
▁दाव्याचे	-11276
▁निकालाची	-11277
▁संस्थेची	-11278
▁निवासस्थाना	-11279
बड	-11280
]],	-11281
दूत	-11282
संर	-11283
नेशन	-11284
▁वैर	-11285
▁साप	-11286
▁अभिन	-11287
▁ऑर्स	-11288
▁वारा	-11289
▁शैली	-11290
▁सूचक	-11291
ाबरोबर	-11292
▁टाळणे	-11293
▁ब्रॉड	-11294
▁सहावा	-11295
▁सुरवा	-11296
▁कलमाचे	-11297
▁ग्लोबल	-11298
▁रोजीचे	-11299
▁कर्तृत्	-11300
▁गांधीजी	-11301
▁घटनांचा	-11302
▁दलाच्या	-11303
▁पौष्टिक	-11304
▁शपथपत्र	-11305
▁आजपर्यंत	-11306
▁कमर्शियल	-11307
▁बाजूच्या	-11308
▁अभिव्यक्त	-11309
▁इंटरनॅशनल	-11310
▁तरतूदीच्या	-11311
▁भाडेकरूंना	-11312
▁मिळाल्यावर	-11313
▁युनियनच्या	-11314
▁लोकशाहीच्या	-11315
▁गुन्हेगारीचे	-11316
▁गोष्टींमध्ये	-11317
▁साहित्याच्या	-11318
चौ	-11319
ंडे	-11320
बाय	-11321
होल	-11322
▁कव	-11323
त्वे	-11324
बंधक	-11325
▁भया	-11326
▁सेक	-11327
▁सोम	-11328
िलिंग	-11329
▁गुणा	-11330
▁बदलत	-11331
ांखाली	-11332
▁आणीबा	-11333
▁आराखड	-11334
▁इशारा	-11335
▁कारकी	-11336
▁मुकुल	-11337
▁आल्यास	-11338
▁भूगर्भ	-11339
धारकांना	-11340
▁क्वचितच	-11341
▁टर्मिनल	-11342
▁डीडच्या	-11343
▁ऑटोमोबाईल	-11344
▁कायद्याशी	-11345
▁कारभारावर	-11346
▁पाहण्याची	-11347
▁कर्जदाराने	-11348
▁गैरव्यवहार	-11349
▁कारभारासाठी	-11350
▁घेण्यापासून	-11351
▁तत्त्वांनुसार	-11352
▁यांच्याविरूद्ध	-11353
ईपी	-11354
▁दौ	-11355
माईल	-11356
▁असह	-11357
▁बॅन	-11358
▁क्वा	-11359
▁डोळे	-11360
▁दत्त	-11361
▁फ्री	-11362
▁व्हॉ	-11363
जेक्शन	-11364
▁तुळशी	-11365
▁प्रोफ	-11366
▁सोडणे	-11367
व्हेस्ट	-11368
▁अपघाती	-11369
▁मानतात	-11370
▁नोंदवणे	-11371
▁भिन्नता	-11372
▁अभयारण्य	-11373
▁ऑपरेटिंग	-11374
▁संस्थेला	-11375
▁निकालांच्या	-11376
▁पोलिसांकडून	-11377
▁राज्यमंत्री	-11378
▁तुरुंगवासाची	-11379
▁पीडब्ल्यूएक्सएड	-11380
▁कस	-11381
▁रज	-11382
क्ते	-11383
ुकूल	-11384
▁धान	-11385
मजुरी	-11386
▁चुका	-11387
▁वाहक	-11388
▁टेस्ट	-11389
▁समजणे	-11390
स्पेक्ट	-11391
▁अपीलात	-11392
▁मालिका	-11393
▁समकक्ष	-11394
▁समाकलित	-11395
▁तृतीयांश	-11396
▁पुडुचेरी	-11397
▁संघटनेचे	-11398
▁वाटपासाठी	-11399
▁डिक्रीच्या	-11400
▁निवडणुकीच्या	-11401
▁प्रश्नांच्या	-11402
▁मिळाल्याबद्दल	-11403
बाल	-11404
ावण	-11405
व्हॉ	-11406
▁पॉल	-11407
ग्राम	-11408
▁अमित	-11409
▁केबी	-11410
▁चिठ्	-11411
▁पोहच	-11412
▁समतोल	-11413
▁सारखे	-11414
िव्हिटी	-11415
▁गर्भाश	-11416
▁तपशिला	-11417
▁धर्मां	-11418
▁भाषेचा	-11419
▁यंत्रण	-11420
▁रिकामे	-11421
▁यांनाही	-11422
▁स्वयंपा	-11423
▁प्रारंभी	-11424
▁मंत्रालये	-11425
▁समाजासाठी	-11426
▁टेक्नॉलॉजी	-11427
▁लॉर्डशिप्स	-11428
▁सीबीआयच्या	-11429
▁बांधकामासाठी	-11430
▁मिळाल्याच्या	-11431
▁लोकप्रतिनिधी	-11432
▁प्रक्रियेसाठी	-11433
▁आर्थिकदृष्ट्या	-11434
वरच	-11435
नीता	-11436
▁वळण	-11437
श्विक	-11438
▁गावा	-11439
▁जोडप	-11440
▁ड्यू	-11441
▁दरात	-11442
▁बंधू	-11443
▁मिळत	-11444
मासाठी	-11445
वाराची	-11446
▁तुकडा	-11447
▁ब्रिज	-11448
▁मौखिक	-11449
▁वाढते	-11450
▁मोहिमे	-11451
▁लष्करी	-11452
▁विधायी	-11453
▁कव्हरेज	-11454
▁दोषींना	-11455
▁हिरव्या	-11456
कार्यक्षम	-11457
▁गोष्टीची	-11458
▁कारभाराची	-11459
▁मुख्यत्वे	-11460
▁गुणवत्तेची	-11461
▁प्रकरणांचे	-11462
▁वर्षांपर्यंत	-11463
▁प्रतिकारशक्ती	-11464
▁व्यक्तींमध्ये	-11465
दमी	-11466
ध्याप	-11467
विद्य	-11468
▁एनएच	-11469
▁एसबी	-11470
▁धरणे	-11471
▁महत्व	-11472
▁संजीव	-11473
▁हजारो	-11474
▁अचूकता	-11475
▁ठरविली	-11476
▁वाचनातून	-11477
▁.........	-11478
▁जमातीच्या	-11479
▁दिल्लीतील	-11480
▁सल्ल्याचा	-11481
▁उमेदवाराची	-11482
▁त्याचबरोबर	-11483
▁शुल्कासाठी	-11484
▁दर्शविण्यास	-11485
▁पत्रव्यवहार	-11486
▁मिळविण्याचा	-11487
▁वर्षांमध्ये	-11488
▁उपक्रमांच्या	-11489
घळ	-11490
केस	-11491
कर्स	-11492
ेशीम	-11493
▁झेड	-11494
एआयआर	-11495
लेव्ह	-11496
वल्या	-11497
▁शोधू	-11498
▁सायं	-11499
लॉजिकल	-11500
▁जायचे	-11501
▁तुकडे	-11502
▁धर्ती	-11503
▁बदलून	-11504
्यामुळे	-11505
▁कामाचे	-11506
▁कामावर	-11507
▁मत्स्य	-11508
▁येणारा	-11509
▁सद्भाव	-11510
्यापासून	-11511
▁क्रमाने	-11512
▁जीवनमान	-11513
▁सायंकाळी	-11514
▁घोषणेच्या	-11515
▁म्हणण्यात	-11516
▁संबंधांना	-11517
▁कार्यालयीन	-11518
▁संसाधनांचा	-11519
▁सुब्रमण्यम	-11520
▁अपीलांमध्ये	-11521
▁निवेदनाच्या	-11522
▁विनंतीनुसार	-11523
▁बलात्काराच्या	-11524
जाग	-11525
ोदय	-11526
▁टच	-11527
करोग	-11528
▁पुत	-11529
▁मिझ	-11530
▁लबा	-11531
▁आज्ञ	-11532
▁कळले	-11533
▁पुष्प	-11534
ांसमवेत	-11535
▁अनुचित	-11536
▁आंदोलन	-11537
▁निष्ठा	-11538
▁फर्मान	-11539
▁इस्माईल	-11540
▁पगाराची	-11541
▁श्रेणीत	-11542
▁अद्वितीय	-11543
▁आरडीएक्स	-11544
▁अध्यक्षीय	-11545
▁आचारसंहित	-11546
▁उद्दिष्टे	-11547
▁तथ्यांवरून	-11548
▁रूग्णालयात	-11549
▁मालमत्तांच्या	-11550
िझ	-11551
वली	-11552
पुरम	-11553
ैर्य	-11554
▁आशि	-11555
▁खोद	-11556
▁शंक	-11557
▁शार	-11558
मार्ट	-11559
▁ठाणे	-11560
▁महाव	-11561
▁माणस	-11562
▁स्पी	-11563
व्हेंट	-11564
▁पाळला	-11565
तेपासून	-11566
संबंधात	-11567
▁याबाबत	-11568
▁संवादा	-11569
▁सायन्स	-11570
▁सक्तीची	-11571
लोकायुक्त	-11572
▁आयोगाकडे	-11573
▁विक्रीवर	-11574
▁विक्रेते	-11575
▁सुरेंद्र	-11576
▁त्यावेळेस	-11577
▁निविदाकार	-11578
▁बहुपक्षीय	-11579
▁वेतनाच्या	-11580
▁अध्यक्षांनी	-11581
▁पुरस्काराने	-11582
▁स्त्रियांना	-11583
▁कन्स्ट्रक्शन	-11584
▁प्रकल्पांच्या	-11585
::	-11586
च्छे	-11587
ित्स	-11588
▁एलए	-11589
▁बोग	-11590
▁इंडो	-11591
▁उमेश	-11592
▁जंगला	-11593
शिक्षित	-11594
▁नोंदवू	-11595
▁वादीने	-11596
विण्याचे	-11597
्यांबाबत	-11598
▁चालविणे	-11599
▁तथ्यावर	-11600
▁विकासाचा	-11601
▁सांगायला	-11602
राष्ट्रपती	-11603
▁प्रदेशच्या	-11604
▁निर्मितीसाठी	-11605
▁उत्पन्नामध्ये	-11606
कॉन	-11607
मेड	-11608
क्रा	-11609
नियर	-11610
शब्द	-11611
▁घाब	-11612
▁ज्व	-11613
▁डीए	-11614
▁सिम	-11615
▁सोह	-11616
त्मिक	-11617
▁ईआयए	-11618
▁उष्ण	-11619
▁मेसे	-11620
▁व्यु	-11621
▁अल्को	-11622
▁ओबीसी	-11623
▁कॅम्प	-11624
स्त्राव	-11625
▁दरवाजा	-11626
क्रिप्शन	-11627
▁पक्षाचा	-11628
▁सर्व्हे	-11629
▁सल्लेने	-11630
▁निकालाचे	-11631
▁योजनेतील	-11632
▁सबमिशनचे	-11633
▁साक्षीने	-11634
▁महसूलच्या	-11635
▁लावण्याचे	-11636
▁शिक्षणाचा	-11637
▁हत्येच्या	-11638
▁छायाचित्रे	-11639
▁नाकारण्याचा	-11640
▁सुरक्षेच्या	-11641
▁सीआरपीसीच्या	-11642
ठीत	-11643
▁.,	-11644
▁नॅ	-11645
एलटी	-11646
डब्ल	-11647
भूषण	-11648
▁रत्	-11649
संस्थ	-11650
▁ऐवजी	-11651
▁डीपी	-11652
▁शोधत	-11653
क्रमित	-11654
ल्यांक	-11655
▁डिजिट	-11656
▁मनाचा	-11657
▁विकले	-11658
▁गटातील	-11659
▁दिवंगत	-11660
▁वृत्ती	-11661
▁संभाषण	-11662
▁सांख्य	-11663
▁कोर्टास	-11664
▁व्युत्प	-11665
▁संदिग्ध	-11666
▁हल्ल्या	-11667
▁पद्धतशीर	-11668
▁प्रेक्षक	-11669
▁सेफगार्ड	-11670
▁आरक्षणाची	-11671
▁आयुक्तांना	-11672
▁आरोपांच्या	-11673
▁पर्यवेक्षी	-11674
▁ट्रान्समिशन	-11675
▁देखरेखीखाली	-11676
▁रक्तस्त्राव	-11677
▁सुनावणीनंतर	-11678
सुर	-11679
▁दाल	-11680
▁निम्	-11681
▁पाहत	-11682
कल्पना	-11683
शिक्षण	-11684
▁जावेद	-11685
▁अभियान	-11686
▁आयुर्व	-11687
▁दिवसात	-11688
त्याच्या	-11689
▁कर्करोग	-11690
▁पिशव्या	-11691
▁एस्टोपेल	-11692
▁बजावताना	-11693
▁सदस्यत्व	-11694
▁गर्भधारणे	-11695
▁तथ्यांकडे	-11696
▁मेसर्सच्या	-11697
▁व्यवहाराचे	-11698
▁पोस्टमॉर्टम	-11699
▁वरीलप्रमाणे	-11700
▁ज्येष्ठतेच्या	-11701
▁परिस्थितीमुळे	-11702
जोरी	-11703
ोद्ध	-11704
▁चिर	-11705
▁जेल	-11706
▁पाइ	-11707
तुल्य	-11708
पेक्स	-11709
लेंडर	-11710
▁चिकट	-11711
▁पडेल	-11712
▁भूजल	-11713
▁लावत	-11714
▁कैलास	-11715
▁हस्ते	-11716
▁अटकेची	-11717
▁कॅप्टन	-11718
▁विदेशी	-11719
▁कोनातून	-11720
▁निवडलेले	-11721
▁यंत्रणेत	-11722
न्यायालयीन	-11723
▁तक्रारीचा	-11724
▁फ्रेमवर्क	-11725
▁आकारणीच्या	-11726
▁कायद्यांचे	-11727
▁योजनांच्या	-11728
▁मॅन्युफॅक्चरिंग	-11729
0.0	-11730
ोरा	-11731
पाठी	-11732
▁उमा	-11733
▁हिल	-11734
वडिला	-11735
▁पेशी	-11736
ोन्मुख	-11737
▁त्वचे	-11738
▁भिंती	-11739
▁ठिकाणा	-11740
▁डिमांड	-11741
▁येणारे	-11742
▁गुणाकार	-11743
▁सापेक्ष	-11744
▁जीर्णोद्ध	-11745
▁समितीसमोर	-11746
▁सोसायटीने	-11747
▁किनारपट्टी	-11748
▁पूर्ववर्ती	-11749
▁मंजुरीच्या	-11750
ईएस	-11751
लीस	-11752
सीएस	-11753
▁आळा	-11754
▁कोक	-11755
▁थंड	-11756
▁मुर	-11757
दीर्घ	-11758
▁घाऊक	-11759
▁साधू	-11760
▁तितका	-11761
▁पावला	-11762
▁रेशीम	-11763
▁वृक्ष	-11764
▁समजते	-11765
▁अकादमी	-11766
▁पीआरटी	-11767
▁सिनेमा	-11768
▁समतुल्य	-11769
▁सोडल्यास	-11770
▁तक्रारीचे	-11771
▁नुकसानीची	-11772
▁सक्रियपणे	-11773
ाव्यतिरिक्त	-11774
▁संमतीशिवाय	-11775
▁अंमलबजावणीवर	-11776
घे	-11777
नै	-11778
▁अरव	-11779
▁गळा	-11780
▁मसा	-11781
▁आयएफ	-11782
▁चंदर	-11783
▁जेवण	-11784
▁विनय	-11785
एसएलपी	-11786
▁अनुमत	-11787
▁उघडेल	-11788
▁कंटेन	-11789
▁कागदा	-11790
▁पट्टा	-11791
▁वागणे	-11792
▁यावरून	-11793
▁पक्षांची	-11794
▁प्रमाणेच	-11795
▁घटनास्थळा	-11796
▁प्रकल्पात	-11797
▁मजल्यावरील	-11798
▁मिळवण्याचा	-11799
▁रुग्णाच्या	-11800
▁वर्षांनंतर	-11801
▁युक्तिवादाचे	-11802
▁विभागांमध्ये	-11803
▁पुनर्मूल्यांकन	-11804
बुक	-11805
िले	-11806
वाना	-11807
लिंगी	-11808
▁अब्ज	-11809
▁आठवा	-11810
▁आक्रमण	-11811
▁उत्क्र	-11812
▁डॉलर्स	-11813
▁लक्षणे	-11814
▁शिकवणी	-11815
ळ्याच्या	-11816
▁आल्यावर	-11817
▁पुरविणे	-11818
▁भरपाईचे	-11819
▁मालवाहत	-11820
▁व्हेंचर	-11821
▁शेड्यूल	-11822
▁तरतूदीचा	-11823
▁निधीच्या	-11824
▁सेंद्रिय	-11825
▁कंपनीकडून	-11826
▁घेतल्यावर	-11827
▁कमिशनमध्ये	-11828
▁प्रयोगशाळे	-11829
▁मांडलेल्या	-11830
▁सर्वांसाठी	-11831
▁परिस्थितीचे	-11832
टीची	-11833
्रोप	-11834
▁पूल	-11835
▁फीड	-11836
▁ईशान	-11837
▁एकटे	-11838
▁गहाळ	-11839
▁जनगण	-11840
ुद्दीन	-11841
▁कर्नल	-11842
▁टिकाव	-11843
▁धैर्य	-11844
▁पतीने	-11845
▁भयानक	-11846
▁विषयी	-11847
▁समजली	-11848
ाराच्या	-11849
▁इंट्रा	-11850
▁घटकांवर	-11851
▁आदेशांना	-11852
▁परिभाषेत	-11853
▁पीडितेला	-11854
▁ज्यानुसार	-11855
▁ठिकाणाहून	-11856
▁वर्षाकाठी	-11857
▁क्षेत्राशी	-11858
▁तक्रारींचे	-11859
▁अध्यक्षांच्या	-11860
टेक	-11861
ोवा	-11862
▁कुर	-11863
▁फूड	-11864
▁वया	-11865
▁टिकू	-11866
एक्सॅड	-11867
▁वाढला	-11868
▁संपला	-11869
िव्हिजन	-11870
▁गतिशील	-11871
▁मिळावे	-11872
▁धर्तीवर	-11873
▁चंद्रचूड	-11874
▁जगण्याचा	-11875
▁चौकशीनंतर	-11876
▁मांडण्यात	-11877
▁लादलेल्या	-11878
▁वसुलीसाठी	-11879
▁वातावरणात	-11880
▁नोंदणीच्या	-11881
▁मोटारसायकल	-11882
▁मिळवण्याच्या	-11883
▁संचालकांच्या	-11884
▁अपीलकर्त्याकडून	-11885
रिश	-11886
सेन	-11887
िवाय	-11888
▁खबर	-11889
▁जणू	-11890
नागरी	-11891
▁अमान	-11892
▁करात	-11893
▁थकीत	-11894
▁नारळ	-11895
तक्रार	-11896
विष्टी	-11897
▁एनएसई	-11898
▁दयाळू	-11899
▁नागाल	-11900
▁फटाके	-11901
▁जुळवून	-11902
▁तपासून	-11903
▁तिमाही	-11904
▁पॅकिंग	-11905
▁फेरबदल	-11906
▁अमेरिका	-11907
▁संस्करण	-11908
▁तहसीलदार	-11909
▁निवडणूकी	-11910
▁बर्याचदा	-11911
▁वाटल्यास	-11912
ण्यापेक्षा	-11913
▁उदयोन्मुख	-11914
▁निष्क्रिय	-11915
▁शास्त्रीय	-11916
▁स्वाभाविक	-11917
▁प्रत्येकजण	-11918
▁सदस्याच्या	-11919
▁हिंदुस्तान	-11920
▁गोष्टींच्या	-11921
▁कंत्राटदाराने	-11922
▁कर्मचार्यांची	-11923
दूळ	-11924
▁अण	-11925
▁चर	-11926
जोरा	-11927
्विक	-11928
्सची	-11929
▁निध	-11930
▁पान	-11931
ग्रेड	-11932
बोर्ड	-11933
रियार	-11934
ास्पद	-11935
▁आभार	-11936
▁एसएच	-11937
▁डीडी	-11938
▁सीएस	-11939
▁हुकु	-11940
▁आयसीए	-11941
▁इंजिन	-11942
▁मानणे	-11943
▁एसआरआय	-11944
▁ज्योति	-11945
▁तापमान	-11946
▁नावाची	-11947
▁मूर्ती	-11948
▁घटकांचे	-11949
▁काळाच्या	-11950
▁पुरस्कृत	-11951
▁उपचारासाठी	-11952
▁मिळविण्यास	-11953
▁शब्दांच्या	-11954
▁संचालकांनी	-11955
▁संतापलेल्या	-11956
▁संहितेमध्ये	-11957
▁समाधानासाठी	-11958
▁बनविण्याच्या	-11959
▁न्यायाधीशांशी	-11960
▁राष्ट्रांच्या	-11961
▁मरणासंदर्भातील	-11962
पेट	-11963
बेल	-11964
लिता	-11965
▁फेल	-11966
स्मान	-11967
▁कापड	-11968
▁डिप्	-11969
▁भट्ट	-11970
▁सिक्	-11971
▁उशीरा	-11972
▁जयंती	-11973
▁जवळचा	-11974
▁पाटील	-11975
▁प्लेट	-11976
▁सिग्न	-11977
▁दुजोरा	-11978
▁निष्पाप	-11979
▁बाबींशी	-11980
▁मिळणारे	-11981
▁वापरतात	-11982
▁जवाहरलाल	-11983
▁दाव्याला	-11984
▁परिषदेचे	-11985
▁कोळशाच्या	-11986
▁निवडणुकीत	-11987
▁बाबींसाठी	-11988
▁सभापतींनी	-11989
▁सुसंस्कृत	-11990
▁महिन्यांचा	-11991
▁यांच्याकडून	-11992
▁उद्योगांच्या	-11993
▁प्रमाणपत्रात	-11994
%)	-11995
दो	-11996
ढेच	-11997
▁',	-11998
▁नट	-11999
,,,,	-12000
प्रो	-12001
रिंग	-12002
लमान	-12003
▁फोर	-12004
▁बॅट	-12005
▁एचपी	-12006
▁डिबे	-12007
▁नावी	-12008
▁पिढी	-12009
वांशिक	-12010
सहाय्य	-12011
ाळातील	-12012
▁भूतान	-12013
▁सांगा	-12014
▁स्तरी	-12015
मध्येही	-12016
▁अनुरूप	-12017
▁एचपीसी	-12018
▁कॉर्पस	-12019
▁स्वस्त	-12020
▁ज्यातून	-12021
▁पाठवावे	-12022
▁पुनर्वस	-12023
▁बेशुद्ध	-12024
▁अस्पष्टता	-12025
▁उदाहरणावरून	-12026
▁ऑस्ट्रेलियन	-12027
▁निकालांमध्ये	-12028
▁परवान्यासाठी	-12029
पीक	-12030
विल	-12031
करणे	-12032
नायू	-12033
विधी	-12034
ावणी	-12035
ॅटिक	-12036
▁अप्	-12037
पलाइन	-12038
वर्धन	-12039
▁ज्यू	-12040
▁दीपक	-12041
▁मोदी	-12042
▁अशीही	-12043
ंबरोबरच	-12044
▁आढळतात	-12045
▁एलपीजी	-12046
▁रायपूर	-12047
▁लागवडी	-12048
▁सदस्या	-12049
स्तीच्या	-12050
ाअंतर्गत	-12051
▁अपीलांची	-12052
▁ठरविल्या	-12053
▁मंडळाकडे	-12054
▁सचिवांनी	-12055
▁समजण्यास	-12056
▁देयकासाठी	-12057
▁सुरुवातीस	-12058
▁उदारमतवादी	-12059
▁पाठवलेल्या	-12060
▁करण्यामागील	-12061
▁कर्जदाराच्या	-12062
▁बजावण्याच्या	-12063
▁कायद्यांनुसार	-12064
▁भागधारकांच्या	-12065
ॉय	-12066
एएल	-12067
घोष	-12068
▁अद	-12069
ष्णू	-12070
हारी	-12071
▁एस्	-12072
▁माध	-12073
निर्ण	-12074
▁अजित	-12075
▁जखमे	-12076
▁थोडी	-12077
▁सामु	-12078
▁स्वि	-12079
ाविषयी	-12080
▁आश्रय	-12081
▁घोटाळ	-12082
▁पडतात	-12083
▁बनवले	-12084
▁बातमी	-12085
▁सेन्स	-12086
▁सौम्य	-12087
▁स्टार	-12088
▁तांदूळ	-12089
▁तितकीच	-12090
▁भागाची	-12091
▁महत्वा	-12092
▁मॅनेजर	-12093
▁लोकसेव	-12094
▁व्हावी	-12095
▁सीआयटी	-12096
▁आरोपीवर	-12097
▁कीटकनाश	-12098
▁घटकांची	-12099
▁वस्तुतः	-12100
▁विचारणा	-12101
▁आरोग्यास	-12102
▁कार्यप्र	-12103
▁वादीच्या	-12104
▁उद्भवणारा	-12105
▁पीडितांना	-12106
▁प्रशंसनीय	-12107
▁विचारसरणी	-12108
▁कामकाजासाठी	-12109
▁विवेकाधिकार	-12110
▁सुरक्षितपणे	-12111
▁देण्यासंबंधी	-12112
▁नूतनीकरणाच्या	-12113
▁महाविद्यालयाला	-12114
मूळ	-12115
▁[[	-12116
बर्ट	-12117
हाणी	-12118
ाबाई	-12119
▁कॅट	-12120
▁शिं	-12121
बिंदू	-12122
▁उलगड	-12123
▁नेता	-12124
तावादी	-12125
▁कॅनडा	-12126
▁निरुप	-12127
▁स्मॉल	-12128
▁भरलेले	-12129
▁संहिते	-12130
▁स्क्रि	-12131
▁आधारभूत	-12132
सरकारच्या	-12133
ांदरम्यान	-12134
▁दायित्वा	-12135
▁संवर्गात	-12136
▁कळविण्यात	-12137
▁चाचणीसाठी	-12138
▁मृतांच्या	-12139
▁वीजपुरवठा	-12140
▁टेलिव्हिजन	-12141
▁वाहनांच्या	-12142
▁व्यवहाराची	-12143
▁संरक्षणाचा	-12144
▁हिंदीमध्ये	-12145
▁राज्यघटनेचा	-12146
▁सदस्यांपैकी	-12147
▁टक्क्यांपेक्षा	-12148
खरे	-12149
पोट	-12150
भेत	-12151
▁ऑट	-12152
व्हल	-12153
ुमार	-12154
▁एनई	-12155
कांची	-12156
स्कूल	-12157
▁अपार	-12158
▁नम्र	-12159
▁बाबत	-12160
▁बेगम	-12161
आयव्ही	-12162
फिकेशन	-12163
▁अवशेष	-12164
▁आजीवन	-12165
▁एएसआय	-12166
▁गोल्ड	-12167
▁वाढले	-12168
▁विवरण	-12169
▁इंजिनि	-12170
▁सोप्या	-12171
▁होताना	-12172
▁कौशल्ये	-12173
▁बँकांना	-12174
▁विषयाशी	-12175
▁समाजाचे	-12176
▁अपीलांचा	-12177
▁एमएमडीआर	-12178
▁कारणांचे	-12179
▁त्रिपाठी	-12180
▁सुसंगतता	-12181
▁चारित्र्य	-12182
▁प्राचार्य	-12183
▁वचनबद्धता	-12184
▁आव्हानांना	-12185
▁कंपन्यांचे	-12186
▁पोलिसांकडे	-12187
▁विधानसभेला	-12188
▁संचालकांना	-12189
▁संविधानाचे	-12190
▁आरोग्याच्या	-12191
▁तेव्हापासून	-12192
▁प्रकल्पांना	-12193
▁सामर्थ्याने	-12194
▁स्वरुपाच्या	-12195
▁मुख्याध्यापक	-12196
बाज	-12197
मधे	-12198
▁इस	-12199
फक्त	-12200
▁आलो	-12201
▁कां	-12202
▁मेर	-12203
▁हळू	-12204
▁टाळा	-12205
▁सेवन	-12206
र्निंग	-12207
▁कोणास	-12208
▁बनतात	-12209
▁मिळवा	-12210
▁उलाढाली	-12211
▁तरतुदींशी	-12212
▁त्यामागील	-12213
▁सेवेमध्ये	-12214
▁अप्रामाणिक	-12215
▁गव्हर्नन्स	-12216
▁दुरुस्त्या	-12217
▁लिमिटेडच्या	-12218
▁व्यक्तीसाठी	-12219
▁कागदपत्रांचा	-12220
▁शस्त्रक्रिया	-12221
▁कार्यवाहीसाठी	-12222
▁शिस्तभंगाच्या	-12223
▁हस्तांतरणाच्या	-12224
ालत	-12225
ेतर	-12226
काशी	-12227
ाजवळ	-12228
▁पीई	-12229
▁बिट	-12230
▁उज्ज	-12231
▁जपान	-12232
▁सक्त	-12233
▁गुलाम	-12234
▁गोपाल	-12235
▁पहावे	-12236
▁पाठवा	-12237
▁मल्हो	-12238
▁कृतज्ञ	-12239
▁प्रदीप	-12240
▁स्तरीय	-12241
▁नोकरदार	-12242
▁हाताळणी	-12243
▁पक्षांचा	-12244
▁फ्रॅक्चर	-12245
▁बारमध्ये	-12246
▁संहितेचा	-12247
▁गुणवत्तेत	-12248
▁दोघांनीही	-12249
▁निकालांवर	-12250
▁मागणीसाठी	-12251
▁लोकांकडून	-12252
▁आरोपपत्रात	-12253
▁रहिवाशांना	-12254
▁करणार्यांची	-12255
▁करण्याकरिता	-12256
▁नियमांतर्गत	-12257
▁स्थापनेच्या	-12258
▁व्यवहारासाठी	-12259
ोगा	-12260
चालन	-12261
र्तब	-12262
शंकर	-12263
ॉलिट	-12264
▁ओरड	-12265
▁रतन	-12266
▁समझ	-12267
ोर्तब	-12268
▁गटात	-12269
▁सोनी	-12270
▁एकाने	-12271
▁चालवत	-12272
▁मशिदी	-12273
ोर्टियम	-12274
▁अरविंद	-12275
▁कंटेनर	-12276
▁तपासणे	-12277
▁निधीची	-12278
▁शेवटची	-12279
कर्त्यास	-12280
ांमार्फत	-12281
▁खबरदारी	-12282
▁ठरवताना	-12283
▁शिक्काम	-12284
▁स्टेट्स	-12285
▁आयुर्वेद	-12286
▁कारणांवर	-12287
▁मुख्यालय	-12288
▁टाकण्याची	-12289
▁राज्याकडे	-12290
▁परिस्थितीला	-12291
▁शिक्कामोर्तब	-12292
▁तंत्रज्ञानाची	-12293
लोड	-12294
एखाद	-12295
चिका	-12296
▁अरो	-12297
▁ऑइल	-12298
मुळेच	-12299
▁जुना	-12300
▁दिग्	-12301
▁शहरे	-12302
▁साधा	-12303
▁अटीवर	-12304
▁बळकटी	-12305
▁भवानी	-12306
▁विस्क	-12307
▁साकार	-12308
▁होकार	-12309
कामध्ये	-12310
▁कावेरी	-12311
▁मैदाना	-12312
▁शुक्ला	-12313
▁आर्किटे	-12314
▁कुलसचिव	-12315
▁मालकीचा	-12316
▁वैधतेला	-12317
▁शक्तीची	-12318
▁समाजाला	-12319
▁मुद्यावर	-12320
▁परदेशातील	-12321
▁घटनेद्वारे	-12322
▁नाकारण्यात	-12323
▁नियमानुसार	-12324
▁अनिवार्यपणे	-12325
▁कारभाराच्या	-12326
▁मागण्यासाठी	-12327
▁मोजण्यासाठी	-12328
▁साधण्यासाठी	-12329
▁परिस्थितीतून	-12330
▁अथ	-12331
▁उभ	-12332
▁जज	-12333
काही	-12334
सामी	-12335
▁खते	-12336
▁नील	-12337
बुजून	-12338
▁कॅमे	-12339
▁देशी	-12340
▁पाऊस	-12341
▁येणा	-12342
▁सुपू	-12343
च्युअल	-12344
▁आवृत्	-12345
▁जवळून	-12346
▁तटस्थ	-12347
▁बजावत	-12348
▁लागणार	-12349
पणाबद्दल	-12350
▁आदेशासह	-12351
▁तीव्रता	-12352
▁ध्यानात	-12353
▁मेट्रोप	-12354
▁याचिकेचे	-12355
▁अनुवांशिक	-12356
▁बाजूंच्या	-12357
▁व्यक्तीशी	-12358
▁सुटकेसाठी	-12359
▁स्वरुपाचा	-12360
▁पर्यंतच्या	-12361
▁मालकांच्या	-12362
▁युक्तिवादाने	-12363
▁आरोपींविरोधात	-12364
ठ्ठ	-12365
राय	-12366
▁मधु	-12367
▁मॅक	-12368
▁एस्क	-12369
▁टाकी	-12370
▁पिका	-12371
▁बढती	-12372
▁बीबी	-12373
▁लाइफ	-12374
रात्री	-12375
▁डीम्ड	-12376
▁प्रबळ	-12377
▁बळावर	-12378
▁एमव्ही	-12379
▁प्रोफे	-12380
▁मुलाने	-12381
▁विनवणी	-12382
▁देशभरात	-12383
▁पुरविला	-12384
▁पूर्वनि	-12385
▁प्रशांत	-12386
▁प्रिन्स	-12387
▁मालकाला	-12388
▁रक्ताचे	-12389
ण्यामागील	-12390
▁तरतुदीची	-12391
ण्याद्वारे	-12392
▁आदरपूर्वक	-12393
▁कामकाजाची	-12394
▁पक्षाकडून	-12395
▁राज्यघटनेची	-12396
▁स्थितीबद्दल	-12397
ईक	-12398
क्ल	-12399
लाग	-12400
▁तल	-12401
डीवर	-12402
▁बीच	-12403
काईने	-12404
▁केके	-12405
श्चिती	-12406
▁टेलिक	-12407
▁मानून	-12408
▁मुकेश	-12409
▁तालुका	-12410
▁भोगावी	-12411
▁शिक्का	-12412
परिशिष्ट	-12413
फिर्यादी	-12414
▁काळातील	-12415
▁चाचणीचा	-12416
▁नदीच्या	-12417
▁विभागले	-12418
▁अपीलार्थ	-12419
▁क्रमवारी	-12420
▁त्याबाबत	-12421
▁प्रविष्ट	-12422
▁बारकाईने	-12423
▁म्हणायचे	-12424
▁वरीलपैकी	-12425
▁कर्तव्यावर	-12426
▁शब्दामध्ये	-12427
▁कोर्टामध्ये	-12428
▁अपरिहार्यपणे	-12429
▁याचिकेद्वारे	-12430
▁राज्यसभेच्या	-12431
▁शब्दांद्वारे	-12432
▁अंमलबजावणीनंतर	-12433
ॅग	-12434
स्फ	-12435
▁इम	-12436
ूबाज	-12437
क्लॉज	-12438
▁ईमेल	-12439
▁पर्स	-12440
▁बहुत	-12441
▁रॉयल	-12442
▁लोया	-12443
▁विंग	-12444
▁सूरज	-12445
सारखेच	-12446
▁चेहरा	-12447
▁फास्ट	-12448
▁भगवती	-12449
▁आकर्षण	-12450
▁इस्लाम	-12451
▁रचनेचा	-12452
▁सैन्या	-12453
▁स्नायू	-12454
▁नागालँड	-12455
▁अल्कोहोल	-12456
▁गोष्टीवर	-12457
▁प्रदीर्घ	-12458
▁सोन्याचे	-12459
ण्यापर्यंत	-12460
▁प्रतिसादक	-12461
▁आरोपींकडून	-12462
▁कारणांच्या	-12463
▁गुणवत्तेचे	-12464
▁व्युत्पन्न	-12465
▁स्वीकारण्यात	-12466
ैत	-12467
णीस	-12468
बिन	-12469
ालो	-12470
फाइड	-12471
ादेव	-12472
▁अकर	-12473
▁एआर	-12474
▁कौल	-12475
▁तोच	-12476
▁पाप	-12477
▁पीप	-12478
▁रोप	-12479
निहाय	-12480
ॉलिटन	-12481
▁तणाव	-12482
▁मुकु	-12483
▁सागर	-12484
▁सेना	-12485
▁निविद	-12486
▁वितरक	-12487
▁सेल्स	-12488
▁आजूबाज	-12489
▁उस्मान	-12490
▁किंगडम	-12491
▁पदांची	-12492
▁मुलाखत	-12493
▁बहुतांश	-12494
▁सहिष्णु	-12495
▁उपायांचा	-12496
▁कार्यभार	-12497
▁वकिलांची	-12498
▁खटल्यांची	-12499
▁निकालातील	-12500
▁काढल्यानंतर	-12501
▁त्याविरूद्ध	-12502
▁अभ्यासक्रमां	-12503
▁घेतल्यानुसार	-12504
▁योजनेअंतर्गत	-12505
▁निष्कर्षांच्या	-12506
▁व्यवस्थापनासाठी	-12507
पति	-12508
▁गिर	-12509
▁बोस	-12510
▁समी	-12511
ंदर्य	-12512
ारावर	-12513
▁अफगा	-12514
▁अमृत	-12515
▁तंबा	-12516
▁शेअर	-12517
ानुकूल	-12518
▁ईएसआय	-12519
▁तत्वा	-12520
▁प्रजन	-12521
▁बाधित	-12522
▁सशक्त	-12523
▁हिमाल	-12524
▁कौतुका	-12525
▁ट्रान्	-12526
▁मार्गे	-12527
▁शरीरात	-12528
▁हटविणे	-12529
▁गैरसोयी	-12530
▁नियोक्त	-12531
▁पावित्र	-12532
▁हायड्रो	-12533
▁बजावण्यात	-12534
▁बनविण्यात	-12535
▁सरकारमधील	-12536
▁फॉर्म्युला	-12537
▁रकमेपेक्षा	-12538
▁विधानसभेचा	-12539
▁साक्षीच्या	-12540
▁करण्याशिवाय	-12541
▁ग्रॅच्युइटी	-12542
▁प्रॉस्पेक्ट	-12543
▁फिंगरप्रिंट	-12544
▁रेकॉर्डच्या	-12545
ंघ	-12546
धारी	-12547
हानी	-12548
▁फलो	-12549
▁फिल	-12550
डब्लू	-12551
रंगाई	-12552
▁जीएम	-12553
▁जुने	-12554
▁टाकू	-12555
▁वयात	-12556
▁वायर	-12557
▁विनि	-12558
▁आक्रम	-12559
▁इच्छे	-12560
▁कराची	-12561
▁कहाणी	-12562
▁लादणे	-12563
▁अपिलास	-12564
▁अवलोकन	-12565
▁जर्मनी	-12566
▁दर्शवू	-12567
▁पक्षात	-12568
▁पोहोचू	-12569
▁रिकामी	-12570
▁जखमींना	-12571
▁दिरंगाई	-12572
▁पाळल्या	-12573
▁संकुचित	-12574
▁चिंताजनक	-12575
▁त्रिपुरा	-12576
▁वक्तव्या	-12577
▁समस्येवर	-12578
▁हायस्कूल	-12579
स्क्रिप्शन	-12580
▁सामग्रीवर	-12581
▁अपमानास्पद	-12582
▁अस्वीकार्य	-12583
▁इन्व्हेस्ट	-12584
▁जाणूनबुजून	-12585
▁येण्यासाठी	-12586
▁व्यवहाराचा	-12587
▁करण्याबद्दल	-12588
▁कार्यवाहीचे	-12589
▁दुसर्याच्या	-12590
▁संस्थांमधील	-12591
▁प्रश्नांमधील	-12592
आम	-12593
हू	-12594
▁हज	-12595
र्फे	-12596
▁धडा	-12597
▁युवा	-12598
▁विहि	-12599
▁सीटी	-12600
▁स्थळ	-12601
▁होणा	-12602
नेश्वर	-12603
ल्याने	-12604
▁उदारी	-12605
▁कोणता	-12606
▁जलसंप	-12607
▁दरावर	-12608
▁नेमके	-12609
▁प्रात	-12610
▁ब्रेक	-12611
▁विनंत	-12612
▁बँकेचे	-12613
▁मृतावर	-12614
▁रकमेचे	-12615
▁राजदूत	-12616
तीपासूनच	-12617
▁कॅन्टीन	-12618
▁क्लस्टर	-12619
▁देशांनी	-12620
▁निवडीची	-12621
▁वाचनावर	-12622
▁विभाजित	-12623
▁सर्वत्र	-12624
▁सौंदर्य	-12625
▁डायरेक्ट	-12626
▁पालनपोषण	-12627
शास्त्रज्ञ	-12628
▁ऑक्सफोर्ड	-12629
▁एक्स्प्रेस	-12630
▁अंमलबजावणीचा	-12631
▁विद्यार्थ्यांनी	-12632
ॅस	-12633
रोधक	-12634
▁ठरत	-12635
▁लाय	-12636
▁फेरी	-12637
▁भाजी	-12638
▁स्को	-12639
मेंट्स	-12640
▁अव्यव	-12641
▁बायोट	-12642
▁मताचे	-12643
▁हेल्थ	-12644
▁आरएफपी	-12645
▁आरोपीस	-12646
▁काळाची	-12647
▁डीव्ही	-12648
▁निघाला	-12649
▁बांधिल	-12650
▁मिझोरम	-12651
▁शिष्यव	-12652
▁समुद्री	-12653
▁सेवांची	-12654
▁बरोबरीने	-12655
▁रचल्याचा	-12656
▁उद्योजकता	-12657
▁एक्स्ट्रा	-12658
▁निरुपयोगी	-12659
▁वाटपाच्या	-12660
्यासंदर्भात	-12661
▁कामांमध्ये	-12662
▁कारवाईसाठी	-12663
▁शिक्षकांची	-12664
▁केल्यापासून	-12665
▁निरीक्षणाचा	-12666
▁कॉन्फरन्सिंग	-12667
▁प्रामाणिकपणे	-12668
▁वैकल्पिकरित्या	-12669
दिव	-12670
विन	-12671
ियस	-12672
कारण	-12673
स्वत	-12674
▁कंड	-12675
▁कले	-12676
▁गहू	-12677
▁पाण	-12678
▁लिं	-12679
नांना	-12680
बिनेट	-12681
▁असंत	-12682
▁असगर	-12683
▁कलमे	-12684
▁क्षण	-12685
▁तळाग	-12686
▁एनपीए	-12687
▁ठरवणे	-12688
▁तलावा	-12689
▁विरघळ	-12690
▁निर्भय	-12691
▁वाढीची	-12692
▁वापरास	-12693
▁आपल्यास	-12694
▁उपयोगात	-12695
▁काढलेले	-12696
▁त्याआधी	-12697
▁मुख्याल	-12698
▁वगळलेले	-12699
▁वर्षाचा	-12700
▁सुपूर्द	-12701
▁टाडाच्या	-12702
▁यापेक्षा	-12703
▁त्याखालील	-12704
▁मोटरसायकल	-12705
▁करण्यापेक्षा	-12706
ॅब	-12707
ुणे	-12708
अर्थ	-12709
डीटी	-12710
वाहि	-12711
शर्त	-12712
▁गोर	-12713
▁पंथ	-12714
निवास	-12715
वाजवी	-12716
▁दिसू	-12717
▁घसारा	-12718
▁प्रसू	-12719
▁सारणी	-12720
▁हवाला	-12721
श्वसनीय	-12722
▁आयपीएल	-12723
▁जगभरात	-12724
▁जातीचे	-12725
▁पार्सल	-12726
▁बजावणे	-12727
▁संसदेस	-12728
▁केंद्री	-12729
▁गटाच्या	-12730
▁धोरणाचा	-12731
▁फार्मास	-12732
▁मनोरंजक	-12733
▁स्मार्ट	-12734
▁ऐकण्याची	-12735
▁पाइपलाइन	-12736
▁बिल्डर्स	-12737
▁स्त्रोता	-12738
▁अत्याचारी	-12739
▁खंडपीठाला	-12740
▁बँकांच्या	-12741
▁रजिस्ट्री	-12742
▁व्यापारात	-12743
▁अविश्वसनीय	-12744
▁तडजोडीच्या	-12745
▁तपासणीनंतर	-12746
▁प्रगतीसाठी	-12747
▁माहितीसाठी	-12748
▁अभ्यासाच्या	-12749
▁आश्चर्यकारक	-12750
▁कन्सोर्टियम	-12751
▁परवान्याच्या	-12752
एआय	-12753
वेज	-12754
हेल	-12755
ोकर	-12756
कर्ज	-12757
जीएस	-12758
▁गोड	-12759
▁तुट	-12760
▁नाज	-12761
ऑर्डर	-12762
भियोग	-12763
▁ऑडिओ	-12764
▁पांढ	-12765
▁लेबल	-12766
▁सीएच	-12767
▁हाकल	-12768
▁अर्धा	-12769
▁कोरडे	-12770
▁खनिजे	-12771
▁निम्न	-12772
▁पोलीस	-12773
▁बारीक	-12774
▁युगात	-12775
▁आराखडा	-12776
▁चिठ्ठी	-12777
▁देशाचा	-12778
▁निधीचा	-12779
▁याद्या	-12780
▁येत्या	-12781
▁वाहनचा	-12782
्रोद्योग	-12783
▁जन्मजात	-12784
▁आरोपींचे	-12785
▁प्रकाशने	-12786
▁वर्षातील	-12787
▁गोष्टींचे	-12788
▁सक्तमजुरी	-12789
▁देणार्याला	-12790
▁पाणीपुरवठा	-12791
▁आयुष्याच्या	-12792
▁निर्धारणाने	-12793
▁पुरविलेल्या	-12794
▁प्रदेशांच्या	-12795
▁वस्त्रोद्योग	-12796
अध	-12797
ओआय	-12798
एमएफ	-12799
क्षर	-12800
जोगे	-12801
भांड	-12802
▁बेई	-12803
▁रेष	-12804
कच्या	-12805
▁केबल	-12806
▁बिघा	-12807
▁मानत	-12808
▁राइट	-12809
▁कॉम्प	-12810
▁पेंशन	-12811
▁वसाहत	-12812
▁सहारा	-12813
▁भागाचे	-12814
▁अध्याया	-12815
▁मसुद्या	-12816
▁नवकल्पना	-12817
▁अकार्यक्षम	-12818
▁प्रश्नाकडे	-12819
▁मतदानाच्या	-12820
▁महत्वाच्या	-12821
▁वाढविण्यास	-12822
▁निवेदनाद्वारे	-12823
▁घेतल्याप्रमाणे	-12824
▁मृत्यूदंडाच्या	-12825
ंकी	-12826
फिट	-12827
ल्फ	-12828
ल्म	-12829
▁गड	-12830
▁थर	-12831
▁थीम	-12832
दाबाद	-12833
रित्र	-12834
समिती	-12835
▁एमआर	-12836
▁गौतम	-12837
▁पैसा	-12838
▁बीआय	-12839
▁संकल	-12840
नेच्या	-12841
रामध्ये	-12842
▁चालवित	-12843
▁पिटीशन	-12844
▁फलोत्प	-12845
▁भाटिया	-12846
▁टचस्टोन	-12847
▁तेलंगणा	-12848
▁साक्षात	-12849
▁क्रिमिनल	-12850
▁तरतूदीची	-12851
▁वडिलांना	-12852
▁स्तरांवर	-12853
▁आठवड्यांत	-12854
▁हलविण्यात	-12855
▁निर्णयानंतर	-12856
▁वाढवण्यासाठी	-12857
▁न्यायपालिकेचे	-12858
▁पुनरावलोकनाची	-12859
▁दुरुस्तीद्वारे	-12860
करता	-12861
भाषा	-12862
शिंग	-12863
िएटर	-12864
▁आठव	-12865
▁बॅच	-12866
▁एनआर	-12867
ताच्या	-12868
बांधणी	-12869
▁ईश्वर	-12870
▁दाखवि	-12871
▁द्रुत	-12872
▁विचलन	-12873
▁संयोज	-12874
तेशिवाय	-12875
▁मागोवा	-12876
▁मुल्ला	-12877
▁कर्जाचे	-12878
▁नगररचना	-12879
▁इन्स्टंट	-12880
▁प्रोफेसर	-12881
▁बांधिलकी	-12882
▁शाळेच्या	-12883
▁सिंडिकेट	-12884
▁चुकांमुळे	-12885
▁बनवलेल्या	-12886
▁मल्होत्रा	-12887
▁जबाबदार्या	-12888
▁ठरविण्याची	-12889
▁नसल्याच्या	-12890
▁इंग्लंडमध्ये	-12891
▁घटनापीठाच्या	-12892
▁सेटलमेंटच्या	-12893
्वद	-12894
टींग	-12895
िसरण	-12896
▁इरा	-12897
▁आयपी	-12898
▁स्वै	-12899
प्रकाश	-12900
सेसिंग	-12901
▁जोसेफ	-12902
कंपनीने	-12903
गव्हर्न	-12904
लांच्या	-12905
▁एनजीटी	-12906
▁बनविली	-12907
▁आमंत्रण	-12908
▁पाण्यात	-12909
▁पूर्वपर	-12910
▁बदलत्या	-12911
▁रक्ताने	-12912
▁विभागणी	-12913
▁तिरस्कार	-12914
▁तुरुंगात	-12915
▁रकमेसाठी	-12916
▁घटनाबाह्य	-12917
▁प्रश्नांवर	-12918
▁फिर्यादीवर	-12919
▁अधिका्यांनी	-12920
▁कर्मचार्यास	-12921
▁राज्यपालांची	-12922
▁राष्ट्राच्या	-12923
▁न्यायाधिकरणाला	-12924
ंका	-12925
एक्	-12926
जेट	-12927
ोजन	-12928
एचएल	-12929
जनरल	-12930
त्वा	-12931
ावती	-12932
▁बुर	-12933
▁गुंड	-12934
▁जेजे	-12935
▁येऊन	-12936
▁शर्ट	-12937
▁कापूस	-12938
▁खर्या	-12939
▁चालान	-12940
▁दीक्ष	-12941
▁आयोजनः	-12942
▁बनवतात	-12943
▁बहादूर	-12944
▁स्टोअर	-12945
▁क्लिनिक	-12946
▁डिलिव्ह	-12947
▁समलिंगी	-12948
▁सामावून	-12949
▁उल्लेखित	-12950
▁माहितीचे	-12951
▁आदेशानंतर	-12952
▁सूचनेच्या	-12953
▁पत्रामध्ये	-12954
▁अर्जदारांना	-12955
▁गुंतवणूकीचा	-12956
▁पुनरावृत्तीच्या	-12957
णक	-12958
हिक	-12959
्सचे	-12960
▁कशा	-12961
▁चिन	-12962
▁डेल	-12963
▁लॉक	-12964
▁सभो	-12965
▁हाऊ	-12966
▁डिजी	-12967
▁मनीष	-12968
▁वकिल	-12969
जेच्या	-12970
जेव्हा	-12971
मूलभूत	-12972
▁उंबरठ	-12973
▁जर्नल	-12974
▁नकाशा	-12975
▁पक्षी	-12976
▁पदभार	-12977
▁पाठवू	-12978
▁रायफल	-12979
ियाच्या	-12980
▁गार्डन	-12981
▁रेटिंग	-12982
तेपेक्षा	-12983
▁करण्याशी	-12984
▁वर्षांचे	-12985
▁शकणार्या	-12986
▁देयकाच्या	-12987
▁निवडीसाठी	-12988
▁हार्डवेअर	-12989
▁उद्योगातील	-12990
▁नियमांमधील	-12991
▁प्रात्यक्ष	-12992
▁विमाधारकास	-12993
▁सैन्याच्या	-12994
▁होकारार्थी	-12995
▁मूल्यांच्या	-12996
▁शिष्यवृत्ती	-12997
▁होण्यापूर्वीच	-12998
▁विद्यार्थ्यांची	-12999
-)	-13000
पंच	-13001
वरी	-13002
▁तद	-13003
डीचे	-13004
▁कॅथ	-13005
▁विम	-13006
▁कस्ट	-13007
▁मातृ	-13008
▁वायु	-13009
एमच्या	-13010
▁आंशिक	-13011
▁कॅनरा	-13012
▁चालूच	-13013
▁जॉर्ज	-13014
▁नाजूक	-13015
▁नेमले	-13016
▁भरभरा	-13017
▁रहावे	-13018
▁शक्ति	-13019
▁त्यासह	-13020
▁मिळवले	-13021
▁यामधील	-13022
▁अक्षम्य	-13023
▁भावनेने	-13024
▁निर्माता	-13025
▁रचनात्मक	-13026
▁संघाच्या	-13027
▁करारामुळे	-13028
▁बनविण्यास	-13029
▁स्वरूपावर	-13030
▁म्युच्युअल	-13031
▁व्यक्तींवर	-13032
▁रस्त्याच्या	-13033
▁आवश्यकतेच्या	-13034
▁मेट्रोपॉलिटन	-13035
▁करणार्यांकडून	-13036
▁अधिनियमाद्वारे	-13037
ुसू	-13038
▁अठ	-13039
▁ओए	-13040
▁दळ	-13041
ंधान	-13042
केअर	-13043
केवळ	-13044
सेना	-13045
▁चाक	-13046
▁वेश	-13047
▁शीख	-13048
▁सौह	-13049
▁असाच	-13050
▁कोरो	-13051
▁ताळे	-13052
▁नियु	-13053
▁मजला	-13054
▁सोडत	-13055
ल्व्हर	-13056
▁अनादर	-13057
▁इतरही	-13058
▁कार्ट	-13059
▁गर्दी	-13060
▁तब्बल	-13061
▁पार्ट	-13062
▁मिळणे	-13063
▁स्पॉट	-13064
▁अडचणीत	-13065
▁असंतोष	-13066
▁गैरसोय	-13067
▁ग्रेटर	-13068
▁पासवान	-13069
▁वाचनात	-13070
▁सिग्नल	-13071
▁कॅबिनेट	-13072
▁भारतीया	-13073
▁आदेशांची	-13074
▁शुल्काचा	-13075
▁सांडपाणी	-13076
▁प्रयोगशाळ	-13077
▁फसवणूकीचा	-13078
▁रक्ताच्या	-13079
▁मध्यरात्री	-13080
▁लोकसभेच्या	-13081
▁उत्पादनांचे	-13082
▁विचारपूर्वक	-13083
▁महामंडळाच्या	-13084
▁स्वाक्षरीकृत	-13085
ऊद	-13086
डन	-13087
ठाण	-13088
▁कश	-13089
झिया	-13090
तिया	-13091
बीला	-13092
ल्ले	-13093
▁आरई	-13094
▁दीड	-13095
▁मंग	-13096
▁शफी	-13097
ार्फत	-13098
ुसेनी	-13099
▁अनंत	-13100
▁ओळखत	-13101
▁पडून	-13102
साव्या	-13103
▁अंत्य	-13104
▁दिसला	-13105
▁नद्या	-13106
▁नेत्र	-13107
▁वाचते	-13108
▁वापरू	-13109
▁सातवा	-13110
▁भागाला	-13111
▁संयोजन	-13112
▁स्वप्न	-13113
▁आफ्रिका	-13114
▁प्रतिभा	-13115
▁विषयाची	-13116
▁साधारणत	-13117
▁अनुसंधान	-13118
▁अस्पृश्य	-13119
▁आयुष्यभर	-13120
▁काउन्सिल	-13121
▁किंमतीचे	-13122
▁जबरदस्ती	-13123
▁सबमिशनची	-13124
▁साक्षीवर	-13125
▁बचावाच्या	-13126
▁यंत्रणेने	-13127
▁युनिटच्या	-13128
▁नियुक्त्या	-13129
▁विधानमंडळा	-13130
सत	-13131
ैन	-13132
ायर	-13133
ेशा	-13134
▁यथ	-13135
ठिका	-13136
▁खेच	-13137
▁खोड	-13138
▁नूर	-13139
▁बुड	-13140
▁आरआर	-13141
▁टेलि	-13142
▁महेश	-13143
▁रुजू	-13144
▁सबरी	-13145
▁उचलले	-13146
▁पडणार	-13147
व्यक्ती	-13148
▁जनतेचे	-13149
▁डीआरटी	-13150
▁समझोता	-13151
▁सामरिक	-13152
▁क्रिस्ट	-13153
▁गोष्टीस	-13154
▁घुसखोरी	-13155
▁ताळेबंद	-13156
▁भरण्यात	-13157
▁संस्कृत	-13158
▁हत्येचा	-13159
▁पाडण्यास	-13160
▁संचालनाल	-13161
▁कामकाजावर	-13162
▁कायद्याला	-13163
▁दर्शविल्या	-13164
▁खाद्यपदार्थ	-13165
▁तक्रारदारास	-13166
▁दिल्याबद्दल	-13167
▁पुराव्यांसह	-13168
▁प्रतिसादकांनी	-13169
जु	-13170
स्ड	-13171
ोटा	-13172
▁शॉ	-13173
टीआय	-13174
▁ओटी	-13175
▁डोस	-13176
▁पिं	-13177
▁फोड	-13178
ंदारी	-13179
मिश्र	-13180
वणुकी	-13181
▁अकरा	-13182
▁आयएन	-13183
▁ईस्ट	-13184
▁डीबी	-13185
▁पटली	-13186
▁साधे	-13187
कामगार	-13188
वाहाटी	-13189
ावणकोर	-13190
▁रॉकेल	-13191
विशिष्ट	-13192
्युत्तर	-13193
▁आयसीसी	-13194
▁आरटीआय	-13195
▁कलंकित	-13196
▁अवलंबली	-13197
▁शक्तीचे	-13198
▁स्फोटके	-13199
▁इंजेक्शन	-13200
▁एजन्सीने	-13201
▁लाभासाठी	-13202
▁संघराज्य	-13203
▁जागांच्या	-13204
▁निधनानंतर	-13205
▁यंत्रणेची	-13206
▁प्रशिक्षणा	-13207
▁वस्तूंसाठी	-13208
▁सोडण्यासाठी	-13209
▁मांडण्यासाठी	-13210
▁कर्मचार्यांचे	-13211
▁प्रयत्नांमध्ये	-13212
लोर	-13213
चर्स	-13214
मागे	-13215
▁मौन	-13216
ोलॉजी	-13217
▁अशीः	-13218
▁पद्म	-13219
आमच्या	-13220
▁असंतु	-13221
▁डिस्ट	-13222
▁रचनेत	-13223
▁सुज्ञ	-13224
निमित्त	-13225
स्ट्रेट	-13226
▁आकारली	-13227
▁प्रमोट	-13228
▁बिल्डर	-13229
▁बुकिंग	-13230
▁लसीकरण	-13231
▁सभोवता	-13232
▁साइटवर	-13233
▁सीजेआय	-13234
▁अमर्याद	-13235
▁तरतुदीत	-13236
▁बाहेरून	-13237
▁लवचिकता	-13238
▁मिळालेले	-13239
▁अनैसर्गिक	-13240
▁प्रविष्टी	-13241
▁वाचनाखाली	-13242
...........	-13243
▁अधिका्याने	-13244
▁भूतकाळातील	-13245
▁आयुक्तांकडे	-13246
▁केल्याखेरीज	-13247
▁नेमणुकीच्या	-13248
▁प्रत्युत्तर	-13249
▁कराराअंतर्गत	-13250
▁वापरण्याच्या	-13251
▁खरेदीदाराच्या	-13252
▁सिद्धांताच्या	-13253
▁हॉस्पिटलमध्ये	-13254
थि	-13255
बॉ	-13256
हम	-13257
जरी	-13258
थान	-13259
ूला	-13260
▁बट	-13261
▁भट	-13262
पर्स	-13263
र्ला	-13264
शाखा	-13265
▁जनर	-13266
▁दरो	-13267
▁बोर	-13268
▁भात	-13269
▁मॅथ	-13270
▁आढळू	-13271
▁गुणक	-13272
▁टपाल	-13273
▁बंदि	-13274
▁भाषे	-13275
▁सोपी	-13276
▁शोधले	-13277
▁तिजोरी	-13278
▁मिनिटे	-13279
▁एकमताने	-13280
▁एकमात्र	-13281
▁शब्दकोश	-13282
▁दिवसांचा	-13283
▁शास्त्री	-13284
▁आकारण्याचा	-13285
▁प्रत्येकाने	-13286
▁बदलण्यासाठी	-13287
▁शिक्षणासाठी	-13288
▁फिर्यादीनुसार	-13289
▁प्रक्रियेनुसार	-13290
▁झे	-13291
-)))	-13292
लेखन	-13293
▁बेप	-13294
नांसह	-13295
बंधित	-13296
िकेशन	-13297
▁दाऊद	-13298
▁पठाण	-13299
▁साधी	-13300
स्थानी	-13301
▁करुणा	-13302
▁गरीबी	-13303
▁तेथेच	-13304
▁बॅटरी	-13305
▁वक्तव	-13306
्यपूर्ण	-13307
▁अमान्य	-13308
▁कानपूर	-13309
▁ज्योती	-13310
▁पटविली	-13311
▁मुलांची	-13312
▁यासारखे	-13313
▁सेवांचे	-13314
डब्ल्यूसी	-13315
▁नोंदविणे	-13316
▁मंजुरीची	-13317
▁लक्ष्यित	-13318
▁सबमिशनवर	-13319
▁समुदायाचे	-13320
▁शास्त्रज्ञ	-13321
▁विधिमंडळाला	-13322
▁यापूर्वीच्या	-13323
▁संसाधनांच्या	-13324
▁कार्यक्रमांच्या	-13325
ंजय	-13326
इंट	-13327
बिल	-13328
▁गी	-13329
डीबी	-13330
णीवा	-13331
यरोग	-13332
र्वे	-13333
▁आतड	-13334
▁जेठ	-13335
▁दशक	-13336
▁बैल	-13337
▁विण	-13338
क्करण	-13339
स्टाई	-13340
▁कमोड	-13341
▁ड्रे	-13342
▁तेही	-13343
▁निको	-13344
▁पूर्	-13345
▁बेनि	-13346
▁मोशन	-13347
▁रेजि	-13348
म्हणून	-13349
ासारखे	-13350
▁करदात	-13351
▁तीर्थ	-13352
▁पायरी	-13353
▁लादले	-13354
एखाद्या	-13355
▁डिजीटल	-13356
▁ड्यूटी	-13357
▁दाखवते	-13358
▁विष्णू	-13359
▁एक्सएडी	-13360
▁वाढविले	-13361
▁विवेचना	-13362
▁समजल्या	-13363
▁गुवाहाटी	-13364
▁पृथक्करण	-13365
▁मांडताना	-13366
▁घेतल्याचा	-13367
▁प्रकरणावर	-13368
▁मागविण्यात	-13369
▁सांगितल्या	-13370
▁अनुदानाच्या	-13371
▁देण्यापासून	-13372
▁नूतनीकरणासाठी	-13373
एनओ	-13374
▁इट	-13375
▁सॅ	-13376
▁एबी	-13377
▁किस	-13378
▁जाट	-13379
▁घट्ट	-13380
▁उणीवा	-13381
▁एरिया	-13382
▁डिस्क	-13383
▁पाडली	-13384
▁मनावर	-13385
▁वैविध	-13386
▁पंचवीस	-13387
▁पडलेला	-13388
▁बांधली	-13389
व्यवहारा	-13390
▁जगाच्या	-13391
▁पीडब्लू	-13392
▁मंडळाचा	-13393
▁लोकांवर	-13394
▁सांगावे	-13395
▁आरोपांचे	-13396
▁एमसीआयने	-13397
▁समजूतदार	-13398
ल्यानंतरही	-13399
▁टाकण्याचा	-13400
▁तिच्याकडे	-13401
▁पूर्वसूचक	-13402
▁बदलण्याची	-13403
▁रुग्णालये	-13404
▁समाधानाची	-13405
▁आव्हानांचा	-13406
▁गुंतागुंती	-13407
▁जाण्याच्या	-13408
▁राज्यांतील	-13409
▁स्क्रीनिंग	-13410
▁वाहतुकीसाठी	-13411
▁पदार्थांच्या	-13412
▁प्रतिनिधींना	-13413
▁सल्लागारांनी	-13414
▁महाविद्यालयीन	-13415
▁मिळाल्यापासून	-13416
▁भ्रष्टाचाराच्या	-13417
,'	-13418
मय	-13419
किन	-13420
्वल	-13421
▁//	-13422
▁ऊस	-13423
द्दत	-13424
▁अदा	-13425
▁नित	-13426
▁भान	-13427
नांचे	-13428
▁0.00	-13429
▁नरेश	-13430
▁सर्क	-13431
▁एटीएम	-13432
▁व्हॅट	-13433
▁साधून	-13434
▁हुकुम	-13435
▁अंदमान	-13436
▁अनुसार	-13437
▁खोल्या	-13438
▁दाखवले	-13439
▁यानंतर	-13440
ासारख्या	-13441
▁ठेवीदार	-13442
▁स्वदेशी	-13443
▁दहशतवादा	-13444
▁दिनांकित	-13445
▁प्रोबेशन	-13446
▁अभ्यासाचा	-13447
▁घालण्याचा	-13448
▁भाडेकरूला	-13449
▁स्थापनेची	-13450
▁अनुक्रमांक	-13451
▁बंदुकीच्या	-13452
▁राज्यामध्ये	-13453
▁वाहतुकीच्या	-13454
▁व्यवस्थापनात	-13455
▁त्याव्यतिरिक्त	-13456
आता	-13457
कॅड	-13458
न्ह	-13459
न्टे	-13460
▁मोन	-13461
कायदे	-13462
दायिक	-13463
▁आणेल	-13464
▁ग्रो	-13465
▁डीसी	-13466
▁फटका	-13467
ज्युअल	-13468
▁आध्या	-13469
▁तदर्थ	-13470
▁लेआउट	-13471
ासंबंधी	-13472
▁अफगाणि	-13473
▁आफ्रिक	-13474
▁एसआयसी	-13475
▁थोडासा	-13476
▁नागराज	-13477
▁संज्ञा	-13478
वैद्यकीय	-13479
▁जमिनीचे	-13480
▁बॅनर्जी	-13481
▁वापरावर	-13482
्यांनुसार	-13483
▁दुर्बलता	-13484
▁माहितीवर	-13485
▁वापरलेला	-13486
▁स्वयंपाक	-13487
▁त्रावणकोर	-13488
▁अॅडव्हान्स	-13489
▁आध्यात्मिक	-13490
▁तळागाळातील	-13491
▁प्लॅटफॉर्म	-13492
▁बांधकामाचा	-13493
▁आर्किटेक्चर	-13494
▁उत्पादकांना	-13495
▁पाहण्यासाठी	-13496
▁यांच्यामधील	-13497
▁ट्रान्सफॉर्म	-13498
▁बांधकामाच्या	-13499
▁निरीक्षणाच्या	-13500
▁संभाव्यतेच्या	-13501
▁हाताळण्यासाठी	-13502
▁कायद्यांद्वारे	-13503
▁प्राधिकरणासमोर	-13504
एओ	-13505
▁डिम	-13506
▁नौद	-13507
▁फरी	-13508
खरेदी	-13509
▁उजवी	-13510
▁चांद	-13511
▁ब्ले	-13512
▁शाखे	-13513
च्छेदा	-13514
डिशियल	-13515
▁उड्डा	-13516
▁कापणी	-13517
▁दशकात	-13518
▁पार्थ	-13519
म्हणजेच	-13520
▁वादीला	-13521
▁विरोधक	-13522
करणासाठी	-13523
्यांमुळे	-13524
▁खर्चाचे	-13525
▁पैलूंवर	-13526
▁बचावाचा	-13527
▁मद्यपान	-13528
▁लोकांशी	-13529
▁वाचलेले	-13530
▁अपात्रता	-13531
▁असण्याचा	-13532
▁तपासणीचा	-13533
धारकांच्या	-13534
▁उपयुक्तता	-13535
▁डिलिव्हरी	-13536
▁याचिकांना	-13537
▁संस्थांशी	-13538
▁समभागांचे	-13539
▁स्वीकारून	-13540
▁अस्तित्वाची	-13541
▁निर्णयावरुन	-13542
▁निष्कर्षावर	-13543
▁पदोन्नतीच्या	-13544
उच्च	-13545
कार्	-13546
टेबल	-13547
ध्दत	-13548
प्पर	-13549
माने	-13550
लिटी	-13551
साही	-13552
▁000	-13553
धारीत	-13554
पदाची	-13555
वायचा	-13556
▁अंकु	-13557
▁कपिल	-13558
▁काढत	-13559
▁कुठे	-13560
▁जखमा	-13561
▁टेबल	-13562
▁मजबु	-13563
ेशिवाय	-13564
▁असहाय	-13565
▁ओळखून	-13566
▁चालला	-13567
▁चाळीस	-13568
▁पध्दत	-13569
▁महोत्	-13570
▁टीआयपी	-13571
▁तंबाखू	-13572
▁व्हिसा	-13573
▁सभ्यता	-13574
▁हेतूची	-13575
▁कृतीतून	-13576
▁कॅलेंडर	-13577
▁बिनशर्त	-13578
▁मॅक्सिम	-13579
▁एचआयव्ही	-13580
▁कारवाईला	-13581
▁दिवाळखोर	-13582
▁समानतेचा	-13583
▁सूचनांचे	-13584
▁नेतृत्वात	-13585
▁नोटीसच्या	-13586
▁पुराव्यात	-13587
▁मागणीच्या	-13588
▁शक्तिशाली	-13589
▁गोपनीयतेची	-13590
▁जागतिकीकरण	-13591
▁सहकार्याची	-13592
▁घटस्फोटाच्या	-13593
ाम	-13594
▁i	-13595
चाल	-13596
ोलो	-13597
▁नज	-13598
जिंग	-13599
तकाल	-13600
दुर्	-13601
मध्य	-13602
लाचे	-13603
लेखा	-13604
वर्ड	-13605
ार्ग	-13606
▁कोय	-13607
▁चकम	-13608
▁शीत	-13609
रेस्ट	-13610
▁एचआर	-13611
▁टर्म	-13612
▁देयक	-13613
▁पाडत	-13614
▁सनदी	-13615
▁उचलणे	-13616
▁बक्षी	-13617
ण्याकडे	-13618
▁चरित्र	-13619
▁थांबले	-13620
▁पीडीएफ	-13621
▁पीव्ही	-13622
▁पूर्वे	-13623
▁बारावा	-13624
ांपूर्वी	-13625
▁जोडलेला	-13626
▁भूसंपाद	-13627
▁माणसाला	-13628
▁मुसलमान	-13629
▁घराबाहेर	-13630
▁येणार्या	-13631
▁विस्कळीत	-13632
▁एक्सपोर्ट	-13633
▁टाकण्याचे	-13634
▁दाव्यांचा	-13635
▁नोकरीसाठी	-13636
▁सोडण्याची	-13637
▁कार्यासाठी	-13638
▁डेव्हलपर्स	-13639
▁वापरामध्ये	-13640
▁उद्योजकांना	-13641
▁निरीक्षणासह	-13642
▁प्रयत्नांचे	-13643
▁बुद्धिमत्ता	-13644
▁मान्यतेच्या	-13645
▁अधिवेशनाच्या	-13646
▁प्रतिनिधींनी	-13647
▁निष्काळजीपणाने	-13648
▁परिस्थितीबद्दल	-13649
▁प्रिस्क्रिप्शन	-13650
ईम	-13651
इन्	-13652
दोन	-13653
ेक्	-13654
▁आन	-13655
खाना	-13656
शेखर	-13657
ांडी	-13658
्वंस	-13659
▁हीच	-13660
▁हेग	-13661
ईच्या	-13662
तीतून	-13663
तोपरी	-13664
व्हसी	-13665
▁आरसी	-13666
▁जंगल	-13667
▁ठेके	-13668
▁भूमि	-13669
मध्येच	-13670
▁कर्जे	-13671
▁टीईटी	-13672
▁नव्वद	-13673
▁पावडर	-13674
▁बंदूक	-13675
▁संगोप	-13676
सुधारित	-13677
▁कृतीचा	-13678
▁फ्रेंच	-13679
▁भरलेली	-13680
▁क्रांती	-13681
▁नियतकाल	-13682
▁महसूलने	-13683
▁रिसॉर्ट	-13684
▁आठवड्यां	-13685
▁जितेंद्र	-13686
▁दीक्षांत	-13687
▁मृत्यूला	-13688
▁शुल्काचे	-13689
▁अधिकाराशी	-13690
▁प्रतिबद्ध	-13691
▁सुशिक्षित	-13692
▁सोडण्याचा	-13693
▁अधिकारांना	-13694
▁तथ्यांच्या	-13695
▁न्यायालयास	-13696
▁बॉम्बस्फोट	-13697
▁रेग्युलेशन	-13698
▁प्रक्रियेला	-13699
▁कायद्यांमध्ये	-13700
▁ध्	-13701
एमआर	-13702
घटित	-13703
▁टाग	-13704
▁डाउ	-13705
▁नाक	-13706
▁पेन	-13707
▁पोक	-13708
▁अंडी	-13709
▁आरके	-13710
▁एचएस	-13711
▁क्रा	-13712
▁डीटी	-13713
▁वसति	-13714
▁आवडेल	-13715
▁तपासू	-13716
▁वागले	-13717
▁हिंसक	-13718
▁केव्हा	-13719
▁घेणारे	-13720
▁तितकाच	-13721
▁पीपल्स	-13722
▁ऑर्डरला	-13723
▁कोडच्या	-13724
▁निकोबार	-13725
▁शांततेत	-13726
▁स्ट्रक्	-13727
▁अधिकृतता	-13728
▁केंद्रात	-13729
▁चर्चेतून	-13730
▁ट्रस्टने	-13731
▁निर्देशक	-13732
▁परिवर्तन	-13733
▁प्रेसिडे	-13734
▁महाभियोग	-13735
▁विक्रीचे	-13736
▁मार्गांनी	-13737
▁स्वीकारतो	-13738
▁कामगारांनी	-13739
▁कायद्यांची	-13740
▁फेटाळण्यात	-13741
▁मृत्युपत्र	-13742
▁व्यक्तिमत्त्व	-13743
▁निर्णयाविरूद्ध	-13744
▁उग	-13745
यर्स	-13746
्युर	-13747
▁डिझ	-13748
▁तशी	-13749
▁हिस	-13750
भोवती	-13751
वायची	-13752
▁थोडे	-13753
▁महतो	-13754
▁महाब	-13755
▁रूढी	-13756
▁वडिल	-13757
▁साडे	-13758
प्रमुख	-13759
ार्जित	-13760
▁अनुया	-13761
पदाच्या	-13762
▁पुष्कळ	-13763
▁रहदारी	-13764
▁हाकलून	-13765
▁धोरणाची	-13766
▁विध्वंस	-13767
्यांविषयी	-13768
▁कंपनीकडे	-13769
▁किंमतीचा	-13770
▁तपासणीची	-13771
▁नावाखाली	-13772
▁पार्किंग	-13773
▁रिकाम्या	-13774
▁विद्यालय	-13775
▁विधीमंडळ	-13776
▁काढण्याचा	-13777
▁नफ्याच्या	-13778
▁नियुक्तीस	-13779
▁वाहनाच्या	-13780
▁वैधतेच्या	-13781
▁शेजारच्या	-13782
▁सर्वतोपरी	-13783
▁उत्पादनाची	-13784
▁नोटीसमध्ये	-13785
▁परिणामकारक	-13786
▁राज्यस्तरीय	-13787
▁अधिकारामध्ये	-13788
▁पर्यावरणाच्या	-13789
▁कार्यक्रमाच्या	-13790
▁सुनावणीदरम्यान	-13791
▁कार्यक्षमतेच्या	-13792
एत	-13793
खट	-13794
▁उच	-13795
वानु	-13796
ोकॉल	-13797
▁खिश	-13798
▁सनद	-13799
इतकेच	-13800
दूषित	-13801
▁ओळखू	-13802
▁दोहो	-13803
▁बनतो	-13804
▁बॉडी	-13805
▁बोलू	-13806
▁मंडल	-13807
▁लागत	-13808
▁समेट	-13809
नारायण	-13810
▁उघडली	-13811
▁चुकले	-13812
▁डीएसी	-13813
▁पहाटे	-13814
▁पाहणी	-13815
▁पिशवी	-13816
▁पेंडे	-13817
▁फोर्स	-13818
▁भाषिक	-13819
फौजदारी	-13820
▁अर्जुन	-13821
▁डीपीसी	-13822
▁प्रोसि	-13823
▁भरलेला	-13824
▁वादाला	-13825
▁अवमूल्य	-13826
▁कल्पनार	-13827
▁कौशल्या	-13828
▁म्हणाला	-13829
▁शब्दकोष	-13830
▁अनुकूलता	-13831
▁दूरदर्शन	-13832
▁दृश्यमान	-13833
▁विधानावर	-13834
▁सेवाभावी	-13835
▁करारासाठी	-13836
▁ताब्यातून	-13837
▁निवेदनावर	-13838
▁अर्थसहाय्य	-13839
▁आरोपींवरील	-13840
▁कंपन्यांचा	-13841
▁मालकाद्वारे	-13842
▁लवादाद्वारे	-13843
▁शोधण्याच्या	-13844
▁सिद्धांताचा	-13845
▁आरोपीविरूद्ध	-13846
▁पुनर्प्राप्त	-13847
..............	-13848
▁आस्थापनांमध्ये	-13849
▁नोंदविल्यानंतर	-13850
▁अधिकारक्षेत्रात	-13851
इंग	-13852
बला	-13853
मिन	-13854
एफएस	-13855
ळाची	-13856
व्हो	-13857
▁एजी	-13858
▁छता	-13859
▁झुक	-13860
▁ठसे	-13861
▁सुग	-13862
भाडेक	-13863
▁दुबे	-13864
▁साहि	-13865
▁सुब्	-13866
नाकडून	-13867
▁एलपीए	-13868
▁थिएटर	-13869
▁फर्नि	-13870
▁समग्र	-13871
▁बाळगता	-13872
▁महादेव	-13873
▁मुलीने	-13874
▁संरचना	-13875
▁सिब्बल	-13876
▁अभ्यागत	-13877
▁अस्थायी	-13878
▁कमिटीने	-13879
▁कमिशनची	-13880
▁निर्मित	-13881
▁पत्राचा	-13882
ांसारख्या	-13883
▁बीआयएफआर	-13884
▁कामकाजाचे	-13885
▁सुविधांची	-13886
▁गोपनीयतेचे	-13887
▁दावेदाराने	-13888
▁बहुमताच्या	-13889
▁मिळविण्यात	-13890
▁दुखापतीमुळे	-13891
▁व्यापलेल्या	-13892
▁संदर्भासाठी	-13893
▁विधानमंडळाने	-13894
▁मर्यादेपेक्षा	-13895
▁गुन्ह्यांकरिता	-13896
नन	-13897
शर	-13898
ंटा	-13899
ादर	-13900
▁चक	-13901
क्यु	-13902
ायती	-13903
▁गहन	-13904
▁जोग	-13905
▁तसा	-13906
▁मिर	-13907
▁रबर	-13908
ंक्शन	-13909
जिस्ट	-13910
जीवित	-13911
रवर्ड	-13912
ारखीच	-13913
▁इस्प	-13914
▁एफटी	-13915
▁एमटी	-13916
▁गौडा	-13917
▁चरबी	-13918
▁पातळ	-13919
▁फुफ्	-13920
▁बहुल	-13921
एसआयसी	-13922
ण्याला	-13923
बिद्दत	-13924
▁डाउनल	-13925
▁तत्पर	-13926
▁एजंट्स	-13927
▁पाठवून	-13928
▁मूल्यव	-13929
ोपार्जित	-13930
▁हाताळले	-13931
▁पध्दतीने	-13932
▁याचिकेची	-13933
तेसंदर्भात	-13934
▁आदेशासाठी	-13935
▁कबुलीपत्र	-13936
▁तरतुदींसह	-13937
▁नोंदवलेली	-13938
▁श्रीनिवास	-13939
▁उपचारात्मक	-13940
▁निवेदनातून	-13941
▁भागांमध्ये	-13942
▁सुधारात्मक	-13943
▁अनावश्यकपणे	-13944
▁अधिकार्यांना	-13945
▁पुरवण्यासाठी	-13946
▁कंत्राटदाराला	-13947
▁कनेक्टिव्हिटी	-13948
▁अभिव्यक्तीमध्ये	-13949
पल	-13950
२०	-13951
णवळ	-13952
बेन	-13953
िली	-13954
▁ऑल	-13955
▁ओत	-13956
▁मठ	-13957
▁शत	-13958
श्चि	-13959
्राज	-13960
▁गोठ	-13961
▁पर्	-13962
▁सीट	-13963
▁सूड	-13964
कॉर्प	-13965
व्हील	-13966
ांतिक	-13967
▁कर्ण	-13968
▁गठीत	-13969
सरकारी	-13970
▁असेलः	-13971
▁ट्यूब	-13972
▁दळणवळ	-13973
▁सहयोग	-13974
▁उत्तरः	-13975
▁उपग्रह	-13976
▁एनटीटी	-13977
▁एमओईएफ	-13978
▁निगडित	-13979
▁निवारा	-13980
▁पूर्वा	-13981
▁प्रजनन	-13982
▁उत्साही	-13983
▁दिवसांत	-13984
▁बाबींचे	-13985
▁तरुणांना	-13986
▁स्वीकारत	-13987
गव्हर्नन्स	-13988
▁बांधकामां	-13989
▁सीबीआयकडे	-13990
▁धोरणानुसार	-13991
▁अफगाणिस्तान	-13992
▁उत्तरार्धात	-13993
▁नसल्याबद्दल	-13994
▁वडिलोपार्जित	-13995
दोष	-13996
▁भड	-13997
झिने	-13998
साना	-13999
स्टा	-14000
▁गरि	-14001
▁नजी	-14002
▁नवा	-14003
▁पंक	-14004
▁मोर	-14005
▁रेल	-14006
▁रेव	-14007
िनिंग	-14008
▁बजेट	-14009
▁लाखो	-14010
ंशिवाय	-14011
प्रकार	-14012
▁एकरूप	-14013
▁एनआयए	-14014
▁क्लेम	-14015
▁शोधला	-14016
▁संपेल	-14017
▁सेकंद	-14018
संस्कार	-14019
▁अभिप्र	-14020
▁एसबीआय	-14021
▁कोट्या	-14022
▁तपासला	-14023
▁पुरेशा	-14024
▁पैलूचा	-14025
▁वाढवता	-14026
▁असमाधान	-14027
▁कन्व्हे	-14028
▁डिजिटली	-14029
▁मेमोरँड	-14030
▁अनुकरणीय	-14031
▁पक्षाकडे	-14032
▁पूर्वानु	-14033
▁प्रवाहात	-14034
▁विवादाचे	-14035
▁व्यवस्थे	-14036
▁शेतीच्या	-14037
▁संपर्कात	-14038
▁गुणवत्तेवरील	-14039
▁पुनरुज्जीवित	-14040
▁पुराव्याच्या	-14041
▁प्रवर्गाच्या	-14042
▁गुन्ह्यामध्ये	-14043
▁पूर्वग्रहदूषित	-14044
▁प्रतिनिधींच्या	-14045
▁सेवानिवृत्तीची	-14046
नम	-14047
पाच	-14048
फेस	-14049
देवी	-14050
पुरी	-14051
ल्यू	-14052
ष्मा	-14053
▁चेह	-14054
▁पेय	-14055
जच्या	-14056
मांडर	-14057
यांचे	-14058
स्वती	-14059
▁घडला	-14060
▁टीपी	-14061
▁नाटक	-14062
▁रंजन	-14063
▁राणा	-14064
्यूटरी	-14065
▁अन्वर	-14066
▁चारही	-14067
▁फारसे	-14068
▁लावतो	-14069
▁सुस्त	-14070
▁आर्बिट	-14071
▁कमांडर	-14072
▁नवीनतम	-14073
▁पैशाचा	-14074
▁स्वतःस	-14075
▁कमोडिटी	-14076
▁दराच्या	-14077
▁दाखविली	-14078
▁दालमिया	-14079
▁प्रदाता	-14080
▁ठरविलेले	-14081
▁पक्षातील	-14082
▁रकमेपैकी	-14083
▁व्यावसाय	-14084
▁समानतेचे	-14085
▁स्वराज्य	-14086
▁क्षेत्रफळ	-14087
▁प्रक्षेपण	-14088
▁प्रश्नाला	-14089
▁मान्यतेने	-14090
▁रिटर्निंग	-14091
▁कर्तव्याचा	-14092
▁नागरिकांचे	-14093
▁पाठविण्यास	-14094
▁स्थलांतरित	-14095
▁अंदाजानुसार	-14096
▁जीर्णोद्धार	-14097
▁न्यायाधिकार	-14098
▁स्थानांतरित	-14099
▁लोकशाहीमध्ये	-14100
▁अस्तित्वाच्या	-14101
▁आदेशासंदर्भात	-14102
▁पुराव्यांनुसार	-14103
▁प्रोव्हिसोच्या	-14104
▁सुरुवातीपासूनच	-14105
▁कं	-14106
▁चह	-14107
▁“(	-14108
टिंग	-14109
मालम	-14110
ळाचा	-14111
ायोग	-14112
▁अवज	-14113
▁आरओ	-14114
▁ठोक	-14115
▁दबा	-14116
▁दमण	-14117
▁पाम	-14118
▁सीर	-14119
झिनेस	-14120
डीएने	-14121
▁चंडी	-14122
▁स्टा	-14123
आवश्यक	-14124
एनसीटी	-14125
पश्चिम	-14126
▁गांभी	-14127
▁राहता	-14128
▁रूपये	-14129
▁अवस्था	-14130
▁कामाची	-14131
▁कितीही	-14132
▁जाणकार	-14133
▁पृष्ठे	-14134
▁मजबुती	-14135
▁व्हॅली	-14136
▁स्कोअर	-14137
▁ओळखपत्र	-14138
▁संवेदना	-14139
▁सोपविली	-14140
▁कुटुंबात	-14141
▁क्षमतेवर	-14142
▁विभागाला	-14143
▁त्याकरिता	-14144
▁नागरिकत्व	-14145
▁निर्णयासह	-14146
▁कल्पनारम्य	-14147
▁गुन्ह्याशी	-14148
▁तारखेनुसार	-14149
▁पुराव्याचे	-14150
▁सूचनांच्या	-14151
▁ज्याच्याकडे	-14152
▁वगळण्यासाठी	-14153
▁ठरविण्यासाठी	-14154
▁बीसीसीआयच्या	-14155
▁महिन्यांनंतर	-14156
▁वैविध्यपूर्ण	-14157
▁अधिनियमामध्ये	-14158
▁महिन्यांपर्यंत	-14159
▁स्पष्टीकरणाच्या	-14160
णीवर	-14161
िरीक	-14162
▁बीर	-14163
▁मले	-14164
कल्या	-14165
िगेशन	-14166
▁एमजी	-14167
▁लाकू	-14168
▁सेमि	-14169
दिल्ली	-14170
▁आयएसओ	-14171
▁टागोर	-14172
▁नायडू	-14173
▁पाहतो	-14174
▁बनवून	-14175
▁बाटली	-14176
धिवक्ता	-14177
▁मालिके	-14178
▁खर्चासह	-14179
▁टेलिकॉम	-14180
▁तत्वावर	-14181
▁बागायती	-14182
▁लवादाला	-14183
▁शारिरीक	-14184
▁सहमतीने	-14185
▁कंट्रोलर	-14186
▁तेलाच्या	-14187
▁देशासाठी	-14188
▁राहिल्या	-14189
▁सबरीमाला	-14190
▁कामगिरीचे	-14191
▁कारभाराचा	-14192
▁खात्यातून	-14193
▁प्रोटोकॉल	-14194
▁फेटाळल्या	-14195
▁बोलण्याचे	-14196
▁उत्पादनाचे	-14197
▁कोर्समध्ये	-14198
▁वितरणासाठी	-14199
▁मंत्रालयाचे	-14200
▁शांततापूर्ण	-14201
▁स्त्रियांच्या	-14202
▁निवृत्तीवेतनाचा	-14203
//	-14204
ण्ड	-14205
नफा	-14206
फाई	-14207
षेक	-14208
एचएस	-14209
तीचे	-14210
▁जिओ	-14211
▁नाल	-14212
▁रमण	-14213
▁हसन	-14214
▁हास	-14215
▁घाला	-14216
▁जलाश	-14217
▁जुनी	-14218
▁मेरी	-14219
▁लाठी	-14220
नाखाली	-14221
▁आदेशा	-14222
▁जन्मत	-14223
▁जर्मन	-14224
▁दातार	-14225
▁बेलार	-14226
▁भाडेत	-14227
▁मोहीम	-14228
▁सुटला	-14229
▁होताच	-14230
ृष्ट्या	-14231
▁अथॉरिटी	-14232
▁आयोगाची	-14233
▁खर्चावर	-14234
▁मेसेजचे	-14235
▁संमिश्र	-14236
▁सांगतात	-14237
▁सुचविले	-14238
दारांच्या	-14239
▁पुरातत्व	-14240
▁बसलेल्या	-14241
▁मुल्यांक	-14242
▁आरोपाखाली	-14243
▁आल्यामुळे	-14244
▁कामगिरीची	-14245
▁कार्यशाळा	-14246
▁गोष्टींची	-14247
▁अर्थानुसार	-14248
▁आपल्यासाठी	-14249
▁कारखान्यात	-14250
▁घेण्याऐवजी	-14251
▁जगण्याच्या	-14252
▁डॉक्टरांना	-14253
▁सरकारमध्ये	-14254
▁अर्जदारांनी	-14255
▁पुरवठ्यासाठी	-14256
▁प्रामाणिकपणा	-14257
▁गुणवत्तेनुसार	-14258
▁प्राण्यांच्या	-14259
▁स्वातंत्र्यास	-14260
▁सुरक्षिततेच्या	-14261
▁हस्तांतरणासाठी	-14262
चिंग	-14263
म्पो	-14264
ांकन	-14265
▁काद	-14266
▁चैत	-14267
▁सलो	-14268
कांचे	-14269
सुधार	-14270
▁डीआर	-14271
▁तिकी	-14272
▁वैमन	-14273
ळाच्या	-14274
विलेले	-14275
सानंतर	-14276
▁दूषित	-14277
▁फायबर	-14278
▁मंडळे	-14279
▁महोदय	-14280
▁लाकूड	-14281
▁सचोटी	-14282
जितसिंग	-14283
▁आईच्या	-14284
▁आकारात	-14285
▁आयसीआय	-14286
▁उदासीन	-14287
▁घटनेवर	-14288
▁पदच्यु	-14289
▁भांडणे	-14290
▁वर्ल्ड	-14291
▁सीव्ही	-14292
▁अपघातात	-14293
▁विकासात	-14294
▁सत्यापन	-14295
▁सदस्यास	-14296
▁एनडीएमसी	-14297
▁दाव्यावर	-14298
▁विभागाची	-14299
▁साक्षीची	-14300
▁सुरवातीस	-14301
▁होमगार्ड	-14302
▁असोसिएट्स	-14303
▁फलोत्पादन	-14304
▁सिद्धार्थ	-14305
▁कुटूंबातील	-14306
▁तथ्यानुसार	-14307
▁लिलावाच्या	-14308
▁हेतूपूर्वक	-14309
▁पूर्वानुमान	-14310
▁सोपविलेल्या	-14311
▁दुरुस्तीपूर्वी	-14312
अरी	-14313
परे	-14314
ईन्स	-14315
▁कमल	-14316
▁जयल	-14317
▁पॅक	-14318
▁फाळ	-14319
▁हमीद	-14320
पूर्ती	-14321
▁आधीचे	-14322
▁उभ्या	-14323
▁घड्या	-14324
▁भावने	-14325
▁सीमां	-14326
▁कार्बन	-14327
▁विषयात	-14328
▁अॅपेक्स	-14329
▁आकाराचे	-14330
▁एनसीटीई	-14331
▁ऑफिसरने	-14332
▁परिचालन	-14333
▁फॉरवर्ड	-14334
▁बंगळुरू	-14335
▁मालकाची	-14336
▁वैचारिक	-14337
यदृष्ट्या	-14338
▁कोर्टावर	-14339
▁गुणात्मक	-14340
▁प्रतिवाद	-14341
▁बीएसएनएल	-14342
▁भाजीपाला	-14343
▁मतेनुसार	-14344
▁रुपयांचा	-14345
▁शर्तींचे	-14346
▁समानतेची	-14347
▁ठरावाच्या	-14348
▁नियतकालिक	-14349
▁प्रकल्पाची	-14350
▁मृत्यूमुळे	-14351
▁कार्यालयातील	-14352
▁प्रकरणांमधील	-14353
▁वाचवण्यासाठी	-14354
▁अपीलकर्त्यांची	-14355
▁उत्तरदात्यांना	-14356
एएस	-14357
चलो	-14358
कुशल	-14359
लबीर	-14360
विका	-14361
संगी	-14362
ापुर	-14363
्रेट	-14364
▁कॅल	-14365
▁साई	-14366
वताना	-14367
विंदर	-14368
वेल्थ	-14369
▁कॅलि	-14370
▁डेपो	-14371
▁बसले	-14372
▁बसून	-14373
▁वर्ध	-14374
वामुळे	-14375
▁अरोरा	-14376
▁खोलवर	-14377
▁ग्राह	-14378
▁जागृत	-14379
▁जोडून	-14380
▁फॅब्र	-14381
▁भरावा	-14382
▁रक्षक	-14383
▁श्रील	-14384
▁संदीप	-14385
▁इतरत्र	-14386
▁कमिशनर	-14387
ोग्राफिक	-14388
▁प्रवासा	-14389
▁लेखादार	-14390
▁सिक्कीम	-14391
▁आरोपांची	-14392
▁ग्रॅनाइट	-14393
▁ज्यापैकी	-14394
▁निसर्गात	-14395
▁पालकांनी	-14396
▁शतकाच्या	-14397
कर्त्यांना	-14398
▁निसर्गाचे	-14399
▁प्रोसेसिंग	-14400
▁बाबींविषयी	-14401
▁विकासात्मक	-14402
एक्सएक्सएक्स	-14403
▁विभागांच्या	-14404
▁अंत्यसंस्कार	-14405
▁असेंब्लीच्या	-14406
▁प्रकल्पासाठी	-14407
▁प्राधान्याने	-14408
▁रजिस्टरमध्ये	-14409
▁शिफारशींच्या	-14410
▁पक्षांदरम्यान	-14411
▁मुद्द्यांबाबत	-14412
▁रुग्णालयाच्या	-14413
ोस	-14414
ज्ड	-14415
झाक	-14416
डेल	-14417
ड्स	-14418
फंड	-14419
▁आड	-14420
न्यू	-14421
फ्रे	-14422
्राट	-14423
▁राग	-14424
ंगलोर	-14425
झीलंड	-14426
▁किंग	-14427
▁टेली	-14428
▁दोरी	-14429
▁ध्वज	-14430
▁बॅंक	-14431
▁अक्षय	-14432
▁आनंदी	-14433
▁तिकीट	-14434
▁पत्रक	-14435
▁बीएसई	-14436
▁लाकडी	-14437
▁मुलीवर	-14438
▁इव्हेंट	-14439
▁ब्लॉक्स	-14440
▁योगायोग	-14441
▁सिव्हील	-14442
▁आयएफसीआय	-14443
▁बालविवाह	-14444
▁निसर्गाची	-14445
▁परिणामाचा	-14446
▁उत्कृष्टता	-14447
▁एमसीआयच्या	-14448
▁कंपनीद्वारे	-14449
▁देखभालीसाठी	-14450
▁युक्तिवादाची	-14451
▁साक्षीदाराला	-14452
▁हायकोर्टाकडे	-14453
▁कर्मचार्यांकडून	-14454
▁कार्यकारिणीच्या	-14455
▁पुनरावलोकनासाठी	-14456
ृण	-14457
िपल	-14458
▁टु	-14459
कुलम	-14460
▁अजा	-14461
▁चित	-14462
▁नाझ	-14463
▁पित	-14464
▁हबी	-14465
▁आईने	-14466
▁एमएच	-14467
▁घडते	-14468
▁मेजर	-14469
▁सासू	-14470
▁ढकलले	-14471
▁परमिट	-14472
▁फिरोज	-14473
्यास्पद	-14474
▁अजेंडा	-14475
▁गमावली	-14476
▁घडल्या	-14477
▁चार्टर	-14478
▁डिप्लो	-14479
▁ड्रग्स	-14480
▁पेटीशन	-14481
▁वाक्ये	-14482
▁सिक्री	-14483
▁सेबीने	-14484
▁अपग्रेड	-14485
▁फर्निचर	-14486
▁वस्तूची	-14487
▁विनियोग	-14488
▁व्हिडीओ	-14489
▁संस्कार	-14490
▁सरस्वती	-14491
▁साम्राज	-14492
▁अविवाहित	-14493
▁आरोपींसह	-14494
▁भूमिकेचा	-14495
▁संस्थेचा	-14496
▁हाताच्या	-14497
▁सामायिकरण	-14498
▁स्वैच्छिक	-14499
▁कोर्टानेही	-14500
[...]
