<unk>	0
<s>	0
</s>	0
UuRrLl	0
DdAaTtEe	0
NnUuMm	0
या	-0
्या	-1
▁क	-2
▁आ	-3
▁.	-4
▁प	-5
▁स	-6
र्	-7
▁अ	-8
▁न	-9
्र	-10
ार	-11
ेल	-12
▁त	-13
▁व	-14
▁म	-15
च्या	-16
▁,	-17
हे	-18
्य	-19
▁द	-20
वा	-21
ही	-22
ला	-23
▁ज	-24
क्	-25
ती	-26
▁आहे	-27
▁या	-28
▁आण	-29
▁प्र	-30
▁आणि	-31
िक	-32
▁केल	-33
ने	-34
ां	-35
ण्या	-36
▁ह	-37
▁कर	-38
ात	-39
▁त्या	-40
चा	-41
▁अस	-42
▁श	-43
ित	-44
्ह	-45
ले	-46
ाही	-47
▁र	-48
ून	-49
▁ए	-50
ता	-51
ना	-52
▁नि	-53
चे	-54
▁वि	-55
▁ग	-56
स्	-57
▁का	-58
ची	-59
▁ब	-60
ील	-61
क्ष	-62
सा	-63
ते	-64
▁नाही	-65
ंत	-66
▁-	-67
▁उ	-68
▁की	-69
ल्या	-70
वर	-71
▁को	-72
नी	-73
द्	-74
▁हो	-75
▁घ	-76
▁सं	-77
णे	-78
ली	-79
िं	-80
▁)	-81
मा	-82
लेल	-83
त्	-84
ठी	-85
▁स्	-86
साठी	-87
▁ख	-88
▁दि	-89
▁(	-90
▁म्ह	-91
ेश	-92
▁मा	-93
दी	-94
ष्	-95
▁पर	-96
▁करण्या	-97
त्या	-98
्ये	-99
वि	-100
णा	-101
▁भ	-102
▁पु	-103
ाव	-104
ेव	-105
िका	-106
कर्	-107
▁किं	-108
▁न्या	-109
▁हे	-110
▁सा	-111
▁किंवा	-112
▁य	-113
▁दे	-114
▁म्हण	-115
टा	-116
▁जा	-117
कार	-118
▁केले	-119
ध्ये	-120
▁न्याया	-121
▁अप	-122
ास	-123
कर	-124
ति	-125
ष्ट	-126
पी	-127
रो	-128
ंनी	-129
दा	-130
ुस	-131
देश	-132
▁गेल	-133
▁वा	-134
▁ठ	-135
▁शक	-136
लेल्या	-137
ेत	-138
▁फ	-139
णी	-140
▁काय	-141
▁रा	-142
का	-143
र्ण	-144
▁अध	-145
▁याच	-146
र्व	-147
द्या	-148
▁कोण	-149
▁"	-150
्हा	-151
▁ल	-152
▁तर	-153
ंच्या	-154
ल्	-155
▁पा	-156
ंद	-157
सी	-158
▁/	-159
▁असे	-160
▁सु	-161
स्थ	-162
हि	-163
्री	-164
▁केलेल	-165
कर्त्या	-166
▁म्हणून	-167
र्टा	-168
शी	-169
▁पी	-170
मध्ये	-171
ारा	-172
तील	-173
▁याचिका	-174
धी	-175
न्	-176
र्य	-177
▁प्रति	-178
ारी	-179
▁च	-180
▁झ	-181
▁अपील	-182
ब्	-183
स्त	-184
▁न्यायाल	-185
▁इ	-186
नुस	-187
▁कोर्टा	-188
रा	-189
टी	-190
▁केली	-191
▁झा	-192
▁ला	-193
▁ड	-194
▁एक	-195
▁आरो	-196
▁कार	-197
ारे	-198
▁व्य	-199
नुसार	-200
▁केला	-201
री	-202
ंड	-203
क्त	-204
ोग	-205
ाप	-206
ाब	-207
्यू	-208
▁मु	-209
कड	-210
तर	-211
▁आहेत	-212
▁हा	-213
शा	-214
ंतर	-215
▁होते	-216
▁ते	-217
जी	-218
श्	-219
▁दा	-220
त्र	-221
▁आव	-222
▁परि	-223
र्ग	-224
्यक	-225
करण	-226
ाग	-227
क्ती	-228
द्ध	-229
ंध	-230
िती	-231
मी	-232
▁निय	-233
▁उप	-234
▁घे	-235
ण्यात	-236
जे	-237
▁शकत	-238
▁नो	-239
▁कायद्या	-240
नि	-241
ंना	-242
मु	-243
च्	-244
▁ज्या	-245
▁च्या	-246
ंब	-247
▁गु	-248
▁क्र	-249
▁खट	-250
पू	-251
▁निर्ण	-252
की	-253
प्र	-254
▁अशा	-255
ब्ल	-256
▁:	-257
▁अधिक	-258
पास	-259
श्यक	-260
▁आरोपी	-261
ब्ल्यू	-262
लम	-263
▁राज	-264
▁केलेल्या	-265
▁रो	-266
ळे	-267
▁ति	-268
▁आवश्यक	-269
▁याचिकाकर्त्या	-270
ृत	-271
ांच्या	-272
नंतर	-273
र्भ	-274
चार	-275
▁न्यायालया	-276
बंध	-277
▁जात	-278
दार	-279
र्थ	-280
▁गेले	-281
वादी	-282
▁दो	-283
र्या	-284
पा	-285
▁पुर	-286
▁सर्व	-287
▁एस	-288
▁ठेव	-289
▁प्रतिवादी	-290
▁पीड	-291
क्र	-292
वारे	-293
▁ये	-294
ोर	-295
▁प्रकरण	-296
ांग	-297
न्य	-298
पणे	-299
मां	-300
द्वारे	-301
वी	-302
▁स्प	-303
वे	-304
▁घेत	-305
कडे	-306
▁आदेश	-307
▁घट	-308
िस	-309
वान	-310
▁कोणत्या	-311
▁केल्या	-312
▁होता	-313
▁कार्य	-314
▁पू	-315
मुळे	-316
धा	-317
▁शि	-318
▁स्पष्ट	-319
खा	-320
▁उत्	-321
▁संबंध	-322
▁जाऊ	-323
र्ज	-324
ूद	-325
हा	-326
▁बा	-327
▁पो	-328
▁यांनी	-329
▁कोणत्याही	-330
ोग्य	-331
▁वे	-332
ंग	-333
▁आम	-334
▁वर	-335
▁करणे	-336
▁सांग	-337
▁कोर्टाने	-338
▁व्यक्ती	-339
▁दाख	-340
▁विचार	-341
▁तो	-342
ण्यासाठी	-343
स्थिती	-344
ळा	-345
▁पीडब्ल्यू	-346
व्ह	-347
▁श्री	-348
▁सी	-349
▁काही	-350
▁रोजी	-351
▁असा	-352
ईल	-353
क्षा	-354
धार	-355
जू	-356
▁निर्	-357
▁ठर	-358
▁मि	-359
र्गत	-360
▁आले	-361
▁असल्या	-362
▁ऑ	-363
▁असेल	-364
▁नोंद	-365
▁ट	-366
▁प्रा	-367
▁त्याच्या	-368
थे	-369
▁नस	-370
शि	-371
▁सम	-372
र्ड	-373
ेव्हा	-374
ंचा	-375
▁पुढ	-376
▁ओ	-377
▁अंत	-378
च्च	-379
▁करण्यासाठी	-380
से	-381
्रा	-382
▁फि	-383
▁संद	-384
द्द	-385
▁आप	-386
▁0	-387
▁मध्ये	-388
▁संदर्भ	-389
▁दाखल	-390
▁खटल्या	-391
▁चा	-392
दर	-393
चित	-394
▁लाग	-395
▁संबंधित	-396
▁जे	-397
वत	-398
▁त्यांनी	-399
▁होती	-400
धिक	-401
▁समा	-402
▁आय	-403
र्यादी	-404
ण्यास	-405
▁तरत	-406
र्श	-407
प्	-408
▁फिर्यादी	-409
ंतु	-410
ाने	-411
▁सर	-412
ळी	-413
▁नम	-414
▁योग्य	-415
▁ती	-416
▁'	-417
▁नमूद	-418
▁ही	-419
▁कारण	-420
क्क	-421
तो	-422
िट	-423
िल	-424
▁पाहि	-425
ये	-426
▁खा	-427
▁मृत	-428
▁परंतु	-429
▁इतर	-430
▁साक्ष	-431
गी	-432
क्स	-433
▁अर्ज	-434
ंचे	-435
▁अन	-436
रू	-437
▁दु	-438
▁अपीलकर्त्या	-439
▁म्हणूनच	-440
ांनी	-441
▁निर्णया	-442
ीर	-443
्यात	-444
पर	-445
▁कु	-446
▁नियम	-447
आय	-448
डी	-449
धील	-450
ूल	-451
मांक	-452
िंग	-453
ावे	-454
स्ट	-455
▁तथ	-456
खील	-457
▁वै	-458
▁राज्य	-459
ांना	-460
▁स्थ	-461
पत्र	-462
आर	-463
▁गेली	-464
▁यांच्या	-465
▁क्रमांक	-466
▁एखा	-467
▁असलेल्या	-468
माणे	-469
▁दिले	-470
ंप	-471
▁सि	-472
▁त्यांच्या	-473
यी	-474
▁प्रकरणात	-475
मे	-476
रु	-477
िया	-478
्ही	-479
▁तपास	-480
▁सरकार	-481
▁भाग	-482
▁सांगित	-483
▁परिस्थिती	-484
▁पुन	-485
र्यंत	-486
▁मो	-487
▁म्हणजे	-488
▁करण्यात	-489
▁साक्षी	-490
▁ने	-491
▁ध	-492
▁कलम	-493
▁ना	-494
र्ष	-495
▁स्वत	-496
▁दिली	-497
▁सादर	-498
▁केव	-499
▁व्या	-500
ोड	-501
प्रमाणे	-502
भाग	-503
▁अधिकार	-504
▁काम	-505
ंत्र	-506
▁बाब	-507
▁प्रत	-508
▁केवळ	-509
ंट	-510
▁नव्ह	-511
लेला	-512
▁निर्णय	-513
ंची	-514
▁अंतर्गत	-515
▁करण्यास	-516
धीश	-517
▁अनु	-518
▁भर	-519
▁शकते	-520
ण्याची	-521
रे	-522
ाच्या	-523
िम	-524
▁लक्ष	-525
लंब	-526
▁आला	-527
▁मान	-528
▁प्रकार	-529
हित	-530
▁न्यायाधीश	-531
र्वी	-532
धिकर	-533
दे	-534
ेट	-535
ाव्या	-536
णार	-537
▁त्याने	-538
▁प्रश्	-539
▁व्यव	-540
▁उत्तर	-541
टले	-542
एस	-543
▁के	-544
निक	-545
मार	-546
▁पुढे	-547
▁सल्	-548
कर्ता	-549
ारख	-550
▁चौ	-551
▁कर्	-552
माण	-553
लेले	-554
▁अव	-555
▁बाजू	-556
▁उच्च	-557
ोक	-558
\\	-559
तात	-560
▁त्याला	-561
शन	-562
▁अशी	-563
▁नाहीत	-564
▁देखील	-565
▁म्हटले	-566
▁काढ	-567
▁उद्	-568
▁विक	-569
▁पूर्ण	-570
▁भा	-571
ुक	-572
▁एखाद्या	-573
द्दल	-574
▁तया	-575
▁पक्ष	-576
▁मालम	-577
▁मालमत्	-578
दारा	-579
▁अभ	-580
▁वरील	-581
मि	-582
निय	-583
▁सांगितले	-584
लिस	-585
▁गो	-586
▁देण्यात	-587
देशीर	-588
▁दावा	-589
▁कंप	-590
▁माग	-591
▁तयार	-592
▁गुन	-593
▁क्	-594
▁वर्ष	-595
क्षे	-596
▁शिक	-597
ुदी	-598
लेख	-599
▁तरतुदी	-600
▁परवान	-601
ोज	-602
▁दुस	-603
वाद	-604
▁अधि	-605
पासून	-606
▁पोलिस	-607
▁माहि	-608
▁पाहिजे	-609
▁माहिती	-610
▁खटला	-611
लेली	-612
लक	-613
दन	-614
ताना	-615
▁जाते	-616
च्छ	-617
ण्याचा	-618
▁]	-619
▁एससी	-620
्ञ	-621
रि	-622
▁\\	-623
▁अं	-624
▁जिल	-625
पर्यंत	-626
कडून	-627
▁संदर्भात	-628
▁त्यानंतर	-629
बाब	-630
▁सू	-631
▁दर्श	-632
▁गेला	-633
▁से	-634
▁सिद्ध	-635
▁कोणती	-636
▁_	-637
ाय	-638
▁जर	-639
▁डी	-640
▁जेव्हा	-641
▁आर	-642
ांची	-643
ण्याच्या	-644
्याच्या	-645
ात्र	-646
पूर्ण	-647
बद्दल	-648
▁कोणतीही	-649
णार्	-650
सम	-651
▁सह	-652
▁परवानगी	-653
भा	-654
▁निका	-655
▁तक्र	-656
रावा	-657
▁अह	-658
▁जिल्हा	-659
▁ताब	-660
▁आली	-661
ेड	-662
▁निव	-663
सह	-664
▁विद्	-665
▁विद्वान	-666
▁\\\	-667
धिकरणा	-668
▁दोन	-669
▁वापर	-670
▁भार	-671
क्षण	-672
ष्टी	-673
जाव	-674
▁प्रक्र	-675
ूक	-676
्त	-677
▁;	-678
▁मह	-679
▁असल्याचे	-680
▁आम्ही	-681
▁घटने	-682
ताही	-683
▁कंपनी	-684
शे	-685
▁कायद्याच्या	-686
्म	-687
तीने	-688
शिष्ट	-689
▁यु	-690
के	-691
▁लागू	-692
▁कोणताही	-693
▁जाईल	-694
करणा	-695
▁करण्याच्या	-696
▁कोणते	-697
▁झाल्या	-698
▁मत	-699
ुक्त	-700
▁विभाग	-701
मीन	-702
▁मू	-703
▁कोणतेही	-704
▁हक्क	-705
▁मिळ	-706
▁आरोप	-707
त्त्	-708
▁परिणा	-709
▁तपासणी	-710
ज्ञ	-711
पूर्वी	-712
▁साक्षीदार	-713
▁दिला	-714
▁प्रश्न	-715
▁मं	-716
▁दोष	-717
▁अहवा	-718
▁जी	-719
ष्ठ	-720
▁आपल्या	-721
▁त्यांना	-722
▁पुराव्या	-723
▁रु	-724
नात	-725
पीठ	-726
ोष	-727
▁लक्षात	-728
▁पुरावा	-729
बा	-730
▁आध	-731
▁रे	-732
श्चित	-733
वाय	-734
▁चौक	-735
▁प्रमाण	-736
ण्याचे	-737
▁उल्	-738
▁तेव्हा	-739
▁=	-740
वेश	-741
▁झाले	-742
ंद्र	-743
डे	-744
▁निष्	-745
▁झाला	-746
▁तिच्या	-747
▁करारा	-748
को	-749
गा	-750
▁तसे	-751
▁क्ष	-752
ित्	-753
ांचे	-754
▁सामा	-755
▁हेत	-756
िय	-757
▁साम	-758
▁चौकशी	-759
तीत	-760
लील	-761
▁करून	-762
ापि	-763
▁तथापि	-764
थम	-765
शेष	-766
पु	-767
▁पाठ	-768
▁खटल्याच्या	-769
▁मान्य	-770
वादा	-771
व्य	-772
▁यांना	-773
कर्ष	-774
पे	-775
▁वक	-776
▁काग	-777
▁न्यायालयात	-778
▁विशेष	-779
▁दिस	-780
वात	-781
▁हेतू	-782
र्डर	-783
▁लाव	-784
मान	-785
वरील	-786
▁आढ	-787
▁कायदा	-788
▁पात्र	-789
समोर	-790
मधील	-791
स्तव	-792
▁निवे	-793
▁ऑर्डर	-794
एक्स	-795
▁चाल	-796
▁अधिनिय	-797
▁रिट	-798
▁विशिष्ट	-799
▁वस्त	-800
▁जो	-801
▁करण्याचा	-802
यीन	-803
लाव	-804
एल	-805
▁कागद	-806
▁कोर्टाच्या	-807
क्ट	-808
तीय	-809
▁न्यायालयाने	-810
जा	-811
वरून	-812
र्ट	-813
▁सल्ला	-814
▁खालील	-815
▁अंम	-816
ोध	-817
▁अवलंब	-818
▁न्याय	-819
▁एका	-820
नाव	-821
▁खंड	-822
▁ताब्यात	-823
▁कायदेशीर	-824
▁निश्चित	-825
▁दिलेल्या	-826
▁निवड	-827
ारखे	-828
▁परिस्थितीत	-829
ग्	-830
ांचा	-831
▁शकतो	-832
▁आदेशा	-833
वाई	-834
▁येथे	-835
▁मुख	-836
▁हस्त	-837
ल्यास	-838
िला	-839
▁मिळा	-840
▁अर्थ	-841
▁बी	-842
▁कार्यवा	-843
▁तरी	-844
▁न्यायालय	-845
▁संपूर्ण	-846
रूद्ध	-847
ुकी	-848
▁करू	-849
▁छ	-850
▁सध	-851
▁विश्	-852
▁कार्यवाही	-853
ॉर्ड	-854
ंदर्भ	-855
▁दंड	-856
▁दर्शवि	-857
▁जमीन	-858
ीय	-859
▁तक्रार	-860
▁€	-861
▁एम	-862
▁सुप्र	-863
▁मे	-864
भू	-865
बी	-866
▁सद	-867
▁कागदपत्र	-868
र्स	-869
▁एससीसी	-870
धान	-871
▁बो	-872
ांमध्ये	-873
▁बे	-874
▁निष्कर्ष	-875
▁प्रकरणा	-876
▁[	-877
▁प्रकारे	-878
▁कुमार	-879
न्स	-880
त्य	-881
▁सर्वो	-882
▁राह	-883
▁निर्देश	-884
▁केलेले	-885
▁वेळी	-886
▁सेवा	-887
▁विरो	-888
क्ति	-889
मती	-890
▁मधील	-891
▁आधी	-892
ांड	-893
▁नाकार	-894
▁तसेच	-895
तिरि	-896
▁आढळ	-897
▁केलेली	-898
त्ती	-899
तिरिक्त	-900
▁मर्या	-901
▁न्यायालयीन	-902
▁टा	-903
▁लेख	-904
▁नोंदवि	-905
ातील	-906
▁चे	-907
्मक	-908
चना	-909
▁सर्वोच्च	-910
ल्प	-911
▁स्ट	-912
▁याचिक	-913
▁कॉ	-914
▁मंजू	-915
▁अपीलकर्ता	-916
▁करण्याची	-917
▁सो	-918
लब	-919
▁फे	-920
न्न	-921
दर्श	-922
ंक	-923
पूर	-924
पीसी	-925
▁असू	-926
▁कारवाई	-927
▁लि	-928
▁सब	-929
ेत्र	-930
▁सामान्य	-931
णूक	-932
ऊन	-933
ग्र	-934
▁विक्री	-935
▁लोक	-936
लावधी	-937
▁कालावधी	-938
ेच्या	-939
वास	-940
▁पुढील	-941
▁अवलंबून	-942
▁दृ	-943
▁संस्थ	-944
▁अन्य	-945
▁मूल	-946
ेद	-947
स्थित	-948
▁मंजूर	-949
▁बद	-950
▁पुन्हा	-951
गार	-952
ावी	-953
▁रक्क	-954
साद	-955
गळ	-956
▁थ	-957
ेशन	-958
न्हे	-959
साय	-960
विरूद्ध	-961
▁खंडपीठ	-962
▁बि	-963
▁युक्ति	-964
▁मुख्य	-965
▁रक्कम	-966
ल्यानंतर	-967
क्षम	-968
▁कर्म	-969
ंदर्भात	-970
न्या	-971
हार	-972
▁झाली	-973
▁पद	-974
▁घटना	-975
▁एफ	-976
शिवाय	-977
▁कारणा	-978
▁प्रत्ये	-979
▁रेक	-980
▁स्वी	-981
ूर	-982
▁मृत्यू	-983
▁एन	-984
▁आधारे	-985
▁मी	-986
▁गुन्हे	-987
▁परिणाम	-988
जावणी	-989
लबजावणी	-990
▁रेकॉर्ड	-991
योग	-992
▁अंमलबजावणी	-993
▁सदस	-994
लं	-995
▁बाबतीत	-996
▁डॉ	-997
▁याचिकाकर्त्याने	-998
▁दुसर्	-999
न्ही	-1000
▁शोध	-1001
लन	-1002
▁करण्याचे	-1003
▁स्पष्टपणे	-1004
▁कमी	-1005
▁शु	-1006
▁अधिकारी	-1007
▁वाद	-1008
▁भारतीय	-1009
मिशन	-1010
▁त्याचा	-1011
▁सोड	-1012
▁दर	-1013
्रे	-1014
▁त्याच	-1015
▁पै	-1016
ेला	-1017
णारे	-1018
ळख	-1019
▁गुन्ह	-1020
▁शब्	-1021
▁स्थाप	-1022
पणा	-1023
▁निवेदन	-1024
▁उद्देश	-1025
▁झालेल्या	-1026
्यावर	-1027
▁उपस्थित	-1028
▁सुरू	-1029
नीय	-1030
र्क	-1031
वित	-1032
▁अटी	-1033
▁करता	-1034
लया	-1035
▁मालमत्ता	-1036
▁करते	-1037
धारित	-1038
द्य	-1039
वले	-1040
▁मृ	-1041
्याने	-1042
ान	-1043
▁दोन्ही	-1044
दान	-1045
यत्	-1046
▁दोषी	-1047
▁शिक्षा	-1048
क्षेप	-1049
▁मृता	-1050
काश	-1051
▁विन	-1052
▁करार	-1053
ुन	-1054
▁बँ	-1055
▁दिव	-1056
ांत	-1057
▁गुन्हा	-1058
▁हाय	-1059
▁केलेला	-1060
▁त्याचे	-1061
▁प्रयत्	-1062
▁प्रत्येक	-1063
ंती	-1064
▁स्वीकार	-1065
▁ऑफ	-1066
▁जख	-1067
वार	-1068
ीकरण	-1069
▁सार्व	-1070
्यक्ष	-1071
ांवर	-1072
▁भू	-1073
▁सुनाव	-1074
गर	-1075
▁निकाला	-1076
लंघ	-1077
▁उल्लंघ	-1078
▁ओळख	-1079
नाच्या	-1080
▁वाच	-1081
▁महा	-1082
ंडळा	-1083
▁सध्याच्या	-1084
▁मालमत्ते	-1085
्यां	-1086
▁कृ	-1087
▁योज	-1088
एम	-1089
्स	-1090
▁ठरवि	-1091
पाई	-1092
र्त	-1093
▁खरे	-1094
▁पूर्व	-1095
▁गाव	-1096
▁खालीलप्रमाणे	-1097
▁समिती	-1098
▁होऊ	-1099
जर	-1100
▁चुकी	-1101
क्षित	-1102
▁राम	-1103
▁प्रथम	-1104
▁प्रवेश	-1105
▁वाढ	-1106
▁अट	-1107
▁पुरावे	-1108
▁त्यानुसार	-1109
▁तत्त्	-1110
रण	-1111
हन	-1112
▁वेग	-1113
▁जबाब	-1114
▁करतो	-1115
▁परत	-1116
दारी	-1117
संदर्भात	-1118
स्ता	-1119
▁प्रयत्न	-1120
▁समान	-1121
▁आता	-1122
▁प्राधिकरणा	-1123
▁भाडे	-1124
▁रद्द	-1125
▁कब	-1126
▁पहि	-1127
जनिक	-1128
ाप्त	-1129
▁सार्वजनिक	-1130
▁नव्हती	-1131
ल्यांक	-1132
▁वाज	-1133
टे	-1134
▁विष	-1135
▁तरतूद	-1136
टाळ	-1137
▁तिने	-1138
ंतर्गत	-1139
लब्	-1140
लब्ध	-1141
▁अहवाल	-1142
▁महि	-1143
▁उद्देशाने	-1144
▁आमच्या	-1145
▁वकील	-1146
▁न्यायाधिकरणा	-1147
भूत	-1148
▁फक्त	-1149
▁लवादा	-1150
▁सहा	-1151
▁तिला	-1152
▁भरपाई	-1153
▁होईल	-1154
▁उपलब्ध	-1155
ुल	-1156
आयआर	-1157
▁शा	-1158
ीत	-1159
▁बाजूने	-1160
ांक	-1161
▁औ	-1162
▁शुल्	-1163
▁जारी	-1164
▁उल्लंघन	-1165
▁शक्य	-1166
▁बन	-1167
स्थाप	-1168
▁हायको	-1169
बर	-1170
र्म	-1171
▁पड	-1172
▁गुण	-1173
ूप	-1174
▁शकतात	-1175
▁मुल	-1176
▁करणार्	-1177
ैकी	-1178
▁नसल्या	-1179
▁जाग	-1180
▁माल	-1181
▁बां	-1182
▁|	-1183
▁नंतर	-1184
▁दिसून	-1185
▁नुक	-1186
▁कायद्यानुसार	-1187
ंज	-1188
▁तारखे	-1189
णारी	-1190
▁आव्हा	-1191
▁मार्ग	-1192
▁फेटाळ	-1193
▁दुर्	-1194
▁ॅ	-1195
▁पत्र	-1196
▁ट्र	-1197
▁तीन	-1198
▁मुद्	-1199
प्प	-1200
▁पद्ध	-1201
▁बदल	-1202
लट	-1203
▁हायकोर्टा	-1204
▁स्पष्टीकरण	-1205
▁â	-1206
ध्य	-1207
▁स्वर	-1208
ंवर	-1209
▁विनंती	-1210
▁घोष	-1211
▁शिकलेल्या	-1212
▁उपरो	-1213
भाव	-1214
▁गुन्हेग	-1215
पेक्षा	-1216
▁उद्भ	-1217
▁उपरोक्त	-1218
म्या	-1219
िन	-1220
▁सक्षम	-1221
ंभ	-1222
▁सुनावणी	-1223
धात	-1224
▁अय	-1225
▁वतीने	-1226
न्व	-1227
▁लागेल	-1228
▁युक्तिवाद	-1229
क्षक	-1230
▁सुर	-1231
िये	-1232
कर्ते	-1233
▁विचारात	-1234
▁रि	-1235
▁काळ	-1236
वून	-1237
▁नुकसा	-1238
▁शब्द	-1239
▁सेव	-1240
▁घेण्यात	-1241
ुक्ती	-1242
▁घेता	-1243
▁सुप्रा	-1244
तीच्या	-1245
स्प	-1246
▁कारणास्तव	-1247
दाराने	-1248
▁निर्द	-1249
णारा	-1250
ंमध्ये	-1251
▁प्रक्रिया	-1252
▁प्रकरणातील	-1253
▁त्यांचे	-1254
▁अपीलकर्त्याने	-1255
कीय	-1256
▁वाट	-1257
विध	-1258
घड	-1259
विष	-1260
▁खाली	-1261
च्छेद	-1262
ांतर	-1263
चणी	-1264
▁प्रक्रिये	-1265
▁जि	-1266
▁कायम	-1267
▁स्वतंत्र	-1268
▁खो	-1269
▁बाबी	-1270
था	-1271
▁अभिय	-1272
▁स्वतः	-1273
▁वस्तू	-1274
▁करीत	-1275
▁मते	-1276
▁देय	-1277
▁पदा	-1278
▁पक्षा	-1279
▁विद्या	-1280
▁कर्त	-1281
▁पूर्णपणे	-1282
▁?	-1283
्हाला	-1284
▁नव्हते	-1285
म्यान	-1286
▁कर्मचा	-1287
▁असते	-1288
खी	-1289
▁नियुक्ती	-1290
▁घेतला	-1291
ृत्ती	-1292
▁करतात	-1293
ल्यांकन	-1294
▁नवी	-1295
▁नेम	-1296
▁नियमां	-1297
कारी	-1298
ंबर	-1299
▁डब्ल्यू	-1300
▁प्राप्त	-1301
िता	-1302
▁पे	-1303
काय	-1304
▁आव्हान	-1305
घट	-1306
▁नकार	-1307
▁अहवाला	-1308
▁तेथे	-1309
▁असेही	-1310
▁गोष्टी	-1311
▁मांड	-1312
▁कार्यक्ष	-1313
ग्री	-1314
▁याचिकाकर्ता	-1315
दत	-1316
▁त्यांची	-1317
▁गुन्ह्या	-1318
टीस	-1319
▁आम्हाला	-1320
बाबत	-1321
हो	-1322
▁मूळ	-1323
▁नोंदणी	-1324
▁नये	-1325
वळ	-1326
▁जास्त	-1327
▁सत्य	-1328
सिंग	-1329
▁येणार	-1330
▁नव्हता	-1331
▁सबमिशन	-1332
▁अंतिम	-1333
ापत्र	-1334
▁नाग	-1335
▁पालन	-1336
▁त्यास	-1337
▁खरेदी	-1338
्ल	-1339
▁पाठवि	-1340
▁वेळ	-1341
▁ऐ	-1342
▁अतिरिक्त	-1343
▁प्रतिसाद	-1344
▁संर	-1345
▁देणे	-1346
▁शास	-1347
▁गुन्हेगारी	-1348
▁शक्ती	-1349
▁नोटीस	-1350
▁पत्	-1351
▁सल्ल्या	-1352
ंदी	-1353
मत	-1354
▁करत	-1355
ट्	-1356
▁परिच्छेद	-1357
▁कर्मचार्	-1358
▁जोड	-1359
▁कौ	-1360
्यु	-1361
▁राज्या	-1362
▁प्रस्ता	-1363
स्ती	-1364
▁अधिनियम	-1365
▁शं	-1366
▁विधान	-1367
▁बांध	-1368
▁येईल	-1369
▁असल्यास	-1370
▁कि	-1371
स्कार	-1372
▁लेखी	-1373
▁आकार	-1374
▁नुकसान	-1375
▁दुरु	-1376
▁मुला	-1377
▁मोठ	-1378
▁शकेल	-1379
▁येत	-1380
▁यांचे	-1381
वरित	-1382
न्वये	-1383
▁परी	-1384
▁अस्त	-1385
▁अस्तित्	-1386
▁अधी	-1387
▁स्थिती	-1388
▁इच्छ	-1389
ावर	-1390
▁उलट	-1391
▁करा	-1392
▁एक्स	-1393
तेच्या	-1394
ेत्रा	-1395
▁ठेवले	-1396
▁सामग्री	-1397
ाल	-1398
ग्रह	-1399
▁ची	-1400
्हे	-1401
▁टप्प	-1402
▁महत्त्	-1403
▁जातो	-1404
▁उत्पा	-1405
▁कार्या	-1406
▁विविध	-1407
पड	-1408
▁देण्यास	-1409
▁ठिका	-1410
रात	-1411
मेद	-1412
▁घेण्यास	-1413
ल्ली	-1414
▁संचा	-1415
▁मानले	-1416
नास	-1417
▁डि	-1418
▁चाचणी	-1419
ैर	-1420
▁संहित	-1421
▁निरी	-1422
▁याची	-1423
▁प्रकाश	-1424
िसू	-1425
▁फाय	-1426
▁उमेद	-1427
▁खात	-1428
▁याचा	-1429
▁अधिसू	-1430
▁आढळले	-1431
वाणी	-1432
र्चा	-1433
▁उघड	-1434
ऐव	-1435
▁एल	-1436
▁मागणी	-1437
▁टाक	-1438
▁बाजूला	-1439
प्त	-1440
▁कामगार	-1441
िष्ठ	-1442
क्षणा	-1443
▁घड	-1444
▁अश	-1445
▁पुरस्कार	-1446
▁वड	-1447
▁वरिष्ठ	-1448
▁जमा	-1449
▁टी	-1450
▁समज	-1451
▁गैर	-1452
▁प्रश	-1453
पैकी	-1454
वासी	-1455
एक्सएक्स	-1456
ाचा	-1457
▁घेतली	-1458
विष्ट	-1459
▁पास	-1460
▁शुल्क	-1461
▁वस्तु	-1462
देखील	-1463
▁पॅ	-1464
▁अपय	-1465
नावर	-1466
रुद्ध	-1467
▁घटनेच्या	-1468
धानिक	-1469
▁बेकाय	-1470
▁आवश्यकता	-1471
▁याचिकाकर्ते	-1472
रक	-1473
्रीय	-1474
द्यक	-1475
▁कार्यक्षेत्र	-1476
▁रुप	-1477
▁सिं	-1478
द्यकीय	-1479
▁मन	-1480
▁प्रतिज्ञ	-1481
▁संप	-1482
▁एफआयआर	-1483
ण्यापूर्वी	-1484
▁दिन	-1485
▁मान्यता	-1486
▁पूर्वी	-1487
▁समाविष्ट	-1488
▁मूलभूत	-1489
त्त	-1490
ाची	-1491
पाल	-1492
▁बेकायदेशीर	-1493
रित	-1494
▁मूल्यांकन	-1495
▁ई	-1496
▁वैद्यकीय	-1497
▁प्रतिज्ञापत्र	-1498
▁स्वा	-1499
▁समर्थ	-1500
▁द्या	-1501
दित	-1502
▁हस्तांतर	-1503
▁त्र	-1504
कारक	-1505
▁यावर	-1506
▁पत्नी	-1507
▁उल्लेख	-1508
▁प्रमाणात	-1509
▁पहिल्या	-1510
▁ले	-1511
▁म्हणजेच	-1512
▁आयपीसी	-1513
▁नवीन	-1514
▁असल्याने	-1515
▁उद्भव	-1516
▁वगळ	-1517
तिक	-1518
चल	-1519
कु	-1520
▁बँक	-1521
▁ज्यात	-1522
धून	-1523
नात्मक	-1524
एन	-1525
▁असून	-1526
र्मा	-1527
▁प्रतिनि	-1528
ीला	-1529
▁केंद्र	-1530
▁न्यायाधीशांनी	-1531
▁अभि	-1532
▁मालक	-1533
▁दिनांक	-1534
मेंट	-1535
शील	-1536
वारी	-1537
क्टर	-1538
लक्ष	-1539
▁असता	-1540
▁घेतलेल्या	-1541
▁ऐक	-1542
ख्या	-1543
▁मुद्दा	-1544
▁घ्या	-1545
▁मुलगा	-1546
▁शे	-1547
ात्मक	-1548
▁त्याची	-1549
▁न्यायालयाच्या	-1550
▁सहाय	-1551
▁कोर्टाचे	-1552
▁दिलेली	-1553
▁कराराच्या	-1554
▁शिकलेला	-1555
ुंब	-1556
जन	-1557
व्या	-1558
अंतर्गत	-1559
डब्ल्यू	-1560
▁माझ	-1561
▁पार	-1562
▁तत्त्वा	-1563
▁ठेवला	-1564
▁दृष्टी	-1565
▁सरकारी	-1566
▁वस्तुस्थिती	-1567
▁वैधानिक	-1568
▁समु	-1569
▁अधीन	-1570
र्च	-1571
हेर	-1572
▁त्यातील	-1573
▁मंडळा	-1574
सर्ग	-1575
▁विका	-1576
▁वर्ग	-1577
▁व्यवस्थाप	-1578
▁जबाबदार	-1579
टुंब	-1580
▁प्रत्यक्ष	-1581
▁जरी	-1582
▁पीडित	-1583
सूल	-1584
▁व्याज	-1585
ुली	-1586
▁विरुद्ध	-1587
▁प्रमाणपत्र	-1588
▁दिलेला	-1589
धारक	-1590
ंभीर	-1591
▁गंभीर	-1592
▁तु	-1593
▁अपयशी	-1594
▁क्षेत्रा	-1595
▁दरम्यान	-1596
▁एकत्र	-1597
ंत्रा	-1598
▁निकाल	-1599
▁पोट	-1600
▁फेटाळून	-1601
▁वकिला	-1602
धारण	-1603
▁बजाव	-1604
▁दावे	-1605
ातून	-1606
▁अग	-1607
▁घेतल्या	-1608
▁प्रदान	-1609
▁आलेल्या	-1610
▁कर्ज	-1611
व्हे	-1612
▁बचा	-1613
▁एच	-1614
ौज	-1615
ारावर	-1616
▁पुरे	-1617
काच्या	-1618
पुर	-1619
कल्प	-1620
▁त्	-1621
▁ठिकाणी	-1622
▁खंडपीठाने	-1623
▁संधी	-1624
▁राहि	-1625
▁हस्तक्षेप	-1626
▁संचालक	-1627
गळ्या	-1628
▁वाजवी	-1629
▁नोंदव	-1630
त्म	-1631
▁वेत	-1632
▁अधिनियमा	-1633
▁करेल	-1634
▁दिल्ली	-1635
ौजदारी	-1636
टर	-1637
▁तक्रारी	-1638
्यास	-1639
नाचा	-1640
डा	-1641
▁घटक	-1642
▁फौजदारी	-1643
चने	-1644
▁अधिका	-1645
▁घेऊन	-1646
▁देऊन	-1647
▁शिक्षे	-1648
▁गर	-1649
▁दुर्लक्ष	-1650
▁निर्णयावर	-1651
▁संश	-1652
▁अपीला	-1653
▁तप	-1654
नाची	-1655
▁अयोग्य	-1656
ोप	-1657
▁हजर	-1658
▁विशेषत	-1659
▁प्रार्थ	-1660
▁अने	-1661
▁जागे	-1662
र्फ	-1663
विषयी	-1664
▁जन	-1665
विला	-1666
▁आदेशानुसार	-1667
▁विध	-1668
▁बंध	-1669
▁व्याप	-1670
▁आयुक्त	-1671
लंबित	-1672
ँड	-1673
▁नियुक्त	-1674
ंसाठी	-1675
खंड	-1676
▁प्रकारच्या	-1677
▁अनेक	-1678
▁असणे	-1679
▁ठा	-1680
▁उपयोग	-1681
▁लिम	-1682
▁सिंग	-1683
▁अनि	-1684
▁येते	-1685
▁प्रो	-1686
रिक	-1687
▁याचिके	-1688
▁प्रशास	-1689
▁कबूल	-1690
धिकरण	-1691
र्ती	-1692
म्	-1693
▁विरोधात	-1694
क्ता	-1695
▁टप्प्यावर	-1696
▁संस्था	-1697
▁आपण	-1698
▁वैध	-1699
▁रोख	-1700
▁शंका	-1701
एफ	-1702
▁निर्दोष	-1703
▁शेव	-1704
▁जातात	-1705
▁होत	-1706
गड	-1707
▁घेणे	-1708
▁योजने	-1709
▁समावेश	-1710
▁कागदपत्रे	-1711
▁अनुस	-1712
ाचे	-1713
▁करणारे	-1714
▁गुणव	-1715
घटने	-1716
▁ग्रा	-1717
▁दुरुस्ती	-1718
संब	-1719
प्ती	-1720
▁अन्यथा	-1721
▁गुंत	-1722
थील	-1723
कृत	-1724
▁आरोपींनी	-1725
िटेड	-1726
▁लिमिटेड	-1727
षंग	-1728
▁इंड	-1729
▁आणखी	-1730
▁निवि	-1731
▁मोठ्या	-1732
▁केल्यावर	-1733
▁चांग	-1734
▁मार	-1735
जु	-1736
नाचे	-1737
▁गेलेल	-1738
▁विश्वास	-1739
▁सापड	-1740
▁बस	-1741
▁भाडेकर	-1742
▁कोर्ट	-1743
▁उत्प	-1744
षंगाने	-1745
▁आधारित	-1746
▁तत्	-1747
00	-1748
▁यादी	-1749
▁बांधका	-1750
▁यांचा	-1751
▁अधिकृत	-1752
▁नियंत्र	-1753
लयात	-1754
नाने	-1755
ांमधील	-1756
▁चालू	-1757
संग	-1758
▁हात	-1759
राव	-1760
षण	-1761
पूर्व	-1762
▁दाव्या	-1763
▁गुणवत्	-1764
▁दिवस	-1765
▁सुप	-1766
▁अधिकारा	-1767
▁पाव	-1768
▁असतील	-1769
▁त्वरित	-1770
रित्या	-1771
▁घेतले	-1772
▁काढून	-1773
▁नै	-1774
▁पद्धतीने	-1775
▁अनुषंगाने	-1776
लय	-1777
▁सूट	-1778
खाली	-1779
▁सिंह	-1780
▁पुराव्यां	-1781
वासा	-1782
जार	-1783
▁जखमी	-1784
▁सीआर	-1785
▁पोस्ट	-1786
▁करुन	-1787
▁स्था	-1788
▁आर्थ	-1789
▁हायकोर्टाने	-1790
▁करताना	-1791
▁पट	-1792
▁स्टेशन	-1793
▁खु	-1794
▁कॅ	-1795
▁कधी	-1796
▁आर्थिक	-1797
गि	-1798
चि	-1799
▁जेथे	-1800
▁प्रदेश	-1801
ल्ला	-1802
धिकारी	-1803
▁पैसे	-1804
▁सदस्या	-1805
▁होणार	-1806
▁नं	-1807
▁क्षेत्र	-1808
▁विषया	-1809
▁नुस	-1810
▁आधार	-1811
▁कारणे	-1812
थमिक	-1813
स्वी	-1814
▁खास	-1815
▁प्राथमिक	-1816
ोन	-1817
▁अड	-1818
▁बंधन	-1819
▁वास्तव	-1820
▁रक	-1821
यक	-1822
▁बोल	-1823
▁याचिकाकर्त्याला	-1824
▁असले	-1825
▁म्हणणे	-1826
्याय	-1827
▁प्रतिबंध	-1828
▁मध्य	-1829
मधून	-1830
बल	-1831
▁पुरेसे	-1832
▁स्व	-1833
मो	-1834
▁नुसार	-1835
▁घाल	-1836
▁व्यवहार	-1837
▁पाह	-1838
▁साध	-1839
ग्णा	-1840
शस्वी	-1841
ॉक	-1842
▁वय	-1843
▁स्थापित	-1844
▁वेतन	-1845
▁जागा	-1846
▁घटनात्मक	-1847
▁उपाय	-1848
▁रकमे	-1849
▁स्वाक्ष	-1850
▁व्यक्त	-1851
▁अपीलकर्त्याच्या	-1852
रोबर	-1853
▁मर्यादित	-1854
ित्व	-1855
▁अगदी	-1856
घात	-1857
▁ज्यामध्ये	-1858
▁परिणामी	-1859
▁कायद्यात	-1860
▁कालावधीत	-1861
▁नियमित	-1862
▁येथील	-1863
▁वेगवे	-1864
र्प	-1865
निर्	-1866
▁बंद	-1867
्रीम	-1868
ांकडून	-1869
▁पाहिले	-1870
▁पाड	-1871
र्थी	-1872
ांसाठी	-1873
यक्त	-1874
यक्तिक	-1875
▁वैयक्तिक	-1876
▁व्ह	-1877
नाही	-1878
▁कर्तव्य	-1879
▁सुधारित	-1880
▁वादी	-1881
▁धोर	-1882
▁मूल्य	-1883
▁देश	-1884
▁वास्तविक	-1885
सि	-1886
▁वार	-1887
▁प्रभ	-1888
▁आक्षेप	-1889
▁कुटुंब	-1890
▁म्हणा	-1891
▁उदा	-1892
▁नेमणूक	-1893
▁पीओ	-1894
▁पुनर्	-1895
▁असताना	-1896
▁अंतर	-1897
▁जाणे	-1898
▁निविदा	-1899
▁भूम	-1900
▁नसते	-1901
▁व्यक्तीला	-1902
▁स्वात	-1903
▁कार्यकारी	-1904
वाह	-1905
▁केल्याप्रमाणे	-1906
▁प्रतिवादीने	-1907
▁द्	-1908
▁चार	-1909
वल	-1910
▁कृती	-1911
▁आठ	-1912
▁महिन्या	-1913
दाराच्या	-1914
▁समुप	-1915
युक्त	-1916
▁निदर्श	-1917
▁सर्	-1918
▁समुपदेश	-1919
▁ग्र	-1920
▁गरज	-1921
▁मला	-1922
सं	-1923
ग्न	-1924
ॅट	-1925
▁उत्पादन	-1926
▁इत	-1927
▁जोर	-1928
▁सुप्रीम	-1929
▁अन्वये	-1930
▁देऊ	-1931
द्योग	-1932
▁कायद्यातील	-1933
▁आधारावर	-1934
▁धर	-1935
▁आयोग	-1936
▁महत्त्व	-1937
भे	-1938
▁काढला	-1939
जि	-1940
▁दर्शवित	-1941
▁आपला	-1942
▁आई	-1943
▁गेल्या	-1944
▁व्यक्तीने	-1945
▁पर्यंत	-1946
▁तथ्य	-1947
▁असलेले	-1948
लि	-1949
▁उमेदवार	-1950
▁एकल	-1951
▁पुष्टी	-1952
▁तरीही	-1953
▁सूचना	-1954
▁त्यांचा	-1955
▁फिर्यादीने	-1956
▁कठ	-1957
▁देण्यासाठी	-1958
▁खटल्याची	-1959
▁घरी	-1960
▁रुपये	-1961
▁अभियोग	-1962
▁तारखेपासून	-1963
▁निदर्शनास	-1964
▁डब्ल्यूपी	-1965
ल्यामुळे	-1966
▁पुनराव	-1967
▁बिहार	-1968
▁आरोपीने	-1969
▁प्रार्थना	-1970
नातून	-1971
▁तपशील	-1972
▁व्यक्तीच्या	-1973
▁प्रकरणांमध्ये	-1974
▁निर्माण	-1975
▁सदस्य	-1976
जुरी	-1977
वेळी	-1978
सर	-1979
▁कम	-1980
▁चर्चा	-1981
▁न्यायाधीशांच्या	-1982
▁वर्षे	-1983
▁न्याय्य	-1984
ठा	-1985
वाच्या	-1986
तून	-1987
▁सरकारच्या	-1988
▁देव	-1989
▁मुद	-1990
हर	-1991
पूर्वक	-1992
▁नोंदी	-1993
▁ट्रा	-1994
ंधी	-1995
▁अनुसू	-1996
▁एकदा	-1997
▁गेलेल्या	-1998
▁सूचित	-1999
१०	-2000
▁प्रसाद	-2001
▁डिस	-2002
▁वित	-2003
▁व्ही	-2004
चारी	-2005
▁न्यायाधिकरणाने	-2006
▁नाव	-2007
तपास	-2008
▁प्रलंबित	-2009
तपासणी	-2010
विली	-2011
▁राष्ट	-2012
दात	-2013
▁आरोपीला	-2014
▁विकास	-2015
▁दूर	-2016
तेचा	-2017
▁व्याव	-2018
▁श्रीमती	-2019
▁जोपर्यंत	-2020
▁उलटतपासणी	-2021
▁जवळ	-2022
▁निवेद	-2023
वाना	-2024
▁रोजीच्या	-2025
▁कोर्टाला	-2026
▁पॉ	-2027
र्ध	-2028
▁एक्	-2029
ंगिक	-2030
▁घटनास्थ	-2031
▁विवे	-2032
▁अटक	-2033
▁यापूर्वी	-2034
रं	-2035
▁कठोर	-2036
▁योजना	-2037
अर	-2038
▁घोषित	-2039
करी	-2040
▁उपस्थिती	-2041
▁फा	-2042
▁भाडेकरू	-2043
▁वर्ण	-2044
▁वाह	-2045
▁इमार	-2046
▁जप्त	-2047
▁अर्जदार	-2048
खल	-2049
ऐवजी	-2050
▁भि	-2051
▁देताना	-2052
▁मदत	-2053
▁पोहो	-2054
व्ही	-2055
▁विद्यापीठ	-2056
िंद	-2057
विण्यात	-2058
▁वेगवेगळ्या	-2059
णू	-2060
▁देख	-2061
▁आल्या	-2062
गिरी	-2063
▁देत	-2064
▁न्यायालयासमोर	-2065
▁रिक्त	-2066
▁तिचा	-2067
▁दृष्टीने	-2068
▁माननीय	-2069
सु	-2070
श्व	-2071
ढे	-2072
▁आरोपींना	-2073
▁रुग्णा	-2074
▁उत्तरदा	-2075
▁सुधार	-2076
ष्टिक	-2077
▁एज	-2078
ारीख	-2079
ाराच्या	-2080
▁सहाय्यक	-2081
▁यू	-2082
▁मृतदे	-2083
▁लाभ	-2084
▁आत	-2085
▁गा	-2086
▁मागे	-2087
▁माझ्या	-2088
▁पार्	-2089
▁वाहन	-2090
▁संरक्षण	-2091
जेत	-2092
सर्गिक	-2093
▁ज्याने	-2094
▁दुख	-2095
▁कबुली	-2096
नासाठी	-2097
▁थे	-2098
▁पाहिजेत	-2099
▁हमी	-2100
▁व्यवसा	-2101
वन	-2102
▁पाच	-2103
▁बह	-2104
ारण	-2105
▁काळजी	-2106
▁पोहोच	-2107
▁राज्यघटने	-2108
▁तारख	-2109
▁होतो	-2110
▁दृष्टिक	-2111
▁विवाद	-2112
▁मर्यादा	-2113
▁त्यामुळे	-2114
▁00	-2115
नगर	-2116
यल	-2117
ट्टी	-2118
▁वडिला	-2119
▁व्यवसाय	-2120
▁दंडा	-2121
▁काहीही	-2122
▁व्यवसाया	-2123
ांकडे	-2124
▁अत्य	-2125
म्म	-2126
▁तात	-2127
▁ता	-2128
टक	-2129
▁कोर्टासमोर	-2130
▁प्राधिकरणाने	-2131
▁डॉक्टर	-2132
▁परवाना	-2133
▁बाहेर	-2134
▁नगर	-2135
त्वात	-2136
▁नोट	-2137
ूण	-2138
काळ	-2139
चन	-2140
▁देण्याची	-2141
▁आधीच	-2142
▁ॅड	-2143
▁कल	-2144
▁मोह	-2145
▁केल्याने	-2146
▁देण्याचे	-2147
▁मॅ	-2148
▁यांची	-2149
▁अध्यक्ष	-2150
▁विद्य	-2151
▁अभ्यास	-2152
▁जिथे	-2153
▁तारीख	-2154
तेवर	-2155
▁सचि	-2156
▁दुखाप	-2157
▁ठरले	-2158
▁कंपनीच्या	-2159
वेत	-2160
▁चिन	-2161
▁थेट	-2162
▁पासून	-2163
विधा	-2164
▁मंजुरी	-2165
ेक्षा	-2166
▁नैसर्गिक	-2167
क्का	-2168
▁प्रतिक	-2169
जय	-2170
▁विषय	-2171
▁ठेवण्यात	-2172
▁आत्म	-2173
▁थोड	-2174
र्फत	-2175
दर्शन	-2176
▁मर्यादे	-2177
▁बै	-2178
▁शक्यता	-2179
▁निर्धार	-2180
▁बँके	-2181
क्रम	-2182
▁पीएस	-2183
▁स्वरूप	-2184
लू	-2185
▁घरा	-2186
▁देण्याच्या	-2187
▁सरकारने	-2188
▁अभिव्य	-2189
लोक	-2190
▁एकत्रित	-2191
▁भाष	-2192
▁मुक्त	-2193
▁अस्तित्त्वात	-2194
▁प्रव	-2195
▁असतात	-2196
▁सध्या	-2197
▁विस्त	-2198
▁कायद्याचा	-2199
लात	-2200
▁फरक	-2201
▁सुट	-2202
▁मुली	-2203
▁घर	-2204
▁त्यात	-2205
▁नावे	-2206
▁ज्यामुळे	-2207
▁आपले	-2208
ासाठी	-2209
▁ठो	-2210
▁अंतरिम	-2211
▁वादा	-2212
▁साहित	-2213
▁भांड	-2214
▁कर्मचारी	-2215
▁घेण्यासाठी	-2216
▁नसल्यास	-2217
▁गृ	-2218
▁ठरेल	-2219
▁दिवशी	-2220
▁एकूण	-2221
फार	-2222
▁भिन्न	-2223
ोन्न	-2224
▁पदोन्न	-2225
कुमार	-2226
ाप्र	-2227
▁्या	-2228
▁समर्थन	-2229
▁कंत्रा	-2230
स्था	-2231
निर्देश	-2232
▁चुकीचे	-2233
▁विधा	-2234
कारे	-2235
▁सुम	-2236
▁लवादाच्या	-2237
▁सत्र	-2238
▁पृ	-2239
स्त्र	-2240
▁फस	-2241
▁दिवाणी	-2242
ुष	-2243
ोजित	-2244
्रेणी	-2245
▁मुदत	-2246
▁याचिकाकर्त्यास	-2247
▁रहि	-2248
▁कॉर्प	-2249
▁केल्यास	-2250
▁दुसरी	-2251
▁जन्	-2252
▁निर्णयाच्या	-2253
ाला	-2254
▁खटल्याचा	-2255
▁निवडणूक	-2256
▁फॉ	-2257
▁ठेवणे	-2258
ंचाय	-2259
▁म्हणाले	-2260
▁कामका	-2261
▁बांधकाम	-2262
णेकर	-2263
▁घेण्याची	-2264
▁भौ	-2265
▁वाग	-2266
्रम	-2267
▁संस	-2268
▁पुत्र	-2269
▁शै	-2270
▁स्वाक्षरी	-2271
▁कायद्याचे	-2272
एच	-2273
▁महसूल	-2274
काळी	-2275
▁आतापर्यंत	-2276
फा	-2277
चारा	-2278
▁ताबा	-2279
▁जेणेकर	-2280
▁जसे	-2281
▁शिफार	-2282
▁खटल्यात	-2283
▁पॅरा	-2284
्येष्ठ	-2285
▁असतो	-2286
▁पण	-2287
▁तिस	-2288
▁विलंब	-2289
▁वाजता	-2290
▁इंडिया	-2291
▁जावे	-2292
▁कौत	-2293
▁नागरी	-2294
▁ठरव	-2295
र्ह	-2296
▁हुक	-2297
▁ज्येष्ठ	-2298
▁किंमती	-2299
▁अत्यंत	-2300
▁निक	-2301
ट्या	-2302
▁उत्तरदात	-2303
▁वर्णन	-2304
ोजन	-2305
▁अनिय	-2306
▁तथ्ये	-2307
▁नसल्यामुळे	-2308
▁पदोन्नती	-2309
त्व	-2310
▁युक्तिवादा	-2311
पुढे	-2312
मार्फत	-2313
ारख्या	-2314
▁इत्या	-2315
ंच	-2316
लाल	-2317
▁सवल	-2318
▁जामीन	-2319
रावर	-2320
▁पुरव	-2321
▁निर्णयाचा	-2322
करिता	-2323
▁सुरक्षित	-2324
▁झाल्यास	-2325
▁रेकॉर्डवर	-2326
रस	-2327
▁निकाली	-2328
गु	-2329
निट	-2330
▁कायद्याने	-2331
▁इत्यादी	-2332
भाष	-2333
▁कमिशन	-2334
▁जाही	-2335
▁मालकी	-2336
▁नावा	-2337
▁जाहि	-2338
▁न्यायाच्या	-2339
▁जाहीर	-2340
▁कल्प	-2341
▁ठेवली	-2342
भूमी	-2343
▁घेऊ	-2344
▁पात्रता	-2345
ंटर	-2346
▁आवा	-2347
▁आकाश	-2348
▁भूमिका	-2349
▁झाल्यानंतर	-2350
▁संशया	-2351
▁अभिव्यक्ती	-2352
ंडळ	-2353
▁संभाव	-2354
▁अस्	-2355
▁करावा	-2356
▁चुकीच्या	-2357
ावा	-2358
▁तारखेला	-2359
▁भेट	-2360
▁विधिम	-2361
▁दिसते	-2362
ूम	-2363
▁सात	-2364
▁संभाव्य	-2365
ोल	-2366
▁सर्वसा	-2367
▁घरात	-2368
▁तोंड	-2369
▁व्यावसाय	-2370
मिनी	-2371
ॉट	-2372
▁भौतिक	-2373
११	-2374
▁पार्श्व	-2375
ंकडून	-2376
▁प्रस्ताव	-2377
▁खरं	-2378
▁दिशा	-2379
▁राय	-2380
ल्याप्रमाणे	-2381
▁बंधनकारक	-2382
ेन	-2383
ांब	-2384
न्सी	-2385
▁शर्मा	-2386
ांमुळे	-2387
▁विमा	-2388
▁ब्ल	-2389
▁पार्श्वभूमी	-2390
हक	-2391
विद्या	-2392
▁नोंदणीकृत	-2393
ृत्त	-2394
ंनुसार	-2395
▁आणले	-2396
▁केस	-2397
▁प्रतिवादींनी	-2398
▁प्राधिकरण	-2399
▁त्याद्वारे	-2400
▁मागित	-2401
▁कॉर्पोर	-2402
ांद्वारे	-2403
▁आज	-2404
▁यात	-2405
▁दखल	-2406
▁करावी	-2407
▁विल	-2408
▁दोघ	-2409
▁नोंदवले	-2410
▁महाविद्या	-2411
त्ता	-2412
▁समाधा	-2413
▁दुसरे	-2414
ंडा	-2415
▁तोपर्यंत	-2416
▁आकाशवाणी	-2417
▁यांच्यात	-2418
धान्य	-2419
▁मिळवि	-2420
▁प्रतिनिध	-2421
हाण	-2422
▁कोठ	-2423
▁क्षम	-2424
▁पोलिसांनी	-2425
थित	-2426
▁ज्याचा	-2427
स्पद	-2428
▁हेतूने	-2429
हून	-2430
▁तथ्या	-2431
▁मृतक	-2432
▁बहु	-2433
इट	-2434
▁पूर्त	-2435
सिक	-2436
वार्य	-2437
▁अनिवार्य	-2438
▁त्रास	-2439
ेल्	-2440
▁चिन्ह	-2441
रत	-2442
▁फायदा	-2443
▁शरी	-2444
▁शिक्षण	-2445
▁प्रतिनिधी	-2446
▁चूक	-2447
▁विश्वासा	-2448
ंबई	-2449
पो	-2450
िष्ट	-2451
▁आपली	-2452
▁पूर्वीच्या	-2453
रल	-2454
ंकडे	-2455
▁संयुक्त	-2456
▁ज्ञ	-2457
जिक	-2458
िर	-2459
▁नसल्याचे	-2460
वड	-2461
ुर	-2462
तेची	-2463
मिट	-2464
▁व्यावसायिक	-2465
▁पदवी	-2466
▁विहित	-2467
▁मुंबई	-2468
▁कंपन्या	-2469
▁आरोपीच्या	-2470
▁सुरु	-2471
ेने	-2472
▁शिक्षक	-2473
▁तक्रारदार	-2474
▁प्रतिवादीला	-2475
▁लिहि	-2476
विरो	-2477
▁बाजार	-2478
▁अंमलात	-2479
▁डे	-2480
▁केल्याचा	-2481
▁जमिनी	-2482
बात	-2483
क्षणिक	-2484
▁सुमारे	-2485
होत	-2486
▁खासगी	-2487
्यांनी	-2488
त्तीस	-2489
▁उशी	-2490
▁याद	-2491
▁साक्षीदाराने	-2492
श्च	-2493
▁कायद्याची	-2494
▁शैक्षणिक	-2495
▁करण्यापूर्वी	-2496
▁कायदे	-2497
▁आहोत	-2498
▁पेट	-2499
नंद	-2500
▁ठेवून	-2501
▁फिर्यादीच्या	-2502
▁यामुळे	-2503
▁पाळ	-2504
▁छत्तीस	-2505
इन	-2506
वाचे	-2507
▁जग	-2508
▁शेवटी	-2509
खे	-2510
▁मागील	-2511
▁पुराव्यांच्या	-2512
कल	-2513
▁लो	-2514
▁नेह	-2515
▁उभे	-2516
▁दस्त	-2517
त्री	-2518
लीकडे	-2519
▁रू	-2520
▁विल्	-2521
ांशी	-2522
मित	-2523
व्यव	-2524
▁विरोध	-2525
▁जखम	-2526
▁घेण्याचा	-2527
ंता	-2528
▁पृष्ठ	-2529
▁सर्वसाधारण	-2530
▁प्रकाशात	-2531
▁त्यावर	-2532
मुख	-2533
दर्शक	-2534
काने	-2535
▁नाकारले	-2536
▁निवेदनात	-2537
▁मिळाला	-2538
▁त्यामध्ये	-2539
धिका	-2540
बु	-2541
▁कोर्टाचा	-2542
▁पाठिं	-2543
▁प्राधान्य	-2544
ानुसार	-2545
योग्य	-2546
भास	-2547
▁सार	-2548
न्स्ट	-2549
▁तरतुदीनुसार	-2550
▁जाणार्	-2551
▁असल्याचा	-2552
▁एखादी	-2553
▁पि	-2554
एक्सएक्सएक्सएक्स	-2555
▁निर्दिष्ट	-2556
▁सेट	-2557
▁आणून	-2558
▁वगळता	-2559
▁त्याचप्रमाणे	-2560
▁शी	-2561
▁संब	-2562
▁हिता	-2563
▁छत्तीसगड	-2564
▁खर्च	-2565
▁मृताच्या	-2566
लो	-2567
▁यादव	-2568
▁सोसाय	-2569
▁प्रदर्शन	-2570
ुका	-2571
▁उत्त	-2572
▁जाणार	-2573
▁वर्षांच्या	-2574
▁फसव	-2575
▁अल्प	-2576
▁मृतदेह	-2577
▁ठेवण्यासाठी	-2578
वारा	-2579
▁मेस	-2580
▁मोज	-2581
▁पाठिंबा	-2582
▁पती	-2583
▁असूनही	-2584
▁ब्र	-2585
ण्यानुसार	-2586
▁भाड	-2587
▁कार्यक्षेत्रात	-2588
फ्	-2589
▁सेवे	-2590
▁प्रशासकीय	-2591
▁पक्षांनी	-2592
▁दस्तऐव	-2593
▁तिची	-2594
रिया	-2595
ठाव	-2596
▁साक्षीदारांच्या	-2597
▁व्यक्तीस	-2598
▁नोंदविला	-2599
ासह	-2600
▁विश्ले	-2601
ूत	-2602
▁प्रतिबंधित	-2603
▁देखभा	-2604
▁नंबर	-2605
▁यंत्र	-2606
▁पंचाय	-2607
▁अधिसूचने	-2608
व्यतिरिक्त	-2609
▁इच्छा	-2610
▁नेहमी	-2611
▁जु	-2612
▁बोर्ड	-2613
ष्टात	-2614
▁पैलू	-2615
्र्य	-2616
▁लाल	-2617
▁सबमिट	-2618
▁नव्हे	-2619
▁कौतुक	-2620
▁अशाप्र	-2621
▁पूर्तता	-2622
▁प्रे	-2623
▁ठोठाव	-2624
▁संपु	-2625
ंत्र्य	-2626
▁अपीलकर्त्यास	-2627
▁भाऊ	-2628
▁उद्दी	-2629
तेचे	-2630
▁सत्यता	-2631
▁निवासी	-2632
▁बैठ	-2633
▁दर्शविली	-2634
▁स्वातंत्र्य	-2635
▁थांब	-2636
▁संपुष्टात	-2637
▁एकम	-2638
जवळ	-2639
▁हल्ला	-2640
▁सामील	-2641
▁हस्तांतरित	-2642
▁नसेल	-2643
▁वाटप	-2644
▁मेसर्स	-2645
▁याचिकेत	-2646
▁दुसरा	-2647
ज्	-2648
▁सुस	-2649
▁अशाप्रकारे	-2650
▁असला	-2651
▁रहिवासी	-2652
▁नियंत्रण	-2653
▁असलेली	-2654
बीआय	-2655
▁निष	-2656
टीच्या	-2657
▁जन्म	-2658
▁अहवालात	-2659
▁दुसरीकडे	-2660
▁पुनरु	-2661
▁नात	-2662
▁किंमत	-2663
ंशी	-2664
वाट	-2665
▁संहितेच्या	-2666
▁दर्शविला	-2667
▁भारत	-2668
ित्र	-2669
▁यासाठी	-2670
▁म्हणण्यानुसार	-2671
ूदी	-2672
▁अपवाद	-2673
बरोबर	-2674
▁बार	-2675
▁तरतूदी	-2676
▁लवाद	-2677
▁नमु	-2678
▁विद्यमान	-2679
▁कोणा	-2680
▁तर्क	-2681
▁भरती	-2682
▁हुकूम	-2683
▁ऑपर	-2684
▁किमान	-2685
द्योगिक	-2686
▁अपरा	-2687
ंत्रित	-2688
▁धना	-2689
▁मुद्द्या	-2690
▁बॅ	-2691
▁औद्योगिक	-2692
ांसह	-2693
▁कट	-2694
▁नियमांनुसार	-2695
▁रूप	-2696
▁अपघात	-2697
▁झाल्यावर	-2698
मन	-2699
▁ठरला	-2700
▁उत्पन्	-2701
▁न्यायालये	-2702
▁रेकॉर्डवरील	-2703
▁चुक	-2704
▁तिचे	-2705
▁समितीने	-2706
▁टे	-2707
▁अधिसूचना	-2708
ध्या	-2709
▁पुनरावलोक	-2710
▁अनुप	-2711
▁संमती	-2712
▁धनादेश	-2713
दाराला	-2714
▁स्थापना	-2715
ल्ट	-2716
▁मिळव	-2717
▁सल्ल्यानुसार	-2718
स्टर	-2719
ृष्ट	-2720
▁प्रभावी	-2721
▁विसंग	-2722
▁घात	-2723
▁पक्षांच्या	-2724
▁चालवि	-2725
▁बॉ	-2726
▁बचाव	-2727
▁माध्य	-2728
▁आधीच्या	-2729
र्न	-2730
▁हु	-2731
▁ज्याच्या	-2732
▁स्थान	-2733
▁घटनास्थळी	-2734
ात्री	-2735
पक्ष	-2736
▁तात्	-2737
▁धोरण	-2738
चर	-2739
▁दुखापत	-2740
माच्या	-2741
▁असो	-2742
▁तुल	-2743
▁मुद्द	-2744
▁विरोधा	-2745
▁व्याख्या	-2746
▁एखादा	-2747
▁सहभाग	-2748
▁आमचे	-2749
▁सर्वात	-2750
ाप्	-2751
▁नोकरी	-2752
▁प्रभाव	-2753
▁विल्हे	-2754
▁महत्त्वपूर्ण	-2755
विरोधात	-2756
▁नसता	-2757
करणे	-2758
▁ठेवता	-2759
पात	-2760
▁पदार्थ	-2761
वर्त	-2762
▁केल्यामुळे	-2763
▁येऊ	-2764
▁दी	-2765
▁ब्लॉक	-2766
निव	-2767
▁रात्री	-2768
वाचा	-2769
फो	-2770
▁समाधान	-2771
नाथ	-2772
▁केंद	-2773
▁सचिव	-2774
▁पालक	-2775
▁तोड	-2776
▁कायद्यांतर्गत	-2777
▁पदावर	-2778
▁हित	-2779
▁टिक	-2780
िक्री	-2781
▁अपीलीय	-2782
▁आंतर	-2783
▁स्थानिक	-2784
▁उचल	-2785
▁रोड	-2786
▁यास	-2787
▁अयशस्वी	-2788
▁याच्या	-2789
▁केल्याबद्दल	-2790
▁स्वरू	-2791
▁मज	-2792
▁पूर्वग्रह	-2793
▁सामाजिक	-2794
▁लव	-2795
▁स्वरूपा	-2796
▁उर्	-2797
▁प्रतिस्प	-2798
▁प्रतिनिधित्व	-2799
▁वर्षां	-2800
▁पार्श्वभूमीवर	-2801
▁टाळ	-2802
▁करावे	-2803
भाई	-2804
मिस	-2805
पट्टी	-2806
▁घेण्या	-2807
णुकी	-2808
व्हर	-2809
▁सीआरपीसी	-2810
▁खर्चा	-2811
▁अनुसूचित	-2812
▁अधिग्रह	-2813
▁बनवि	-2814
▁शब्दा	-2815
ज्ञा	-2816
श्वास	-2817
▁निर्णयामध्ये	-2818
▁खुला	-2819
▁नियमन	-2820
▁शासकीय	-2821
▁विश्व	-2822
▁घेण्याच्या	-2823
तेनुसार	-2824
▁जेणेकरून	-2825
णूकी	-2826
घा	-2827
ईपर्यंत	-2828
ैंगिक	-2829
▁देणार्	-2830
▁त्याच्यावर	-2831
▁प्रकल्प	-2832
क्यात	-2833
राम	-2834
ाया	-2835
द्धी	-2836
▁साव	-2837
▁देण्याचा	-2838
▁दुका	-2839
▁रुग्णालयात	-2840
कू	-2841
▁अटके	-2842
▁उशीर	-2843
▁राहून	-2844
▁उद्दीष्ट	-2845
▁कार्यरत	-2846
▁रक्त	-2847
क्शन	-2848
▁तां	-2849
▁महानगर	-2850
▁विश्वासार्ह	-2851
त्रिक	-2852
▁मद	-2853
णीव	-2854
खर	-2855
▁सेवानिव	-2856
▁परिभाष	-2857
▁कंत्राट	-2858
▁विल्हेवाट	-2859
▁केल्यानुसार	-2860
▁कथित	-2861
▁परीक्षा	-2862
▁अँड	-2863
▁निरा	-2864
्रु	-2865
्यांच्या	-2866
▁हस्तांतरण	-2867
▁१	-2868
▁कोणी	-2869
▁संदर्भित	-2870
जबाब	-2871
▁फिर्यादींनी	-2872
▁मिळाली	-2873
झा	-2874
परा	-2875
ांश	-2876
ज्य	-2877
योगे	-2878
▁स्थापन	-2879
▁मुलगी	-2880
▁केल्याचे	-2881
▁अवै	-2882
▁जाणीव	-2883
▁एकमेव	-2884
▁कामगिरी	-2885
▁नोंदविण्यात	-2886
ल्ड	-2887
▁जातील	-2888
जगी	-2889
▁खोटे	-2890
मिक	-2891
▁सहकारी	-2892
▁डिक्री	-2893
▁चि	-2894
▁अवैध	-2895
▁शेवट	-2896
▁श्रेणी	-2897
द्धा	-2898
▁नसलेल्या	-2899
▁ट्रस्ट	-2900
▁देखभाल	-2901
▁विक्रे	-2902
▁हि	-2903
क्षेपा	-2904
तीचा	-2905
▁घटनेची	-2906
▁कर्ना	-2907
▁तात्पुर	-2908
▁कबुलीजबाब	-2909
▁उपचार	-2910
▁गण	-2911
ंगत	-2912
१२	-2913
▁एआयआर	-2914
▁अत्या	-2915
▁कळ	-2916
▁मध्यस्थ	-2917
▁साक्षीदारांची	-2918
▁वसूल	-2919
ामध्ये	-2920
तः	-2921
▁उत्तरदाय	-2922
▁औचित	-2923
▁आढावा	-2924
▁शस्त	-2925
▁कधीही	-2926
▁पुनर्प्र	-2927
▁नियमांच्या	-2928
ेशी	-2929
▁राख	-2930
▁घेतल्यानंतर	-2931
▁उत्पाद	-2932
▁जबाबदारी	-2933
▁थोडक्यात	-2934
ोरे	-2935
▁थक	-2936
▁विभागीय	-2937
▁ग्राहक	-2938
▁प्	-2939
▁गुंतव	-2940
▁उद्ध	-2941
▁नाकारली	-2942
िके	-2943
▁वी	-2944
▁डिसमिस	-2945
▁तत्त्वे	-2946
▁राज्यातील	-2947
▁मना	-2948
▁युनिट	-2949
▁वं	-2950
▁वडील	-2951
▁सरकारला	-2952
▁कृत	-2953
त्कार	-2954
▁कराराचा	-2955
▁शिस्त	-2956
▁खात्री	-2957
▁निकष	-2958
▁वस	-2959
▁व्यतिरिक्त	-2960
▁राष्ट्रीय	-2961
प्ता	-2962
▁लवकर	-2963
▁सुरुवा	-2964
▁यापुढे	-2965
ंसह	-2966
ाद्वारे	-2967
▁संघ	-2968
▁विवेक	-2969
▁बला	-2970
णाच्या	-2971
▁महारा	-2972
संबंध	-2973
▁सेवेत	-2974
र्चे	-2975
▁नेल	-2976
सन	-2977
▁पारित	-2978
▁न्यायाधिकरण	-2979
▁कुल	-2980
▁ज्याला	-2981
वाची	-2982
▁कर्नाटक	-2983
▁मार्गाने	-2984
पादन	-2985
▁लैंगिक	-2986
▁वैशिष्ट	-2987
▁दरा	-2988
▁विधिमंडळा	-2989
आयसी	-2990
▁शीर्ष	-2991
▁घटन	-2992
▁याबद्दल	-2993
▁प्रत्यक्षात	-2994
ध्	-2995
▁औचित्य	-2996
फॉ	-2997
▁कालावधीसाठी	-2998
▁देता	-2999
▁कोर्टात	-3000
िब	-3001
▁यशस्वी	-3002
▁नाकारला	-3003
▁आधीपासून	-3004
▁व्याप्ती	-3005
द्दी	-3006
ारोप	-3007
▁असावा	-3008
▁उर्वरित	-3009
▁पक्षांना	-3010
▁बर्	-3011
▁साठी	-3012
ंजन	-3013
▁तांत्रिक	-3014
▁अपीलार्थी	-3015
▁शिवाय	-3016
▁आरोग	-3017
▁ठरवले	-3018
▁लावला	-3019
लीन	-3020
र्शी	-3021
▁स्वरु	-3022
▁संकल्प	-3023
▁बलात्कार	-3024
▁लाख	-3025
वू	-3026
▁अवि	-3027
▁विरोधाभास	-3028
▁पहा	-3029
▁खाजगी	-3030
▁करणारा	-3031
दरम्यान	-3032
▁सिद्धांत	-3033
▁विभा	-3034
▁चर्चे	-3035
▁कंपनीने	-3036
▁आयटी	-3037
▁दस्तऐवज	-3038
ाराय	-3039
▁डो	-3040
▁पंचायत	-3041
▁म्हणता	-3042
▁सुरक्षा	-3043
▁प्रतिकूल	-3044
▁अंदा	-3045
ाप्ती	-3046
▁एपी	-3047
▁महानगरपाल	-3048
बाद	-3049
▁सोप	-3050
▁पुरवठा	-3051
▁उत्पन्न	-3052
▁मार्गदर्शक	-3053
िंदू	-3054
न्शन	-3055
▁देवी	-3056
▁जागेवर	-3057
▁प्रतिसादकर्त्या	-3058
▁भागी	-3059
▁दृष्टिको	-3060
▁उदाहर	-3061
▁विरोधी	-3062
▁सहमत	-3063
▁याचिकाकर्त्याचा	-3064
ांपैकी	-3065
्यून	-3066
▁चांगले	-3067
चारिक	-3068
▁भविष	-3069
▁वाचन	-3070
ळणी	-3071
▁विस्तृत	-3072
जित	-3073
▁जनरल	-3074
▁ट्रायल	-3075
ल्याच्या	-3076
वाल	-3077
▁धार	-3078
▁संख्या	-3079
▁प्रतिस्पर्	-3080
▁मंद	-3081
▁पाया	-3082
्यांना	-3083
▁कामकाज	-3084
मस	-3085
▁विद्यार्थ	-3086
▁केल्यानंतर	-3087
▁ली	-3088
म्मद	-3089
▁दोषारोप	-3090
▁अर्थात	-3091
▁बनाव	-3092
▁वापरली	-3093
▁याचिकाकर्त्याची	-3094
्यातील	-3095
बे	-3096
▁अडथ	-3097
लाही	-3098
▁लग्	-3099
दर्शी	-3100
▁प्रतिवादीच्या	-3101
▁जीव	-3102
सरा	-3103
द्याप	-3104
▁आठवड	-3105
▁अद्याप	-3106
▁घटनेत	-3107
▁आरोपपत्र	-3108
मोर	-3109
▁आवाहन	-3110
▁एकाच	-3111
▁व्याया	-3112
▁दिशानिर्देश	-3113
गस्ट	-3114
प्पा	-3115
दाराची	-3116
▁व्यापार	-3117
▁स्वतःच	-3118
▁आवृत्ती	-3119
ंपैकी	-3120
▁ऑगस्ट	-3121
ंगल	-3122
पती	-3123
पक	-3124
▁एजन्सी	-3125
▁ठराव	-3126
▁सकाळी	-3127
▁मालमत्तेच्या	-3128
▁प्रश्नावर	-3129
वते	-3130
▁पलीकडे	-3131
▁राज्याच्या	-3132
ख्ये	-3133
▁प्रश्ना	-3134
▁ज्यायोगे	-3135
▁सुच	-3136
▁मारहाण	-3137
▁याने	-3138
▁लॉ	-3139
▁प्रक	-3140
धिकार	-3141
▁काळात	-3142
▁आहेः	-3143
▁कै	-3144
विणे	-3145
▁समाधानी	-3146
▁पक्षांमधील	-3147
▁उद्धृत	-3148
ल्याचा	-3149
बाकी	-3150
ंद्वारे	-3151
लच्या	-3152
▁मृत्यूच्या	-3153
▁प्रत्यक्षदर्शी	-3154
ेंट	-3155
▁रेल्	-3156
▁थकबाकी	-3157
ारीरिक	-3158
लग्न	-3159
▁वापरा	-3160
▁शारीरिक	-3161
हान	-3162
तेने	-3163
ज्ञान	-3164
▁नेहमीच	-3165
काचा	-3166
ारायण	-3167
▁निर्म	-3168
▁तरतुदींच्या	-3169
▁गुप्ता	-3170
▁स्वतंत्रपणे	-3171
▁फार	-3172
▁तोंडी	-3173
▁मोहम्मद	-3174
▁निरीक्षणा	-3175
▁आयोजित	-3176
▁विषयावर	-3177
▁निर्णयाची	-3178
काची	-3179
▁प्रती	-3180
▁मता	-3181
▁मंत्रा	-3182
▁पक्षाने	-3183
▁दंडनीय	-3184
▁त्यानंतरच्या	-3185
ापर्यंत	-3186
▁हायकोर्टाच्या	-3187
न्ट	-3188
▁उलटतपासणीत	-3189
▁निकालाच्या	-3190
यं	-3191
▁माहित	-3192
▁विचारा	-3193
▁माजी	-3194
▁प्रतिस्पर्धी	-3195
▁अपात्र	-3196
▁डीडब्ल्यू	-3197
▁पेन्शन	-3198
▁काहीच	-3199
ंबंधी	-3200
दंड	-3201
▁उत्तरा	-3202
▁कोटी	-3203
▁काढले	-3204
ोरी	-3205
बाई	-3206
कूल	-3207
▁समजले	-3208
▁अधिग्रहण	-3209
पचारिक	-3210
▁सल्लागार	-3211
ॅन	-3212
▁फॉर्म	-3213
▁संहिता	-3214
ंविरूद्ध	-3215
▁केंद्रीय	-3216
▁व्यक्तीची	-3217
▁प्रक्रिय	-3218
▁स्त्र	-3219
▁होण्याची	-3220
▁नोंदवलेल्या	-3221
▁दिलासा	-3222
ल्याबद्दल	-3223
▁दर्शविण्यासाठी	-3224
▁विशेषतः	-3225
ांतर्गत	-3226
▁नागरिक	-3227
▁विधानस	-3228
▁पक्षाच्या	-3229
▁खंडपीठाच्या	-3230
लॉ	-3231
▁सत	-3232
▁गैरवा	-3233
▁तरतुदींचे	-3234
▁रजा	-3235
▁भारता	-3236
▁वेगळे	-3237
▁नव	-3238
ह्य	-3239
▁डाय	-3240
▁काळजीपूर्वक	-3241
▁कुटुंबातील	-3242
▁नाते	-3243
▁रेल्वे	-3244
▁पळ	-3245
▁राहू	-3246
▁प्रतिज्ञापत्रात	-3247
ाबा	-3248
▁रोज	-3249
▁वन	-3250
पोर्ट	-3251
नार्थ	-3252
▁घोषणा	-3253
▁भाड्याने	-3254
▁निषे	-3255
▁री	-3256
▁ऑफिस	-3257
▁पर्या	-3258
ष्ण	-3259
▁आकर्ष	-3260
▁मै	-3261
▁ट्रेड	-3262
▁परदेश	-3263
▁दंडाधिकारी	-3264
▁प्रस्तावित	-3265
▁शकले	-3266
▁शिक्षित	-3267
ण्यापासून	-3268
▁सोसायटी	-3269
▁कर्तव	-3270
ोत	-3271
▁एक्स्ट	-3272
▁असम	-3273
पेक्स	-3274
▁बनावट	-3275
यू	-3276
माग	-3277
ष्ट्र	-3278
▁सोडले	-3279
क्य	-3280
हारा	-3281
ृती	-3282
▁विरूद्ध	-3283
ेंद्र	-3284
यात	-3285
देव	-3286
▁विकस	-3287
▁जाती	-3288
स्वर	-3289
▁लावली	-3290
▁अपीलकर्त्यांनी	-3291
कीला	-3292
▁कल्या	-3293
▁कॉर्पोरेशन	-3294
▁देतो	-3295
▁गैरवापर	-3296
▁पं	-3297
▁डोक	-3298
काला	-3299
▁पीडी	-3300
▁तरतुदींचा	-3301
▁नसतानाही	-3302
▁मानसिक	-3303
▁अनुदान	-3304
▁सुविधा	-3305
▁सांगण्यात	-3306
▁अनुभ	-3307
▁त्यांच्यावर	-3308
ुटी	-3309
▁शकला	-3310
ल्लक	-3311
▁झाल्याचे	-3312
▁छान	-3313
▁उद्भवत	-3314
▁कलमा	-3315
▁दिलेले	-3316
▁घोषणे	-3317
▁असणारी	-3318
▁निधी	-3319
सीसी	-3320
▁रजि	-3321
सुद्धा	-3322
▁याचिकाकर्त्याचे	-3323
▁लावण्यात	-3324
▁मार्च	-3325
▁सीबीआय	-3326
▁ठरणार	-3327
▁पहिला	-3328
▁भी	-3329
▁बंदी	-3330
▁मनाई	-3331
▁प्रतिसादकर्ता	-3332
▁गॅ	-3333
▁महिला	-3334
▁घेतलेला	-3335
▁पुराव्यांवरून	-3336
तर्गत	-3337
बुद्धी	-3338
▁स्वीकारले	-3339
▁इंग	-3340
▁अनियंत्रित	-3341
▁अर्ध	-3342
▁संसदे	-3343
▁शाळा	-3344
▁वॉ	-3345
▁धो	-3346
▁फी	-3347
▁निरीक्ष	-3348
▁जै	-3349
▁समर्थनार्थ	-3350
▁त्रुटी	-3351
▁000	-3352
वास्तव	-3353
▁अनुपस्थिती	-3354
▁मोट	-3355
▁साह	-3356
▁राहिले	-3357
क्वि	-3358
▁अधिनियमां	-3359
▁जाहिरात	-3360
▁आदेशाच्या	-3361
सो	-3362
कूर	-3363
▁जय	-3364
▁भेद	-3365
▁लग्न	-3366
▁कल्पना	-3367
▁समितीच्या	-3368
▁नियो	-3369
▁उपस्थितीत	-3370
लत	-3371
ंगा	-3372
▁होईपर्यंत	-3373
▁मिळू	-3374
पन	-3375
▁भूखंड	-3376
▁हत्या	-3377
▁सुसंगत	-3378
ळ्या	-3379
▁आरोपींच्या	-3380
▁मौ	-3381
▁साक्षीदारांनी	-3382
▁ओळखले	-3383
स्य	-3384
▁कार्यालया	-3385
▁ठेवण्यास	-3386
▁कॉल	-3387
▁जाण	-3388
▁निर	-3389
▁बाळ	-3390
▁अभियंता	-3391
▁दास	-3392
▁मानवी	-3393
▁छाननी	-3394
▁दंडाधिका	-3395
▁करु	-3396
▁तिच्यावर	-3397
▁दावेदार	-3398
▁वकिलांनी	-3399
मू	-3400
१३	-3401
▁मृताला	-3402
▁धम	-3403
▁राज्याने	-3404
▁कारा	-3405
कार्य	-3406
▁एकतर	-3407
▁सामर्थ	-3408
▁त्यावेळी	-3409
▁चंद	-3410
▁शिफारस	-3411
▁नेले	-3412
▁संहिते	-3413
▁औपचारिक	-3414
ल्स	-3415
▁क्षमता	-3416
▁हल	-3417
निष्ठ	-3418
▁यासंदर्भात	-3419
▁शर्ती	-3420
पद्ध	-3421
▁होण्यापूर्वी	-3422
▁संपर्क	-3423
▁मध	-3424
त्मक	-3425
व्हि	-3426
▁डीड	-3427
▁मिश	-3428
▁चंद्र	-3429
▁वेळो	-3430
▁अपीलमध्ये	-3431
▁योग्यरित्या	-3432
डू	-3433
्वर	-3434
▁असमर्थ	-3435
ंदा	-3436
▁वेळोवेळी	-3437
▁गुन्ह्यासाठी	-3438
ांकित	-3439
▁उक्त	-3440
▁समाज	-3441
▁वकीला	-3442
▁धा	-3443
▁देते	-3444
ईट	-3445
प्रे	-3446
बत	-3447
▁जावी	-3448
▁ज्यांनी	-3449
▁स्टेट	-3450
▁असलेला	-3451
▁कामा	-3452
▁घ्यावा	-3453
▁बचावा	-3454
ण्याबाबत	-3455
▁आनंद	-3456
शाही	-3457
लमेंट	-3458
▁कार्यपद्ध	-3459
▁तित	-3460
▁स्थायी	-3461
▁संरक्षणा	-3462
▁वेळे	-3463
▁अन्याय	-3464
▁प्रमाणे	-3465
▁तक्रारदाराने	-3466
▁ट्रिब	-3467
▁अडथळा	-3468
ीकरणा	-3469
▁खटल्यातील	-3470
▁निरीक्षणे	-3471
हरण	-3472
▁संबोध	-3473
्याचा	-3474
▁नाम	-3475
ॉन	-3476
मिळ	-3477
▁पावले	-3478
ंदर्भातील	-3479
▁रक्ता	-3480
▁कायमस्वर	-3481
▁गौ	-3482
▁अहम	-3483
त्तर	-3484
▁प्रमुख	-3485
▁ज्यांना	-3486
▁व्हि	-3487
▁सेटलमेंट	-3488
▁प्रकरणाची	-3489
▁अपंग	-3490
मानी	-3491
▁अप्र	-3492
▁राहत	-3493
▁पद्धती	-3494
▁खोली	-3495
र्टम	-3496
▁संदर्भातील	-3497
▁देईल	-3498
▁ड्रा	-3499
▁क्रिया	-3500
▁सुनावणीच्या	-3501
▁तथ्यां	-3502
▁गोळा	-3503
▁बैठकी	-3504
नु	-3505
▁स्वातंत्र	-3506
▁प्रमाणित	-3507
▁घेताना	-3508
▁शासनाने	-3509
▁फायद्या	-3510
▁पडता	-3511
▁लॉर्ड	-3512
▁आदेशात	-3513
▁ठरविण्यात	-3514
▁डिसे	-3515
▁कारणावरून	-3516
ासमोर	-3517
▁पुराव्यांचा	-3518
▁रुपया	-3519
▁निसर्ग	-3520
▁बु	-3521
▁त्यापैकी	-3522
▁शिव	-3523
▁घेण्याचे	-3524
ठे	-3525
▁मंडळाने	-3526
▁चिं	-3527
▁लेखा	-3528
मारी	-3529
जेक्ट	-3530
▁अर्थाने	-3531
▁त्याऐवजी	-3532
▁साहित्य	-3533
▁महिन्यांच्या	-3534
खेरी	-3535
▁राजी	-3536
▁महाराष्ट्र	-3537
▁परिष	-3538
▁पुनर्प्राप्ती	-3539
्रि	-3540
▁वाटा	-3541
▁पर्याय	-3542
▁सहमती	-3543
▁दृष्टिकोन	-3544
सू	-3545
▁केल्याच्या	-3546
कालीन	-3547
ृष्ट्या	-3548
▁संविधा	-3549
दृष्ट्या	-3550
▁सही	-3551
▁मेमो	-3552
कांनी	-3553
▁इतके	-3554
▁नसतात	-3555
▁व्यवस्था	-3556
▁डिसेंबर	-3557
यला	-3558
▁दिल्यास	-3559
▁वेध	-3560
▁आंतररा	-3561
वर्तन	-3562
▁ॅपेक्स	-3563
▁शब्दांत	-3564
▁अपे	-3565
▁जामि	-3566
▁प्राय	-3567
डि	-3568
▁तेच	-3569
▁पाल	-3570
▁अनुसूची	-3571
▁दर्शविते	-3572
पट	-3573
▁शंकर	-3574
▁प्रकरणे	-3575
ॉस	-3576
मेश	-3577
▁याला	-3578
▁परीक्षे	-3579
▁शिकले	-3580
▁सर्वा	-3581
चरण	-3582
▁वंचित	-3583
समवेत	-3584
▁सूचने	-3585
कला	-3586
गंज	-3587
▁कड	-3588
▁दिल्या	-3589
ेटर	-3590
▁ऐकले	-3591
▁देणारी	-3592
▁कार्यक्षम	-3593
ुत	-3594
वाला	-3595
▁मांडले	-3596
▁पोलिसांना	-3597
▁प्रक्रियेत	-3598
▁अंग	-3599
रणा	-3600
▁खून	-3601
ज्ञात	-3602
▁सेवेच्या	-3603
▁रस्	-3604
▁खरेदीदार	-3605
▁वापरला	-3606
▁कराय	-3607
▁उद्योग	-3608
▁सामान्यत	-3609
▁वया	-3610
▁दृष्टीको	-3611
▁फिर्यादीला	-3612
भार	-3613
▁नोंदविली	-3614
वरा	-3615
▁उज	-3616
व्हिल	-3617
▁कार्यालयात	-3618
▁जप्ती	-3619
▁सीपीसी	-3620
▁खुलासा	-3621
▁न्यायिक	-3622
इल	-3623
थून	-3624
बद्ध	-3625
▁एप्र	-3626
सीच्या	-3627
▁प्रभाग	-3628
▁आकर्षित	-3629
▁एप्रिल	-3630
त्ये	-3631
▁ऑफर	-3632
▁मालमत्तेचा	-3633
३०	-3634
थी	-3635
▁उत्तरदायी	-3636
▁पुनरावृत्ती	-3637
▁चौध	-3638
▁गुजर	-3639
▁व्यक्तींना	-3640
▁अधिकार्	-3641
▁कारणांमुळे	-3642
▁वाटते	-3643
▁कार्यपद्धती	-3644
▁खाण	-3645
नावश्यक	-3646
▁परिभाषित	-3647
▁जुल	-3648
मंडळा	-3649
▁घेतल्यास	-3650
रिटी	-3651
▁चित्र	-3652
▁देणारा	-3653
▁ढ	-3654
▁करणार	-3655
▁कोठडी	-3656
▁आत्मह	-3657
▁सिव्हिल	-3658
वंत	-3659
▁कल्याण	-3660
▁नोंदविलेल्या	-3661
▁पेटंट	-3662
▁जोरदार	-3663
▁कृत्य	-3664
▁अम	-3665
▁हर	-3666
▁ऑब्	-3667
▁रंग	-3668
कीस	-3669
▁व्यापक	-3670
▁टक्क	-3671
▁समस	-3672
▁तारण	-3673
▁भागात	-3674
▁हॉ	-3675
▁विजय	-3676
▁जुलै	-3677
▁नियोक्ता	-3678
ब्द	-3679
माव	-3680
▁दक्ष	-3681
भेद	-3682
फ्ट	-3683
▁कदा	-3684
▁जबर	-3685
▁पीडीडी	-3686
▁कदाचित	-3687
ासंगिक	-3688
▁मनोर	-3689
▁उघडकीस	-3690
स्ट्र	-3691
▁समाजा	-3692
▁गुजरात	-3693
▁अध्या	-3694
▁नारायण	-3695
▁प्राण	-3696
▁दहा	-3697
क्षेत	-3698
बाहेर	-3699
▁चिन्हांकित	-3700
यन्स	-3701
▁जीवन	-3702
विवाद	-3703
▁न्यायालयातील	-3704
▁विश्लेषण	-3705
▁चौधरी	-3706
▁विवेकबुद्धी	-3707
टू	-3708
गत	-3709
तक	-3710
हस	-3711
▁खे	-3712
गारा	-3713
▁जबरद	-3714
▁विकासा	-3715
▁वेगळ्या	-3716
▁राष्ट्र	-3717
▁सां	-3718
▁चुकीचा	-3719
▁प्री	-3720
▁अधिनियमातील	-3721
▁चालविला	-3722
▁तज्ञ	-3723
▁फसवणूक	-3724
▁ट्रिब्यून	-3725
▁सुधारणा	-3726
▁निर्णयाला	-3727
▁कार्यालय	-3728
चलित	-3729
नामा	-3730
▁निरीक्षक	-3731
▁व्यवस्थापन	-3732
▁वक्त	-3733
▁अनावश्यक	-3734
▁जाने	-3735
▁प्रशि	-3736
▁अधिनियमांतर्गत	-3737
▁अग्र	-3738
▁ठेवू	-3739
▁लागला	-3740
▁अज्ञात	-3741
▁दृष्टिकोनातून	-3742
▁सल्ल्याद्वारे	-3743
▁स्त	-3744
▁सन	-3745
▁खरो	-3746
▁जानेवारी	-3747
▁तत्व	-3748
▁वर्त	-3749
▁फ्ल	-3750
ल्याची	-3751
▁रच	-3752
▁परदेशी	-3753
ंमधील	-3754
▁गट	-3755
▁समोर	-3756
▁खरोखर	-3757
▁पडताळणी	-3758
▁क्षेत्रात	-3759
▁निष्कर्षापर्यंत	-3760
खित	-3761
▁घडली	-3762
▁द्वारे	-3763
▁दार	-3764
▁योग	-3765
▁हितासाठी	-3766
डीच्या	-3767
▁गोष्ट	-3768
▁संपूर्णपणे	-3769
यर	-3770
▁खूप	-3771
▁आग्रह	-3772
▁आरोग्य	-3773
आयएल	-3774
▁गोळी	-3775
▁समजून	-3776
▁प्रक्रियेच्या	-3777
▁दिवसांच्या	-3778
▁धोका	-3779
ांता	-3780
▁सेवानिवृत्ती	-3781
▁स्थितीत	-3782
▁गुन्ह्यां	-3783
▁जण	-3784
▁शिल्लक	-3785
▁भाव	-3786
000	-3787
▁वसुली	-3788
▁सिक	-3789
▁पॉलि	-3790
▁राज्यात	-3791
▁बोली	-3792
वयीन	-3793
▁आचरण	-3794
▁क्रॉस	-3795
▁अर्जावर	-3796
वाने	-3797
▁न्यायालयांनी	-3798
आयटी	-3799
▁आढळून	-3800
फी	-3801
▁अस्प	-3802
▁सल्लामस	-3803
▁सारांश	-3804
निश्चित	-3805
फर	-3806
▁छो	-3807
▁वाचले	-3808
▁करणारी	-3809
शय	-3810
▁शीर्षक	-3811
▁पटना	-3812
▁भंग	-3813
मूर्ती	-3814
▁प्रक्रियेचा	-3815
▁सदर	-3816
▁रॉ	-3817
धन	-3818
वक्ता	-3819
▁अली	-3820
▁शाळ	-3821
ंत्री	-3822
▁मतभेद	-3823
▁पुरेशी	-3824
▁सप्	-3825
▁आलेली	-3826
▁विकसित	-3827
▁उत्तरदायित्व	-3828
▁बहुते	-3829
▁ठरविले	-3830
▁पां	-3831
ांनुसार	-3832
▁वापरल्या	-3833
नेत	-3834
▁घेतलेले	-3835
▁लवादाने	-3836
▁छळ	-3837
▁प्रकारची	-3838
▁अपीलकर्त्याला	-3839
▁दिल्यानंतर	-3840
▁विसंब	-3841
▁सामना	-3842
विले	-3843
▁तिसर्	-3844
▁डिझा	-3845
▁विसंबून	-3846
▁रायपूर	-3847
▁सल्लामसलत	-3848
▁संव	-3849
▁अशाच	-3850
▁कोर्टाकडे	-3851
▁समभाग	-3852
▁सुनिश्चित	-3853
▁नसून	-3854
▁पुराव्यांची	-3855
राज	-3856
र्मिक	-3857
▁निवृत्ती	-3858
▁बाबींचा	-3859
▁उदाहरणा	-3860
▁नसतो	-3861
सीने	-3862
▁हल्	-3863
▁फर	-3864
▁कराराची	-3865
सिए	-3866
▁आरोपा	-3867
▁ठाण्यात	-3868
▁इमारत	-3869
▁मतदार	-3870
▁अनुमान	-3871
▁आपल्याला	-3872
▁तहस	-3873
फॉल्ट	-3874
▁तोडगा	-3875
▁सांगाय	-3876
▁सन्	-3877
▁प्रॉ	-3878
▁अपीलकर्ते	-3879
ेही	-3880
▁स्वीकारला	-3881
▁रद्दबात	-3882
▁खटल्याला	-3883
मारास	-3884
▁जाण्याची	-3885
▁बहुतेक	-3886
▁सुमारास	-3887
▁कमतर	-3888
तेसाठी	-3889
▁असोसिए	-3890
▁जम्म	-3891
▁शांत	-3892
▁संशय	-3893
▁लांब	-3894
▁अनुक्र	-3895
▁नियमांचे	-3896
▁आणला	-3897
▁तहसील	-3898
▁जाणारे	-3899
▁मिश्रा	-3900
▁रद्दबातल	-3901
▁तड	-3902
घातक	-3903
▁असावे	-3904
▁नफा	-3905
टेक	-3906
▁जम्मू	-3907
▁मंडळाच्या	-3908
▁प्राणघातक	-3909
▁मग	-3910
तीची	-3911
ल्यावर	-3912
हार्य	-3913
▁संलग्न	-3914
१४	-3915
ारंभ	-3916
गे	-3917
▁निषेध	-3918
▁पद्धत	-3919
▁पुस्त	-3920
▁हिंदू	-3921
▁सक्ती	-3922
ऊस	-3923
विण्यासाठी	-3924
▁सील	-3925
तीसाठी	-3926
▁होणे	-3927
▁हॉट	-3928
▁असली	-3929
▁इच्छित	-3930
▁पक्षाला	-3931
▁दराने	-3932
▁नातेवाई	-3933
▁आणली	-3934
▁कोणीही	-3935
▁केल्याशिवाय	-3936
▁कायद्यान्वये	-3937
गाव	-3938
संबंधी	-3939
▁द्यावी	-3940
काद्वारे	-3941
पीएस	-3942
▁अपेक्षा	-3943
▁फोन	-3944
मागील	-3945
▁तडज	-3946
▁खरा	-3947
▁उमेदवारा	-3948
ांसमोर	-3949
▁विसंगती	-3950
क्टो	-3951
झे	-3952
▁इन	-3953
वणे	-3954
▁सतत	-3955
▁प्रभारी	-3956
▁मोबा	-3957
▁अस्पष्ट	-3958
▁व्यक्तींच्या	-3959
च्छे	-3960
▁सावध	-3961
▁अर्जदाराने	-3962
ब्रु	-3963
▁उद्भवू	-3964
▁अच	-3965
ष्टा	-3966
▁नूत	-3967
▁राजकीय	-3968
▁लीज	-3969
▁मनमानी	-3970
डर	-3971
िसो	-3972
▁प्रसंग	-3973
▁इच्छुक	-3974
▁होण्याच्या	-3975
डीए	-3976
ंदर	-3977
▁अजि	-3978
ाबाद	-3979
▁बरोबर	-3980
▁राहिला	-3981
▁रोखण्यासाठी	-3982
▁सौ	-3983
काचे	-3984
▁सुरुवाती	-3985
▁मोटार	-3986
▁नंतरच्या	-3987
▁जैन	-3988
▁फेब्रु	-3989
िकी	-3990
प्रयोग	-3991
▁किश	-3992
▁छाया	-3993
▁वारस	-3994
▁लोकांच्या	-3995
▁फेब्रुवारी	-3996
▁गां	-3997
▁ठाकूर	-3998
▁अजिबात	-3999
िकल	-4000
▁अपीलला	-4001
▁भ्र	-4002
▁लेन	-4003
▁परिपत्र	-4004
▁ठेवलेल्या	-4005
▁संशयास्पद	-4006
▁तपशीलवार	-4007
▁पात	-4008
▁कोळ	-4009
▁मेह	-4010
रंट	-4011
▁नूतनी	-4012
शक्ती	-4013
▁हॉटेल	-4014
▁दिसत	-4015
ूट	-4016
▁जखमां	-4017
▁परता	-4018
▁वस्तूंच्या	-4019
ेबल	-4020
अर्स	-4021
स्तीत	-4022
श्वर	-4023
▁भोग	-4024
▁खात्यात	-4025
▁किती	-4026
▁दत्त	-4027
ख्य	-4028
▁पाट	-4029
▁अनियमित	-4030
▁बाळग	-4031
▁उत्तरे	-4032
▁कंपनीला	-4033
▁मालमत्तेचे	-4034
मच्या	-4035
राच्या	-4036
▁मिळालेल्या	-4037
स्थे	-4038
▁तत्त्व	-4039
▁गैरवर्तन	-4040
जन्य	-4041
▁निरीक्षण	-4042
▁दाय	-4043
▁वकिलाने	-4044
▁समुपदेशनाने	-4045
▁बिड	-4046
▁प्रमा	-4047
▁विकृत	-4048
▁सोडण्यात	-4049
चित्र	-4050
▁गोप	-4051
िंब	-4052
▁कसे	-4053
्रॅ	-4054
▁चांगल्या	-4055
नक	-4056
▁आयुष	-4057
▁वाहत	-4058
▁मृताचा	-4059
ग्रहित	-4060
▁निर्बंध	-4061
▁राजेश	-4062
ग्रस्त	-4063
▁आदेशास	-4064
▁भेदभाव	-4065
▁निर्धारणा	-4066
▁पैशा	-4067
▁व्यवहारा	-4068
▁हक्का	-4069
▁यांच्याकडे	-4070
▁पीसी	-4071
▁कर्तव्या	-4072
▁पंच	-4073
▁सप्टे	-4074
नो	-4075
▁अल्पवयीन	-4076
▁सप्टेंबर	-4077
▁न्यायमूर्ती	-4078
▁हरक	-4079
▁आकारले	-4080
▁प्रधान	-4081
▁देतात	-4082
▁आधीपासूनच	-4083
▁महाविद्यालया	-4084
णीय	-4085
वाढ	-4086
▁महत्	-4087
▁धार्मिक	-4088
िंह	-4089
▁निघ	-4090
▁ज्यास	-4091
▁वेळा	-4092
स्पर	-4093
▁सुश	-4094
फे	-4095
▁पुनरावलोकन	-4096
▁याचिकेच्या	-4097
रीत	-4098
डीने	-4099
▁प्रोव्ह	-4100
▁अनुप्रयोग	-4101
▁वर्षाच्या	-4102
▁अचूक	-4103
ाकडे	-4104
▁ग्राम	-4105
▁गोपनीय	-4106
▁प्रतिब	-4107
▁राज्यघटनेच्या	-4108
▁अपीलकर्त्यासाठी	-4109
णुका	-4110
▁इन्	-4111
▁संत	-4112
ष्ट्रीय	-4113
कांना	-4114
▁कृत्या	-4115
वण्यासाठी	-4116
▁प्ल	-4117
▁भागधारक	-4118
▁ओझे	-4119
▁बरे	-4120
▁ट्रिब्यूनल	-4121
▁मानली	-4122
▁पुनरुत्	-4123
▁एएस	-4124
क्या	-4125
▁राष्ट्रपती	-4126
▁झाल्यामुळे	-4127
▁पुरवि	-4128
▁विवादा	-4129
▁दर्शविले	-4130
▁दाखवा	-4131
▁वितरण	-4132
्मी	-4133
▁संघट	-4134
▁केर	-4135
▁खान	-4136
▁ज्ञान	-4137
स्थान	-4138
▁ट्रान्स	-4139
कांच्या	-4140
▁रचना	-4141
▁प्रोव्हिसो	-4142
्रॉ	-4143
▁तृ	-4144
▁जून	-4145
▁ऑब्जेक्ट	-4146
▁म्हणतात	-4147
▁प्रतिबिंब	-4148
▁सदस्यां	-4149
▁सुटका	-4150
▁करारामध्ये	-4151
ध्यापक	-4152
▁करतील	-4153
▁पकड	-4154
▁एसडी	-4155
▁तुरू	-4156
▁जाहिरा	-4157
▁नियुक्तीसाठी	-4158
▁लाभा	-4159
ाना	-4160
िटल	-4161
▁तुरूंग	-4162
▁शिक्षणा	-4163
▁इंटर	-4164
▁बोलाव	-4165
▁मनोरंजन	-4166
्याचे	-4167
▁पंचना	-4168
ल्य	-4169
व्हेट	-4170
▁मुद्दे	-4171
▁पावती	-4172
▁लावले	-4173
टुंबिक	-4174
▁निवास	-4175
▁घ्यावी	-4176
▁पुनर्व	-4177
▁कौटुंबिक	-4178
▁भारतात	-4179
▁लप	-4180
▁प्रारंभ	-4181
ण्याकरिता	-4182
▁तत्काळ	-4183
▁विभाजन	-4184
ळू	-4185
▁वेधले	-4186
▁समन्स	-4187
▁लाद	-4188
▁परस्पर	-4189
▁घटनास्थळा	-4190
▁तिथे	-4191
▁सांगून	-4192
▁संक	-4193
▁ऑर्डरच्या	-4194
उलट	-4195
▁पडला	-4196
▁धर्मा	-4197
▁खाते	-4198
▁आंतरराष्ट्रीय	-4199
धीन	-4200
▁सांगू	-4201
▁ठेवण्याची	-4202
▁जाण्यासाठी	-4203
योज	-4204
ुरू	-4205
▁वर्गीकरण	-4206
▁निश्चितपणे	-4207
▁शो	-4208
▁पाडले	-4209
▁कामकाजा	-4210
▁जहा	-4211
▁रेड	-4212
▁सुल	-4213
▁कोर्टाची	-4214
▁आढळली	-4215
▁हस्तक्षेपा	-4216
▁कप	-4217
ेवारी	-4218
▁असती	-4219
▁स्वतःच्या	-4220
र्षिक	-4221
ंपेक्षा	-4222
▁जास्तीत	-4223
▁स्थग	-4224
▁बाय	-4225
▁अशोक	-4226
▁विना	-4227
▁कॉन्स्ट	-4228
▁घेण्यासारखे	-4229
▁धोरणा	-4230
▁चुकीची	-4231
▁राव	-4232
धिकृत	-4233
▁भाडेपट्टी	-4234
▁दया	-4235
▁आयात	-4236
▁घेतलेली	-4237
▁वारं	-4238
णि	-4239
▁नर	-4240
▁अन्	-4241
ंबद्दल	-4242
▁पंज	-4243
▁जनहित	-4244
तेत	-4245
ून्य	-4246
▁संघटने	-4247
▁वारंवार	-4248
▁प्रस्तावा	-4249
▁पॉवर	-4250
▁करण्यापासून	-4251
▁अधिनियमान्वये	-4252
▁ज्यावर	-4253
ॅक	-4254
▁अधीक्षक	-4255
▁माध्यम	-4256
▁शस्त्रा	-4257
▁अधिनियमाच्या	-4258
▁कधीच	-4259
स्क	-4260
▁आणण्यासाठी	-4261
▁पुरुष	-4262
▁वार्षिक	-4263
▁प्रतिष्ठ	-4264
▁अति	-4265
..	-4266
▁फाशी	-4267
▁विक्रेत्या	-4268
▁शिक्षेच्या	-4269
▁भांडण	-4270
केश	-4271
▁मर्यादेपर्यंत	-4272
साम	-4273
▁अशक्य	-4274
▁भीती	-4275
▁असावी	-4276
▁घटनेचे	-4277
▁पाठविला	-4278
▁संपत्ती	-4279
▁भरण्यासाठी	-4280
▁शून्य	-4281
▁शक्तीचा	-4282
▁प्रकाशित	-4283
▁तेल	-4284
पणाने	-4285
▁कुमारी	-4286
▁सांगणे	-4287
▁आश्वास	-4288
▁प्रवर्ग	-4289
▁किशोर	-4290
▁प्रासंगिक	-4291
▁अपीलकर्त्याचे	-4292
▁सबमिशनचा	-4293
कात	-4294
▁काढली	-4295
▁गुणवत्ता	-4296
ंवरील	-4297
▁मांडली	-4298
▁पंजाब	-4299
▁पाहता	-4300
▁निलंबित	-4301
▁प्रकरणाचा	-4302
▁काळा	-4303
▁तंत्र	-4304
▁अमे	-4305
▁बजावली	-4306
▁बदली	-4307
▁प्रकारचे	-4308
▁नामनिर्देश	-4309
▁ठेवण्याचा	-4310
सारखे	-4311
▁ऑक्टो	-4312
्यासाठी	-4313
▁मॉ	-4314
▁नवरा	-4315
वाडा	-4316
सिद्ध	-4317
▁नोव्हे	-4318
▁ऑक्टोबर	-4319
▁ड्राय	-4320
▁अनुक्रमे	-4321
▁नोव्हेंबर	-4322
▁लिहिले	-4323
▁पर्यावर	-4324
▁कार्यवाहीत	-4325
सार	-4326
▁वजन	-4327
▁संख्ये	-4328
▁इतकी	-4329
▁चाकू	-4330
▁हाता	-4331
▁कागदपत्रांच्या	-4332
▁शेत	-4333
▁निर्या	-4334
▁आयोगाने	-4335
▁अस्तित्वात	-4336
यम	-4337
▁\\\\	-4338
▁एनसी	-4339
▁नव्याने	-4340
▁कारवाईचे	-4341
▁विश्वस्त	-4342
▁क्षेत्राच्या	-4343
▁वाईट	-4344
ध्द	-4345
▁मंदि	-4346
▁सापडला	-4347
▁मालमत्तेची	-4348
▁डिझाइन	-4349
▁विधिमंडळाने	-4350
श्र	-4351
▁वीज	-4352
▁जाणून	-4353
▁हाती	-4354
▁रस्त्या	-4355
▁करण्याबाबत	-4356
▁बाह्य	-4357
वती	-4358
▁अधिकाराचा	-4359
तकमी	-4360
्रमण	-4361
चंद्र	-4362
▁तृतीय	-4363
▁कमीतकमी	-4364
मांड	-4365
▁नमुना	-4366
▁शेअर्स	-4367
▁मंडळ	-4368
▁आकारणी	-4369
▁डाव्या	-4370
▁वचन	-4371
▁प्रश्नाचे	-4372
▁अपरि	-4373
ांपेक्षा	-4374
दायक	-4375
▁मीटर	-4376
▁कामां	-4377
▁अक्षम	-4378
▁कार्यक्षेत्रा	-4379
▁आयकर	-4380
▁एजंट	-4381
▁लागतो	-4382
▁आदेशाला	-4383
▁यंत्रणे	-4384
▁महत्त्वाचे	-4385
न्सिल	-4386
ंबा	-4387
▁इजा	-4388
▁प्ले	-4389
ईन	-4390
माणिक	-4391
▁केरळ	-4392
एमसी	-4393
▁मूल्यमा	-4394
▁एकमे	-4395
▁पाठविण्यात	-4396
▁स्वयं	-4397
▁विस्तार	-4398
ाबत	-4399
▁कारभ	-4400
▁दिवसा	-4401
▁इमारती	-4402
▁शरीरावर	-4403
▁पुढीलप्रमाणे	-4404
▁अवास्तव	-4405
,000	-4406
▁हट	-4407
▁संग	-4408
शु	-4409
\\\	-4410
पीए	-4411
▁फ्लॅट	-4412
ेव्ह	-4413
▁अरु	-4414
▁पश्च	-4415
बार	-4416
▁निर्णयामुळे	-4417
▁इले	-4418
व्होक	-4419
▁मृताची	-4420
▁स्पष्टीकरणा	-4421
▁इंग्र	-4422
▁त्याच्याकडे	-4423
▁रिका	-4424
▁दृश	-4425
▁झाल्याने	-4426
▁व्यक्तीचे	-4427
▁होण्यासाठी	-4428
टो	-4429
दीप	-4430
▁बहि	-4431
व्होकेट	-4432
▁मरण	-4433
▁आस्थाप	-4434
▁मागितली	-4435
▁घालून	-4436
▁कॉन्स्टेबल	-4437
▁ज्याचे	-4438
▁स्वरूपात	-4439
▁सापडले	-4440
▁लढ	-4441
▁शप	-4442
▁साधला	-4443
▁अपीलकर्त्याची	-4444
▁पाणी	-4445
▁संजय	-4446
▁धमकी	-4447
▁डेटा	-4448
▁जबाबदा	-4449
▁इंग्रजी	-4450
▁दुकान	-4451
▁पत्राद्वारे	-4452
▁अडचणी	-4453
▁ज्याची	-4454
▁गुणवत्तेवर	-4455
▁निवृत्तीवेत	-4456
क्चर	-4457
▁कुठ	-4458
▁गृह	-4459
▁द्वि	-4460
▁कमतरता	-4461
▁व्यक्तीचा	-4462
शेने	-4463
▁सिक्यु	-4464
१५	-4465
▁स्क	-4466
▁वेळापत्र	-4467
षणा	-4468
नाला	-4469
विभाग	-4470
प्राप्त	-4471
▁इच्छे	-4472
▁देखरे	-4473
▁पांडे	-4474
▁परीक्षण	-4475
▁वैधता	-4476
ांबद्दल	-4477
▁घ्यावे	-4478
▁व्यक्तीवर	-4479
▁गर्भ	-4480
▁घराच्या	-4481
▁कर्तव्ये	-4482
▁दर्शवितो	-4483
▁निर्णयाचे	-4484
र्जी	-4485
▁अपराधी	-4486
▁कामे	-4487
▁गृही	-4488
▁सभ	-4489
संख्या	-4490
▁जोडले	-4491
▁मालमत्त	-4492
िव्ह	-4493
▁समाप्ती	-4494
मक	-4495
▁लहान	-4496
ंट्र	-4497
▁वाढी	-4498
▁स्वाक्षर्	-4499
▁दाव्याच्या	-4500
▁प्रायव्हेट	-4501
▁अपीलकर्त्याचा	-4502
ट्टा	-4503
▁मोठा	-4504
▁असोसिएशन	-4505
▁डाग	-4506
रीक्षण	-4507
▁संकल्पना	-4508
▁स्वीकारली	-4509
भंग	-4510
▁औष	-4511
▁लवादाची	-4512
▁ज्यासाठी	-4513
▁पाठविली	-4514
▁शिकलेले	-4515
▁मिळाल्यानंतर	-4516
र्नी	-4517
ासून	-4518
ल्याचे	-4519
सारख्या	-4520
▁संप्रे	-4521
▁असत	-4522
▁सूचन	-4523
कीच	-4524
▁दड	-4525
च्चार	-4526
▁आदर	-4527
▁पदे	-4528
▁वेतनश	-4529
▁ॅडव्होकेट	-4530
एनओ	-4531
▁सचिवा	-4532
सनीय	-4533
नियन	-4534
▁लोकशाही	-4535
▁आत्महत्या	-4536
▁वळ	-4537
▁येतो	-4538
▁मुल्यांकन	-4539
स्फो	-4540
▁डॉक	-4541
▁अधिसूचित	-4542
▁अमेरिक	-4543
▁न्यायाधीशांना	-4544
▁सवलत	-4545
▁अधिग्रहित	-4546
▁अधिनियमात	-4547
▁दुर्द	-4548
▁प्रतिबिंबित	-4549
▁एमओ	-4550
टेकोर	-4551
▁साइट	-4552
▁काटेकोर	-4553
▁आदेशाचा	-4554
▁भरपाईची	-4555
तन	-4556
▁हिं	-4557
▁हेतूसाठी	-4558
▁रिला	-4559
▁सुश्री	-4560
▁अनुपस्थितीत	-4561
▁अत्याचार	-4562
ंपा	-4563
▁हत्ये	-4564
तेबद्दल	-4565
▁निर्देशानुसार	-4566
▁सोयी	-4567
▁ठे	-4568
▁सोन	-4569
▁निवडी	-4570
▁आयओ	-4571
▁निः	-4572
▁कॉर्पोरेट	-4573
▁बर	-4574
▁विवाह	-4575
ण्यायोग्य	-4576
ताप	-4577
िकेच्या	-4578
स्थापित	-4579
▁सामर्थ्य	-4580
संदर्भातील	-4581
वेल	-4582
▁मोहन	-4583
▁जिल्ह	-4584
▁सिद्धांता	-4585
▁सुलभ	-4586
वणी	-4587
▁जिल्हाधिकारी	-4588
▁गोंध	-4589
▁ठेवण्याचे	-4590
▁एफएस	-4591
▁फिर्यादीचा	-4592
▁ठार	-4593
▁दुप	-4594
▁आदेशाची	-4595
▁सावधगिरी	-4596
▁अब्द	-4597
▁उपयुक्त	-4598
वावे	-4599
▁इस्ट	-4600
▁प्रभा	-4601
▁योग्यता	-4602
▁ऐकला	-4603
▁सुन	-4604
▁हाऊस	-4605
र्घ	-4606
ियन	-4607
▁मधु	-4608
खेरीज	-4609
▁याव्यतिरिक्त	-4610
▁एसएल	-4611
▁अस्तित्व	-4612
▁केल्याची	-4613
▁रिलायन्स	-4614
.0	-4615
पुरा	-4616
▁अतिक	-4617
▁महे	-4618
स्ट्री	-4619
दास	-4620
▁एसी	-4621
परि	-4622
▁शपथ	-4623
▁साधन	-4624
नानंतर	-4625
▁होय	-4626
▁वकीलाने	-4627
▁मृतदेहा	-4628
▁सामोरे	-4629
▁शव	-4630
▁तक्रारीत	-4631
▁कडे	-4632
वासाची	-4633
▁समुदा	-4634
▁त्यांच्याकडे	-4635
▁अहमद	-4636
वलेल्या	-4637
▁शोधण्यासाठी	-4638
नाडू	-4639
▁खनि	-4640
जेरी	-4641
▁आयुक्तांनी	-4642
▁व्यक्तींनी	-4643
▁रकमेची	-4644
▁आयपीसीच्या	-4645
▁दत्तक	-4646
▁धारक	-4647
जेंद्र	-4648
▁अवमान	-4649
भर	-4650
व्र	-4651
▁वेगळी	-4652
प्रमाणेच	-4653
▁क्रियाकला	-4654
▁ऑर्डरमध्ये	-4655
त्सा	-4656
▁ओरस	-4657
▁कोड	-4658
ापासून	-4659
▁युनियन	-4660
ेश्वर	-4661
▁सोडून	-4662
▁सर्व्ह	-4663
▁निर्देशित	-4664
▁मान्यताप्राप्त	-4665
▁टॅ	-4666
▁येतील	-4667
ळत	-4668
▁प्रेम	-4669
▁सर्वे	-4670
▁व्यायाम	-4671
▁तपासणीसाठी	-4672
▁बँकेच्या	-4673
▁राखी	-4674
▁कार्ये	-4675
▁गुंतवणूकी	-4676
लेज	-4677
न्यात	-4678
▁दिशेने	-4679
▁\\\\\\\	-4680
▁पंचनामा	-4681
▁आंध	-4682
व्हिजन	-4683
ोदर	-4684
▁प्रग	-4685
▁आहेतः	-4686
दू	-4687
च्छेदन	-4688
▁नसलेले	-4689
▁टाकले	-4690
▁वॉरंट	-4691
▁महामंडळा	-4692
देशिक	-4693
▁मार्क	-4694
▁काढलेल्या	-4695
▁खोटी	-4696
▁संतु	-4697
▁चिंता	-4698
ृह	-4699
जून	-4700
ज्ञे	-4701
▁जमी	-4702
▁बॉम्	-4703
▁ॅक्ट	-4704
▁तरतुदींनुसार	-4705
▁मंड	-4706
▁तीव्र	-4707
▁पश्चिम	-4708
▁मानला	-4709
नातील	-4710
वला	-4711
▁बँकेने	-4712
▁कोणालाही	-4713
▁फर्म	-4714
▁अधिवक्ता	-4715
▁ठरविलेल्या	-4716
स्तीने	-4717
▁गावात	-4718
▁निवडले	-4719
▁कायद्याद्वारे	-4720
▁मुदतीच्या	-4721
▁बरेच	-4722
्याची	-4723
मिळनाडू	-4724
▁सै	-4725
▁किर	-4726
▁फिर्यादीचे	-4727
ाई	-4728
▁एकच	-4729
▁ऑपरेशन	-4730
▁स्त्रोत	-4731
पीएल	-4732
▁कृष्	-4733
▁माध्यमातून	-4734
गम	-4735
िंदर	-4736
▁प्रतिवादींना	-4737
आरटी	-4738
▁अंश	-4739
▁नसले	-4740
▁पळून	-4741
▁शकली	-4742
▁पर्यायी	-4743
णाली	-4744
▁दुर्दै	-4745
▁विसंगत	-4746
ल्याशिवाय	-4747
▁मूल्यमापन	-4748
नं	-4749
र्जा	-4750
▁प्रादेशिक	-4751
▁साक्षीदाराच्या	-4752
▁पस	-4753
▁अंमलबजावणीसाठी	-4754
वण	-4755
▁इन्स्ट	-4756
▁हानी	-4757
▁करण्यायोग्य	-4758
हरा	-4759
मार्क	-4760
▁धर्म	-4761
▁ग्रॅ	-4762
▁निबंध	-4763
▁मुख्या	-4764
म्प	-4765
▁फॅ	-4766
▁चंप	-4767
▁एमसी	-4768
▁सवलती	-4769
ंडर	-4770
▁नैतिक	-4771
▁वेतनश्रेणी	-4772
फेड	-4773
▁नका	-4774
▁जन्मठे	-4775
नाद्वारे	-4776
▁डीफॉल्ट	-4777
य्य	-4778
▁कारणी	-4779
▁अनधिकृत	-4780
▁कारणीभूत	-4781
▁विचाराधीन	-4782
▁काउ	-4783
▁भूमी	-4784
क्फ	-4785
▁गणना	-4786
▁वेगळा	-4787
▁फसवणूकी	-4788
▁लक्ष्मी	-4789
रोज	-4790
▁गृहित	-4791
▁घटनेचा	-4792
मॉ	-4793
पणाचा	-4794
▁डॉक्टरांनी	-4795
▁मंत्री	-4796
▁मालमत्तेत	-4797
▁विक्रीच्या	-4798
दि	-4799
▁टो	-4800
▁गुंतवणूक	-4801
▁प्रोत्सा	-4802
▁हद्दी	-4803
वाहा	-4804
▁जागी	-4805
▁सुविध	-4806
▁राहिली	-4807
▁शेवटच्या	-4808
▁निर्विवाद	-4809
▁एकत्रितपणे	-4810
षी	-4811
▁ऑफिसर	-4812
▁आवार	-4813
▁कनिष्ठ	-4814
▁हॉस्प	-4815
कडील	-4816
हरी	-4817
▁अंदाज	-4818
▁संस्थे	-4819
▁शिफारशी	-4820
▁सल्ल्याने	-4821
▁ठरू	-4822
▁सिक्युरिटी	-4823
▁दारू	-4824
▁काटेकोरपणे	-4825
▁उद्भवलेल्या	-4826
▁जवळपास	-4827
▁लोकांना	-4828
▁ऐकून	-4829
▁शुद्ध	-4830
▁उद्य	-4831
्यांची	-4832
▁प्रखंड	-4833
▁सांगायचे	-4834
▁सीडब्ल्यू	-4835
▁कंत्राटी	-4836
ठीण	-4837
खन	-4838
▁कठीण	-4839
▁कंपनीचे	-4840
▁बांधकामा	-4841
वर्ती	-4842
▁उपक्रम	-4843
रीव	-4844
▁पॉलिसी	-4845
▁विभागाने	-4846
▁असं	-4847
▁मुले	-4848
▁हजेरी	-4849
▁उजव्या	-4850
▁मेड	-4851
▁स्वार	-4852
▁कृष्णा	-4853
▁भागीदार	-4854
▁जन्मठेपे	-4855
▁शिक्का	-4856
्रिक	-4857
▁राज्याचे	-4858
वरुन	-4859
▁लेनदार	-4860
▁अन्यायकारक	-4861
गो	-4862
▁अभियोजन	-4863
▁पीपी	-4864
▁एकट्या	-4865
▁वागणूक	-4866
▁धरले	-4867
▁राही	-4868
▁तेव्हाच	-4869
▁पाय	-4870
▁क्रियाकलाप	-4871
▁व्यवस्थापकीय	-4872
▁पोच	-4873
▁नावावर	-4874
▁वादग्रस्त	-4875
कोळ	-4876
वाहिक	-4877
▁ठरली	-4878
▁किरकोळ	-4879
▁अगोदर	-4880
▁पातळी	-4881
▁कौन्सिल	-4882
▁शिक्षेची	-4883
यचे	-4884
ांती	-4885
▁मसु	-4886
▁मृत्यूची	-4887
शास्त्र	-4888
▁क्षेत्रातील	-4889
▁न्यायालयाचा	-4890
अल	-4891
▁उपनि	-4892
दरा	-4893
▁वाढवि	-4894
ण्यासारखे	-4895
एटी	-4896
र्धा	-4897
▁भरीव	-4898
▁मात्र	-4899
▁सहज	-4900
▁निलंब	-4901
▁राहील	-4902
▁इस्टेट	-4903
बंद	-4904
▁डिस्	-4905
▁इलेक्ट	-4906
▁कपड	-4907
▁तुलनेत	-4908
▁साध्य	-4909
▁परतफेड	-4910
▁याविषयी	-4911
▁वाय	-4912
▁माझे	-4913
▁वर्मा	-4914
▁रक्षण	-4915
ाव्यात	-4916
▁अब्दुल	-4917
▁वडिलांनी	-4918
पाला	-4919
▁आंध्र	-4920
नानुसार	-4921
▁एफआयआरमध्ये	-4922
▁वक्फ	-4923
दाराचे	-4924
▁सुनील	-4925
▁द्यावा	-4926
▁समानता	-4927
▁जमाती	-4928
▁सर्वेक्षण	-4929
▁क्षेत्राचा	-4930
▁लेखन	-4931
▁नोटिस	-4932
▁नगरपाल	-4933
▁नाथ	-4934
▁शोधून	-4935
्रिक्स	-4936
▁घटस्फो	-4937
▁अभ्या	-4938
▁निर्मिती	-4939
▁ओरि	-4940
स्थेत	-4941
▁फिर्यादीची	-4942
स्तर	-4943
▁शुल्का	-4944
डतो	-4945
▁तुकड	-4946
▁तारखेच्या	-4947
दंडा	-4948
▁आमचा	-4949
▁शब्दाचा	-4950
धर	-4951
्व	-4952
▁विद्युत	-4953
▁कुटू	-4954
▁परिव	-4955
▁सीसी	-4956
▁चंपारण	-4957
▁सेल	-4958
▁खनिज	-4959
▁शस्त्रे	-4960
▁शववि	-4961
▁समजू	-4962
▁रवी	-4963
चार्ज	-4964
▁सद्य	-4965
▁असणार्	-4966
▁विभागातील	-4967
▁अधिकारांचा	-4968
▁दडप	-4969
▁काढणे	-4970
▁याचिकेमध्ये	-4971
▁निहित	-4972
▁पुनरुच्चार	-4973
▁तक्रारदाराच्या	-4974
▁स्वे	-4975
▁हातात	-4976
▁गोंधळ	-4977
पदा	-4978
रेंद्र	-4979
▁जंग	-4980
▁सत्	-4981
▁प्रकारचा	-4982
▁परिवहन	-4983
▁जाहिराती	-4984
▁तपासले	-4985
▁गुन्हेगार	-4986
ुपी	-4987
▁वर्षा	-4988
▁स्थगिती	-4989
▁नातेवाईक	-4990
▁तत्त्वांचे	-4991
▁विधे	-4992
▁कागदपत्रांची	-4993
▁बांधील	-4994
आधी	-4995
▁कडून	-4996
▁टप्प्यात	-4997
रुन	-4998
▁सॉ	-4999
▁विप	-5000
▁अनुकूल	-5001
▁सहाय्य	-5002
▁जामिनावर	-5003
▁माध्यमिक	-5004
▁मिळाल्यास	-5005
घु	-5006
▁नफ	-5007
▁काल	-5008
▁शाळे	-5009
▁मंत्रालया	-5010
▁न्यायालयाचे	-5011
▁उपविभाग	-5012
▁भ्रष्टा	-5013
▁परवानाधारक	-5014
▁खोटा	-5015
ोपत्री	-5016
▁कागदोपत्री	-5017
मल	-5018
िलो	-5019
▁मानक	-5020
▁गृहीत	-5021
▁जबरदस्तीने	-5022
चंद	-5023
▁योजनेच्या	-5024
▁सहन	-5025
▁गोळीबार	-5026
▁निवेदने	-5027
▁सदस्यांना	-5028
▁सांगितलेली	-5029
▁प्रतिवादीचा	-5030
▁व्यवसायाच्या	-5031
▁तास	-5032
▁आसाम	-5033
मार्ग	-5034
▁हुंडा	-5035
▁जागेच्या	-5036
देत	-5037
▁क्रौ	-5038
▁महतो	-5039
▁प्रणाली	-5040
▁मुदतवाढ	-5041
▁स्थापने	-5042
▁विधिमंडळ	-5043
▁सुरुवातीला	-5044
▁उचित	-5045
▁आक्षेपा	-5046
▁पाठविले	-5047
बद	-5048
▁रस्ता	-5049
▁अभिलेख	-5050
▁वैवाहिक	-5051
▁कलमांतर्गत	-5052
▁दृष्टीकोनातून	-5053
▁राखीव	-5054
▁परिसरा	-5055
्रास	-5056
योजना	-5057
▁कोळसा	-5058
▁दृढ	-5059
▁सल्ले	-5060
▁द्वारा	-5061
▁ऑर्डरची	-5062
वाश	-5063
▁पत	-5064
▁काढण्यासाठी	-5065
▁अंमलबजावणीच्या	-5066
▁टि	-5067
▁न्यायदंडा	-5068
▁एचसी	-5069
▁अन्वे	-5070
▁आत्मवि	-5071
▁ठोठावली	-5072
न्ना	-5073
▁आलेला	-5074
केच	-5075
▁मोक	-5076
▁विचारले	-5077
▁निष्पक्ष	-5078
▁जळ	-5079
▁वित्	-5080
▁अभिया	-5081
▁हाताळ	-5082
▁लिक्वि	-5083
▁सर्व्हिस	-5084
▁नियंत्रणा	-5085
▁निराकरण	-5086
▁साक्षीदाराची	-5087
▁प्राधिकरणाच्या	-5088
▁बैठकीत	-5089
▁धाव	-5090
▁वादाचा	-5091
लिक	-5092
▁दीर्घ	-5093
ाबद्दल	-5094
सिंह	-5095
क्रिय	-5096
▁ठरावा	-5097
▁यंत्रणा	-5098
▁कपात	-5099
▁आवाज	-5100
साच्या	-5101
▁वित्तीय	-5102
▁आवश्यकतेनुसार	-5103
▁टेल	-5104
▁दुपारी	-5105
▁जमीनदार	-5106
▁कृषी	-5107
▁मध्यस्थी	-5108
▁डिस्चार्ज	-5109
▁ट्रेडमार्क	-5110
▁आयपीसीअंतर्गत	-5111
▁जिवंत	-5112
ासंदर्भात	-5113
ांविरूद्ध	-5114
्डी	-5115
▁पाळले	-5116
▁वित्त	-5117
▁संवर्ग	-5118
▁याचिकेवर	-5119
▁आरक्षणा	-5120
▁विभागात	-5121
▁हरिया	-5122
च्यु	-5123
▁एकर	-5124
▁आरोपीची	-5125
▁आयोगाच्या	-5126
▁सवि	-5127
▁अपहरण	-5128
▁राज्यासाठी	-5129
▁ठेवी	-5130
▁नियंत्रित	-5131
▁रस	-5132
▁होण्यास	-5133
▁जोरदारपणे	-5134
▁१६	-5135
▁गमाव	-5136
पुरावा	-5137
▁प्रशं	-5138
▁ठाम	-5139
▁आढळला	-5140
▁परिणामा	-5141
द्र	-5142
▁सविस्तर	-5143
प्स	-5144
▁तरच	-5145
▁पटेल	-5146
▁सरकारचे	-5147
▁रकमेच्या	-5148
▁बळी	-5149
▁कपडे	-5150
▁क्लॉ	-5151
▁तिसरा	-5152
▁ष	-5153
ाराम	-5154
दाराचा	-5155
▁यामध्ये	-5156
ल्यानुसार	-5157
ट्ट	-5158
▁आक	-5159
▁कुटूंब	-5160
झी	-5161
▁चौरस	-5162
▁मॅने	-5163
▁जमीनी	-5164
▁बंग	-5165
▁निवडणुकी	-5166
▁लिक्विड	-5167
डत	-5168
▁माण	-5169
▁रमेश	-5170
्यांचा	-5171
▁निकालात	-5172
▁पोहोचले	-5173
▁प्रशिक्षण	-5174
▁त्यासंदर्भात	-5175
ुप	-5176
पत्रात	-5177
▁पाठपुरावा	-5178
▁पुराव्यांद्वारे	-5179
▁नक्	-5180
▁भागीदारी	-5181
▁दह	-5182
चक	-5183
▁उपाययोजना	-5184
▁परिस्थितीजन्य	-5185
ंडी	-5186
ज्ज	-5187
▁काढण्यात	-5188
गाराच्या	-5189
मतीने	-5190
▁जेणेकरुन	-5191
▁कोर्टाद्वारे	-5192
▁कसा	-5193
▁स्त्री	-5194
▁उपक	-5195
▁प्राखंड	-5196
▁कार्यवाहीच्या	-5197
इड	-5198
निया	-5199
▁दिवा	-5200
▁भरला	-5201
▁अंतरावर	-5202
▁करतांना	-5203
▁तातडीने	-5204
ावेत	-5205
▁शिस्तभंग	-5206
मीर	-5207
शास	-5208
ाता	-5209
▁महानगरपालिका	-5210
िटी	-5211
डतोब	-5212
▁भाषा	-5213
▁ताबडतोब	-5214
▁पोस्टमॉ	-5215
▁स्वेच्छ	-5216
▁अर्जाच्या	-5217
ग्ण	-5218
▁जाणीवपूर्वक	-5219
शनल	-5220
▁रॉय	-5221
ताच	-5222
▁षड	-5223
▁अतिक्रमण	-5224
▁सर्वसाधारणपणे	-5225
▁बाल	-5226
▁प्ला	-5227
▁नियमात	-5228
▁कायमस्वरुपी	-5229
▁बल	-5230
▁संचाल	-5231
▁जन्मठेपेची	-5232
▁न्यायालयानं	-5233
रुप	-5234
▁फु	-5235
▁पर्य	-5236
▁घडवून	-5237
▁त्यासाठी	-5238
▁आस	-5239
द्दीन	-5240
▁कारखा	-5241
▁स्वरुपा	-5242
▁हेच	-5243
▁नष्ट	-5244
▁याचिकेतील	-5245
हारिक	-5246
▁यापैकी	-5247
▁रूपांतर	-5248
▁चौकशीच्या	-5249
▁समाधानकारक	-5250
▁संविधानाच्या	-5251
▁आदेशाचे	-5252
▁क्लॉज	-5253
▁तात्पुरते	-5254
▁यांच्यासह	-5255
▁प्रश्नातील	-5256
▁अधिकाराच्या	-5257
मला	-5258
▁कार्ड	-5259
जारी	-5260
▁मिनिट	-5261
▁मद्रास	-5262
ापेक्षा	-5263
एच्या	-5264
▁इतका	-5265
▁मूल्यांक	-5266
पक्षी	-5267
▁व्यक्ति	-5268
▁अख	-5269
▁लावणे	-5270
▁होतील	-5271
▁मंत्रालय	-5272
▁ओर	-5273
▁मुद्र	-5274
▁मर्यादेच्या	-5275
भी	-5276
ांमधून	-5277
▁सुरेश	-5278
▁भे	-5279
▁अला	-5280
च्छिक	-5281
▁भूमिके	-5282
▁त्यावरील	-5283
▁मिळवून	-5284
ल्डिंग	-5285
▁लावण्यासाठी	-5286
▁श्र	-5287
▁घेईल	-5288
▁व्यावहारिक	-5289
ंनाही	-5290
▁अंशतः	-5291
▁नक्कीच	-5292
▁तत्कालीन	-5293
▁पोस्टमॉर्टम	-5294
संगत	-5295
▁चुकून	-5296
▁विधाने	-5297
▁नकारात्मक	-5298
▁तेथून	-5299
▁आवारात	-5300
▁समाजातील	-5301
▁संस्थेच्या	-5302
▁नियुक्तीच्या	-5303
▁त्रि	-5304
▁प्रयोग	-5305
▁यापूर्वीच	-5306
▁बहिणी	-5307
▁न्यायालयांच्या	-5308
▁संध्या	-5309
▁शवविच्छेदन	-5310
▁यासारख्या	-5311
▁औषध	-5312
▁अल्पसंख्या	-5313
▁आयए	-5314
▁समाय	-5315
▁हजार	-5316
▁आश्वासन	-5317
▁संपल्यानंतर	-5318
▁आदेशाविरूद्ध	-5319
▁कला	-5320
विलेल्या	-5321
▁पुराव्यावर	-5322
▁सांगितलेल्या	-5323
▁सहकार	-5324
▁नूतनीकरण	-5325
▁उत्तरदाता	-5326
▁फो	-5327
▁सन्मान	-5328
▁कारणांसाठी	-5329
▁तोटा	-5330
▁अपमान	-5331
▁हॉस्पिटल	-5332
▁वैशिष्ट्य	-5333
▁मालमत्तेवर	-5334
▁असुर	-5335
▁वाणि	-5336
स्टम	-5337
कल्पिक	-5338
▁वैकल्पिक	-5339
▁अध्याय	-5340
▁असल्याची	-5341
ांनाही	-5342
▁देण्या	-5343
▁नुकसानी	-5344
▁प्रश्नच	-5345
▁तात्पुरती	-5346
▁प्रामाणिक	-5347
▁पुराव्यांचे	-5348
ियम	-5349
▁भु	-5350
▁मृताचे	-5351
कारात्मक	-5352
▁रजिस्टर	-5353
▁उलटपक्षी	-5354
▁वेद	-5355
▁ठरविणे	-5356
▁प्रगती	-5357
▁अग्रवाल	-5358
▁मालकीच्या	-5359
▁त्यापेक्षा	-5360
विंद	-5361
▁कॉलेज	-5362
▁हिताचे	-5363
पाळ	-5364
▁कॉपी	-5365
▁लागले	-5366
▁मुलाच्या	-5367
▁अवस्थेत	-5368
ाशी	-5369
णायक	-5370
▁झालेली	-5371
▁सकारात्मक	-5372
▁त्याअंतर्गत	-5373
▁खोलीत	-5374
▁कंत्राटदार	-5375
ंबाबत	-5376
▁हरियाणा	-5377
▁संरक्षित	-5378
▁परिस्थितीचा	-5379
▁भरणे	-5380
▁साक्षीदारांना	-5381
पणाच्या	-5382
▁दायित्	-5383
▁मृताने	-5384
▁वाणिज्य	-5385
▁विभागाच्या	-5386
▁भागावर	-5387
▁यादीमध्ये	-5388
▁रह	-5389
▁घडले	-5390
नेश	-5391
▁कॅन	-5392
▁नसा	-5393
▁निर्णायक	-5394
▁व्यायामा	-5395
▁सांगितला	-5396
▁टाळण्यासाठी	-5397
ल्पा	-5398
▁परिसर	-5399
▁विधानसभ	-5400
▁हितसंबंध	-5401
▁असल्यामुळे	-5402
सायकल	-5403
▁नावाने	-5404
▁अभ्यासक्रम	-5405
टीसी	-5406
▁यासह	-5407
▁पुनर्वसन	-5408
▁परिशिष्ट	-5409
▁तुलना	-5410
▁देणारे	-5411
▁कारभारा	-5412
▁अनिश्चित	-5413
▁अटींनुसार	-5414
▁पोलिसांच्या	-5415
▁राजेंद्र	-5416
▁असुरक्षित	-5417
्यो	-5418
▁आगा	-5419
▁अशक्त	-5420
▁काउंटर	-5421
्यांचे	-5422
▁परतावा	-5423
▁कार्यक्रम	-5424
▁कामगारांना	-5425
▁अनुभव	-5426
लये	-5427
▁छाप	-5428
▁वाचना	-5429
▁अटकेच्या	-5430
▁बड	-5431
▁अपराध	-5432
▁विवादित	-5433
हास	-5434
▁अका	-5435
▁तारखेस	-5436
▁देशातील	-5437
▁प्रश्नांची	-5438
▁बिला	-5439
▁मुलाख	-5440
▁समुदाया	-5441
▁पुनरीक्षण	-5442
▁दावेकर्त्या	-5443
▁अविभा	-5444
▁पेक्षा	-5445
▁उदाहरणार्थ	-5446
▁खुले	-5447
▁योजनेत	-5448
▁वडिलांच्या	-5449
▁वाटत	-5450
▁प्रार्थने	-5451
▁प्रस्थापित	-5452
▁लोकस	-5453
रीच्या	-5454
▁विद्यार्थी	-5455
तु	-5456
▁इति	-5457
▁मुलाला	-5458
▁आदेशाने	-5459
▁मोठे	-5460
▁उत्ती	-5461
▁परीक्षेत	-5462
▁अर	-5463
ळक	-5464
टीई	-5465
डिओ	-5466
▁कोर्स	-5467
▁दंडात्मक	-5468
स्तीच्या	-5469
▁अहवालाच्या	-5470
▁सदस्यांनी	-5471
▁परा	-5472
▁लागतील	-5473
▁उत्तीर्ण	-5474
▁परिपूर्ण	-5475
▁भग	-5476
टाच्या	-5477
▁छोट्या	-5478
▁निकालावर	-5479
▁त्याशिवाय	-5480
▁अनुसरण	-5481
▁माहितीच्या	-5482
▁जागेचा	-5483
▁वापरासाठी	-5484
▁इक्वि	-5485
्याम	-5486
▁वाटेल	-5487
पाती	-5488
▁पेंड	-5489
▁जवळजवळ	-5490
▁पुरेसा	-5491
▁यांच्याशी	-5492
▁घेण्यापूर्वी	-5493
▁चेक	-5494
▁सरकारकडून	-5495
▁प्रतिकार	-5496
▁दुरुस्त	-5497
▁तामिळनाडू	-5498
ृष्ण	-5499
▁अनिल	-5500
▁निर्णयासाठी	-5501
▁उत्तरदात्यांनी	-5502
खू	-5503
▁चिक	-5504
▁शकणार	-5505
▁अर्जदाराच्या	-5506
ूपी	-5507
▁पॅन	-5508
▁सध्याचे	-5509
▁तर्कसंगत	-5510
जीव	-5511
▁गुणवत्ते	-5512
▁प्रवृत्त	-5513
▁शाह	-5514
ण्यावरून	-5515
खेर	-5516
स्पे	-5517
▁मुद्दय	-5518
▁सेवानिवृत्त	-5519
वता	-5520
▁रण	-5521
पादित	-5522
▁एसआर	-5523
▁विक्रेता	-5524
▁तत्त्वावर	-5525
करणी	-5526
▁भागातील	-5527
▁निर्णयाद्वारे	-5528
न्याया	-5529
▁अन्वेषण	-5530
▁अपेक्षित	-5531
▁दुर्ग	-5532
▁मृत्यु	-5533
▁अटींमध्ये	-5534
▁ठेवत	-5535
▁क्रूर	-5536
▁निकालाचा	-5537
▁हस्तांतरणा	-5538
▁सोबत	-5539
▁एससीआर	-5540
▁कोठडीत	-5541
▁चांगली	-5542
ांवरील	-5543
▁कायमस्वरूपी	-5544
▁वीर	-5545
▁नियमा	-5546
▁निवडलेल्या	-5547
वावर	-5548
र्ब	-5549
▁टॉ	-5550
▁तहसीलदार	-5551
मंडळ	-5552
▁नॉन	-5553
ंगलोर	-5554
▁अजून	-5555
▁डोक्यावर	-5556
▁ड्रायव्हर	-5557
▁शिक्षेचा	-5558
▁उठ	-5559
प्रथम	-5560
▁दरवा	-5561
▁शेती	-5562
रीक्षक	-5563
▁संबोधले	-5564
▁अन्न	-5565
▁आरक्षण	-5566
▁नियमितपणे	-5567
▁सश	-5568
▁साख	-5569
▁लग्नाच्या	-5570
▁कायदेशीररित्या	-5571
▁कौश	-5572
▁याचिकेला	-5573
▁बचावासाठी	-5574
नेट	-5575
▁दश	-5576
म्मा	-5577
▁हद्द	-5578
▁मिळालेला	-5579
्याला	-5580
▁साधारण	-5581
▁अखेर	-5582
▁वादाच्या	-5583
▁स्वेच्छेने	-5584
पार	-5585
▁लिहून	-5586
▁सत्या	-5587
▁निर्यात	-5588
यन	-5589
दाय	-5590
▁मनी	-5591
▁रोजगार	-5592
▁सरकारकडे	-5593
▁राहण्याची	-5594
आयडी	-5595
गुरू	-5596
▁जुन्या	-5597
▁फॉरे	-5598
▁उपकलम	-5599
▁लवादाचा	-5600
चण	-5601
▁प्रसंगी	-5602
▁खरोखरच	-5603
▁वस्तुस्थितीच्या	-5604
एसई	-5605
▁चाच	-5606
▁पैश	-5607
▁सीमा	-5608
वतात	-5609
▁राजीव	-5610
▁उदाहरण	-5611
▁सर्वप्रथम	-5612
पणाची	-5613
▁प्रि	-5614
▁सुव्यव	-5615
▁सुधारणे	-5616
▁मिळविण्यासाठी	-5617
न्हा	-5618
▁जेव	-5619
▁अडचण	-5620
▁निया	-5621
▁स्फो	-5622
▁एओ	-5623
▁मिस	-5624
▁वर्षात	-5625
▁सद्यस्थिती	-5626
खालील	-5627
▁फ्रे	-5628
▁राहणे	-5629
▁संख्येने	-5630
▁शोधणे	-5631
▁पेमेंट	-5632
▁लिलाव	-5633
▁सुटके	-5634
▁विशेषा	-5635
▁त्याप्रमाणे	-5636
मान्य	-5637
▁रूपात	-5638
▁कराराचे	-5639
▁करारावर	-5640
न्यायाधीश	-5641
ोद	-5642
▁कमा	-5643
मीण	-5644
▁ढकल	-5645
▁परिषदे	-5646
▁मेडिकल	-5647
▁एक्स्ट्रा	-5648
▁आग	-5649
वाहित	-5650
▁अक्ष	-5651
▁एनआय	-5652
▁संसा	-5653
तेमुळे	-5654
▁परिषद	-5655
▁ग्रामीण	-5656
▁आरोपींवर	-5657
टन	-5658
ंचालक	-5659
▁वाटले	-5660
वावा	-5661
▁वाक	-5662
▁प्रथा	-5663
▁जाण्यास	-5664
▁रोह	-5665
▁बाग	-5666
▁फारच	-5667
▁ठिकाण	-5668
▁संशोध	-5669
करणाच्या	-5670
ुरी	-5671
▁भारतातील	-5672
▁सरन्यायाधीश	-5673
▁बैठक	-5674
▁कार्यक	-5675
▁ठरविला	-5676
▁प्रथमच	-5677
▁सहकार्य	-5678
ारखंड	-5679
▁तडजोड	-5680
▁चौकशीत	-5681
▁घो	-5682
▁हुंड	-5683
▁झारखंड	-5684
▁रिमांड	-5685
▁न्यायदंडाधिकारी	-5686
▁ज्यो	-5687
▁भाषे	-5688
न्याच्या	-5689
▁न्यू	-5690
▁प्रभावित	-5691
▁यांच्यातील	-5692
▁प्रक्रियेचे	-5693
▁विशेषाधिकार	-5694
▁वाहतुकी	-5695
▁अटींच्या	-5696
मय	-5697
▁फूट	-5698
▁१७	-5699
▁उमेदवारांना	-5700
▁एनडी	-5701
▁तिवारी	-5702
▁तपासणीत	-5703
महा	-5704
▁डिव्हिजन	-5705
▁फोर	-5706
र्द	-5707
▁ग्रुप	-5708
▁वादात	-5709
▁प्रकल्पा	-5710
▁जाण्याचा	-5711
▁वितरित	-5712
▁प्रदर्श	-5713
▁नियोजन	-5714
▁रेड्डी	-5715
▁घेतल्यामुळे	-5716
▁गि	-5717
▁आरोपींची	-5718
▁रेकॉर्डमध्ये	-5719
▁मित्र	-5720
लेट	-5721
▁शहर	-5722
न्वित	-5723
पणाचे	-5724
▁धरला	-5725
▁चांगला	-5726
▁मोबाइल	-5727
▁आरोपीचा	-5728
▁यांच्यावर	-5729
ॉल	-5730
▁नंद	-5731
▁मिट	-5732
चेंज	-5733
▁शोधा	-5734
▁खालच्या	-5735
▁अँ	-5736
रहित	-5737
▁आरा	-5738
मंत्र	-5739
▁बाबू	-5740
▁संपादन	-5741
विण्याचा	-5742
▁सीआरपीसीअंतर्गत	-5743
▁दाब	-5744
▁चेन्न	-5745
पुरव	-5746
स्वा	-5747
▁गॅरं	-5748
ल्याही	-5749
▁दक्षता	-5750
▁कागदपत्रांवर	-5751
▁वादीने	-5752
▁साहू	-5753
▁सांगत	-5754
▁अनुमती	-5755
▁खासदार	-5756
▁निर्धारण	-5757
▁चर्चेच्या	-5758
▁गुन्ह्याच्या	-5759
▁वृ	-5760
▁अचा	-5761
▁अपिला	-5762
ंत्रिकी	-5763
▁दुर्बल	-5764
▁बहा	-5765
▁शोष	-5766
गुती	-5767
▁महिने	-5768
▁गुन्ह्यात	-5769
▁उत्तरदायित्	-5770
▁मंत्र	-5771
▁वर्षांची	-5772
▁अचल	-5773
▁धोक	-5774
▁धारणा	-5775
▁मंदिर	-5776
प्रकारे	-5777
▁ठेवल्या	-5778
ुम	-5779
साई	-5780
र्थक	-5781
रच्या	-5782
▁नोकर	-5783
▁घरगुती	-5784
▁घटनांमध्ये	-5785
ोत्तर	-5786
▁अचानक	-5787
▁मासिक	-5788
▁दुखापती	-5789
▁पाहिली	-5790
▁बाजूंनी	-5791
▁पहिल्यांदा	-5792
संशय	-5793
▁ओला	-5794
▁सीए	-5795
लेश	-5796
▁शकतील	-5797
▁निःसंशय	-5798
▁अपरिहार्य	-5799
▁वकिलांच्या	-5800
▁जहाज	-5801
▁पैकी	-5802
▁साखळी	-5803
▁स्टील	-5804
▁लावण्यास	-5805
स्कर	-5806
ापूर	-5807
▁ठोस	-5808
▁तार	-5809
▁टिकवून	-5810
▁वापरले	-5811
▁कुलगुरू	-5812
▁मोहल्ला	-5813
▁प्रसिद्ध	-5814
▁विधानसभे	-5815
क्षी	-5816
▁स्वारस्य	-5817
▁आत्मविश्वास	-5818
▁मोठी	-5819
▁बही	-5820
र्निंग	-5821
▁वैशिष्ट्ये	-5822
▁त्यांच्याकडून	-5823
ढी	-5824
▁लिला	-5825
▁रोखले	-5826
▁आकारला	-5827
▁अपीलच्या	-5828
▁पक्षांकडून	-5829
र्वा	-5830
▁प्रवास	-5831
▁पदासाठी	-5832
▁पायाभूत	-5833
▁ज्याद्वारे	-5834
▁दक्षि	-5835
▁समस्या	-5836
्रो	-5837
▁महिले	-5838
▁संध्याकाळी	-5839
▁फायद्यासाठी	-5840
▁याचिकांमध्ये	-5841
▁द्यावे	-5842
▁प्रक्रियात्मक	-5843
न्ड	-5844
▁है	-5845
▁बहीण	-5846
क्रमां	-5847
▁आरोपित	-5848
▁ग्रस्त	-5849
▁व्हा	-5850
▁गुंता	-5851
▁ठराविक	-5852
▁प्रचलित	-5853
▁विश्लेषणा	-5854
ज्ञेय	-5855
▁निरर्थक	-5856
▁मालकीची	-5857
▁भरपाईच्या	-5858
▁इक्विटी	-5859
▁कुठल्याही	-5860
▁हरि	-5861
▁गुरु	-5862
त्यक्ष	-5863
ल्ल	-5864
▁अवघड	-5865
▁चेन्नई	-5866
▁भो	-5867
ंमधून	-5868
▁आगाऊ	-5869
▁जागेचे	-5870
▁लॅ	-5871
▁चाचण्या	-5872
▁मोजणी	-5873
▁संबंधात	-5874
▁सेवेतून	-5875
▁त्याबद्दल	-5876
बीसी	-5877
▁अजय	-5878
▁वेळेत	-5879
▁अभ्यासा	-5880
▁हेदेखील	-5881
िटे	-5882
ारखी	-5883
▁यूपी	-5884
▁ग्रेड	-5885
▁जित	-5886
▁कार्यान्वित	-5887
▁तारखेपर्यंत	-5888
▁दब	-5889
▁पुष्टीकरण	-5890
▁अप्रत्यक्ष	-5891
▁स्वीकारण्यास	-5892
▁उपाया	-5893
▁पीडिते	-5894
▁ठेवण्याच्या	-5895
िटर	-5896
▁त्याकडे	-5897
▁त्यापूर्वी	-5898
▁एमएस	-5899
▁आमंत्रित	-5900
▁पुनरुत्पादित	-5901
▁एक्झ	-5902
▁मधुब	-5903
डेल	-5904
▁तुम	-5905
▁सुरुवातीच्या	-5906
▁शिकला	-5907
▁भविष्यातील	-5908
विना	-5909
▁म्हट	-5910
▁दर्शवते	-5911
▁विचारला	-5912
▁पूर्वीचे	-5913
▁प्रकरणाच्या	-5914
ुरु	-5915
▁दागि	-5916
▁पक्षांचे	-5917
▁यूएस	-5918
▁धक्का	-5919
▁पर्यवे	-5920
▁गुंतागु	-5921
नाम	-5922
▁झोप	-5923
▁बाट	-5924
▁झालेला	-5925
▁कार्यकाळ	-5926
▁प्रवृत्ती	-5927
▁मास्टर	-5928
ंस	-5929
▁सल्ल्याच्या	-5930
▁यांच्यामार्फत	-5931
जीत	-5932
▁अखंड	-5933
▁प्रभावीपणे	-5934
▁बेकायदेशीरपणा	-5935
िफ	-5936
तरी	-5937
गृह	-5938
▁फायदे	-5939
▁क्रि	-5940
▁उद	-5941
पुरवठा	-5942
▁संकेत	-5943
▁राजीनामा	-5944
▁व्यवस्थापक	-5945
▁एड	-5946
▁लाच	-5947
▁देणा	-5948
▁नियामक	-5949
▁प्रसार	-5950
▁हद्दीत	-5951
▁साक्षात	-5952
▁छायाचित्र	-5953
▁निःसंशयपणे	-5954
ूब	-5955
▁निपट	-5956
▁शासन	-5957
लाच्या	-5958
▁नेमणुका	-5959
▁निर्धारित	-5960
▁बिल	-5961
काळजी	-5962
▁ट्रॅ	-5963
▁प्रमो	-5964
▁प्रोब	-5965
▁रूग्णा	-5966
▁एकापेक्षा	-5967
▁व्यक्तींची	-5968
▁तपा	-5969
▁राजस्थान	-5970
▁देण्यापूर्वी	-5971
▁एअर	-5972
▁कोर	-5973
▁शेख	-5974
▁अधीनस्थ	-5975
▁निष्काळजी	-5976
▁याउलट	-5977
▁प्राधिकरणास	-5978
▁उचलली	-5979
▁एकमेक	-5980
▁उपकरणे	-5981
▁ऑपरेटर	-5982
▁संसदेने	-5983
▁रजिस्ट्र	-5984
▁हक्कांच्या	-5985
वै	-5986
▁ऑन	-5987
▁हून	-5988
▁ट्रक	-5989
▁एखादे	-5990
▁तपासणीच्या	-5991
▁विद्यापीठाच्या	-5992
सोबत	-5993
▁घटनेतील	-5994
▁सदस्यांच्या	-5995
वली	-5996
▁ओलांड	-5997
▁सांगण्यावरून	-5998
▁ताल	-5999
▁क्रमां	-6000
▁दोषरहित	-6001
▁उपायुक्त	-6002
▁ठरलेल्या	-6003
▁ज्यांच्या	-6004
हाबाद	-6005
▁कृष्ण	-6006
▁झो	-6007
स्कृत	-6008
▁पडले	-6009
▁म्हणतो	-6010
▁प्रशंसा	-6011
▁सामान्यपणे	-6012
▁सुनावणीसाठी	-6013
टेड	-6014
ईंट	-6015
एसी	-6016
▁बिन	-6017
▁मनोज	-6018
▁सराव	-6019
पात्र	-6020
▁मोटर	-6021
▁दिनेश	-6022
▁फाशीची	-6023
▁अपीलकर्त्यांना	-6024
रला	-6025
▁निबंधक	-6026
ध्व	-6027
ण्यावर	-6028
िश	-6029
▁चोरी	-6030
▁दरमहा	-6031
▁जमिनीवर	-6032
▁संमतीने	-6033
एफए	-6034
िणी	-6035
ोग्रा	-6036
▁पॅक	-6037
▁बॅग	-6038
▁सोसायटीच्या	-6039
लीस	-6040
एसटी	-6041
▁दोघेही	-6042
▁कार्यकार	-6043
▁नावाच्या	-6044
रंग	-6045
▁अटींचे	-6046
▁पोहोचला	-6047
▁हद्दपार	-6048
▁मिळण्याचा	-6049
▁खाती	-6050
▁बसला	-6051
▁अपंगत्व	-6052
▁चतु	-6053
▁जगदी	-6054
▁अर्जाचा	-6055
▁न्यायपाल	-6056
▁मैदान	-6057
▁प्रमाणा	-6058
▁सूची	-6059
▁सहभागी	-6060
▁आदेशामुळे	-6061
▁अधिकारांच्या	-6062
▁प्रतिवादींच्या	-6063
एमएस	-6064
ॅशनल	-6065
▁आल्यानंतर	-6066
▁प्राध्यापक	-6067
्ड	-6068
पालन	-6069
वावी	-6070
▁ठरते	-6071
▁स्वामी	-6072
▁यांकडून	-6073
▁आकड	-6074
▁तंबा	-6075
▁तक्रारीच्या	-6076
▁लु	-6077
▁एसआय	-6078
▁संशयाच्या	-6079
▁जाऊन	-6080
▁ज्यु	-6081
▁स्वभा	-6082
▁पत्नीने	-6083
▁मुद्रांक	-6084
▁सीपीसीच्या	-6085
दरी	-6086
▁सत्ता	-6087
▁तंबाखू	-6088
▁करारानुसार	-6089
▁प्रीमि	-6090
▁भागाच्या	-6091
बरी	-6092
तेला	-6093
▁प्रतिसा	-6094
▁तुरु	-6095
▁पाठवले	-6096
▁नेण्यात	-6097
▁बुक	-6098
▁स्वतःला	-6099
विण्याच्या	-6100
▁अपवादात्मक	-6101
▁अर्जामध्ये	-6102
काव	-6103
▁बरा	-6104
▁ओळखी	-6105
▁ओरिसा	-6106
▁विधेयक	-6107
▁यांनीही	-6108
▁निविदाकार	-6109
▁विक्रीसाठी	-6110
भोग	-6111
▁बरी	-6112
▁माफ	-6113
मुक्त	-6114
▁दबाव	-6115
त्याने	-6116
▁आसपास	-6117
▁रोजीचा	-6118
▁अलाहाबाद	-6119
▁पहिली	-6120
▁शेतात	-6121
▁ज्यांची	-6122
▁संबोधित	-6123
ख्यात	-6124
▁एसएलपी	-6125
शिप	-6126
▁लांबी	-6127
▁तुरुंग	-6128
▁शाखा	-6129
▁जगदीश	-6130
विरुद्ध	-6131
▁एफएसएल	-6132
▁खाणी	-6133
▁शासित	-6134
▁वादीच्या	-6135
▁मृत्यूदंड	-6136
मेट	-6137
ल्क	-6138
▁कने	-6139
▁सीएल	-6140
▁दै	-6141
▁गटा	-6142
▁पूरक	-6143
▁डेव्ह	-6144
▁पोलीस	-6145
कधी	-6146
▁0.0	-6147
▁रघु	-6148
▁टक्के	-6149
▁पुनर्वि	-6150
▁स्वीकारणे	-6151
▁जल	-6152
ल्यवान	-6153
▁थोड्या	-6154
▁मालकाच्या	-6155
▁शस्त्र	-6156
▁सिन्हा	-6157
▁किंमतीवर	-6158
▁मौल्यवान	-6159
▁इच्छाशक्ती	-6160
▁अनुदा	-6161
▁रजिस्ट्रार	-6162
▁शेड	-6163
▁हरकत	-6164
▁हल्लेख	-6165
▁प्रशासन	-6166
▁टाय	-6167
नच्या	-6168
▁रिपोर्ट	-6169
▁मृत्यूचे	-6170
▁अधिकाराचे	-6171
▁कधीकधी	-6172
▁अर्जाची	-6173
▁कर्जाची	-6174
▁शाळेत	-6175
▁तिन्ही	-6176
▁वेळापत्रक	-6177
▁वजा	-6178
▁अंदाजे	-6179
▁तितकेच	-6180
▁द्वितीय	-6181
व्हा	-6182
▁भविष्यात	-6183
रचना	-6184
चार्य	-6185
▁भरली	-6186
▁मांडला	-6187
पाद	-6188
▁भवन	-6189
▁मेट	-6190
▁सीओ	-6191
▁नमुने	-6192
▁सोडला	-6193
थॉ	-6194
▁\	-6195
▁डायरी	-6196
▁भावना	-6197
▁स्टॉक	-6198
▁दुबे	-6199
▁परेड	-6200
▁घातली	-6201
▁समन्व	-6202
▁व्हिडिओ	-6203
▁निवासस्था	-6204
▁निर्धारिती	-6205
▁शॉ	-6206
▁कारवाईच्या	-6207
▁पह	-6208
ब्लू	-6209
ंमुळे	-6210
▁निपटारा	-6211
▁ज्येष्ठता	-6212
ऊक	-6213
ोडी	-6214
▁ज्ञा	-6215
▁जोडलेल्या	-6216
▁विकत	-6217
▁सरकारची	-6218
▁नक	-6219
▁इंद	-6220
▁वनस्प	-6221
▁विद्यार्थ्यांना	-6222
▁आदि	-6223
▁असेच	-6224
▁याकडे	-6225
▁वृत्त	-6226
सेस	-6227
▁देखरेखी	-6228
▁मित	-6229
ल्यात	-6230
▁बंगलोर	-6231
▁तिच्याशी	-6232
▁फायदेशीर	-6233
▁महिन्यां	-6234
धित	-6235
▁अनै	-6236
▁सोडली	-6237
▁सेक्शन	-6238
▁अहवालावर	-6239
▁समुपदेशन	-6240
▁विषयावरील	-6241
▁कलमात	-6242
▁मधुबनी	-6243
▁बोलावले	-6244
▁सध्याची	-6245
▁राजू	-6246
▁परिस्थितीच्या	-6247
श्मीर	-6248
▁पगार	-6249
▁राकेश	-6250
▁कामगारांच्या	-6251
यिक	-6252
▁बाकी	-6253
▁सीडी	-6254
▁कोठेही	-6255
▁बॉम्बे	-6256
▁खटल्यांमध्ये	-6257
डिया	-6258
▁मुदती	-6259
▁नसलेली	-6260
▁आठवड्यांच्या	-6261
▁आढळल्यास	-6262
▁उद्युक्त	-6263
▁व्यवसायात	-6264
▁आमच्यासमोर	-6265
▁एडी	-6266
▁शाख	-6267
▁श्याम	-6268
▁सामंज	-6269
▁सामायिक	-6270
▁महत्त्वाचा	-6271
▁कार्यकारिणी	-6272
शीला	-6273
्सच्या	-6274
▁शासनाच्या	-6275
▁प्रतिवादीची	-6276
▁महाविद्यालय	-6277
दाबाद	-6278
ज्ज्ञ	-6279
▁नोटि	-6280
लास	-6281
▁साक्षीने	-6282
▁उभा	-6283
▁अंतर्भ	-6284
▁कार्यकक्षा	-6285
▁हस्तक्षेपाची	-6286
▁फिर्यादीद्वारे	-6287
लपूर	-6288
▁मनात	-6289
▁वर्षांचा	-6290
▁इंडस्ट्री	-6291
▁भत्ता	-6292
▁परीक्षेच्या	-6293
▁अंक	-6294
▁आलेले	-6295
▁एनआयसी	-6296
▁हल्लेखोर	-6297
▁अभियांत्रिकी	-6298
▁लोकाय	-6299
▁राज्यपाला	-6300
ध्वनी	-6301
▁बरीच	-6302
▁चार्ज	-6303
▁असणारा	-6304
▁भरलेल्या	-6305
▁नगरपालिका	-6306
▁प्रोत्साहन	-6307
▁सबमिशनच्या	-6308
िड	-6309
लचा	-6310
क्षि	-6311
न्यु	-6312
▁चां	-6313
नामुळे	-6314
▁म्हणू	-6315
▁प्रमाणी	-6316
▁शिक्षेस	-6317
▁नोंदविले	-6318
▁अब	-6319
▁पुष्	-6320
ज्ञानिक	-6321
▁ऐच्छिक	-6322
▁कंपनीचा	-6323
▁भरण्यास	-6324
▁स्वरुपात	-6325
▁अनियमितता	-6326
▁आणणे	-6327
▁बेंगल	-6328
▁सबमिशनला	-6329
▁पदोन्नतीसाठी	-6330
▁ओएस	-6331
▁संतोष	-6332
िंगच्या	-6333
▁अधिसूचनेद्वारे	-6334
▁जम	-6335
जीसी	-6336
वण्याचा	-6337
▁सदस्यांची	-6338
▁निघून	-6339
▁वाचतो	-6340
▁नेमणुकी	-6341
▁मोबद	-6342
▁राखून	-6343
▁खंडपीठासमोर	-6344
▁संहितेनुसार	-6345
▁आरोपींविरूद्ध	-6346
ेस	-6347
▁एक्सचेंज	-6348
▁याद्वारे	-6349
बीर	-6350
▁पथ	-6351
िद्ध	-6352
▁माफी	-6353
▁कर्जदार	-6354
▁निषिद्ध	-6355
▁असल्याचेही	-6356
▁सुनावण्यात	-6357
▁नामनिर्देशित	-6358
▁न्यायालयांना	-6359
▁श्	-6360
▁उपा	-6361
तेस	-6362
▁अस्स	-6363
▁एसटी	-6364
▁सदोष	-6365
▁पेट्र	-6366
▁विज्ञान	-6367
▁दगड	-6368
▁अस्सल	-6369
▁भाषेत	-6370
▁उमेदवारी	-6371
ल्टी	-6372
▁पेपर	-6373
▁उत्तम	-6374
▁नसल्याने	-6375
▁ठरवण्यासाठी	-6376
▁गुला	-6377
▁चौहान	-6378
▁संघटना	-6379
▁भाडेकरु	-6380
▁अधिनियमित	-6381
▁इमारतीच्या	-6382
▁सोपविण्यात	-6383
▁बाबींवर	-6384
▁सुनावणीची	-6385
▁स्टेशनमध्ये	-6386
▁गुन्हेगारीच्या	-6387
▁संबंधी	-6388
▁निर्णयांवर	-6389
▁श्रीवास्तव	-6390
▁कोल	-6391
▁अभियोगी	-6392
▁छा	-6393
▁चालक	-6394
▁झालेले	-6395
▁मोबाईल	-6396
▁दर्शवितात	-6397
▁वेळेस	-6398
▁उद्भवला	-6399
▁तरतुदींमध्ये	-6400
भौ	-6401
विवादा	-6402
▁टाकला	-6403
संबंधित	-6404
▁वाढविण्यात	-6405
पर्	-6406
थ्या	-6407
▁रकमेचा	-6408
▁होत्या	-6409
स्वामी	-6410
विण्यास	-6411
▁घटनेनंतर	-6412
▁पुरविल्या	-6413
▁तत्त्वांचा	-6414
ूड	-6415
▁अर्जात	-6416
▁उतर	-6417
▁स्कूल	-6418
▁१८	-6419
्यूट	-6420
▁हेड	-6421
▁घरातून	-6422
▁गंभीरपणे	-6423
▁बेंगलुरू	-6424
▁प्रक्रियेमध्ये	-6425
िंट	-6426
स्सर	-6427
ण्याऐवजी	-6428
▁इतरांनी	-6429
कावर	-6430
▁सापडत	-6431
▁पाऊ	-6432
▁मोड	-6433
▁पदांवर	-6434
▁अध्यादेश	-6435
▁आकडेवारी	-6436
ओसी	-6437
▁इंग्ल	-6438
▁जोडला	-6439
▁लोकायुक्त	-6440
▁एए	-6441
▁एपीपी	-6442
▁मागास	-6443
▁हिंसा	-6444
▁मांडणे	-6445
ंविरोधात	-6446
▁आवश्यकत	-6447
▁ओम	-6448
तर्फ	-6449
▁बेद	-6450
▁ज्यांचे	-6451
▁वक्तव्य	-6452
▁याचिकेचा	-6453
▁लवादाकडे	-6454
वीर	-6455
▁कशी	-6456
▁चार्ट	-6457
▁मुदतीत	-6458
ुआ	-6459
मता	-6460
▁काप	-6461
▁बरखा	-6462
▁नसतील	-6463
▁मतदा	-6464
▁भगवान	-6465
▁गेलेले	-6466
▁न्यायाचा	-6467
नामी	-6468
ळावर	-6469
बाह्य	-6470
▁रहिवाश	-6471
▁सुरवात	-6472
▁पोस्टमा	-6473
▁सार्वभौ	-6474
▁परिपत्रक	-6475
▁महामार्ग	-6476
▁आक्षेपार्ह	-6477
▁दोषारोपपत्र	-6478
क्रमा	-6479
न्सिक	-6480
▁उर्फ	-6481
▁रीतीने	-6482
▁स्पर्धा	-6483
▁इच्छेनुसार	-6484
▁परिस्थितीची	-6485
वां	-6486
▁कच	-6487
▁कोट	-6488
क्षेत्र	-6489
▁पीडब्लू	-6490
▁पाठविलेल्या	-6491
▁प्रतिवादीचे	-6492
▁साक्षीदारांचे	-6493
▁अधिवेश	-6494
▁ठामपणे	-6495
▁कठोरपणे	-6496
▁कामाच्या	-6497
▁नियमांद्वारे	-6498
पुरस्सर	-6499
▁लवकरात	-6500
▁सक्रिय	-6501
▁रिक	-6502
▁डीएन	-6503
▁पिस्त	-6504
▁मॅन्यु	-6505
▁फॉरेन्सिक	-6506
ाक	-6507
▁अभाव	-6508
नमध्ये	-6509
▁लेखाप	-6510
▁सारख्या	-6511
▁कलमाच्या	-6512
▁गुन्ह्याचा	-6513
मंत	-6514
▁पाहणे	-6515
क्षिप्त	-6516
▁मृतावर	-6517
▁अधिकारात	-6518
▁आणू	-6519
▁घेणार्	-6520
▁दुकानात	-6521
▁दूरध्वनी	-6522
▁पोस्टमार्टम	-6523
▁अॅट	-6524
▁याशिवाय	-6525
▁अधोरे	-6526
▁पार्क	-6527
ट्टे	-6528
▁एटी	-6529
▁कॉन्ट	-6530
▁अधोरेखित	-6531
बीने	-6532
▁फर्	-6533
▁निधन	-6534
▁अर्जास	-6535
▁गॅरंटी	-6536
ूह	-6537
▁अवय	-6538
▁खटल्यांच्या	-6539
▁पंड	-6540
▁जोडलेले	-6541
ंगळ	-6542
ंबंध	-6543
ेटरी	-6544
▁अल्	-6545
▁हुस	-6546
▁खंडन	-6547
▁करूनही	-6548
▁अनुपालन	-6549
▁गोष्टींचा	-6550
▁प्रारंभिक	-6551
▁इंडस्ट्रीज	-6552
▁पकडले	-6553
नू	-6554
▁हरी	-6555
दराबाद	-6556
▁तुरूंगात	-6557
▁विभागाचे	-6558
▁वर्षांपासून	-6559
नाशी	-6560
▁लाभार्थी	-6561
▁गुन्हेगारा	-6562
ुसं	-6563
सायनिक	-6564
▁समस्ये	-6565
▁कारवाईत	-6566
▁रक्ताचे	-6567
▁प्राधिकरणाकडे	-6568
पीपी	-6569
▁पूर्वसू	-6570
▁निश्चितच	-6571
▁अटीनुसार	-6572
▁हैदराबाद	-6573
▁लिक्विडेटर	-6574
▁उत्स	-6575
▁नसताना	-6576
▁निकालाची	-6577
▁पारदर्शक	-6578
▁मार्गदर्शन	-6579
▁विवादास्पद	-6580
▁औरंग	-6581
▁जावा	-6582
▁वारसा	-6583
▁सुशील	-6584
लित	-6585
▁भविष्य	-6586
▁वादविवादा	-6587
▁मिळते	-6588
र्पण	-6589
▁मां	-6590
▁पॅके	-6591
▁पॉईंट	-6592
▁संताप	-6593
▁पार्टी	-6594
▁मतानुसार	-6595
▁यासंबंधी	-6596
▁समायोजित	-6597
▁वैयक्तिकरित्या	-6598
....	-6599
ामुळे	-6600
▁संमत	-6601
▁होतात	-6602
▁काश्मीर	-6603
▁प्रामुख	-6604
▁बाहेरील	-6605
▁कारवाईचा	-6606
ौल	-6607
▁बेल	-6608
▁क्रेड	-6609
▁चिन्हा	-6610
▁पेट्रोल	-6611
▁सूचीबद्ध	-6612
▁संस्थांच्या	-6613
▁युक्तिवादाला	-6614
▁बेकायदेशीरपणे	-6615
▁मॅट	-6616
प्रकरणी	-6617
▁दृष्टीकोन	-6618
ैया	-6619
▁कथ	-6620
डीसी	-6621
तीवर	-6622
▁बिंदू	-6623
▁वाटाघा	-6624
▁आरक्षित	-6625
▁औरंगाबाद	-6626
▁प्रामुख्याने	-6627
सचि	-6628
▁तहक	-6629
▁तीच	-6630
▁सीई	-6631
▁आश्च	-6632
▁शिक्ष	-6633
▁गोळ्या	-6634
▁संप्रेषण	-6635
▁सामग्रीचा	-6636
शः	-6637
▁याचे	-6638
▁साथी	-6639
▁ज्ञात	-6640
▁मानतो	-6641
▁वाटपा	-6642
▁सार्वभौम	-6643
▁सद्यस्थितीत	-6644
▁उत्पन्नाच्या	-6645
▁बॉक्स	-6646
▁आयुष्य	-6647
▁स्वतःचे	-6648
▁इतरांच्या	-6649
गण	-6650
▁मशी	-6651
कृष्ण	-6652
▁भूसं	-6653
▁गांधी	-6654
▁तहकूब	-6655
▁सांगता	-6656
▁उत्तरात	-6657
▁बाबतीतही	-6658
▁सातत्याने	-6659
▁पिन	-6660
व्हर्स	-6661
ांवरून	-6662
▁अॅटर्नी	-6663
णूस	-6664
बेन	-6665
आरएस	-6666
▁नदी	-6667
▁आयटीआर	-6668
▁नसल्याचा	-6669
शियल	-6670
▁माणूस	-6671
▁दरवाजा	-6672
▁दाखवून	-6673
▁बजावले	-6674
▁फाईल	-6675
▁कामात	-6676
▁तपासा	-6677
▁संक्षिप्त	-6678
ारक	-6679
▁आयसी	-6680
▁नसती	-6681
▁दस्तऐवजा	-6682
▁मुख्याध्यापक	-6683
ोरा	-6684
▁बदलू	-6685
▁ब्रह	-6686
▁संघर्ष	-6687
▁कारावास	-6688
▁रासायनिक	-6689
▁विधानसभेच्या	-6690
रुध्द	-6691
▁फ्रॅ	-6692
शत	-6693
▁साठ	-6694
▁मैदा	-6695
▁अजूनही	-6696
▁कार्यात	-6697
गामी	-6698
पंचाय	-6699
▁योजन	-6700
▁करारात	-6701
▁वैज्ञानिक	-6702
▁डील	-6703
▁मिळेल	-6704
▁प्रतिपादन	-6705
▁गुन्ह्यांसाठी	-6706
ठ्	-6707
म्स	-6708
▁हरकती	-6709
नामध्ये	-6710
▁गुन्ह्यांचा	-6711
▁तक्रारदाराला	-6712
▁याचिकाकर्त्यावर	-6713
▁चलन	-6714
र्किक	-6715
▁शत्र	-6716
नल	-6717
ेज	-6718
▁संसद	-6719
▁एक्सट	-6720
▁स्वरुप	-6721
▁प्रयोगशा	-6722
▁हाच	-6723
▁ठेवतो	-6724
▁प्रतिष्ठा	-6725
▁यश	-6726
एलने	-6727
▁उत्क	-6728
▁गुणध	-6729
▁वाचला	-6730
▁विचारासाठी	-6731
भरपाई	-6732
▁पासवान	-6733
▁प्रीमियम	-6734
शिक	-6735
▁अनुक	-6736
▁हिस्	-6737
▁गुप्त	-6738
▁बोलले	-6739
▁संशोधन	-6740
▁उदाहरणे	-6741
▁मुलांना	-6742
▁प्रतिनिधित्	-6743
▁पगारा	-6744
▁जाणारा	-6745
▁उद्भवली	-6746
▁नसल्याची	-6747
▁वर्षासाठी	-6748
▁नुकसानभरपाई	-6749
सराय	-6750
▁बायो	-6751
▁गोपाळ	-6752
▁मुलीला	-6753
प्तीच्या	-6754
▁क्रौर्य	-6755
जोग	-6756
▁पीठ	-6757
▁गाडी	-6758
▁सभास	-6759
▁सीएम	-6760
▁नाकारता	-6761
▁निर्धारक	-6762
▁एखाद्याने	-6763
▁टक्केवारी	-6764
▁निसर्गाच्या	-6765
कि	-6766
लाय	-6767
▁अविभाज्य	-6768
▁लेखक	-6769
▁ठरवून	-6770
▁संज्ञान	-6771
▁वात	-6772
▁आयके	-6773
निर्माण	-6774
▁प्रवर्त	-6775
ईसी	-6776
▁धन	-6777
▁एके	-6778
▁बाजूस	-6779
▁साध्या	-6780
▁सबमिशनमध्ये	-6781
▁निर्णयानुसार	-6782
▁हवा	-6783
▁राज्ये	-6784
▁घडलेल्या	-6785
आरसी	-6786
▁गैरव्यव	-6787
▁संगण	-6788
▁संवाद	-6789
▁वर्षांपेक्षा	-6790
शासित	-6791
▁विवाहित	-6792
▁उमेदवारांची	-6793
णात	-6794
शीट	-6795
▁ऑपरेट	-6796
▁मसुदा	-6797
▁न्यायनि	-6798
▁निवृत्तीवेतन	-6799
यचा	-6800
▁घेतो	-6801
▁फोरम	-6802
▁मद्य	-6803
▁अतिशय	-6804
▁सीआयटी	-6805
▁सीलबंद	-6806
▁अनुकंपा	-6807
तम	-6808
▁एजी	-6809
▁बारा	-6810
▁विभाज	-6811
▁नोटिसा	-6812
▁वनस्पती	-6813
▁तथ्यांचा	-6814
▁व्यवहार्य	-6815
▁न्यायाधिकरणाकडे	-6816
▁लगे	-6817
▁वगळले	-6818
▁लिहिलेले	-6819
▁नोंदविलेले	-6820
▁गहाण	-6821
▁लगेच	-6822
▁तंद	-6823
▁पृथ	-6824
▁बाज	-6825
▁पाऊल	-6826
▁घेतात	-6827
▁बेदखल	-6828
▁आरोपींचा	-6829
▁संकल्पने	-6830
▁सांगितली	-6831
▁तै	-6832
▁अपू	-6833
प्राय	-6834
▁चालव	-6835
▁सांभा	-6836
स्तीपूर	-6837
▁होणारी	-6838
▁आरोपीचे	-6839
▁इंग्लंड	-6840
▁तत्त्वांच्या	-6841
झर	-6842
▁कोलक	-6843
▁महास	-6844
एलआर	-6845
लयीन	-6846
▁युनि	-6847
शाच्या	-6848
▁तेथील	-6849
▁मेहता	-6850
▁भरपाईचा	-6851
▁इश	-6852
▁श्रे	-6853
▁पॅनेल	-6854
▁विनोद	-6855
लिंग	-6856
▁अखेरी	-6857
▁स्टँड	-6858
▁सुनावली	-6859
▁धर्मादाय	-6860
▁हवे	-6861
कोच	-6862
▁लखन	-6863
्रिया	-6864
र्सच्या	-6865
▁त्याउलट	-6866
▁संसदेच्या	-6867
▁समस्तीपूर	-6868
▁स्वीकार्य	-6869
ाप्रमाणे	-6870
▁बाजारपे	-6871
▁केंद्रशासित	-6872
िओ	-6873
घटना	-6874
▁संस्थांना	-6875
▁ऑड	-6876
▁मरणा	-6877
▁रेखा	-6878
▁जागेची	-6879
▁अर्जदाराला	-6880
▁ओसीसी	-6881
▁कक्षेत	-6882
▁वेगवेग	-6883
▁फेटाळले	-6884
ुरा	-6885
▁तळ	-6886
▁लँड	-6887
लीच्या	-6888
▁पसंती	-6889
▁मोकळे	-6890
▁पुरविली	-6891
▁मल	-6892
▁सुख	-6893
शास्त	-6894
▁टाकणे	-6895
▁पाटणा	-6896
▁महेंद्र	-6897
▁रुग्णालया	-6898
य्या	-6899
▁फेड	-6900
▁वर्	-6901
▁टॅक्स	-6902
▁चौथ्या	-6903
▁मिळावी	-6904
▁अनुलग्न	-6905
▁क्रेडिट	-6906
▁वाटाघाटी	-6907
▁कार्यक्षमता	-6908
▁संवे	-6909
▁सामंजस्य	-6910
डीएस	-6911
▁अरुण	-6912
▁वाचलेल्या	-6913
ळात	-6914
िकर	-6915
र्मू	-6916
▁छेड	-6917
ंवरून	-6918
▁आईने	-6919
▁हेतु	-6920
▁अखेरीस	-6921
▁विवेका	-6922
▁एखाद्याला	-6923
▁उलटतपासणीच्या	-6924
▁वास	-6925
▁गेलो	-6926
▁धरुन	-6927
▁बिघड	-6928
▁आमच्याकडे	-6929
▁महिन्याच्या	-6930
▁पडली	-6931
▁बहुसं	-6932
▁स्वीक	-6933
▁प्रक्रियेस	-6934
▁त्याच्याकडून	-6935
यची	-6936
▁करम	-6937
▁गणे	-6938
▁विधी	-6939
▁गुणोत्तर	-6940
्ज	-6941
कांत	-6942
▁इस्	-6943
▁धारण	-6944
▁तज्ज्ञ	-6945
▁स्वरूपाचा	-6946
ौर	-6947
ळीत	-6948
▁आचर	-6949
▁दर्जा	-6950
▁विपरीत	-6951
▁हिस्सा	-6952
▁अर्थातच	-6953
▁इतरांना	-6954
▁इलेक्ट्रॉ	-6955
▁असल्याच्या	-6956
▁बाबींमध्ये	-6957
▁शुल्काच्या	-6958
नियम	-6959
0,000	-6960
▁पध्द	-6961
▁बराच	-6962
त्तम	-6963
यंत्र	-6964
▁एसएच	-6965
▁सुरक्षे	-6966
▁अश्	-6967
▁रिझ	-6968
▁विश्र	-6969
▁आदिवासी	-6970
▁काढल्या	-6971
▁देशाच्या	-6972
▁दर्शविलेल्या	-6973
▁यांच्यासमवेत	-6974
▁दिवाळख	-6975
▁अनुलग्नक	-6976
सेवा	-6977
▁चरण	-6978
▁समजाव	-6979
▁सूत्र	-6980
▁पत्नीला	-6981
तेशी	-6982
प्रा	-6983
▁सीता	-6984
▁ओळखली	-6985
▁व्याख्ये	-6986
▁होण्याचे	-6987
ुण	-6988
तीस	-6989
षित	-6990
▁इंट	-6991
ावरील	-6992
▁एसएस	-6993
▁गरजा	-6994
▁हेही	-6995
पलीकडे	-6996
▁वचनबद्ध	-6997
▁वडिलांना	-6998
▁निर्विवादपणे	-6999
छा	-7000
मेल	-7001
वतो	-7002
▁तयारी	-7003
▁शांतता	-7004
▁संसाधन	-7005
▁रस्त्यावर	-7006
▁पुनर्विचार	-7007
▁नोंदविण्यास	-7008
वाण	-7009
▁पंध	-7010
स्टिक	-7011
▁एक्स्	-7012
▁न्यायाधीशांचे	-7013
एलटी	-7014
श्चय	-7015
वश्यक	-7016
▁धोरणात्मक	-7017
कास	-7018
खिक	-7019
पिक	-7020
स्तू	-7021
विषयक	-7022
▁उभार	-7023
▁राजा	-7024
▁मौखिक	-7025
▁सभासद	-7026
▁तितक्या	-7027
▁वयाच्या	-7028
▁वर्तमान	-7029
▁विश्वसनीय	-7030
▁घा	-7031
▁दहशत	-7032
कर्त्याने	-7033
▁हक्कांचे	-7034
▁घटनेनुसार	-7035
▁इं	-7036
राइट	-7037
▁नेत	-7038
▁शरीर	-7039
स्त्राव	-7040
▁तंदुरु	-7041
▁आणलेल्या	-7042
▁अत्यावश्यक	-7043
▁दुर्दैवाने	-7044
▁अहवालानुसार	-7045
▁सिक्युरिटीज	-7046
फि	-7047
ोता	-7048
▁मनुष	-7049
वायत्त	-7050
▁समुपदेशकाने	-7051
▁युक्तिवादाचा	-7052
काम	-7053
यित	-7054
ाकथित	-7055
▁अल्ट	-7056
▁सादरी	-7057
▁तथाकथित	-7058
▁वगळण्यात	-7059
▁स्वायत्त	-7060
▁चालविण्यास	-7061
▁रक्तस्त्राव	-7062
▁अनुरुप	-7063
▁सुट्टी	-7064
▁दोघांनी	-7065
▁मिळविला	-7066
▁प्रकरणांच्या	-7067
्मण	-7068
प्ले	-7069
ुद्ध	-7070
▁एआयसी	-7071
▁लावून	-7072
▁पत्नीच्या	-7073
ापती	-7074
▁कित	-7075
▁टीका	-7076
▁रचने	-7077
▁विमान	-7078
▁निर्णयाने	-7079
▁विद्यापीठाने	-7080
▁अंर	-7081
▁एमपी	-7082
▁किलो	-7083
▁नसला	-7084
▁पदाच्या	-7085
▁धोकादायक	-7086
▁महत्वाचे	-7087
▁स्त्रिया	-7088
▁करण्याऐवजी	-7089
▁त्यासंबंधी	-7090
▁सावधगिरीने	-7091
▁पुरस्काराच्या	-7092
▁ग्	-7093
ांपासून	-7094
▁पाडण्यासाठी	-7095
▁फेर	-7096
रातील	-7097
▁पतीने	-7098
▁यार्ड	-7099
▁उपनिरीक्षक	-7100
ँक	-7101
तुल	-7102
▁नसलेला	-7103
▁शिस्तभंगाची	-7104
▁वग	-7105
▁स्म	-7106
व्यात	-7107
▁खराब	-7108
▁टेस्ट	-7109
▁सापडली	-7110
क्काच्या	-7111
▁प्रक्रियेद्वारे	-7112
टम	-7113
आयने	-7114
▁बात	-7115
▁आपाप	-7116
▁वाहतूक	-7117
▁त्यांच्यात	-7118
धि	-7119
▁अंध	-7120
▁केश	-7121
▁झाल्याची	-7122
▁भ्रष्टाचार	-7123
णाची	-7124
▁आशा	-7125
▁आराख	-7126
▁पत्रे	-7127
▁तालुका	-7128
▁खेड	-7129
▁देण	-7130
▁खटले	-7131
▁साली	-7132
▁संकोच	-7133
▁चतुर्थ	-7134
त्रा	-7135
सचिव	-7136
▁उपचारा	-7137
▁दुर्मिळ	-7138
नाकडे	-7139
▁सुरुवात	-7140
▁कारावासाची	-7141
ऊंड	-7142
क्यू	-7143
हारी	-7144
▁आयोजन	-7145
▁गैरसम	-7146
ांकरिता	-7147
▁मूल्या	-7148
▁सहजपणे	-7149
▁कॉपीराइट	-7150
▁विक्रीचा	-7151
▁राहण्याचे	-7152
▁हेतूंसाठी	-7153
▁नाकारण्याचे	-7154
▁बनले	-7155
▁पत्ता	-7156
▁संदेश	-7157
▁निवारण	-7158
▁स्वच्छ	-7159
चाराच्या	-7160
▁संचालना	-7161
▁मिळाल्यामुळे	-7162
फिक	-7163
▁गळ	-7164
▁व्हे	-7165
▁देतील	-7166
ंकर	-7167
▁चिड	-7168
▁मार्केट	-7169
▁प्रतिबंधक	-7170
निमय	-7171
▁कंट्र	-7172
▁कागदा	-7173
▁होण्याचा	-7174
▁परिच्छेदात	-7175
कासाठी	-7176
▁मिळालेली	-7177
▁हेतुपुरस्सर	-7178
▁पिश	-7179
▁मदतीने	-7180
▁वातावर	-7181
▁दुरुस्तीच्या	-7182
परित	-7183
पीएफ	-7184
▁अना	-7185
▁नाय	-7186
▁लाठी	-7187
▁घराबाहेर	-7188
▁पक्षांकडे	-7189
▁ग्रामपंचाय	-7190
उट	-7191
▁फंड	-7192
स्क्र	-7193
▁विपरित	-7194
▁निर्वाह	-7195
▁शिक्कामो	-7196
▁विधि	-7197
लिसिटर	-7198
▁देशात	-7199
▁सन्मा	-7200
▁रकमेवर	-7201
▁डॉक्टरांच्या	-7202
ौली	-7203
एलच्या	-7204
▁दृश्य	-7205
▁मॉडेल	-7206
▁अनुच्छेद	-7207
▁अमर	-7208
▁इतकेच	-7209
▁निराश	-7210
▁शिक्कामोर्त	-7211
▁शस्त्रास्त्र	-7212
▁नकळत	-7213
▁वेंक	-7214
▁सायं	-7215
▁रोहता	-7216
▁निवाडा	-7217
▁कंपनीची	-7218
▁एआयसीटीई	-7219
▁प्रतिसादा	-7220
दीय	-7221
टीने	-7222
▁ऑडिट	-7223
▁किशन	-7224
▁क्वा	-7225
▁बदला	-7226
▁शेड्यू	-7227
▁वादविवाद	-7228
▁शिक्कामोर्तब	-7229
टिल	-7230
▁कब्	-7231
▁समाजात	-7232
▁यांसाठी	-7233
▁मार्गावर	-7234
▁म्हणण्यात	-7235
▁कोर्टाकडून	-7236
▁त्याच्याविरूद्ध	-7237
▁बनविला	-7238
▁नोंदवून	-7239
▁बनविलेले	-7240
▁हिमा	-7241
▁खंडणी	-7242
▁गृहनिर्माण	-7243
▁मुख्यमंत्र	-7244
▁निवेदनाच्या	-7245
▁तीस	-7246
▁मनो	-7247
▁नसली	-7248
जेच्या	-7249
विण्याची	-7250
▁येण्यास	-7251
▁अहमदाबाद	-7252
▁सत्यतेवर	-7253
▁न्यायव्यव	-7254
ढा	-7255
लग	-7256
▁एसपी	-7257
▁महान	-7258
▁रंजन	-7259
▁सासू	-7260
नंतरही	-7261
▁इच्छितो	-7262
▁प्रदर्शित	-7263
▁भरपाईसाठी	-7264
▁पीडितेच्या	-7265
षा	-7266
▁जतन	-7267
▁फिर	-7268
▁क्लब	-7269
▁गणेश	-7270
▁ठाऊक	-7271
क्त्या	-7272
▁पॅकेज	-7273
▁स्पर्ध	-7274
▁गर्भपात	-7275
▁नाकारणे	-7276
▁हक्काच्या	-7277
▁प्रकरणांचा	-7278
▁सापडलेल्या	-7279
▁नियमांमध्ये	-7280
▁सती	-7281
▁घेते	-7282
▁पत्रात	-7283
▁सायंकाळी	-7284
▁स्वरूपाचे	-7285
जनक	-7286
▁म्हणत	-7287
ांविषयी	-7288
▁वेगवान	-7289
▁समितीचे	-7290
कोट	-7291
ापू	-7292
▁नजर	-7293
▁फ्र	-7294
िकेने	-7295
▁पवित	-7296
▁डीएनए	-7297
▁योगदान	-7298
▁विधिवत	-7299
▁सॉलिसिटर	-7300
बळ	-7301
धारी	-7302
▁विवेकी	-7303
▁प्रवेशासाठी	-7304
ार्थ	-7305
▁कलक	-7306
▁बिले	-7307
▁भरले	-7308
▁उत्ते	-7309
▁अपूर्ण	-7310
▁होण्या	-7311
▁पतीच्या	-7312
▁अंतर्भूत	-7313
▁अशक्तपणा	-7314
▁जाण्याचे	-7315
▁वृत्तपत्र	-7316
▁कौर	-7317
▁शहा	-7318
▁कित्ये	-7319
▁मागितला	-7320
ोजक	-7321
▁कंपन्यांच्या	-7322
▁न्यायाधीशांसमोर	-7323
इम	-7324
पल	-7325
▁बंदुकी	-7326
▁वस्तूंचे	-7327
▁सामग्रीच्या	-7328
ैरे	-7329
▁इंद्र	-7330
▁तपशीला	-7331
▁ठेवलेले	-7332
▁मानल्या	-7333
▁ग्रॅच्यु	-7334
▁हिताच्या	-7335
▁औपचारिकता	-7336
▁घेण्याबाबत	-7337
▁योजनेंतर्गत	-7338
▁आराम	-7339
▁बंगाल	-7340
▁विकृती	-7341
▁समजावून	-7342
▁मुलीच्या	-7343
▁पीडब्ल्यूएस	-7344
▁उमेदवारांच्या	-7345
▁दररोज	-7346
▁सीआरएल	-7347
▁सवलतीच्या	-7348
▁मेल	-7349
▁प्लॉट	-7350
▁वगैरे	-7351
▁अटकेचा	-7352
▁जुळ	-7353
▁तैनात	-7354
▁वेधून	-7355
▁कौतुका	-7356
▁कित्येक	-7357
▁दाव्याचा	-7358
▁ट्रस्टच्या	-7359
नस	-7360
▁भोज	-7361
▁लागते	-7362
▁अपराधा	-7363
▁काढलेला	-7364
▁न्यायाचे	-7365
▁नियंत्रणाखाली	-7366
▁बेश	-7367
▁जखमा	-7368
▁स्टॅ	-7369
ंविषयी	-7370
थॉरिटी	-7371
▁पुनर्स	-7372
▁संसदीय	-7373
▁प्रॉपर्	-7374
▁पक्षांमध्ये	-7375
▁रॉक	-7376
▁लवकरच	-7377
यस	-7378
लप	-7379
ईटी	-7380
जेस	-7381
सेव	-7382
रिका	-7383
▁जोडी	-7384
▁प्रकटी	-7385
▁आणण्याचा	-7386
इत	-7387
▁भाडेप	-7388
▁भारती	-7389
▁पैलूवर	-7390
▁मंडळाचे	-7391
▁मुक्तता	-7392
▁समितीची	-7393
▁व्यवस्थे	-7394
▁प्रवेशाच्या	-7395
मूल	-7396
▁सख	-7397
फ्फर	-7398
विरुध्द	-7399
▁ठरल्यास	-7400
▁पुनर्संच	-7401
▁पैशाच्या	-7402
कत	-7403
्यव	-7404
▁फरार	-7405
▁स्थिर	-7406
▁वापरण्यास	-7407
▁देण्याबाबत	-7408
▁टू	-7409
▁इंज	-7410
द्यावर	-7411
▁शेवटचा	-7412
▁अधिकारावर	-7413
▁अस्तित्वा	-7414
▁नऊ	-7415
▁खरी	-7416
▁झोन	-7417
▁पसंत	-7418
▁माला	-7419
▁शोधात	-7420
▁सेक्र	-7421
▁देखरेख	-7422
▁स्तरावर	-7423
▁रुपयांची	-7424
ृत्	-7425
▁अडक	-7426
▁डीआर	-7427
चित्रे	-7428
▁विकली	-7429
▁कृत्ये	-7430
▁आजपासून	-7431
▁कलकत्ता	-7432
▁रवींद्र	-7433
जण	-7434
▁अबा	-7435
▁क्लि	-7436
▁बिल्ड	-7437
▁मजल्या	-7438
आयच्या	-7439
ंपर्यंत	-7440
▁ज्योति	-7441
▁दागिने	-7442
▁दायित्व	-7443
▁अहवालाचा	-7444
▁निवडणुका	-7445
▁तक्रारीची	-7446
▁दोघांनाही	-7447
▁पात्रतेच्या	-7448
▁बॅक	-7449
स्पेक्टर	-7450
▁बाजूच्या	-7451
▁जिल्हाधिका	-7452
▁हायकोर्टाचे	-7453
▁ओपी	-7454
▁काढता	-7455
्राच्या	-7456
▁शेजारी	-7457
▁जिल्ह्यातील	-7458
▁मिळणार	-7459
▁मुद्द्यांचा	-7460
वर्ष	-7461
▁अपयश	-7462
▁इतिहास	-7463
▁अर्जदारा	-7464
▁निर्णयात	-7465
▁फ्रॅक्चर	-7466
▁पुराव्यात	-7467
▁व्यवस्थित	-7468
▁साक्षीच्या	-7469
▁योग्यप्रकारे	-7470
▁गमा	-7471
▁सेवेची	-7472
▁पुनर्मू	-7473
वण्याच्या	-7474
▁योजनेचा	-7475
▁असण्याची	-7476
▁कच्	-7477
ब्लिक	-7478
▁देयके	-7479
▁बँकेला	-7480
▁यांनाही	-7481
▁मिळण्यास	-7482
▁स्वीकृती	-7483
▁वस्तुस्थितीवर	-7484
▁अर्क	-7485
▁असमान	-7486
▁कव्हर	-7487
▁सिस्टम	-7488
▁पेंडन्सी	-7489
▁न्यायाधीशांची	-7490
▁काडत	-7491
▁सीएस	-7492
▁सीजी	-7493
▁अल्ट्रा	-7494
▁नय	-7495
▁यावी	-7496
▁नॅशनल	-7497
▁आश्चर्य	-7498
▁कोलकाता	-7499
▁तार्किक	-7500
▁आदेशाद्वारे	-7501
्यातून	-7502
▁कब्जा	-7503
▁छेडछा	-7504
▁स्फोट	-7505
हाराच्या	-7506
▁कर्जाच्या	-7507
कर्त्याच्या	-7508
अनु	-7509
व्यु	-7510
▁मंच	-7511
▁आजार	-7512
▁थोडा	-7513
▁नोटा	-7514
▁पीएम	-7515
▁लिंग	-7516
ांबाबत	-7517
▁तरतुदीचा	-7518
▁रेकॉर्डिंग	-7519
▁अप्रा	-7520
▁गैरसमज	-7521
व्युत्तर	-7522
▁दोषमुक्त	-7523
▁पुनर्संचयित	-7524
▁हसन	-7525
▁परिसरातील	-7526
▁निर्णयांचा	-7527
▁पदव्युत्तर	-7528
्वी	-7529
िकाऊ	-7530
▁एकस	-7531
▁वादीला	-7532
▁न्यायाची	-7533
▁पासपोर्ट	-7534
▁यांच्याविरूद्ध	-7535
उंड	-7536
िप्	-7537
नासह	-7538
वितो	-7539
िकेट	-7540
▁कमि	-7541
▁नेट	-7542
▁कलंक	-7543
▁डीबी	-7544
▁निंद	-7545
▁पहिले	-7546
▁वरच्या	-7547
▁कंट्रोल	-7548
▁पिस्तूल	-7549
▁सीबीआयने	-7550
▁तंत्रज्ञा	-7551
▁साधारणपणे	-7552
▁परिस्थितीवर	-7553
▁प्रतिक्रिया	-7554
▁अपीलकर्त्यावर	-7555
▁एसके	-7556
▁शुक्	-7557
संचालक	-7558
▁मुखर्जी	-7559
▁यांच्यासमोर	-7560
▁क्षेत्रामध्ये	-7561
▁जमु	-7562
दनशील	-7563
▁रोहतास	-7564
▁ताब्यातून	-7565
▁ट्रान्सपोर्ट	-7566
ड्	-7567
▁गाय	-7568
▁अमित	-7569
▁देणगी	-7570
▁सोन्या	-7571
▁असामान्य	-7572
▁मृतांच्या	-7573
▁म्हटल्याप्रमाणे	-7574
थिल	-7575
प्रिय	-7576
▁उपाध	-7577
▁उत्पादक	-7578
▁तोंडावर	-7579
▁बाजारात	-7580
जरा	-7581
▁तल	-7582
लेखा	-7583
▁मॅनेज	-7584
▁सेवेचा	-7585
▁धोरणाच्या	-7586
जेसी	-7587
▁काढू	-7588
निकारक	-7589
▁एकसारखे	-7590
▁विकासासाठी	-7591
▁वस्तुस्थितीचा	-7592
मर	-7593
वेदी	-7594
▁तत्सम	-7595
▁प्रदू	-7596
▁येथून	-7597
▁शिकलो	-7598
▁मालकास	-7599
▁राहण्यास	-7600
▁उमेदवाराने	-7601
▁कार्यवाहीमध्ये	-7602
▁बजा	-7603
▁विचित्र	-7604
▁एनडीपीएस	-7605
▁न्यायनिवाडा	-7606
▁माझा	-7607
▁दर्शविणे	-7608
▁रामचंद्र	-7609
▁वर्षानंतर	-7610
▁अर्जदारांनी	-7611
शल	-7612
्वळ	-7613
एफसी	-7614
▁जीप	-7615
कातील	-7616
▁नयेत	-7617
बि	-7618
▁डेट	-7619
▁कॉम्	-7620
▁सर्क	-7621
▁जोडल्या	-7622
▁स्वतःची	-7623
▁रूपांतरित	-7624
टर्स	-7625
य्यम	-7626
▁निव्वळ	-7627
▁व्यस्त	-7628
▁अमेरिकन	-7629
▁षडयंत्र	-7630
▁कॉन्ट्रॅ	-7631
▁अल्पसंख्याक	-7632
▁अरो	-7633
▁अशीच	-7634
▁कन्स	-7635
▁अंतर्	-7636
▁पर्वा	-7637
▁पाहून	-7638
तेमध्ये	-7639
दारांना	-7640
करणासाठी	-7641
▁मुद्द्यावर	-7642
ुती	-7643
वर्ग	-7644
वांछ	-7645
▁तला	-7646
▁साय	-7647
▁आमची	-7648
▁कळले	-7649
▁दुय्यम	-7650
▁होणारा	-7651
▁गुंतलेले	-7652
▁सर्वांना	-7653
▁हानिकारक	-7654
▁प्राप्तिकर	-7655
▁एक्सएक्सएक्स	-7656
▁अवांछ	-7657
▁टिप्प	-7658
▁दिलीप	-7659
▁येतात	-7660
▁खुल्या	-7661
▁मुलाची	-7662
▁वितरणा	-7663
▁झाल्यापासून	-7664
घे	-7665
विता	-7666
▁आरएस	-7667
▁यावे	-7668
▁मर्यादेचा	-7669
▁आरोपींकडून	-7670
▁निर्देशांचे	-7671
बूत	-7672
तेसह	-7673
▁मदन	-7674
▁उदार	-7675
▁लिखित	-7676
▁लोखंड	-7677
▁वगळणे	-7678
्रुमेंट	-7679
▁राजपत्र	-7680
▁लोकसेवा	-7681
▁समितीला	-7682
▁पृथ्वी	-7683
▁जवळच्या	-7684
▁गुंतागुंत	-7685
▁पगाराच्या	-7686
▁छायाचित्रे	-7687
▁सांभाळ	-7688
▁हिमाचल	-7689
ांपर्यंत	-7690
▁संशयाचा	-7691
▁मोटारसायकल	-7692
▁नामनिर्देशन	-7693
▁प्रक्रियेची	-7694
▁न्यायाधीशांचा	-7695
▁अपीलकर्त्यांचा	-7696
▁एचएल	-7697
▁देणार	-7698
▁मुकेश	-7699
▁निराधार	-7700
▁मुद्दाम	-7701
▁ठरल्यामुळे	-7702
टीए	-7703
रूक	-7704
शाली	-7705
▁घरे	-7706
▁सुब	-7707
▁आयटम	-7708
▁श्वास	-7709
▁काहीतरी	-7710
▁मागितले	-7711
▁कामकाजाच्या	-7712
▁हवी	-7713
▁रुग्ण	-7714
▁पावत्या	-7715
▁सशस्त्र	-7716
▁पर्यावरण	-7717
▁वक्तव्या	-7718
▁सॅ	-7719
वानी	-7720
▁द्र	-7721
समधील	-7722
▁ओळखला	-7723
▁घालणे	-7724
वाराच्या	-7725
▁बहुसंख्य	-7726
▁होल्डिंग	-7727
माने	-7728
र्जन	-7729
▁गॅस	-7730
बीच्या	-7731
रज	-7732
▁भत्	-7733
▁मुर	-7734
▁महामंडळ	-7735
▁मिळाल्या	-7736
▁खटल्यासाठी	-7737
▁महाविद्यालये	-7738
रव	-7739
समा	-7740
▁आणत	-7741
▁गंग	-7742
▁आचार	-7743
▁बदलले	-7744
▁मारले	-7745
र्टमेंट	-7746
▁निंदनीय	-7747
▁भारताच्या	-7748
रोप	-7749
▁रज	-7750
▁हप्	-7751
▁चिकट	-7752
▁निष्प	-7753
▁स्पॉट	-7754
▁गोविंद	-7755
▁कारवाईस	-7756
▁वर्षांचे	-7757
▁विद्यालय	-7758
▁प्रत्येकी	-7759
▁पोलिसांकडे	-7760
▁घेतल्याशिवाय	-7761
▁इन्स्ट्रुमेंट	-7762
▁मेहु	-7763
ंबंधित	-7764
▁पदाचा	-7765
▁पातळीवर	-7766
▁आत्महत्ये	-7767
▁व्यक्तींचा	-7768
ीन	-7769
व्हरी	-7770
▁क्रम	-7771
▁सुभाष	-7772
▁घटनेने	-7773
वाड	-7774
▁भिं	-7775
▁मजबूत	-7776
▁भांडवला	-7777
▁ठरविण्याचा	-7778
▁अण	-7779
▁नी	-7780
ुनिक	-7781
▁एकी	-7782
▁गरी	-7783
▁बोट	-7784
▁कमकु	-7785
▁संस्थेत	-7786
ण्याशिवाय	-7787
▁वेगवेगळे	-7788
▁परिस्थितीनुसार	-7789
दारास	-7790
▁डीसी	-7791
▁गहाणख	-7792
▁कमकुवत	-7793
▁रोजीची	-7794
्यांमध्ये	-7795
▁सुरेंद्र	-7796
िलि	-7797
▁ओव्हर	-7798
▁क्षणी	-7799
▁ट्राय	-7800
▁इतक्या	-7801
▁प्रभावा	-7802
▁पुराव्यावरून	-7803
▁खूपच	-7804
▁आणल्या	-7805
▁कल्पने	-7806
▁जागरूक	-7807
▁नियमाव	-7808
▁संतप्त	-7809
▁गोष्टींवर	-7810
▁फिर्यादीवर	-7811
▁विभ	-7812
▁वापरत	-7813
▁हुसेन	-7814
▁अधिकारक्षेत्र	-7815
▁युक्तिवादाच्या	-7816
▁गया	-7817
▁नया	-7818
▁स्र	-7819
▁क्ले	-7820
▁बदलली	-7821
▁प्रस्त	-7822
▁मंडळाला	-7823
▁खर्चाच्या	-7824
▁प्रश्नांचा	-7825
▁माहितीनुसार	-7826
▁माप	-7827
शिप्स	-7828
▁दैनंद	-7829
▁सेक्रेटरी	-7830
उंट	-7831
दूर	-7832
▁जाळ	-7833
▁कोटा	-7834
▁बांधले	-7835
▁कालावधीनंतर	-7836
▁इलेक्ट्रॉनिक	-7837
▁अपीलकर्त्याकडे	-7838
▁पुराव्यांनुसार	-7839
योगी	-7840
ानंतर	-7841
▁अस्थ	-7842
▁डीएस	-7843
▁दुष्	-7844
▁ठेवलेली	-7845
▁दैनंदिन	-7846
▁रक्ताने	-7847
▁खंडपीठाचा	-7848
घार	-7849
▁शह	-7850
ावया	-7851
▁हाड	-7852
▁एंटर	-7853
▁गैरसो	-7854
▁पवित्र	-7855
▁संतुलन	-7856
▁आस्थापन	-7857
▁शिफारसी	-7858
▁नियुक्तीची	-7859
▁राज्यघटनेतील	-7860
▁समजूत	-7861
▁ऑर्डरचा	-7862
▁चौकशीचा	-7863
▁जनतेच्या	-7864
▁तथ्यात्मक	-7865
▁ग्राहकांना	-7866
▁घटनास्थळावर	-7867
▁कागदपत्रांचा	-7868
▁ट्रिब्यूनलने	-7869
र्धात	-7870
▁आचरणा	-7871
▁दक्षिण	-7872
▁बचावाच्या	-7873
▁प्रॉपर्टी	-7874
वट	-7875
रूप	-7876
विका	-7877
▁प्लांट	-7878
▁सांख्य	-7879
▁ओळखल्या	-7880
▁एकमेकांशी	-7881
▁रहा	-7882
▁वेब	-7883
▁रांची	-7884
▁टाकण्यात	-7885
▁लॉर्डशिप्स	-7886
▁वर्षांपूर्वी	-7887
▁त्यांच्याद्वारे	-7888
▁निर्धारणाद्वारे	-7889
▁कचरा	-7890
▁एएसआय	-7891
▁बिलास	-7892
▁बेंगळ	-7893
▁हालचा	-7894
नाश	-7895
▁सेन	-7896
▁लपवून	-7897
▁राहतील	-7898
▁असमर्थता	-7899
▁करण्यासारखे	-7900
▁बाई	-7901
▁घातला	-7902
▁युनिट्स	-7903
▁विक्रीची	-7904
▁जाण्यापूर्वी	-7905
दु	-7906
▁फेक	-7907
▁वजाव	-7908
्यूनंतर	-7909
▁छेडछाड	-7910
▁अटकपूर्व	-7911
▁प्रदेशात	-7912
▁मृत्यूनंतर	-7913
▁सुंदर	-7914
▁बाबींच्या	-7915
▁खंडपीठाकडे	-7916
▁नागरिकांना	-7917
▁येण्यापूर्वी	-7918
कां	-7919
▁विघट	-7920
▁जाताना	-7921
▁निषेधा	-7922
▁मुलाचा	-7923
▁बेशुद्ध	-7924
▁प्रयत्नात	-7925
▁साहित्याचा	-7926
बिट	-7927
▁पंत	-7928
▁डीडी	-7929
▁शोषण	-7930
▁सिंघ	-7931
▁प्रेस	-7932
▁बातमी	-7933
▁एकीकडे	-7934
▁तपासली	-7935
▁बँकिंग	-7936
▁बायोमेट	-7937
▁घालण्यात	-7938
▁दुर्दैवी	-7939
▁शरीराच्या	-7940
▁बेग	-7941
▁एमएल	-7942
▁दयाळू	-7943
▁स्रोत	-7944
▁चालवणे	-7945
▁पराभूत	-7946
▁भोजपूर	-7947
▁सिमेंट	-7948
▁घटनापीठ	-7949
▁भागलपूर	-7950
▁पूर्णिया	-7951
▁भागामध्ये	-7952
▁साक्षीदाराला	-7953
ोआ	-7954
विक	-7955
▁अग्	-7956
▁ठिकाणा	-7957
▁प्रस्तुत	-7958
▁तरतुदीच्या	-7959
नाय	-7960
▁जोडली	-7961
▁टिकाऊ	-7962
▁पोर्ट	-7963
▁मोजमा	-7964
▁मंडळाची	-7965
▁यादीतील	-7966
▁पत्रव्यव	-7967
▁राहण्याचा	-7968
▁प्रतिनिधीत्व	-7969
▁प्रतिवादीद्वारे	-7970
भव	-7971
भि	-7972
▁पडत	-7973
ममध्ये	-7974
▁प्लॅन	-7975
प्लेक्स	-7976
▁मॅनेजर	-7977
▁कंट	-7978
▁नारा	-7979
▁अटींवर	-7980
▁चौकशीची	-7981
▁मध्यवर्ती	-7982
▁ऑर्डरद्वारे	-7983
योजन	-7984
▁अप्	-7985
▁ओरड	-7986
▁शर्ट	-7987
▁पंडित	-7988
▁अनुपस्थित	-7989
▁खटल्यांचा	-7990
▁सहाय्याने	-7991
▁तंत्रज्ञान	-7992
▁फिर्यादींच्या	-7993
▁त्याच्याद्वारे	-7994
▁लावल्या	-7995
इस	-7996
करा	-7997
▁गेट	-7998
▁डिट	-7999
▁तपशि	-8000
▁धरून	-8001
▁कृतीत	-8002
▁टाकून	-8003
▁वेदना	-8004
▁अनुबंध	-8005
▁्यांनी	-8006
▁मृत्युपत्र	-8007
▁दुरुस्तीसाठी	-8008
▁एमएम	-8009
▁्यां	-8010
▁करायची	-8011
▁शुक्ला	-8012
▁अहवालाची	-8013
▁यो	-8014
देवी	-8015
्रपा	-8016
▁पंधरा	-8017
▁अबाधित	-8018
▁आत्मसम	-8019
▁लर्निंग	-8020
▁गुंतलेल्या	-8021
२०	-8022
वरही	-8023
▁कथा	-8024
▁ठरवू	-8025
▁शहाण	-8026
▁उशीरा	-8027
स्थेच्या	-8028
▁दडपशाही	-8029
▁अधिकाराची	-8030
▁उत्तरदात्याने	-8031
न्टी	-8032
पेक्ष	-8033
▁मशीन	-8034
▁वाया	-8035
ट्ट्या	-8036
ळाच्या	-8037
▁पुस्तक	-8038
▁आयुक्तांच्या	-8039
▁माध	-8040
ाचार्य	-8041
▁मनाचा	-8042
▁निवृत्त	-8043
▁मिळविली	-8044
▁कालबाह्य	-8045
▁संस्थेने	-8046
▁हक्कांचा	-8047
▁जमिनीच्या	-8048
ल्लू	-8049
▁मेमन	-8050
▁सतीश	-8051
▁स्टो	-8052
▁पाळली	-8053
▁पब्लिक	-8054
▁मानदंड	-8055
▁व्याजा	-8056
▁नियोजित	-8057
▁सरकारचा	-8058
▁पूर्वगामी	-8059
▁ऐकल्यानंतर	-8060
▁सांगण्याची	-8061
रीज	-8062
▁टीव्ही	-8063
▁संज्ञेय	-8064
यत	-8065
ॉम	-8066
▁बेड	-8067
▁कोठे	-8068
▁राजपत्रात	-8069
▁निर्णयाकडे	-8070
▁रुपयांच्या	-8071
▁सभाग	-8072
▁असंख्य	-8073
▁असणारे	-8074
▁भांडवल	-8075
▁सांगण्यासाठी	-8076
▁जॉ	-8077
▁पैशाची	-8078
▁प्लेंट	-8079
▁विरोधक	-8080
ूहिक	-8081
्युट	-8082
▁तस्	-8083
▁सुपर	-8084
▁कॉलनी	-8085
▁लगेचच	-8086
▁वाहून	-8087
▁सामूहिक	-8088
▁गुन्ह्याचे	-8089
▁सुटण्याच्या	-8090
▁उमेदवाराच्या	-8091
ोआप	-8092
ग्रा	-8093
▁सिटी	-8094
▁आपोआप	-8095
▁रॉकेल	-8096
▁विभक्त	-8097
▁कलमातील	-8098
▁गुन्हेगाराच्या	-8099
▁उभी	-8100
▁सखोल	-8101
▁दृढनि	-8102
▁स्थावर	-8103
▁चौकशीचे	-8104
▁गेल्यानंतर	-8105
▁अभिव्यक्तीचा	-8106
▁स्वातंत्र्या	-8107
▁शरण	-8108
▁संवेदनशील	-8109
▁कं	-8110
क्सी	-8111
पिंग	-8112
ारखा	-8113
▁गिर	-8114
▁वरून	-8115
▁नामांक	-8116
▁बरखास्त	-8117
▁उत्पन्नाचा	-8118
▁किंमतीच्या	-8119
ोब	-8120
रेज	-8121
्रीन	-8122
▁अन्स	-8123
▁जाणा	-8124
▁झोपड	-8125
▁बॉम्ब	-8126
▁स्तंभ	-8127
▁बेंगळुरू	-8128
▁घटनास्थळावरून	-8129
▁प्रतिबंधात्मक	-8130
मेन	-8131
▁सप	-8132
शुल्क	-8133
▁एस्ट	-8134
▁प्रवी	-8135
▁महाधि	-8136
▁लावता	-8137
▁महाधिवक्ता	-8138
▁वैर	-8139
▁करणा	-8140
▁परवानग	-8141
▁राहणार	-8142
▁ठरवलेल्या	-8143
▁अपीलांच्या	-8144
▁लावण्याच्या	-8145
▁हॉस्पिटलमध्ये	-8146
फल	-8147
ठित	-8148
▁हॅ	-8149
काकडे	-8150
▁पांड	-8151
▁रस्ते	-8152
▁असावेत	-8153
▁प्रताप	-8154
▁होणार्	-8155
▁रिकव्हरी	-8156
▁विश्वासार्हता	-8157
ब्बल	-8158
▁तुळ	-8159
▁दला	-8160
▁पवन	-8161
▁भूषण	-8162
▁एसएचओ	-8163
▁उद्भवतो	-8164
▁नागरिका	-8165
▁सत्तेचा	-8166
▁संघटनेच्या	-8167
▁उध	-8168
▁कान	-8169
▁निध	-8170
▁अनैतिक	-8171
▁पूर्वज	-8172
▁विलक्षण	-8173
▁सक्तीने	-8174
▁आजपर्यंत	-8175
▁कराराद्वारे	-8176
▁अदा	-8177
▁सिम	-8178
स्तान	-8179
▁टिकू	-8180
▁नेतृ	-8181
▁दाखवि	-8182
▁शिथिल	-8183
▁गुणधर्म	-8184
▁गुणवत्तेच्या	-8185
ुलर	-8186
▁रम	-8187
र्मि	-8188
▁लेबल	-8189
▁माघार	-8190
▁सूर्य	-8191
▁विमाधार	-8192
▁साथीदार	-8193
▁तरीसुद्धा	-8194
▁आत्मसमर्पण	-8195
▁कव	-8196
▁डोळ	-8197
▁एमआर	-8198
▁कारवा	-8199
▁मनाची	-8200
▁बदनामी	-8201
▁ऑर्डरचे	-8202
▁अपघाताच्या	-8203
▁बनव	-8204
▁कमाई	-8205
▁जंगम	-8206
▁नसणे	-8207
समावेश	-8208
स्पष्ट	-8209
▁पॅकेट	-8210
▁कौशल्य	-8211
▁विक्रम	-8212
▁सुधारण	-8213
▁त्यावरून	-8214
▁मुलांच्या	-8215
▁पालकांच्या	-8216
टीची	-8217
▁आवड	-8218
▁बरो	-8219
▁भरत	-8220
वस्तू	-8221
▁दीपक	-8222
▁सासर	-8223
▁प्रवर्गातील	-8224
प्रेस	-8225
विधान	-8226
▁टप्पा	-8227
▁कल्पित	-8228
▁तपासात	-8229
▁दिवंगत	-8230
▁निर्मात	-8231
▁वाढविला	-8232
▁अपीलमधील	-8233
▁करारनामा	-8234
▁पक्षपाती	-8235
▁पर्याप्त	-8236
▁निर्णयाशी	-8237
▁दर्शविलेले	-8238
▁नागरिकांच्या	-8239
▁बच	-8240
▁हृ	-8241
▁जीओ	-8242
▁लहरी	-8243
▁सुसं	-8244
▁नोट्स	-8245
▁तस्करी	-8246
▁उत्तेजन	-8247
▁परीक्षक	-8248
▁महिन्यांत	-8249
▁धु	-8250
कारा	-8251
▁गोयल	-8252
▁धोक्यात	-8253
▁पक्षाचे	-8254
▁वस्तूंचा	-8255
▁पत्राच्या	-8256
▁सूचनेनुसार	-8257
▁न्यायालयांचे	-8258
▁अल	-8259
▁डा	-8260
▁त्याग	-8261
▁मतदान	-8262
▁व्हॅन	-8263
शिक्षित	-8264
▁अपीलचा	-8265
▁एकत्री	-8266
▁स्वयंचलित	-8267
▁लिमिटेडच्या	-8268
▁ऊ	-8269
एफआर	-8270
▁विशा	-8271
▁पार्स	-8272
▁पावला	-8273
▁रूग्ण	-8274
▁स्पेश	-8275
▁चाकूने	-8276
▁जाणारी	-8277
▁ब्रह्म	-8278
▁भरण्याच्या	-8279
▁रूग्णालयात	-8280
▁त्यांच्याशी	-8281
▁फिर्यादीनुसार	-8282
▁व्यवस्थापनाने	-8283
माला	-8284
ोर्ट	-8285
▁एमडी	-8286
▁श्रम	-8287
▁संभा	-8288
▁एनएसई	-8289
▁नवादा	-8290
समावेशक	-8291
▁महसूलच्या	-8292
गमेंट	-8293
▁ड्यु	-8294
▁लोकांचे	-8295
▁रतन	-8296
▁ठरतील	-8297
फ्फरपूर	-8298
▁अटर्नी	-8299
▁आरबीआय	-8300
▁घेणारा	-8301
▁प्रवीण	-8302
▁शेड्यूल	-8303
▁जामिनासाठी	-8304
▁सर्वसमावेशक	-8305
हेरी	-8306
▁टाटा	-8307
▁फाइल	-8308
▁मापदंड	-8309
▁सांख्यिकी	-8310
▁शंकराचार्य	-8311
▁वस्तुस्थितीची	-8312
ळेस	-8313
▁मुळी	-8314
▁असाइन	-8315
▁शत्रु	-8316
▁पडलेल्या	-8317
▁सुस्पष्ट	-8318
▁शक्तीच्या	-8319
▁प्रकरणांची	-8320
▁रेकॉर्डच्या	-8321
▁अक्षर	-8322
▁धमकाव	-8323
▁बाटली	-8324
▁कंपनीत	-8325
▁डेव्हलप	-8326
▁प्रत्या	-8327
▁आरोपींचे	-8328
▁वापरलेले	-8329
▁शिक्षकांच्या	-8330
▁झाड	-8331
▁हिंद	-8332
व्हिंग	-8333
▁रणजित	-8334
▁सिंगल	-8335
▁रिकामे	-8336
▁मालकाने	-8337
▁संविधान	-8338
▁प्रकारात	-8339
▁गरीब	-8340
▁दिशाभ	-8341
▁नकाशा	-8342
▁नव्हत्या	-8343
▁वापरलेल्या	-8344
▁डब्ल्यूपीएनओ	-8345
धे	-8346
▁आरसी	-8347
▁एलजे	-8348
▁फोटो	-8349
▁दिशाभूल	-8350
▁नमुन्या	-8351
▁पदांच्या	-8352
▁सांगितल्यानुसार	-8353
सूर	-8354
▁राब	-8355
▁असें	-8356
▁समित	-8357
▁अतिरे	-8358
▁आणण्यात	-8359
▁पर्याया	-8360
नर	-8361
पत	-8362
▁कशा	-8363
▁पीएच	-8364
▁मानव	-8365
▁ठेवते	-8366
▁राहतो	-8367
▁वाचून	-8368
▁सेंट्र	-8369
▁वर्गीकरणा	-8370
▁आश्र	-8371
▁मुस्	-8372
मंत्री	-8373
▁प्रका	-8374
▁कैद्या	-8375
▁खोट्या	-8376
▁शब्दात	-8377
▁अधिसूचनेच्या	-8378
▁प्रच	-8379
▁गहाणखत	-8380
▁प्राप्ती	-8381
▁नोकरीच्या	-8382
▁न्यायाधीशांकडे	-8383
आयए	-8384
▁गोष्टीचा	-8385
▁भरण्याची	-8386
▁मुदतीसाठी	-8387
▁कपा	-8388
▁गुर	-8389
▁रेस	-8390
▁मधून	-8391
▁उद्भवले	-8392
▁मंदिरात	-8393
▁काळासाठी	-8394
▁उद्दीष्टे	-8395
▁तिच्याकडे	-8396
▁पुनरुत्पादन	-8397
वर्क	-8398
▁हँड	-8399
मूल्य	-8400
▁अहवालातील	-8401
▁उत्पन्नाचे	-8402
रीय	-8403
बंदी	-8404
▁महेश	-8405
▁लागली	-8406
▁नावाचा	-8407
▁वापरणे	-8408
▁फेटाळला	-8409
▁संवर्गातील	-8410
▁आव्हानात्मक	-8411
▁हृद	-8412
▁राणी	-8413
▁मुळीच	-8414
▁स्केल	-8415
▁स्ट्र	-8416
▁राज्यघटना	-8417
▁बलात्काराच्या	-8418
▁कंपा	-8419
▁चक्र	-8420
▁शाले	-8421
णासाठी	-8422
▁अपुरी	-8423
▁असेंब्	-8424
िंदरसिंग	-8425
▁कारवाया	-8426
▁डिफॉल्ट	-8427
▁मसुद्या	-8428
▁जितेंद्र	-8429
▁झाल्याचा	-8430
▁ठिकाणाहून	-8431
ांव्यतिरिक्त	-8432
▁आरोपीविरूद्ध	-8433
र्दी	-8434
काकडून	-8435
▁स्क्र	-8436
▁वादाचे	-8437
्यांमधील	-8438
▁सेवेतील	-8439
▁प्रतिनिय	-8440
▁व्यापारी	-8441
▁चौकशीसाठी	-8442
▁व्यवसायाचे	-8443
▁वस्तुस्थितीचे	-8444
▁संभोग	-8445
▁असतांना	-8446
▁भूसंपादन	-8447
▁पोलिसांसमोर	-8448
▁व्यवहाराच्या	-8449
करुन	-8450
मिकस	-8451
▁उमेश	-8452
▁सारण	-8453
▁सहायक	-8454
▁संतुष्ट	-8455
▁भेटवस्तू	-8456
▁आदेशावरून	-8457
▁उत्तरार्ध	-8458
▁विश्रांती	-8459
▁खरेदीदारास	-8460
▁कॉन्ट्रॅक्ट	-8461
पूस	-8462
टीशन	-8463
▁एफए	-8464
▁एमबी	-8465
▁केडर	-8466
▁टाकली	-8467
▁शालेय	-8468
▁संजीव	-8469
▁संभाषण	-8470
▁सध्याचा	-8471
▁दिवाळखोरी	-8472
▁अनुसूचीमध्ये	-8473
▁मरणासंदर्भातील	-8474
ासरी	-8475
▁आरडी	-8476
▁पाठी	-8477
▁सेवक	-8478
नाबद्दल	-8479
श्वसनीय	-8480
▁प्रदीप	-8481
▁अंतर्नि	-8482
▁लक्ष्मण	-8483
▁वस्तूंची	-8484
▁सेवांच्या	-8485
▁अविश्वसनीय	-8486
टका	-8487
श्य	-8488
्रेस	-8489
▁आयडी	-8490
▁काका	-8491
▁जटिल	-8492
▁ठेवेल	-8493
▁दाखविली	-8494
▁गुन्ह्यातील	-8495
र्जित	-8496
▁गंगा	-8497
▁मंडल	-8498
▁प्रचंड	-8499
▁समन्वय	-8500
▁आठवड्या	-8501
▁ज्यांचा	-8502
▁कर्तव्याची	-8503
▁एखाद्याच्या	-8504
▁उला	-8505
▁गठित	-8506
न्व्हे	-8507
▁अरोरा	-8508
▁मोजमाप	-8509
▁सातत्य	-8510
▁उपक्रमां	-8511
▁ट्रॅक्टर	-8512
▁अर्जदारास	-8513
▁निकालामध्ये	-8514
▁सीडब्ल्यूजेसी	-8515
ोरिया	-8516
▁सायक	-8517
ल्पनिक	-8518
▁कुरिया	-8519
▁अवांछित	-8520
▁रोजगारा	-8521
▁सेंट्रल	-8522
▁मागणीसाठी	-8523
▁संयुक्तपणे	-8524
▁कंत्राटदाराने	-8525
▁नाकारण्यासाठी	-8526
पार्	-8527
र्धन	-8528
▁मानवा	-8529
▁अटकेची	-8530
▁लागतात	-8531
▁विनवणी	-8532
▁फेटाळली	-8533
▁काल्पनिक	-8534
▁क्रौर्या	-8535
▁इन्स्पेक्टर	-8536
▁एफटी	-8537
▁सरस्	-8538
▁करायचे	-8539
▁त्यावे	-8540
्यांसाठी	-8541
▁इमारतीत	-8542
▁वाढविणे	-8543
▁तरतुदीचे	-8544
▁अधिका्याने	-8545
▁स्वरूपाच्या	-8546
▁रजे	-8547
▁रवि	-8548
▁माणसा	-8549
▁घटस्फोट	-8550
▁चर्चेचा	-8551
▁कमिशनच्या	-8552
▁अंतर्निहित	-8553
लिम	-8554
नियर	-8555
▁वंश	-8556
▁उघडले	-8557
▁सांगते	-8558
▁पूर्वीचा	-8559
▁ग्रॅच्युइ	-8560
बाग	-8561
ाराचा	-8562
▁जेवण	-8563
▁विमानत	-8564
▁योजनेची	-8565
▁खरंच	-8566
▁जखमे	-8567
ांनंतर	-8568
▁शांती	-8569
▁वर्गात	-8570
▁कारागृह	-8571
▁पक्षाचा	-8572
▁प्रवर्तक	-8573
▁सदस्याने	-8574
▁कॉम्प्लेक्स	-8575
▁तुकडा	-8576
▁प्रकट	-8577
▁गेलेला	-8578
▁परीक्ष	-8579
▁मोटरसायकल	-8580
▁झाल्याच्या	-8581
▁मंत्रालयाने	-8582
▁बास	-8583
ूच्या	-8584
▁कॅप्	-8585
▁नरेश	-8586
▁लोअर	-8587
▁साडे	-8588
▁दिसला	-8589
▁भ्रष्ट	-8590
▁कल्याणकारी	-8591
एसआय	-8592
▁ध्व	-8593
वायला	-8594
▁एफसी	-8595
पीच्या	-8596
विताना	-8597
▁डायरे	-8598
▁त्यातून	-8599
▁शपथपत्र	-8600
▁अपीलांनी	-8601
▁बिल्डिंग	-8602
▁निकालानुसार	-8603
▁पोलिसांकडून	-8604
▁व्यक्तीविरूद्ध	-8605
हाणी	-8606
▁आरओ	-8607
▁गौण	-8608
▁प्रिंट	-8609
▁आरोपीवर	-8610
▁अविश्वास	-8611
▁अर्जदारांना	-8612
▁खरेदीदाराने	-8613
पित	-8614
हाय	-8615
▁उल	-8616
भंगा	-8617
▁उमा	-8618
▁कस्टम	-8619
▁घेतील	-8620
▁अपील्स	-8621
▁मिळाले	-8622
▁त्याच्याशी	-8623
जीवन	-8624
▁खां	-8625
▁हनु	-8626
▁कनेक्ट	-8627
▁स्वतःचा	-8628
▁नियमावली	-8629
▁प्रोबेशन	-8630
▁पर्यावरणीय	-8631
▁विनंतीनुसार	-8632
▁वापरण्यासाठी	-8633
ुसे	-8634
▁आवाह	-8635
▁भाषण	-8636
▁पहाटे	-8637
▁वाहने	-8638
▁इंडियन	-8639
▁लोखंडी	-8640
▁शाळेच्या	-8641
▁आपल्याकडे	-8642
▁अंमलबजावणीत	-8643
▁उदाहरणावरून	-8644
ष्णू	-8645
वल्या	-8646
▁ऑनला	-8647
▁टर्मि	-8648
▁पाटील	-8649
▁ॅमिकस	-8650
▁अपीलची	-8651
▁आधुनिक	-8652
▁संशयित	-8653
▁हाताने	-8654
▁बाजारपेठ	-8655
▁मिळवण्यासाठी	-8656
▁एनजे	-8657
हाच्या	-8658
▁व्यास	-8659
▁धारदार	-8660
▁याबाबत	-8661
▁पत्त्या	-8662
▁आंतरराज्य	-8663
माल	-8664
श्रम	-8665
▁बाद	-8666
▁सरळ	-8667
व्हास	-8668
▁अग्नि	-8669
▁सरासरी	-8670
▁पूर्ववत	-8671
▁घटस्फोटा	-8672
▁नियमांची	-8673
▁शुल्काची	-8674
▁ग्राहकांच्या	-8675
▁निवेदनाद्वारे	-8676
ेशन्स	-8677
▁चाला	-8678
▁ब्रे	-8679
रीत्या	-8680
▁स्पर्श	-8681
▁अक्षरशः	-8682
▁जबाबदार्	-8683
▁आकारण्यात	-8684
▁उत्तराधिकारी	-8685
▁कायद्यांच्या	-8686
▁प्रमाणपत्रात	-8687
▁ओडि	-8688
▁वर्षी	-8689
वैधानिक	-8690
▁मोबदला	-8691
▁मृतांचे	-8692
▁तंदुरुस्त	-8693
▁लावण्याची	-8694
▁कर्तव्याचे	-8695
▁बायोमेट्रिक	-8696
▁व्यक्तीकडून	-8697
▁कार्यालयाच्या	-8698
▁अपमा	-8699
▁बीबी	-8700
▁अपेक्स	-8701
▁अर्धवट	-8702
▁लक्ष्य	-8703
▁बोर्डाने	-8704
▁कळविण्यात	-8705
▁प्रश्नाचा	-8706
▁सल्ल्याचा	-8707
▁कार्यवाहीचा	-8708
▁वर्षापेक्षा	-8709
ईने	-8710
धानी	-8711
▁वळण	-8712
▁सासरच्या	-8713
▁उद्भवणार्	-8714
▁टाकण्यासाठी	-8715
▁परिस्थितींमध्ये	-8716
▁खेळ	-8717
ंबद्ध	-8718
तर्फी	-8719
▁प्रस	-8720
▁तपासून	-8721
▁पीआयएल	-8722
▁असंबद्ध	-8723
▁एकतर्फी	-8724
▁विचारवि	-8725
▁सरस्वती	-8726
▁मालकांना	-8727
▁राहण्यासाठी	-8728
फॉर्म	-8729
▁शरीरा	-8730
ापूर्वी	-8731
▁मिळावा	-8732
▁सभापती	-8733
▁उद्भवते	-8734
▁कॅनव्हास	-8735
▁ग्रामस्थ	-8736
▁प्रोत्साहित	-8737
नेला	-8738
▁ठळक	-8739
▁सोम	-8740
▁उपास	-8741
▁खंडित	-8742
▁चालवत	-8743
▁गुवाहा	-8744
▁प्रवाह	-8745
▁करपात्र	-8746
▁बदल्यात	-8747
▁विवेकबुद्धीचा	-8748
हीन	-8749
▁उत	-8750
नेशन	-8751
▁डोके	-8752
पणामुळे	-8753
▁पाठविणे	-8754
▁दुर्बलता	-8755
▁सीआरपीसीच्या	-8756
ॅक्ट	-8757
▁दुब	-8758
▁मुज	-8759
▁कारवाईची	-8760
▁साक्षीवर	-8761
▁तुलनात्मक	-8762
▁असंवैधानिक	-8763
▁मिळाल्यावर	-8764
रने	-8765
ीकृत	-8766
▁उदय	-8767
▁गिरी	-8768
▁बीएस	-8769
▁शाखेत	-8770
▁मंदिरा	-8771
▁त्याहून	-8772
▁परताव्या	-8773
▁प्राचार्य	-8774
▁मंजुरीसाठी	-8775
▁विरोधाभासी	-8776
ंगी	-8777
शंकर	-8778
▁पाई	-8779
▁करावया	-8780
▁पटविली	-8781
▁साक्षीची	-8782
▁मधे	-8783
▁लाइन	-8784
▁सेमी	-8785
पासूनच	-8786
▁क्लाय	-8787
▁कन्स्ट	-8788
▁करायचा	-8789
▁दरभंगा	-8790
▁असाइनमेंट	-8791
▁झोपडपट्टी	-8792
▁लवादासाठी	-8793
▁संरक्षणासाठी	-8794
▁नार	-8795
▁आर्ट	-8796
▁ग्रॅम	-8797
▁मजकूर	-8798
▁लिपिक	-8799
▁वेळाने	-8800
▁श्रेणीतील	-8801
▁व्याख्याता	-8802
▁आमच्याद्वारे	-8803
गण्य	-8804
डीआर	-8805
मपूर	-8806
▁आशि	-8807
▁एन्ट	-8808
▁स्काय	-8809
▁नंतरचे	-8810
▁निलंबन	-8811
▁चित्रपट	-8812
▁ठेवलेला	-8813
▁आरोपांच्या	-8814
▁पुराव्यांसह	-8815
▁पुराव्यामध्ये	-8816
बीएस	-8817
▁लोड	-8818
▁विझ	-8819
▁टीआय	-8820
▁षड्य	-8821
▁संकल	-8822
▁सीपी	-8823
▁एमएफए	-8824
▁पार्सल	-8825
▁लिमिटेडने	-8826
▁असल्याशिवाय	-8827
▁घेण्याकरिता	-8828
२१	-8829
▁ठाणे	-8830
▁नर्स	-8831
▁लायस	-8832
▁विली	-8833
ंबरोबर	-8834
▁शिकवण	-8835
▁अपीलंट	-8836
▁मिळवणे	-8837
▁नोंदवणे	-8838
▁व्यक्तींचे	-8839
▁तपासण्यासाठी	-8840
डक	-8841
वेष	-8842
▁अर्	-8843
▁घाई	-8844
▁डेटेन	-8845
▁यांवर	-8846
वण्याची	-8847
▁फसव्या	-8848
▁अपेक्षे	-8849
▁रॉयल्टी	-8850
▁अभियोगाने	-8851
▁त्यानंतरच	-8852
▁प्रतीक्षा	-8853
▁उपचारासाठी	-8854
▁वज	-8855
▁खर्	-8856
▁एलआर	-8857
▁जोशी	-8858
▁सीटी	-8859
▁दिसले	-8860
▁हिंदु	-8861
▁उपनिबंध	-8862
▁मंत्रिम	-8863
▁उपलब्धता	-8864
▁कन्स्ट्र	-8865
▁पुत	-8866
ब्दिक	-8867
▁जमुई	-8868
▁बीडीए	-8869
▁वायर्स	-8870
▁स्वभाव	-8871
▁अर्ध्या	-8872
▁क्लायंट	-8873
▁विनाअनु	-8874
▁शाब्दिक	-8875
▁दाव्याची	-8876
▁पूर्वीची	-8877
▁षड्यंत्र	-8878
▁ठरविण्याच्या	-8879
▁आरोपींविरोधात	-8880
गल	-8881
▁अपा	-8882
्यूशन	-8883
▁येऊन	-8884
▁मुळात	-8885
▁पदवीधर	-8886
▁उत्पादने	-8887
▁पुनर्रचना	-8888
▁नोंदणीसाठी	-8889
▁झाल्याबद्दल	-8890
▁न्यायाधिकरणाची	-8891
▁शहरी	-8892
▁दाखवले	-8893
▁यावरून	-8894
▁लायसन्स	-8895
▁सुप्रसिद्ध	-8896
▁डिल	-8897
▁कॉन्	-8898
▁वाढीव	-8899
▁करायला	-8900
▁मारुती	-8901
▁टप्प्या	-8902
▁संरक्षक	-8903
▁बोर्डाच्या	-8904
▁दर्शविण्यास	-8905
▁प्रतिनियुक्ती	-8906
▁महाविद्यालयात	-8907
▁पाहिल्याप्रमाणे	-8908
णाचे	-8909
▁घुस	-8910
▁जस्ट	-8911
▁तारा	-8912
▁हायस्	-8913
▁अटींचा	-8914
▁सायन्स	-8915
▁लोकांचा	-8916
▁प्रस्तावावर	-8917
ट्स	-8918
ोडा	-8919
स्टी	-8920
▁कडक	-8921
वल्ली	-8922
▁टीएस	-8923
▁टोला	-8924
▁अकाउंट	-8925
▁कामासाठी	-8926
▁कागदपत्रात	-8927
▁सुधारण्यासाठी	-8928
सक	-8929
ॅनेल	-8930
▁अलि	-8931
▁लॅब	-8932
▁आठवण	-8933
▁पूजा	-8934
▁अवलोक	-8935
▁अपीलांना	-8936
▁नेमलेल्या	-8937
▁गुन्ह्याबद्दल	-8938
संघ	-8939
▁सीआरए	-8940
▁अपंगत्	-8941
▁सुरूवा	-8942
▁नोंदवही	-8943
▁गुंतलेला	-8944
▁तरतुदींची	-8945
▁तक्रारदारा	-8946
▁प्रमाणीकरण	-8947
▁मांडलेल्या	-8948
▁वरीलप्रमाणे	-8949
▁अधिसूचनेनुसार	-8950
▁भांडणे	-8951
▁कंपाऊंड	-8952
▁न्यायाधी	-8953
▁राज्यपाल	-8954
▁कारणासाठी	-8955
▁तत्त्वाचा	-8956
▁निवेदनावर	-8957
▁अपार्टमेंट	-8958
▁शिक्षेसाठी	-8959
▁तात्पुरत्या	-8960
▁सुनावणीनंतर	-8961
जूर	-8962
वरण	-8963
▁उर	-8964
▁गाठ	-8965
▁तरुण	-8966
▁बाला	-8967
▁मागण्या	-8968
▁समर्थित	-8969
▁प्रसारित	-8970
▁खर्चासाठी	-8971
घर	-8972
ण्याने	-8973
▁अस्वी	-8974
▁ठरवते	-8975
▁दाव्याला	-8976
▁महत्त्वाची	-8977
▁सर्व्हिसेस	-8978
▁निवडणुकीच्या	-8979
▁नाश	-8980
▁आकलन	-8981
▁आधीची	-8982
▁उत्खन	-8983
▁क्षमा	-8984
▁आपापल्या	-8985
▁नियमांना	-8986
▁निकालांचा	-8987
▁मिळण्याची	-8988
चिक	-8989
▁आलम	-8990
▁ऑटो	-8991
▁ड्र	-8992
▁ड्रॉ	-8993
▁पडतो	-8994
▁मुलीने	-8995
▁काढण्यास	-8996
▁लावण्याचा	-8997
▁आवश्यकतांचे	-8998
▁खी	-8999
ताने	-9000
न्नी	-9001
ोपेल	-9002
▁असमा	-9003
▁आईला	-9004
▁टेक्	-9005
▁मेंद	-9006
▁लेटर	-9007
▁उर्जा	-9008
▁गेलेली	-9009
▁मालवाह	-9010
▁रिकामी	-9011
▁विलीनी	-9012
▁वेळेवर	-9013
▁खर्चाची	-9014
▁बोलताना	-9015
▁वीरेंद्र	-9016
▁कारणामुळे	-9017
▁प्राधिकरणाचे	-9018
▁कॉम	-9019
दानित	-9020
िकेला	-9021
▁मूर्	-9022
िलिखित	-9023
▁एमव्ही	-9024
▁हक्काचा	-9025
▁आकारण्यास	-9026
▁एसई	-9027
▁शिवी	-9028
▁अनन्य	-9029
▁पट्टा	-9030
▁मार्फत	-9031
▁मुख्यत	-9032
▁बचावाचा	-9033
▁अधिलिखित	-9034
▁युनिव्हर्स	-9035
▁जोडण्यासाठी	-9036
▁फिर्यादींना	-9037
▁पुराव्याच्या	-9038
▁मिळाल्याच्या	-9039
ईक	-9040
गाळ	-9041
▁हुब	-9042
▁चर्च	-9043
▁अरुंद	-9044
▁इतिहा	-9045
▁मताशी	-9046
▁सेंटर	-9047
▁परिधान	-9048
▁पुस्तके	-9049
▁येईपर्यंत	-9050
▁विस्तारित	-9051
▁सीमाशुल्क	-9052
▁आयुक्तांना	-9053
▁भाड्याच्या	-9054
▁तरतूदीनुसार	-9055
परिष	-9056
▁ईआर	-9057
▁अनुभवी	-9058
▁आरोपीस	-9059
▁पडलेला	-9060
▁बिलासपूर	-9061
▁नातेसंबंध	-9062
▁संचालकांनी	-9063
▁न्यायालयाला	-9064
▁प्रमाणपत्रे	-9065
▁अंब	-9066
▁ताण	-9067
▁सभा	-9068
▁आपत्	-9069
▁चौकी	-9070
▁द्वेष	-9071
▁व्यक्तिम	-9072
▁हायस्कूल	-9073
▁समानतेच्या	-9074
्मा	-9075
▁दू	-9076
लेशन	-9077
▁साप	-9078
▁घोषण	-9079
▁टिकून	-9080
▁आयएसटी	-9081
▁अनुदानित	-9082
▁गुवाहाटी	-9083
नासंदर्भात	-9084
▁मजल्यावरील	-9085
▁विचारलेल्या	-9086
च्छा	-9087
▁आरंभ	-9088
▁टायगर	-9089
▁दुर्ल	-9090
▁अश्लील	-9091
▁विकल्या	-9092
▁शुद्धता	-9093
▁तारखेनंतर	-9094
पुट	-9095
य्यद	-9096
▁सास	-9097
▁दर्ज	-9098
▁निगम	-9099
▁पुरवठ	-9100
▁फायना	-9101
▁लोकहित	-9102
▁प्रतिमा	-9103
दारांच्या	-9104
▁मालकांनी	-9105
▁लग्नानंतर	-9106
▁अप्रासंगिक	-9107
▁विनाअनुदानित	-9108
नेस	-9109
▁तोच	-9110
▁अखिल	-9111
▁आरटी	-9112
▁घातक	-9113
▁सेबी	-9114
▁पटवून	-9115
▁सीताम	-9116
▁यानंतर	-9117
▁तिसर्या	-9118
▁देखभाली	-9119
▁कामकाजात	-9120
▁व्यक्तीकडे	-9121
▁प्रतिस्पर्ध	-9122
ियल	-9123
नेने	-9124
▁क्षु	-9125
▁पुणे	-9126
▁माझी	-9127
▁राधा	-9128
▁सोनी	-9129
प्रधान	-9130
▁गावचा	-9131
▁भाष्य	-9132
▁वयाचे	-9133
▁वाचली	-9134
▁पायावर	-9135
▁वाक्यां	-9136
▁वाढविली	-9137
▁हप्त्या	-9138
▁घेतल्याचा	-9139
▁स्वरूपाची	-9140
▁डीए	-9141
मेन्ट	-9142
▁क्यू	-9143
▁इशारा	-9144
▁आठवड्यात	-9145
▁गोपनीयता	-9146
▁फ्रेगमेंट	-9147
▁शब्दाच्या	-9148
▁स्टेटमेंट	-9149
▁संस्थांमध्ये	-9150
टिया	-9151
▁नोटरी	-9152
▁ब्रँड	-9153
▁परिचित	-9154
▁मुलाने	-9155
▁वागणुकी	-9156
▁शिवीगाळ	-9157
▁उत्कृष्ट	-9158
▁मागासवर्ग	-9159
▁आख	-9160
▁एलसी	-9161
▁केआर	-9162
▁पाहू	-9163
▁आज्ञा	-9164
▁कारभार	-9165
▁आणण्याच्या	-9166
▁पूर्वसूचना	-9167
▁आरक्षणाच्या	-9168
▁घेतल्याबद्दल	-9169
▁महामंडळाच्या	-9170
लने	-9171
िन्ह	-9172
▁बेगू	-9173
▁संयम	-9174
▁वयाची	-9175
▁येणारी	-9176
▁विमाधारक	-9177
▁अध्यक्षते	-9178
▁चाचणीच्या	-9179
▁परवानग्या	-9180
▁कामगिरीसाठी	-9181
▁प्रशासनाच्या	-9182
▁महानगरपालिके	-9183
▁व्यक्तीद्वारे	-9184
कॅ	-9185
धीर	-9186
सात	-9187
▁ओढ	-9188
साइट	-9189
▁एसए	-9190
▁पिं	-9191
▁सद्	-9192
▁कुणा	-9193
▁दुवा	-9194
▁व्हॉ	-9195
▁वेस्ट	-9196
▁आणण्यास	-9197
▁बेगूसराय	-9198
▁हक्कांवर	-9199
▁रक्ताच्या	-9200
▁स्पष्टीकरणात	-9201
ओने	-9202
▁उधळ	-9203
▁हरीश	-9204
▁श्रेय	-9205
▁संपली	-9206
▁जीवनात	-9207
▁मार्गे	-9208
▁जखमींना	-9209
▁साहित्या	-9210
▁प्रोजेक्ट	-9211
▁आरोपानुसार	-9212
▁नोटीसमध्ये	-9213
▁पूर्वस्थिती	-9214
▁वापरकर्त्या	-9215
▁अल्पसंख्यांक	-9216
▁करण्यासंदर्भात	-9217
▁ब्	-9218
वेअर	-9219
▁बनू	-9220
▁होम	-9221
▁छोटा	-9222
▁ठेवा	-9223
नेश्वर	-9224
▁आईच्या	-9225
▁तपशिला	-9226
▁उपविभागीय	-9227
▁कामगिरीचा	-9228
▁अधिकारांवर	-9229
▁गुन्ह्याची	-9230
▁पुराव्यानुसार	-9231
लाग	-9232
▁जप	-9233
▁बंड	-9234
▁केमिक	-9235
▁मित्त	-9236
▁वक्तव	-9237
▁सर्कल	-9238
▁काळ्या	-9239
▁चालवित	-9240
▁ठरल्या	-9241
▁भागाचा	-9242
▁आयटीएटी	-9243
▁आल्यावर	-9244
▁प्रवासी	-9245
▁दरम्यानच्या	-9246
णास	-9247
लिया	-9248
▁भूत	-9249
▁सीजे	-9250
▁चॅनेल	-9251
▁डिस्ट	-9252
▁पट्टे	-9253
▁एन्ट्री	-9254
▁मालकीचे	-9255
▁विश्लेष	-9256
▁जातीच्या	-9257
▁बजावण्यात	-9258
▁भाडेकरूंनी	-9259
▁हायकोर्टाचा	-9260
भागी	-9261
▁कां	-9262
र्याद	-9263
लमधील	-9264
स्मिक	-9265
▁काठी	-9266
▁फेरी	-9267
▁बोलत	-9268
▁ट्रॅक	-9269
▁डेबिट	-9270
▁वाक्य	-9271
▁शास्त	-9272
▁सुचवले	-9273
▁सुसज्ज	-9274
▁बाबींची	-9275
▁आपत्कालीन	-9276
▁सुरक्षितपणे	-9277
▁गावी	-9278
▁जीएम	-9279
▁ठरतो	-9280
▁रोजीचे	-9281
▁सोयीसाठी	-9282
▁शिस्तभंगाच्या	-9283
जीएम	-9284
▁भास	-9285
▁लढा	-9286
▁महाव	-9287
्यांसह	-9288
▁जावेत	-9289
▁प्रमोद	-9290
▁बरोबरी	-9291
▁आकस्मिक	-9292
▁पाण्याचे	-9293
▁मॅट्रिक्स	-9294
▁तारखेपूर्वी	-9295
▁रजिस्टरमध्ये	-9296
▁राज्यघटनेनुसार	-9297
▁एआर	-9298
▁तिक	-9299
▁रोग	-9300
पुरते	-9301
भाविक	-9302
▁आजारी	-9303
▁प्रकाशन	-9304
▁प्रदूषण	-9305
▁पालकांनी	-9306
▁ट्रान्सफर	-9307
▁पुनर्मूल्यांकन	-9308
फाई	-9309
हाळ	-9310
▁मेन	-9311
▁सहसा	-9312
▁हुबळी	-9313
▁कामावर	-9314
▁घरातील	-9315
▁मित्तल	-9316
▁विष्णू	-9317
▁व्यर्थ	-9318
▁डीडच्या	-9319
▁व्यवहारात	-9320
▁उमेदवाराला	-9321
▁प्राधिकरणासमोर	-9322
▁डॉल	-9323
र्व्ह	-9324
▁आर्ब	-9325
ांतरित	-9326
ेत्रीय	-9327
▁स्तरा	-9328
▁चालविली	-9329
▁करण्यावर	-9330
▁क्षेत्रीय	-9331
▁समितीसमोर	-9332
▁तत्त्वानुसार	-9333
▁व्यक्तींकडून	-9334
▁चालविण्यासाठी	-9335
▁जेल	-9336
▁वाव	-9337
▁होन	-9338
▁दुबई	-9339
▁बनला	-9340
▁वैमन	-9341
▁इस्ला	-9342
▁मजुरी	-9343
▁पीएमएल	-9344
▁अभिलेखा	-9345
▁सत्यापित	-9346
▁प्रतिसादक	-9347
एनएल	-9348
▁एएम	-9349
▁एम्	-9350
▁ग्ल	-9351
परिणा	-9352
▁मूलत	-9353
▁तिसरे	-9354
▁विघटन	-9355
▁सय्यद	-9356
▁झु	-9357
▁अनो	-9358
▁मशि	-9359
▁सायकल	-9360
▁कुलसचिव	-9361
▁खासकरुन	-9362
▁लवादाचे	-9363
▁पद्धतीचा	-9364
▁सांगण्यास	-9365
▁स्वीकारल्या	-9366
▁देण्यासंबंधी	-9367
फळ	-9368
हेब	-9369
▁समझ	-9370
▁एकमत	-9371
▁वर्क	-9372
▁स्क्	-9373
▁ओडिशा	-9374
▁नाराज	-9375
▁भत्ते	-9376
▁सुचवि	-9377
▁विचलित	-9378
▁क्षुल्लक	-9379
▁शिक्षेचे	-9380
▁त्यावेळेस	-9381
▁कायदेशीरपणा	-9382
▁तक्रारदाराची	-9383
▁चो	-9384
▁जस	-9385
▁विवाहा	-9386
▁व्यत्य	-9387
▁अधिसूचन	-9388
▁खात्यावर	-9389
▁मर्यादेत	-9390
▁ठरविण्यास	-9391
▁विस्तृतपणे	-9392
▁प्रश्नावरील	-9393
दक	-9394
▁गे	-9395
▁नरेंद्र	-9396
▁मुख्यतः	-9397
▁शब्दाची	-9398
▁दुष्परिणा	-9399
▁उत्पन्नाची	-9400
▁फेटाळण्यास	-9401
▁सुव्यवस्था	-9402
▁प्राधिकरणाची	-9403
स्व	-9404
▁ट्रे	-9405
▁बनते	-9406
▁कहाणी	-9407
▁आरोपांचे	-9408
▁तथ्यांकडे	-9409
▁प्रकटीकरण	-9410
▁राखण्यासाठी	-9411
कळ	-9412
शर्त	-9413
▁डीलर	-9414
▁रिटर्न	-9415
▁आदेशांच्या	-9416
▁पहिल्यांदाच	-9417
खोरी	-9418
▁गौतम	-9419
▁भेटी	-9420
▁हुकु	-9421
णीच्या	-9422
▁पदाची	-9423
▁अबकारी	-9424
▁जस्टिस	-9425
▁मुलाचे	-9426
▁निकृष्ट	-9427
▁पक्षाची	-9428
▁तरतुदींना	-9429
▁प्राधिकरणाला	-9430
▁बचत	-9431
सच्या	-9432
▁गहाळ	-9433
तेबाबत	-9434
▁अनुमत	-9435
▁बँकेत	-9436
ांशिवाय	-9437
▁काडतुसे	-9438
▁संबंधीत	-9439
▁विकासाच्या	-9440
▁मिळविण्याच्या	-9441
यां	-9442
िस्ट	-9443
▁वेल	-9444
नाबाद	-9445
▁सीआय	-9446
▁म्हणाला	-9447
▁उत्पादित	-9448
▁राज्याचा	-9449
▁रुग्णालय	-9450
▁कामांसाठी	-9451
▁पाहण्याची	-9452
▁न्यायाधिकरणाचे	-9453
▁चक	-9454
▁जड	-9455
तावणी	-9456
▁आरआय	-9457
▁गव्ह	-9458
▁पहावे	-9459
▁अर्थव्यव	-9460
▁संप्रेषणा	-9461
▁प्रदेशातील	-9462
▁होण्यापासून	-9463
फॅ	-9464
डीचा	-9465
▁दात	-9466
▁अंगठ	-9467
▁तिरु	-9468
▁मोदी	-9469
▁यावा	-9470
▁रोखणे	-9471
▁अरविंद	-9472
▁आम्रपा	-9473
▁एनसीटी	-9474
▁तडजोडी	-9475
▁पक्षात	-9476
▁्यांना	-9477
▁बिनशर्त	-9478
▁हालचाली	-9479
▁निष्क्रिय	-9480
▁आरोपींवरील	-9481
▁महत्त्वाच्या	-9482
▁सेटलमेंटच्या	-9483
▁मर	-9484
▁मेजर	-9485
▁लिपी	-9486
▁शेजार	-9487
▁नाकारू	-9488
▁जळलेल्या	-9489
▁तरतुदींवर	-9490
▁निर्णयावरून	-9491
▁रोजगाराच्या	-9492
▁निष्कर्षांवर	-9493
एट	-9494
ील्ड	-9495
▁क्ल	-9496
▁रत्	-9497
▁रोल	-9498
विकास	-9499
▁प्रवाश	-9500
▁नियमानुसार	-9501
▁जज	-9502
▁मिळवू	-9503
▁भरल्या	-9504
▁प्रोबेट	-9505
▁एकमेकांना	-9506
▁प्रश्नचिन्ह	-9507
२२	-9508
ळाशी	-9509
▁बळक	-9510
▁कीटक	-9511
▁असणार	-9512
▁घेणार	-9513
▁पाठवा	-9514
▁वाढवू	-9515
▁गावच्या	-9516
▁वेबसाइट	-9517
▁मृतदेहाची	-9518
ोपा	-9519
▁चरस	-9520
▁मिळत	-9521
▁जन्मत	-9522
▁देसाई	-9523
▁करमणूक	-9524
▁दुहेरी	-9525
▁पाठलाग	-9526
▁निःपक्ष	-9527
▁पैशांची	-9528
▁साफ	-9529
ाकडून	-9530
▁अस्व	-9531
▁ओळखत	-9532
▁मजला	-9533
▁सिने	-9534
बरोबरच	-9535
▁राहतात	-9536
▁शक्यतो	-9537
▁ट्रेडिंग	-9538
▁परवानाधार	-9539
▁सल्लागारा	-9540
▁फिर्यादीकडून	-9541
▁मालमत्तांच्या	-9542
वरच	-9543
मीटर	-9544
लेखन	-9545
▁ताक	-9546
वायचे	-9547
▁प्रगत	-9548
▁संग्रह	-9549
▁चौकशीनंतर	-9550
▁तक्रारीचा	-9551
▁राहिल्यास	-9552
ईस	-9553
कीत	-9554
णुक	-9555
पयोग	-9556
▁पंक	-9557
▁इंजि	-9558
▁मनीष	-9559
▁मुता	-9560
▁अकाली	-9561
▁बदलला	-9562
▁वृद्ध	-9563
▁इंडिका	-9564
▁जबरदस्त	-9565
▁वर्षांत	-9566
▁अधिकारास	-9567
▁अभिप्राय	-9568
▁मॅन्युअल	-9569
▁तथ्यांवरून	-9570
ग्ध	-9571
▁पोह	-9572
▁बोग	-9573
▁एचपी	-9574
▁संसदेत	-9575
▁भांडवली	-9576
▁निकालाने	-9577
▁निकालांवर	-9578
▁कालावधीच्या	-9579
▁याचिकांच्या	-9580
चय	-9581
▁लॉज	-9582
▁शार	-9583
टातील	-9584
त्रिम	-9585
ट्याने	-9586
नायटेड	-9587
▁विधवा	-9588
▁मनुष्य	-9589
▁कृत्रिम	-9590
▁मुद्दया	-9591
▁सीतामढी	-9592
▁दाव्याचे	-9593
▁प्रतिवाद	-9594
▁महिन्यात	-9595
▁वर्गातील	-9596
▁जखमांमुळे	-9597
▁व्यवस्थापित	-9598
िमन	-9599
▁अफ	-9600
रियल	-9601
िलोपा	-9602
▁सज्ज	-9603
▁पराभव	-9604
▁ठोठावला	-9605
▁वडिलोपा	-9606
▁आणण्याची	-9607
▁याचिकेचे	-9608
▁युनायटेड	-9609
▁याचिकेद्वारे	-9610
▁वडिलोपार्जित	-9611
▁बेई	-9612
▁किरण	-9613
▁बळावर	-9614
▁अप्रामाणिक	-9615
▁यांच्याकडून	-9616
ंटल	-9617
▁घोटा	-9618
▁एलपीए	-9619
▁मोजली	-9620
▁निघाला	-9621
▁भोगावा	-9622
▁याचिकेस	-9623
▁असतानाही	-9624
▁प्रारंभी	-9625
▁सोन्याचे	-9626
▁समाजाच्या	-9627
▁हलविण्यात	-9628
▁दावेदाराने	-9629
▁योजनेनुसार	-9630
पान	-9631
▁कटि	-9632
▁बुर	-9633
▁मात	-9634
ाबाबत	-9635
▁ध्या	-9636
▁मोती	-9637
▁रामा	-9638
▁संगी	-9639
▁कलंकित	-9640
▁संज्ञा	-9641
▁चेतावणी	-9642
▁डब्ल्यूए	-9643
▁दुरुपयोग	-9644
▁कामांच्या	-9645
▁न्यायशास्त	-9646
▁रस्त्याच्या	-9647
▁निर्णयांच्या	-9648
▁व्यापाराच्या	-9649
▁हायकोर्टासमोर	-9650
ोलिक	-9651
▁क्व	-9652
▁धर्	-9653
▁सदन	-9654
▁बाँड	-9655
▁रचला	-9656
▁मध्यम	-9657
▁हेमंत	-9658
▁अन्सारी	-9659
▁आदेशांचे	-9660
▁वापरण्यात	-9661
▁करण्याशिवाय	-9662
▁न्यायाधिकरणाचा	-9663
ंशन	-9664
बाल	-9665
▁मठ	-9666
▁आत्	-9667
▁गर्ग	-9668
▁चौदा	-9669
▁पराव	-9670
▁सीबी	-9671
▁सुनी	-9672
▁स्कू	-9673
▁टाळले	-9674
▁दोनदा	-9675
▁वेंकट	-9676
र्यादीत	-9677
▁आम्रपाली	-9678
▁पक्षांची	-9679
▁मर्यादीत	-9680
▁अर्थपूर्ण	-9681
▁उल्लेखनीय	-9682
▁घेतल्याचे	-9683
▁आरोपपत्रात	-9684
▁अंमलबजावणीची	-9685
ेनिंग	-9686
▁एलजी	-9687
▁तडजो	-9688
▁बेंच	-9689
▁बहुधा	-9690
▁मनोहर	-9691
▁ड्युटी	-9692
▁मुलाखत	-9693
▁संघटनेने	-9694
▁मुजफ्फरपूर	-9695
▁परवानगीशिवाय	-9696
▁पल	-9697
▁तेव	-9698
▁वाप	-9699
▁निर्भ	-9700
▁अप्रिय	-9701
▁खाणकाम	-9702
▁निवडून	-9703
▁प्रोफा	-9704
▁नोंदवलेली	-9705
▁मिळविण्याचा	-9706
साह	-9707
▁गळा	-9708
▁घातले	-9709
▁मंजूरी	-9710
▁मध्यभागी	-9711
▁तत्त्वाचे	-9712
▁तपासणीनंतर	-9713
▁कस	-9714
▁आया	-9715
▁बीए	-9716
▁ललित	-9717
▁जोडलेली	-9718
▁इन्स्टंट	-9719
▁संरक्षणाची	-9720
▁ड्रायव्हिंग	-9721
▁विवेकाधिकार	-9722
ंपरा	-9723
्युक	-9724
▁प्रज	-9725
▁बेगम	-9726
▁भावा	-9727
▁वाचा	-9728
▁साखर	-9729
▁कंटेन	-9730
▁खोल्या	-9731
▁शिकवणी	-9732
ण्यामुळे	-9733
▁कोनातून	-9734
▁दीर्घकाळ	-9735
▁महासंचालक	-9736
▁विचारांवर	-9737
▁स्वाभाविक	-9738
▁गुणवत्तेचा	-9739
▁प्राधिकरणाकडून	-9740
घाती	-9741
डीची	-9742
▁डेल	-9743
▁अंडर	-9744
▁बोलणे	-9745
▁सुपरा	-9746
▁निरंतर	-9747
▁अत्यधिक	-9748
▁खर्चाचा	-9749
▁आसपासच्या	-9750
▁पंतप्रधान	-9751
पण	-9752
▁खोल	-9753
▁पसर	-9754
▁लॉक	-9755
▁समल	-9756
▁बनली	-9757
▁विशाल	-9758
▁अनुज्ञेय	-9759
▁नामांकित	-9760
▁उद्भवणारे	-9761
▁सुटकेसाठी	-9762
▁आयुक्तांकडे	-9763
▁न्यायाधिकरणास	-9764
ौढ	-9765
▁इक	-9766
▁त्व	-9767
▁दुज	-9768
▁सीट	-9769
▁जीआर	-9770
▁बोलू	-9771
▁माने	-9772
▁निष्ठ	-9773
▁प्रौढ	-9774
▁कॅन्टी	-9775
▁डीव्ही	-9776
▁पुढच्या	-9777
▁मंडळाचा	-9778
▁रिझर्व्ह	-9779
▁प्रमाणावर	-9780
▁क्षेत्राचे	-9781
▁कामगिरीच्या	-9782
▁दुखापतीमुळे	-9783
▁कन्स्ट्रक्शन	-9784
▁प्रतिसादकांनी	-9785
षे	-9786
टीत	-9787
वया	-9788
लंदा	-9789
▁एमए	-9790
▁ठोक	-9791
▁नान	-9792
▁गणित	-9793
▁डिप्	-9794
▁पीजी	-9795
▁विसर	-9796
ंपासून	-9797
▁दत्ता	-9798
▁हिंदी	-9799
▁फर्मान	-9800
▁तपासणीचा	-9801
▁राज्याची	-9802
▁विधानसभा	-9803
▁उपाध्यक्ष	-9804
▁पुराव्यास	-9805
▁देशांतर्गत	-9806
▁वस्तुनिष्ठ	-9807
▁घेण्यापासून	-9808
म्य	-9809
▁सव	-9810
▁टीप	-9811
▁यूक	-9812
▁लुट	-9813
▁शोक	-9814
▁अर्जुन	-9815
▁आल्यास	-9816
▁कटिहार	-9817
▁निविदे	-9818
▁रघुनाथ	-9819
▁आणण्याचे	-9820
▁फसवणूकीचा	-9821
▁फिर्यादीत	-9822
▁करण्यासंबंधी	-9823
▁तुरूंगवासाची	-9824
▁साहित्याच्या	-9825
ईआर	-9826
ेतर	-9827
▁रेग	-9828
▁आरएफ	-9829
▁बिघा	-9830
▁शोधू	-9831
▁सिवान	-9832
▁महानदी	-9833
▁वैशाली	-9834
▁घटकांचा	-9835
▁त्यायोगे	-9836
▁वर्गीकृत	-9837
▁पूर्वनिर्	-9838
▁शिस्तप्रिय	-9839
▁परिस्थितीशी	-9840
▁वेळापत्रकात	-9841
▁पुराव्यांकडे	-9842
उन	-9843
पारा	-9844
ावणी	-9845
▁ओएम	-9846
▁कसो	-9847
▁करील	-9848
▁एकूणच	-9849
▁गांजा	-9850
▁नेटवर्क	-9851
▁पत्रकार	-9852
▁व्यत्यय	-9853
▁निकालाचे	-9854
▁कमिशनमध्ये	-9855
▁दिल्लीच्या	-9856
दृ	-9857
शीर	-9858
▁म्है	-9859
▁वागणे	-9860
▁गुंतले	-9861
▁परवान्या	-9862
▁व्याजासह	-9863
▁खरेदीसाठी	-9864
▁कामगारांनी	-9865
▁नाकारण्यात	-9866
▁चालविण्याचा	-9867
▁निर्णयाबद्दल	-9868
▁बांधकामासाठी	-9869
▁युक्तिवादाचे	-9870
▁एंट	-9871
▁पंकज	-9872
▁साजरा	-9873
▁करारास	-9874
▁डीआरटी	-9875
▁ऑर्डरला	-9876
▁कनेक्शन	-9877
▁विचारणा	-9878
▁गोष्टीची	-9879
▁विश्वनाथ	-9880
▁गुन्हेगारीचे	-9881
पंच	-9882
न्सि	-9883
▁घाब	-9884
▁घालू	-9885
▁रुजू	-9886
00,000	-9887
▁मोजले	-9888
▁कोर्टास	-9889
▁उपसंचालक	-9890
▁ठेवल्यास	-9891
▁निर्णयांमध्ये	-9892
थु	-9893
▁दल	-9894
ंगाई	-9895
लॉजी	-9896
▁परम	-9897
▁लबा	-9898
▁एनजी	-9899
▁निर्ध	-9900
▁शॉर्ट	-9901
▁संगणक	-9902
▁मुस्लिम	-9903
▁मुल्यांक	-9904
▁याचिकेची	-9905
▁कालावधीची	-9906
▁निर्धारणाने	-9907
▁असोसिएशनच्या	-9908
▁यशस्वीरित्या	-9909
▁आद	-9910
▁गुड	-9911
▁तेही	-9912
▁एज्युक	-9913
▁संरचने	-9914
▁विलच्या	-9915
▁सत्तेच्या	-9916
▁कर्तव्यावर	-9917
▁बनविलेल्या	-9918
▁संचालकांना	-9919
▁विधिमंडळाचा	-9920
▁अधिसूचनेमध्ये	-9921
खोर	-9922
ड्डा	-9923
▁रिस	-9924
▁पोहच	-9925
▁बंदूक	-9926
▁रुंदी	-9927
▁स्टेज	-9928
▁अस्वस्थ	-9929
▁क्लिनिक	-9930
▁शीर्षका	-9931
▁गुंतलेली	-9932
▁विधानावर	-9933
▁बाजूंच्या	-9934
ठीत	-9935
▁नट	-9936
▁खोद	-9937
र्धित	-9938
▁फेडरल	-9939
▁प्राणी	-9940
▁उत्पत्ती	-9941
▁कायद्यास	-9942
▁स्थितीचा	-9943
▁रिलायन्सला	-9944
पदी	-9945
्टी	-9946
ड्या	-9947
▁खेच	-9948
▁रूम	-9949
▁वाहि	-9950
ण्याशी	-9951
▁कुलपती	-9952
▁ठेवतात	-9953
▁तुम्ही	-9954
▁भरतीसाठी	-9955
▁सोसायटीने	-9956
▁बॉक्समध्ये	-9957
▁साक्षीदारा	-9958
▁त्यासंबंधित	-9959
▁प्रत्येकाला	-9960
▁युनिव्हर्सिटी	-9961
▁प्रतिवादींसाठी	-9962
गरी	-9963
नंट	-9964
वेळ	-9965
▁चल	-9966
▁हेम	-9967
▁मादक	-9968
▁तब्बल	-9969
▁पुनरुज्	-9970
▁एस्टोपेल	-9971
▁प्रख्यात	-9972
▁सामग्रीवर	-9973
▁प्रशिक्षित	-9974
▁मागण्यासाठी	-9975
▁कर्तव्याच्या	-9976
▁कायद्यामध्ये	-9977
▁पोहोचण्यासाठी	-9978
गन	-9979
▁ऑल	-9980
▁आयु	-9981
▁इम्	-9982
▁दरो	-9983
▁सिल	-9984
▁ऑक्स	-9985
ंत्रिक	-9986
▁लावण्याचे	-9987
▁वर्षांहून	-9988
▁कार्यालयीन	-9989
▁निवेदनातून	-9990
▁पक्षांसाठी	-9991
▁गुन्ह्यांच्या	-9992
▁गी	-9993
बिया	-9994
▁बसले	-9995
▁समझोता	-9996
▁स्पेशल	-9997
▁वाचल्या	-9998
▁असेंब्ली	-9999
▁पुस्तकात	-10000
▁प्लास्टिक	-10001
▁निःपक्षपाती	-10002
िज	-10003
वजी	-10004
▁सच	-10005
▁अजित	-10006
▁व्हॅ	-10007
▁इंदूर	-10008
▁वापरुन	-10009
▁त्याबाबत	-10010
▁परावृत्त	-10011
▁येण्याची	-10012
▁स्पर्धात	-10013
▁एज्युकेशन	-10014
▁दोघांनीही	-10015
▁पर्यवेक्षी	-10016
▁प्रासंगिकता	-10017
▁स्पष्टीकरणात्मक	-10018
ंके	-10019
ढेच	-10020
तिया	-10021
भावी	-10022
▁विच	-10023
प्राइ	-10024
▁महाग	-10025
▁सागर	-10026
▁कैलास	-10027
▁तुकडे	-10028
▁अपघाती	-10029
▁नालंदा	-10030
▁बनविणे	-10031
▁यांत्रिक	-10032
▁व्यवसायाचा	-10033
▁स्पर्धात्मक	-10034
▁निर्धारकाच्या	-10035
सळ	-10036
▁ईसी	-10037
▁आशिष	-10038
▁चिठ्	-10039
▁बाबत	-10040
▁विधेय	-10041
वर्तनीय	-10042
▁पगाराची	-10043
▁नोंदणीच्या	-10044
▁मानवाधिकार	-10045
▁मांडण्यासाठी	-10046
▁प्रतिवादीसाठी	-10047
▁नोंदविल्यानंतर	-10048
ंडन	-10049
▁नौ	-10050
▁झेड	-10051
▁कमर्	-10052
▁चुका	-10053
▁संघटन	-10054
▁दुजोरा	-10055
▁दहशतवादी	-10056
▁हाताच्या	-10057
▁अर्जदाराचा	-10058
▁कंपन्यांना	-10059
▁परिषदेच्या	-10060
▁राज्यघटनेने	-10061
▁एव	-10062
काळा	-10063
▁संच	-10064
▁सिग	-10065
मांतर	-10066
िंग्ज	-10067
▁गावा	-10068
▁बुद्ध	-10069
▁विकले	-10070
▁एसआरआय	-10071
▁पाहिला	-10072
▁बाळगणे	-10073
▁इतिहासा	-10074
▁केंद्रा	-10075
▁पाचव्या	-10076
▁काढण्याचा	-10077
▁बांधकामां	-10078
▁न्यायाधीशा	-10079
▁महामंडळाने	-10080
▁घालण्यासाठी	-10081
▁तक्रारदारास	-10082
आउट	-10083
नुभू	-10084
ारिक	-10085
▁घोर	-10086
कार्ड	-10087
▁पडून	-10088
▁नरिमन	-10089
▁मिळकत	-10090
▁साधने	-10091
▁हस्ता	-10092
▁दाखवते	-10093
▁संबद्ध	-10094
▁सहानुभू	-10095
▁हस्ताक्ष	-10096
▁महिन्यांचा	-10097
▁प्रतिवादींचे	-10098
एने	-10099
▁धी	-10100
▁विज	-10101
गार्ड	-10102
▁मिनि	-10103
▁मिळतो	-10104
▁लेफ्ट	-10105
▁वाचणे	-10106
ारासाठी	-10107
▁दुर्गा	-10108
▁निश्चय	-10109
▁समाप्त	-10110
▁दिल्लीत	-10111
▁इंडियाने	-10112
▁तथ्यांच्या	-10113
▁अधिका्यांनी	-10114
▁व्यक्तिमत्त्	-10115
वं	-10116
जिकल	-10117
▁गोर	-10118
▁विलीन	-10119
▁चिन्हे	-10120
▁शब्दांचा	-10121
▁स्वीकारू	-10122
▁नोटीसच्या	-10123
पाठी	-10124
ायला	-10125
▁ओटी	-10126
▁गोग	-10127
▁इष्ट	-10128
▁केबल	-10129
▁दुकाने	-10130
▁रोस्टर	-10131
▁कन्सोर्ट	-10132
▁पक्षाकडून	-10133
▁डिक्रीच्या	-10134
▁क्षेत्रासाठी	-10135
▁मिळाल्याबद्दल	-10136
▁पीएल	-10137
▁वाळू	-10138
▁अनादर	-10139
▁आक्रम	-10140
▁देवाण	-10141
▁पाळला	-10142
▁मॅक्स	-10143
▁सुज्ञ	-10144
▁विचारपूस	-10145
▁नाकारण्याचा	-10146
एलला	-10147
▁दिर	-10148
▁आर्क	-10149
▁एचएस	-10150
▁एनटी	-10151
▁गोदा	-10152
▁निकट	-10153
▁वकिल	-10154
▁सौदा	-10155
▁अभियंत	-10156
▁हेक्टर	-10157
▁सोयीस्कर	-10158
▁कंपनीकडून	-10159
▁तक्रारीचे	-10160
▁सहकार्याने	-10161
▁कन्न	-10162
▁वायर	-10163
▁एकाने	-10164
▁बजावत	-10165
▁मूर्ख	-10166
▁व्हॅट	-10167
्यांकडे	-10168
▁उत्परि	-10169
▁अभ्यासू	-10170
▁मालकीचा	-10171
▁म्हैसूर	-10172
▁वैमनस्य	-10173
▁सर्वांनी	-10174
▁सेवेसाठी	-10175
▁घेतल्यावर	-10176
▁अधिकारांचे	-10177
▁बंदुकीच्या	-10178
▁मिळवलेल्या	-10179
▁कोर्टामध्ये	-10180
▁दावेकर्त्याने	-10181
ंटी	-10182
▁जगत	-10183
पत्रे	-10184
▁उचलले	-10185
▁स्टोअर	-10186
▁प्रेरणा	-10187
▁एकट्याने	-10188
▁मूल्याच्या	-10189
धाम	-10190
▁मथ	-10191
णाचा	-10192
मागे	-10193
▁एओने	-10194
▁चौथा	-10195
▁ब्रा	-10196
▁साधी	-10197
▁सुपू	-10198
▁कुलूप	-10199
▁चालान	-10200
▁पारंप	-10201
▁मेहुणे	-10202
▁समकालीन	-10203
▁देवेंद्र	-10204
▁हक्कांची	-10205
ांप्रमाणेच	-10206
▁याप्रकरणी	-10207
▁पॉलिसीच्या	-10208
▁वर्षांसाठी	-10209
▁आंतरराज्यीय	-10210
▁डेव्हलपमेंट	-10211
▁गोष्टींबद्दल	-10212
▁परवान्याच्या	-10213
▁राष्ट्रपतींनी	-10214
वाडी	-10215
मानंद	-10216
▁जादा	-10217
▁लावत	-10218
▁साधा	-10219
▁स्थगित	-10220
▁केंद्रित	-10221
▁विश्वासू	-10222
▁घटनांच्या	-10223
▁पारंपारिक	-10224
▁मुतावल्ली	-10225
▁ऑब्जेक्ट्स	-10226
▁यांविरूद्ध	-10227
▁राज्यघटनेत	-10228
▁काढण्याच्या	-10229
▁व्यक्तिनिष्ठ	-10230
▁तरतुदींद्वारे	-10231
▁पुनरावलोकनाची	-10232
ॉप	-10233
िटन	-10234
▁चढ	-10235
प्पू	-10236
▁छता	-10237
▁धात	-10238
▁फॉर	-10239
▁सुरे	-10240
▁आयओने	-10241
▁नामित	-10242
▁बक्षी	-10243
........	-10244
▁ऑथॉरिटी	-10245
▁वर्षाची	-10246
▁ग्रॅच्युइटी	-10247
▁प्रक्रियेवर	-10248
▁शिक्षणाच्या	-10249
▁परिस्थितीतून	-10250
▁पुनरावलोकनाच्या	-10251
िंक	-10252
वेरी	-10253
▁उंबर	-10254
▁मार्	-10255
▁साठा	-10256
▁संपला	-10257
▁कंटेनर	-10258
▁परिभाषा	-10259
▁स्वयंपा	-10260
▁मतदारसंघ	-10261
नीत	-10262
ब्र	-10263
▁रॅ	-10264
ॉक्स	-10265
▁कटक	-10266
▁कोत	-10267
▁झाक	-10268
▁विपण	-10269
▁सीएच	-10270
▁एससीए	-10271
▁कल्पन	-10272
▁सापळा	-10273
▁बँकेची	-10274
▁देवाणघे	-10275
▁समायोजन	-10276
▁संभाव्यता	-10277
कडी	-10278
फाय	-10279
▁खड	-10280
आयआय	-10281
▁बेस	-10282
▁आरपी	-10283
▁उदास	-10284
▁निघा	-10285
▁रिअल	-10286
▁आवृत्	-10287
ण्याजोग	-10288
▁सहाव्या	-10289
▁दायित्वा	-10290
▁नियंत्रक	-10291
▁तिसर्यांदा	-10292
▁विचारविनिमय	-10293
▁वाढविण्यासाठी	-10294
डु	-10295
ब्रा	-10296
▁नां	-10297
क्ष्म	-10298
स्टोन	-10299
▁इन्श	-10300
▁पाठव	-10301
पक्षीय	-10302
▁पेटवून	-10303
▁कारखाना	-10304
▁आस्थापना	-10305
▁उपाययोजन	-10306
▁खटल्याचे	-10307
▁सामग्रीची	-10308
▁उमेदवाराची	-10309
▁उमेदवारांनी	-10310
▁गोष्टींच्या	-10311
बड	-10312
▁कंड	-10313
▁कन्	-10314
▁मयत	-10315
▁लघु	-10316
▁अतुल	-10317
▁टीपी	-10318
▁ठेके	-10319
▁विनय	-10320
▁एंट्री	-10321
▁पदच्यु	-10322
▁बहुमता	-10323
▁सूक्ष्म	-10324
▁पीडितेचे	-10325
▁निधनानंतर	-10326
▁वर्गाच्या	-10327
▁गैरव्यवहार	-10328
▁कार्यवाहीची	-10329
भो	-10330
▁गती	-10331
▁साळ	-10332
रसिंह	-10333
▁एनएच	-10334
▁वर्च	-10335
च्छेदा	-10336
ित्र्य	-10337
▁उपभोग	-10338
▁ब्लॅक	-10339
▁संदीप	-10340
▁सरपंच	-10341
▁तथ्यावर	-10342
▁चार्जशीट	-10343
▁वेळेच्या	-10344
▁नोंदवलेले	-10345
▁वसुलीसाठी	-10346
▁संचालनालय	-10347
▁अप्रत्यक्षपणे	-10348
डीत	-10349
र्मन	-10350
▁गैरह	-10351
▁ब्यु	-10352
▁समजला	-10353
▁हुकुम	-10354
▁इन्शुर	-10355
▁कलमाचा	-10356
▁प्रायोजक	-10357
▁बजावताना	-10358
▁सादरीकरण	-10359
▁घातलेल्या	-10360
▁डब्ल्यूपीएस	-10361
▁समाधानासाठी	-10362
णु	-10363
▁अँटी	-10364
▁वर्स	-10365
▁गांभी	-10366
▁गावचे	-10367
▁शेवटची	-10368
▁श्रद्धा	-10369
▁जागेसाठी	-10370
▁ज्यावरून	-10371
▁पीडितेला	-10372
▁माहितीचा	-10373
▁आपल्यासमोर	-10374
▁गुन्ह्यांची	-10375
▁निष्कर्षांच्या	-10376
▁पुनरावृत्तीच्या	-10377
बू	-10378
रथ	-10379
काल	-10380
▁चुल	-10381
▁चंदन	-10382
▁त्वर	-10383
ांखाली	-10384
▁पिशवी	-10385
▁कीटकनाश	-10386
▁एफटीआयएल	-10387
▁राज्याला	-10388
▁सचिवांनी	-10389
▁हायकोर्ट	-10390
▁इन्शुरन्स	-10391
▁अनुसूचीच्या	-10392
▁नसल्याबद्दल	-10393
इप	-10394
म्न	-10395
▁आंद	-10396
▁कथे	-10397
▁फरद	-10398
▁कैदी	-10399
▁राईट	-10400
विल्या	-10401
ैधानिक	-10402
▁कोणता	-10403
▁जोडणे	-10404
▁बँकेचे	-10405
▁वादाला	-10406
▁संलग्नक	-10407
▁कंपनीकडे	-10408
▁लेफ्टनंट	-10409
▁सिंगापूर	-10410
▁घालण्याची	-10411
▁जिल्ह्यात	-10412
▁मृत्युदंड	-10413
▁त्यांच्यासाठी	-10414
वाज	-10415
मतीत	-10416
▁फुट	-10417
▁हळू	-10418
त्याच	-10419
▁एमएच	-10420
▁वसाह	-10421
▁आरपीसी	-10422
▁परवाने	-10423
▁किंमतीत	-10424
▁गव्हर्न	-10425
▁पंचायती	-10426
▁प्रत्यु	-10427
▁फिर्याद	-10428
▁वकिलांना	-10429
▁चाचणीसाठी	-10430
▁संवैधानिक	-10431
▁दर्शविणारी	-10432
▁शुल्कासाठी	-10433
्युन	-10434
▁खिश	-10435
▁आठवत	-10436
▁बंगळ	-10437
▁मुकु	-10438
▁शोधत	-10439
▁ठरतात	-10440
▁कामाचे	-10441
▁मांडताना	-10442
▁मालकांच्या	-10443
ेर	-10444
पुढ	-10445
▁निविद	-10446
▁तज्ञांच्या	-10447
▁घटनेसंदर्भात	-10448
▁बौ	-10449
▁खोड	-10450
▁जोख	-10451
▁आणता	-10452
▁खेळा	-10453
▁रोखू	-10454
▁कसोटी	-10455
▁तेथेच	-10456
▁वास्त	-10457
▁नोंदवू	-10458
▁क्रमाने	-10459
▁गैरवर्त	-10460
▁हक्काची	-10461
▁देयकासाठी	-10462
▁ठोठावण्यात	-10463
▁तडजोडीच्या	-10464
▁दस्तऐवजाच्या	-10465
▁पुनर्प्राप्त	-10466
▁साक्षीदाराचे	-10467
▁निर्देशांच्या	-10468
सेट	-10469
▁जूड	-10470
निवास	-10471
▁ऐवजी	-10472
▁घडला	-10473
▁नायक	-10474
▁बिया	-10475
स्तरीय	-10476
▁छातीवर	-10477
▁नेतृत्व	-10478
▁चार्टर्ड	-10479
▁पाण्याची	-10480
▁वास्तविकता	-10481
▁खटल्यानुसार	-10482
▁प्रामाणिकपणे	-10483
▁उत्पादनांच्या	-10484
▁तद	-10485
▁जगा	-10486
पुढील	-10487
▁चालत	-10488
वामुळे	-10489
▁इनपुट	-10490
▁दूरस्थ	-10491
▁नागपूर	-10492
▁बीसीसी	-10493
▁आदेशांना	-10494
▁त्रिपाठी	-10495
▁भरण्याचे	-10496
▁मुद्यावर	-10497
▁वापरलेली	-10498
टल	-10499
▁डु	-10500
िक्स	-10501
▁कमल	-10502
▁सरा	-10503
निर्म	-10504
▁मानस	-10505
▁एमआरटी	-10506
▁भावाला	-10507
▁लोकांनी	-10508
▁सुरूवात	-10509
▁सत्यतेच्या	-10510
▁उत्पादनाच्या	-10511
▁तत्त्वांनुसार	-10512
२३	-10513
ीया	-10514
▁अजा	-10515
▁एन्	-10516
▁बीर	-10517
▁मौन	-10518
▁इन्फ	-10519
▁हृदय	-10520
▁ईश्वर	-10521
▁लिफ्ट	-10522
सामग्री	-10523
▁उत्खनन	-10524
▁श्रद्ध	-10525
▁प्रशासक	-10526
▁अविभाजित	-10527
▁नुकत्याच	-10528
▁प्राण्या	-10529
न्ह	-10530
ृहा	-10531
▁वाढत	-10532
▁हाकल	-10533
▁फॅक्ट	-10534
▁दिरंगाई	-10535
▁भरल्यास	-10536
▁सल्लेने	-10537
▁समजण्यास	-10538
▁परिस्थितीचे	-10539
▁कंत्राटदाराला	-10540
▁फिट	-10541
▁पटली	-10542
▁बालक	-10543
▁सोपे	-10544
▁केलेः	-10545
▁चालला	-10546
▁पॅरामी	-10547
▁करारातील	-10548
▁मांडण्यात	-10549
▁सदस्यांचा	-10550
▁नसल्याच्या	-10551
▁गोपनीयतेच्या	-10552
▁संरक्षणाच्या	-10553
▁स्वातंत्र्याचा	-10554
▁भगत	-10555
▁एमटी	-10556
▁कपूर	-10557
▁पाहत	-10558
▁वारा	-10559
▁सुमन	-10560
▁परकीय	-10561
▁आमंत्र	-10562
▁सुपूर्द	-10563
▁नियमांचा	-10564
▁स्वयंसेव	-10565
▁तंबाखूजन्य	-10566
▁पेट्रोलियम	-10567
▁करण्याबद्दल	-10568
▁निवासस्थानी	-10569
▁स्वीकारण्यात	-10570
िवाय	-10571
▁आदर्श	-10572
▁वर्तन	-10573
▁गमावला	-10574
▁सावकार	-10575
▁अतिरेकी	-10576
▁विख्यात	-10577
▁महत्वाची	-10578
▁सर्वोत्तम	-10579
▁कंपन्यांनी	-10580
▁सरकारद्वारे	-10581
▁अपीलकर्त्याकडून	-10582
क्सर	-10583
जोरी	-10584
पुरम	-10585
व्हॉ	-10586
▁चित	-10587
▁ठसा	-10588
▁पन्	-10589
▁साई	-10590
तेकडे	-10591
▁चुलत	-10592
▁सूरज	-10593
▁सेंट	-10594
▁संप्र	-10595
▁अलीकडील	-10596
▁नगररचना	-10597
▁जहानाबाद	-10598
▁ठरविल्या	-10599
▁पक्षांचा	-10600
▁मदतीसाठी	-10601
▁पुरस्काराने	-10602
▁गुणवत्तेनुसार	-10603
▁त्याच्याबरोबर	-10604
िकेत	-10605
▁पीआर	-10606
विरोधी	-10607
▁जणांना	-10608
▁दावाही	-10609
▁होताना	-10610
ॅट्रिक्स	-10611
▁अग्रगण्य	-10612
▁सामग्रीचे	-10613
▁स्वरुपाचे	-10614
▁क्षेत्राची	-10615
▁विचारांच्या	-10616
डल	-10617
▁खबर	-10618
▁साओ	-10619
डच्या	-10620
▁तत्पर	-10621
▁कमिशनर	-10622
▁ठरविली	-10623
▁ब्युरो	-10624
▁सदनिका	-10625
▁त्वरेने	-10626
▁दक्षिणे	-10627
▁समितीचा	-10628
▁विभागाला	-10629
▁काळापासून	-10630
▁लोकसंख्या	-10631
▁विधानमंडळा	-10632
हू	-10633
0.0	-10634
▁कॅप	-10635
▁मिल	-10636
▁एकटे	-10637
▁थोडी	-10638
डाच्या	-10639
्यूटरी	-10640
▁एनओसी	-10641
▁अखत्या	-10642
▁संवादा	-10643
▁एपीपीने	-10644
▁निर्मित	-10645
▁प्रॅक्ट	-10646
▁हक्काचे	-10647
▁विधिमंडळाच्या	-10648
लेस	-10649
दपूर	-10650
▁जोखमी	-10651
▁जागतिक	-10652
▁स्कूटर	-10653
▁संचालित	-10654
▁मंदिराच्या	-10655
▁आन	-10656
▁समू	-10657
करणाची	-10658
नाकडून	-10659
▁लेखात	-10660
▁विनिय	-10661
▁विवरण	-10662
▁सशर्त	-10663
▁सुरवा	-10664
▁लाभांश	-10665
ळ्याच्या	-10666
▁सांगतात	-10667
▁हत्येच्या	-10668
▁पत्रव्यवहार	-10669
▁सोडण्यासाठी	-10670
▁पदार्थांच्या	-10671
▁वापरण्याच्या	-10672
▁बढ	-10673
िंगची	-10674
▁जुना	-10675
▁विस्क	-10676
▁थोडासा	-10677
▁बजावणे	-10678
▁त्याआधी	-10679
▁ध्यानात	-10680
▁किंमतीची	-10681
▁घटकांच्या	-10682
▁वित्तपुरवठा	-10683
▁उत्तरदात्यांना	-10684
फ्फ	-10685
▁नोए	-10686
▁अवयव	-10687
▁अशीही	-10688
▁मनावर	-10689
▁समजते	-10690
▁आदेशासह	-10691
▁कमिशनने	-10692
▁भिन्नता	-10693
▁काढण्याची	-10694
▁त्यापासून	-10695
▁तत्त्वांवर	-10696
▁बजावण्याच्या	-10697
▁व्यवसायासाठी	-10698
▁टेस्टॅट्रिक्स	-10699
▁स्ल	-10700
▁टीएन	-10701
▁दोघे	-10702
▁यूजीसी	-10703
▁संघटित	-10704
▁नर्सिंग	-10705
▁निवडणुक	-10706
▁पाठवावे	-10707
▁मिळविणे	-10708
▁एमबीबीएस	-10709
▁आठवड्यांत	-10710
▁चुकांमुळे	-10711
▁गुंतागुंती	-10712
▁पाठविण्यास	-10713
▁इत्यादींच्या	-10714
रिस	-10715
▁पाकि	-10716
▁लढाई	-10717
▁अपयशा	-10718
▁फेरबद	-10719
▁दृश्या	-10720
▁भागाची	-10721
▁टिप्पणी	-10722
▁सर्व्हे	-10723
▁परिच्छेदा	-10724
▁यंत्रणेने	-10725
▁संतापलेल्या	-10726
▁स्थितीबद्दल	-10727
▁तक्रारदाराचे	-10728
▁प्रस्तावाच्या	-10729
झिट	-10730
िरा	-10731
▁खर	-10732
र्जिन	-10733
▁कमाल	-10734
▁बनवू	-10735
▁मीना	-10736
▁लाइट	-10737
▁आच्छा	-10738
▁स्कॅन	-10739
▁जप्तीची	-10740
▁प्राधान	-10741
▁ज्यानुसार	-10742
▁श्रीनिवास	-10743
▁त्याविरूद्ध	-10744
▁तपासादरम्यान	-10745
ांद	-10746
▁टन	-10747
फाइड	-10748
▁जणू	-10749
▁मरा	-10750
▁ज्यू	-10751
▁चारही	-10752
▁पप्पू	-10753
▁याचदा	-10754
विण्याचे	-10755
▁जखमेच्या	-10756
ण्यापर्यंत	-10757
▁घोषणेच्या	-10758
▁त्यामागील	-10759
▁पुराव्याचे	-10760
▁कागदपत्रांचे	-10761
▁ठेवण्यायोग्य	-10762
▁महानगरपालिकेने	-10763
▁एमई	-10764
▁तुट	-10765
▁पाठक	-10766
्रमण्य	-10767
▁चालना	-10768
▁विचलन	-10769
▁तपासणे	-10770
▁हस्तगत	-10771
▁होकारा	-10772
▁घटनांचा	-10773
▁बाटल्या	-10774
▁समितीकडे	-10775
▁नेण्यासाठी	-10776
▁पाण्याच्या	-10777
▁लिहिलेल्या	-10778
▁होकारार्थी	-10779
▁कराराअंतर्गत	-10780
▁परिस्थितीमुळे	-10781
▁दीप	-10782
▁नूर	-10783
जवळील	-10784
धारीत	-10785
बुजून	-10786
ाराची	-10787
रात्री	-10788
ल्व्हर	-10789
▁उद्या	-10790
▁सांगा	-10791
▁सातवा	-10792
▁होणारे	-10793
▁कारवाईला	-10794
▁शस्त्राने	-10795
▁कुटूंबातील	-10796
▁कोर्टानेही	-10797
▁जाणूनबुजून	-10798
▁रात्रीच्या	-10799
▁शिक्षकांना	-10800
▁राज्यांच्या	-10801
ेडकर	-10802
▁कमला	-10803
▁बंदर	-10804
▁टिकाव	-10805
▁राहते	-10806
▁रेडिओ	-10807
▁दर्शवू	-10808
▁रेग्यु	-10809
▁एनजेएसी	-10810
▁मालकाला	-10811
▁विमानतळ	-10812
▁वैधतेवर	-10813
▁सातव्या	-10814
ण्यामागील	-10815
▁पृष्ठभाग	-10816
▁अस्वीकार्य	-10817
▁गुन्ह्याशी	-10818
▁कुशल	-10819
▁डोळे	-10820
▁विहि	-10821
मेश्वर	-10822
सिद्धी	-10823
▁नसावी	-10824
▁बांका	-10825
▁भेदभा	-10826
▁सारखे	-10827
▁स्थला	-10828
▁स्मरण	-10829
▁वाहनचा	-10830
▁हत्येचा	-10831
▁फायनान्स	-10832
▁फॉर्म्यु	-10833
▁घटनेविषयी	-10834
▁निकालानंतर	-10835
▁मिळवण्याचा	-10836
▁गोष्टींमध्ये	-10837
ोई	-10838
▁टोक	-10839
▁चेहरा	-10840
▁जागेत	-10841
▁तलवार	-10842
▁नावाची	-10843
▁पन्नास	-10844
▁अध्याया	-10845
▁लावताना	-10846
▁त्रासदायक	-10847
▁निवेदनाची	-10848
▁मॅनेजमेंट	-10849
▁याचिकांना	-10850
▁अधिकारांची	-10851
▁प्रकरणांवर	-10852
▁मध्यरात्री	-10853
▁हुंड्याच्या	-10854
▁अर्जदारांच्या	-10855
ियर	-10856
ावती	-10857
▁आगी	-10858
▁एजे	-10859
▁फटका	-10860
▁सिंड	-10861
मेंद्र	-10862
वासाठी	-10863
▁योगदा	-10864
▁इंटरलोक	-10865
▁तपासणीची	-10866
▁मैदानावर	-10867
▁रजिस्ट्री	-10868
▁वेतनाच्या	-10869
ँग	-10870
ीम	-10871
ावण	-10872
सीला	-10873
▁सलग	-10874
▁निम्न	-10875
▁भिंती	-10876
▁समजणे	-10877
बाहेरील	-10878
▁अपीलात	-10879
▁मृतांना	-10880
▁लाभार्थ	-10881
▁आयुष्यात	-10882
▁आरोपींशी	-10883
▁आरोपींकडे	-10884
▁निर्धारणास	-10885
▁करण्यामागील	-10886
▁घटनेअंतर्गत	-10887
्ट	-10888
▁भट	-10889
▁ऐति	-10890
▁शनि	-10891
हासिक	-10892
▁थकीत	-10893
▁पाडणे	-10894
▁मशिदी	-10895
▁पाठवून	-10896
▁स्फोटक	-10897
▁न्यायदा	-10898
▁ऐतिहासिक	-10899
▁व्यासपीठ	-10900
▁एंटरप्राइ	-10901
▁टाकण्याची	-10902
▁वाहनाच्या	-10903
▁प्रस्तावाला	-10904
▁प्रश्नांमधील	-10905
▁मुद्द्यांवरील	-10906
हात	-10907
क्रो	-10908
▁नित	-10909
ाराने	-10910
▁डीजी	-10911
▁बच्च	-10912
▁बीआय	-10913
▁सीमे	-10914
▁पाहणी	-10915
▁ब्रेक	-10916
▁वडिलांचे	-10917
▁सांगणार्	-10918
▁प्रयोगशाळ	-10919
▁उड	-10920
्रीट	-10921
▁पित	-10922
▁भीम	-10923
▁समक	-10924
▁गोवा	-10925
▁निरो	-10926
▁पाळत	-10927
▁महाप	-10928
▁स्टा	-10929
▁खाद्य	-10930
▁तिथेच	-10931
▁डोळ्या	-10932
▁परिमाण	-10933
▁मित्रा	-10934
▁यंत्रण	-10935
▁वाचनातून	-10936
▁शोधण्यात	-10937
▁घेतल्याची	-10938
▁कार्यकाळात	-10939
चीन	-10940
▁उग	-10941
मोडी	-10942
यंकर	-10943
▁चहा	-10944
▁टेक	-10945
▁डिज	-10946
ाराचे	-10947
▁कक्ष	-10948
▁बक्सर	-10949
▁बद्दल	-10950
▁बनवले	-10951
▁मानून	-10952
▁सॉफ्ट	-10953
▁स्टेन	-10954
▁सुनीता	-10955
▁अनिवासी	-10956
▁वस्तुतः	-10957
▁उद्भवतात	-10958
▁तुम्हाला	-10959
▁तुरुंगात	-10960
▁पीडितेने	-10961
▁व्हीबीसी	-10962
▁सोडण्यास	-10963
▁दुरुस्तीची	-10964
▁फॉर्ममध्ये	-10965
▁तत्त्वाच्या	-10966
ोलन	-10967
▁तेज	-10968
▁सोल	-10969
▁हाऊ	-10970
▁हास	-10971
▁भावी	-10972
▁भयंकर	-10973
▁यूएसए	-10974
▁संपाद	-10975
ण्यातील	-10976
▁एनआयटी	-10977
▁महाराज	-10978
▁सभागृह	-10979
▁जीवनाचा	-10980
▁कमर्शियल	-10981
▁कारणांवर	-10982
▁नमुन्यात	-10983
▁सांगायला	-10984
▁सोडल्यास	-10985
▁ऑपरेटिव्ह	-10986
▁फिर्यादीकडे	-10987
▁प्रक्रियेतील	-10988
फत	-10989
झेड	-10990
ेचा	-10991
खाना	-10992
राज्य	-10993
▁उंची	-10994
▁ओबीसी	-10995
▁सुस्त	-10996
▁क्वचित	-10997
▁समकक्ष	-10998
▁सीआयडी	-10999
▁सीमांक	-11000
▁तमिळनाडू	-11001
▁कायद्यावर	-11002
▁जनहितार्थ	-11003
▁सूचनेच्या	-11004
▁व्यवहाराचे	-11005
▁कार्यक्रमात	-11006
▁निकालांच्या	-11007
ळीस	-11008
▁कोरम	-11009
लेश्वर	-11010
िट्यूट	-11011
▁डॉक्स	-11012
▁संसाध	-11013
▁मूल्ये	-11014
▁वाढवून	-11015
▁हाकलून	-11016
▁मधेपुरा	-11017
▁अध्यायात	-11018
▁द्विवेदी	-11019
▁खंडपीठाचे	-11020
▁प्रश्नाची	-11021
▁सेवेमध्ये	-11022
▁भांडवलाच्या	-11023
▁अभिव्यक्तीच्या	-11024
▁इम	-11025
▁टाई	-11026
▁माय	-11027
▁रेट	-11028
िप्शन	-11029
▁अटीवर	-11030
▁कार्ट	-11031
▁कोणास	-11032
▁ध्वनी	-11033
▁केव्ही	-11034
▁मालिका	-11035
▁सीव्ही	-11036
▁कागदावर	-11037
▁कारच्या	-11038
▁कॅन्टीन	-11039
▁मार्जिन	-11040
▁श्रेणीत	-11041
▁देखरेखीखाली	-11042
झेशन	-11043
▁धरम	-11044
्यांवर	-11045
▁राहुल	-11046
▁सुटला	-11047
नापासून	-11048
▁जातीचे	-11049
▁अध्यापन	-11050
▁प्रशांत	-11051
▁सक्तीची	-11052
▁सामावून	-11053
▁उपनिबंधक	-11054
▁दिवसांची	-11055
▁बारमध्ये	-11056
▁सदस्याला	-11057
▁अधिसूचनेत	-11058
▁दृढनिश्चय	-11059
▁स्तरावरील	-11060
▁पारदर्शकता	-11061
▁कार्यवाहीचे	-11062
▁लेखापरीक्षण	-11063
▁वाचवण्यासाठी	-11064
लीम	-11065
प्पट	-11066
▁पाक	-11067
▁ऑर्स	-11068
▁सेल्	-11069
जेक्शन	-11070
नारायण	-11071
▁विनंत	-11072
कानुसार	-11073
स्ट्रेट	-11074
▁अवलंबि	-11075
▁आकारणे	-11076
▁एकत्रिक	-11077
▁भरपाईचे	-11078
▁संहितेचा	-11079
▁दाव्यांचा	-11080
▁दुष्परिणाम	-11081
▁प्रतिवादीकडून	-11082
ंथ	-11083
ॅप	-11084
टेज	-11085
निम	-11086
▁टच	-11087
ल्टर	-11088
▁वीस	-11089
▁उजवी	-11090
▁गुणा	-11091
▁नियु	-11092
▁लखनऊ	-11093
▁जवळचे	-11094
▁आंदोलन	-11095
▁योजनेस	-11096
▁लक्षणीय	-11097
▁विस्कळीत	-11098
▁संस्थेला	-11099
▁नाकारल्या	-11100
▁दर्शविल्या	-11101
▁मागविण्यात	-11102
▁व्यवहाराची	-11103
▁पक्षांकरिता	-11104
▁न्यायव्यवस्थे	-11105
▁जां	-11106
▁किमी	-11107
▁तदर्थ	-11108
▁शोधले	-11109
▁सुधीर	-11110
▁स्थित	-11111
▁मुन्ना	-11112
▁प्रेरित	-11113
▁मंडळाकडे	-11114
▁सिंडिकेट	-11115
▁आदरपूर्वक	-11116
▁कौन्सिलने	-11117
▁दिवसाच्या	-11118
▁वर्षांनंतर	-11119
▁सांगितल्या	-11120
▁पुरस्काराची	-11121
▁प्रकल्पाच्या	-11122
▁राष्ट्रपतींच्या	-11123
टात	-11124
▁असाच	-11125
▁कुठे	-11126
▁केएस	-11127
▁चांद	-11128
▁येणे	-11129
नावरून	-11130
▁टाळता	-11131
▁बनवते	-11132
▁लागून	-11133
दारांनी	-11134
▁पक्षां	-11135
▁समुदाय	-11136
▁अधिवेशन	-11137
▁ड्राफ्ट	-11138
▁महसूलने	-11139
▁स्वयंपाक	-11140
▁नियुक्त्या	-11141
▁संरक्षणाचा	-11142
▁सल्लागारांनी	-11143
बो	-11144
खीम	-11145
सेफ	-11146
नोंद	-11147
्रोप	-11148
▁एसओ	-11149
▁घडा	-11150
▁टीएम	-11151
▁डीपी	-11152
▁नव्या	-11153
▁मुलगे	-11154
▁अनेकदा	-11155
▁पिटीशन	-11156
▁लागणार	-11157
▁आर्किटे	-11158
ण्यामध्ये	-11159
▁कामकाजाचा	-11160
▁अर्जदाराची	-11161
▁पॅरामीटर्स	-11162
▁बलात्काराचा	-11163
▁मंत्रिमंडळा	-11164
▁मिळण्यासाठी	-11165
▁संभाव्यतेच्या	-11166
▁समाधानकारकपणे	-11167
▁कागदपत्रांमध्ये	-11168
ैन	-11169
२४	-11170
पया	-11171
ज्यु	-11172
ठिका	-11173
▁ठरत	-11174
▁राठ	-11175
▁रेव	-11176
आयडीए	-11177
तर्फे	-11178
▁हायड	-11179
सारखेच	-11180
▁उपकरण	-11181
▁व्यभि	-11182
▁एसबीआय	-11183
▁परदेशात	-11184
▁वादींनी	-11185
▁कारमध्ये	-11186
▁लॉर्डशिप	-11187
▁्यांच्या	-11188
▁कारवाईसाठी	-11189
▁फेटाळण्यात	-11190
▁अंमलबजावणीस	-11191
▁समाप्तीनंतर	-11192
▁घस	-11193
▁थि	-11194
न्यू	-11195
स्को	-11196
▁मटे	-11197
ंदारी	-11198
▁आवडी	-11199
▁टॉवर	-11200
▁पडेल	-11201
▁गुंडा	-11202
▁बुरखा	-11203
▁वागले	-11204
▁गमावले	-11205
▁फार्मा	-11206
▁कराच्या	-11207
▁प्रमोटर	-11208
▁एकाचवेळी	-11209
▁निसर्गात	-11210
▁इत्यादींचा	-11211
▁नियमांमधील	-11212
▁विद्यापीठाचे	-11213
▁महिन्यांपेक्षा	-11214
तीला	-11215
▁हिस	-11216
▁टाडा	-11217
स्कृतिक	-11218
▁अनुचित	-11219
▁स्वर्ग	-11220
▁नावनोंद	-11221
▁निष्पन्न	-11222
▁वडिलांचा	-11223
▁संदर्भही	-11224
▁निवडीच्या	-11225
▁व्यक्तीशी	-11226
▁एफआयआरच्या	-11227
▁संमतीशिवाय	-11228
▁समभागांच्या	-11229
विन	-11230
रेशन	-11231
▁मेघ	-11232
▁ऐकली	-11233
▁जेएम	-11234
▁बारी	-11235
▁स्को	-11236
▁द्वार	-11237
▁बदलणे	-11238
▁पुष्कळ	-11239
▁बदल्या	-11240
▁ठरवताना	-11241
▁प्रिन्सि	-11242
▁व्हीआरएस	-11243
▁सर्वसामान	-11244
▁तारखेनुसार	-11245
▁देवाणघेवाण	-11246
▁अमेरिकेच्या	-11247
▁उत्तराधिकार	-11248
कै	-11249
पॉ	-11250
िंड	-11251
ारेट	-11252
▁तंत	-11253
▁यां	-11254
▁रीट	-11255
▁स्पे	-11256
▁घोटाळ	-11257
▁पुरात	-11258
▁लोकसं	-11259
▁स्वरा	-11260
▁ऑनलाईन	-11261
▁वापरता	-11262
▁सद्भाव	-11263
▁आल्याचे	-11264
▁राहिल्या	-11265
▁स्टेशनला	-11266
▁डायरेक्टर	-11267
▁वापराच्या	-11268
▁विनामूल्य	-11269
▁निवासस्थान	-11270
▁अध्यक्षांनी	-11271
▁संचालकांच्या	-11272
▁अध्यक्षतेखाली	-11273
▁उम	-11274
टीचा	-11275
नेही	-11276
वर्षी	-11277
▁टेलि	-11278
▁ड्यू	-11279
▁जायचे	-11280
▁घेणारी	-11281
▁अर्जाला	-11282
▁घडामोडी	-11283
▁जमिनीचे	-11284
▁योजनेचे	-11285
▁सुसंगतता	-11286
▁मेसर्सच्या	-11287
▁अनिवार्यपणे	-11288
▁ठरविण्यासाठी	-11289
▁अधिकारक्षेत्रात	-11290
डीह	-11291
▁घन	-11292
▁पौ	-11293
क्ते	-11294
रपूर	-11295
▁केएन	-11296
▁धातू	-11297
▁बँका	-11298
▁यूके	-11299
▁वाढू	-11300
▁हवाल	-11301
ारातील	-11302
▁गार्ड	-11303
▁डीडीए	-11304
▁निरुप	-11305
▁बदलून	-11306
▁लेआउट	-11307
▁प्रदात	-11308
▁लँडिंग	-11309
▁सवलतीस	-11310
▁माध्यमां	-11311
▁स्थलांतर	-11312
▁मृत्यूमुळे	-11313
▁व्यक्तींवर	-11314
▁सांस्कृतिक	-11315
▁तिच्याबरोबर	-11316
▁प्रतिवादीवर	-11317
रिट	-11318
▁आड	-11319
▁एनई	-11320
▁रॉड	-11321
▁कस्ट	-11322
▁अवयवा	-11323
▁मिश्र	-11324
▁रोहित	-11325
▁अस्थिर	-11326
▁आदरणीय	-11327
▁मनोरंज	-11328
▁मिनिटे	-11329
▁केसच्या	-11330
▁दुसर्या	-11331
▁बाबूलाल	-11332
▁राजधानी	-11333
▁जप्तीच्या	-11334
▁दिवसानंतर	-11335
▁सहानुभूती	-11336
▁ज्येष्ठतेच्या	-11337
▁नोंदविण्याच्या	-11338
घळ	-11339
डीच	-11340
ळखी	-11341
▁अज	-11342
▁गजर	-11343
▁रेख	-11344
श्विक	-11345
▁कलमे	-11346
▁जेटी	-11347
▁उत्कट	-11348
▁चालूच	-11349
▁अनोळखी	-11350
▁अवैधता	-11351
▁आराखडा	-11352
▁पदांची	-11353
▁मुलीवर	-11354
▁विनियम	-11355
▁सेवेचे	-11356
▁बचावाची	-11357
▁सिगारेट	-11358
▁जबरदस्ती	-11359
▁निवडलेले	-11360
▁मिळालेले	-11361
▁संवर्गात	-11362
▁हिंसाचार	-11363
▁नुकसानीची	-11364
▁दुरुस्तीचा	-11365
▁सल्लागाराने	-11366
▁इंटरलोक्यूटरी	-11367
▁कार्यवाहीसाठी	-11368
वेर	-11369
▁चट	-11370
एनयू	-11371
र्बन	-11372
▁ईएम	-11373
▁आढळू	-11374
▁ग्राह	-11375
▁जोखीम	-11376
▁दागिन्या	-11377
▁तरतूदीच्या	-11378
▁अभियोगानुसार	-11379
▁खरेदीदाराच्या	-11380
▁स्वीकारलेल्या	-11381
तान	-11382
लके	-11383
हिम	-11384
▁चॅ	-11385
▁चेह	-11386
▁पीक	-11387
ुल्ला	-11388
▁सोडत	-11389
▁सोडणे	-11390
खान्यात	-11391
▁उत्सुक	-11392
▁कोट्या	-11393
▁समांतर	-11394
▁हुकूमश	-11395
▁ॅडव्हा	-11396
▁टर्मिनल	-11397
▁मेट्रोप	-11398
▁रकमेसाठी	-11399
▁जमातीच्या	-11400
▁नोंदवताना	-11401
▁मुदतीनंतर	-11402
▁मिळविण्यास	-11403
▁लिक्विडेशन	-11404
▁व्यवसायाची	-11405
▁पुनर्प्राप्	-11406
▁संस्थांकडून	-11407
जल	-11408
षेक	-11409
पुरी	-11410
▁चिंत	-11411
▁संकु	-11412
प्रकाश	-11413
▁तुळशी	-11414
▁तेलंग	-11415
▁फील्ड	-11416
▁बुलेट	-11417
▁मानणे	-11418
▁तपासला	-11419
▁मिळवले	-11420
▁मुक्का	-11421
▁खबरदारी	-11422
▁मटेरियल	-11423
▁अमेरिकेत	-11424
▁एजन्सीने	-11425
ल्यानंतरही	-11426
▁शस्त्रक्र	-11427
▁कार्यक्रमा	-11428
▁वाहनांच्या	-11429
▁अपरिवर्तनीय	-11430
विधी	-11431
▁चिथ	-11432
▁नास	-11433
▁मंग	-11434
▁गीता	-11435
▁बिस्	-11436
▁बीआर	-11437
▁स्ना	-11438
कृष्णन	-11439
श्चिती	-11440
▁हवाला	-11441
▁अपमाना	-11442
▁विनिमय	-11443
▁काढलेले	-11444
▁अभियोग्य	-11445
▁मृत्यूला	-11446
▁संस्थेचे	-11447
▁पुरविलेल्या	-11448
▁फिर्यादींचा	-11449
▁मिळाल्यापासून	-11450
पुल	-11451
वीस	-11452
ानु	-11453
▁सल	-11454
स्टॉ	-11455
▁दवा	-11456
▁विर	-11457
▁सूड	-11458
▁कुर्	-11459
▁शेअर	-11460
▁घराचा	-11461
▁वस्ती	-11462
▁एकसमान	-11463
▁ऑफिसरने	-11464
▁चर्चेतून	-11465
▁म्हणायचे	-11466
▁खात्यातून	-11467
▁नियुक्तीस	-11468
▁मृतदेहाचे	-11469
▁पूर्ववर्ती	-11470
▁कबुलीजबाबात	-11471
▁नियमांतर्गत	-11472
▁महिन्यांनंतर	-11473
▁खालीलप्रमाणेः	-11474
▁फेटाळण्यासाठी	-11475
धक	-11476
नॉ	-11477
शर	-11478
मृत	-11479
▁असह	-11480
▁शाश्	-11481
▁सेवन	-11482
मेंट्स	-11483
्यांशी	-11484
▁नसावा	-11485
▁रामजी	-11486
▁दारूगो	-11487
▁पध्दती	-11488
▁याद्या	-11489
्यतिरिक्त	-11490
▁परिभाषेत	-11491
▁सोडण्याचा	-11492
▁शिक्षकांची	-11493
▁न्यायपालिके	-11494
▁मंत्रालयाच्या	-11495
ोबा	-11496
▁शौ	-11497
लाइट	-11498
▁जॉन	-11499
▁दूध	-11500
गोपाल	-11501
ावरून	-11502
▁अडीच	-11503
▁उलगड	-11504
▁मोशन	-11505
▁कन्या	-11506
▁ग्रीन	-11507
▁ढकलले	-11508
▁हुकुमा	-11509
▁मृत्यूचा	-11510
▁स्त्रोता	-11511
▁संविधानाचे	-11512
▁टाकण्याच्या	-11513
ेली	-11514
▁ओत	-11515
प्पर	-11516
▁इक्	-11517
▁लष्	-11518
प्लिक	-11519
▁अय्य	-11520
▁उपकर	-11521
▁क्री	-11522
▁जीएस	-11523
▁बढती	-11524
▁वॉटर	-11525
▁हिरा	-11526
▁अंकित	-11527
▁अर्धा	-11528
▁उघडला	-11529
▁चांदी	-11530
▁पाडली	-11531
▁मेमोर	-11532
▁राहता	-11533
▁चित्रप	-11534
▁मुलीची	-11535
▁शाश्वत	-11536
▁क्वार्ट	-11537
▁पुरविला	-11538
▁एमआरटीपी	-11539
▁दाव्यावर	-11540
▁प्रमाणेच	-11541
▁अस्पष्टता	-11542
▁फायद्याचे	-11543
प्ट	-11544
▁तट	-11545
बाजी	-11546
विते	-11547
▁आजी	-11548
▁दाद	-11549
ओच्या	-11550
▁द्रव	-11551
▁फिंग	-11552
▁कृपया	-11553
▁नेमके	-11554
▁शिमला	-11555
▁आयटीआय	-11556
▁कलमाचे	-11557
▁गैरसोय	-11558
▁पदावरून	-11559
▁एकत्रीकरण	-11560
▁लोकसंख्ये	-11561
▁न्यायालयास	-11562
▁मंजुरीच्या	-11563
▁राज्यघटनेचे	-11564
एफएस	-11565
शन्स	-11566
ुमार	-11567
▁एबी	-11568
▁लोह	-11569
मित्त	-11570
ॉलिटन	-11571
▁इंटरन	-11572
▁टेलिफ	-11573
▁संकलन	-11574
▁एमएलसी	-11575
▁लोकसेव	-11576
▁प्रकृती	-11577
▁अधिकृतता	-11578
▁सुव्यवस्थे	-11579
▁उत्परिवर्तन	-11580
▁शोधण्याच्या	-11581
▁देण्यासंदर्भात	-11582
सागर	-11583
▁ताज	-11584
▁पद्	-11585
▁बुध	-11586
▁शंक	-11587
▁पाडत	-11588
▁शहरा	-11589
▁अल्को	-11590
▁गोपाल	-11591
▁सदनिक	-11592
▁कळविले	-11593
▁चिठ्ठी	-11594
▁वेगाने	-11595
▁डेटेन्यू	-11596
▁अत्याचारा	-11597
▁मालकाद्वारे	-11598
▁परिस्थितीबद्दल	-11599
▁याचिकाकर्त्यां	-11600
▁वैकल्पिकरित्या	-11601
सेन	-11602
बाजू	-11603
र्गा	-11604
ोतंत	-11605
▁आंब	-11606
▁धरणे	-11607
▁बंदि	-11608
▁बोगस	-11609
▁माती	-11610
▁आराखड	-11611
▁जोसेफ	-11612
▁नोएडा	-11613
▁बहुमत	-11614
▁महानि	-11615
▁विपणन	-11616
▁समर्प	-11617
ानुवर्ष	-11618
▁कुलदीप	-11619
▁कॉर्पस	-11620
▁प्राइम	-11621
▁मूर्ती	-11622
ांपूर्वी	-11623
▁तंतोतंत	-11624
▁मुखत्या	-11625
▁विभाजित	-11626
जिस्ट्रेट	-11627
▁एक्सप्रेस	-11628
▁मेट्रोपॉलिटन	-11629
▁अंमलबजावणीनंतर	-11630
इंट	-11631
▁आं	-11632
ॉर्ट	-11633
▁जान	-11634
▁एसबी	-11635
▁औषधे	-11636
▁खाणप	-11637
▁शिवा	-11638
▁इब्रा	-11639
▁जीर्ण	-11640
▁त्वचे	-11641
▁नसावे	-11642
▁सामान	-11643
▁एसएक्स	-11644
▁पालिका	-11645
▁प्रोफे	-11646
▁भरलेले	-11647
▁भावाने	-11648
▁डिलिव्ह	-11649
▁सदस्यता	-11650
▁केल्यापासून	-11651
▁तेव्हापासून	-11652
▁वर्षानुवर्ष	-11653
▁संहितेमध्ये	-11654
▁निकालांमध्ये	-11655
▁युक्तिवादाने	-11656
िग	-11657
▁ओए	-11658
▁चु	-11659
▁आजू	-11660
▁लखी	-11661
▁शिं	-11662
नर्जी	-11663
▁झाडे	-11664
▁स्तर	-11665
्रातील	-11666
▁वीर्य	-11667
▁अडचणीत	-11668
▁मुळाशी	-11669
धारकांना	-11670
▁आजूबाजू	-11671
▁आत्मसात	-11672
▁चिथावणी	-11673
▁मालवाहत	-11674
▁परिणामां	-11675
▁महत्वाचा	-11676
स्क्रिप्शन	-11677
▁आदेशासाठी	-11678
▁कारभारावर	-11679
▁लवादासमोर	-11680
▁संचालनालया	-11681
▁देण्याकरिता	-11682
▁सूचनांनुसार	-11683
▁दाखवण्यासाठी	-11684
लोड	-11685
चीही	-11686
देशी	-11687
शियन	-11688
▁आर्	-11689
▁आईवड	-11690
▁एलपी	-11691
▁पतीचा	-11692
▁स्मार	-11693
▁आल्याने	-11694
▁दोषींना	-11695
▁भरण्यात	-11696
▁पालकांना	-11697
▁अंमलबजावणीचा	-11698
▁गुन्ह्यामध्ये	-11699
▁निरीक्षणाच्या	-11700
तीन	-11701
िरी	-11702
▁ओळ	-11703
कारण	-11704
▁ओसी	-11705
▁बिश	-11706
▁नायर	-11707
▁करुणा	-11708
▁क्लेम	-11709
▁पोटनि	-11710
जानुसार	-11711
मध्येही	-11712
▁अभिप्र	-11713
▁पैलूचा	-11714
▁निवडीची	-11715
▁निवडणूकी	-11716
▁प्रिव्हि	-11717
▁सबमिशनचे	-11718
▁अभिव्यक्त	-11719
▁स्थापनेसाठी	-11720
▁आकारण्याच्या	-11721
▁घेतल्यानुसार	-11722
▁नोंदविण्यासाठी	-11723
कुल	-11724
▁गड	-11725
क्के	-11726
हिया	-11727
▁बैल	-11728
▁वयो	-11729
▁ख्रि	-11730
▁संदि	-11731
▁कच्चा	-11732
▁पत्रक	-11733
▁मूर्त	-11734
▁साक्षा	-11735
▁गैरसोयी	-11736
▁विचारसर	-11737
▁अपमानास्पद	-11738
▁प्रत्यारोप	-11739
▁व्यवहाराचा	-11740
▁हिंदुस्तान	-11741
▁साक्षीदारांचा	-11742
▁महिन्यांपूर्वी	-11743
▁ज्	-11744
▁टेप	-11745
▁पेन	-11746
▁बोथ	-11747
वायचा	-11748
▁बंधू	-11749
▁योनी	-11750
▁वसति	-11751
स्त्या	-11752
▁डीटीए	-11753
▁बौद्ध	-11754
▁अलीकडे	-11755
▁घडल्या	-11756
▁दंडाची	-11757
▁शरीरात	-11758
▁आमंत्रण	-11759
▁कामगारा	-11760
▁पत्राचा	-11761
▁वर्चस्व	-11762
▁विधानाचा	-11763
▁गुणवत्तेत	-11764
▁गुणवत्तेची	-11765
▁सीबीआयच्या	-11766
▁मागासवर्गीय	-11767
▁न्यायाधिकरणाला	-11768
ंसोबत	-11769
▁चंदी	-11770
नावरील	-11771
ेशिवाय	-11772
▁आत्मा	-11773
▁बायको	-11774
▁घोटाळा	-11775
▁दुप्पट	-11776
▁रकमेचे	-11777
्यांमधून	-11778
▁अल्कोहो	-11779
▁टेलिफोन	-11780
▁मालकाची	-11781
▁राज्यास	-11782
▁विवादात	-11783
▁सांगावे	-11784
▁प्रसिद्धी	-11785
▁व्यवसायातील	-11786
▁कागदपत्रांसह	-11787
▁साक्षीदाराचा	-11788
▁भाडेपट्टीच्या	-11789
▁विवेकबुद्धीने	-11790
वशी	-11791
वराज	-11792
ात्म	-11793
▁दंत	-11794
▁पान	-11795
▁आरके	-11796
▁ईमेल	-11797
▁डोंग	-11798
ाबाहेर	-11799
▁तितका	-11800
▁नेमले	-11801
▁थांबले	-11802
▁पीएमएलए	-11803
▁प्रकरणी	-11804
▁मुदतीची	-11805
▁स्क्वेर	-11806
्याद्वारे	-11807
▁किलोमीटर	-11808
▁करण्याकरिता	-11809
▁याचिकांमधील	-11810
▁स्वरुपाच्या	-11811
▁पक्षांद्वारे	-11812
▁वर्षानुवर्षे	-11813
▁घेतल्याप्रमाणे	-11814
▁प्रक्रियेनुसार	-11815
▁एलए	-11816
▁डीई	-11817
▁पीए	-11818
▁पॉल	-11819
▁बेप	-11820
▁लाइ	-11821
पुरती	-11822
▁वाढव	-11823
टीव्ही	-11824
▁जंगला	-11825
▁फार्म	-11826
▁फ्रेम	-11827
▁समतुल	-11828
ांसमवेत	-11829
▁उपासना	-11830
▁तिजोरी	-11831
▁वाहनात	-11832
▁अर्जाचे	-11833
▁टचस्टोन	-11834
▁तारखेचा	-11835
▁विवेचना	-11836
▁आठवड्यां	-11837
▁विषयांवर	-11838
▁अत्याचारी	-11839
▁प्रशिक्षणा	-11840
▁भाडेकरूंना	-11841
थि	-11842
ुत्	-11843
▁इंध	-11844
▁झुक	-11845
▁धान	-11846
▁एलएल	-11847
▁पडणार	-11848
▁मार्श	-11849
▁संस्क	-11850
▁होतेः	-11851
काळातील	-11852
▁मिळताच	-11853
▁असमाधान	-11854
▁कच्च्या	-11855
▁समतुल्य	-11856
▁मुखत्यार	-11857
▁आदेशानंतर	-11858
▁टाकण्याचा	-11859
▁मूलभूतपणे	-11860
▁स्वरुपाचा	-11861
▁कारखान्यात	-11862
▁दावेदारांना	-11863
▁आदेशासंदर्भात	-11864
▁संहितेअंतर्गत	-11865
णाव	-11866
▁आणते	-11867
▁वयोग	-11868
मिनेशन	-11869
स्टिंग	-11870
▁एजेएन	-11871
▁राखणे	-11872
▁डीपीसी	-11873
दाराकडून	-11874
पणाबद्दल	-11875
▁मालकाचा	-11876
▁अपीलार्थ	-11877
▁योजनेतील	-11878
▁लाभासाठी	-11879
▁लेखाच्या	-11880
▁कारखान्या	-11881
▁इंडियाच्या	-11882
▁महाविद्यालयीन	-11883
गढ	-11884
पद	-11885
रसा	-11886
▁भया	-11887
▁कुणी	-11888
▁ताकद	-11889
▁दिसू	-11890
▁नम्र	-11891
▁उंबरठ	-11892
▁कमलेश	-11893
▁फेरबदल	-11894
▁पक्षपात	-11895
▁वाचनावर	-11896
▁वाटल्यास	-11897
▁विक्रीवर	-11898
▁सुब्रमण्य	-11899
▁आरोपींपैकी	-11900
▁प्रयोगशाळे	-11901
▁फॉर्म्युला	-11902
▁कन्सोर्टियम	-11903
▁भ्रष्टाचारा	-11904
▁रजिस्ट्रारकडे	-11905
धु	-11906
ंदन	-11907
ठ्ठ	-11908
▁दीड	-11909
▁नाझ	-11910
▁मेम	-11911
▁शिष	-11912
संचार	-11913
▁रसाय	-11914
▁दरोडे	-11915
▁जळत्या	-11916
▁थांबला	-11917
▁सिंघवी	-11918
▁अपघातात	-11919
▁निष्पाप	-11920
▁प्रसारण	-11921
▁लोकांची	-11922
▁विधानात	-11923
▁फाशीच्या	-11924
▁विक्रीचे	-11925
कर्त्यांनी	-11926
▁लादलेल्या	-11927
▁संस्थांनी	-11928
▁तथ्यानुसार	-11929
▁नोंदविल्या	-11930
▁इन्स्टिट्यूट	-11931
▁यापूर्वीच्या	-11932
▁लेनदारांच्या	-11933
वेज	-11934
ोदा	-11935
टीचे	-11936
▁हीच	-11937
▁नाईक	-11938
▁एएसजी	-11939
▁नांदे	-11940
▁विपुल	-11941
▁अवलोकन	-11942
▁टीक्यू	-11943
▁अपिलाला	-11944
▁गुंतवून	-11945
▁गुणाकार	-11946
▁मद्यपान	-11947
▁गोष्टीवर	-11948
▁समुपदेशक	-11949
▁उद्भवणारी	-11950
▁स्टेशनच्या	-11951
▁सुरुवातीपासूनच	-11952
रेन	-11953
करता	-11954
काशी	-11955
हानी	-11956
▁गोठ	-11957
▁सोह	-11958
्याशी	-11959
▁एनएस	-11960
▁चंदर	-11961
▁पीके	-11962
फॅक्चर	-11963
▁उद्यम	-11964
▁ओळखणे	-11965
▁क्रिम	-11966
▁परिचय	-11967
▁एसआयसी	-11968
▁मुद्या	-11969
▁स्वारस	-11970
▁ऑर्डरवर	-11971
▁स्टॅम्प	-11972
▁आरोपींसह	-11973
▁दूरसंचार	-11974
▁वाढीसाठी	-11975
▁हस्तलेखन	-11976
▁गोष्टींचे	-11977
▁निकालातील	-11978
▁पत्त्यावर	-11979
▁मागणीच्या	-11980
▁प्रश्नांवर	-11981
▁प्रयोगशाळेत	-11982
▁शीर्षकाखाली	-11983
▁नाकारण्याच्या	-11984
▁होण्यापूर्वीच	-11985
▁ट्रिब्यूनलच्या	-11986
▁स्वातंत्र्यावर	-11987
ंपर	-11988
वीन	-11989
▁नॉ	-11990
▁ओएन	-11991
▁छापा	-11992
▁बोथट	-11993
▁मंगल	-11994
▁हेल्	-11995
▁लवादाला	-11996
▁डिटेनिंग	-11997
▁पक्षातील	-11998
▁वरीलपैकी	-11999
▁ॅक्टच्या	-12000
▁इंटरनॅशनल	-12001
▁प्रस्तावना	-12002
▁ज्याप्रमाणे	-12003
▁ठोठावलेल्या	-12004
▁मागितलेल्या	-12005
ॉड	-12006
२५	-12007
भरात	-12008
माही	-12009
ांडी	-12010
▁बसू	-12011
▁ओळखू	-12012
▁देशी	-12013
▁अज्ञा	-12014
▁कमांड	-12015
▁मिल्स	-12016
▁आरोपही	-12017
▁कायमचे	-12018
▁ज्ञाना	-12019
▁आदेशांची	-12020
▁कुटुंबात	-12021
▁बसलेल्या	-12022
्यांद्वारे	-12023
▁प्रशंसनीय	-12024
▁क्षेत्रावर	-12025
▁वापरण्याची	-12026
▁हेतूपूर्वक	-12027
▁अनावश्यकपणे	-12028
▁सदस्यांपैकी	-12029
▁प्रश्नांच्या	-12030
▁योग्यतेनुसार	-12031
▁त्याव्यतिरिक्त	-12032
ोट	-12033
▁हेल	-12034
▁पांढ	-12035
▁आज्ञे	-12036
▁गर्दी	-12037
▁फिंगर	-12038
▁मुरली	-12039
▁अगोदरच	-12040
▁अतिशयो	-12041
▁प्रोसि	-12042
▁बेईमान	-12043
▁व्हावी	-12044
▁कोडच्या	-12045
▁हक्कदार	-12046
▁कोर्टावर	-12047
▁पीडितेचा	-12048
▁प्रविष्ट	-12049
▁भागासाठी	-12050
▁मारण्याचा	-12051
▁उद्भवल्यास	-12052
▁जाण्याच्या	-12053
▁नियुक्तीचा	-12054
▁सार्वत्रिक	-12055
▁मॅन्युफॅक्चर	-12056
सुल	-12057
िनी	-12058
काठी	-12059
ांडा	-12060
▁धाक	-12061
▁युस	-12062
▁टाकू	-12063
▁डम्प	-12064
▁बडगा	-12065
▁सभ्य	-12066
क्युलर	-12067
▁फुफ्फ	-12068
▁मारली	-12069
▁उघडपणे	-12070
▁कॅप्टन	-12071
▁डिग्री	-12072
▁वर्धित	-12073
▁स्कोअर	-12074
▁बॅनर्जी	-12075
▁आरोपाखाली	-12076
▁डिलिव्हरी	-12077
▁दिल्लीतील	-12078
▁नावनोंदणी	-12079
▁अतिशयोक्ती	-12080
▁ग्रामपंचायत	-12081
▁मसुद्याच्या	-12082
▁विश्लेषणासाठी	-12083
▁स्त्रोतांकडून	-12084
सल	-12085
▁जोग	-12086
▁रबर	-12087
▁ट्यू	-12088
▁ट्रॉ	-12089
▁बाबा	-12090
▁जवळचा	-12091
▁ज्योती	-12092
▁येणारा	-12093
▁राज्यस	-12094
▁आरोपांची	-12095
▁वाजेच्या	-12096
▁शुल्काचा	-12097
▁अनुक्रमांक	-12098
▁कायद्यांचा	-12099
▁सांगण्याचा	-12100
▁आश्चर्यकारक	-12101
▁संदर्भासाठी	-12102
▁निकालाद्वारे	-12103
▁पदोन्नतीच्या	-12104
▁व्यवहारासाठी	-12105
▁एसएक्सडब्ल्यू	-12106
▁कायद्यांनुसार	-12107
ढाल	-12108
मोहन	-12109
▁कॅल	-12110
▁सीत	-12111
अरिंग	-12112
क्रीय	-12113
▁बसून	-12114
▁अर्थस	-12115
▁गुलाम	-12116
तेशिवाय	-12117
▁पोहोचू	-12118
▁मुंबईत	-12119
▁रेस्टॉ	-12120
▁आयोगाचे	-12121
▁ज्यातून	-12122
▁पिशव्या	-12123
▁समन्वयक	-12124
▁तरतूदीचा	-12125
▁पाहिल्या	-12126
▁एलडब्ल्यू	-12127
▁निरुपयोगी	-12128
▁सामान्यतः	-12129
▁सुशिक्षित	-12130
▁नाकारण्यास	-12131
▁निरीक्षणासह	-12132
▁व्यवस्थापनाच्या	-12133
कोष	-12134
▁भुव	-12135
▁मुलास	-12136
▁निवेदक	-12137
▁जखमांचे	-12138
▁परिषदेने	-12139
▁प्रोसिजर	-12140
▁फर्मच्या	-12141
▁कायद्याशी	-12142
▁टिप्पण्या	-12143
▁सोडण्याची	-12144
▁बचावामध्ये	-12145
▁तुरुंगवासाची	-12146
▁निष्काळजीपणाने	-12147
▁खिड	-12148
▁बोन	-12149
▁अमीन	-12150
भेच्या	-12151
▁अंतरा	-12152
▁खातून	-12153
▁योगेश	-12154
▁सिग्न	-12155
स्पेक्ट	-12156
▁अजामीन	-12157
▁अनुभवा	-12158
▁अभिषेक	-12159
निर्मिती	-12160
▁जोडलेला	-12161
▁पदच्युत	-12162
▁शनिवारी	-12163
▁संसदेला	-12164
▁आच्छादित	-12165
▁करांच्या	-12166
▁मतदानाचा	-12167
▁माहितीवर	-12168
▁विक्रेते	-12169
▁कारभाराची	-12170
▁निवडणुकीत	-12171
▁मारण्याची	-12172
▁अजामीनपात्र	-12173
▁आवश्यकतेच्या	-12174
▁कॉर्पोरेशनने	-12175
▁दिवसांपेक्षा	-12176
भाऊ	-12177
ल्को	-12178
▁चोर	-12179
▁नील	-12180
▁शंभ	-12181
तांना	-12182
नेच्या	-12183
श्वासा	-12184
▁आश्रय	-12185
▁विलची	-12186
्यास्पद	-12187
▁इंट्रा	-12188
▁नांदेड	-12189
▁पत्राची	-12190
▁संदिग्ध	-12191
▁एफआयआरची	-12192
▁टाकण्याचे	-12193
▁त्याचबरोबर	-12194
▁प्रकरणांचे	-12195
▁परवान्यासाठी	-12196
▁विद्यार्थ्यांची	-12197
▁आश	-12198
▁जमले	-12199
▁बडबड	-12200
▁बसंत	-12201
ळीच्या	-12202
▁पळवून	-12203
▁वाचते	-12204
▁अमान्य	-12205
▁ऐकल्या	-12206
▁बिहारी	-12207
▁क्रॉससे	-12208
▁नोंदविणे	-12209
▁योगेंद्र	-12210
▁त्याकरिता	-12211
▁त्याविषयी	-12212
▁रेस्टॉरंट	-12213
▁लिमिटेडला	-12214
▁पत्रामध्ये	-12215
▁प्रतिवादींचा	-12216
ोवा	-12217
ेट्टी	-12218
▁बदलत	-12219
▁लाईन	-12220
▁कळवले	-12221
▁उलाढाल	-12222
▁महागाई	-12223
▁येणार्	-12224
▁वैधतेला	-12225
▁संतुलित	-12226
▁वकिलांची	-12227
तेसंदर्भात	-12228
▁गुन्ह्यास	-12229
▁कायदेविषयक	-12230
▁तथ्यांनुसार	-12231
▁मुख्यमंत्री	-12232
▁व्यावसायिका	-12233
▁फिर्यादीसाठी	-12234
▁अधिनियमानुसार	-12235
र्फे	-12236
▁रमण	-12237
▁राघ	-12238
▁अकरा	-12239
▁एचयू	-12240
लमध्ये	-12241
लॉजिकल	-12242
ुद्दीन	-12243
▁दहावी	-12244
▁मुलीचा	-12245
▁मृताशी	-12246
▁भरतीच्या	-12247
▁संग्रहित	-12248
▁अधिकाराने	-12249
▁अपीलाच्या	-12250
▁हिंसाचारा	-12251
▁वापरण्याचा	-12252
▁विधानाच्या	-12253
▁संस्थात्मक	-12254
▁हास्यास्पद	-12255
▁समुदायाच्या	-12256
एटर	-12257
लिप	-12258
▁बोध	-12259
▁यथा	-12260
बलपूर	-12261
▁चौथे	-12262
▁जीपी	-12263
▁बीपी	-12264
▁भिंत	-12265
▁डोमेन	-12266
▁येताच	-12267
वामध्ये	-12268
▁इन्फ्रा	-12269
▁तेदेखील	-12270
▁वर्षाचा	-12271
▁करण्याशी	-12272
▁रुग्णाला	-12273
▁निसर्गाने	-12274
▁संस्थांचे	-12275
▁सन्माननीय	-12276
▁इलेक्ट्रिक	-12277
▁सेवांमध्ये	-12278
▁असमाधानकारक	-12279
▁प्रमाणानुसार	-12280
दो	-12281
क्की	-12282
वेली	-12283
▁उंच	-12284
▁उडा	-12285
▁पीई	-12286
▁अमृत	-12287
▁गठीत	-12288
▁टाकी	-12289
▁शैली	-12290
प्रसाद	-12291
▁उचलला	-12292
▁जनावर	-12293
▁पदभार	-12294
▁प्रसू	-12295
▁इक्बाल	-12296
▁एफएसआय	-12297
▁केपीसी	-12298
▁मोहंती	-12299
▁रिक्षा	-12300
▁अतुलनीय	-12301
▁क्वचितच	-12302
▁नाकारतो	-12303
▁पूर्वपर	-12304
▁स्वर्गीय	-12305
▁भुवनेश्वर	-12306
▁तिच्याकडून	-12307
▁प्रकरणातही	-12308
▁रहिवाशांना	-12309
▁लिलावाच्या	-12310
▁गुंतवणूकदार	-12311
▁निष्कर्षावर	-12312
▁सत्यतेबद्दल	-12313
▁घटस्फोटाच्या	-12314
▁व्यक्तींमध्ये	-12315
िझ	-12316
निर	-12317
रिफ	-12318
▁पशु	-12319
▁रँक	-12320
ैय्या	-12321
▁इयत्	-12322
▁जीडी	-12323
▁नंदा	-12324
▁रहावे	-12325
▁विध्व	-12326
▁संभाष	-12327
▁गमावली	-12328
▁कंडक्टर	-12329
▁इच्छामृत	-12330
▁पाहिलेले	-12331
▁भाषेच्या	-12332
ण्याद्वारे	-12333
▁उद्भवणारा	-12334
▁बैठकीच्या	-12335
▁लोकांकडून	-12336
▁सॉफ्टवेअर	-12337
▁डॉक्टरांना	-12338
▁विनंतीवरून	-12339
▁विचारपूर्वक	-12340
▁प्रतिकारशक्ती	-12341
पक्	-12342
ैली	-12343
करोग	-12344
श्चि	-12345
सीएल	-12346
व्हील	-12347
श्वरी	-12348
▁रोकड	-12349
▁सोनू	-12350
▁तीनही	-12351
▁पार्ट	-12352
्यामुळे	-12353
▁टॅक्सी	-12354
▁तलवारी	-12355
▁बांधली	-12356
▁घरासमोर	-12357
▁वातावरण	-12358
▁कुणालाही	-12359
▁दारूच्या	-12360
▁प्रोफेसर	-12361
▁सबमिशनवर	-12362
▁जागांच्या	-12363
▁वाटपासाठी	-12364
▁सोसायटीचे	-12365
▁देखभालीसाठी	-12366
▁परीक्षेसाठी	-12367
ूस	-12368
जात	-12369
तया	-12370
दुर	-12371
▁अद्य	-12372
▁आठवा	-12373
▁इस्प	-12374
▁गरजे	-12375
▁पलंग	-12376
▁राजव	-12377
मतवादी	-12378
▁अनुमा	-12379
▁गैरहजर	-12380
▁डिजिटल	-12381
▁मुलीचे	-12382
▁हत्यार	-12383
▁एकमात्र	-12384
▁कर्करोग	-12385
▁गर्भधार	-12386
▁बँकेकडे	-12387
▁उल्लेखित	-12388
▁नोंदवल्या	-12389
▁लावलेल्या	-12390
▁कर्जदाराने	-12391
▁मांडण्याची	-12392
▁शर्तींच्या	-12393
▁निर्णयावरुन	-12394
▁न्यायालयांची	-12395
▁लॉर्डशिप्सने	-12396
मधे	-12397
▁आरई	-12398
▁कुज	-12399
▁बोर	-12400
गोलिक	-12401
▁उघडली	-12402
▁गिफ्ट	-12403
▁दाखला	-12404
▁भोपाळ	-12405
▁इंटरनेट	-12406
▁भाषांतर	-12407
▁संसाधने	-12408
▁सवलतीचा	-12409
▁काळानंतर	-12410
▁घटनेबद्दल	-12411
▁बजावण्यास	-12412
▁मेमोमध्ये	-12413
▁समभागांचे	-12414
▁तक्रारीतील	-12415
▁तरतुदींकडे	-12416
▁सोन्याच्या	-12417
▁निलंबनाच्या	-12418
▁भाडेपट्ट्या	-12419
▁सुचविलेल्या	-12420
▁वाढविण्याच्या	-12421
▁दर्शविण्यासारखे	-12422
▁अक	-12423
▁ईओ	-12424
टावर	-12425
िबिट	-12426
▁बीओ	-12427
▁समृ	-12428
▁उंचा	-12429
▁टायर	-12430
▁पाईप	-12431
▁रेसि	-12432
▁शेता	-12433
▁प्रां	-12434
▁रूपये	-12435
▁वितरक	-12436
▁अनुरूप	-12437
▁आर्बिट	-12438
▁डिमांड	-12439
▁पूर्वे	-12440
▁येणारे	-12441
▁एनएसईएल	-12442
▁तारखेची	-12443
▁भौगोलिक	-12444
▁शिथिलता	-12445
▁अभिलेखात	-12446
▁मंजुरीचा	-12447
▁दुरुस्त्या	-12448
▁बांधकामाचा	-12449
▁नोंदवण्यासाठी	-12450
▁प्रमाणपत्राच्या	-12451
वरी	-12452
ासीन	-12453
▁फुल	-12454
▁वेड	-12455
▁अनंत	-12456
▁एसएन	-12457
▁भेटा	-12458
करणाचा	-12459
▁अव्यव	-12460
▁चेंबर	-12461
▁ठरवणे	-12462
▁भोगावी	-12463
▁खर्चासह	-12464
▁पाळल्या	-12465
ण्याविषयी	-12466
▁किंमतीचे	-12467
▁ठरविलेले	-12468
▁मतेनुसार	-12469
▁रेल्वेने	-12470
▁जमीनीच्या	-12471
▁राजपत्रित	-12472
▁सदस्यांचे	-12473
▁वर्तमानपत्र	-12474
▁कार्यालयातून	-12475
▁यंत्रसामग्री	-12476
▁आर्थिकदृष्ट्या	-12477
लचक	-12478
▁दौ	-12479
क्रा	-12480
णावर	-12481
ारखीच	-12482
▁एनएम	-12483
▁टाऊन	-12484
▁दोरी	-12485
▁पहात	-12486
▁राणा	-12487
▁रेरा	-12488
▁आधीचे	-12489
▁तपासू	-12490
▁बारावी	-12491
▁संचालन	-12492
▁जमिनीचा	-12493
▁भूसंपाद	-12494
▁विध्वंस	-12495
▁सिव्हील	-12496
▁अकाउंटंट	-12497
▁प्रोफाइल	-12498
▁प्रॅक्टिस	-12499
▁शाळांमध्ये	-12500
हल	-12501
सीन	-12502
शाचा	-12503
▁ठसे	-12504
▁मजु	-12505
▁सोय	-12506
▁एनआर	-12507
▁तासा	-12508
▁दाखव	-12509
▁मिसळ	-12510
▁राजन	-12511
▁वन्य	-12512
▁स्वै	-12513
ोग्राम	-12514
▁सरदार	-12515
▁इस्लाम	-12516
▁कारवार	-12517
▁प्रांत	-12518
▁वृत्ती	-12519
▁अतिक्रम	-12520
▁पीठासीन	-12521
▁वापरलेला	-12522
▁समस्येचे	-12523
▁क्षमतेच्या	-12524
▁पर्यंतच्या	-12525
▁सदस्याच्या	-12526
▁पूर्वग्रहदू	-12527
▁फ्	-12528
▁शॉप	-12529
▁पुरा	-12530
▁ब्रिज	-12531
▁पीडिता	-12532
▁रिकामा	-12533
▁लांबलचक	-12534
▁भावाच्या	-12535
▁वयोगटातील	-12536
▁अपील्समध्ये	-12537
▁अभियोग्याने	-12538
▁काढल्यानंतर	-12539
▁दावेदारांनी	-12540
▁धनादेशाच्या	-12541
▁साक्षीदारास	-12542
▁पेंडन्सीच्या	-12543
बां	-12544
्हो	-12545
शेखर	-12546
▁दाग	-12547
▁बॉम	-12548
▁पूर्	-12549
▁लंडन	-12550
स्थापक	-12551
▁अस्था	-12552
▁दिसली	-12553
▁नेत्र	-12554
▁भयानक	-12555
▁विक्र	-12556
ण्याकडे	-12557
▁एकाधिक	-12558
▁एचयूएफ	-12559
▁चंदीगड	-12560
▁वगळलेले	-12561
▁इब्राहिम	-12562
▁आल्यामुळे	-12563
▁इच्छेच्या	-12564
▁उद्दीष्टा	-12565
▁ॅडव्हान्स	-12566
▁आकारण्याचा	-12567
▁गुणवत्तेचे	-12568
▁ठरविण्याची	-12569
▁प्रिन्सिपल	-12570
▁सुरक्षितता	-12571
▁कामकाजासाठी	-12572
▁विक्रेत्याने	-12573
▁त्यांच्याबरोबर	-12574
मण	-12575
त्क	-12576
मंड	-12577
ेचे	-12578
▁आउट	-12579
भोवती	-12580
सारखा	-12581
▁घट्ट	-12582
▁साधू	-12583
▁स्टी	-12584
ठिकाणी	-12585
▁आयटीए	-12586
▁फारसे	-12587
▁फाळणी	-12588
▁मोहित	-12589
▁वजावट	-12590
▁समूहा	-12591
ोल्यूशन	-12592
▁रिव्हॉ	-12593
▁संकलित	-12594
▁ग्राउंड	-12595
▁नदीच्या	-12596
क्रमाच्या	-12597
▁दिल्याने	-12598
▁रचनात्मक	-12599
▁रिकाम्या	-12600
▁वस्तूंवर	-12601
▁सबमिशनची	-12602
▁नोकरीसाठी	-12603
▁प्रश्नाकडे	-12604
▁शब्दांमध्ये	-12605
▁अभ्यासक्रमां	-12606
▁गुन्हेगारीची	-12607
▁क्रॉससेमिनेशन	-12608
२६	-12609
णीस	-12610
स्टा	-12611
▁गौडा	-12612
▁मेरी	-12613
▁चुकले	-12614
▁टाळणे	-12615
▁मूत्र	-12616
▁लाकडी	-12617
▁हार्ड	-12618
▁अनुसार	-12619
▁गटातील	-12620
▁डुप्लिक	-12621
▁दिवसांचा	-12622
▁पाडण्यात	-12623
▁यादीच्या	-12624
▁तक्रारीवर	-12625
▁पेटंटच्या	-12626
▁शेजारच्या	-12627
▁न्यायपालिका	-12628
▁अभियोग्याच्या	-12629
▁प्राप्तकर्त्या	-12630
▁समुपदेशकाद्वारे	-12631
नन	-12632
फिट	-12633
बुक	-12634
▁अण्	-12635
▁कुर	-12636
▁धडक	-12637
लेंडर	-12638
▁मोफत	-12639
▁यूजी	-12640
एसच्या	-12641
भरातील	-12642
याच्या	-12643
▁चालवू	-12644
▁दाबून	-12645
राष्ट्र	-12646
▁चर्चेत	-12647
▁दाखविला	-12648
▁मनाच्या	-12649
▁अहवालासह	-12650
▁प्रेक्षक	-12651
▁प्रकरणावर	-12652
▁बचावात्मक	-12653
▁अभिलेखातील	-12654
▁आकारणीच्या	-12655
▁कार्यालयाने	-12656
▁कार्यालयाला	-12657
▁गैरव्यवहारा	-12658
▁करण्यापेक्षा	-12659
▁पुनरावलोकनासाठी	-12660
डीओ	-12661
णीवर	-12662
र्वे	-12663
▁जीए	-12664
▁कॉंग	-12665
▁ग्वा	-12666
▁शंभू	-12667
▁सूरत	-12668
परिषदे	-12669
फॉल्टर	-12670
▁डीडची	-12671
▁जेव्ही	-12672
▁परिपक्	-12673
▁मैत्री	-12674
▁संपार्	-12675
▁अपीलांची	-12676
▁नागेंद्र	-12677
▁माहितीची	-12678
▁वाक्यांश	-12679
▁विवादाचे	-12680
▁चिडलेल्या	-12681
▁खनिजांच्या	-12682
▁घटनापीठाने	-12683
▁ओळखण्यासाठी	-12684
▁प्रॉस्पेक्ट	-12685
▁योजनेअंतर्गत	-12686
▁फिर्यादींकडून	-12687
▁पुराव्यांविषयी	-12688
▁पूर्वग्रहदूषित	-12689
▁न्यायपालिकेच्या	-12690
गीर	-12691
▁छि	-12692
▁रड	-12693
▁एनए	-12694
▁बुड	-12695
▁भूग	-12696
▁भट्ट	-12697
▁भरणा	-12698
▁जहाजा	-12699
▁कृतीचा	-12700
▁चौकटीत	-12701
▁जाणकार	-12702
▁डायरीत	-12703
▁पीएसआय	-12704
▁बहादूर	-12705
▁वर्क्स	-12706
▁सीमांकन	-12707
▁घटनास्थळ	-12708
▁पक्षाकडे	-12709
▁अभिप्राया	-12710
▁कार्यवाहक	-12711
▁कर्तव्याचा	-12712
▁चालविण्यात	-12713
▁स्टेटमेन्ट	-12714
▁देण्यापासून	-12715
▁संपार्श्विक	-12716
▁मिळवण्याच्या	-12717
▁उत्तरदायित्वा	-12718
▁पुराव्यांमधील	-12719
लु	-12720
ंडे	-12721
लाइ	-12722
▁उच	-12723
द्री	-12724
ुदेव	-12725
ृत्य	-12726
▁चिर	-12727
मुळेच	-12728
स्वाल	-12729
▁सारणी	-12730
▁घेणारे	-12731
▁बनविली	-12732
▁मीडिया	-12733
▁हलविला	-12734
▁विषयाची	-12735
ण्याबद्दल	-12736
▁दिनांकित	-12737
▁बँकेकडून	-12738
▁बिल्डर्स	-12739
▁राजकुमार	-12740
▁निष्क्रीय	-12741
▁घेण्याऐवजी	-12742
▁प्रतिनिधींच्या	-12743
प्पल	-12744
लाइन	-12745
▁अंज	-12746
▁अवध	-12747
▁देब	-12748
िकेशन	-12749
▁गायी	-12750
▁चावी	-12751
▁दयाल	-12752
▁लिफा	-12753
देश्वर	-12754
▁जातीय	-12755
▁सैन्य	-12756
▁इयत्ता	-12757
▁दिवसात	-12758
▁राजकार	-12759
▁अवलंबली	-12760
▁मिळणारे	-12761
▁हाऊसिंग	-12762
▁अपमानजनक	-12763
▁अहवालाचे	-12764
▁तरतुदीची	-12765
▁आरक्षणाची	-12766
▁आवृत्तीचे	-12767
▁विधानसभेने	-12768
▁स्कायस्क्र	-12769
▁ठेवण्याबाबत	-12770
▁अपरिहार्यपणे	-12771
▁युक्तिवादाची	-12772
▁राज्यपालांनी	-12773
राई	-12774
राग	-12775
लाश	-12776
श्री	-12777
▁निग	-12778
▁ॅडल	-12779
वाकां	-12780
▁कॉमन	-12781
▁बिगर	-12782
▁हकाल	-12783
▁गुलाब	-12784
▁बलराम	-12785
▁रहमान	-12786
ंबरोबरच	-12787
त्कृष्ट	-12788
लक्ष्मी	-12789
▁घटकांची	-12790
▁धमकावले	-12791
▁लॉर्ड्स	-12792
▁संप्रेष	-12793
▁तारखांना	-12794
▁घालण्याचा	-12795
▁जामीनपत्र	-12796
▁हकालपट्टी	-12797
▁दर्शविणार्	-12798
▁ज्याच्याकडे	-12799
▁भागधारकांना	-12800
▁निरीक्षकांनी	-12801
कर्स	-12802
▁गुं	-12803
▁हबी	-12804
हल्ली	-12805
▁एनबी	-12806
▁गुरू	-12807
मध्येच	-12808
▁आधीचा	-12809
▁जन्मा	-12810
▁महादेव	-12811
▁मालाची	-12812
▁सोयीचे	-12813
▁हुकूमशहा	-12814
▁रिटर्निंग	-12815
▁सुरूवातीस	-12816
▁कारणांच्या	-12817
एक्सएक्सएक्स	-12818
▁रेकॉर्डवरून	-12819
▁व्यापलेल्या	-12820
▁सुविधांच्या	-12821
▁प्रिस्क्रिप्शन	-12822
▁ऊस	-12823
किया	-12824
ाकार	-12825
र्सची	-12826
▁पीआय	-12827
▁बालो	-12828
▁संगन	-12829
▁अंत्य	-12830
▁नृत्य	-12831
▁पावडर	-12832
▁भेटला	-12833
्युनलने	-12834
▁अचूकता	-12835
▁उलटसुल	-12836
▁ड्रॉवर	-12837
▁पुरवले	-12838
▁वादीचा	-12839
▁शिक्के	-12840
▁क्रूरता	-12841
▁पत्नीची	-12842
▁पुनर्वस	-12843
▁ऐकण्याची	-12844
▁तरतूदीची	-12845
▁दारूगोळा	-12846
▁नावाखाली	-12847
▁पाडण्यास	-12848
▁कोळशाच्या	-12849
▁फेटाळल्या	-12850
▁मृतदेहावर	-12851
▁रेकॉर्डचा	-12852
▁बजावण्याचे	-12853
▁पद्धतीनुसार	-12854
▁न्यायशास्त्रा	-12855
▁न्यायालयांमध्ये	-12856
ायोग	-12857
ोद्ध	-12858
▁डुम	-12859
▁नजी	-12860
▁रमा	-12861
▁हिर	-12862
न्नाथ	-12863
▁कन्ह	-12864
▁ब्ले	-12865
▁हर्ड	-12866
उद्दीन	-12867
▁जोडून	-12868
▁मेंदू	-12869
▁समजली	-12870
▁सर्जन	-12871
▁सुपौल	-12872
▁विषयात	-12873
▁कर्जाचे	-12874
▁कॉंग्रेस	-12875
▁पाण्याचा	-12876
▁रोजंदारी	-12877
▁समलैंगिक	-12878
▁खंडपीठाला	-12879
▁जीर्णोद्ध	-12880
▁मान्यतेने	-12881
▁मार्गदर्श	-12882
▁कारणाशिवाय	-12883
▁देशांमध्ये	-12884
▁परिस्थितीला	-12885
▁कर्जदाराच्या	-12886
वम	-12887
ठाण	-12888
▁दिल	-12889
▁एकटा	-12890
▁कोमल	-12891
▁मानू	-12892
▁लवचिक	-12893
▁डिप्लो	-12894
▁असाधारण	-12895
▁उलटसुलट	-12896
▁विषयाशी	-12897
▁स्पेक्ट	-12898
▁उद्भवणार	-12899
▁एक्झिबिट	-12900
▁तरतूदीचे	-12901
▁साक्षात्	-12902
▁तरतुदींशी	-12903
▁त्याखेरीज	-12904
▁दुर्लक्षा	-12905
▁विचारसरणी	-12906
▁पुनर्स्थाप	-12907
▁प्रतिष्ठित	-12908
▁सूचनांच्या	-12909
▁बनविण्याच्या	-12910
बीन	-12911
▁थॉ	-12912
▁तसा	-12913
▁पेड	-12914
लमधून	-12915
▁आयएम	-12916
▁फ्री	-12917
▁बेनि	-12918
▁मामा	-12919
▁रजनी	-12920
▁संपत	-12921
▁सेटल	-12922
गारावर	-12923
▁इस्मा	-12924
▁घड्या	-12925
▁धर्ती	-12926
▁भवानी	-12927
▁मियां	-12928
▁सिनेमा	-12929
▁तुमच्या	-12930
▁तेलंगणा	-12931
▁बेकायदा	-12932
▁मालकाचे	-12933
▁सचिवालय	-12934
▁रुपयांचे	-12935
▁तासांच्या	-12936
▁त्याखालील	-12937
▁बनविण्यात	-12938
▁रोखण्याचा	-12939
▁स्वयंसेवी	-12940
▁निष्कर्षात	-12941
▁प्रतिसाददार	-12942
▁त्याच्यावरील	-12943
▁सर्वोत्कृष्ट	-12944
▁अनियंत्रितपणे	-12945
▁दुरुस्तीद्वारे	-12946
घ्	-12947
िव	-12948
चेरी	-12949
पीने	-12950
सामी	-12951
▁तिर	-12952
पदावर	-12953
▁शेखर	-12954
्याकडे	-12955
▁सिंचन	-12956
▁घटनेवर	-12957
▁घराकडे	-12958
▁डिक्शन	-12959
▁ड्यूटी	-12960
ांमार्फत	-12961
▁घटकांना	-12962
▁चाचणीचा	-12963
▁डम्पिंग	-12964
▁दरवर्षी	-12965
▁प्रांता	-12966
डब्ल्यूपी	-12967
▁कारणांची	-12968
▁डोक्याला	-12969
▁रचल्याचा	-12970
▁देयकाच्या	-12971
▁विधिमंडळात	-12972
▁साक्षात्कार	-12973
▁स्थानांतरित	-12974
▁दर्शविण्याचा	-12975
▁निष्कर्षांना	-12976
खेड	-12977
ज्जा	-12978
लीही	-12979
▁पुस	-12980
▁वाघ	-12981
▁शशी	-12982
▁शिर	-12983
दानंद	-12984
साहेब	-12985
्यासह	-12986
▁ठरवत	-12987
▁परवड	-12988
▁बहुत	-12989
▁बारका	-12990
▁सहरसा	-12991
▁आकारात	-12992
▁कोणाचा	-12993
▁भागाचे	-12994
▁हेतूची	-12995
▁आल्याची	-12996
▁पुढाकार	-12997
▁संस्कृत	-12998
▁जीवनातील	-12999
▁निवडीसाठी	-13000
▁दर्शविणारे	-13001
▁दर्शविताना	-13002
▁दाव्यासाठी	-13003
▁निकालासाठी	-13004
▁प्रत्येकजण	-13005
▁मिळाल्याचा	-13006
▁शब्दांच्या	-13007
▁अभियोगाच्या	-13008
▁पाठविण्याची	-13009
▁प्रतिसाददात	-13010
▁कायद्याबद्दल	-13011
▁कार्यवाहीतील	-13012
▁गुंतवणूकीच्या	-13013
चं	-13014
ोभ	-13015
▁हड	-13016
▁कुश	-13017
▁सवय	-13018
ांतील	-13019
▁टांग	-13020
▁आरएसए	-13021
▁इतरही	-13022
▁लागवड	-13023
▁विकला	-13024
▁्याने	-13025
न्सच्या	-13026
▁एकात्म	-13027
▁निरोगी	-13028
▁सीडीआर	-13029
▁कृतीतून	-13030
▁परिश्रम	-13031
▁वाचलेले	-13032
▁आयोगाकडे	-13033
▁बारकाईने	-13034
▁भाडेपट्ट	-13035
▁मुदतवाढी	-13036
▁लिहिलेली	-13037
▁शोधाच्या	-13038
▁परीक्षेचा	-13039
▁बहाण्याने	-13040
▁प्राथमिकता	-13041
▁कारभारासाठी	-13042
▁आत्मविश्वासा	-13043
▁प्रतिज्ञापत्रे	-13044
▁विद्यार्थ्यांनी	-13045
गौ	-13046
ॅपर	-13047
शिया	-13048
▁संभ	-13049
▁सभे	-13050
▁उद्द	-13051
▁बळकट	-13052
▁बांग	-13053
▁भोला	-13054
▁येणा	-13055
▁लागत	-13056
▁होणा	-13057
▁फाउंड	-13058
▁मांझी	-13059
▁अररिया	-13060
▁गुंडाळ	-13061
▁व्हावे	-13062
▁अथॉरिटी	-13063
▁नोटीसची	-13064
▁पोहोचली	-13065
▁बहुतांश	-13066
▁बेपत्ता	-13067
▁योगायोग	-13068
▁हातांनी	-13069
▁बांधकामे	-13070
▁अनैसर्गिक	-13071
▁कामगिरीची	-13072
▁धर्मेंद्र	-13073
▁पाठविल्या	-13074
▁लिमिटेडचे	-13075
▁विधानमंडळ	-13076
▁पदोन्नतीचा	-13077
▁शेअर्सच्या	-13078
▁ट्रान्समिशन	-13079
▁निरीक्षणाचा	-13080
▁व्यक्तींसाठी	-13081
▁सोडविण्यासाठी	-13082
▁पुरस्कारामध्ये	-13083
परी	-13084
ोबत	-13085
▁डॅ	-13086
▁केके	-13087
▁पर्स	-13088
▁बैला	-13089
▁मुंग	-13090
▁अय्यर	-13091
▁एक्झी	-13092
▁रायफल	-13093
▁ऑस्ट्र	-13094
▁प्रतीक	-13095
▁इस्माईल	-13096
▁रुपांतर	-13097
कार्यक्षम	-13098
▁योग्यपणे	-13099
▁व्यापार्	-13100
▁वर्षाकाठी	-13101
▁घेतल्याच्या	-13102
▁त्यादरम्यान	-13103
▁प्रत्युत्तर	-13104
▁लवादाद्वारे	-13105
▁समाप्तीच्या	-13106
▁राज्यपालांच्या	-13107
पेट	-13108
ेतून	-13109
▁नको	-13110
▁रेफ	-13111
हाय्य	-13112
▁करात	-13113
▁ध्रु	-13114
▁सनदी	-13115
▁काबीर	-13116
▁धान्य	-13117
▁भाडेत	-13118
▁महिना	-13119
▁मेव्ह	-13120
▁वॉर्ड	-13121
▁संमेल	-13122
कामध्ये	-13123
तेपासून	-13124
▁आरोपीं	-13125
▁क्रीडा	-13126
▁शकणार्	-13127
तेपेक्षा	-13128
▁गोष्टीस	-13129
▁दोषपूर्ण	-13130
▁बरोबरीने	-13131
▁यापेक्षा	-13132
▁शर्तींचे	-13133
▁अर्जाद्वारे	-13134
▁पक्षाद्वारे	-13135
▁महानिरीक्षक	-13136
▁विद्यापीठाला	-13137
▁पक्षांदरम्यान	-13138
रेट	-13139
झिया	-13140
टींग	-13141
त्वा	-13142
पोटी	-13143
▁इरा	-13144
▁पध्	-13145
▁मॅड	-13146
द्वार	-13147
▁आढळत	-13148
▁पठाण	-13149
▁बीसी	-13150
▁सूचक	-13151
▁कॅम्प	-13152
▁प्रबळ	-13153
▁प्लेन	-13154
▁फारसा	-13155
▁रोखली	-13156
▁00,000	-13157
▁आयपीएल	-13158
▁केव्हा	-13159
▁नगरसेव	-13160
▁रामपूर	-13161
▁वाढवता	-13162
▁नैतिकता	-13163
▁पक्षकार	-13164
▁उपायांचा	-13165
▁डिक्शनरी	-13166
▁करारामधील	-13167
▁कामकाजाची	-13168
▁शिस्तबद्ध	-13169
▁अकार्यक्षम	-13170
▁आदेशामध्ये	-13171
▁कंपन्यांचे	-13172
▁नियोक्ताने	-13173
▁पाणीपुरवठा	-13174
▁अपीलांमध्ये	-13175
▁अभ्यासक्रमा	-13176
▁केल्याखेरीज	-13177
▁कौन्सिलच्या	-13178
▁मान्यतेच्या	-13179
घाट	-13180
▁उभ	-13181
क्कर	-13182
त्रे	-13183
ारीत	-13184
▁ओपन	-13185
▁शफी	-13186
▁हेर	-13187
▁आयआर	-13188
▁इंधन	-13189
▁उगार	-13190
▁क्रा	-13191
▁नव्व	-13192
▁पीबी	-13193
ल्याने	-13194
▁अगदीच	-13195
▁आपणास	-13196
▁पध्दत	-13197
▁घटनेशी	-13198
▁दुर्गम	-13199
▁मागोवा	-13200
▁ओळखपत्र	-13201
▁जागांवर	-13202
▁पोटनिवड	-13203
▁मागच्या	-13204
▁मृतांचा	-13205
▁वेतनवाढ	-13206
▁समर्पित	-13207
▁कार्यालये	-13208
▁जोडण्याची	-13209
▁पात्रतेची	-13210
▁अपघातामुळे	-13211
▁एक्स्प्रेस	-13212
▁नोंदीनुसार	-13213
▁पुराव्यानि	-13214
▁महत्वाच्या	-13215
▁हॉटेलमध्ये	-13216
▁पाहण्यासाठी	-13217
▁यंत्रणेच्या	-13218
▁वगळण्यासाठी	-13219
▁आठवड्यांनंतर	-13220
▁तहसीलदारांनी	-13221
▁निष्काळजीपणा	-13222
▁रिव्हॉल्व्हर	-13223
▁समुपदेशकांनी	-13224
रियन	-13225
▁तिघ	-13226
▁अपूर	-13227
▁रिंग	-13228
▁सिया	-13229
आरटीसी	-13230
▁अदालत	-13231
▁कागदज	-13232
▁नव्वद	-13233
▁शोधला	-13234
▁इंदिरा	-13235
▁जणांनी	-13236
▁मध्येच	-13237
▁कमिशनची	-13238
▁जगन्नाथ	-13239
▁थांबवले	-13240
▁धर्तीवर	-13241
▁प्राचीन	-13242
▁बसस्थान	-13243
▁काबीरधाम	-13244
▁डिप्लोमा	-13245
▁बीआयएफआर	-13246
▁रुपयांचा	-13247
▁कमिशनसाठी	-13248
▁कामकाजावर	-13249
▁विभागाकडे	-13250
▁अनधिकृतपणे	-13251
चरल	-13252
ड्स	-13253
नोद	-13254
▁अनौ	-13255
▁ईएस	-13256
ंट्रो	-13257
▁वायू	-13258
▁आरएफए	-13259
▁उलाढा	-13260
▁घालता	-13261
▁निवडक	-13262
▁भेटले	-13263
▁उदासीन	-13264
▁वाढवणे	-13265
▁अस्थायी	-13266
▁अविवाहित	-13267
▁कागदजत्र	-13268
▁मजल्यावर	-13269
▁भाडेतत्त्	-13270
▁व्यापकपणे	-13271
▁सुरुवातीस	-13272
▁विद्यापीठे	-13273
▁निर्णयानंतर	-13274
▁कार्यालयातील	-13275
▁पाहिल्यानंतर	-13276
▁बांधण्यासाठी	-13277
ॉय	-13278
झार	-13279
▁सेक	-13280
ोत्तम	-13281
▁सुधा	-13282
▁अप्पा	-13283
▁उड्डा	-13284
▁खन्ना	-13285
▁निदान	-13286
▁पिल्ल	-13287
▁विरघळ	-13288
संस्कार	-13289
▁अवस्थे	-13290
▁भाषेचा	-13291
▁म्हणते	-13292
▁रेखांक	-13293
▁व्हिसा	-13294
▁संघाने	-13295
▁सिग्नल	-13296
▁प्रवाहा	-13297
▁बाबींकडे	-13298
▁स्टेशनचे	-13299
▁बोलण्याची	-13300
▁शोधण्याचा	-13301
▁उंबरठ्यावर	-13302
▁दर्शविणारा	-13303
▁विधानानुसार	-13304
▁सदस्यांद्वारे	-13305
▁ट्रेडमार्कच्या	-13306
▁प्रोव्हिसोच्या	-13307
▁इर	-13308
मिया	-13309
▁अमू	-13310
गृहात	-13311
▁गोपी	-13312
▁डीआय	-13313
▁मिसक	-13314
▁रेशन	-13315
▁आत्ता	-13316
▁परमिट	-13317
▁पोचले	-13318
▁प्रभु	-13319
▁मनाने	-13320
▁स्टार	-13321
▁कितीही	-13322
▁टीआयपी	-13323
▁निर्मल	-13324
▁ब्रिटी	-13325
▁भागाला	-13326
▁टाकण्यास	-13327
▁दिल्याचे	-13328
▁मंजुरीची	-13329
▁करारामुळे	-13330
▁परवानगीने	-13331
▁वीजपुरवठा	-13332
▁क्षेत्राला	-13333
▁पर्यवेक्षक	-13334
▁स्वायत्तता	-13335
▁अंत्यसंस्कार	-13336
केट	-13337
कोर	-13338
▁किन	-13339
▁मुस	-13340
कृतिक	-13341
पत्या	-13342
ामधील	-13343
्युलर	-13344
▁आहात	-13345
▁गप्प	-13346
▁गुणक	-13347
▁बीजी	-13348
▁वरुन	-13349
▁वाहक	-13350
र्याने	-13351
▁जयपूर	-13352
▁पाडला	-13353
▁बाबती	-13354
▁लावतो	-13355
▁सहावा	-13356
▁सेक्टर	-13357
▁उपेंद्र	-13358
▁प्रश्नात	-13359
▁सहसंचालक	-13360
▁सापडलेले	-13361
▁दुकानातून	-13362
▁वाचनाखाली	-13363
▁समुपदेशकाच्या	-13364
▁पदोन्नतीद्वारे	-13365
▁भ्रष्टाचाराच्या	-13366
ळव	-13367
संप	-13368
मतरी	-13369
लावर	-13370
▁करण	-13371
▁हरव	-13372
दुर्ग	-13373
▁आलोक	-13374
▁ओतून	-13375
▁जुळत	-13376
▁शकता	-13377
▁होऊन	-13378
▁राठोड	-13379
▁वापरु	-13380
▁बाळगली	-13381
▁साक्षर	-13382
▁अक्षम्य	-13383
▁एनसीटीई	-13384
▁डिस्टिल	-13385
▁बौद्धिक	-13386
▁मिळणार्	-13387
▁विभागणी	-13388
▁स्क्रीन	-13389
▁सदस्यत्व	-13390
▁अनौपचारिक	-13391
▁परिणामाचा	-13392
▁प्राधिकृत	-13393
▁बदलण्यासाठी	-13394
धू	-13395
रम	-13396
एनसी	-13397
▁सभो	-13398
▁हंस	-13399
िकल्स	-13400
▁टाळा	-13401
▁विंड	-13402
▁करूया	-13403
▁सुमित	-13404
▁कानपूर	-13405
▁जंगलात	-13406
▁वाचनात	-13407
▁संस्कार	-13408
▁ऑपरेशन्स	-13409
▁भूमिकेचा	-13410
▁चारित्र्य	-13411
▁नेहमीच्या	-13412
▁उत्पन्नावर	-13413
▁ठरविण्याचे	-13414
▁अभ्यासाच्या	-13415
▁दुरुस्तीनंतर	-13416
▁प्रतिनिधींनी	-13417
धव	-13418
ंजय	-13419
जगीर	-13420
▁जना	-13421
▁शाम	-13422
▁चंडी	-13423
▁ताळे	-13424
▁संस्	-13425
▁उतारा	-13426
▁लिपीक	-13427
▁गुलाबी	-13428
▁घराजवळ	-13429
▁परमजीत	-13430
▁पुरातन	-13431
▁शेवटचे	-13432
▁स्नायू	-13433
▁अनुक्रम	-13434
▁कॅलेंडर	-13435
▁घटकांचे	-13436
▁जांजगीर	-13437
▁मुलांची	-13438
▁सेवांचा	-13439
▁खोलीच्या	-13440
▁पोस्टिंग	-13441
▁संस्थेची	-13442
ण्यापेक्षा	-13443
▁दावेदारास	-13444
▁बनविण्यास	-13445
▁बहिणीच्या	-13446
▁सोसायटीला	-13447
▁कायद्यांमध्ये	-13448
▁सुनावणीदरम्यान	-13449
यान	-13450
एफआय	-13451
ॅकेट	-13452
▁सूच	-13453
पच्या	-13454
▁खसरा	-13455
▁जोडप	-13456
▁पीटी	-13457
▁बनतो	-13458
▁राइट	-13459
▁ईएसआय	-13460
▁कन्नड	-13461
▁धमतरी	-13462
▁शत्रू	-13463
▁स्लिप	-13464
▁कलमाची	-13465
▁मानतात	-13466
▁सहयोगी	-13467
▁हाताला	-13468
▁इन्व्हे	-13469
▁फेडरेशन	-13470
▁बंदिस्त	-13471
▁बाहेरून	-13472
▁सीताराम	-13473
▁सुटकेचा	-13474
▁गुणांच्या	-13475
▁पूर्वसूचक	-13476
▁हुंड्याची	-13477
▁स्थितीच्या	-13478
▁निर्णयावरही	-13479
▁शस्त्रक्रिया	-13480
निंग	-13481
बांध	-13482
ोच्छ	-13483
▁स्फ	-13484
▁डीके	-13485
▁शंभर	-13486
▁समतो	-13487
▁साधे	-13488
▁प्रदी	-13489
▁फोनवर	-13490
▁बनतात	-13491
▁मानके	-13492
▁लॅबोर	-13493
▁अमूर्त	-13494
▁बहादुर	-13495
▁भरलेला	-13496
▁भास्कर	-13497
▁शेट्टी	-13498
▁सोप्या	-13499
्यांवरील	-13500
▁अलीकडेच	-13501
▁आयोगाला	-13502
▁आल्याचा	-13503
▁उपयोगात	-13504
▁घोषणेवर	-13505
▁तरतुदीत	-13506
▁सॅंट्रो	-13507
▁उपाध्याय	-13508
▁मांडणारे	-13509
▁मॅनेजिंग	-13510
▁म्हणूनही	-13511
▁बाजारपेठे	-13512
▁राज्याकडे	-13513
▁शिक्षकेतर	-13514
▁सदस्यांसह	-13515
▁क्षेत्राशी	-13516
▁दिवसापासून	-13517
▁फसवणूकीच्या	-13518
▁सोडण्याच्या	-13519
▁याचिकाकर्त्यासह	-13520
िसे	-13521
▁फळ	-13522
त्वे	-13523
▁भाई	-13524
▁घाबर	-13525
▁माहे	-13526
▁दिवाण	-13527
▁प्रथे	-13528
▁उजवीकडे	-13529
▁गुणांची	-13530
▁चारित्र	-13531
▁चालविणे	-13532
▁शांतपणे	-13533
काविरूद्ध	-13534
▁गोष्टीचे	-13535
▁दिल्यावर	-13536
▁प्रवेशास	-13537
▁फाउंडेशन	-13538
▁बालकृष्ण	-13539
▁मुख्यालय	-13540
▁विवेकाचा	-13541
▁शिवकुमार	-13542
▁पातळीवरील	-13543
▁श्वासोच्छ	-13544
▁अनुदानाच्या	-13545
▁पुरस्काराला	-13546
▁विक्रेत्यास	-13547
▁निष्कर्षांमध्ये	-13548
▁तं	-13549
सेना	-13550
स्ते	-13551
▁उशि	-13552
▁कोय	-13553
▁नवा	-13554
जच्या	-13555
▁0000	-13556
▁कपिल	-13557
▁कोरे	-13558
▁जाधव	-13559
▁जिवे	-13560
▁मागू	-13561
प्रकार	-13562
▁छिद्र	-13563
▁पाळणे	-13564
▁आढळतात	-13565
▁आयएलआर	-13566
▁ठरवावे	-13567
▁पदव्या	-13568
व्याच्या	-13569
▁आईवडिला	-13570
▁पध्दतीने	-13571
▁भरण्याचा	-13572
▁आरडब्ल्यू	-13573
▁मंडळासमोर	-13574
▁वैधतेच्या	-13575
▁शासनाकडून	-13576
▁सुविधांचा	-13577
▁देण्याऐवजी	-13578
▁निर्णयाविरूद्ध	-13579
▁आलो	-13580
▁चिट	-13581
▁जाव	-13582
▁टोल	-13583
▁नसी	-13584
▁निम	-13585
▁विम	-13586
ध्याप	-13587
▁अभिन	-13588
▁डीएम	-13589
▁मुंडा	-13590
▁वैद्य	-13591
▁एपेक्स	-13592
▁बांधून	-13593
▁भरलेली	-13594
▁वाचतात	-13595
▁आधारभूत	-13596
▁आर्बिट्र	-13597
▁बाळकृष्ण	-13598
▁साक्षीला	-13599
▁वाजताच्या	-13600
▁वाटपाच्या	-13601
▁प्रदेशच्या	-13602
▁कल्पनाशक्ती	-13603
▁प्रक्रियेला	-13604
▁नूतनीकरणासाठी	-13605
फ्र	-13606
रची	-13607
जाती	-13608
निकल	-13609
▁एस्	-13610
▁घाट	-13611
▁पिक	-13612
मिश्र	-13613
वताना	-13614
वायची	-13615
ितीने	-13616
पदार्थ	-13617
समध्ये	-13618
▁जागीच	-13619
▁टाकता	-13620
▁ड्रग्	-13621
▁प्रभू	-13622
▁मिळणे	-13623
▁अवस्था	-13624
▁कामाचा	-13625
▁कायमचा	-13626
▁हिसकाव	-13627
▁घटकांवर	-13628
▁बसमध्ये	-13629
▁म्हणाली	-13630
▁लिलावात	-13631
▁कार्यभार	-13632
▁केमिकल्स	-13633
▁रामेश्वर	-13634
▁सूचनांचे	-13635
▁घेण्याजोग	-13636
▁तरतुदींसह	-13637
▁अर्जदाराचे	-13638
▁महिलांच्या	-13639
▁रिझोल्यूशन	-13640
▁नेमणुकीसाठी	-13641
▁मालमत्तांचे	-13642
▁मृत्यूदंडाची	-13643
▁रुग्णालयाच्या	-13644
▁सिद्धांताच्या	-13645
▁अधिनियमाद्वारे	-13646
घोष	-13647
जिल	-13648
▁तब	-13649
मालक	-13650
ळाला	-13651
▁सुध	-13652
वानंद	-13653
▁जुनी	-13654
▁धरली	-13655
▁पुरी	-13656
▁मदुर	-13657
ण्याला	-13658
▁चिंटू	-13659
▁बाधित	-13660
▁मक्ते	-13661
▁घेतलाः	-13662
▁पुरवणी	-13663
▁वर्सेस	-13664
▁सीएलबी	-13665
▁असमानता	-13666
▁धोरणाचे	-13667
▁मोकळ्या	-13668
▁चिन्हाचा	-13669
▁प्रक्षेप	-13670
▁बदलण्यात	-13671
▁समानतेचा	-13672
▁सर्वाधिक	-13673
दाराद्वारे	-13674
▁किशोरवयीन	-13675
▁मुख्यत्वे	-13676
▁अर्थानुसार	-13677
▁अर्जदारासाठी	-13678
▁उल्लेखलेल्या	-13679
▁प्रकरणांमधील	-13680
▁सिक्युरिटीकरण	-13681
▁महाविद्यालयाने	-13682
गरा	-13683
हीर	-13684
वर्स	-13685
▁जाम	-13686
▁सेफ	-13687
लमिया	-13688
▁टीआर	-13689
▁रोशन	-13690
▁वाजे	-13691
▁कडेला	-13692
▁कराची	-13693
▁दरावर	-13694
▁नायडू	-13695
▁संयोज	-13696
▁अपिलास	-13697
▁एनएमएस	-13698
▁जजमेंट	-13699
▁रंगाचा	-13700
▁करमणुकी	-13701
▁कराराला	-13702
▁पक्षावर	-13703
▁मुलांचे	-13704
▁यूआयडीए	-13705
▁शांततेत	-13706
▁सोपविली	-13707
▁असण्याचे	-13708
▁त्रिवेदी	-13709
▁दृश्यमान	-13710
▁वाहनचालक	-13711
▁सापडल्या	-13712
▁धर्माच्या	-13713
▁मक्तेदारी	-13714
▁स्वीकारून	-13715
▁अभियोग्यास	-13716
▁धोरणानुसार	-13717
▁भूखंडाच्या	-13718
▁प्रत्येकाने	-13719
▁अधिकारामध्ये	-13720
▁स्वरूपामध्ये	-13721
▁नूतनीकरणाच्या	-13722
▁स्वीकारण्याचे	-13723
▁शत	-13724
द्वि	-13725
प्लॉ	-13726
▁एलओ	-13727
▁कुच	-13728
▁धरू	-13729
▁मल्	-13730
▁जुने	-13731
▁भूमि	-13732
▁रेंज	-13733
कीच्या	-13734
▁अडथळे	-13735
▁उशिरा	-13736
▁कमिटी	-13737
▁पाठवू	-13738
▁पोटात	-13739
▁एसआयटी	-13740
▁तितकाच	-13741
▁मिळावे	-13742
▁शिपिंग	-13743
▁महिलेने	-13744
▁शब्दकोष	-13745
▁संप्रदा	-13746
▁बजावल्या	-13747
▁संतुष्टि	-13748
▁उल्लंघनात	-13749
▁क्षेत्रफळ	-13750
▁चंद्रशेखर	-13751
▁पात्रतेचे	-13752
▁सेवांसाठी	-13753
▁उदारमतवादी	-13754
▁त्यानंतरही	-13755
▁येण्यासाठी	-13756
▁तक्रारदाराचा	-13757
▁प्राप्तकर्ता	-13758
▁राखण्यायोग्य	-13759
ओर	-13760
एमने	-13761
धुंद	-13762
न्सल	-13763
िंगी	-13764
▁करि	-13765
▁डीओ	-13766
▁तशी	-13767
▁पंप	-13768
▁पोक	-13769
▁सून	-13770
▁आवडत	-13771
▁कर्ण	-13772
▁पैसा	-13773
▁मानत	-13774
▁मोहि	-13775
▁वेणु	-13776
▁हलके	-13777
▁इंजिन	-13778
▁दुपार	-13779
▁निभाव	-13780
▁बनवून	-13781
▁विकसक	-13782
▁अनुवाद	-13783
▁पूर्वा	-13784
▁वादाची	-13785
▁डिसमिसल	-13786
▁शक्तीची	-13787
▁ट्रस्टचे	-13788
▁पदांसाठी	-13789
▁येण्याचे	-13790
▁रंगाच्या	-13791
▁अहवालातून	-13792
▁कारागृहात	-13793
▁निर्णयासह	-13794
▁थकबाकीच्या	-13795
▁राजपत्रातील	-13796
▁वाहतुकीसाठी	-13797
▁निवृत्तीवेतनाचा	-13798
▁मॅन्युफॅक्चरिंग	-13799
थो	-13800
कूड	-13801
घ्न	-13802
ॉर्क	-13803
वर्धन	-13804
▁काढत	-13805
▁सांड	-13806
नेंद्र	-13807
▁कॉम्प	-13808
▁तत्वा	-13809
▁वाढला	-13810
▁आरंभिक	-13811
▁कामाची	-13812
▁घोषणेत	-13813
▁जातीचा	-13814
▁निष्ठा	-13815
▁काढताना	-13816
▁मॅक्सिम	-13817
▁सोडल्या	-13818
▁ऑस्ट्रेल	-13819
▁गोस्वामी	-13820
▁दिवसांनी	-13821
▁निकालाला	-13822
▁मालाच्या	-13823
धारकांच्या	-13824
▁अधिकृतपणे	-13825
▁करारासाठी	-13826
▁काढण्याचे	-13827
▁प्रश्नाला	-13828
▁अप्राकृतिक	-13829
▁आवश्यकतेचे	-13830
▁खात्याच्या	-13831
▁नियोक्ताच्या	-13832
▁नोंदवण्याच्या	-13833
▁न्यायदंडाधिका	-13834
निधी	-13835
्रुत	-13836
ईच्या	-13837
▁पेंडे	-13838
▁पेंशन	-13839
▁बाबीं	-13840
▁लाकूड	-13841
▁असायला	-13842
▁कस्टोड	-13843
▁ख्रिश्	-13844
▁बियाणे	-13845
▁हेतूचा	-13846
▁भागातून	-13847
▁विरोधाभा	-13848
▁स्वीकारत	-13849
▁ठरावाच्या	-13850
▁वेबसाइटवर	-13851
▁कार्यवाहीला	-13852
▁प्रवर्गाच्या	-13853
▁ऑर	-13854
▁खू	-13855
पाने	-13856
ोदरा	-13857
▁शॉक	-13858
▁आयएस	-13859
▁रेजि	-13860
▁विजे	-13861
▁सौहा	-13862
▁हाडे	-13863
▁अनिता	-13864
▁अवशेष	-13865
▁परमार	-13866
▁बोलतो	-13867
▁मल्टी	-13868
▁रेखाट	-13869
▁वाढली	-13870
▁वाराण	-13871
▁सहारा	-13872
▁सेन्स	-13873
▁उद्धरण	-13874
▁एलपीजी	-13875
▁डिझाईन	-13876
▁धोरणात	-13877
▁मुल्ला	-13878
▁व्हॉईस	-13879
▁सभोवता	-13880
▁चालविले	-13881
▁दराच्या	-13882
▁दोघांना	-13883
▁नाकारून	-13884
▁संमिश्र	-13885
▁तपासणीवर	-13886
▁तपासल्या	-13887
▁प्रदीर्घ	-13888
▁दुखापतीचा	-13889
▁पुनर्विका	-13890
▁विधानसभेत	-13891
▁कायद्यांचे	-13892
▁मागणीनुसार	-13893
▁गुणवत्तेवरील	-13894
▁पुराव्यासाठी	-13895
▁व्याप्तीच्या	-13896
▁अपीलकर्त्याशी	-13897
२७	-13898
बिन	-13899
म्ड	-13900
लिटी	-13901
्सची	-13902
र्मां	-13903
▁आतून	-13904
▁लागव	-13905
▁स्वि	-13906
बाईंनी	-13907
▁एचएलई	-13908
▁एनपीए	-13909
▁गोदाम	-13910
▁तिकिट	-13911
▁प्रवि	-13912
▁वाटली	-13913
▁सागरी	-13914
▁इतरत्र	-13915
▁पिल्लई	-13916
▁महावीर	-13917
▁मार्शल	-13918
▁अपूरणीय	-13919
▁द्यायचे	-13920
▁निधीतून	-13921
▁स्टॅंडी	-13922
▁क्रमवारी	-13923
▁ट्रस्टने	-13924
▁ठाण्याचे	-13925
▁शुल्काचे	-13926
▁सेवाभावी	-13927
▁रकमेपेक्षा	-13928
▁विधानसभेचा	-13929
▁पोस्टद्वारे	-13930
▁सत्यतेनुसार	-13931
▁परिपत्रकाच्या	-13932
शाख	-13933
मिंग	-13934
यावत	-13935
▁शीट	-13936
▁हनी	-13937
पॉझिट	-13938
▁आपुल	-13939
▁खुणा	-13940
▁गणने	-13941
▁मंजु	-13942
▁मोनो	-13943
▁वाचू	-13944
▁तुकडी	-13945
▁प्रिय	-13946
▁भरावा	-13947
▁रसायन	-13948
▁समतोल	-13949
▁आधारीत	-13950
▁निरंजन	-13951
▁बेनिफिट	-13952
▁मागणीची	-13953
▁संगनमता	-13954
▁हाताळणी	-13955
▁अशिक्षित	-13956
▁क्वार्टर	-13957
▁ग्लोरिया	-13958
▁शेअर्सचे	-13959
▁प्रकल्पात	-13960
▁कलमांनुसार	-13961
▁मृत्यूसाठी	-13962
▁वाढविण्यास	-13963
▁सुब्रमण्यम	-13964
▁अधिकाराखाली	-13965
▁अर्थशास्त्र	-13966
▁मोजण्यासाठी	-13967
▁सोडल्यानंतर	-13968
▁गुन्ह्यासंबंधी	-13969
▁कंत्राटदाराच्या	-13970
िली	-13971
शाची	-13972
▁उस्	-13973
▁कथन	-13974
▁अवधी	-13975
▁आयबी	-13976
▁लावू	-13977
▁जॉर्ज	-13978
▁टिकला	-13979
▁पश्चि	-13980
▁बिनोद	-13981
ृतीच्या	-13982
▁क्रिये	-13983
▁हनुमान	-13984
वासाच्या	-13985
्यांकडून	-13986
▁द्यायला	-13987
▁नोटीसला	-13988
▁बाबींचे	-13989
स्ट्रक्चर	-13990
▁सुनावणीत	-13991
▁स्वतःहून	-13992
▁स्वराज्य	-13993
▁प्रकरणाशी	-13994
▁सिद्धार्थ	-13995
▁निरीक्षणास	-13996
▁उल्लंघनासाठी	-13997
▁उमेदवारांसाठी	-13998
▁हस्तांतरणाच्या	-13999
▁ऐकू	-14000
▁ताप	-14001
ग्राम	-14002
▁एमआय	-14003
▁ड्रे	-14004
▁फिरत	-14005
▁वरवर	-14006
▁समीर	-14007
▁स्पी	-14008
▁जवळील	-14009
▁जानकी	-14010
▁नासिर	-14011
▁पतीला	-14012
▁ब्रिट	-14013
▁मदुरै	-14014
▁मल्हो	-14015
▁रक्तस	-14016
▁व्हॅल	-14017
▁जबलपूर	-14018
▁भावनिक	-14019
▁संक्रम	-14020
▁हातभार	-14021
निरपेक्ष	-14022
▁किशनगंज	-14023
▁बुद्धिम	-14024
▁विषयाचा	-14025
▁हवालदार	-14026
▁अद्ययावत	-14027
▁इलेक्ट्र	-14028
▁संस्कृती	-14029
▁टचस्टोनवर	-14030
▁डुप्लिकेट	-14031
▁नफ्याच्या	-14032
▁स्वरूपावर	-14033
▁तपासलेल्या	-14034
▁विचारण्यात	-14035
▁असल्याबद्दल	-14036
▁नाकारण्याची	-14037
▁मॅजिस्ट्रेट	-14038
▁वर्षापूर्वी	-14039
▁अस्तित्वाच्या	-14040
झरी	-14041
सिस	-14042
ेची	-14043
▁दव	-14044
डीटी	-14045
▁आळा	-14046
▁उडी	-14047
▁किल	-14048
▁भरव	-14049
▁शौचा	-14050
▁सक्त	-14051
▁अरुणा	-14052
▁ऑक्सि	-14053
▁कारकी	-14054
▁घराचे	-14055
▁तारखा	-14056
▁हलवले	-14057
▁अपीलचे	-14058
▁उड्डाण	-14059
▁केमिकल	-14060
▁टीडीएस	-14061
▁मिळतील	-14062
▁आयोगाचा	-14063
▁तात्काळ	-14064
▁संस्करण	-14065
▁अनुकूलता	-14066
▁संपर्कात	-14067
▁पाठविलेले	-14068
▁पीडब्ल्यूडी	-14069
▁धर्मनिरपेक्ष	-14070
▁अवर	-14071
▁उदर	-14072
▁तोल	-14073
▁मॅक	-14074
मात्र	-14075
▁केशव	-14076
▁घाऊक	-14077
▁भारी	-14078
लेंद्र	-14079
विलेले	-14080
▁अभावा	-14081
▁कुंवर	-14082
▁जर्मन	-14083
▁डीम्ड	-14084
▁बाध्य	-14085
▁ब्राह	-14086
▁व्यंक	-14087
▁सारखा	-14088
▁उच्चार	-14089
▁खुलासे	-14090
▁डीएसएस	-14091
▁परंपरा	-14092
▁आंबेडकर	-14093
▁गर्भवती	-14094
▁धोरणाचा	-14095
▁महाव्यव	-14096
▁खांद्यावर	-14097
▁महिलेच्या	-14098
▁योग्यतेचा	-14099
▁सीबीआयकडे	-14100
▁आरोपींसाठी	-14101
▁ज्याच्यावर	-14102
▁सचिवांच्या	-14103
▁कुटूंबाच्या	-14104
▁संदर्भाच्या	-14105
▁एजन्सीद्वारे	-14106
▁क्रमांकाच्या	-14107
चलो	-14108
र्ल	-14109
ेलर	-14110
▁रथ	-14111
वाली	-14112
व्हल	-14113
▁खार	-14114
▁फूड	-14115
जीभाई	-14116
तीतून	-14117
प्रति	-14118
▁काली	-14119
▁पिका	-14120
▁रिया	-14121
▁सरोज	-14122
▁सोने	-14123
▁माणिक	-14124
▁आकर्षक	-14125
▁कोणाला	-14126
▁गुणवंत	-14127
▁प्रचार	-14128
▁हटविणे	-14129
्याबद्दल	-14130
▁कन्हैया	-14131
▁नोकरदार	-14132
▁फार्मास	-14133
▁लोकसेवक	-14134
▁हॉटेल्स	-14135
▁ख्रिश्चन	-14136
▁निकषांवर	-14137
▁मनापासून	-14138
▁सत्यतेची	-14139
▁कीटकनाशके	-14140
▁धारकाच्या	-14141
▁मालवाहतूक	-14142
▁याचिकांचा	-14143
▁समाधानाची	-14144
▁अधिनियमाचा	-14145
▁इन्व्हेस्ट	-14146
▁नसल्याचेही	-14147
▁सांगण्याचे	-14148
▁मुख्याध्याप	-14149
▁साक्षानुसार	-14150
▁ट्रिब्यूनलला	-14151
पीओ	-14152
फेक	-14153
ालय	-14154
णाला	-14155
▁नरे	-14156
▁राग	-14157
▁तणाव	-14158
चिकित्	-14159
▁संगीत	-14160
▁ठेवावे	-14161
▁शिस्ती	-14162
▁असेसिंग	-14163
▁कन्व्हे	-14164
▁श्रीराम	-14165
▁हॉस्पिट	-14166
▁कोणाच्या	-14167
▁नाममात्र	-14168
▁सुरवातीस	-14169
▁जन्मतारीख	-14170
▁निसर्गाचे	-14171
▁मालकाकडून	-14172
▁यंत्रणेला	-14173
▁सन्मानाने	-14174
▁महिन्यांची	-14175
▁शब्दामध्ये	-14176
▁क्षमतेनुसार	-14177
▁नेमणुकीच्या	-14178
▁सुरक्षेच्या	-14179
▁भाडेकरूंच्या	-14180
▁मर्यादेपेक्षा	-14181
▁गुन्ह्यांकरिता	-14182
▁सेवानिवृत्तीचा	-14183
षक	-14184
सिल	-14185
ुला	-14186
ोगा	-14187
गृहा	-14188
वाहि	-14189
▁पूर	-14190
00000	-14191
पल्ली	-14192
ोपचार	-14193
▁आर्य	-14194
▁एचआर	-14195
▁गांव	-14196
▁डीएल	-14197
▁थोडे	-14198
▁नायब	-14199
▁ब्रो	-14200
▁समता	-14201
▁सलीम	-14202
ाशिवाय	-14203
▁हजारी	-14204
▁जुळवून	-14205
▁राहावे	-14206
▁जीवनाचे	-14207
▁सहमतीने	-14208
▁ज्यापैकी	-14209
▁विच्छेदन	-14210
▁गुणधर्मां	-14211
▁निवेदनाचा	-14212
▁मानण्याचे	-14213
▁कोर्टासाठी	-14214
▁दिवसांनंतर	-14215
▁परिणामकारक	-14216
▁व्यक्तीसाठी	-14217
▁अंमलबजावणीवर	-14218
▁घेण्यासंबंधी	-14219
▁अधिनियमाअंतर्गत	-14220
चाय	-14221
दिक	-14222
▁अथ	-14223
▁बृ	-14224
▁हक	-14225
▁मोर	-14226
▁वेश	-14227
फोर्ड	-14228
▁एलटी	-14229
▁क्रे	-14230
▁घडते	-14231
▁ट्रि	-14232
▁दोहो	-14233
नीच्या	-14234
▁उभ्या	-14235
▁बडोदा	-14236
दाराकडे	-14237
▁निधीचा	-14238
▁यामधील	-14239
▁विधायी	-14240
▁फुफ्फुस	-14241
▁भेटायला	-14242
▁किंमतीचा	-14243
▁वर्षाहून	-14244
▁वारसांना	-14245
▁विकासाची	-14246
▁कामगारांची	-14247
▁गोपनीयतेचा	-14248
▁परिपत्रकात	-14249
▁भारताबाहेर	-14250
▁विधानसभेचे	-14251
▁कार्यक्रमां	-14252
▁मालमत्तांचा	-14253
▁महिन्यांसाठी	-14254
▁दाव्यासंदर्भात	-14255
▁पूर्वनिर्धारित	-14256
नम	-14257
ण्ड	-14258
ुढे	-14259
दत्त	-14260
▁कले	-14261
▁नवल	-14262
▁बोस	-14263
▁ईस्ट	-14264
▁गौरी	-14265
▁लाला	-14266
▁हंगा	-14267
▁एकदाच	-14268
▁कल्लू	-14269
▁क्रमा	-14270
▁एनईईटी	-14271
▁तितकीच	-14272
▁शिकवले	-14273
▁स्पर्धक	-14274
▁अधिपत्या	-14275
▁असण्याचा	-14276
▁रिव्हिजन	-14277
▁लोकप्रिय	-14278
▁व्यभिचार	-14279
▁शिक्षिका	-14280
▁कलमांच्या	-14281
▁पात्रतेचा	-14282
▁युनिटच्या	-14283
▁राज्यांनी	-14284
▁हस्ताक्षर	-14285
▁पाठविण्याचे	-14286
▁पुनरुज्जीवन	-14287
▁भाडेकरूच्या	-14288
▁संस्थांमधील	-14289
▁त्यांच्यातील	-14290
▁निष्कर्षांची	-14291
▁भागधारकांच्या	-14292
ईन्स	-14293
दाहा	-14294
▁एनओ	-14295
▁वॉश	-14296
फरन्स	-14297
▁असगर	-14298
▁आरएम	-14299
▁दिपक	-14300
▁बिअर	-14301
▁मंगळ	-14302
▁महसु	-14303
▁खिशात	-14304
▁तटस्थ	-14305
▁भट्टा	-14306
▁युरोप	-14307
▁विजया	-14308
▁एलआयसी	-14309
▁पीटीसी	-14310
▁ताळेबंद	-14311
▁पदस्थाप	-14312
▁बंगळुरू	-14313
▁मेमोरँड	-14314
▁हक्कावर	-14315
▁असल्यासच	-14316
▁निधीच्या	-14317
▁पीडितेची	-14318
▁वाहिन्या	-14319
▁फसवणूकीचे	-14320
▁लोकांसाठी	-14321
▁साहित्यावर	-14322
▁वाहतुकीच्या	-14323
▁स्थापनेच्या	-14324
▁गुन्हेगारीचा	-14325
▁फिर्यादींकडे	-14326
▁यासंदर्भातील	-14327
▁त्यांच्यामार्फत	-14328
▁स्पष्टीकरणाच्या	-14329
वटा	-14330
भांड	-14331
ांडे	-14332
काळात	-14333
र्वेद	-14334
▁एसएम	-14335
▁कांत	-14336
▁कुंप	-14337
▁केएम	-14338
▁मंडी	-14339
▁माया	-14340
आयएलने	-14341
पीएससी	-14342
▁बेरोज	-14343
▁यांशी	-14344
▁हस्ते	-14345
▁आक्रमक	-14346
▁चालवून	-14347
▁डॉलर्स	-14348
▁निवडला	-14349
▁बाळगता	-14350
▁व्युत्	-14351
▁स्वतःस	-14352
▁एम्प्लॉ	-14353
▁जयस्वाल	-14354
▁मॅट्रिक	-14355
▁उद्दिष्ट	-14356
▁दिवाळखोर	-14357
▁बीरेंद्र	-14358
▁रूपांतरण	-14359
▁विधानाचे	-14360
▁प्रकरणाचे	-14361
▁दवाखान्यात	-14362
▁मिळविण्यात	-14363
▁इच्छामृत्यू	-14364
▁महेंद्रसिंग	-14365
▁राज्यघटनेचा	-14366
▁राज्यघटनेची	-14367
▁निर्मितीसाठी	-14368
▁स्वीकारण्याची	-14369
▁प्रतिनिधित्त्व	-14370
▁साक्षीदारांपैकी	-14371
िशन	-14372
▁चं	-14373
ंगीण	-14374
चाकी	-14375
्सचे	-14376
▁जेठ	-14377
▁दबा	-14378
▁सौर	-14379
इतकेच	-14380
जिस्ट	-14381
▁तलाव	-14382
▁पातळ	-14383
▁लीला	-14384
▁शिकव	-14385
▁शेजा	-14386
▁दर्शन	-14387
▁मुकुल	-14388
▁सुचना	-14389
▁हेल्थ	-14390
▁एसएमएस	-14391
▁दरवाजे	-14392
▁मेघालय	-14393
▁गेल्यास	-14394
▁पश्चिमे	-14395
▁विश्रां	-14396
▁व्युत्प	-14397
▁थकबाकीची	-14398
▁केल्यावरच	-14399
▁राज्यांना	-14400
▁विक्रीतून	-14401
▁सर्वांगीण	-14402
▁मिळाल्याची	-14403
▁येण्याच्या	-14404
[...]
