<unk>	0
<s>	0
</s>	0
UuRrLl	0
DdAaTtEe	0
NnUuMm	0
्य	-0
्या	-1
▁क	-2
▁आ	-3
▁स	-4
▁प	-5
ार	-6
▁अ	-7
्र	-8
▁न	-9
र्	-10
▁व	-11
ेल	-12
▁म	-13
च्या	-14
▁त	-15
या	-16
▁द	-17
हे	-18
वा	-19
ती	-20
▁ज	-21
क्	-22
▁आण	-23
ला	-24
▁आणि	-25
ही	-26
▁प्र	-27
ां	-28
िक	-29
▁आहे	-30
▁कर	-31
ण्या	-32
ान	-33
ात	-34
▁केल	-35
▁ह	-36
ित	-37
▁या	-38
▁र	-39
▁श	-40
▁अस	-41
चा	-42
▁त्या	-43
्ह	-44
स्	-45
ून	-46
चे	-47
ले	-48
▁नि	-49
सा	-50
ची	-51
▁वि	-52
▁उ	-53
▁का	-54
ंत	-55
▁ए	-56
ील	-57
ना	-58
▁ग	-59
▁सं	-60
ने	-61
ता	-62
▁ब	-63
क्ष	-64
िं	-65
▁(	-66
ते	-67
▁ना	-68
णे	-69
वर	-70
त्	-71
द्	-72
ठी	-73
ल्या	-74
▁को	-75
्ये	-76
साठी	-77
्ट	-78
▁भ	-79
▁घ	-80
ली	-81
▁हो	-82
ेश	-83
ेल्या	-84
▁की	-85
▁किं	-86
▁नाही	-87
▁किंवा	-88
नी	-89
▁स्	-90
▁पर	-91
▁करण्या	-92
वि	-93
▁दि	-94
ध्ये	-95
मा	-96
ष्ट	-97
▁ख	-98
▁न्या	-99
▁जा	-100
▁अध	-101
णा	-102
▁रा	-103
▁म्ह	-104
कार	-105
▁य	-106
▁दे	-107
ास	-108
▁न्याया	-109
ेव	-110
यद	-111
त्या	-112
दी	-113
ाने	-114
▁कार	-115
सी	-116
ाल	-117
▁अप	-118
▁पु	-119
▁वा	-120
▁हे	-121
कर	-122
▁म्हण	-123
ुस	-124
ेत	-125
▁कायद	-126
तील	-127
▁केले	-128
ाव	-129
▁ल	-130
मध्ये	-131
र्ण	-132
▁शक	-133
▁सा	-134
ार्	-135
पी	-136
▁ठ	-137
णी	-138
का	-139
देश	-140
ल्	-141
▁कोण	-142
▁तर	-143
र्ट	-144
ंच्या	-145
लेल्या	-146
▁इ	-147
ंद	-148
धी	-149
▁फ	-150
न्	-151
र्व	-152
्री	-153
ति	-154
हि	-155
स्थ	-156
ोग	-157
ाच्या	-158
ाग	-159
ंनी	-160
▁गेल	-161
स्त	-162
ंड	-163
ारी	-164
ोज	-165
िका	-166
▁एक	-167
▁सु	-168
कर्	-169
▁न्यायाल	-170
शी	-171
▁व्य	-172
▁अपील	-173
▁च्या	-174
तर	-175
ारे	-176
यम	-177
▁राज	-178
ुसार	-179
▁ला	-180
ाप	-181
टी	-182
क्त	-183
रो	-184
नि	-185
▁पा	-186
▁झ	-187
ाब	-188
्यक	-189
▁म्हणून	-190
▁असे	-191
▁च	-192
&#	-193
ंध	-194
शा	-195
च्	-196
▁कोर्ट	-197
री	-198
▁-	-199
▁मु	-200
्हा	-201
ंतर	-202
▁आहेत	-203
▁आव	-204
▁केली	-205
मी	-206
▁हा	-207
▁परि	-208
▁उप	-209
श्	-210
क्ती	-211
जे	-212
कड	-213
र्ग	-214
▁ड	-215
▁कायद्या	-216
▁ज्या	-217
ांच्या	-218
पर	-219
प्र	-220
दा	-221
▁अधिक	-222
▁ते	-223
करण	-224
▁केला	-225
बंध	-226
▁सम	-227
द्ध	-228
ंना	-229
लम	-230
▁प्रति	-231
त्र	-232
▁/	-233
ब्	-234
..	-235
▁होते	-236
लेल	-237
िती	-238
श्यक	-239
र्भ	-240
की	-241
▁गु	-242
▁अशा	-243
▁ट	-244
वी	-245
रा	-246
▁केलेल्या	-247
नुसार	-248
ंब	-249
▁आवश्यक	-250
▁घे	-251
▁झा	-252
वारे	-253
ण्यात	-254
▁आम	-255
▁न्यायालया	-256
▁शकत	-257
▁मध्ये	-258
ारा	-259
द्वारे	-260
▁निर्ण	-261
▁अन	-262
मु	-263
▁उत्	-264
▁रोज	-265
▁कोणत्या	-266
ाद	-267
क्र	-268
पू	-269
ंत्र	-270
ळे	-271
वे	-272
चार	-273
▁सर्व	-274
▁शि	-275
कर्त्या	-276
▁नो	-277
ोर	-278
▁दा	-279
▁रोजी	-280
▁कोणत्याही	-281
▁क्र	-282
▁जात	-283
▁करणे	-284
▁संबंध	-285
धार	-286
▁ये	-287
र्गत	-288
▁ठेव	-289
ेट	-290
▁.	-291
िस	-292
्यू	-293
▁दो	-294
ईल	-295
▁सर	-296
▁घट	-297
▁भार	-298
च्च	-299
▁अर्	-300
दार	-301
▁कलम	-302
ण्यासाठी	-303
▁निर्	-304
पास	-305
▁मा	-306
▁आप	-307
▁वे	-308
▁नियम	-309
ंग	-310
पणे	-311
▁मान	-312
▁आय	-313
▁स्प	-314
▁आदेश	-315
▁पू	-316
▁व्यक्ती	-317
▁गेले	-318
▁करण्यासाठी	-319
क्षा	-320
▁कार्य	-321
▁राज्य	-322
▁घेत	-323
नंतर	-324
ृत	-325
▁असेल	-326
▁ऑ	-327
ंतर्गत	-328
शि	-329
▁आरो	-330
▁केल्या	-331
्यां	-332
कडे	-333
धील	-334
मुळे	-335
ोग्य	-336
▁तरत	-337
▁संद	-338
▁संदर्भ	-339
▁याच	-340
ष्	-341
▁प्रकरण	-342
▁वर	-343
▁&#	-344
ूद	-345
▁पुर	-346
▁एस	-347
मान	-348
▁पी	-349
▁सरकार	-350
से	-351
▁मि	-352
▁संबंधित	-353
▁खट	-354
▁स्पष्ट	-355
ांना	-356
▁जे	-357
▁लाग	-358
चित	-359
ये	-360
▁काही	-361
▁व्या	-362
क्क	-363
द्द	-364
ांक	-365
व्ह	-366
धान	-367
ीन	-368
▁उच्च	-369
आय	-370
▁जाऊ	-371
▁कोर्टाने	-372
वान	-373
▁विचार	-374
हा	-375
▁स्थ	-376
▁मू	-377
▁इतर	-378
ांग	-379
▁ठर	-380
▁चा	-381
तो	-382
र्ष	-383
▁होता	-384
िया	-385
डी	-386
थे	-387
▁पो	-388
▁माल	-389
जी	-390
▁समा	-391
▁भाग	-392
िंग	-393
र्या	-394
▁बा	-395
▁क्	-396
खल	-397
ोक	-398
धिक	-399
▁केलेल	-400
▁असा	-401
▁असलेल्या	-402
्यंत	-403
्रा	-404
धीश	-405
▁के	-406
▁यांनी	-407
मे	-408
्ही	-409
स्ट	-410
▁ध	-411
रु	-412
तात	-413
▁वै	-414
▁पुढ	-415
▁अधि	-416
▁कर्	-417
स्थिती	-418
▁मिळ	-419
▁आले	-420
रू	-421
▁o	-422
आर	-423
▁याचिका	-424
▁अंतर्गत	-425
▁पाहि	-426
▁नस	-427
▁असल्या	-428
ंट	-429
ाना	-430
▁स्व	-431
▁न्यायाधीश	-432
शन	-433
▁विक	-434
▁ही	-435
▁अपीलकर्त्या	-436
▁एख	-437
्यात	-438
भाग	-439
वादी	-440
ंचे	-441
▁म्हणजे	-442
▁प्रा	-443
क्षण	-444
ण्यास	-445
▁योग्य	-446
▁दु	-447
मि	-448
▁वर्ष	-449
ेव्हा	-450
ंप	-451
ंतु	-452
गी	-453
्त	-454
▁आरोपी	-455
▁निर्णया	-456
एस	-457
दर	-458
▁श्री	-459
▁अधिकार	-460
▁“	-461
▁दाखल	-462
माणे	-463
ोड	-464
▁उद्	-465
ब्ल	-466
▁से	-467
▁|	-468
पा	-469
ीर	-470
ंचा	-471
▁नोंद	-472
▁त्याच्या	-473
ळी	-474
▁व्यव	-475
▁नम	-476
▁काम	-477
क्स	-478
▁अनु	-479
▁सी	-480
▁नमूद	-481
▁क्रम	-482
▁कारण	-483
▁परंतु	-484
ब्ल्यू	-485
▁पुन	-486
▁क्ष	-487
▁सांग	-488
▁त्यांच्या	-489
▁राष्ट	-490
▁प्रतिवादी	-491
▁न्यायालय	-492
माण	-493
र्श	-494
िल	-495
को	-496
प्रमाणे	-497
▁होती	-498
▁तो	-499
वाद	-500
▁करण्यात	-501
▁शकते	-502
ुदी	-503
र्थ	-504
▁दिले	-505
▁तरतुदी	-506
जू	-507
र्ड	-508
▁मह	-509
तीय	-510
▁भर	-511
▁बाब	-512
च्छ	-513
▁क्रमांक	-514
▁वापर	-515
▁कायदा	-516
ांनी	-517
्ञ	-518
ण्याची	-519
▁प्रत	-520
हित	-521
रण	-522
ारख	-523
रे	-524
▁एखाद	-525
▁निय	-526
रि	-527
▁ओ	-528
खील	-529
डब्ल्यू	-530
▁लक्ष	-531
▁एससी	-532
र्वी	-533
▁सह	-534
जा	-535
▁एखाद्या	-536
ांची	-537
▁स्वत	-538
▁ति	-539
▁ने	-540
शे	-541
▁प्रकार	-542
▁भा	-543
▁करण्यास	-544
▁गेली	-545
्म	-546
▁निर्णय	-547
▁खटल्या	-548
.0	-549
बी	-550
ेच्या	-551
▁अभ	-552
लेख	-553
▁उत्तर	-554
जन	-555
वेश	-556
▁आम्ही	-557
सह	-558
▁केव	-559
ांचे	-560
▁अधिनि	-561
))	-562
▁मो	-563
▁जाईल	-564
▁केवळ	-565
▁[	-566
पूर्ण	-567
त्त्	-568
िट	-569
यार	-570
िम	-571
▁परिस्थिती	-572
वात	-573
पत्र	-574
▁दिली	-575
▁लागू	-576
प्	-577
्याच्या	-578
▁यांच्या	-579
लेले	-580
▁लोक	-581
लंब	-582
▁उत्प	-583
पासून	-584
णार	-585
ुक	-586
ातील	-587
बाब	-588
▁पाहिजे	-589
▁कंप	-590
णार्	-591
▁संदर्भात	-592
ज्ञ	-593
नात	-594
▁प्रश्	-595
▁तथ	-596
▁सि	-597
द्दल	-598
▁संस्थ	-599
मत्	-600
▁आपल्या	-601
हिती	-602
▁तयार	-603
▁प्रकरणात	-604
▁अव	-605
▁त्यांनी	-606
पीठ	-607
▁माहिती	-608
▁जाते	-609
▁आला	-610
▁अशी	-611
▁निव	-612
ेड	-613
ताना	-614
▁of	-615
▁देण्यात	-616
▁गो	-617
▁मालमत्	-618
▁पूर्ण	-619
▁काढ	-620
ंची	-621
▁प्रक्र	-622
शेष	-623
ण्याच्या	-624
मधील	-625
▁जी	-626
ंद्र	-627
▁परवान	-628
▁माग	-629
पर्यंत	-630
जाव	-631
▁अर्ज	-632
क्ट	-633
▁सू	-634
▁यु	-635
ूक	-636
▁अं	-637
ेशीर	-638
ष्टी	-639
▁भारतीय	-640
व्य	-641
्रीय	-642
▁रु	-643
ष्ठ	-644
▁म्हणूनच	-645
▁सल्	-646
▁दुस	-647
ुक्त	-648
▁दोन	-649
▁सादर	-650
▁a	-651
▁गुन	-652
कडून	-653
▁वरील	-654
▁विशेष	-655
▁मुख	-656
▁क्षेत	-657
द्य	-658
▁देखील	-659
▁मधील	-660
्स	-661
टले	-662
ांमध्ये	-663
ाय	-664
ूत	-665
शिष्ट	-666
▁करण्याच्या	-667
▁सेवा	-668
▁परिणा	-669
▁कायद्याच्या	-670
▁तपास	-671
द्या	-672
ल्प	-673
▁मत	-674
ण्याचा	-675
▁हक्क	-676
▁परवानगी	-677
ळा	-678
....	-679
▁मृत	-680
लेला	-681
er	-682
▁अह	-683
▁पक्ष	-684
▁अधिनियम	-685
▁विभाग	-686
ांचा	-687
ालील	-688
पे	-689
▁प्रमाण	-690
श्चित	-691
▁वाढ	-692
▁कु	-693
विध	-694
▁एससीसी	-695
ेद	-696
▁ती	-697
▁कोणती	-698
ात्र	-699
बद्दल	-700
पती	-701
्मक	-702
▁चौ	-703
▁मं	-704
लेली	-705
▁हाय	-706
▁जर	-707
▁म्हटले	-708
▁अर्थ	-709
तीत	-710
▁मार्	-711
▁राष्ट्र	-712
▁कोणतीही	-713
लाव	-714
भा	-715
ित्	-716
तीने	-717
▁खालील	-718
▁लि	-719
▁नव्ह	-720
दान	-721
▁वस्त	-722
ोध	-723
▁नाहीत	-724
के	-725
▁अंम	-726
एल	-727
▁आली	-728
कोर्ट	-729
वरील	-730
ांत	-731
▁खंड	-732
पूर्वी	-733
सु	-734
▁घटने	-735
मोर	-736
▁उल्	-737
▁मूल	-738
▁करार	-739
▁आर	-740
▁अहवा	-741
मीन	-742
▁थ	-743
▁कमी	-744
▁पुढे	-745
ल्यास	-746
in	-747
▁हायकोर्ट	-748
▁गेला	-749
▁न्यायालयात	-750
क्षे	-751
▁कंपनी	-752
▁तसे	-753
ानुसार	-754
▁त्याला	-755
योग	-756
▁जेव्हा	-757
▁सद	-758
ण्याचे	-759
ोष	-760
डे	-761
ावे	-762
▁पद	-763
▁लक्षात	-764
▁आध	-765
nd	-766
▁दर	-767
▁सांगित	-768
▁योज	-769
करणा	-770
पु	-771
▁मान्य	-772
▁करून	-773
▁फि	-774
▁चाल	-775
वाय	-776
▁झाल	-777
▁चे	-778
▁पीडब्ल्यू	-779
▁खा	-780
▁डी	-781
कर्ता	-782
साय	-783
ाचे	-784
भाव	-785
▁दंड	-786
▁त्यानंतर	-787
▁प्रश्न	-788
लब	-789
▁दर्श	-790
▁जाग	-791
▁राष्ट्रपती	-792
▁स्थाप	-793
▁करू	-794
न्स	-795
▁न्यायालयाने	-796
ीय	-797
▁हेत	-798
▁सदस	-799
▁मुख्य	-800
▁प्रत्ये	-801
वास	-802
ार्व	-803
▁निवड	-804
▁लेख	-805
▁बद	-806
▁मर्या	-807
▁केंद्र	-808
लावधी	-809
▁कालावधी	-810
र्स	-811
▁शकतो	-812
ार्थ	-813
लिस	-814
▁जो	-815
गार	-816
▁येथे	-817
▁साम	-818
न्न	-819
▁विशिष्ट	-820
ताही	-821
ग्र	-822
▁एका	-823
▁करते	-824
▁नवी	-825
▁साक्ष	-826
▁निश्चित	-827
▁t	-828
▁कायदेशीर	-829
▁त्यांना	-830
▁खटला	-831
ूल	-832
क्षम	-833
मान्य	-834
▁कॉ	-835
दे	-836
▁ताब	-837
▁दिला	-838
▁दावा	-839
▁सार्व	-840
▁करण्याचा	-841
▁शु	-842
▁कोणताही	-843
▁दृ	-844
▁करण्याची	-845
▁पुढील	-846
▁न्याय	-847
▁देश	-848
्यक्ष	-849
▁खंडपीठ	-850
▁लाव	-851
▁न्यायालयीन	-852
▁अधिका	-853
▁राज्या	-854
▁निष्	-855
▁निर्देश	-856
ाळ	-857
▁झाला	-858
कर्ष	-859
ुन	-860
▁कोर्टाच्या	-861
ंदर्भ	-862
▁आमच्या	-863
एम	-864
▁हस्त	-865
र्यादी	-866
चना	-867
रणा	-868
तिरि	-869
तिरिक्त	-870
▁दोष	-871
णूक	-872
▁झाले	-873
▁शब्	-874
गळ	-875
▁फिर्यादी	-876
▁कोणते	-877
▁मे	-878
जावणी	-879
लबजावणी	-880
▁शिक	-881
▁उत्पाद	-882
▁परिणाम	-883
ल्यानंतर	-884
▁अंमलबजावणी	-885
भूत	-886
ंक	-887
▁तक्र	-888
▁असल्याचे	-889
्यावर	-890
▁पात्र	-891
▁तसेच	-892
घट	-893
▁उद्देश	-894
▁प्रत्येक	-895
▁पाठ	-896
ृत्	-897
▁कोणतेही	-898
▁याचिकाकर्त्या	-899
ग्	-900
▁शिक्षा	-901
▁दिलेल्या	-902
▁झालेल्या	-903
▁निका	-904
▁ऑफ	-905
जनिक	-906
▁पोलिस	-907
▁सामान्य	-908
्रे	-909
▁अवलंब	-910
स्तव	-911
▁तेव्हा	-912
▁सुधार	-913
▁समिती	-914
▁संपूर्ण	-915
▁जमीन	-916
▁सुरू	-917
▁विश्	-918
▁अभि	-919
ेला	-920
गद	-921
बा	-922
थम	-923
ांड	-924
▁रक्क	-925
ारखे	-926
▁मंजू	-927
▁सिद्ध	-928
ांवर	-929
▁सल्ला	-930
▁रक्कम	-931
▁चौक	-932
गर	-933
▁सार्वजनिक	-934
मार	-935
▁असू	-936
भव	-937
णारे	-938
वाई	-939
ोल	-940
वार	-941
ापि	-942
ळख	-943
▁दिव	-944
नाव	-945
▁तथापि	-946
▁मंजूर	-947
ेशन	-948
धिकरण	-949
ाचा	-950
▁केलेली	-951
▁फा	-952
रूद्ध	-953
▁बँ	-954
▁तरी	-955
▁कार्यवा	-956
▁विक्री	-957
▁राह	-958
दारी	-959
न्हे	-960
▁कार्यवाही	-961
सं	-962
▁मी	-963
एक्स	-964
मती	-965
▁तपासणी	-966
कलम	-967
▁भू	-968
ंदर्भात	-969
च्छेद	-970
▁बन	-971
न्व	-972
ैकी	-973
्यु	-974
▁त्याने	-975
▁केलेले	-976
रावा	-977
▁अन्य	-978
ध्य	-979
ed	-980
▁आधी	-981
हार	-982
▁वस्तू	-983
्यांच्या	-984
▁संर	-985
▁एन	-986
▁वाट	-987
▁महि	-988
▁कर्म	-989
▁शकतात	-990
यत्	-991
▁वक	-992
▁साक्षी	-993
ुकी	-994
▁आढ	-995
▁जबाब	-996
▁चौकशी	-997
▁हेतू	-998
▁बाबतीत	-999
▁तरतूद	-1000
▁सांगितले	-1001
पेक्षा	-1002
▁आधार	-1003
्याने	-1004
▁आरोप	-1005
▁कृ	-1006
▁प्रयत्	-1007
णारी	-1008
▁स्ट	-1009
▁रे	-1010
▁उद्देशाने	-1011
ांतर	-1012
▁विविध	-1013
हन	-1014
▁विधान	-1015
▁करण्याचे	-1016
▁औ	-1017
ीकरण	-1018
▁अटी	-1019
ंबर	-1020
▁A	-1021
▁निष्कर्ष	-1022
▁परिस्थितीत	-1023
द्वान	-1024
▁जास्त	-1025
▁बदल	-1026
▁विद्वान	-1027
▁वेग	-1028
▁गुन्हे	-1029
▁स्वी	-1030
ंडळ	-1031
ाला	-1032
पीसी	-1033
ूर	-1034
तेच्या	-1035
▁क्षेत्र	-1036
▁शब्द	-1037
षय	-1038
ोट	-1039
▁महत्त्	-1040
▁एम	-1041
र्डर	-1042
▁तु	-1043
नीय	-1044
स्ती	-1045
रोध	-1046
ल्ली	-1047
▁ओळख	-1048
▁सब	-1049
▁())	-1050
ूप	-1051
ऊन	-1052
▁पुन्हा	-1053
▁प्रकारे	-1054
स्ता	-1055
▁गुन्ह	-1056
▁पाल	-1057
ल्यांक	-1058
शिवाय	-1059
▁सध	-1060
पाई	-1061
▁खालीलप्रमाणे	-1062
▁वेळी	-1063
▁ताब्यात	-1064
्यास	-1065
ाप्त	-1066
▁अपीलकर्ता	-1067
▁व्यवस्थ	-1068
▁दिस	-1069
▁वाच	-1070
▁ऑर्डर	-1071
लक	-1072
▁प्रवेश	-1073
▁नवीन	-1074
▁शुल्	-1075
ंमध्ये	-1076
वित	-1077
▁झाली	-1078
▁पद्ध	-1079
▁कारवाई	-1080
▁सो	-1081
▁समान	-1082
▁कर्मच	-1083
▁करतो	-1084
र्म	-1085
▁भारता	-1086
▁प्रदेश	-1087
▁निकाला	-1088
लं	-1089
मिशन	-1090
▁प्रयत्न	-1091
▁सुर	-1092
▁अवलंबून	-1093
विरूद्ध	-1094
क्ति	-1095
),	-1096
▁संस्था	-1097
▁प्रक्रिया	-1098
▁मोठ	-1099
▁स्वीकार	-1100
कल्प	-1101
▁बाजू	-1102
▁बाज	-1103
विष्ट	-1104
विला	-1105
▁करा	-1106
▁विद्या	-1107
लब्	-1108
▁प्रक्रि	-1109
र्त	-1110
ावर	-1111
▁बी	-1112
लब्ध	-1113
धिकरणा	-1114
द्योग	-1115
▁प्रकरणा	-1116
▁टा	-1117
▁तीन	-1118
▁तत्त्	-1119
▁होईल	-1120
क्षित	-1121
▁in	-1122
▁शोध	-1123
▁मालमत्ता	-1124
▁उपलब्ध	-1125
▁रि	-1126
दत	-1127
▁अधिकारी	-1128
काश	-1129
▁समाविष्ट	-1130
ूने	-1131
िसू	-1132
लंघ	-1133
▁भारत	-1134
▁भरपाई	-1135
▁S	-1136
▁उल्लंघ	-1137
▁त्याच	-1138
▁उद्भव	-1139
▁अधिसू	-1140
▁देय	-1141
▁काळ	-1142
खा	-1143
्हे	-1144
▁पोट	-1145
▁,	-1146
▁हायकोर्टाने	-1147
र्थिक	-1148
ाची	-1149
वेद	-1150
▁होऊ	-1151
▁करता	-1152
▁आधारे	-1153
▁पै	-1154
न्ही	-1155
ii	-1156
▁पहि	-1157
▁करतात	-1158
▁दुसर्	-1159
▁यांना	-1160
▁आकार	-1161
ल्यांकन	-1162
▁ट्र	-1163
▁दुरु	-1164
▁0	-1165
▁नंतर	-1166
▁कारणा	-1167
▁व्याप	-1168
▁मृत्यू	-1169
बर	-1170
▁पूर्व	-1171
▁नुक	-1172
▁सक्षम	-1173
▁आयोग	-1174
▁सोड	-1175
▁भाडे	-1176
शास	-1177
सुप्र	-1178
▁दिल्ली	-1179
्हाला	-1180
ंवर	-1181
कीय	-1182
ंभ	-1183
▁विध	-1184
▁जारी	-1185
▁रिट	-1186
समोर	-1187
▁खटल्याच्या	-1188
कारी	-1189
▁रद्द	-1190
▁प्रस्ता	-1191
▁करणार्	-1192
ॉर्ड	-1193
तीच्या	-1194
▁कौ	-1195
▁पुरावा	-1196
ot	-1197
▁सेव	-1198
▁निर्द	-1199
क्षेत	-1200
▁बाबी	-1201
▁बे	-1202
▁दोषी	-1203
▁स्पष्टपणे	-1204
मत	-1205
▁दिन	-1206
▁पे	-1207
▁जिल	-1208
▁प्राप्त	-1209
▁संप	-1210
▁झाल्या	-1211
▁बँक	-1212
▁गुंत	-1213
पैकी	-1214
▁प्रदान	-1215
▁सहा	-1216
▁साक्षीदार	-1217
सान	-1218
▁दोन्ही	-1219
घड	-1220
▁निक	-1221
at	-1222
ासाठी	-1223
▁आर्थिक	-1224
▁मूलभूत	-1225
▁कि	-1226
पाल	-1227
▁समावेश	-1228
लया	-1229
▁अंत	-1230
▁कायद्यानुसार	-1231
▁युक्ति	-1232
▁जन	-1233
▁खरे	-1234
▁स्पष्टीकरण	-1235
▁गुण	-1236
▁वाद	-1237
▁सुनाव	-1238
नात्मक	-1239
▁स्वर	-1240
▁त्याचा	-1241
खी	-1242
टक	-1243
क्षणा	-1244
्याय	-1245
▁केलेला	-1246
▁उल्लंघन	-1247
न्वये	-1248
▁I	-1249
ात्मक	-1250
▁शक्ती	-1251
स्थित	-1252
▁आढळ	-1253
▁घोष	-1254
संदर्भात	-1255
ॉल	-1256
qu	-1257
▁वतीने	-1258
नाच्या	-1259
▁छ	-1260
▁पुराव	-1261
पणा	-1262
▁गुन्हा	-1263
एन	-1264
▁सर्	-1265
▁आम्हाला	-1266
▁परिच्छेद	-1267
▁रुप	-1268
▁संस	-1269
▁नुकसान	-1270
▁ठरवि	-1271
▁आपण	-1272
ar	-1273
▁आव्ह	-1274
▁कर्त	-1275
▁पत्र	-1276
नं	-1277
▁अपीलकर्त्याने	-1278
वन	-1279
▁तक्रार	-1280
▁सर्वो	-1281
▁त्यांचे	-1282
म्या	-1283
▁अहवाल	-1284
वादा	-1285
एफ	-1286
वातंत्र	-1287
▁करारा	-1288
▁त्याचे	-1289
▁घटना	-1290
▁आता	-1291
▁स्वातंत्र	-1292
▁पार	-1293
ीत	-1294
▁दर्शवि	-1295
▁नेम	-1296
▁तिच्या	-1297
▁वेळ	-1298
▁डि	-1299
▁विरोध	-1300
▁प्रक्रिये	-1301
▁स्वतंत्र	-1302
▁शक्य	-1303
▁शकेल	-1304
▁राष्ट्रीय	-1305
▁बां	-1306
क्षेप	-1307
हो	-1308
स्कार	-1309
▁निवेद	-1310
ज्ञान	-1311
ासून	-1312
ग्रह	-1313
▁रो	-1314
▁ग्रा	-1315
वून	-1316
quot	-1317
िन	-1318
▁दिनांक	-1319
िला	-1320
00	-1321
१०	-1322
▁कागद	-1323
▁असल्यास	-1324
▁दुरुस्ती	-1325
▁नाकार	-1326
▁उपस्थित	-1327
घटने	-1328
रात	-1329
▁अधीन	-1330
िय	-1331
▁शुल्क	-1332
▁डॉ	-1333
▁प्रमाणात	-1334
ांसाठी	-1335
र्चा	-1336
▁दुर्	-1337
ट्ट	-1338
▁आव्हान	-1339
▁एफ	-1340
▁तारखे	-1341
वरून	-1342
▁ज्यात	-1343
▁अहवाला	-1344
or	-1345
रोक्त	-1346
▁देणे	-1347
योग्य	-1348
▁गोष्टी	-1349
▁उपरोक्त	-1350
▁अस्त	-1351
▁अस्तित्	-1352
्यांना	-1353
▁खात	-1354
तिक	-1355
वळ	-1356
वले	-1357
▁फक्त	-1358
णारा	-1359
व्हे	-1360
▁मुला	-1361
▁परत	-1362
▁प्रो	-1363
र्क	-1364
चणी	-1365
म्यान	-1366
▁प्रथम	-1367
▁महा	-1368
▁घटनात्मक	-1369
चने	-1370
ावी	-1371
▁उघड	-1372
▁त्यानुसार	-1373
on	-1374
▁वाज	-1375
▁असते	-1376
ख्या	-1377
▁लागेल	-1378
ॅन	-1379
प्प	-1380
▁हस्तांतर	-1381
षण	-1382
सि	-1383
ँड	-1384
▁मूल्यांकन	-1385
▁पुरस्कार	-1386
▁धोर	-1387
▁प्रभाव	-1388
▁क्षेत्रा	-1389
▁नोंदणी	-1390
▁अनि	-1391
▁आवश्यकता	-1392
▁गुन्हेग	-1393
▁ची	-1394
्रम	-1395
▁याचिक	-1396
र्ती	-1397
▁अनुस	-1398
▁कायम	-1399
क्षक	-1400
▁गर	-1401
▁उत्पादन	-1402
▁नये	-1403
▁on	-1404
नेक	-1405
........	-1406
▁जिल्हा	-1407
ृत्ती	-1408
▁इंड	-1409
त्ता	-1410
▁th	-1411
▁खरेदी	-1412
▁अनेक	-1413
व्या	-1414
▁पालन	-1415
▁येईल	-1416
▁विकास	-1417
शील	-1418
रुद्ध	-1419
▁फायद	-1420
▁सर्वोच्च	-1421
▁मोठ्या	-1422
मेंट	-1423
▁मालमत्ते	-1424
▁अध्यक्ष	-1425
▁कागदपत्र	-1426
▁वर्ग	-1427
▁शास	-1428
▁इच्छ	-1429
द्यक	-1430
▁मान्यता	-1431
▁सत	-1432
था	-1433
▁घेण्यात	-1434
साद	-1435
▁सध्याच्या	-1436
द्यकीय	-1437
▁योजना	-1438
बु	-1439
्ल	-1440
▁मानले	-1441
▁विचारात	-1442
▁युक्तिवाद	-1443
▁कार्या	-1444
धानिक	-1445
▁बांध	-1446
क्रम	-1447
▁पड	-1448
▁समज	-1449
▁योजने	-1450
▁जोड	-1451
es	-1452
▁अन्वये	-1453
▁खंडपीठाने	-1454
▁ई	-1455
▁जमा	-1456
▁चुकी	-1457
दर्श	-1458
▁स्थान	-1459
▁वगळ	-1460
▁संहित	-1461
▁कर्मचार्	-1462
▁स्वतः	-1463
▁नियंत्र	-1464
रित	-1465
▁गुन्हेगारी	-1466
भे	-1467
▁घटक	-1468
▁विश्वास	-1469
▁u	-1470
▁अंतिम	-1471
▁महत्त्व	-1472
▁सुनावणी	-1473
▁जातो	-1474
▁वैद्यकीय	-1475
▁सामा	-1476
▁कारणास्तव	-1477
िष्ठ	-1478
फार	-1479
नास	-1480
दाय	-1481
▁विनं	-1482
चल	-1483
▁जि	-1484
▁फेट	-1485
▁करीत	-1486
▁स्थिती	-1487
▁मते	-1488
▁करेल	-1489
▁फेटाळ	-1490
▁विनंती	-1491
▁दिवस	-1492
▁लवाद	-1493
युक्त	-1494
▁यादी	-1495
▁दृष्टी	-1496
▁त्यास	-1497
धारक	-1498
वरित	-1499
ूण	-1500
न्या	-1501
ंज	-1502
▁एकत्र	-1503
▁प्रशास	-1504
▁कार्यक्षेत	-1505
▁प्रकाश	-1506
,,	-1507
▁पूर्वी	-1508
▁मार्ग	-1509
वाणी	-1510
▁शिफार	-1511
▁वरिष्ठ	-1512
▁मिळा	-1513
▁अतिरिक्त	-1514
▁व्याव	-1515
▁बि	-1516
ंदी	-1517
ुक्ती	-1518
▁b	-1519
▁विष	-1520
▁म्हणा	-1521
▁टी	-1522
▁मर्याद	-1523
▁वकील	-1524
▁व्यवस्थाप	-1525
▁मूळ	-1526
ल्यामुळे	-1527
▁न्यायाधीशांच्या	-1528
▁बो	-1529
▁व्याज	-1530
रक	-1531
▁आदेशानुसार	-1532
▁पूर्णपणे	-1533
म्	-1534
बाबत	-1535
--	-1536
ौज	-1537
▁बह	-1538
▁विरुद्ध	-1539
▁उल्लेख	-1540
धून	-1541
वाह	-1542
▁वित	-1543
मेद	-1544
ॅड	-1545
▁शे	-1546
कॉर्ड	-1547
मिट	-1548
▁टाक	-1549
▁प्रतिनि	-1550
ौजदारी	-1551
▁युनि	-1552
विषय	-1553
टीस	-1554
धारण	-1555
▁घेतला	-1556
▁द्या	-1557
▁घेता	-1558
▁उमेद	-1559
ातून	-1560
▁चांग	-1561
▁सबमिशन	-1562
ंसाठी	-1563
इट	-1564
▁शा	-1565
▁रेकॉर्ड	-1566
ैर	-1567
▁करत	-1568
▁खाली	-1569
▁त्यांची	-1570
▁ठेवले	-1571
मिक	-1572
▁सरकारच्या	-1573
अंतर्गत	-1574
▁लेखी	-1575
▁नोंदवि	-1576
रल	-1577
कृत	-1578
▁आंतर	-1579
▁अधिकृत	-1580
्व	-1581
▁पहिल्या	-1582
डा	-1583
▁फौजदारी	-1584
▁हित	-1585
्यांचा	-1586
▁संरक्षण	-1587
▁नियुक्ती	-1588
▁प्रकारच्या	-1589
ांमधील	-1590
▁ठिका	-1591
▁व्यवहार	-1592
ुल	-1593
▁बाजूने	-1594
▁विशेषत	-1595
▁एकूण	-1596
▁नुसार	-1597
▁मंत्र	-1598
र्प	-1599
गळ्या	-1600
▁नाग	-1601
ग्री	-1602
स्प	-1603
▁भाष	-1604
्रु	-1605
▁आज	-1606
▁त्यातील	-1607
▁दिसून	-1608
सिंग	-1609
▁नियुक्त	-1610
▁व्यक्त	-1611
कायद	-1612
्यांनी	-1613
▁कामगार	-1614
ct	-1615
▁प्रकरणातील	-1616
▁नोटीस	-1617
▁पर्यंत	-1618
▁याचा	-1619
ण्यापूर्वी	-1620
▁देण्यास	-1621
▁परी	-1622
▁नव्हती	-1623
▁साध	-1624
क्तिक	-1625
).	-1626
▁ऐ	-1627
यक्तिक	-1628
▁काय	-1629
काच्या	-1630
▁न्यायाधिकरण	-1631
▁चाचणी	-1632
जिक	-1633
▁घेण्यास	-1634
▁म्हणजेच	-1635
it	-1636
nder	-1637
▁घेतली	-1638
▁जेथे	-1639
▁जातात	-1640
▁सुविध	-1641
▁विषया	-1642
खाली	-1643
लक्ष	-1644
▁यावर	-1645
सुप्रा	-1646
▁सदस्य	-1647
▁निरी	-1648
▁वैधानिक	-1649
▁घ्या	-1650
▁आलेल्या	-1651
▁मध्य	-1652
▁तेथे	-1653
▁संचा	-1654
११	-1655
▁मला	-1656
▁and	-1657
▁अनुसू	-1658
▁याची	-1659
▁घेतलेल्या	-1660
गा	-1661
▁गैर	-1662
▁संश	-1663
▁असतील	-1664
▁प्राधिकरण	-1665
▁यांचे	-1666
ापत्र	-1667
आयआर	-1668
▁कर्ज	-1669
▁म्हणाले	-1670
▁पॅ	-1671
▁उपयोग	-1672
▁मांड	-1673
▁रक	-1674
र्च	-1675
▁वैयक्तिक	-1676
▁घटनेच्या	-1677
▁न्यायालयाच्या	-1678
▁दरम्यान	-1679
▁कार्यक्षेत्र	-1680
▁असून	-1681
▁प्रतिसाद	-1682
▁मूल्य	-1683
▁संधी	-1684
▁कालावधीत	-1685
▁सल्ल्या	-1686
▁((	-1687
प्त	-1688
्यांची	-1689
सायिक	-1690
▁येत	-1691
▁माझ	-1692
▁ज्यामध्ये	-1693
याच्या	-1694
▁&	-1695
▁मदत	-1696
▁टप्प	-1697
▁मन	-1698
ऐव	-1699
ेंबर	-1700
ारावर	-1701
▁आयपीसी	-1702
▁सरकारने	-1703
ज्य	-1704
▁बाजूला	-1705
▁तत्त्वा	-1706
▁करुन	-1707
▁असणे	-1708
▁कार्यक	-1709
▁नकार	-1710
त्व	-1711
हेर	-1712
जर	-1713
▁पासून	-1714
▁मागणी	-1715
▁कायद्यात	-1716
सर्ग	-1717
▁रकमे	-1718
▁under	-1719
▁दिलेली	-1720
▁विद्यापीठ	-1721
▁स्वा	-1722
▁आधारित	-1723
▁विस्त	-1724
कारक	-1725
िष्ट	-1726
▁तप	-1727
▁सहाय	-1728
▁केंद	-1729
▁प्रकल्प	-1730
▁जख	-1731
▁जबाबदार	-1732
▁रोख	-1733
ॅट	-1734
राष्ट	-1735
▁एखा	-1736
ंभीर	-1737
▁हिं	-1738
▁प्रश्ना	-1739
▁रोजीच्या	-1740
▁बंध	-1741
माच्या	-1742
काम	-1743
▁नै	-1744
पुर	-1745
षंग	-1746
त्म	-1747
▁वेत	-1748
▁येणार	-1749
▁निकाल	-1750
▁राज्यघटने	-1751
्यासाठी	-1752
▁करताना	-1753
▁देण्यासाठी	-1754
▁व्यावसायिक	-1755
ारख्या	-1756
ुरी	-1757
अर	-1758
▁व्ह	-1759
▁गंभीर	-1760
▁नव्हते	-1761
▁गुंतव	-1762
चन	-1763
▁क्षम	-1764
▁तंत्र	-1765
▁समर्थ	-1766
लीज	-1767
▁करणारे	-1768
षंगाने	-1769
▁लाभ	-1770
▁अड	-1771
मधून	-1772
▁अभ्यास	-1773
▁जग	-1774
▁प्रतिबंध	-1775
ुंब	-1776
▁आणखी	-1777
▁गरज	-1778
▁कराराच्या	-1779
▁f	-1780
▁यू	-1781
हक	-1782
विषयी	-1783
▁न्यायाधीशांनी	-1784
en	-1785
▁सरकारी	-1786
▁अनुषंगाने	-1787
▁गुणव	-1788
ोन	-1789
यांना	-1790
मुख	-1791
▁खास	-1792
▁घेणे	-1793
▁सामाजिक	-1794
नंद	-1795
टुंब	-1796
यात	-1797
▁उपाय	-1798
...	-1799
▁बजाव	-1800
▁the	-1801
▁समाधान	-1802
टर	-1803
▁निर्माण	-1804
ांतर्गत	-1805
▁कायदे	-1806
▁रुपये	-1807
▁उद्योग	-1808
ोप	-1809
संग	-1810
क्टर	-1811
▁एक्स	-1812
▁सुधारित	-1813
ावा	-1814
▁ठेवला	-1815
▁शिक्षण	-1816
▁समु	-1817
▁शेव	-1818
▁शै	-1819
▁दूर	-1820
ुष	-1821
▁p	-1822
▁प्रमाणपत्र	-1823
णू	-1824
ेवारी	-1825
▁to	-1826
▁वेगवे	-1827
्रास	-1828
▁मर्यादित	-1829
व्ही	-1830
▁पुनर	-1831
▁प्राधिकरणा	-1832
▁देऊन	-1833
▁मुद	-1834
▁व्यवसा	-1835
▁इंडिया	-1836
▁पुरावे	-1837
फा	-1838
▁एल	-1839
▁सामग्री	-1840
▁दिलेला	-1841
▁वैध	-1842
▁बहु	-1843
रिक	-1844
व्यव	-1845
▁कायद्यातील	-1846
▁उमेदवार	-1847
▁नव्हता	-1848
▁चालू	-1849
▁होत	-1850
▁होणार	-1851
▁मालक	-1852
रित्या	-1853
▁ठिकाणी	-1854
▁सूट	-1855
थील	-1856
▁निर्दिष्ट	-1857
कृ	-1858
पूर्व	-1859
यल	-1860
▁पुरे	-1861
▁शिकलेल्या	-1862
योज	-1863
ांद्वारे	-1864
▁राहि	-1865
ठा	-1866
मार्	-1867
▁आयुक्त	-1868
▁धोरण	-1869
▁पाठवि	-1870
▁असल्याने	-1871
▁सत्य	-1872
▁घड	-1873
▁न्यायाधिकरणा	-1874
सूल	-1875
लंबित	-1876
▁चि	-1877
▁केंद्रीय	-1878
ंगिक	-1879
▁फे	-1880
▁घाल	-1881
सर	-1882
क्षणिक	-1883
प्ती	-1884
▁असलेले	-1885
▁असले	-1886
▁महिन	-1887
दू	-1888
▁सीआर	-1889
िरी	-1890
▁हात	-1891
▁घेऊन	-1892
र्ध	-1893
दारा	-1894
▁फॉ	-1895
▁मंत्राल	-1896
▁अपय	-1897
▁स्वातंत्र्य	-1898
कल	-1899
▁शिक्षे	-1900
ासमोर	-1901
▁C	-1902
▁निर्णयावर	-1903
▁शैक्षणिक	-1904
▁काढून	-1905
▁त्	-1906
▁मुद्द	-1907
▁एज	-1908
हून	-1909
▁पद्धतीने	-1910
▁c	-1911
▁तक्रारी	-1912
▁विरोधात	-1913
द्दा	-1914
▁ले	-1915
ांकडून	-1916
लय	-1917
▁s	-1918
▁नागरी	-1919
▁वस्तु	-1920
▁पैसे	-1921
▁मुद्दा	-1922
ंका	-1923
राष्ट्रीय	-1924
▁नेमणूक	-1925
▁चार	-1926
जुरी	-1927
▁अग	-1928
▁पाव	-1929
तेचा	-1930
▁थेट	-1931
चि	-1932
टा	-1933
ेक्षा	-1934
कायदेशीर	-1935
▁पाच	-1936
▁टक्क	-1937
▁उदा	-1938
स्वी	-1939
▁लिमिट	-1940
▁फेटाळून	-1941
▁लिमिटेड	-1942
▁देऊ	-1943
▁कोर्टाचे	-1944
िता	-1945
▁मर्यादा	-1946
▁बोल	-1947
▁दुर्लक्ष	-1948
नाची	-1949
▁असेही	-1950
▁वाढवि	-1951
▁w	-1952
▁डिस	-1953
▁विमा	-1954
पीडब्ल्यू	-1955
▁गेल्या	-1956
ृह	-1957
▁कम	-1958
▁संचालक	-1959
काळ	-1960
▁देख	-1961
▁ठो	-1962
▁होतो	-1963
▁सिं	-1964
▁कॉर्प	-1965
ित्व	-1966
▁जागा	-1967
▁व्यापार	-1968
▁वाजवी	-1969
▁जिथे	-1970
▁वेगवेगळ्या	-1971
▁पदा	-1972
▁एकत्रित	-1973
▁अन्यथा	-1974
▁निर्धार	-1975
▁विद्य	-1976
▁वास्तव	-1977
ंच	-1978
जेत	-1979
▁कबु	-1980
▁कार्यकारी	-1981
ic	-1982
▁भाडेकर	-1983
▁मार्गद	-1984
▁विधानस	-1985
▁उद्दी	-1986
धिका	-1987
वासी	-1988
▁अंतर	-1989
▁बंधन	-1990
शस्वी	-1991
▁तारखेपासून	-1992
▁द्	-1993
▁उद्दीष्ट	-1994
▁पाहिजेत	-1995
▁वेतन	-1996
स्त्र	-1997
▁दंडा	-1998
देखील	-1999
▁विका	-2000
ंधी	-2001
▁अत	-2002
▁समर्थन	-2003
▁स्थापना	-2004
▁तारख	-2005
▁त्वरित	-2006
▁जरी	-2007
▁स्थापित	-2008
▁सर्वात	-2009
▁इत्या	-2010
▁अभिव्य	-2011
▁पुरव	-2012
ांनुसार	-2013
▁जागे	-2014
▁अधिनिय	-2015
▁त्याची	-2016
▁पाड	-2017
वल	-2018
▁अश	-2019
▁हस्तक्षेप	-2020
▁मंडळ	-2021
▁निवेदन	-2022
▁प्रशि	-2023
▁अयोग्य	-2024
▁इत्यादी	-2025
्याचे	-2026
वेत	-2027
पट्ट	-2028
१२	-2029
ंडळा	-2030
ंदा	-2031
रोबर	-2032
करी	-2033
▁इत	-2034
ष्टिक	-2035
▁पीड	-2036
▁विकासा	-2037
पूर	-2038
▁आठ	-2039
▁प्रकरणांमध्ये	-2040
▁जाणे	-2041
एच	-2042
▁नागर	-2043
▁व्यवसाय	-2044
▁चर्चा	-2045
वारी	-2046
द्योगिक	-2047
▁तपशील	-2048
▁किंमती	-2049
▁येथील	-2050
वाच्या	-2051
▁उत्पन्	-2052
भाष	-2053
▁बेकायदेशीर	-2054
an	-2055
▁लवादा	-2056
▁केल्याप्रमाणे	-2057
▁कल	-2058
ांशी	-2059
बल	-2060
▁सिंग	-2061
ह्य	-2062
▁स्वरूप	-2063
लट	-2064
▁कॅ	-2065
▁यंत्र	-2066
▁आंतरराष्ट्रीय	-2067
▁असताना	-2068
खंड	-2069
▁वकिला	-2070
▁कर्तव्य	-2071
▁महत्त्वपूर्ण	-2072
▁इमार	-2073
▁नियमित	-2074
▁वर्षे	-2075
▁अटक	-2076
▁येते	-2077
▁आढळले	-2078
भार	-2079
▁व्यक्तीला	-2080
▁कृती	-2081
मन	-2082
▁औद्योगिक	-2083
ॉन	-2084
ion	-2085
▁आयोज	-2086
▁असतात	-2087
▁घेतले	-2088
▁केल्यावर	-2089
लात	-2090
▁ग्र	-2091
▁त्यात	-2092
▁कॉर्पोर	-2093
▁विधिम	-2094
▁ग्राहक	-2095
]]	-2096
▁विकस	-2097
▁जवळ	-2098
▁उर्	-2099
▁निदर्श	-2100
▁अधिसूचने	-2101
▁सूचना	-2102
▁प्रभावी	-2103
▁अपीलकर्त्याच्या	-2104
▁आत	-2105
▁कोटी	-2106
▁प्रत्यक्ष	-2107
धान्य	-2108
ाद्वारे	-2109
▁संघ	-2110
हीर	-2111
ढे	-2112
▁राम	-2113
▁मुक्त	-2114
प्ट	-2115
▁वास्तविक	-2116
▁विषय	-2117
▁परिणामी	-2118
▁व्यक्तीच्या	-2119
▁पुनराव	-2120
▁कल्प	-2121
्येष्ठ	-2122
▁स्थापन	-2123
िर	-2124
▁दृष्टीने	-2125
▁जसे	-2126
ated	-2127
▁जन्	-2128
▁तिला	-2129
न्सी	-2130
वेळी	-2131
▁सत्र	-2132
▁घर	-2133
▁संब	-2134
त्वात	-2135
▁वर्ण	-2136
▁शंका	-2137
▁भूम	-2138
▁निदर्शनास	-2139
▁पीडित	-2140
▁खर्च	-2141
▁पुनर्	-2142
▁दृष्टिक	-2143
▁आधारावर	-2144
▁कार्यक्रम	-2145
▁मिळवि	-2146
▁घेतल्या	-2147
ज्ञापत्र	-2148
▁घोषित	-2149
▁बनवि	-2150
▁लाख	-2151
▁जाहीर	-2152
▁भूमिका	-2153
▁दाव	-2154
▁अट	-2155
▁वार	-2156
▁नागरिक	-2157
▁पुरेसे	-2158
▁अस्तित्त्वात	-2159
▁वाहन	-2160
णेकर	-2161
▁कुटुंब	-2162
▁ज्येष्ठ	-2163
नाचा	-2164
▁निर्दोष	-2165
▁जेणेकर	-2166
▁कामका	-2167
ंटर	-2168
▁अभिव्यक्ती	-2169
ऐवजी	-2170
▁वस्तुस्थिती	-2171
▁बंद	-2172
▁कुमार	-2173
▁at	-2174
▁संदर्भित	-2175
नासाठी	-2176
▁अपयशी	-2177
वाचे	-2178
▁मागील	-2179
▁मंजुरी	-2180
▁रू	-2181
▁वन	-2182
▁गेलेल्या	-2183
▁d	-2184
होत	-2185
▁पुष्टी	-2186
धिकारी	-2187
्याचा	-2188
ेस	-2189
▁रुग्	-2190
▁आहोत	-2191
पड	-2192
▁हमी	-2193
▁संसद	-2194
गिरी	-2195
▁घेण्यासाठी	-2196
▁प्रतिज्ञापत्र	-2197
▁प्रव	-2198
एक्सएक्स	-2199
▁सुविधा	-2200
▁खु	-2201
र्जी	-2202
▁देताना	-2203
कु	-2204
नातून	-2205
र्देश	-2206
▁सुरक्षा	-2207
▁कारणे	-2208
▁बस	-2209
थमिक	-2210
ेय	-2211
वत	-2212
▁ऐक	-2213
▁आपले	-2214
▁पृ	-2215
▁टप्प्यावर	-2216
▁by	-2217
्रेणी	-2218
▁वाह	-2219
टे	-2220
ad	-2221
▁मागे	-2222
▁मुदत	-2223
▁जनरल	-2224
विद्या	-2225
▁सूचित	-2226
▁विद्यार्थ	-2227
▁एफआयआर	-2228
▁नोंदव	-2229
यांच्या	-2230
▁कठ	-2231
▁न्याय्य	-2232
▁परिष	-2233
▁व्यक्तीने	-2234
▁अगदी	-2235
▁प्रलंबित	-2236
▁परदेश	-2237
▁सुरक्षित	-2238
al	-2239
▁स्वाक्ष	-2240
ीला	-2241
ॅक्ट	-2242
▁प्राथमिक	-2243
ठाव	-2244
▁तरीही	-2245
▁दाख	-2246
▁एच	-2247
▁सर्वसा	-2248
▁एकल	-2249
फत	-2250
▁पाह	-2251
▁अधिकारा	-2252
▁वर्षांच्या	-2253
ro	-2254
▁काढला	-2255
प्रिल	-2256
▁देण्याची	-2257
iii	-2258
▁परवा	-2259
▁काळजी	-2260
सम	-2261
▁१	-2262
▁ता	-2263
▁ज्यामुळे	-2264
▁ठोठाव	-2265
र्मा	-2266
▁पर्यावर	-2267
▁कठोर	-2268
मो	-2269
▁आनंद	-2270
्रि	-2271
▁राज्यातील	-2272
र्न	-2273
▁पार्	-2274
▁भि	-2275
जि	-2276
▁कधी	-2277
▁देण्याच्या	-2278
▁बै	-2279
▁ज्ञ	-2280
▁युनिट	-2281
▁स्थानिक	-2282
▁भांड	-2283
▁क्षमता	-2284
▁प्रस्ताव	-2285
▁जोपर्यंत	-2286
▁एप्रिल	-2287
▁सहभाग	-2288
त्री	-2289
▁बार	-2290
▁विहित	-2291
▁O	-2292
दात	-2293
▁गट	-2294
▁आपला	-2295
सारख्या	-2296
▁शिफारस	-2297
ंबई	-2298
▁अर्जा	-2299
व्यवस्थ	-2300
णि	-2301
▁सात	-2302
▁देण्याचे	-2303
तेवर	-2304
दंड	-2305
तेची	-2306
भू	-2307
▁प्राधान्य	-2308
▁कायद्याने	-2309
▁उपक्रम	-2310
▁आल्या	-2311
▁अध्या	-2312
▁वाटप	-2313
तक	-2314
▁संयुक्त	-2315
▁त्यांचा	-2316
सर्गिक	-2317
▁रूप	-2318
▁आमचे	-2319
▁महाविद्या	-2320
ानंतर	-2321
गु	-2322
▁सभ	-2323
तेचे	-2324
▁नियंत्रण	-2325
ग्न	-2326
▁नियमन	-2327
▁प्रशिक्षण	-2328
▁मार्च	-2329
▁मुंबई	-2330
लोक	-2331
▁उदाह	-2332
is	-2333
▁नसते	-2334
▁जाणार्	-2335
ेल्	-2336
यू	-2337
▁किंमत	-2338
▁दिवाणी	-2339
▁फरक	-2340
▁तिस	-2341
▁भेट	-2342
कर्ते	-2343
ांसह	-2344
णूकी	-2345
▁उत्पन्न	-2346
▁एकदा	-2347
सीआय	-2348
▁ज्याने	-2349
ंबंधी	-2350
संबंध	-2351
करिता	-2352
श्च	-2353
त्रिक	-2354
▁M	-2355
▁असो	-2356
व्यतिरिक्त	-2357
▁जोर	-2358
▁निर्णयाच्या	-2359
दाराने	-2360
▁खाण	-2361
▁मद	-2362
भाव्य	-2363
▁आत्म	-2364
नाचे	-2365
बीआय	-2366
▁विवे	-2367
▁पद्धती	-2368
यन	-2369
रिया	-2370
विधान	-2371
▁पत्	-2372
▁रिक्त	-2373
इन	-2374
▁ऑपर	-2375
▁यापूर्वी	-2376
घात	-2377
▁बांधकाम	-2378
क्शन	-2379
ृता	-2380
▁क्षेत्रात	-2381
▁जन्म	-2382
▁स्त्र	-2383
▁विकसित	-2384
▁मार्गदर्श	-2385
लीन	-2386
▁विवाद	-2387
▁विधिमंडळ	-2388
निव	-2389
▁नोट	-2390
ासह	-2391
▁देत	-2392
▁असता	-2393
एलपी	-2394
पुढे	-2395
ारीख	-2396
▁संभाव्य	-2397
ांमुळे	-2398
▁मोज	-2399
▁कायद्याचा	-2400
▁न्यायालयासमोर	-2401
th	-2402
▁उत्तरदाय	-2403
▁सेवे	-2404
▁निधी	-2405
्यांचे	-2406
▁निर्म	-2407
▁बाहेर	-2408
▁महिला	-2409
▁प्रार्थ	-2410
▁मज	-2411
▁भाडेकरू	-2412
▁माझ्या	-2413
▁नसल्या	-2414
▁समितीने	-2415
▁तां	-2416
ारण	-2417
ार्थी	-2418
▁सर्वसाधारण	-2419
▁तत्	-2420
मस	-2421
▁हजर	-2422
लयात	-2423
▁जावे	-2424
▁तंत्रज्ञान	-2425
▁हायकोर्टाच्या	-2426
▁अत्यंत	-2427
ख्ये	-2428
त्सा	-2429
पूर्वक	-2430
ृत्त	-2431
▁दावे	-2432
▁अधिसूचना	-2433
▁किमान	-2434
▁कायद्याचे	-2435
▁वर्णन	-2436
▁आवा	-2437
▁प्रतिनिधी	-2438
ामध्ये	-2439
खे	-2440
करणे	-2441
▁परवाना	-2442
▁पीसी	-2443
▁कमिशन	-2444
▁नैसर्गिक	-2445
▁पोहो	-2446
▁मृता	-2447
▁म्हणणे	-2448
▁डेट	-2449
▁खर्चा	-2450
▁यासाठी	-2451
▁परिभाष	-2452
▁कर्मचारी	-2453
▁नेह	-2454
ंनुसार	-2455
▁ठेवणे	-2456
▁व्यक्तीस	-2457
▁संविधान	-2458
▁माध्य	-2459
▁प्रग	-2460
त्ती	-2461
न्नती	-2462
▁त्याद्वारे	-2463
▁Act	-2464
▁असतो	-2465
▁अधिग्रह	-2466
▁पाया	-2467
नावर	-2468
ंत्री	-2469
▁करणा	-2470
▁भिन्न	-2471
▁घेऊ	-2472
▁ज्याचा	-2473
▁जान	-2474
१३	-2475
▁उपचार	-2476
▁प्रोत्सा	-2477
▁धर	-2478
▁दखल	-2479
▁केल्याने	-2480
▁ठेवण्यात	-2481
▁तरतुदीनुसार	-2482
▁तारीख	-2483
▁वेब	-2484
▁अपीला	-2485
▁ठरव	-2486
▁जाणार	-2487
▁II	-2488
▁करावा	-2489
म्म	-2490
▁पूर्वीच्या	-2491
▁जीव	-2492
▁बाजार	-2493
▁यांच्यात	-2494
▁नोंदी	-2495
▁निवडणूक	-2496
▁मुखर्जी	-2497
▁पेट	-2498
▁ठरेल	-2499
▁सचि	-2500
ांकडे	-2501
▁अंमलात	-2502
ैंगिक	-2503
शाही	-2504
ज्	-2505
▁न्यायाधिकरणाने	-2506
ूर्ती	-2507
▁झाल्यास	-2508
ोका	-2509
▁दर्शवित	-2510
▁शक्यता	-2511
स्थान	-2512
र्शन	-2513
▁यात	-2514
▁पदो	-2515
▁तात	-2516
▁चालवि	-2517
▁जीवन	-2518
▁आक्षेप	-2519
▁बॉ	-2520
▁वगळता	-2521
स्थाप	-2522
▁पोहोच	-2523
▁आयोजित	-2524
▁जाहि	-2525
▁नसल्यास	-2526
ठे	-2527
▁कौत	-2528
▁मार	-2529
▁रुग्णा	-2530
ल्ड	-2531
लीजबाब	-2532
▁व्याख्या	-2533
ित्र	-2534
▁प्रमुख	-2535
▁गुणवत्	-2536
▁हस्तांतरित	-2537
▁संकल्प	-2538
▁खासगी	-2539
ैन	-2540
▁घेण्याची	-2541
ॅक्स	-2542
▁बर्	-2543
▁बैठ	-2544
▁कबुलीजबाब	-2545
धिकार	-2546
▁संशोध	-2547
श्व	-2548
▁सहकार	-2549
विष	-2550
▁राज्याच्या	-2551
▁काहीही	-2552
फोट	-2553
पो	-2554
▁सुस	-2555
▁याचिके	-2556
▁केल्यास	-2557
▁फायदा	-2558
▁मालकी	-2559
पाला	-2560
्यातील	-2561
▁करावी	-2562
▁लवादाच्या	-2563
▁शह	-2564
चारा	-2565
▁प्रतिक	-2566
▁यामुळे	-2567
▁वी	-2568
▁देणा	-2569
▁समस	-2570
▁सवल	-2571
▁खर	-2572
ल्स	-2573
▁वड	-2574
ांश	-2575
साइट	-2576
ॉक	-2577
000	-2578
ादन	-2579
▁जातील	-2580
▁बोर्ड	-2581
▁पॅरा	-2582
▁वर्षां	-2583
▁मार्गदर्शक	-2584
्याची	-2585
▁पृष्ठ	-2586
▁न्यायम	-2587
▁देशातील	-2588
▁भविष	-2589
▁शिकलेला	-2590
▁व्यवस्थापन	-2591
▁पक्षा	-2592
##	-2593
▁कागदपत्रे	-2594
णाली	-2595
▁उलट	-2596
ोत	-2597
पात	-2598
▁सापड	-2599
em	-2600
द्धी	-2601
पक्ष	-2602
▁समाज	-2603
लि	-2604
▁पूर्त	-2605
▁वाग	-2606
▁मानवी	-2607
मिळ	-2608
▁स्वाक्षरी	-2609
▁जानेवारी	-2610
▁भाड	-2611
▁न्यायालये	-2612
▁कायद्याची	-2613
▁निर्णयाचा	-2614
▁पदोन्नती	-2615
▁मुल	-2616
वार्य	-2617
ंशी	-2618
▁विद्यमान	-2619
मच्या	-2620
▁नाव	-2621
स्ट्र	-2622
ाकडे	-2623
▁अँड	-2624
▁प्रे	-2625
▁श्रेणी	-2626
▁कंपनीच्या	-2627
▁पोस्ट	-2628
▁बचा	-2629
▁विश्ले	-2630
▁अपंग	-2631
गड	-2632
▁नव	-2633
▁वैशिष्ट	-2634
निश्चित	-2635
मातील	-2636
मार्फत	-2637
▁साहित	-2638
▁अनिवार्य	-2639
याच	-2640
▁त्यामध्ये	-2641
वाची	-2642
▁योग	-2643
▁आपली	-2644
▁न्यायमूर्ती	-2645
तून	-2646
ान्स	-2647
▁ठेवली	-2648
▁शी	-2649
ent	-2650
▁अनुसूचित	-2651
▁विधेय	-2652
▁असूनही	-2653
▁झाल्यानंतर	-2654
फ्ट	-2655
मारे	-2656
▁दिवशी	-2657
▁विस्तृत	-2658
क्ता	-2659
▁पाहिले	-2660
गस्ट	-2661
▁महान	-2662
क्यात	-2663
▁सुरु	-2664
ूदी	-2665
▁अनुसूची	-2666
▁सहकारी	-2667
▁एसएलपी	-2668
▁वेबसाइट	-2669
▁तुल	-2670
▁ठा	-2671
▁तरतूदी	-2672
▁लव	-2673
▁थोड	-2674
▁फॉर्म	-2675
ॉट	-2676
▁सार	-2677
लत	-2678
▁प्रशासकीय	-2679
▁ऑगस्ट	-2680
डि	-2681
▁P	-2682
▁तिने	-2683
▁एजन्सी	-2684
▁दुसरे	-2685
▁बंधनकारक	-2686
il	-2687
▁आधीच	-2688
▁पाळ	-2689
▁सुनिश्चित	-2690
▁राज्यात	-2691
▁ठेवण्यासाठी	-2692
▁क्षेत्रातील	-2693
वड	-2694
▁आरोग्य	-2695
▁अपीलकर्त्यास	-2696
▁संबोध	-2697
▁नान	-2698
ेने	-2699
▁खात्री	-2700
▁प्रणाली	-2701
ंता	-2702
षिक	-2703
▁शिक्षक	-2704
▁जबाबदारी	-2705
▁तांत्रिक	-2706
कालीन	-2707
iv	-2708
▁डब्ल्यू	-2709
▁पॉल	-2710
▁संहिता	-2711
▁लोकांच्या	-2712
योगे	-2713
▁प्रस्तावित	-2714
................	-2715
ार्षिक	-2716
▁एखादी	-2717
ुर	-2718
▁खटल्याची	-2719
▁मिळव	-2720
▁पत्नी	-2721
▁परदेशी	-2722
वर्त	-2723
▁पहा	-2724
▁अल्प	-2725
▁R	-2726
▁दी	-2727
▁आणून	-2728
re	-2729
▁कायद्यांतर्गत	-2730
▁नावे	-2731
▁प्रतिबंधित	-2732
▁कार्यक्षम	-2733
▁पात	-2734
प्टेंबर	-2735
▁अहवालात	-2736
▁सुमारे	-2737
▁गण	-2738
▁सुट	-2739
▁शेवटी	-2740
▁नाम	-2741
▁सहाय्यक	-2742
▁गुंतवणूक	-2743
▁असलेली	-2744
▁गोप	-2745
नियम	-2746
▁आयोगाने	-2747
▁इच्छा	-2748
▁मिळाल	-2749
▁मॅ	-2750
▁नव्हे	-2751
▁व्यवसाया	-2752
▁संघट	-2753
▁वाजता	-2754
▁पट	-2755
▁T	-2756
वाचा	-2757
पट्टी	-2758
▁पि	-2759
▁पुनरु	-2760
▁लिहि	-2761
ाट	-2762
▁डिसेंबर	-2763
▁टक्के	-2764
▁प्रार्थना	-2765
▁कौतुक	-2766
▁टे	-2767
न्मान	-2768
णव	-2769
▁सरकारला	-2770
▁सप्टेंबर	-2771
्ड	-2772
ाबाद	-2773
शल	-2774
▁त्रास	-2775
▁हस्तांतरण	-2776
▁भेद	-2777
ेले	-2778
▁सुधारणा	-2779
st	-2780
▁अधिग्रहण	-2781
▁इन्	-2782
▁मंडळा	-2783
▁कर्ना	-2784
▁आतापर्यंत	-2785
▁जाती	-2786
▁प्रस	-2787
▁पर्याय	-2788
▁लैंगिक	-2789
▁भवन	-2790
ल्याप्रमाणे	-2791
▁गोपनीय	-2792
▁प्रतिनिध	-2793
▁नेहमी	-2794
▁भारताचे	-2795
▁परिषद	-2796
▁कालावधीसाठी	-2797
▁कल्या	-2798
▁हेतूने	-2799
▁संसदे	-2800
▁जेणेकरून	-2801
▁ठेवून	-2802
बे	-2803
बात	-2804
नाने	-2805
ियन	-2806
▁फी	-2807
▁तथ्य	-2808
▁नं	-2809
▁केल्यानुसार	-2810
पण	-2811
झा	-2812
▁संख्या	-2813
▁आरोपींना	-2814
भूमी	-2815
▁कंपन	-2816
याम	-2817
रस	-2818
रत	-2819
िव्ह	-2820
▁मर्यादे	-2821
▁आणले	-2822
▁भारतात	-2823
ांपैकी	-2824
मसलत	-2825
▁जखमी	-2826
▁तरतुदींच्या	-2827
▁आरोपींनी	-2828
▁तारखेला	-2829
▁निरा	-2830
गरपाल	-2831
▁सन्मान	-2832
▁पूर्तता	-2833
तः	-2834
खर	-2835
षी	-2836
▁ठरले	-2837
▁वर्षाच्या	-2838
▁आधीच्या	-2839
▁नसेल	-2840
▁भारतातील	-2841
▁कामगिरी	-2842
▁आहेः	-2843
▁दुसरी	-2844
▁सर्वा	-2845
▁पात्रता	-2846
▁व्यतिरिक्त	-2847
▁भागी	-2848
काशवाणी	-2849
▁कोर्टाला	-2850
▁भौ	-2851
▁पुनरावलोक	-2852
▁प्रगती	-2853
ंडो	-2854
धन	-2855
,000	-2856
▁शिक्षणा	-2857
▁अय	-2858
ेशी	-2859
यांनी	-2860
▁पुरवि	-2861
▁अपवाद	-2862
▁यांचा	-2863
ांब	-2864
ॉड	-2865
▁आढावा	-2866
▁जामीन	-2867
ुलै	-2868
▁ज्याच्या	-2869
▁साठी	-2870
▁स्तर	-2871
▁ated	-2872
ोरी	-2873
▁क्ल	-2874
▁व्ही	-2875
सायटी	-2876
.,	-2877
▁रजा	-2878
▁देते	-2879
▁कर्नाटक	-2880
▁सेवानिव	-2881
▁...	-2882
▁स्क	-2883
▁एखादा	-2884
व्हेंबर	-2885
▁महसूल	-2886
▁विलंब	-2887
▁काळात	-2888
▁राजकीय	-2889
परि	-2890
लू	-2891
स्टर	-2892
▁अमे	-2893
▁घेण्याचा	-2894
ंकडून	-2895
▁जुलै	-2896
▁दंडाधिका	-2897
▁निष	-2898
▁सल्लामसलत	-2899
णाच्या	-2900
जगी	-2901
▁भागात	-2902
▁सामील	-2903
▁माध्यम	-2904
▁जप्त	-2905
▁वाढी	-2906
अप	-2907
शान	-2908
▁इंग	-2909
▁तत्त्वे	-2910
▁अध्याय	-2911
▁करण्यापूर्वी	-2912
▁नोव्हेंबर	-2913
याने	-2914
▁खो	-2915
१४	-2916
सिक	-2917
ंसह	-2918
▁दोघ	-2919
▁करावे	-2920
▁नोंदणीकृत	-2921
मिनी	-2922
▁लोकशाही	-2923
लीकडे	-2924
▁x	-2925
▁नसलेल्या	-2926
ber	-2927
सव	-2928
▁नियमांनुसार	-2929
▁याचिकाकर्त्याने	-2930
▁देतो	-2931
▁त्याचप्रमाणे	-2932
▁वं	-2933
▁वार्षिक	-2934
दृ	-2935
▁डॉक्टर	-2936
▁पार्श्व	-2937
ल्ला	-2938
▁पदवी	-2939
▁पॉलि	-2940
▁निर	-2941
▁इन	-2942
ब्रु	-2943
▁विंडो	-2944
▁m	-2945
▁प्राधिकरणाने	-2946
▁अंदा	-2947
▁निकाली	-2948
▁माजी	-2949
ब्रुवारी	-2950
▁ट्रस्ट	-2951
▁उपस्थिती	-2952
▁गा	-2953
▁अस्	-2954
▁यशस्वी	-2955
ing	-2956
ध्या	-2957
▁पार्श्वभूमी	-2958
ल्हे	-2959
▁कृषी	-2960
▁पातळी	-2961
▁व्यापक	-2962
▁समाजा	-2963
▁उभे	-2964
▁संमती	-2965
▁आवाहन	-2966
▁कल्पना	-2967
▁तोपर्यंत	-2968
ाप्र	-2969
▁राख	-2970
मंडळ	-2971
▁खाजगी	-2972
▁ज्यायोगे	-2973
▁फेब्रुवारी	-2974
▁क्रिया	-2975
ार्ड	-2976
▁ठराव	-2977
▁पदार्थ	-2978
▁परिभाषित	-2979
ाप्	-2980
▁आरोपीला	-2981
क्टो	-2982
▁राहून	-2983
▁टाळ	-2984
▁सिंह	-2985
णीय	-2986
वाट	-2987
▁हि	-2988
▁..	-2989
▁आदेशा	-2990
▁संरक्षणा	-2991
लन	-2992
▁शरी	-2993
▁अनुदान	-2994
▁प्रणव	-2995
▁l	-2996
▁दश	-2997
रिटी	-2998
त्तर	-2999
डू	-3000
▁आयात	-3001
णु	-3002
हान	-3003
▁गुंतवणूकी	-3004
▁न्यायाच्या	-3005
▁घात	-3006
▁चांगले	-3007
यंत्र	-3008
▁महारा	-3009
▁अडथ	-3010
▁लवकर	-3011
णुकी	-3012
▁ज्ञान	-3013
क्टोबर	-3014
▁सोसायटी	-3015
ंजाब	-3016
एससी	-3017
▁बाल	-3018
▁मंद	-3019
िक्री	-3020
▁डो	-3021
▁कर्तव	-3022
▁भरती	-3023
▁समितीच्या	-3024
ंकडे	-3025
विण्यात	-3026
▁केल्याबद्दल	-3027
▁केस	-3028
क्का	-3029
▁आयकर	-3030
▁अंतरिम	-3031
▁कोर्टासमोर	-3032
▁खनि	-3033
ur	-3034
▁ऑक्टोबर	-3035
लो	-3036
▁बॅ	-3037
पद्ध	-3038
▁पुस्त	-3039
▁आकाशवाणी	-3040
▁झाल्यावर	-3041
▁जून	-3042
पन	-3043
▁लॉ	-3044
▁निवि	-3045
▁निकालाच्या	-3046
र्चे	-3047
▁विंडोमध्ये	-3048
▁कार्यक्षेत्रात	-3049
ेली	-3050
▁संव	-3051
▁विल्हे	-3052
▁मै	-3053
ापासून	-3054
ेचे	-3055
▁वय	-3056
▁घटन	-3057
▁अत्या	-3058
श्वास	-3059
▁आपल्याला	-3060
▁चुकीच्या	-3061
ाव्या	-3062
▁शब्दांत	-3063
▁सल्ल्यानुसार	-3064
▁मना	-3065
▁अर्जदार	-3066
▁आकर्ष	-3067
आयसी	-3068
▁निर्या	-3069
वू	-3070
व्हर	-3071
▁नफा	-3072
▁पंजाब	-3073
▁कामकाज	-3074
as	-3075
▁कोर्टाचा	-3076
▁टिक	-3077
ेल्वे	-3078
▁शब्दा	-3079
▁सल्लागार	-3080
▁केर	-3081
▁संशोधन	-3082
▁दिवसांच्या	-3083
▁चर्चे	-3084
▁वस्तूंच्या	-3085
▁दिलेले	-3086
▁दर्शविली	-3087
ष्टात	-3088
▁विषयावर	-3089
▁संपु	-3090
न्याया	-3091
▁असला	-3092
▁थांब	-3093
▁प्रकाशात	-3094
ear	-3095
मीण	-3096
▁कट	-3097
बद्ध	-3098
▁राज्यपाला	-3099
▁चूक	-3100
ईपर्यंत	-3101
▁नियमांच्या	-3102
कला	-3103
▁चुकीचे	-3104
▁पण	-3105
▁संपुष्टात	-3106
३०	-3107
न्सिल	-3108
▁जबाबदा	-3109
▁कार्यपद्ध	-3110
चर	-3111
बरोबर	-3112
तम	-3113
▁[]]	-3114
▁ताबा	-3115
▁उदाहरण	-3116
ॉल्ट	-3117
वते	-3118
▁अवि	-3119
ापती	-3120
▁सुच	-3121
▁ट्रा	-3122
▁पुराव्यां	-3123
▁v	-3124
▁रेल्वे	-3125
ंडा	-3126
▁अमेरिक	-3127
▁जाहिरात	-3128
्याला	-3129
▁सिद्धांत	-3130
▁व्यवस्था	-3131
▁डे	-3132
▁सामर्थ	-3133
ित्तीय	-3134
साची	-3135
▁असावा	-3136
▁घेण्या	-3137
इल	-3138
क्षि	-3139
सन	-3140
तेक	-3141
▁पैलू	-3142
ापर	-3143
▁मुली	-3144
▁भाव	-3145
▁जागतिक	-3146
डीए	-3147
▁पुरवठा	-3148
▁मिळाला	-3149
▁पॉलिसी	-3150
▁ग्रामीण	-3151
▁जमिनी	-3152
जार	-3153
व्हिल	-3154
▁विल्हेवाट	-3155
जित	-3156
तेने	-3157
भाल	-3158
▁h	-3159
▁केरळ	-3160
▁खटल्याचा	-3161
▁उर्वरित	-3162
▁विवाह	-3163
▁त्यावर	-3164
▁निर्णयामध्ये	-3165
▁प्रतिनिधित्व	-3166
▁शेवट	-3167
▁सभाग	-3168
▁व्याप्ती	-3169
.)	-3170
तेनुसार	-3171
्यांसाठी	-3172
▁विस्तार	-3173
▁थक	-3174
▁ब्र	-3175
▁देण्याचा	-3176
शानि	-3177
▁जखम	-3178
शानिर्देश	-3179
▁येऊ	-3180
▁मागित	-3181
▁अपात्र	-3182
▁नोकरी	-3183
▁नात	-3184
▁बहुतेक	-3185
▁घटनेत	-3186
▁उत्तरदात	-3187
▁संहितेच्या	-3188
▁पाठिं	-3189
▁देखभाल	-3190
▁प्रतिवादीने	-3191
▁स्वरु	-3192
▁कार्यपद्धती	-3193
आयटी	-3194
▁दिशानिर्देश	-3195
▁संसा	-3196
▁कंत्र	-3197
▁दुख	-3198
▁यांची	-3199
▁ज्याला	-3200
▁मार्गाने	-3201
▁बंग	-3202
ार्ह	-3203
कांच्या	-3204
▁सेट	-3205
▁कल्याण	-3206
▁वित्तीय	-3207
न्शन	-3208
फी	-3209
▁स्पर्ध	-3210
ंद्वारे	-3211
फॉल्ट	-3212
▁त्यामुळे	-3213
▁नसल्यामुळे	-3214
▁डेटा	-3215
▁वितरण	-3216
▁तरतुदींचा	-3217
▁फाशी	-3218
ंडी	-3219
▁निकष	-3220
ाप्ती	-3221
▁)	-3222
राज्य	-3223
▁घोषणा	-3224
स्टम	-3225
▁वाचन	-3226
▁शीर्ष	-3227
▁अपघात	-3228
ापर्यंत	-3229
▁शेत	-3230
ूतनी	-3231
▁सां	-3232
▁खटल्यात	-3233
▁उचल	-3234
यं	-3235
▁लोकांना	-3236
▁दृष्टिको	-3237
स्पर	-3238
▁व्हि	-3239
▁मध्यस्थ	-3240
न्ट	-3241
भर	-3242
▁कॉर्पोरेट	-3243
▁पारित	-3244
विरोध	-3245
▁औष	-3246
▁खनिज	-3247
▁राज्याने	-3248
ार्मिक	-3249
▁मालमत्तेच्या	-3250
कात	-3251
▁विसंग	-3252
▁तर्क	-3253
▁औचित	-3254
▁हुक	-3255
▁नूतनी	-3256
▁भारताच्या	-3257
ल्याच्या	-3258
पट	-3259
सो	-3260
▁विधानसभ	-3261
ारंभ	-3262
▁अपीलकर्त्यांनी	-3263
शीर	-3264
▁असणारी	-3265
▁नावा	-3266
▁सिक	-3267
▁भौतिक	-3268
▁पास	-3269
शनल	-3270
▁कार्यरत	-3271
कारे	-3272
▁पूर्वग्रह	-3273
ेव्ह	-3274
स्पद	-3275
▁इले	-3276
▁सहमत	-3277
सिए	-3278
▁दराने	-3279
ष्ट्या	-3280
ारीरिक	-3281
▁केल्यामुळे	-3282
▁ज्यांना	-3283
▁शस्त	-3284
ेचा	-3285
▁परस्पर	-3286
▁होण्यापूर्वी	-3287
▁कब	-3288
▁पायाभूत	-3289
▁तथ्ये	-3290
▁भाड्याने	-3291
▁दुसरा	-3292
स्तीत	-3293
▁वसूल	-3294
▁होण्याची	-3295
▁सोप	-3296
▁करणारा	-3297
▁दुसरीकडे	-3298
▁दंडनीय	-3299
▁माननीय	-3300
▁पाठिंबा	-3301
▁केल्याचा	-3302
▁दिसते	-3303
▁रहि	-3304
▁विवेक	-3305
चारिक	-3306
ाई	-3307
▁धार्मिक	-3308
रातील	-3309
▁घेण्याच्या	-3310
णीव	-3311
▁प्	-3312
▁मोह	-3313
▁समाधानी	-3314
▁हिंदू	-3315
▁महत्	-3316
▁एकम	-3317
▁धर्म	-3318
कांना	-3319
त्कार	-3320
▁देईल	-3321
▁बैठकी	-3322
जय	-3323
्रीम	-3324
▁विशेषतः	-3325
▁संघटने	-3326
▁वापरल्या	-3327
▁भेदभाव	-3328
▁खंडपीठाच्या	-3329
▁शारीरिक	-3330
▁निर्बंध	-3331
गण	-3332
▁अपीलीय	-3333
▁कमतर	-3334
▁दहा	-3335
▁चांगल्या	-3336
नेत	-3337
▁सीबीआय	-3338
▁वाहत	-3339
▁समजले	-3340
▁औचित्य	-3341
▁राज्यघटनेच्या	-3342
▁सुरुवा	-3343
गो	-3344
ंगत	-3345
▁चुक	-3346
्रिक	-3347
▁बाय	-3348
▁प्रोत्साहन	-3349
काळी	-3350
▁वित्त	-3351
▁व्यक्तींना	-3352
▁दह	-3353
प्रे	-3354
▁असोसिए	-3355
▁नेहमीच	-3356
fic	-3357
लाय	-3358
क्षेच्या	-3359
▁निविदा	-3360
▁कृत	-3361
ay	-3362
▁जाणा	-3363
▁दृष्टीको	-3364
▁ठेवता	-3365
▁विश्लेषण	-3366
विरोधात	-3367
▁देणार्	-3368
▁एकाच	-3369
ासिक	-3370
▁महाराष्ट	-3371
▁जाणीव	-3372
▁सन	-3373
▁उद्य	-3374
▁धोका	-3375
▁लीज	-3376
दाना	-3377
▁सेवेत	-3378
▁मंत्री	-3379
ॉर	-3380
▁अपीलार्थी	-3381
१५	-3382
▁लो	-3383
बाकी	-3384
स्य	-3385
▁परीक्षा	-3386
▁परता	-3387
तेसाठी	-3388
▁घेतल्यानंतर	-3389
▁खरं	-3390
▁आयटी	-3391
▁खोट	-3392
▁पदावर	-3393
खेरी	-3394
▁आयुष	-3395
▁संपर्क	-3396
ंचाय	-3397
▁त्यापैकी	-3398
▁वादा	-3399
ोवेळी	-3400
्टी	-3401
▁सौ	-3402
द्धा	-3403
▁फार	-3404
काची	-3405
rom	-3406
येत	-3407
▁प्रतिवादीला	-3408
एसी	-3409
▁त्यानंतरच्या	-3410
फे	-3411
ैध	-3412
▁कबूल	-3413
▁लॉर्ड	-3414
▁विश्व	-3415
▁सुप	-3416
ेध	-3417
▁सॉ	-3418
▁वेळोवेळी	-3419
▁कंपन्या	-3420
दि	-3421
जवळ	-3422
क्वि	-3423
▁आदेशाच्या	-3424
▁वीज	-3425
▁थकबाकी	-3426
▁वापरली	-3427
लभ	-3428
▁प्रकरणे	-3429
ुत	-3430
▁एक्	-3431
▁वेगळे	-3432
▁पुनर्प्र	-3433
▁तात्	-3434
id	-3435
▁हरिया	-3436
▁तक्रारदार	-3437
▁अभियोग	-3438
▁यापुढे	-3439
▁कौन्सिल	-3440
▁खरेदीदार	-3441
द्र	-3442
▁गां	-3443
▁स्टेशन	-3444
am	-3445
▁अनुप	-3446
▁न्यायिक	-3447
ember	-3448
▁निषेध	-3449
ायी	-3450
▁लावला	-3451
नादेश	-3452
▁रुपया	-3453
▁तरतुदींचे	-3454
▁कोणा	-3455
▁तिचा	-3456
▁तित	-3457
▁अनुभव	-3458
कट	-3459
तीची	-3460
▁अर्थाने	-3461
आरो	-3462
▁अवैध	-3463
▁हितासाठी	-3464
▁सामना	-3465
ल्याबद्दल	-3466
▁नमु	-3467
▁पेन्शन	-3468
▁कॉर्पोरेशन	-3469
▁येणा	-3470
िकी	-3471
र्जा	-3472
▁आई	-3473
▁बंदी	-3474
▁योगदान	-3475
▁रचना	-3476
▁केल्यानंतर	-3477
म्मद	-3478
▁एकर	-3479
▁गुज	-3480
▁गृह	-3481
▁महिन्यांच्या	-3482
▁गुणवत्ता	-3483
▁अल	-3484
बाह्य	-3485
▁द्वारे	-3486
▁आयोगाच्या	-3487
ाया	-3488
▁श्रीमती	-3489
ers	-3490
▁अपरा	-3491
▁स्वतंत्रपणे	-3492
▁न्यायालयातील	-3493
ेन	-3494
▁ओळखले	-3495
▁स्टेट	-3496
्युरिटी	-3497
▁धनादेश	-3498
दृष्ट्या	-3499
▁तत्व	-3500
▁जास्तीत	-3501
▁पद्धत	-3502
▁मानसिक	-3503
▁निर्मिती	-3504
द्दी	-3505
ित्त	-3506
▁गॅ	-3507
▁प्रश्नावर	-3508
----	-3509
काला	-3510
▁रस्	-3511
आरोपी	-3512
▁कराराचा	-3513
त्प	-3514
ानी	-3515
साच्या	-3516
दु	-3517
▁देखरे	-3518
▁तोड	-3519
▁भाषा	-3520
पचारिक	-3521
वय	-3522
लाल	-3523
▁अयशस्वी	-3524
▁सुप्रीम	-3525
ॅशनल	-3526
▁साव	-3527
▁राष्ट्रपतींनी	-3528
काचा	-3529
▁अडथळा	-3530
▁सेवेच्या	-3531
ूम	-3532
दर्शन	-3533
मिळना	-3534
▁कार्ये	-3535
▁एकमेव	-3536
माव	-3537
ईट	-3538
▁वर्षात	-3539
क्रमे	-3540
▁मोट	-3541
▁द्वि	-3542
बिं	-3543
▁सतत	-3544
▁इलेक्ट	-3545
▁यासारख्या	-3546
▁विचारा	-3547
निक	-3548
माग	-3549
▁शिफारशी	-3550
▁गर्भ	-3551
▁वाटते	-3552
▁सध्या	-3553
▁स्वरू	-3554
▁अधिवेश	-3555
अपील	-3556
▁अच	-3557
▁देण्या	-3558
▁डिक्री	-3559
▁y	-3560
▁जु	-3561
▁कार्यालया	-3562
▁गुजरात	-3563
▁नसताना	-3564
िटी	-3565
िन्ह	-3566
▁औषध	-3567
▁नोंदवले	-3568
▁दृष्टिकोन	-3569
त्मक	-3570
ंमधील	-3571
▁स्वरूपा	-3572
र्घ	-3573
प्रति	-3574
▁सुलभ	-3575
▁अपीलमध्ये	-3576
▁विक्रे	-3577
▁होईपर्यंत	-3578
▁महाराष्ट्र	-3579
▁उपाययोज	-3580
ल्लक	-3581
श्र	-3582
▁सहाय्य	-3583
▁अनुक्रमे	-3584
▁ब्ल	-3585
▁दस्त	-3586
हाण	-3587
द्याप	-3588
पोर्ट	-3589
▁स्त्रोत	-3590
चलित	-3591
रोखर	-3592
▁मिळाली	-3593
▁पॉ	-3594
▁हरियाणा	-3595
ऊस	-3596
▁शांत	-3597
▁रोजगार	-3598
▁शासनाने	-3599
▁अद्याप	-3600
▁व्यक्तींच्या	-3601
▁खूप	-3602
▁बँके	-3603
ापेक्षा	-3604
▁महाविद्यालया	-3605
▁कथ	-3606
▁खरोखर	-3607
▁जाण	-3608
▁पावले	-3609
ण्यानुसार	-3610
कृती	-3611
▁नैतिक	-3612
▁बाह्य	-3613
▁सामान्यत	-3614
▁फसव	-3615
▁करु	-3616
▁संदर्भातील	-3617
▁आधीपासून	-3618
▁प्रस्तावा	-3619
▁from	-3620
▁ज्यांनी	-3621
▁व्यक्तीची	-3622
▁करतील	-3623
▁इच्छित	-3624
▁आकर्षित	-3625
▁तात्पुर	-3626
ष्ण	-3627
ेटर	-3628
▁करणारी	-3629
▁पर्य	-3630
▁बॉम्	-3631
▁सिव्हिल	-3632
ंदर	-3633
ॅक	-3634
खित	-3635
▁अभिय	-3636
ch	-3637
▁निरीक्षणा	-3638
वापर	-3639
▁समजून	-3640
▁देणारी	-3641
▁कार्यालय	-3642
▁पुरुष	-3643
मिळनाडू	-3644
▁सिक्युरिटी	-3645
▁विरूद्ध	-3646
▁कोळ	-3647
▁प्रकाशित	-3648
▁वचन	-3649
▁संख्ये	-3650
▁सचिव	-3651
▁भूखंड	-3652
विवाद	-3653
▁शिस्त	-3654
▁आदर	-3655
▁साध्य	-3656
▁कळ	-3657
घा	-3658
▁गृ	-3659
दरम्यान	-3660
▁आकारणी	-3661
▁दर्शविला	-3662
▁न्यायाधीशांना	-3663
विली	-3664
▁दार	-3665
▁सारांश	-3666
▁प्रत्यक्षात	-3667
▁अप्र	-3668
न्य	-3669
िटल	-3670
▁यंत्रणा	-3671
▁री	-3672
डीच्या	-3673
▁असल्याचा	-3674
▁निवृत्ती	-3675
▁मिळू	-3676
▁याचिकाकर्ता	-3677
▁पेटंट	-3678
प्ता	-3679
▁देतात	-3680
▁प्रती	-3681
न्यायाधीश	-3682
▁निर्णयाची	-3683
्रष्ट	-3684
श्चिम	-3685
मिस	-3686
▁खुला	-3687
▁पाणी	-3688
शासित	-3689
▁राहिले	-3690
▁प्रतिस्प	-3691
व्हि	-3692
कृष्ट	-3693
▁याबद्दल	-3694
▁पक्षांनी	-3695
▁पुनर्व	-3696
भेद	-3697
▁निसर्ग	-3698
▁घरी	-3699
▁घोषणे	-3700
▁थोडक्यात	-3701
विणे	-3702
क्षणे	-3703
▁काढले	-3704
▁जण	-3705
▁ठरवले	-3706
▁जाणारे	-3707
▁विधेयक	-3708
▁रच	-3709
▁विभा	-3710
▁ऑपरेशन	-3711
▁नसल्याचे	-3712
▁सुसंगत	-3713
▁म्हणण्यानुसार	-3714
बातल	-3715
▁लाद	-3716
णिज्य	-3717
▁असोसिएशन	-3718
▁वेळे	-3719
▁वंचित	-3720
▁सहमती	-3721
▁प्रमाणे	-3722
▁याचिकाकर्ते	-3723
▁पार्श्वभूमीवर	-3724
▁नियोज	-3725
▁गुन्ह्या	-3726
यर	-3727
▁क्षेत्राच्या	-3728
▁एकतर	-3729
▁भांडव	-3730
चित्र	-3731
्यांमध्ये	-3732
▁रद्दबातल	-3733
▁हजार	-3734
▁अर्थात	-3735
अल	-3736
▁ठरला	-3737
▁अनुक	-3738
पदेश	-3739
▁उशीर	-3740
▁क्रियाकला	-3741
▁खे	-3742
▁जावी	-3743
▁वापरला	-3744
▁अम	-3745
शु	-3746
▁समुपदेश	-3747
तिह	-3748
▁बाळ	-3749
▁हवा	-3750
िसो	-3751
▁दिवा	-3752
▁युनियन	-3753
िकल	-3754
▁राज्ये	-3755
▁ठरविण्यात	-3756
्द	-3757
कता	-3758
▁वेळापत्र	-3759
▁मसु	-3760
प्रा	-3761
▁year	-3762
▁प्रसंग	-3763
▁बिहार	-3764
▁असलेला	-3765
▁दिल्या	-3766
▁सभागृह	-3767
काचे	-3768
▁तुम	-3769
▁ऑफिस	-3770
▁भ्रष्ट	-3771
िब	-3772
▁पर्यावरण	-3773
ुनिक	-3774
▁इंटर	-3775
ंदर्भातील	-3776
▁एजंट	-3777
▁संत	-3778
तीसाठी	-3779
▁आरोपीने	-3780
▁कड	-3781
स्कृत	-3782
▁संदेश	-3783
▁वाणिज्य	-3784
▁दंडाधिकारी	-3785
▁केंद्रशासित	-3786
▁तज्ञ	-3787
▁प्री	-3788
▁असम	-3789
▁प्रसार	-3790
च्छा	-3791
▁आच	-3792
▁माध्यमातून	-3793
▁हल	-3794
▁कॅन	-3795
▁वाढव	-3796
▁मांडले	-3797
फर	-3798
मद	-3799
▁साय	-3800
▁युक्तिवादा	-3801
सर्स	-3802
▁हाताळ	-3803
▁अभिया	-3804
▁समुदा	-3805
ूह	-3806
तीचा	-3807
▁गौ	-3808
देशिक	-3809
स्वर	-3810
ेची	-3811
विभाग	-3812
▁मनाई	-3813
▁राहू	-3814
▁पक्षांच्या	-3815
ारोप	-3816
ज्ञाना	-3817
▁स्फोट	-3818
वर्क	-3819
▁तेल	-3820
▁जल	-3821
▁एनसी	-3822
▁जन्मठे	-3823
▁पलीकडे	-3824
▁महत्त्वाचे	-3825
▁दस्तऐव	-3826
▁संपत्ती	-3827
व्र	-3828
▁ऑफर	-3829
ाबद्दल	-3830
▁लाल	-3831
▁निरीक्षणे	-3832
वर्तन	-3833
▁परिपत्र	-3834
▁अधिसूचित	-3835
▁फिर्यादीने	-3836
पीए	-3837
स्पती	-3838
ाराची	-3839
▁देशाच्या	-3840
बि	-3841
कां	-3842
▁कुल	-3843
ग्रहित	-3844
▁मद्रास	-3845
▁नोंदविला	-3846
शास्त्र	-3847
▁गुन्ह्यासाठी	-3848
▁इतके	-3849
▁नंबर	-3850
▁क्रियाकलाप	-3851
▁कमतरता	-3852
्यून	-3853
▁आहेतः	-3854
र्नी	-3855
▁डाय	-3856
▁वडिला	-3857
▁जिल्ह	-3858
सिद्ध	-3859
▁रक्त	-3860
▁सत्यता	-3861
▁यंत्रणे	-3862
▁महानगरपाल	-3863
▁भागातील	-3864
▁....	-3865
▁औपचारिक	-3866
▁be	-3867
ान्व	-3868
्रजी	-3869
▁हुकूम	-3870
ण्यापासून	-3871
▁कायद्याद्वारे	-3872
धा	-3873
▁आठवड	-3874
ान्वये	-3875
▁केल्याच्या	-3876
],	-3877
निर्	-3878
▁तीव्र	-3879
▁उपयुक्त	-3880
▁भव	-3881
▁शासकीय	-3882
▁पुनर्प्राप्ती	-3883
▁गैरवापर	-3884
▁मंडळाच्या	-3885
▁आंध	-3886
▁साधन	-3887
▁अनुच्छेद	-3888
▁शर्ती	-3889
▁वाचले	-3890
▁शर्मा	-3891
▁निरीक्षण	-3892
▁प्रादेशिक	-3893
▁गणना	-3894
▁कला	-3895
▁होणे	-3896
▁नियाम	-3897
▁पुनरावलोकन	-3898
मोरे	-3899
नेट	-3900
▁वर्त	-3901
▁कायद्यान्वये	-3902
दायक	-3903
ीकरणा	-3904
▁मुदतीच्या	-3905
ूट	-3906
▁वेगळ्या	-3907
ब्जे	-3908
▁कॉल	-3909
लाच्या	-3910
▁अपेक्षा	-3911
▁मंत्रालय	-3912
▁लेन	-3913
▁पक्षांना	-3914
ाशी	-3915
शत	-3916
▁नेट	-3917
▁घ्यावा	-3918
▁रूपांतर	-3919
▁रॉ	-3920
▁कधीही	-3921
▁नाते	-3922
▁होणा	-3923
शय	-3924
▁सैन	-3925
▁दीर्घ	-3926
▁मेसर्स	-3927
▁वनस्पती	-3928
▁संकल्पना	-3929
▁स्वीकारले	-3930
▁पक्षांमधील	-3931
▁अधिनियमातील	-3932
▁बरे	-3933
▁तारण	-3934
▁मंडळाने	-3935
▁योग्यरित्या	-3936
नावश्यक	-3937
▁तत्त्व	-3938
▁अध्यादेश	-3939
▁प्रमाणित	-3940
▁बु	-3941
▁फंड	-3942
▁पुराव्यांच्या	-3943
▁अशाप्र	-3944
▁अन्न	-3945
▁असं	-3946
▁भाडेपट्टी	-3947
याचे	-3948
्यांकडे	-3949
्रोल	-3950
बुद्धी	-3951
▁मृतदे	-3952
▁असमर्थ	-3953
▁विधानसभे	-3954
ळणी	-3955
▁.0	-3956
▁शिल्लक	-3957
▁मानक	-3958
▁प्रक्रियेच्या	-3959
तकमी	-3960
▁मॉड	-3961
दाचित	-3962
स्क	-3963
▁अभ्यासक्रम	-3964
ार्ज	-3965
दाराला	-3966
▁इंग्रजी	-3967
▁कामकाजा	-3968
▁हु	-3969
ात्री	-3970
▁राजस्थान	-3971
▁मौ	-3972
याची	-3973
▁वादी	-3974
▁बचाव	-3975
एक्सएक्सएक्सएक्स	-3976
▁फ्ल	-3977
▁कर्तव्ये	-3978
▁होण्याच्या	-3979
▁विश्वासार्ह	-3980
▁स्वयं	-3981
▁त्याऐवजी	-3982
▁त्याच्यावर	-3983
▁अशाप्रकारे	-3984
▁होण्यासाठी	-3985
▁यास	-3986
▁पालक	-3987
▁नियामक	-3988
▁कमीतकमी	-3989
ख्य	-3990
▁सूचने	-3991
▁नियमांचे	-3992
▁ऑन	-3993
व्हिसो	-3994
▁संसदेच्या	-3995
वयीन	-3996
क्रिय	-3997
माचा	-3998
▁लहान	-3999
▁वाटा	-4000
▁हिंदी	-4001
लाही	-4002
▁दिल्यानंतर	-4003
▁मतभेद	-4004
▁पहिला	-4005
▁वात	-4006
▁ट्रायल	-4007
▁रात्री	-4008
▁रेड	-4009
▁पश्चिम	-4010
▁लोकसं	-4011
ाधिकार	-4012
▁अधिनियमांतर्गत	-4013
▁गांधी	-4014
▁आंध्र	-4015
▁ऑब्जे	-4016
▁स्वतःच	-4017
▁प्रतिष्ठ	-4018
▁नगर	-4019
▁मोहम्मद	-4020
निष्ठ	-4021
▁शुभे	-4022
▁कदाचित	-4023
▁लोकस	-4024
▁खाते	-4025
▁दुखाप	-4026
राज	-4027
▁मतदार	-4028
▁अधिनियमान्वये	-4029
ायचे	-4030
▁शुभेच्छा	-4031
▁रंग	-4032
▁प्रतिकूल	-4033
▁संसाधन	-4034
▁१६	-4035
▁कंत्राट	-4036
▁स्वरूपात	-4037
ेंट	-4038
▁कोठ	-4039
▁ठरणार	-4040
▁विना	-4041
▁गोळा	-4042
अर्स	-4043
ांता	-4044
▁आरोग	-4045
▁years	-4046
ोम	-4047
▁लग्न	-4048
▁निर्यात	-4049
▁ठेवण्यास	-4050
▁त्रु	-4051
▁निर्णयाला	-4052
▁त्रुटी	-4053
▁विभागीय	-4054
▁पडता	-4055
ांपेक्षा	-4056
▁मोटार	-4057
▁संप्रे	-4058
पक	-4059
▁नॅशनल	-4060
▁अनुकूल	-4061
▁प्रक्रियेत	-4062
▁रेकॉर्डवर	-4063
▁किती	-4064
▁ड्रा	-4065
▁मुल्यांकन	-4066
ांकित	-4067
▁शिकले	-4068
▁मूल्या	-4069
▁बाबींचा	-4070
▁अर्थव्यवस्थ	-4071
त्त	-4072
सुली	-4073
ंपैकी	-4074
▁पंचाय	-4075
▁गुन्हेगार	-4076
▁उत्तरदायित्व	-4077
▁बंगाल	-4078
▁सामोरे	-4079
▁सबमिट	-4080
▁साहित्य	-4081
▁अपीलकर्त्याला	-4082
▁wit	-4083
▁उघडतात	-4084
▁प्रोव्हिसो	-4085
▁अधिनियमाच्या	-4086
▁सीपीसी	-4087
▁तुलनेत	-4088
▁सर्व्ह	-4089
▁मृत्यूच्या	-4090
▁In	-4091
▁घरात	-4092
▁चित्र	-4093
▁अनावश्यक	-4094
यी	-4095
▁अनुपस्थिती	-4096
एड	-4097
रूंग	-4098
▁धार	-4099
▁सश	-4100
▁अडचणी	-4101
▁भागधारक	-4102
▁रोखण्यासाठी	-4103
▁जन्मठेपे	-4104
टीच्या	-4105
▁हट	-4106
पुरव	-4107
▁प्ल	-4108
▁धोरणा	-4109
▁मालमत्तेचे	-4110
▁देता	-4111
▁घेण्याचे	-4112
ाबत	-4113
▁तृ	-4114
▁रिझ	-4115
▁शिवाय	-4116
▁विज्ञान	-4117
▁न्यू	-4118
▁करणार	-4119
निर्देश	-4120
▁कोर्टात	-4121
श्री	-4122
▁मिळालेल्या	-4123
▁उद्भवलेल्या	-4124
बाहेर	-4125
▁कर्जा	-4126
▁प्रारंभ	-4127
▁असावे	-4128
▁भी	-4129
▁कायमस्वर	-4130
▁मता	-4131
ईन	-4132
▁प्रक	-4133
▁लावली	-4134
▁तुरूंग	-4135
त्ये	-4136
▁बला	-4137
वर्ती	-4138
▁आकारले	-4139
▁आदेशात	-4140
▁वसुली	-4141
▁अति	-4142
प्रधान	-4143
▁समस्या	-4144
तीस	-4145
▁Th	-4146
▁चिंता	-4147
;.	-4148
▁पंत	-4149
▁दुखापत	-4150
▁re	-4151
▁वेध	-4152
▁डिसमिस	-4153
▁दिल्यास	-4154
▁प्रतिबिं	-4155
▁लग्	-4156
ोरे	-4157
▁छोट	-4158
▁मुलगा	-4159
▁सिस्टम	-4160
▁घेतल्यास	-4161
विण्यासाठी	-4162
▁एससीआर	-4163
▁प्रतिबिंब	-4164
ोग्रा	-4165
▁उद	-4166
▁इलेक्ट्र	-4167
▁मृत्यूदंड	-4168
▁त्यांच्यावर	-4169
▁वर्गीकरण	-4170
el	-4171
▁कै	-4172
▁शेती	-4173
▁अब्	-4174
▁अवा	-4175
▁नियो	-4176
▁सांगण्यात	-4177
भास	-4178
▁दुक	-4179
▁बनव	-4180
▁मानली	-4181
▁प्रमा	-4182
▁राज्याचे	-4183
▁वातावर	-4184
▁सदस्यां	-4185
▁जहा	-4186
▁होतील	-4187
कोर	-4188
र्य	-4189
▁चिन्ह	-4190
▁दृढ	-4191
▁नसतात	-4192
▁येतील	-4193
▁भोग	-4194
▁अस्प	-4195
▁लांब	-4196
▁हाती	-4197
▁कंपनीने	-4198
▁केल्याचे	-4199
▁पुढीलप्रमाणे	-4200
नाथ	-4201
####	-4202
▁ट्रान्स	-4203
नामा	-4204
दीय	-4205
▁कोणी	-4206
ंबद्दल	-4207
▁विरोधा	-4208
▁बाळग	-4209
▁संस्	-4210
▁आरोपपत्र	-4211
▁अहमद	-4212
▁मोठा	-4213
▁अंमलबजावणीसाठी	-4214
नो	-4215
▁कसे	-4216
र्धी	-4217
▁डीफॉल्ट	-4218
अन	-4219
▁नसून	-4220
▁निवृत्तीवेत	-4221
▁अग्र	-4222
▁घेताना	-4223
▁अली	-4224
▁तिची	-4225
▁नाकारले	-4226
▁याचिकेत	-4227
▁आरोपीच्या	-4228
▁बलात्कार	-4229
▁राजपत्र	-4230
▁विकासासाठी	-4231
ies	-4232
वंत	-4233
▁लेखा	-4234
▁ज्यास	-4235
▁मुख्यम	-4236
▁याव्यतिरिक्त	-4237
▁पत	-4238
▁दक्षि	-4239
▁संपूर्णपणे	-4240
▁प्रतिस्पर्धी	-4241
▁न्यायालयांनी	-4242
▁कारभ	-4243
▁पेक्षा	-4244
काद्वारे	-4245
क्य	-4246
▁जोरदार	-4247
▁निराकरण	-4248
▁ऑब्जेक्ट	-4249
ज्ञानिक	-4250
▁प्रकारचे	-4251
▁घटनेची	-4252
▁घेतलेले	-4253
▁प्रकारची	-4254
यिक	-4255
तेत	-4256
लग्न	-4257
▁इमारत	-4258
▁अपीलला	-4259
▁भूमिक	-4260
▁दृष्टिकोनातून	-4261
▁गुप्ता	-4262
▁फाशीची	-4263
▁रेकॉर्डवरील	-4264
रच्या	-4265
▁पुरेशी	-4266
▁अधिकार्	-4267
यंत्रित	-4268
▁विस	-4269
▁उद्भवू	-4270
एसआय	-4271
▁जन्मठेपेची	-4272
▁जाण्यासाठी	-4273
विक	-4274
▁स्वीकारला	-4275
▁नूतनीकरण	-4276
शेने	-4277
समवेत	-4278
▁ठेवू	-4279
▁सर्वे	-4280
▁इमारती	-4281
▁विधानसभेच्या	-4282
▁सोडले	-4283
▁भागीदारी	-4284
▁डीड	-4285
▁तिसर्	-4286
ेवा	-4287
▁अस्तित्वात	-4288
संबंधित	-4289
▁संघटना	-4290
▁समाजातील	-4291
▁or	-4292
▁वजन	-4293
मुक्त	-4294
ॉज	-4295
▁कोड	-4296
▁निर्धारणा	-4297
कि	-4298
▁दोषारोप	-4299
याचा	-4300
▁प्रवर्ग	-4301
▁पडताळणी	-4302
लेट	-4303
▁खात्यात	-4304
▁संरक्षित	-4305
▁सामर्थ्य	-4306
ांबद्दल	-4307
▁जागेवर	-4308
▁कर्तव्या	-4309
ec	-4310
वै	-4311
▁नसतानाही	-4312
▁प्रदर्शन	-4313
▁विवेकबुद्धी	-4314
▁कथित	-4315
▁उपाययोजना	-4316
▁सेवानिवृत्ती	-4317
xad	-4318
▁कपात	-4319
▁स्थितीत	-4320
▁हॉट	-4321
▁तिचे	-4322
▁संसदीय	-4323
कडील	-4324
▁अन्	-4325
▁अचूक	-4326
▁समृ	-4327
▁यूएस	-4328
▁चालविला	-4329
▁नंतरच्या	-4330
ल्याचा	-4331
▁सामायिक	-4332
▁पक्षाच्या	-4333
▁अंदाज	-4334
ne	-4335
▁नाकारला	-4336
▁सीए	-4337
सुद्धा	-4338
▁प्रकरणाची	-4339
रोज	-4340
वाढ	-4341
▁सचिवा	-4342
▁तामिळनाडू	-4343
▁यासह	-4344
▁मॉडेल	-4345
▁काळजीपूर्वक	-4346
ळ्या	-4347
▁सक्ती	-4348
स्फोट	-4349
▁दहशत	-4350
▁गोष्ट	-4351
▁कलमांतर्गत	-4352
गत	-4353
▁एसी	-4354
▁संसदेने	-4355
▁आयसी	-4356
▁न्यायपाल	-4357
▁अन्याय	-4358
▁स्थापने	-4359
▁आणण्यासाठी	-4360
हारा	-4361
▁अर्ध	-4362
प्रयोग	-4363
▁निवडी	-4364
▁अनियंत्रित	-4365
▁रक्षण	-4366
▁घेतलेला	-4367
पुरवठा	-4368
राम	-4369
क्या	-4370
▁यासंदर्भात	-4371
जून	-4372
▁श्र	-4373
▁नियंत्रणा	-4374
फेड	-4375
▁मीटर	-4376
▁द्व	-4377
▁नियंत्रित	-4378
▁शहर	-4379
मागील	-4380
ंविरूद्ध	-4381
▁उदाहरणार्थ	-4382
नल	-4383
▁टाय	-4384
▁जाणून	-4385
ंत्रिकी	-4386
वण	-4387
▁राजी	-4388
▁नेटवर्क	-4389
▁घ्यावी	-4390
संप	-4391
▁सरन्यायाधीश	-4392
ॉप	-4393
▁भाऊ	-4394
▁with	-4395
▁पती	-4396
साम	-4397
▁सर्वेक्षण	-4398
▁लागला	-4399
▁अपे	-4400
एमसी	-4401
▁सूचन	-4402
▁कुटुंबातील	-4403
भावा	-4404
▁चालव	-4405
ep	-4406
कुमार	-4407
▁सकाळी	-4408
▁पंतप्रधान	-4409
▁[(	-4410
घु	-4411
▁कामा	-4412
▁जय	-4413
ॉरंट	-4414
▁अरु	-4415
▁ट्रिब	-4416
▁विमान	-4417
▁हॉटेल	-4418
▁मूल्यमा	-4419
▁समाप्ती	-4420
नशील	-4421
▁द्यावी	-4422
▁कारणांमुळे	-4423
▁पत्राद्वारे	-4424
▁खोटे	-4425
▁बरेच	-4426
▁निवेदनात	-4427
▁कौशल	-4428
रोधी	-4429
▁मोठे	-4430
▁प्रतिवादींनी	-4431
डिओ	-4432
▁सभापती	-4433
मानी	-4434
▁प्रभ	-4435
▁समभाग	-4436
बद	-4437
ary	-4438
▁आलेली	-4439
▁जनहित	-4440
▁निर्देशित	-4441
ज्ञात	-4442
▁फेड	-4443
▁डब्ल्यूपी	-4444
▁दिशेने	-4445
▁संबोधले	-4446
▁विरोधाभास	-4447
▁अंश	-4448
▁बरोबर	-4449
▁पक्षाने	-4450
ासंदर्भात	-4451
▁उद्ध	-4452
▁अधिकाराचा	-4453
▁On	-4454
▁सीमा	-4455
▁शस्त्रे	-4456
लये	-4457
▁नफ	-4458
▁अर्जावर	-4459
▁न्यायालयांच्या	-4460
▁वैज्ञानिक	-4461
▁for	-4462
ation	-4463
▁माहित	-4464
▁परतावा	-4465
मृत	-4466
▁ठरविले	-4467
यक	-4468
थी	-4469
▁देशात	-4470
एसई	-4471
▁शिक्षेच्या	-4472
कोळ	-4473
निम	-4474
स्टेट	-4475
▁हेतूसाठी	-4476
▁मालमत्तेचा	-4477
▁छान	-4478
▁अवमान	-4479
▁मंदिर	-4480
▁हक्का	-4481
▁जाण्याची	-4482
▁अधिनियमात	-4483
▁लढ	-4484
▁साक्षीदारांच्या	-4485
▁राय	-4486
णुका	-4487
▁उत्कृष्ट	-4488
▁लावण्यात	-4489
▁विशेषाधिकार	-4490
▁रजि	-4491
कीला	-4492
▁प्रज	-4493
योजन	-4494
▁निवास	-4495
▁बांधका	-4496
▁रुग्णालयात	-4497
▁डेव्ह	-4498
and	-4499
▁निर्णयामुळे	-4500
▁दस्तऐवज	-4501
▁सर्व्हिस	-4502
चेंज	-4503
▁संतु	-4504
▁रकमेच्या	-4505
ॉर्ट	-4506
▁तपशीलवार	-4507
▁अविभा	-4508
▁स्थग	-4509
▁कबुली	-4510
्रो	-4511
▁इतकी	-4512
▁पट्ट	-4513
हाय	-4514
▁अभ्या	-4515
▁आकड	-4516
▁आमचा	-4517
▁आवृत्ती	-4518
▁दाय	-4519
▁आणला	-4520
▁दिलासा	-4521
▁लेनदार	-4522
कांनी	-4523
▁रूग्	-4524
▁उपकलम	-4525
▁आचरण	-4526
▁असावी	-4527
▁सीआरपीसी	-4528
▁प्रतिसादकर्ता	-4529
▁r	-4530
▁धर्मा	-4531
▁न्यायद	-4532
▁ज्याचे	-4533
▁कारणावरून	-4534
;,	-4535
▁प्रतिवादीच्या	-4536
▁ढ	-4537
ून्य	-4538
▁शिक्षेची	-4539
▁मर्यादेपर्यंत	-4540
▁भंग	-4541
ावरील	-4542
▁प्रधान	-4543
▁नोंदविण्यात	-4544
ुण	-4545
्रातील	-4546
▁सिक्युरिटीज	-4547
ासंगिक	-4548
▁अनुप्रयोग	-4549
▁राखी	-4550
तन	-4551
▁पोलिसांनी	-4552
▁नोंदवलेल्या	-4553
om	-4554
▁विधिमंडळाने	-4555
िटर	-4556
▁म्हणतात	-4557
▁साक्षीदारांची	-4558
रव	-4559
प्राप्त	-4560
ंवार	-4561
▁दृश	-4562
▁वकिलांनी	-4563
▁कोठडी	-4564
▁ठोठावली	-4565
▁भरपाईची	-4566
गे	-4567
ध्द	-4568
▁अपरि	-4569
▁अशाच	-4570
▁वकीला	-4571
ाता	-4572
▁शकले	-4573
▁सक्रिय	-4574
न्ड	-4575
▁समानता	-4576
▁प्रासंगिक	-4577
▁तरतुदींनुसार	-4578
▁आणली	-4579
▁म्हणता	-4580
▁त्यापेक्षा	-4581
▁न्यायालयाचा	-4582
▁गैरवर्तन	-4583
ंजन	-4584
▁रहिवासी	-4585
▁अधिग्रहित	-4586
▁जंग	-4587
▁शेअर्स	-4588
कीस	-4589
▁तंत्रज्ञाना	-4590
▁पैश	-4591
▁बनाव	-4592
▁प्रक्रियेचा	-4593
▁:	-4594
▁मनोर	-4595
▁अभियंता	-4596
uth	-4597
▁कामे	-4598
▁भाषण	-4599
▁प्रतिसादकर्त्या	-4600
याला	-4601
▁offic	-4602
बत	-4603
धीन	-4604
ियम	-4605
क्चर	-4606
▁स्थायी	-4607
▁अस्पष्ट	-4608
▁शक्तीचा	-4609
▁योजनेच्या	-4610
▁अधिसूचनेद्वारे	-4611
▁स्वतःच्या	-4612
ट्या	-4613
ग्रस्त	-4614
▁उघडकीस	-4615
▁आमची	-4616
tt	-4617
▁हाऊस	-4618
▁सरकारचे	-4619
्यूनल	-4620
▁छाननी	-4621
▁नका	-4622
▁समन्व	-4623
प्रमाणेच	-4624
▁ठेवलेल्या	-4625
तेला	-4626
▁गाव	-4627
▁असणार्	-4628
▁कृत्य	-4629
वाल	-4630
▁हल्ला	-4631
डीने	-4632
▁किर	-4633
▁तुमच्या	-4634
▁पुनरावृत्ती	-4635
▁टेल	-4636
▁ठेवी	-4637
▁वारंवार	-4638
▁अपीलकर्ते	-4639
▁सदस्यांना	-4640
▁राज्यपाल	-4641
रीत	-4642
▁मूल्यमापन	-4643
▁लावले	-4644
▁ठेवण्याची	-4645
ul	-4646
ांती	-4647
▁करारामध्ये	-4648
▁जेणेकरुन	-4649
▁द्वारा	-4650
▁भ्रष्टा	-4651
सू	-4652
बूत	-4653
▁रोग	-4654
▁डिझा	-4655
▁परतफेड	-4656
uthor	-4657
▁जगातील	-4658
▁सहभागी	-4659
▁मेड	-4660
▁जामि	-4661
▁नव्याने	-4662
▁विद्युत	-4663
ॅनेल	-4664
▁राखीव	-4665
▁आकारला	-4666
].	-4667
▁आस्थाप	-4668
▁घटनेतील	-4669
▁सुधारणे	-4670
सीने	-4671
▁मालमत्तेची	-4672
▁साठ	-4673
▁पगार	-4674
▁न्यायालयाचे	-4675
▁मजबूत	-4676
▁ज्यावर	-4677
रावर	-4678
▁निः	-4679
▁नामनिर्देश	-4680
▁तथ्या	-4681
▁अज्ञात	-4682
▁कराराची	-4683
▁कंट	-4684
स्तान	-4685
व्हेट	-4686
▁निवासी	-4687
▁i	-4688
▁तास	-4689
▁तोडगा	-4690
▁व्यक्तीचे	-4691
▁शीर्षक	-4692
▁दर्शविते	-4693
▁कार्यालयात	-4694
▁व्यवसायाच्या	-4695
▁धम	-4696
णीच्या	-4697
▁नॉन	-4698
▁स्त्रिया	-4699
▁गरजा	-4700
टन	-4701
पथ	-4702
सीच्या	-4703
तेबद्दल	-4704
डीआर	-4705
लमेंट	-4706
▁कॉन्	-4707
▁नेत	-4708
व्हर्न	-4709
▁जमाती	-4710
▁ज्याची	-4711
▁योजनेत	-4712
▁संख्येने	-4713
▁संबोधित	-4714
▁१७	-4715
▁आधुनिक	-4716
▁किल	-4717
▁नारा	-4718
▁अल्पवयीन	-4719
▁करण्यायोग्य	-4720
▁अभियांत्रिकी	-4721
▁लागतो	-4722
यास	-4723
▁उर्जा	-4724
▁तोंडी	-4725
▁रकमेची	-4726
▁करण्यापासून	-4727
डज	-4728
▁प्रथा	-4729
▁शून्य	-4730
▁भरण्यासाठी	-4731
uthorit	-4732
▁संलग्न	-4733
लित	-4734
प्पा	-4735
▁परीक्षण	-4736
▁न्यायालयानं	-4737
वर्ष	-4738
uary	-4739
▁महाम	-4740
▁राही	-4741
▁प्राय	-4742
▁नाकारली	-4743
भाई	-4744
▁संगण	-4745
▁ट्रिब्यूनल	-4746
िंदर	-4747
▁कलमा	-4748
▁संवाद	-4749
▁मृतदेह	-4750
▁शब्दाचा	-4751
▁हल्	-4752
मूल	-4753
▁दिवाळख	-4754
▁बजावली	-4755
▁निष्कर्षापर्यंत	-4756
▁योजन	-4757
ect	-4758
षणा	-4759
▁होय	-4760
▁राहील	-4761
▁भागीदार	-4762
▁प्रतिबिंबित	-4763
▁सेल	-4764
▁अटके	-4765
ॅक्सॅड	-4766
▁आग्रह	-4767
▁किरकोळ	-4768
विले	-4769
▁ऊ	-4770
स्ट्री	-4771
▁असली	-4772
्यांमधील	-4773
लायन्स	-4774
समा	-4775
▁वाईट	-4776
pp	-4777
▁सराव	-4778
टुंबिक	-4779
▁विसंब	-4780
▁धारक	-4781
▁काहीच	-4782
▁आश्वास	-4783
▁यामध्ये	-4784
▁पुनर्वसन	-4785
▁स्त्री	-4786
▁आकडेवारी	-4787
▁प्रभावीपणे	-4788
▁टि	-4789
स्थापित	-4790
▁तरुण	-4791
▁सहकार्य	-4792
▁अका	-4793
▁मासिक	-4794
▁विसंबून	-4795
▁पदे	-4796
▁वापरासाठी	-4797
▁प्रोत्साहित	-4798
▁उद्धृत	-4799
▁स्वच्छ	-4800
▁तेच	-4801
▁शकला	-4802
▁इन्स्ट	-4803
▁निर्धारण	-4804
▁संस्थेच्या	-4805
ेक्ट	-4806
▁ट्रेड	-4807
आरटी	-4808
▁सत्	-4809
म्प	-4810
▁कंपनीला	-4811
▁कर्जदार	-4812
▁कौटुंबिक	-4813
▁काढलेल्या	-4814
▁समर्थनार्थ	-4815
▁उत्पादक	-4816
गाव	-4817
▁वाय	-4818
▁उत्तरदायी	-4819
▁संविधानाच्या	-4820
▁खटल्यातील	-4821
▁वारस	-4822
ांवरील	-4823
▁वर्षासाठी	-4824
▁संवर्ग	-4825
यित	-4826
▁मानव	-4827
पक्षीय	-4828
▁अपमान	-4829
तीला	-4830
▁इच्छुक	-4831
आयए	-4832
▁विल	-4833
▁कोळसा	-4834
▁हितसंबंध	-4835
तु	-4836
▁बदली	-4837
▁हानी	-4838
षड	-4839
▁कारख	-4840
▁बनावट	-4841
ळू	-4842
च्छिक	-4843
त्यक्ष	-4844
▁चुकीचा	-4845
▁याचिकाकर्त्याला	-4846
ठीण	-4847
खालील	-4848
▁एआयआर	-4849
▁सत्या	-4850
▁करण्याबाबत	-4851
▁अपीलकर्त्याचे	-4852
▁e	-4853
▁फ्र	-4854
▁आदेशाला	-4855
▁महिन्या	-4856
▁अपीलकर्त्याची	-4857
▁सुनावणीच्या	-4858
▁केल्याशिवाय	-4859
ांमधून	-4860
▁घडवून	-4861
▁प्रभाग	-4862
▁लिहिले	-4863
▁विभागातील	-4864
िकर	-4865
ासत्ता	-4866
▁सहज	-4867
▁कठीण	-4868
▁चंद्र	-4869
▁कार्यकार	-4870
ल्क	-4871
▁वैधता	-4872
▁वाटेल	-4873
▁देणारा	-4874
▁पं	-4875
सेवा	-4876
▁भूमी	-4877
▁साइट	-4878
▁कोर्स	-4879
▁घ्यावे	-4880
केट	-4881
माणिक	-4882
▁येतो	-4883
▁मुलगी	-4884
▁छळ	-4885
▁आवड	-4886
▁जहाज	-4887
▁आढळून	-4888
▁authorit	-4889
▁प्रतिज्ञापत्रात	-4890
किं	-4891
ज्ज	-4892
▁लँड	-4893
▁नियुक्तीसाठी	-4894
▁खान	-4895
▁दर्शविण्यासाठी	-4896
▁वाहतुकी	-4897
▁दया	-4898
शक्ती	-4899
▁तृतीय	-4900
▁एक्सचेंज	-4901
च्चार	-4902
▁आत्मह	-4903
▁प्रयोग	-4904
▁न्यायाधीशांची	-4905
डर	-4906
▁पंच	-4907
▁कार्ड	-4908
▁प्रजासत्ता	-4909
▁मुले	-4910
ak	-4911
▁शाळा	-4912
दाराची	-4913
▁उज	-4914
▁उपकरणे	-4915
▁निहित	-4916
▁रिलायन्स	-4917
▁वैशिष्ट्य	-4918
हर	-4919
थून	-4920
▁दशलक्ष	-4921
us	-4922
वाश	-4923
रीक्षण	-4924
▁प्रशासन	-4925
▁महिन्यां	-4926
▁सेटलमेंट	-4927
धिकृत	-4928
▁प्रश्नाचे	-4929
व्हर्स	-4930
▁प्रभारी	-4931
▁शिफारसी	-4932
▁झाल्याचे	-4933
▁षड	-4934
▁प्रश	-4935
▁प्ला	-4936
ेनुसार	-4937
ंपेक्षा	-4938
▁होण्यास	-4939
▁बैठकीत	-4940
करणाच्या	-4941
▁नातेवाई	-4942
ायला	-4943
▁एकमे	-4944
्यांसह	-4945
ण्याकरिता	-4946
गम	-4947
▁जवळपास	-4948
ीच्या	-4949
▁प्रसिद्ध	-4950
ore	-4951
▁एकत्रितपणे	-4952
टू	-4953
गुती	-4954
▁सवलत	-4955
▁दारू	-4956
कंप	-4957
▁माण	-4958
▁अनुभ	-4959
▁कोर्टाकडे	-4960
▁जोडले	-4961
▁घटनास्थ	-4962
▁अधिनियमा	-4963
▁जिल्हाधिका	-4964
भि	-4965
▁इस्टेट	-4966
▁लवादाची	-4967
ud	-4968
▁केंद्रित	-4969
▁वैशिष्ट्ये	-4970
ain	-4971
▁धोक	-4972
र्व्ह	-4973
▁हस्तांतरणा	-4974
▁देवी	-4975
▁माझे	-4976
▁शासित	-4977
मीर	-4978
▁मैत्री	-4979
▁विद्यार्थ्यांना	-4980
▁खुलासा	-4981
आयएल	-4982
▁नसा	-4983
▁बोलताना	-4984
▁आरोपींच्या	-4985
▁पर्यावरणीय	-4986
पुरावा	-4987
▁नियोक्ता	-4988
▁फाय	-4989
▁इक्वि	-4990
▁क्रमां	-4991
▁स्तरावर	-4992
▁वेळापत्रक	-4993
▁सरकारकडून	-4994
किंग	-4995
▁प्रसंगी	-4996
▁बदला	-4997
▁ठेवण्याचा	-4998
ri	-4999
यण	-5000
▁असणा	-5001
▁दुष्	-5002
▁पातळीवर	-5003
▁जैन	-5004
फि	-5005
▁जबर	-5006
▁वर्षांत	-5007
▁नोंदविलेल्या	-5008
ov	-5009
▁मान्यताप्राप्त	-5010
▁SC	-5011
▁उत्तरे	-5012
▁ग्रॅ	-5013
▁आरक्षणा	-5014
▁विसंगत	-5015
▁अप्रत्यक्ष	-5016
सारखे	-5017
▁दुर्द	-5018
▁वेधले	-5019
▁नसलेले	-5020
हिम	-5021
▁वडील	-5022
▁दक्षिण	-5023
▁बँकिंग	-5024
▁ठरविलेल्या	-5025
महा	-5026
विषयक	-5027
▁तारखेच्या	-5028
▁अधिकारांचा	-5029
▁शुद्ध	-5030
▁सिद्धांता	-5031
▁मिळवून	-5032
तपास	-5033
▁भावना	-5034
▁विभाजन	-5035
▁राहिला	-5036
▁घेतलेली	-5037
▁व्यक्तीचा	-5038
▁हक्कांच्या	-5039
कारात्मक	-5040
▁कार्यकारि	-5041
▁त्याअंतर्गत	-5042
▁आशा	-5043
▁जप्ती	-5044
विस्त	-5045
▁मानला	-5046
्युअल	-5047
▁आजार	-5048
▁अख	-5049
▁जबरद	-5050
▁मोठी	-5051
▁प्रदेशात	-5052
▁आधीपासूनच	-5053
▁दावेदार	-5054
थोड	-5055
्यूट	-5056
▁पक्षाला	-5057
ter	-5058
किंवा	-5059
▁घरगुती	-5060
▁सांगणे	-5061
▁शोष	-5062
▁मृताच्या	-5063
झे	-5064
▁नसतो	-5065
ल्याची	-5066
टीई	-5067
मेल	-5068
पीएस	-5069
▁सावध	-5070
्सच्या	-5071
▁अनुमान	-5072
▁ज्याद्वारे	-5073
▁गमाव	-5074
▁निर्देशानुसार	-5075
प्स	-5076
▁अंशतः	-5077
ंश	-5078
▁इंट	-5079
▁पावती	-5080
▁वचनबद्ध	-5081
▁अक्षम	-5082
▁लक्ष्य	-5083
भोग	-5084
ाराचा	-5085
▁क्लॉज	-5086
▁भीती	-5087
▁फिर्यादीच्या	-5088
our	-5089
▁हरक	-5090
▁यांच्यातील	-5091
▁संपादन	-5092
▁अला	-5093
▁राव	-5094
खेरीज	-5095
योजित	-5096
▁सुटका	-5097
▁संघर्ष	-5098
▁सारख्या	-5099
▁अत्याचार	-5100
▁ज्यासाठी	-5101
▁प्राप्तिकर	-5102
▁n	-5103
पालन	-5104
▁सकारात्मक	-5105
▁घालून	-5106
▁प्रदू	-5107
थोडक्यात	-5108
म्मू	-5109
्यांशी	-5110
▁दर्जा	-5111
▁मुद्दे	-5112
ंगा	-5113
ंडर	-5114
▁शपथ	-5115
▁लावणे	-5116
▁पारदर्श	-5117
इड	-5118
कूर	-5119
जीव	-5120
▁कौशल्य	-5121
▁कोर्टाची	-5122
▁नोंदविली	-5123
▁पुनरुत्प	-5124
फॉ	-5125
▁कृत्या	-5126
▁पेमेंट	-5127
▁अस्तित्व	-5128
▁मेमन	-5129
▁दृष्टीकोन	-5130
▁राब	-5131
▁अपंगत्व	-5132
▁मिळविण्यासाठी	-5133
▁अजून	-5134
▁विचाराधीन	-5135
▁वेळा	-5136
▁सीसी	-5137
▁डेव्हल	-5138
▁मनमानी	-5139
▁विश्वस्त	-5140
▁आदेशाविरूद्ध	-5141
वती	-5142
▁पंचायत	-5143
▁तत्काळ	-5144
भौ	-5145
वेअर	-5146
▁काटे	-5147
▁मृतक	-5148
▁क्रेड	-5149
▁मानवा	-5150
▁अमेरिकन	-5151
▁दिवसा	-5152
▁हिंसा	-5153
▁घटस्फोट	-5154
वरा	-5155
ेश्	-5156
बार	-5157
▁माहितीच्या	-5158
आधी	-5159
▁निर्णयाचे	-5160
▁विक्रीच्या	-5161
▁मग	-5162
▁मित्र	-5163
▁सेबी	-5164
▁अनुसरण	-5165
▁बॉम्बे	-5166
▁विभागात	-5167
▁टप्प्यात	-5168
▁शेवटच्या	-5169
शिया	-5170
ॉनिक	-5171
णीभूत	-5172
▁कडून	-5173
▁घटनेचे	-5174
ंस	-5175
▁लप	-5176
▁वेगळा	-5177
हारिक	-5178
▁अखंड	-5179
▁उचित	-5180
▁देखरेख	-5181
▁सांगून	-5182
ण्यायोग्य	-5183
▁कारणीभूत	-5184
▁फायदे	-5185
▁विसंगती	-5186
▁वळ	-5187
घटना	-5188
स्कृतिक	-5189
सीआर	-5190
▁प्रवास	-5191
▁सांगायचे	-5192
▁हॉ	-5193
क्की	-5194
▁फर्म	-5195
▁पॉवर	-5196
▁प्रसाद	-5197
▁काटेकोर	-5198
▁कलमाच्या	-5199
▁अंमलबजावणीच्या	-5200
▁दुकान	-5201
िकेच्या	-5202
ोरम	-5203
ारिक	-5204
ंबाबत	-5205
▁(())	-5206
▁वाटले	-5207
ादित	-5208
▁तडज	-5209
▁ऑनला	-5210
▁नियोजन	-5211
▁संबंधात	-5212
▁मार्गदर्शन	-5213
माल	-5214
▁एअर	-5215
▁रोड	-5216
रुप	-5217
▁ठेवा	-5218
एनए	-5219
क्रि	-5220
▁मोबा	-5221
▁रूपात	-5222
▁सरकारची	-5223
▁पाठपुरावा	-5224
शोर	-5225
▁खून	-5226
▁खोली	-5227
▁मुदतवाढ	-5228
▁झाल्याने	-5229
पाळ	-5230
▁समन्स	-5231
▁समोर	-5232
▁ठरावा	-5233
▁मल	-5234
▁व्यावहारिक	-5235
▁आवश्यकतेनुसार	-5236
▁नेले	-5237
▁प्रायव्हेट	-5238
▁क्षेत्राचा	-5239
▁भविष्यातील	-5240
▁न्यायव्यवस्थ	-5241
▁डिझाइन	-5242
त्यानंतर	-5243
▁पाडले	-5244
▁शुल्का	-5245
▁यादीमध्ये	-5246
पणाने	-5247
▁बोलाव	-5248
▁आगा	-5249
▁ओला	-5250
विस्तर	-5251
▁उद्योज	-5252
ण्याबाबत	-5253
▁स्वीकारली	-5254
▁पुनरुच्चार	-5255
▁रोजीचा	-5256
▁सविस्तर	-5257
▁मेह	-5258
▁संक	-5259
▁बोली	-5260
▁मसुदा	-5261
▁संस्थांना	-5262
▁पाठविला	-5263
▁वर्षांची	-5264
▁किलो	-5265
▁अल्पसं	-5266
ra	-5267
▁फसवणूक	-5268
▁क्रेडिट	-5269
समावेश	-5270
एमई	-5271
सेव	-5272
▁वॉरंट	-5273
▁अधीनस्थ	-5274
▁आयए	-5275
रुस्ती	-5276
▁तत्कालीन	-5277
पद	-5278
टीने	-5279
▁अपीलकर्त्याचा	-5280
;)	-5281
फिक	-5282
▁तोटा	-5283
क्षेपा	-5284
▁कोर्टा	-5285
▁उपस्थितीत	-5286
▁भविष्य	-5287
▁रस्त्या	-5288
▁शहरी	-5289
▁संवेद	-5290
▁स्थिर	-5291
▁परिषदे	-5292
▁अहवालाच्या	-5293
उलट	-5294
▁चौरस	-5295
▁महामंडळ	-5296
आणि	-5297
ग्रा	-5298
▁गरी	-5299
▁नष्ट	-5300
▁रचने	-5301
▁पाहता	-5302
▁रिझर्व्ह	-5303
▁ड्राय	-5304
▁चिंत	-5305
▁बिल्ड	-5306
▁ऐकले	-5307
▁हिताचे	-5308
▁बँकेच्या	-5309
▁दिवाळखोरी	-5310
▁मंत्रालयाने	-5311
▁शोधण्यासाठी	-5312
▁दिशा	-5313
▁चांगली	-5314
▁द्यावा	-5315
▁उपविभाग	-5316
▁बळ	-5317
▁सुश्री	-5318
▁उलटतपास	-5319
▁निवडलेल्या	-5320
ल्य	-5321
ांविरूद्ध	-5322
▁सोडण्यात	-5323
संदर्भातील	-5324
ंपर	-5325
▁शाळ	-5326
▁मालकीच्या	-5327
▁दत्	-5328
कंपनी	-5329
▁उत्पन्ना	-5330
केच	-5331
▁मंदि	-5332
▁वेगळी	-5333
▁व्यवहारा	-5334
▁सरकारकडे	-5335
▁अंग	-5336
▁शरीर	-5337
▁विवादा	-5338
▁नागरिकांना	-5339
▁कुठ	-5340
▁सबमिशनचा	-5341
-0	-5342
खन	-5343
▁लघु	-5344
ंपारिक	-5345
व्हिजन	-5346
▁परवानाधारक	-5347
आयडी	-5348
वावे	-5349
▁III	-5350
▁काढणे	-5351
▁कार्यवाहीत	-5352
ॉस	-5353
▁महिने	-5354
▁प्रकरणाचा	-5355
▁झाल्यामुळे	-5356
▁डोक	-5357
▁बळी	-5358
▁पाठव	-5359
▁सेंट	-5360
▁भूसंप	-5361
▁दुर्दै	-5362
▁यांच्याकडे	-5363
▁मरण	-5364
▁मॅन	-5365
▁ब्लॉक	-5366
▁गव्हर्न	-5367
त्य	-5368
▁सभास	-5369
▁उत्तम	-5370
▁निश्चितपणे	-5371
▁इतका	-5372
▁घेण्यासारखे	-5373
नाला	-5374
▁डिज	-5375
▁जम्मू	-5376
▁विक्रेत्या	-5377
धरी	-5378
डिया	-5379
▁पैकी	-5380
▁मुख्यमंत्र	-5381
▁मोक	-5382
▁विजय	-5383
▁निलंबित	-5384
▁पोर्ट	-5385
▁हत्ये	-5386
▁इक्विटी	-5387
▁अधिकाराच्या	-5388
वाहा	-5389
▁पाय	-5390
ओसी	-5391
लेज	-5392
▁१८	-5393
र्शी	-5394
▁उक्त	-5395
निर्माण	-5396
▁निवडले	-5397
▁टिकवून	-5398
▁वेगवान	-5399
▁काढण्यासाठी	-5400
▁मिळाल्यानंतर	-5401
ॅडव्ह	-5402
ंवरील	-5403
▁दिसत	-5404
▁सुधारण	-5405
▁फ्लॅट	-5406
विलेल्या	-5407
▁सर्वसाधारणपणे	-5408
▁ऑर्डरच्या	-5409
सेस	-5410
हीत	-5411
▁सहन	-5412
▁पूरक	-5413
▁काढली	-5414
▁रस्ता	-5415
ment	-5416
▁शकतील	-5417
▁वितरित	-5418
▁डेव्हलप	-5419
▁सार्वभौ	-5420
▁सांस्कृतिक	-5421
नाम	-5422
▁व्यवसायात	-5423
हार्य	-5424
वायत्त	-5425
▁पिक	-5426
▁नसले	-5427
▁हद्दी	-5428
▁होतात	-5429
्रमण	-5430
▁निघ	-5431
▁भरणे	-5432
ल्यावर	-5433
▁चुकीची	-5434
▁जवळजवळ	-5435
कू	-5436
▁सांगू	-5437
▁संस्कृती	-5438
▁व्यक्तींनी	-5439
ds	-5440
▁पारंपारिक	-5441
▁इलेक्ट्रॉनिक	-5442
्ज	-5443
▁व्यायाम	-5444
▁सोयी	-5445
▁अवास्तव	-5446
पार	-5447
▁आदेशास	-5448
वण्यासाठी	-5449
▁अपिला	-5450
▁स्थगिती	-5451
▁बीसी	-5452
▁तोंड	-5453
▁आत्मवि	-5454
▁कारावा	-5455
ug	-5456
▁अखे	-5457
यांची	-5458
▁संकल	-5459
▁चौधरी	-5460
▁पाळले	-5461
▁बाजारपे	-5462
▁काटेकोरपणे	-5463
▁वातावरण	-5464
▁स्वायत्त	-5465
▁न्यायदंडा	-5466
हाबाद	-5467
▁व्यक्ति	-5468
▁आरक्षण	-5469
रीव	-5470
▁अपराध	-5471
▁निवारण	-5472
▁पाठविली	-5473
▁टायगर	-5474
▁दत्तक	-5475
▁छाया	-5476
▁पुरवठ	-5477
▁पुराव्यांचा	-5478
तेस	-5479
▁गुन्ह्यास	-5480
▁वर्षांपेक्षा	-5481
▁भारती	-5482
▁समस्ये	-5483
यमित	-5484
तेमुळे	-5485
▁इंग्ल	-5486
▁जिवंत	-5487
▁छोट्या	-5488
▁ग्रु	-5489
▁वारसा	-5490
▁ठरू	-5491
▁सदर	-5492
कातील	-5493
▁ठेवण्याचे	-5494
▁गुंतवणूकदार	-5495
▁ड्र	-5496
▁यूपी	-5497
▁योग्यता	-5498
▁उत्पादित	-5499
▁संस्थांच्या	-5500
▁खरोखरच	-5501
▁आदेशाने	-5502
क्सा	-5503
▁समाजात	-5504
▁परिपत्रक	-5505
▁फिर्यादींनी	-5506
▁वेद	-5507
▁त्यावरील	-5508
▁सीई	-5509
फॉर्म	-5510
एक्सएड	-5511
▁टाकले	-5512
▁स्टील	-5513
▁अविभाज्य	-5514
▁तक्रारदाराने	-5515
हरण	-5516
▁अजि	-5517
पणाचा	-5518
▁मॅने	-5519
▁अन्वे	-5520
▁टॅक्स	-5521
▁प्रेम	-5522
▁सल्ले	-5523
▁राज्यस	-5524
▁अनियमित	-5525
▁आयपीसीच्या	-5526
▁अपीलकर्त्यासाठी	-5527
ोत्तर	-5528
▁काळा	-5529
▁अजिबात	-5530
▁वागणूक	-5531
▁प्रचलित	-5532
समावेशक	-5533
▁विभागाच्या	-5534
▁अधिकारांच्या	-5535
▁घेईल	-5536
ir	-5537
▁विधी	-5538
▁हिमा	-5539
वासाची	-5540
शिप	-5541
वाने	-5542
खेरीस	-5543
▁पर्या	-5544
▁फेडरल	-5545
▁कार्यकाळ	-5546
▁रण	-5547
पीएल	-5548
▁देव	-5549
▁नियमात	-5550
ha	-5551
▁तुकड	-5552
▁स्वार	-5553
िओ	-5554
▁ac	-5555
▁वक्त	-5556
▁मिळाल्यास	-5557
▁बच	-5558
▁याद	-5559
ख्यात	-5560
▁ग्रुप	-5561
▁लिलाव	-5562
▁कडे	-5563
▁ठाम	-5564
ांसमोर	-5565
▁लवादाने	-5566
▁गुणवत्तेवर	-5567
म्स	-5568
दर्शी	-5569
▁भत्ता	-5570
▁लेखन	-5571
▁लिहून	-5572
▁सल्ल्याद्वारे	-5573
ल्पा	-5574
▁सॉलिस	-5575
▁कार्यक्षमता	-5576
▁अशक्य	-5577
▁आयोजन	-5578
▁सेवानिवृत्त	-5579
▁असुर	-5580
▁अपराधी	-5581
▁एकट्या	-5582
वाला	-5583
▁अधी	-5584
▁मनुष	-5585
▁पुनर्र	-5586
▁अटींमध्ये	-5587
▁अनुपस्थितीत	-5588
मार्ग	-5589
▁प्राण	-5590
▁विरोधी	-5591
▁कार्यवाहीच्या	-5592
▁यापैकी	-5593
▁कार्यकारिणी	-5594
▁सत्ता	-5595
▁साधला	-5596
रणे	-5597
ामुळे	-5598
▁मागास	-5599
▁पेट्रोल	-5600
▁टाळण्यासाठी	-5601
▁शाख	-5602
ध्यापक	-5603
);	-5604
दुल	-5605
▁तिसरा	-5606
▁रस्ते	-5607
▁संकेत	-5608
▁घटनेचा	-5609
▁नगरपाल	-5610
▁महत्वाचे	-5611
▁अधिनियमित	-5612
▁The	-5613
▁सॉलिसिटर	-5614
▁सदस्यांनी	-5615
▁फायद्यासाठी	-5616
्ट्री	-5617
▁किशोर	-5618
▁कोणालाही	-5619
▁संप्रेषण	-5620
▁अटींच्या	-5621
▁विभागाने	-5622
▁फु	-5623
▁चलन	-5624
▁समजू	-5625
▁कंपनीचे	-5626
वाडा	-5627
▁प्रमाणी	-5628
▁ओझे	-5629
▁मोड	-5630
ण्यावर	-5631
▁साधारण	-5632
▁मालमत्त	-5633
ce	-5634
▁सेमी	-5635
ेमध्ये	-5636
▁अलाहाबाद	-5637
ust	-5638
▁भरला	-5639
▁देणारे	-5640
▁नावाने	-5641
▁दर्शविले	-5642
ut	-5643
्वळ	-5644
▁चाच	-5645
▁शांतता	-5646
▁मागितली	-5647
नातील	-5648
▁आमंत्र	-5649
नाद्वारे	-5650
प्ल	-5651
▁बैठक	-5652
▁फायदेशीर	-5653
ानु	-5654
ज्ज्ञ	-5655
▁अखेरीस	-5656
्यांद्वारे	-5657
एक	-5658
▁खाणी	-5659
देव	-5660
ुसं	-5661
▁एपी	-5662
▁मनी	-5663
▁भ्रष्टाचार	-5664
अनु	-5665
▁सभासद	-5666
II	-5667
▁दड	-5668
▁यश	-5669
▁व्हा	-5670
▁अवस्थ	-5671
▁ओलांड	-5672
बळ	-5673
▁मेडिकल	-5674
▁वाहतूक	-5675
▁सदस्यांच्या	-5676
▁अक्ष	-5677
▁मिनि	-5678
▁सर्वसमावेशक	-5679
▁;	-5680
ेशन्स	-5681
ध्यक्ष	-5682
▁सर्वोत्	-5683
गरी	-5684
एमएस	-5685
िमांड	-5686
ांनाही	-5687
▁हर	-5688
▁मनोरंजन	-5689
▁परिपूर्ण	-5690
▁महत्त्वाचा	-5691
ेंद्र	-5692
▁कोलक	-5693
▁आदेशामुळे	-5694
▁विद्यार्थी	-5695
रोप	-5696
▁चालना	-5697
▁प्रभावित	-5698
▁निर्विवाद	-5699
लिम	-5700
ृती	-5701
▁आचार	-5702
यला	-5703
चंद्र	-5704
▁मोबद	-5705
▁देखरेखी	-5706
▁पळ	-5707
जीसी	-5708
▁फोन	-5709
▁पुनर्वि	-5710
▁दृष्टीकोनातून	-5711
▁भरीव	-5712
▁हत्या	-5713
▁परिणामा	-5714
▁शिक्षित	-5715
ol	-5716
चार्ज	-5717
▁रॉयल	-5718
ाकार	-5719
▁समन्वय	-5720
▁मर्यादेच्या	-5721
िंट	-5722
▁वजा	-5723
▁जागी	-5724
▁महास	-5725
▁एमसीआय	-5726
घाट	-5727
▁भे	-5728
आरआय	-5729
▁सोडून	-5730
▁तारखेस	-5731
▁मानदंड	-5732
ोकायुक्त	-5733
▁निष्पक्ष	-5734
▁भरलेल्या	-5735
▁लिंग	-5736
▁आयुष्य	-5737
▁जागेच्या	-5738
▁विषयावरील	-5739
▁प्रामाणिक	-5740
▁न्यायाधीशांचे	-5741
▁बिल	-5742
▁सद्य	-5743
र्वा	-5744
▁स्वे	-5745
▁अंदाजे	-5746
चक	-5747
क्षता	-5748
तिहास	-5749
दुरुस्ती	-5750
▁त्यापूर्वी	-5751
▁प्रश्नांची	-5752
▁रह	-5753
गुरू	-5754
▁wor	-5755
▁अखेर	-5756
्याकडे	-5757
▁बाबींवर	-5758
▁असुरक्षित	-5759
▁an	-5760
श्मीर	-5761
▁उमेदव	-5762
▁इतिहास	-5763
▁खाणकाम	-5764
▁उत्पन्नाच्या	-5765
▁मेट	-5766
▁समित	-5767
▁अब्दुल	-5768
▁राहिली	-5769
▁पोलिसांना	-5770
ub	-5771
वीन	-5772
▁दास	-5773
▁गृहित	-5774
▁धोरणात्मक	-5775
म्ह	-5776
्यम	-5777
िकेट	-5778
▁एकच	-5779
▁पहिली	-5780
▁सेंटर	-5781
▁लवादाचा	-5782
▁authorities	-5783
▁त्यासंदर्भात	-5784
ेश्वर	-5785
▁निव्वळ	-5786
ल्याशिवाय	-5787
▁अटींनुसार	-5788
▁उलटतपासणी	-5789
क्फ	-5790
▁as	-5791
▁विन	-5792
▁सही	-5793
▁एमसी	-5794
▁ऑफिसर	-5795
▁करतांना	-5796
िंद	-5797
▁हेच	-5798
▁व्याया	-5799
▁संकल्पने	-5800
▁त्यांच्याकडे	-5801
▁संघटन	-5802
▁अधीक्षक	-5803
▁अनिश्चित	-5804
▁महाविद्यालय	-5805
▁प्राधिकरणाच्या	-5806
यट	-5807
र्ज	-5808
ंमुळे	-5809
प्रथम	-5810
▁ब्रि	-5811
▁आश्वासन	-5812
▁निर्धारित	-5813
ुपी	-5814
▁[]	-5815
जन्य	-5816
रुंग	-5817
▁ओरि	-5818
▁कार्यान्व	-5819
▁याचिकाकर्त्यास	-5820
डतो	-5821
▁आदेशाचा	-5822
ासरी	-5823
शुल्क	-5824
▁ठराविक	-5825
मुख्याने	-5826
▁दर्शवितो	-5827
▁इंग्लंड	-5828
▁नियमितपणे	-5829
िने	-5830
्युले	-5831
▁निर्णयाद्वारे	-5832
ुती	-5833
वासा	-5834
▁कर्मचा	-5835
▁मुख्या	-5836
ाराला	-5837
▁ठिकाण	-5838
▁प्रवृत्ती	-5839
ourt	-5840
▁पोच	-5841
▁मोहन	-5842
▁भांडवल	-5843
▁वयाच्या	-5844
▁वाढविण्यात	-5845
▁Of	-5846
▁झोप	-5847
ब्लिक	-5848
▁गुरु	-5849
▁त्रि	-5850
▁प्रामुख्याने	-5851
▁हून	-5852
▁चित्रपट	-5853
▁भागाच्या	-5854
ill	-5855
रीच	-5856
ुन्या	-5857
▁उत्स	-5858
▁तातडीने	-5859
ate	-5860
▁तेव्हाच	-5861
▁ग्राम	-5862
▁कार्यक्र	-5863
▁डिस्	-5864
▁सावधगिरी	-5865
ोदर	-5866
▁तरच	-5867
पणाच्या	-5868
▁त्यासाठी	-5869
▁तरतुदींमध्ये	-5870
टो	-5871
ंकर	-5872
▁स्टॉक	-5873
ुका	-5874
ंचालक	-5875
▁तुरुंग	-5876
▁संग्रह	-5877
कधी	-5878
डतोब	-5879
पात्र	-5880
▁वापरले	-5881
चीन	-5882
▁स्म	-5883
वाहिक	-5884
तिहासिक	-5885
▁वाढविणे	-5886
ॅब	-5887
▁असती	-5888
ल्यवान	-5889
श्रेणी	-5890
▁सॉफ्ट	-5891
▁निवडणुकी	-5892
▁वृ	-5893
▁day	-5894
▁एमएस	-5895
▁चाचण्या	-5896
▁ताबडतोब	-5897
▁उद्दीष्टे	-5898
▁मुलाच्या	-5899
▁माप	-5900
▁अगोदर	-5901
▁आढळली	-5902
▁मुदती	-5903
▁स्मार	-5904
क्षेत्र	-5905
▁कोणीही	-5906
▁खासदार	-5907
▁व्हिडिओ	-5908
▁ag	-5909
▁एड	-5910
वश्यक	-5911
▁जुन्या	-5912
▁परिशिष्ट	-5913
बरी	-5914
▁प्रवाह	-5915
▁स्वरुप	-5916
vi	-5917
▁बांधील	-5918
▁सरासरी	-5919
▁लोकसंख्या	-5920
▁सुरुवातीला	-5921
▁अपेक्षित	-5922
▁आमच्यासमोर	-5923
▁वाढविण्यासाठी	-5924
जेरी	-5925
मूल्य	-5926
▁फ्रे	-5927
▁कॉन्ट	-5928
▁युनिव्हर्स	-5929
%%	-5930
▁आगाऊ	-5931
▁डीएनए	-5932
▁मानवाधिकार	-5933
ोगी	-5934
टूंब	-5935
▁सामंज	-5936
▁खर्चाच्या	-5937
ोमेट	-5938
▁रिका	-5939
ोरेखित	-5940
ॉजी	-5941
संगत	-5942
▁मौल्यवान	-5943
▁यांच्याशी	-5944
▁आत्मविश्वास	-5945
▁काउ	-5946
▁पेंड	-5947
eb	-5948
▁उभार	-5949
▁मृत्यूची	-5950
▁वाचना	-5951
▁ज्यांचे	-5952
▁पुढाकार	-5953
▁आत्महत्या	-5954
▁टक्केवारी	-5955
▁आस	-5956
▁मध्यम	-5957
▁जाहिरा	-5958
et	-5959
▁आवार	-5960
▁मेमो	-5961
भरातील	-5962
▁हस्तक्षेपा	-5963
▁है	-5964
वावर	-5965
▁बरीच	-5966
▁नेतृत्	-5967
▁ऐतिहासिक	-5968
▁मध्यस्थी	-5969
पाती	-5970
▁कने	-5971
यांचे	-5972
यातील	-5973
▁दाखवा	-5974
▁मात्र	-5975
▁व्याख्ये	-5976
▁विद्यापीठाच्या	-5977
मारास	-5978
▁परिस	-5979
▁व्हे	-5980
्यांवर	-5981
▁शिक्षेस	-5982
▁सुमारास	-5983
▁व्यवस्थापकीय	-5984
▁ठरली	-5985
▁निबंध	-5986
करणासाठी	-5987
▁प्रकारचा	-5988
आरए	-5989
▁ऑड	-5990
▁उतर	-5991
▁गावात	-5992
▁याविषयी	-5993
प्रतिवादी	-5994
▁आपत्	-5995
▁खुले	-5996
्डी	-5997
शियल	-5998
▁इंद	-5999
▁परिसर	-6000
▁अपरिहार्य	-6001
▁चंद	-6002
▁नदी	-6003
▁परा	-6004
▁धरले	-6005
▁ऑस्ट्र	-6006
▁आदेशाची	-6007
▁त्यावेळी	-6008
▁कामगारांना	-6009
▁स्पष्टीकरणा	-6010
फो	-6011
भंग	-6012
▁अपहरण	-6013
चण	-6014
टम	-6015
नंदन	-6016
म्हण	-6017
्रेस	-6018
▁युनिट्स	-6019
वर्ग	-6020
▁पुरविल्या	-6021
▁pro	-6022
डाच्या	-6023
▁नुकसानी	-6024
▁ठरलेल्या	-6025
ओएस	-6026
.0.0	-6027
▁ऐच्छिक	-6028
▁कुटूंब	-6029
▁स्पर्धा	-6030
▁तिच्यावर	-6031
ons	-6032
्वनी	-6033
▁कारा	-6034
▁शाखा	-6035
▁वर्षी	-6036
▁नारायण	-6037
▁लागतील	-6038
▁अन्वेषण	-6039
▁डिव्हिजन	-6040
सचि	-6041
▁फर	-6042
णायक	-6043
लिंग	-6044
▁मतदान	-6045
▁संवर्ध	-6046
▁लोकांचे	-6047
▁मालमत्तेत	-6048
▁अन्यायकारक	-6049
▁पहिल्यांदा	-6050
▁प्रत्यक्षदर्शी	-6051
ूहिक	-6052
ण्यासारखे	-6053
▁ली	-6054
शाची	-6055
▁खाती	-6056
▁शासन	-6057
▁अनधिकृत	-6058
▁प्रकल्पा	-6059
▁प्रोग्रा	-6060
▁संसदेत	-6061
▁राज्यघटना	-6062
▁पाट	-6063
कल्पिक	-6064
▁वॉ	-6065
▁अडचण	-6066
▁कारावासाची	-6067
▁साज	-6068
▁क्रि	-6069
वासाठी	-6070
▁पुराव्यांची	-6071
▁संपल्यानंतर	-6072
▁लु	-6073
▁जमी	-6074
▁कलमात	-6075
▁नोटिस	-6076
▁भवनात	-6077
▁लागले	-6078
▁डाव्या	-6079
▁घटनापीठ	-6080
▁पर्यायी	-6081
▁यादीतील	-6082
▁तत्त्वावर	-6083
धर	-6084
▁घटनांमध्ये	-6085
▁कोर्टाद्वारे	-6086
वाहित	-6087
▁कधीकधी	-6088
▁मुलांना	-6089
▁ज्यांच्या	-6090
ept	-6091
ारासाठी	-6092
▁प्रतिकार	-6093
▁xad	-6094
▁द्यावे	-6095
▁निकालात	-6096
▁सशस्त्र	-6097
▁गृहनिर्माण	-6098
fore	-6099
▁कसा	-6100
▁हजेरी	-6101
▁प्रभावा	-6102
▁व्यक्तीवर	-6103
▁यापूर्वीच	-6104
▁संवेदनशील	-6105
▁खंडपीठासमोर	-6106
▁रस	-6107
स्तू	-6108
▁ओरस	-6109
▁अभ्यासा	-6110
▁प्रवृत्त	-6111
▁एकापेक्षा	-6112
▁st	-6113
ळावर	-6114
▁पुरेसा	-6115
▁अभिनंदन	-6116
▁कारावास	-6117
▁निर्णायक	-6118
िश	-6119
पणाची	-6120
स्लिम	-6121
▁चांगला	-6122
▁00	-6123
▁वक्फ	-6124
▁आदेशाचे	-6125
▁भविष्यात	-6126
▁त्याशिवाय	-6127
▁विकासाच्या	-6128
१९	-6129
साह	-6130
▁अल्	-6131
▁पवित	-6132
▁हवामान	-6133
▁कोट	-6134
▁वैवाहिक	-6135
▁बांधकामा	-6136
▁वैकल्पिक	-6137
▁प्रक्रियेचे	-6138
उंड	-6139
ोलिक	-6140
▁पहिले	-6141
▁राजीनामा	-6142
▁भग	-6143
▁नावि	-6144
▁उत्तरा	-6145
▁राज्यासाठी	-6146
बिट	-6147
▁भूत	-6148
▁बनविलेले	-6149
▁भरपाईच्या	-6150
▁वाचलेल्या	-6151
▁प्रदेशातील	-6152
ाऊ	-6153
नच्या	-6154
▁उपाया	-6155
▁प्रका	-6156
--------	-6157
▁g	-6158
▁गरीब	-6159
▁निपट	-6160
▁जागरू	-6161
▁होणारी	-6162
amp	-6163
▁मिळेल	-6164
▁वकिलाने	-6165
▁दंडात्मक	-6166
▁कायमस्वरुपी	-6167
▁राष्ट्रपतींच्या	-6168
▁धमकी	-6169
▁पेपर	-6170
▁आलेला	-6171
एडी	-6172
ट्टी	-6173
यारी	-6174
▁Mar	-6175
▁ग्रस्त	-6176
ागु	-6177
र्पण	-6178
▁कराय	-6179
स्वा	-6180
ोकेट	-6181
▁फॉर	-6182
▁माफी	-6183
▁संबंधी	-6184
▁जमीनदार	-6185
▁ठेवण्याच्या	-6186
ेतील	-6187
▁वजाव	-6188
▁दरमहा	-6189
▁बायोमेट	-6190
▁नावावर	-6191
le	-6192
पया	-6193
▁चिक	-6194
▁निकालाचा	-6195
▁वस्तूंचे	-6196
▁ग्राहकांना	-6197
▁धारणा	-6198
▁वकीलाने	-6199
▁कारवाईचे	-6200
▁महानगरपालिका	-6201
▁आसाम	-6202
▁सामूहिक	-6203
▁द्विपक्षीय	-6204
▁टाडा	-6205
ांपर्यंत	-6206
▁कलक	-6207
▁वापरुन	-6208
▁अधिकाराचे	-6209
ालचा	-6210
▁बचत	-6211
▁वाक	-6212
्रल	-6213
▁अब	-6214
▁आणणे	-6215
स्तीने	-6216
▁लिक्वि	-6217
▁करारावर	-6218
▁चिन्हांकित	-6219
▁उपा	-6220
▁मंड	-6221
दराबाद	-6222
▁बॉम्ब	-6223
▁कर्जाची	-6224
▁कोलकाता	-6225
एए	-6226
रुन	-6227
▁कराव	-6228
▁संशया	-6229
▁अनुपालन	-6230
टर्नी	-6231
▁कारभार	-6232
▁शस्त्र	-6233
▁परीक्षे	-6234
▁विधानमंडळ	-6235
▁हेतूंसाठी	-6236
ृत्तीच्या	-6237
▁नियमांद्वारे	-6238
▁शेख	-6239
▁इंडियन	-6240
▁सदस्यांची	-6241
▁जुळ	-6242
▁राहत	-6243
णासाठी	-6244
▁सवलती	-6245
▁अनुमती	-6246
▁मुस्लिम	-6247
घातक	-6248
स्कर	-6249
▁हॉस्प	-6250
▁झालेली	-6251
▁जै	-6252
▁असत	-6253
▁ठरविणे	-6254
▁पुस्तक	-6255
▁निरीक्षक	-6256
▁अनुसूचीच्या	-6257
ेज	-6258
▁शस्त्रा	-6259
▁उत्पादने	-6260
▁तर्कसंगत	-6261
▁प्रस्थापित	-6262
▁कप	-6263
▁इस्	-6264
▁ओळखल्या	-6265
▁गुंतागु	-6266
▁ठेवल्या	-6267
▁ऑस्ट्रेल	-6268
▁रम	-6269
▁शकणार	-6270
▁शोधून	-6271
▁वितरणा	-6272
▁इच्छितो	-6273
▁महामहिम	-6274
▁पीएस	-6275
▁मिळते	-6276
▁अजूनही	-6277
▁वेतनश्रेणी	-6278
▁लावण्यासाठी	-6279
):	-6280
ारक	-6281
पणाचे	-6282
▁दुर्मिळ	-6283
▁हक्कांचे	-6284
▁सुरुवातीच्या	-6285
संशय	-6286
▁गोंध	-6287
▁गोळी	-6288
वेल	-6289
▁ऑडिट	-6290
▁ठेवत	-6291
▁........	-6292
▁किंमतीवर	-6293
▁मूल्यांक	-6294
pr	-6295
▁words	-6296
▁त्याच्याकडे	-6297
ाराचे	-6298
▁कुलगुरू	-6299
▁भाडेपट्ट	-6300
▁पाठविण्यात	-6301
▁उमेदवारांना	-6302
▁कार्यान्वित	-6303
नार	-6304
न्नई	-6305
्रीन	-6306
▁before	-6307
▁अंतर्भ	-6308
▁कलकत्ता	-6309
▁हैदराबाद	-6310
▁युनिव्हर्सिटी	-6311
इस	-6312
▁जागेचा	-6313
▁दायित्	-6314
▁फसवणूकी	-6315
▁विक्रीसाठी	-6316
▁योजनेंतर्गत	-6317
▁धाव	-6318
▁सूची	-6319
▁भाषेत	-6320
▁वादविवाद	-6321
▁जाणीवपूर्वक	-6322
▁गृहीत	-6323
विण्याच्या	-6324
▁बहुसं	-6325
▁नसलेली	-6326
▁मुलांच्या	-6327
▁दाव्याच्या	-6328
▁डेव्हलपमेंट	-6329
बीएस	-6330
▁पडला	-6331
▁मारहाण	-6332
▁आयपीसीअंतर्गत	-6333
▁संशय	-6334
▁स्वरुपात	-6335
▁आपत्कालीन	-6336
क्षी	-6337
▁संध्या	-6338
▁कलमातील	-6339
▁सुव्यवस्थ	-6340
▁याचिकेच्या	-6341
▁परिस्थितीचा	-6342
▁मिश	-6343
▁उपनि	-6344
▁मास्टर	-6345
षित	-6346
िंह	-6347
▁क्रूर	-6348
▁कराराचे	-6349
▁विधिमंडळा	-6350
▁मध	-6351
▁असाव	-6352
▁सुधारण्यासाठी	-6353
ूड	-6354
रला	-6355
ार्ट	-6356
वर्षी	-6357
▁दोघे	-6358
▁घेतात	-6359
▁तात्पुरते	-6360
▁देण	-6361
▁नक्की	-6362
▁स्वतःला	-6363
os	-6364
मला	-6365
ब्ली	-6366
▁गॅस	-6367
▁ठार	-6368
▁चुकून	-6369
▁ठोस	-6370
ंमधून	-6371
▁बँका	-6372
▁क्रॉस	-6373
▁एन्ट्री	-6374
▁दला	-6375
▁पकड	-6376
▁लेखक	-6377
▁वाटत	-6378
▁पाठविले	-6379
▁प्राणघातक	-6380
कॉ	-6381
▁सख	-6382
▁रुग्ण	-6383
▁एखादे	-6384
▁कार्यात	-6385
▁जप	-6386
वक्ता	-6387
▁आयटम	-6388
▁ट्रॅ	-6389
▁ऊर्जा	-6390
▁उद्घाट	-6391
न्यपूर्ण	-6392
▁निःसंशय	-6393
▁पुनर्विचार	-6394
▁व्यक्तींची	-6395
▁अवघड	-6396
▁वरून	-6397
▁कंत्राटदार	-6398
▁जिल्हाधिकारी	-6399
पित	-6400
धानी	-6401
▁सॉफ्टवेअर	-6402
▁सभा	-6403
▁आरोपा	-6404
▁हालचा	-6405
▁अधोरेखित	-6406
दय	-6407
थ्या	-6408
▁पीक	-6409
ल्याही	-6410
▁देतील	-6411
▁तथ्यां	-6412
▁प्रीमि	-6413
▁रहिवाश	-6414
▁पुनरीक्षण	-6415
▁अर्जदाराने	-6416
ow	-6417
पदा	-6418
▁स्वेच्छ	-6419
▁हवे	-6420
▁एसटी	-6421
▁नोकर	-6422
▁कृपया	-6423
▁चेन्नई	-6424
▁प्रक्रियात्मक	-6425
▁टन	-6426
▁इंडस्ट्री	-6427
▁मानतो	-6428
▁कनिष्ठ	-6429
्यांकडून	-6430
▁सुनावली	-6431
▁आमच्याकडे	-6432
▁--	-6433
▁कोठे	-6434
▁कधीच	-6435
eptember	-6436
▁निपटारा	-6437
▁संघटनेच्या	-6438
ार्क	-6439
ज्ञेय	-6440
▁अतिक	-6441
▁राहणे	-6442
▁मृत्यु	-6443
▁रेड्डी	-6444
▁नेमणुकी	-6445
▁तुम्हाला	-6446
▁कामगारांच्या	-6447
लील	-6448
ंट्स	-6449
▁खेळ	-6450
ांविषयी	-6451
▁मुद्दय	-6452
▁पुराव्या	-6453
▁डिस्चार्ज	-6454
▁निर्णयासाठी	-6455
▁भत्	-6456
▁पध्द	-6457
▁यादव	-6458
▁शकली	-6459
एससीसी	-6460
▁प्रदूषण	-6461
▁कारणांसाठी	-6462
▁नामनिर्देशित	-6463
▁फूट	-6464
▁विघट	-6465
▁तज्ज्ञ	-6466
▁यांच्यासह	-6467
▁राहण्याची	-6468
क्षिप्त	-6469
▁नक्कीच	-6470
▁अधिवेशन	-6471
▁लिक्विड	-6472
▁गोष्टींचा	-6473
▁ज्येष्ठता	-6474
▁कायदेशीररित्या	-6475
▁मशी	-6476
▁दक्षता	-6477
यु	-6478
ूपी	-6479
▁प्रकाशन	-6480
▁Rs	-6481
चारी	-6482
ष्णा	-6483
▁खरा	-6484
▁पृथ	-6485
▁पाकि	-6486
▁कारखान	-6487
▁संस्थांमध्ये	-6488
उट	-6489
स्पे	-6490
▁टीका	-6491
टिल	-6492
ाटी	-6493
ारखी	-6494
▁अर्जाच्या	-6495
▁अपीलकर्त्यांना	-6496
तेशी	-6497
▁एनआय	-6498
▁घडली	-6499
▁व्यवहार्य	-6500
▁क्षेत्रामध्ये	-6501
▁पाऊ	-6502
मतीने	-6503
▁ट्रे	-6504
▁ग्रेड	-6505
राष्ट्र	-6506
▁विमानत	-6507
▁आवश्यकत	-6508
▁न्यायालयांना	-6509
धि	-6510
जीवन	-6511
ज्या	-6512
न्हा	-6513
▁बहि	-6514
▁अशोक	-6515
▁फारच	-6516
▁हिमाचल	-6517
▁अंतरावर	-6518
एलआर	-6519
▁कोर	-6520
▁प्रश्नच	-6521
▁नियंत्रणाखाली	-6522
ट्र	-6523
▁ऑपरेट	-6524
▁मांडली	-6525
ल्यानुसार	-6526
ाक	-6527
झाड	-6528
▁कमि	-6529
▁खाल	-6530
▁असल्यामुळे	-6531
निमय	-6532
कृष्ण	-6533
▁%	-6534
चरा	-6535
वणे	-6536
▁राखून	-6537
▁हायकोर्टाचे	-6538
▁कंपन्यांच्या	-6539
▁app	-6540
▁काल	-6541
▁विकृत	-6542
ंब्ली	-6543
▁भेटी	-6544
यांकडून	-6545
▁अभिलेख	-6546
▁अपीलच्या	-6547
▁सीमाशुल्क	-6548
▁सुनावण्यात	-6549
व्हा	-6550
▁गती	-6551
▁गोंधळ	-6552
▁सुंदर	-6553
▁नकारात्मक	-6554
कावर	-6555
▁परिव	-6556
▁उद्या	-6557
▁चार्ट	-6558
▁टिप्प	-6559
▁भरण्यास	-6560
▁पाण्याचे	-6561
▁कुठल्याही	-6562
▁उत्तरदायित्	-6563
▁जतन	-6564
▁बुक	-6565
▁उचलली	-6566
▁नेमणुका	-6567
▁नातेवाईक	-6568
▁प्रश्नातील	-6569
नवीन	-6570
धारित	-6571
न्याय	-6572
्यूशन	-6573
▁बँकेने	-6574
▁त्याहून	-6575
▁समृद्धी	-6576
▁राजपत्रात	-6577
▁घेण्यापूर्वी	-6578
▁बर	-6579
▁पदांवर	-6580
▁गुन्ह्यां	-6581
▁चतु	-6582
▁लिला	-6583
▁March	-6584
########	-6585
▁बीसीसीआय	-6586
▁घेतल्यामुळे	-6587
▁इति	-6588
▁धात	-6589
▁युना	-6590
▁उद्भवत	-6591
▁गोपनीयता	-6592
▁आंतरराज्य	-6593
▁प्रजासत्ताक	-6594
▁अँ	-6595
समान	-6596
▁पर्यवे	-6597
▁चर्चेच्या	-6598
▁ग्राहकांच्या	-6599
▁पवित्र	-6600
▁राहतील	-6601
▁दहशतवादी	-6602
▁जोरदारपणे	-6603
▁wh	-6604
आरसी	-6605
पारी	-6606
▁शोक	-6607
▁जमीनी	-6608
▁वृत्त	-6609
िंगच्या	-6610
▁उपलब्धता	-6611
▁उत्पन्नाची	-6612
▁कायमस्वरूपी	-6613
▁पुराव्यांवरून	-6614
▁विपण	-6615
▁जागेचे	-6616
▁वर्षांचा	-6617
▁सर्वप्रथम	-6618
▁निवृत्तीवेतन	-6619
▁days	-6620
▁असंख्य	-6621
ig	-6622
▁कच्	-6623
▁याला	-6624
▁इं	-6625
ौद्ध	-6626
▁कित	-6627
▁पुनर्स	-6628
▁वादाचा	-6629
▁लोकसंख्ये	-6630
▁वादग्रस्त	-6631
सचिव	-6632
▁कॉपी	-6633
▁फार्	-6634
▁दररोज	-6635
▁सल्ल्याने	-6636
▁ठरविला	-6637
▁तितकेच	-6638
▁नागरिकांच्या	-6639
▁संसाध	-6640
वणी	-6641
▁टू	-6642
▁टॅ	-6643
▁तीस	-6644
▁pers	-6645
▁संमत	-6646
▁झालेला	-6647
▁पुनर्संच	-6648
▁प्रतिबंधक	-6649
▁देशांमध्ये	-6650
उदा	-6651
दरी	-6652
रोग	-6653
▁कॉलेज	-6654
▁निलंब	-6655
▁असेंब्ली	-6656
▁निःसंशयपणे	-6657
▁परिषदेच्या	-6658
▁टॉ	-6659
▁काप	-6660
▁प्रि	-6661
रेज	-6662
धित	-6663
▁पथ	-6664
▁दडप	-6665
शास्त	-6666
▁डिजिटल	-6667
▁मनुष्य	-6668
▁September	-6669
▁अध्यक्षते	-6670
▁तारखेपर्यंत	-6671
▁,,	-6672
▁मिश्रा	-6673
▁गुन्ह्यांचा	-6674
▁बड	-6675
पेक्ष	-6676
▁इतिहा	-6677
▁संभोग	-6678
▁हातात	-6679
▁कृष्णा	-6680
▁षडयंत्र	-6681
▁वस्तूंवर	-6682
तर्	-6683
▁पंध	-6684
▁घातली	-6685
▁पुष्टीकरण	-6686
ारखा	-6687
▁निम	-6688
▁बाहेरील	-6689
▁कंत्राटी	-6690
▁मालमत्तेवर	-6691
▁रकमेचा	-6692
▁पुनर्रचना	-6693
▁गुन्ह्याच्या	-6694
▁मार्गावर	-6695
▁निवासस्थान	-6696
▁मुद्र	-6697
▁पर्यावरणा	-6698
▁स्वेच्छेने	-6699
▁वर्षापेक्षा	-6700
लग	-6701
दास	-6702
गामी	-6703
▁अश्	-6704
आर्थिक	-6705
▁प्रोज	-6706
▁रकमेवर	-6707
▁निर्धारणाद्वारे	-6708
खत	-6709
▁मॉ	-6710
▁बनले	-6711
▁राष्ट्रा	-6712
▁राज्यपालांनी	-6713
▁हायकोर्टासमोर	-6714
▁बिया	-6715
▁असमान	-6716
▁मॅनेज	-6717
▁प्रदर्श	-6718
▁सुरुवात	-6719
लर	-6720
▁प्रॉ	-6721
▁again	-6722
▁बौद्ध	-6723
▁officer	-6724
▁स्वातंत्र्या	-6725
ालय	-6726
▁इजा	-6727
▁बिड	-6728
▁आदर्श	-6729
▁प्रोग्राम	-6730
▁अनुसूचीमध्ये	-6731
▁खटल्यांमध्ये	-6732
कोण	-6733
िकाऊ	-6734
▁स्र	-6735
▁आज्ञ	-6736
▁तात्पुरती	-6737
▁उदय	-6738
▁कॉन्ट्र	-6739
▁फिर्यादीला	-6740
पाली	-6741
यावर	-6742
▁ढकल	-6743
त्याने	-6744
▁सध्याचे	-6745
▁आमंत्रित	-6746
▁काढण्यात	-6747
▁नियुक्तीच्या	-6748
/0	-6749
झेड	-6750
▁घेतो	-6751
▁फोरम	-6752
▁ठेवतो	-6753
▁भांडवली	-6754
निया	-6755
बीसी	-6756
व्यु	-6757
▁एनडी	-6758
▁परिवहन	-6759
▁यावेळी	-6760
▁तिथे	-6761
▁पॅनेल	-6762
विरुद्ध	-6763
▁समुदाय	-6764
▁रूपांतरित	-6765
संत	-6766
▁मॅट	-6767
▁उजव्या	-6768
ाप्रमाणे	-6769
▁सामंजस्य	-6770
▁पुनर्संचयित	-6771
बंद	-6772
एसएल	-6773
▁सूत्र	-6774
▁आवारात	-6775
▁ऑनलाईन	-6776
▁होणार्	-6777
▁केंद्रे	-6778
▁आयुक्तांनी	-6779
▁प्रीमियम	-6780
▁याचिकेला	-6781
श्वर	-6782
काळजी	-6783
▁एकमत	-6784
▁हुंडा	-6785
▁पाकिस्तान	-6786
▁पग	-6787
▁पसं	-6788
्यातून	-6789
▁Court	-6790
▁रूग्ण	-6791
▁शोधणे	-6792
▁मालकीची	-6793
▁प्रसारित	-6794
▁सांगितला	-6795
▁प्राध्यापक	-6796
▁त्याप्रमाणे	-6797
निर्म	-6798
वैधानिक	-6799
▁आरक्षित	-6800
▁प्रयोगशा	-6801
▁स्पर्धात्मक	-6802
ढी	-6803
ess	-6804
▁निर्वाह	-6805
▁माध्यमिक	-6806
▁विधानसभा	-6807
▁प्रकरणांच्या	-6808
▁मंत्रालयाच्या	-6809
झिट	-6810
▁वंश	-6811
▁सुसं	-6812
▁प्राधिकरणास	-6813
▁ज्यु	-6814
▁तयारी	-6815
▁नमुना	-6816
▁पत्ता	-6817
▁येतात	-6818
▁कित्ये	-6819
▁संज्ञान	-6820
▁टक्क्यां	-6821
▁सर्वांना	-6822
▁आणू	-6823
ावरून	-6824
▁महिले	-6825
▁प्रथमच	-6826
▁नगरपालिका	-6827
▁खाद	-6828
कार्य	-6829
▁लेखाप	-6830
▁अटींचे	-6831
▁उद्युक्त	-6832
▁गुन्ह्यांसाठी	-6833
कम	-6834
ताच	-6835
▁घरा	-6836
▁मिट	-6837
▁उद्घाटन	-6838
▁शिस्तभंग	-6839
▁ऑर्डरमध्ये	-6840
▁न्यायदंडाधिकारी	-6841
यटेड	-6842
द्दीन	-6843
▁धातू	-6844
▁पाऊल	-6845
▁आरबीआय	-6846
व्युत्तर	-6847
▁अध्यायात	-6848
▁अत्यावश्यक	-6849
ंटी	-6850
▁टो	-6851
▁झोन	-6852
▁मंच	-6853
▁मिशन	-6854
कासाठी	-6855
▁कामात	-6856
▁against	-6857
▁स्वतःचे	-6858
▁सांगितलेल्या	-6859
▁तळ	-6860
▁खटल्याला	-6861
▁जनतेच्या	-6862
un	-6863
स्टिक	-6864
▁टाकणे	-6865
▁डिफॉल्ट	-6866
▁स्वयंसेव	-6867
▁बदलू	-6868
▁बारा	-6869
▁समृद्ध	-6870
▁उद्भवला	-6871
▁ज्यांची	-6872
▁समायोजित	-6873
ag	-6874
मर	-6875
खीम	-6876
ाबा	-6877
मंत्री	-6878
▁वेदना	-6879
▁स्रोत	-6880
▁सत्यापित	-6881
▁सेवांच्या	-6882
तरी	-6883
▁तस्	-6884
▁घेते	-6885
▁सखोल	-6886
्रपाली	-6887
▁साजरा	-6888
▁प्रतिप	-6889
▁सामान्यपणे	-6890
▁सोबत	-6891
▁रक्ता	-6892
▁सैन्य	-6893
▁प्रक्रियेस	-6894
्यव	-6895
एनसी	-6896
नेने	-6897
▁आरा	-6898
▁प्रेस	-6899
▁दुपारी	-6900
▁यासंबंधी	-6901
जो	-6902
ीकृत	-6903
भरपाई	-6904
▁कॉंग	-6905
▁गोवा	-6906
▁पॅके	-6907
▁उत्ते	-6908
▁व्यापारी	-6909
▁हॉस्पिटल	-6910
▁अपवादात्मक	-6911
▁कोठडीत	-6912
▁विचारला	-6913
▁स्वरुपा	-6914
▁अटीनुसार	-6915
▁समाधानकारक	-6916
कळ	-6917
मास	-6918
▁रेग	-6919
प्रिय	-6920
▁वेळेत	-6921
▁मोबाइल	-6922
▁शासनाच्या	-6923
▁संक्षिप्त	-6924
▁सद्यस्थिती	-6925
▁सोपविण्यात	-6926
दीप	-6927
स्व	-6928
क्झाड	-6929
ंविषयी	-6930
▁तुलना	-6931
▁प्रेरणा	-6932
▁आम्रपाली	-6933
ात्	-6934
▁डॉल	-6935
▁पीठ	-6936
▁लाच	-6937
▁हार्	-6938
▁उदाहरणे	-6939
▁राज्यांच्या	-6940
▁कागदपत्रांच्या	-6941
ौढ	-6942
तेसह	-6943
▁अर्थस	-6944
▁निरंतर	-6945
्यांवरील	-6946
▁कित्येक	-6947
▁पदव्युत्तर	-6948
▁सास	-6949
▁वाचतो	-6950
ांपासून	-6951
▁घटनास्थळी	-6952
▁बाग	-6953
▁शिव	-6954
▁मैदान	-6955
▁निकालावर	-6956
▁रुग्णालया	-6957
▁तत्त्वांचे	-6958
▁मैत्रीपूर्ण	-6959
▁न्यायाधीशांचा	-6960
▁तह	-6961
र्टी	-6962
िंदू	-6963
▁साख	-6964
परिच्छेद	-6965
▁डा	-6966
नाशी	-6967
▁तला	-6968
च्छेदन	-6969
▁वर्षा	-6970
▁सुप्रा	-6971
▁जाण्याचा	-6972
▁तक्रारीत	-6973
▁मिळण्याचा	-6974
देशी	-6975
▁अचल	-6976
ंट्री	-6977
▁एंटर	-6978
▁कर्जाच्या	-6979
.00	-6980
▁चरण	-6981
▁रिस	-6982
▁बाजारात	-6983
▁विक्रेता	-6984
▁शिक्षेचा	-6985
▁व्यवस्थापक	-6986
▁साक्षीदाराने	-6987
झी	-6988
परिष	-6989
▁पां	-6990
▁फर्	-6991
्रिया	-6992
▁मिनिट	-6993
▁मुलाला	-6994
▁युनायटेड	-6995
▁निर्धारिती	-6996
यस	-6997
२०	-6998
णाम	-6999
ववि	-7000
▁per	-7001
▁धारण	-7002
▁शरीरावर	-7003
▁वगळण्यात	-7004
▁त्याबद्दल	-7005
▁संध्याकाळी	-7006
▁गोपनीयतेच्या	-7007
▁राज्यघटनेतील	-7008
▁स्वीकारण्यास	-7009
िंक	-7010
▁दै	-7011
धर्म	-7012
▁दाग	-7013
▁वसाह	-7014
▁रॉयल्टी	-7015
▁महिन्याच्या	-7016
केश	-7017
▁एमएम	-7018
▁नमुन	-7019
▁घेणार्	-7020
▁जोडलेले	-7021
▁जामिनावर	-7022
▁न्यायपालिक	-7023
▁प्रकरणांचा	-7024
न्ना	-7025
▁इंध	-7026
▁शाह	-7027
▁अभाव	-7028
▁ऐकून	-7029
भेच्या	-7030
▁पाडण्यासाठी	-7031
िंग्ज	-7032
▁प्ले	-7033
▁विपर	-7034
न्व्हे	-7035
▁कृष्ण	-7036
▁परकीय	-7037
▁भागावर	-7038
▁पूर्वीचे	-7039
▁आल्यानंतर	-7040
ळु	-7041
▁आफ	-7042
▁कार्	-7043
▁भूसंपादन	-7044
▁प्रतिपादन	-7045
एटी	-7046
ादक	-7047
▁नऊ	-7048
र्थक	-7049
▁मोजणी	-7050
▁तस्करी	-7051
▁विचारासाठी	-7052
▁कार्यक्रमात	-7053
च्यु	-7054
्रिक्स	-7055
▁जोखीम	-7056
▁परंपर	-7057
▁सुप्र	-7058
▁घटनेने	-7059
▁पर्यटन	-7060
▁समितीचे	-7061
▁वादाच्या	-7062
▁स्वाक्षर्	-7063
▁व्यक्तींचा	-7064
▁बायोमेट्रिक	-7065
▁#	-7066
ात्म	-7067
▁नाश	-7068
▁जावा	-7069
रीच्या	-7070
▁सिमेंट	-7071
▁वकिलांच्या	-7072
▁कागदपत्रांची	-7073
मेन	-7074
▁al	-7075
▁वायू	-7076
कर्त्याने	-7077
▁धोकादायक	-7078
▁प्राण्या	-7079
▁महामार्ग	-7080
▁लग्नाच्या	-7081
▁पुराव्यावर	-7082
▁चेक	-7083
▁वगळले	-7084
▁असणारा	-7085
▁ऑपरेटर	-7086
▁तपासणीसाठी	-7087
,,,	-7088
ईटी	-7089
स्टे	-7090
▁पीपी	-7091
▁फाइल	-7092
स्वामी	-7093
▁नावाच्या	-7094
▁सीपीसीच्या	-7095
▁नियमांमध्ये	-7096
▁न्यायालयांचे	-7097
णूस	-7098
जारी	-7099
व्यात	-7100
▁देणगी	-7101
▁माणूस	-7102
▁उत्तरार्	-7103
▁बरा	-7104
▁त्याकडे	-7105
▁बाबींमध्ये	-7106
िद्ध	-7107
▁दुर्बल	-7108
▁सापडले	-7109
▁मार्केट	-7110
▁प्रख्यात	-7111
▁लोकायुक्त	-7112
▁साक्षीदारांनी	-7113
▁प्रक्रियेमध्ये	-7114
▁कुष्ठ	-7115
▁सत्कार	-7116
भी	-7117
बाई	-7118
करणी	-7119
▁आदि	-7120
▁तितक्या	-7121
▁दर्शवते	-7122
▁याशिवाय	-7123
▁सातव्या	-7124
▁केल्याची	-7125
ney	-7126
▁सील	-7127
क्सॅड	-7128
▁उल्लेखनीय	-7129
सिड	-7130
डीसी	-7131
िट्यूट	-7132
▁टाकला	-7133
▁मुदतीत	-7134
▁घराच्या	-7135
▁मध्यवर्ती	-7136
▁इंडस्ट्रीज	-7137
▁बिन	-7138
▁पंचना	-7139
▁त्यांच्याकडून	-7140
▁Att	-7141
▁अल्ट	-7142
▁युरोप	-7143
▁सांभा	-7144
▁जाहिराती	-7145
▁स्वारस्य	-7146
▁निष्काळजी	-7147
;&#	-7148
ुसे	-7149
▁खोटी	-7150
ection	-7151
▁ओरिसा	-7152
▁कॉन्ट्रॅक्ट	-7153
चंद	-7154
सील	-7155
▁ठरते	-7156
ण्याऐवजी	-7157
▁निरर्थक	-7158
anuary	-7159
विण्यास	-7160
▁शिकलेले	-7161
ादार	-7162
orney	-7163
▁प्राचीन	-7164
▁समितीची	-7165
▁कॉंग्रेस	-7166
▁सहकार्याने	-7167
▁दुरुस्तीच्या	-7168
एसटी	-7169
▁चौथ्या	-7170
▁मूल्ये	-7171
▁सापडला	-7172
▁उद्भवली	-7173
▁सवलतीच्या	-7174
▁दुब	-7175
▁मिस	-7176
▁प्रौढ	-7177
▁हद्दीत	-7178
▁होण्याचे	-7179
▁विश्लेषणा	-7180
▁संतप्त	-7181
▁सांभाळ	-7182
▁सेवेतून	-7183
▁Attorney	-7184
▁होम	-7185
▁पाण्याची	-7186
भरात	-7187
शीला	-7188
▁दुर्ग	-7189
▁पेट्रोलियम	-7190
▁आवाज	-7191
▁निधन	-7192
▁भरली	-7193
▁अशक्त	-7194
▁एकत्री	-7195
▁लवादाकडे	-7196
वरुन	-7197
▁हेक्टर	-7198
▁निषिद्ध	-7199
▁अधिकारात	-7200
▁रुपयांच्या	-7201
ंसा	-7202
▁गठ	-7203
ugust	-7204
▁व्हॅन	-7205
)),	-7206
▁म्हट	-7207
वलेल्या	-7208
▁मानल्या	-7209
▁रुपयांची	-7210
▁महानगरपालिक	-7211
▁कौर	-7212
▁हँड	-7213
▁विघटन	-7214
▁पूर्वसू	-7215
लाढ	-7216
ृहा	-7217
▁अखिल	-7218
▁एसपी	-7219
ांबाबत	-7220
यांसाठी	-7221
र्सच्या	-7222
▁होणारा	-7223
▁कामाच्या	-7224
▁स्वीकारणे	-7225
▁सुनावणीसाठी	-7226
संध	-7227
ारखंड	-7228
▁वर्ध	-7229
▁सादरी	-7230
▁प्लांट	-7231
▁प्रसारण	-7232
▁इमारतीच्या	-7233
▁भारताबाहेर	-7234
▁वर्षांपासून	-7235
▁वित्तपुरवठा	-7236
▁बाकी	-7237
▁मतदाना	-7238
▁अधिसूचनेच्या	-7239
.]	-7240
▁वर्	-7241
▁स्त	-7242
▁काराग	-7243
▁सार्वभौम	-7244
▁किंमतीच्या	-7245
▁तत्त्वांचा	-7246
▁अंमलबजावणीत	-7247
▁नी	-7248
डीपी	-7249
▁अपू	-7250
▁दुबई	-7251
ovember	-7252
▁......	-7253
▁रिमांड	-7254
विण्याचा	-7255
▁अंतर्भूत	-7256
la	-7257
िकारक	-7258
▁एनजे	-7259
▁क्लब	-7260
▁स्कूल	-7261
▁मापदंड	-7262
▁समारंभ	-7263
▁घटनेनुसार	-7264
▁प्रोजेक्ट	-7265
पिंग	-7266
फाइल	-7267
तीर्ण	-7268
▁वाढत	-7269
▁खाद्य	-7270
▁गुप्त	-7271
▁खाणपट्ट	-7272
▁ठाण्यात	-7273
▁उत्तीर्ण	-7274
▁हिंसाचार	-7275
▁संशयास्पद	-7276
णावर	-7277
▁चिड	-7278
▁नसतील	-7279
▁बाजारपेठ	-7280
▁करारानुसार	-7281
▁दुरुस्त	-7282
▁द्वितीय	-7283
ॅडव्होकेट	-7284
▁प्रयत्नात	-7285
▁नुकसानभरपाई	-7286
▁जाण्यास	-7287
▁चौकशीच्या	-7288
ूब	-7289
ंशिक	-7290
योगी	-7291
▁एआयसी	-7292
▁वर्मा	-7293
▁साधने	-7294
▁सुटके	-7295
▁पुस्तके	-7296
▁लाभार्थी	-7297
▁गुंतलेल्या	-7298
दीत	-7299
▁सभ्य	-7300
▁बिंदू	-7301
▁नाविन्यपूर्ण	-7302
िव्हि	-7303
▁एकात्म	-7304
▁बदल्या	-7305
▁मिळालेला	-7306
▁वस्तूंचा	-7307
▁निर्णयानुसार	-7308
▁दब	-7309
▁दू	-7310
त्रा	-7311
▁माझा	-7312
▁छाप	-7313
▁रीतीने	-7314
▁लवकरात	-7315
नंट	-7316
क्रमण	-7317
न्नास	-7318
▁टिकाऊ	-7319
▁बहुसंख्य	-7320
ंथ	-7321
क्रो	-7322
▁संगणक	-7323
▁याचिकेवर	-7324
▁संस्थात्मक	-7325
▁न्यायाधिकरणाकडे	-7326
शः	-7327
akh	-7328
जनक	-7329
लना	-7330
स्टी	-7331
▁अनै	-7332
0,000	-7333
▁मृताला	-7334
▁सुरक्षे	-7335
▁शिक्षणाच्या	-7336
पॅ	-7337
चिक	-7338
▁हृ	-7339
▁कशी	-7340
▁मोकळे	-7341
▁अतिक्रमण	-7342
▁व्यायामा	-7343
▁चेह	-7344
▁वन्य	-7345
▁जवळच्या	-7346
▁सीबीआयने	-7347
▁जिल्ह्यातील	-7348
▁वैयक्तिकरित्या	-7349
योगट	-7350
▁हप्	-7351
▁उलाढ	-7352
▁विमाधारक	-7353
ांव्यतिरिक्त	-7354
िफ	-7355
▁वाचला	-7356
▁विपणन	-7357
▁अनुरुप	-7358
▁थोड्या	-7359
▁सभागृहात	-7360
▁सूचीबद्ध	-7361
▁दर्शवितात	-7362
यचे	-7363
▁मनो	-7364
▁फॉरे	-7365
▁झारखंड	-7366
▁सुरूवा	-7367
▁रेग्युले	-7368
हू	-7369
सीपी	-7370
▁इंज	-7371
▁फेर	-7372
▁वयोगट	-7373
▁संताप	-7374
▁चतुर्थ	-7375
▁झालेले	-7376
▁बनविला	-7377
▁गंभीरपणे	-7378
▁मतानुसार	-7379
▁असंवैधानिक	-7380
▁भांडवलाच्या	-7381
लाम	-7382
▁आख	-7383
संबंधी	-7384
▁पुनरुज्	-7385
श्चय	-7386
▁आर्ट	-7387
▁श्रे	-7388
▁सातत्याने	-7389
▁संरक्षणासाठी	-7390
ळव	-7391
▁तहसील	-7392
▁पर्वा	-7393
▁वाढीव	-7394
▁कृत्ये	-7395
▁भाडेकरु	-7396
▁अटकेच्या	-7397
▁अहवालाचा	-7398
▁सांगण्या	-7399
▁देण्यापूर्वी	-7400
▁अंध	-7401
▁अस्थ	-7402
▁August	-7403
▁एंट्री	-7404
▁आदिवासी	-7405
▁लोकांचा	-7406
▁हालचाली	-7407
ुम	-7408
der	-7409
ळीत	-7410
▁दबाव	-7411
▁शाळे	-7412
▁कारवा	-7413
▁गेलेले	-7414
▁रिटर्न	-7415
▁पदाच्या	-7416
▁प्रारंभिक	-7417
▁याचिकेमध्ये	-7418
▁()	-7419
काने	-7420
वावा	-7421
▁con	-7422
▁विकत	-7423
▁शकता	-7424
▁निर्णयाने	-7425
▁प्रतिवादीचा	-7426
ebr	-7427
ापूर	-7428
▁यूक	-7429
त्तीस	-7430
▁प्रच	-7431
▁लांबी	-7432
▁समुद्र	-7433
ly	-7434
नरी	-7435
pril	-7436
▁कंट्रोल	-7437
मावली	-7438
▁ट्राय	-7439
▁ठामपणे	-7440
▁निकालानुसार	-7441
▁तंत्रज्ञानाच्या	-7442
ियल	-7443
▁त्र	-7444
▁आढळला	-7445
▁पदाचा	-7446
▁मजकूर	-7447
▁स्तरावरील	-7448
▁वस्तुस्थितीच्या	-7449
उंट	-7450
एनएल	-7451
▁आसपास	-7452
▁नोट्स	-7453
▁दोघेही	-7454
▁सेवेतील	-7455
▁पोलिसांच्या	-7456
▁बॅग	-7457
▁विनियम	-7458
▁प्रशंसा	-7459
▁जळ	-7460
क्ष्म	-7461
▁एमबी	-7462
▁बिले	-7463
▁सोडला	-7464
ोल्यूशन	-7465
▁प्रकटी	-7466
▁वृत्तपत्र	-7467
▁उत्तरदात्यांनी	-7468
▁अवय	-7469
▁रोह	-7470
▁शोषण	-7471
ebruary	-7472
▁एनआयटी	-7473
▁वर्तमान	-7474
▁अहवालावर	-7475
▁उत्तरार्ध	-7476
est	-7477
वता	-7478
▁एमओ	-7479
▁मोटर	-7480
▁विजे	-7481
फ्टनंट	-7482
▁पोहोचले	-7483
कर्त्याच्या	-7484
▁देशांतर्गत	-7485
▁आदेशाद्वारे	-7486
डल	-7487
▁आर्	-7488
▁इंटरनेट	-7489
▁लावण्यास	-7490
▁कारवाईच्या	-7491
im	-7492
▁उड	-7493
▁कमांड	-7494
▁उदाहरणा	-7495
▁अधिवक्ता	-7496
▁नियमावली	-7497
▁उत्पन्नाचा	-7498
▁विद्यापीठे	-7499
▁महत्त्वाच्या	-7500
फ्	-7501
हात	-7502
▁उत	-7503
▁भो	-7504
▁नेहरू	-7505
▁याउलट	-7506
▁जाणारा	-7507
▁ठरल्यास	-7508
िड	-7509
म्य	-7510
स्ट्रार	-7511
▁अश्लील	-7512
▁संसाधने	-7513
▁अपीलांच्या	-7514
▁पाठविलेल्या	-7515
▁प्रकरणाच्या	-7516
▁पुनरुत्पादित	-7517
पॉ	-7518
▁डील	-7519
▁दृश्य	-7520
▁मारुती	-7521
▁सेंट्रल	-7522
▁कान	-7523
▁माय	-7524
▁सुख	-7525
▁आराख	-7526
▁जोडी	-7527
▁वाटपा	-7528
▁सर्व्हिसेस	-7529
▁सल्ल्याच्या	-7530
ईसी	-7531
रंग	-7532
वस्तू	-7533
▁आयडी	-7534
▁लवकरच	-7535
▁ज्ञाना	-7536
▁प्रचंड	-7537
▁ड्रायव्हर	-7538
▁सांगितलेली	-7539
▁महाविद्यालये	-7540
ँक	-7541
शन्स	-7542
▁एके	-7543
▁ट्रक	-7544
▁सूक्ष्म	-7545
▁तत्त्वांच्या	-7546
▁लँडिंग	-7547
▁कामकाजाच्या	-7548
बिया	-7549
▁हद्द	-7550
▁तेथील	-7551
▁विवाहित	-7552
▁होण्याचा	-7553
▁जबरदस्तीने	-7554
▁प्रक्रियेद्वारे	-7555
▁ad	-7556
▁पसर	-7557
▁धक्का	-7558
व्यवहार	-7559
▁परदेशात	-7560
▁एखाद्याला	-7561
▁एफआयआरमध्ये	-7562
▁चौकशीत	-7563
▁आरोपींची	-7564
कास	-7565
आयएस	-7566
▁एएस	-7567
▁मात	-7568
▁हिस्	-7569
▁कक्षेत	-7570
▁वाढीसाठी	-7571
▁अधिसूचनेनुसार	-7572
खोरी	-7573
▁विप	-7574
▁सिने	-7575
म्हणजे	-7576
▁सेवेची	-7577
▁स्वागत	-7578
▁एआयसीटीई	-7579
▁परीक्षेत	-7580
▁लेफ्टनंट	-7581
▁वस्तूंची	-7582
▁प्रमाणीकरण	-7583
▁(“	-7584
▁खेड	-7585
▁एनजी	-7586
▁कस्टम	-7587
▁अपीलमधील	-7588
ब्र	-7589
सात	-7590
आरएस	-7591
एफसी	-7592
सर्व	-7593
▁तपा	-7594
▁बेल	-7595
▁जीवनात	-7596
▁महत्त्वाची	-7597
▁ओव्हर	-7598
▁गुणधर्म	-7599
▁समितीला	-7600
▁कुष्ठरोग	-7601
▁प्रोफाइल	-7602
▁धोरणाच्या	-7603
▁मालकाच्या	-7604
od	-7605
इत	-7606
संघ	-7607
वितो	-7608
▁कचरा	-7609
▁टेक्	-7610
▁बेंग	-7611
▁बदलले	-7612
▁स्ट्र	-7613
▁अपूर्ण	-7614
▁दुखापती	-7615
▁झाल्यापासून	-7616
▁निर्देशांचे	-7617
▁संजय	-7618
सेक्शन	-7619
▁April	-7620
▁भरपाईचा	-7621
▁याद्वारे	-7622
▁खटल्यांच्या	-7623
ग्ध	-7624
▁ऑटो	-7625
▁रजे	-7626
▁आजारी	-7627
▁वेगवेग	-7628
भक्त	-7629
ळुरू	-7630
प्राय	-7631
▁एकमेक	-7632
▁समर्प	-7633
▁साध्या	-7634
▁अर्जाची	-7635
▁एनजेएसी	-7636
▁निर्धारक	-7637
▁प्रत्येकी	-7638
▁कल्याणकारी	-7639
▁शुल्काच्या	-7640
ond	-7641
क्त्या	-7642
ाबाहेर	-7643
▁मिश्र	-7644
▁रोजीची	-7645
▁सहजपणे	-7646
▁अनुदाना	-7647
साई	-7648
▁शववि	-7649
▁तडजोड	-7650
प्रकारे	-7651
▁अपील्स	-7652
दाराच्या	-7653
▁इतरांना	-7654
▁आढळल्यास	-7655
▁टाडाच्या	-7656
वेळ	-7657
लाची	-7658
▁रिक	-7659
▁शेतकरी	-7660
▁ऑर्डरची	-7661
▁आरोग्यासाठी	-7662
▁प्रक्रियेची	-7663
्वी	-7664
▁गुर	-7665
▁सौर	-7666
ळक	-7667
सनीय	-7668
▁कन्	-7669
प्रेस	-7670
▁मंडळाचे	-7671
▁तारखेनंतर	-7672
▁साधारणपणे	-7673
▁खंडपीठाकडे	-7674
ण्ड	-7675
▁it	-7676
▁घरे	-7677
▁घडले	-7678
▁देशांमधील	-7679
▁महासंचालक	-7680
नर	-7681
ओने	-7682
बीर	-7683
▁घालणे	-7684
▁रोखले	-7685
▁आपल्याकडे	-7686
▁महिन्यांत	-7687
▁आंतरराज्यीय	-7688
दिक	-7689
हेरी	-7690
▁दगड	-7691
एच्या	-7692
▁मनात	-7693
▁पन्नास	-7694
▁श्रद्ध	-7695
▁सिन्हा	-7696
▁खालच्या	-7697
विना	-7698
▁घोट	-7699
▁आलेले	-7700
▁निमित्त	-7701
पृ	-7702
्मी	-7703
▁बेस	-7704
ॅक्चर	-7705
▁ज्ञात	-7706
▁संस्थे	-7707
▁प्रतिष्ठा	-7708
▁उमेदवारांच्या	-7709
uly	-7710
प्ले	-7711
भागी	-7712
▁रेट	-7713
▁अतिशय	-7714
▁व्यास	-7715
▁राजधानी	-7716
▁आणलेल्या	-7717
▁मुदतीसाठी	-7718
जण	-7719
फाय	-7720
र्जे	-7721
वर्ध	-7722
वावी	-7723
▁माघ	-7724
▁आरआय	-7725
▁फायन	-7726
सायनिक	-7727
▁मिळावी	-7728
▁मंत्रिम	-7729
▁विस्तारित	-7730
▁इंधन	-7731
▁पंधरा	-7732
▁खर्चाची	-7733
ॅमि	-7734
▁गठित	-7735
▁बरखा	-7736
▁शंकर	-7737
▁शहाण	-7738
दाराचा	-7739
▁कव्हर	-7740
▁उघडणारी	-7741
▁राज्यपालांच्या	-7742
सूर	-7743
ोत्	-7744
▁cr	-7745
लच्या	-7746
लिखित	-7747
▁प्राणी	-7748
▁गुन्ह्यात	-7749
▁छायाचित्र	-7750
क्ल	-7751
ापू	-7752
क्साड	-7753
▁पारदर्शक	-7754
▁उत्तरदाता	-7755
▁ठरवण्यासाठी	-7756
▁प्रतिक्रिया	-7757
ab	-7758
आप	-7759
ort	-7760
▁जॉन	-7761
▁घेणा	-7762
▁चोरी	-7763
▁हवाई	-7764
▁भारताने	-7765
▁सबमिशनमध्ये	-7766
लास	-7767
▁ठरवून	-7768
▁करारात	-7769
▁परीक्षक	-7770
▁जोडलेल्या	-7771
▁स्वयंसेवी	-7772
▁सोसायटीच्या	-7773
२१	-7774
ंचर	-7775
▁उठ	-7776
▁मेघ	-7777
▁असेच	-7778
▁महाग	-7779
▁जागेची	-7780
▁विपरित	-7781
▁प्रकरणांची	-7782
▁अमेरिकेच्या	-7783
ंदणी	-7784
▁खोल	-7785
▁अपयश	-7786
▁खटले	-7787
▁तत्सम	-7788
▁पार्क	-7789
▁शेतात	-7790
▁योजनेचा	-7791
▁इश	-7792
स्सर	-7793
यानंतर	-7794
▁पॅकेज	-7795
▁उत्तेजन	-7796
▁दायित्व	-7797
▁उमेदवारी	-7798
▁लिहिलेले	-7799
काव	-7800
▁जटिल	-7801
दाराचे	-7802
▁आशिया	-7803
▁वेळेवर	-7804
▁खटल्यांचा	-7805
▁त्यासंबंधी	-7806
▁St	-7807
नंदिन	-7808
▁होण्या	-7809
▁आयोगाचे	-7810
मल	-7811
णास	-7812
टीसी	-7813
वानी	-7814
▁res	-7815
▁तहक	-7816
▁शेड	-7817
ध्वनी	-7818
▁यावी	-7819
ांवरून	-7820
▁असावेत	-7821
▁तपासले	-7822
▁धोक्यात	-7823
▁प्रवासी	-7824
▁समकालीन	-7825
▁सरकारचा	-7826
▁स्वीकार्य	-7827
▁हायकोर्टाचा	-7828
ठ्	-7829
डीएस	-7830
▁हान	-7831
रीक्षक	-7832
▁अरुणा	-7833
▁स्वामी	-7834
▁एमएसएमई	-7835
▁गुन्ह्याचा	-7836
▁विवादास्पद	-7837
▁उमेदवाराच्या	-7838
▁फो	-7839
ीकडे	-7840
ांतील	-7841
▁पुरात	-7842
▁सांगत	-7843
पुरस्सर	-7844
▁मंडळाची	-7845
▁असल्याची	-7846
गन	-7847
ॅल	-7848
▁तै	-7849
ासीन	-7850
लांतर	-7851
▁आपत्ती	-7852
▁तिन्ही	-7853
▁निसर्गाच्या	-7854
ial	-7855
▁बोट	-7856
निक्स	-7857
▁आरडी	-7858
▁सोडली	-7859
▁आणल्या	-7860
▁म्हणतो	-7861
▁निवेदने	-7862
▁विचारले	-7863
▁सबमिशनला	-7864
▁याचिकेतील	-7865
▁गुन्हेगारीच्या	-7866
▁k	-7867
vii	-7868
िरा	-7869
िद्र	-7870
डच्या	-7871
▁गहाण	-7872
▁झोपड	-7873
▁बळकट	-7874
ांकरिता	-7875
▁मांडला	-7876
▁हिस्सा	-7877
▁दैनंदिन	-7878
▁प्रतिमा	-7879
▁योजनेची	-7880
▁लोकसेवा	-7881
्याद्वारे	-7882
▁उद्भवणार्	-7883
▁तक्रारीच्या	-7884
कत	-7885
वाज	-7886
▁माफ	-7887
पृष्ठ	-7888
▁धरला	-7889
▁सुसज्ज	-7890
▁तुरूंगात	-7891
▁निवडणुका	-7892
▁अधिकाराची	-7893
▁सीडब्ल्यू	-7894
टर्स	-7895
्यांसमोर	-7896
▁पदासाठी	-7897
▁रजिस्टर	-7898
▁अधिकारावर	-7899
▁वयोगटातील	-7900
▁शस्त्रास्त्र	-7901
पुरा	-7902
▁आठवण	-7903
▁जोडला	-7904
▁शीर्षका	-7905
▁पक्षांचे	-7906
▁दाब	-7907
मृत्यू	-7908
▁विषयांवर	-7909
▁संस्थेने	-7910
▁निर्णयांचा	-7911
नस	-7912
क्यू	-7913
▁डाग	-7914
▁लष्	-7915
▁गार्ड	-7916
▁बॉक्स	-7917
▁अर्जास	-7918
▁छत्तीस	-7919
विण्याची	-7920
▁व्यवसायाचे	-7921
मू	-7922
िप	-7923
▁दौ	-7924
स्को	-7925
▁नवरा	-7926
▁माघार	-7927
▁अल्ट्रा	-7928
▁परिस्थितीची	-7929
cto	-7930
पुट	-7931
आयआय	-7932
शाचा	-7933
▁खंडन	-7934
▁तहकूब	-7935
▁विधाने	-7936
▁अध्यक्षतेखाली	-7937
▁तक्रारदाराच्या	-7938
शाचे	-7939
▁मेहता	-7940
क्काच्या	-7941
▁पुरविली	-7942
▁प्राप्ती	-7943
▁इच्छेनुसार	-7944
▁बेद	-7945
प्राइ	-7946
▁मोबदला	-7947
▁संतुलन	-7948
▁अभियोजन	-7949
▁प्रवर्त	-7950
▁हानिकारक	-7951
▁रजिस्ट्रार	-7952
▁वर्षांसाठी	-7953
ctober	-7954
परिणाम	-7955
▁विभक्त	-7956
▁नेतृत्व	-7957
▁बाजूंनी	-7958
▁मॅन्युअल	-7959
▁सदस्याने	-7960
▁डॉक्टरांनी	-7961
▁पारदर्शकता	-7962
▁प्राधिकरणाकडे	-7963
har	-7964
▁दारूगो	-7965
▁पंचनामा	-7966
▁आरोपींवर	-7967
▁भागामध्ये	-7968
▁स्वयंचलित	-7969
▁प्रतिवादींना	-7970
▁कमा	-7971
यांचा	-7972
▁आश्च	-7973
▁उदार	-7974
रेंद्र	-7975
▁साखळी	-7976
▁एकीकडे	-7977
▁राज्याचा	-7978
▁दोघांनाही	-7979
▁सांगण्यावरून	-7980
झेशन	-7981
श्वत	-7982
▁सहसा	-7983
▁ब्रिट	-7984
▁वादात	-7985
▁आकारण्यात	-7986
▁वापरण्यासाठी	-7987
ल्ल	-7988
▁नाब	-7989
▁इन्फ	-7990
▁ओळखला	-7991
▁चौकटी	-7992
▁सेक्शन	-7993
▁स्फोटक	-7994
िंदरसिंग	-7995
क्झ	-7996
एमपी	-7997
▁आंब	-7998
▁विश्र	-7999
▁पृथ्वी	-8000
▁विपरीत	-8001
▁तरतुदीचा	-8002
▁रासायनिक	-8003
▁पगाराच्या	-8004
▁सबमिशनच्या	-8005
▁रोजगाराच्या	-8006
रिमन	-8007
श्रम	-8008
▁क्रौ	-8009
▁हुंड	-8010
ार्किक	-8011
▁रूग्णा	-8012
▁मंडळाला	-8013
▁विमानतळ	-8014
▁पासपोर्ट	-8015
▁व्यक्तींचे	-8016
▁जेव	-8017
▁डीजी	-8018
ecember	-8019
▁तुम्ही	-8020
▁पत्रात	-8021
▁प्रांत	-8022
▁शाश्वत	-8023
▁कंपन्यांना	-8024
▁संरक्षणाची	-8025
ेवर	-8026
▁अफ	-8027
मारी	-8028
मार्क	-8029
▁चॅनेल	-8030
▁भत्ते	-8031
▁सिंचन	-8032
▁उद्भवते	-8033
▁आक्षेपार्ह	-8034
▁परिस्थितीजन्य	-8035
हरी	-8036
▁सै	-8037
ग्नि	-8038
ग्या	-8039
बीने	-8040
मिनल	-8041
▁कॉम	-8042
▁पिश	-8043
गोलिक	-8044
▁फाउंड	-8045
▁नसलेला	-8046
▁संरक्षक	-8047
▁खंडपीठाचा	-8048
▁यांच्यावर	-8049
▁दुष्परिणाम	-8050
▁वापरण्यास	-8051
▁अल्पसंख्या	-8052
▁सार्वत्रिक	-8053
लॉ	-8054
ओआर	-8055
▁हवी	-8056
सार्व	-8057
▁समूह	-8058
▁सीजे	-8059
▁हरकती	-8060
▁असणारे	-8061
▁वाटाघा	-8062
ere	-8063
पीएफ	-8064
म्मा	-8065
▁टीप	-8066
▁बांग	-8067
▁वेळेस	-8068
▁गोळीबार	-8069
▁मिळविला	-8070
▁कारवाईचा	-8071
▁गोष्टींवर	-8072
▁दुर्दैवाने	-8073
ंडन	-8074
रीय	-8075
कायदा	-8076
▁ऐकला	-8077
▁सेवेचा	-8078
▁रुपांतर	-8079
▁मॅनेजमेंट	-8080
▁ऑस्ट्रेलिया	-8081
▁प्रवर्गातील	-8082
▁आग	-8083
▁शत	-8084
▁रवी	-8085
▁एमपी	-8086
▁टप्पा	-8087
▁लोखंड	-8088
▁ठोठावला	-8089
▁हक्काच्या	-8090
▁नाथ	-8091
ॉलॉजी	-8092
िमित्त	-8093
▁नमुने	-8094
तेमध्ये	-8095
▁तपशीला	-8096
▁दरवर्षी	-8097
▁सध्याची	-8098
▁हिताच्या	-8099
▁कार्यालये	-8100
▁व्यवस्थापित	-8101
▁कायद्यांच्या	-8102
une	-8103
▁ठळक	-8104
▁लोह	-8105
▁निंद	-8106
▁नरिमन	-8107
▁संमतीने	-8108
▁गव्हर्नर	-8109
▁करण्याऐवजी	-8110
▁पदोन्नतीसाठी	-8111
ारीत	-8112
▁स्तंभ	-8113
▁आरोपीची	-8114
▁वर्षानंतर	-8115
▁तपासणीच्या	-8116
▁आठवड्यांच्या	-8117
मीटर	-8118
िक्स	-8119
▁टर्	-8120
▁उपास	-8121
▁ठेवते	-8122
▁याच्या	-8123
▁मुद्द्यांचा	-8124
एमए	-8125
▁नॉ	-8126
▁लाभा	-8127
▁ज्यांचा	-8128
▁अर्थपूर्ण	-8129
▁बनविलेल्या	-8130
▁श्	-8131
राइट	-8132
▁चहा	-8133
▁हिर	-8134
▁ट्रॅक	-8135
▁प्लॉट	-8136
▁आस्थापन	-8137
▁नियोजित	-8138
▁परिच्छेदात	-8139
डॉ	-8140
▁अकर	-8141
▁दात	-8142
▁प्रगत	-8143
▁बहुमत	-8144
काश्मीर	-8145
▁अनिवासी	-8146
▁गर्भधार	-8147
▁राज्यांना	-8148
▁शवविच्छेदन	-8149
जेस	-8150
ोडी	-8151
▁घस	-8152
▁जम	-8153
गार्ड	-8154
▁सुपर	-8155
▁आमदार	-8156
▁भांडण	-8157
▁भारताला	-8158
फरन्स	-8159
▁अस्स	-8160
▁देवा	-8161
▁वर्च	-8162
▁वाहि	-8163
▁विली	-8164
▁अंतर्	-8165
▁अल्पसंख	-8166
▁सरकारद्वारे	-8167
▁अभिव्यक्तीचा	-8168
▁स्वातंत्र्याचा	-8169
ळात	-8170
ाराम	-8171
▁अस्सल	-8172
▁राजकार	-8173
▁अर्जाचा	-8174
▁नोंदविले	-8175
▁तंत्रज्ञानाचा	-8176
ेतून	-8177
▁टाइ	-8178
▁वेगाने	-8179
▁दोषारोपपत्र	-8180
▁मिळाल्यामुळे	-8181
बन	-8182
ॅप	-8183
श्य	-8184
जाती	-8185
▁बिघड	-8186
▁हरकत	-8187
कांक्षा	-8188
▁वरच्या	-8189
▁भौगोलिक	-8190
▁वाढत्या	-8191
▁समर्पित	-8192
▁दिल्लीच्या	-8193
▁पुराव्यांचे	-8194
▁चां	-8195
▁ठेवेल	-8196
▁धोरणे	-8197
▁फाउंडेशन	-8198
▁मिळाल्या	-8199
आयडीए	-8200
विकास	-8201
मेंट्स	-8202
▁पाठवले	-8203
▁October	-8204
▁हक्कांचा	-8205
▁चालविण्यास	-8206
::	-8207
एसएस	-8208
▁आकल	-8209
▁कीटक	-8210
▁ड्यु	-8211
▁बेदखल	-8212
▁समजाव	-8213
▁प्रकारात	-8214
▁विनामूल्य	-8215
▁समाजाच्या	-8216
▁साक्षीदारांना	-8217
.-	-8218
कुल	-8219
लबा	-8220
िटे	-8221
▁खरी	-8222
▁lakh	-8223
▁एसआय	-8224
ोपत्री	-8225
▁अतिरे	-8226
▁रिपोर्ट	-8227
ant	-8228
▁वेल	-8229
▁मशीन	-8230
▁बाजूस	-8231
▁जाणारी	-8232
▁पूर्वगामी	-8233
▁बाबींच्या	-8234
▁मागासवर्ग	-8235
ia	-8236
ाड	-8237
लेम	-8238
गण्य	-8239
मिकस	-8240
▁अनिल	-8241
▁तेथून	-8242
▁गर्भपात	-8243
▁अपीलांना	-8244
▁निश्चितच	-8245
▁सेवेसाठी	-8246
▁कागदोपत्री	-8247
▁भरण्याच्या	-8248
▁समुपदेशनाने	-8249
जोर	-8250
▁फस	-8251
▁May	-8252
▁भूषण	-8253
▁ओळखली	-8254
▁जयपूर	-8255
▁निरोगी	-8256
▁मुक्तता	-8257
पिक	-8258
▁मां	-8259
▁चर्च	-8260
▁बंदर	-8261
▁अटींवर	-8262
▁साक्षर	-8263
▁विवादित	-8264
▁वडिलांनी	-8265
▁नोंदणीसाठी	-8266
▁वेळापत्रकात	-8267
चय	-8268
▁is	-8269
जिकल	-8270
स्पष्ट	-8271
▁चार्ज	-8272
▁अभियंत	-8273
▁इंडियाने	-8274
▁उद्भवणारे	-8275
बो	-8276
▁ख्रि	-8277
▁परेड	-8278
▁भरले	-8279
एलच्या	-8280
▁स्केल	-8281
▁संवर्धन	-8282
▁गुणोत्तर	-8283
▁न्यायाचा	-8284
▁डीडब्ल्यू	-8285
▁गोपनीयतेचा	-8286
नील	-8287
बिड	-8288
▁इम्	-8289
सायकल	-8290
व्हिंग	-8291
▁खुल्या	-8292
सार्वजनिक	-8293
▁इन्स्टिट्यूट	-8294
▁अपीलकर्त्यावर	-8295
,0	-8296
ओपी	-8297
वीस	-8298
त्याच	-8299
संचार	-8300
▁पसंत	-8301
यापुढे	-8302
▁प्रदात	-8303
▁करण्यावर	-8304
▁कंपन्यांनी	-8305
▁एखाद्याच्या	-8306
▁गमा	-8307
▁डोळ	-8308
▁एक्झ	-8309
▁बायो	-8310
▁द्याय	-8311
▁सुट्टी	-8312
जल	-8313
ॅम	-8314
कोच	-8315
▁अना	-8316
▁कोल	-8317
▁घेतील	-8318
▁बजावले	-8319
▁बनविणे	-8320
▁शेवटचा	-8321
▁म्हणजेः	-8322
▁नामांकित	-8323
आयपी	-8324
राचा	-8325
▁हाच	-8326
▁[]],	-8327
▁उपकर	-8328
▁साठा	-8329
▁कनेक्ट	-8330
▁कारवाईत	-8331
▁न्यायनि	-8332
▁अधिकारांचे	-8333
▁प्रतिनिधित्	-8334
▁बल	-8335
लादेश	-8336
▁आपाप	-8337
▁याने	-8338
▁याकडे	-8339
▁युद्ध	-8340
▁लावून	-8341
▁बियाणे	-8342
ानिमित्त	-8343
▁हद्दपार	-8344
▁दर्शविलेल्या	-8345
ST	-8346
▁खड	-8347
▁आयआर	-8348
▁इतकेच	-8349
▁विलीनी	-8350
▁कठोरपणे	-8351
▁हप्त्या	-8352
▁माहितीचा	-8353
▁वग	-8354
▁वीस	-8355
▁म्है	-8356
स्तरीय	-8357
▁Offic	-8358
▁व्यासपीठ	-8359
थॉ	-8360
▁ओर	-8361
▁कुशल	-8362
▁खराब	-8363
समर्पण	-8364
▁पाहणे	-8365
▁नाबार्ड	-8366
▁भाषांतर	-8367
▁सभागृहा	-8368
▁स्वरूपाचा	-8369
▁स्वरूपाचे	-8370
झो	-8371
डत	-8372
मंत	-8373
▁बरो	-8374
▁नसणे	-8375
▁नोटि	-8376
▁संगी	-8377
▁सिटी	-8378
▁हायड	-8379
▁लागते	-8380
▁स्थावर	-8381
▁विमाधार	-8382
▁युरोपियन	-8383
▁गुंतागुंत	-8384
▁ठरवलेल्या	-8385
▁कर्तव्याची	-8386
▁सेवांमध्ये	-8387
▁com	-8388
ाबाबत	-8389
▁राजा	-8390
विल्या	-8391
▁प्रभा	-8392
▁करूनही	-8393
▁कंपनीची	-8394
▁मिळण्यास	-8395
▁त्यांच्यात	-8396
ंगी	-8397
निर	-8398
लँड	-8399
▁ex	-8400
▁नर	-8401
वेरी	-8402
▁करम	-8403
▁नयेत	-8404
कृष्णन	-8405
▁पिस्त	-8406
▁संरचने	-8407
▁अग्रवाल	-8408
▁हेदेखील	-8409
▁सर्वोत्तम	-8410
▁पाण्याच्या	-8411
▁प्रतिष्ठित	-8412
नेस	-8413
्लो	-8414
▁पौ	-8415
मिया	-8416
▁ताण	-8417
▁वगळणे	-8418
▁वाहून	-8419
कोणत्या	-8420
▁होत्या	-8421
▁पक्षांकडून	-8422
▁परिस्थितीच्या	-8423
इटी	-8424
▁गॅर	-8425
▁द्वे	-8426
▁शांती	-8427
▁वाढविली	-8428
▁असण्याची	-8429
▁जिल्ह्यात	-8430
▁अय्य	-8431
▁लिक्विडेटर	-8432
end	-8433
ेटरी	-8434
▁सिंघ	-8435
▁इतिहासा	-8436
▁सत्तेचा	-8437
▁एकात्मिक	-8438
▁दूरसंचार	-8439
▁श्रेणीतील	-8440
▁उत्पन्नाचे	-8441
▁साक्षीदाराची	-8442
▁कपड	-8443
▁अत्य	-8444
▁साथी	-8445
▁मीडिया	-8446
▁अर्थातच	-8447
▁सहाव्या	-8448
अपीलकर्ता	-8449
▁दिवसाच्या	-8450
▁आत्मसमर्पण	-8451
▁संवर्गातील	-8452
▁जॉ	-8453
▁रमेश	-8454
▁शास्त	-8455
सामग्री	-8456
▁एखाद्याने	-8457
▁लिहिलेल्या	-8458
▁मुख्यमंत्री	-8459
▁क्षेत्रासाठी	-8460
णुक	-8461
लेस	-8462
ान्	-8463
राचे	-8464
▁बेट	-8465
▁लगे	-8466
▁गोळ्या	-8467
▁लाभांश	-8468
▁क्रिकेट	-8469
▁प्रशासक	-8470
▁उमेदवारांची	-8471
▁पुराव्यांद्वारे	-8472
ist	-8473
ानक	-8474
मत्त्	-8475
रुध्द	-8476
▁उद्द	-8477
▁ओळखी	-8478
गुन्हे	-8479
▁काउंटर	-8480
▁persons	-8481
▁अवस्थेत	-8482
▁अहमदाबाद	-8483
▁उपायुक्त	-8484
▁छत्तीसगड	-8485
▁शक्तीच्या	-8486
▁क्षेत्राचे	-8487
▁व्यक्तीकडून	-8488
डु	-8489
तीवर	-8490
रहित	-8491
▁फाईल	-8492
▁वाचा	-8493
▁मंदिरात	-8494
▁लक्षणीय	-8495
▁उभा	-8496
▁क्री	-8497
▁यूके	-8498
▁सदोष	-8499
▁हेतु	-8500
▁बदलली	-8501
▁म्हणू	-8502
▁शेतकर्	-8503
▁घालण्यात	-8504
पान	-8505
टीआय	-8506
णाची	-8507
▁ओएस	-8508
▁जाऊन	-8509
▁लगेच	-8510
▁मिळालेली	-8511
▁संघटनेने	-8512
▁लवादासाठी	-8513
▁तरतुदीच्या	-8514
▁तुरूंगवासाची	-8515
art	-8516
मोडी	-8517
▁साली	-8518
▁देवाण	-8519
▁एमबीबीएस	-8520
▁जागरूकता	-8521
▁महत्वाची	-8522
▁विस्तृतपणे	-8523
▁गुणवत्तेच्या	-8524
इंड	-8525
▁अणु	-8526
▁लखन	-8527
थॉरिटी	-8528
▁तैनात	-8529
▁देणार	-8530
▁एनसीटी	-8531
▁असल्यासच	-8532
▁वस	-8533
माला	-8534
▁ओडि	-8535
▁सीओ	-8536
▁अद्य	-8537
▁उद्दिष्ट	-8538
▁विक्रीचा	-8539
▁वेगवेगळे	-8540
▁घेण्याबाबत	-8541
▁फिर्यादीचा	-8542
▁लावण्याच्या	-8543
▁सुविधांच्या	-8544
सिंह	-8545
▁जीप	-8546
▁औषधे	-8547
▁रेडिओ	-8548
▁स्थाना	-8549
▁बौद्धिक	-8550
▁मनापासून	-8551
▁वर्गातील	-8552
▁कालावधीच्या	-8553
शियन	-8554
▁द्र	-8555
गावॅट	-8556
▁आश्चर्य	-8557
▁परिवर्त	-8558
▁संचालना	-8559
▁परताव्या	-8560
▁अहवालातील	-8561
▁एंटरप्राइ	-8562
▁सद्यस्थितीत	-8563
▁पॅन	-8564
ताच्या	-8565
▁देयके	-8566
▁बोलले	-8567
▁मानके	-8568
▁निबंधक	-8569
▁निर्मूल	-8570
कोणत्याही	-8571
ंछ	-8572
ोटो	-8573
▁कपा	-8574
▁जित	-8575
ात्मा	-8576
▁क्यू	-8577
लैंगिक	-8578
▁भगवान	-8579
▁रोखणे	-8580
▁अलीकडील	-8581
▁योगदाना	-8582
▁काळासाठी	-8583
▁लोकप्रिय	-8584
▁ट्रस्टच्या	-8585
▁अधिकारक्षेत्र	-8586
वट	-8587
ईंट	-8588
▁ईसी	-8589
▁नार	-8590
▁म्हैसूर	-8591
▁विलक्षण	-8592
▁अर्थव्यवस्था	-8593
▁इनो	-8594
▁तार	-8595
▁धर्	-8596
▁सलग	-8597
्याशी	-8598
▁पुष्	-8599
▁बसला	-8600
प्रकरणी	-8601
▁काढलेला	-8602
▁काढल्या	-8603
▁निर्मात	-8604
▁दूरध्वनी	-8605
▁निकालाने	-8606
▁खर्चासाठी	-8607
▁राज्यघटनेने	-8608
▁स्पष्टीकरणात	-8609
ee	-8610
वटी	-8611
ोर्ट	-8612
▁चौकट	-8613
▁पटेल	-8614
▁पडले	-8615
शाच्या	-8616
▁येथून	-8617
▁विवेकी	-8618
▁मेगावॅट	-8619
▁व्यक्तीद्वारे	-8620
▁स्वातंत्र्यावर	-8621
ice	-8622
पत्	-8623
▁हॅ	-8624
्यासह	-8625
▁खूपच	-8626
▁नसता	-8627
बीच्या	-8628
▁मिळणार	-8629
▁राहणार	-8630
▁इमारतीत	-8631
▁उमेदवाराने	-8632
ाऊंड	-8633
▁घडा	-8634
▁वेंक	-8635
▁सीएस	-8636
▁वाटाघाटी	-8637
टल	-8638
▁.-	-8639
ेल्थ	-8640
▁एडी	-8641
▁गौण	-8642
▁मणि	-8643
▁वास	-8644
विशेष	-8645
संहित	-8646
▁अशीच	-8647
▁किमी	-8648
▁खेळा	-8649
ममध्ये	-8650
▁डेबिट	-8651
▁वयाची	-8652
्यांपैकी	-8653
▁पूर्वसंध	-8654
▁इन्स्ट्रु	-8655
▁प्रवेशासाठी	-8656
▁अर्जदाराच्या	-8657
▁येण्यापूर्वी	-8658
प्शन	-8659
▁पुणे	-8660
▁घातला	-8661
▁दृढनि	-8662
▁पट्टे	-8663
▁भाष्य	-8664
▁घडामोडी	-8665
▁ऑब्जेक्ट्स	-8666
▁विधानसभेचे	-8667
▁समानतेच्या	-8668
▁स्वीकारल्या	-8669
▁गळ	-8670
रेशन	-8671
्युट	-8672
्येला	-8673
▁बिला	-8674
▁प्रकट	-8675
▁व्यभि	-8676
▁अबकारी	-8677
▁पब्लिक	-8678
▁कार्यकक्षा	-8679
▁व्यक्तिमत्त्	-8680
▁उपस	-8681
▁ताल	-8682
नामुळे	-8683
▁खोलीत	-8684
▁शिक्ष	-8685
ंविरोधात	-8686
▁प्रेरित	-8687
▁वर्गीकृत	-8688
▁झोपडपट्टी	-8689
▁त्याच्याकडून	-8690
▁पुरस्काराच्या	-8691
र्द	-8692
िनी	-8693
▁तिक	-8694
▁सोल	-8695
पुरते	-8696
्यंत्र	-8697
▁बाबतीतही	-8698
-))	-8699
राची	-8700
▁महे	-8701
▁शतक	-8702
▁आवडत	-8703
▁श्रम	-8704
▁वाहने	-8705
▁व्यस्त	-8706
▁करपात्र	-8707
▁गुणवत्ते	-8708
▁बराच	-8709
▁व्याजा	-8710
▁अधिवेशनात	-8711
▁तरतुदींची	-8712
▁रेकॉर्डिंग	-8713
▁राखण्यासाठी	-8714
२२	-8715
्ले	-8716
एचआर	-8717
र्मू	-8718
▁मास	-8719
▁लोड	-8720
▁हरी	-8721
पत्नी	-8722
▁कमाल	-8723
▁हंगा	-8724
▁कल्पित	-8725
▁पदांच्या	-8726
▁वर्गीकरणा	-8727
▁संदेशामध्ये	-8728
res	-8729
▁लागवड	-8730
▁इंदिरा	-8731
▁नुकत्याच	-8732
▁काळापासून	-8733
▁तत्त्वाचा	-8734
▁भरपाईसाठी	-8735
ंबा	-8736
एलटी	-8737
▁तंद	-8738
▁फेक	-8739
पलीकडे	-8740
▁अपुरी	-8741
▁अवांछ	-8742
▁प्लॅन	-8743
▁निंदनीय	-8744
▁गुंतवणूकीच्या	-8745
▁न्यायाधीशांकडे	-8746
मतीत	-8747
▁कपडे	-8748
▁यावे	-8749
00,000	-8750
▁उत्खन	-8751
▁संप्र	-8752
▁ब्रिटी	-8753
▁भरल्या	-8754
मालक	-8755
▁चीन	-8756
पंचाय	-8757
वल्ली	-8758
▁पदाची	-8759
▁राजीव	-8760
▁स्टँड	-8761
▁देवाणघ	-8762
▁मदतीने	-8763
▁किंमतीत	-8764
▁कायद्यास	-8765
▁पेंडन्सी	-8766
▁तरतुदींवर	-8767
▁वर्षांपूर्वी	-8768
एसपी	-8769
▁विश	-8770
▁पार्ट	-8771
▁सर्जन	-8772
▁जमिनीवर	-8773
▁तार्किक	-8774
▁विक्रीची	-8775
▁ठाकूर	-8776
▁जनतेला	-8777
▁भूमिके	-8778
▁उत्पादनात	-8779
▁निर्णयाशी	-8780
▁झाल्याच्या	-8781
▁शीर्षकाखाली	-8782
▁रुपयांपेक्षा	-8783
रने	-8784
ापन	-8785
चेरी	-8786
▁चक्र	-8787
▁नसती	-8788
नॉलॉजी	-8789
▁प्रां	-8790
▁आदेशावरून	-8791
▁मंत्रालया	-8792
▁देण्याबाबत	-8793
een	-8794
मात	-8795
सोबत	-8796
▁कॅप	-8797
▁जस्ट	-8798
ॉनिक्स	-8799
▁प्रॉप	-8800
▁होल्ड	-8801
▁फेटाळले	-8802
माचे	-8803
▁अडक	-8804
▁रिप	-8805
▁आश्र	-8806
▁नेते	-8807
▁तपासा	-8808
▁वर्गात	-8809
निर्मिती	-8810
▁मुद्रांक	-8811
▁अर्जामध्ये	-8812
▁निमित्ताने	-8813
▁मंत्रिमंडळ	-8814
▁पीडब्ल्यूएस	-8815
▁अपीलकर्त्याकडे	-8816
udg	-8817
▁सप	-8818
गारी	-8819
▁सापडत	-8820
▁आजपासून	-8821
▁पोहोचला	-8822
▁महात्मा	-8823
▁संसदेला	-8824
▁उपाययोजन	-8825
▁इतरांच्या	-8826
▁नेमलेल्या	-8827
▁राहण्याचे	-8828
ks	-8829
िनि	-8830
नामी	-8831
▁आराम	-8832
▁कंपनीचा	-8833
▁निवृत्त	-8834
▁लावल्या	-8835
▁स्वीकृती	-8836
▁लोकांसाठी	-8837
फल	-8838
्यूल	-8839
▁अंर	-8840
र्सिंग	-8841
▁अभिमान	-8842
▁रोजीचे	-8843
▁दुष्काळ	-8844
▁प्रजाती	-8845
▁षड्यंत्र	-8846
ुरा	-8847
ृत्य	-8848
▁चळव	-8849
▁अरुंद	-8850
▁अकाउंट	-8851
▁पार्टी	-8852
प्तीच्या	-8853
▁स्वतःची	-8854
▁वापरलेल्या	-8855
▁परिस्थितींमध्ये	-8856
मक	-8857
रूप	-8858
▁क्व	-8859
मेन्ट	-8860
▁कॉम्	-8861
▁शेतक	-8862
विरोधी	-8863
▁एक्स्	-8864
▁उद्योजक	-8865
▁गुंतलेले	-8866
▁नसल्याने	-8867
▁मृत्युदंड	-8868
▁हेतुपुरस्सर	-8869
▁निर्विवादपणे	-8870
लीम	-8871
▁आयु	-8872
▁हेड	-8873
विष्टी	-8874
▁अचानक	-8875
▁मोजले	-8876
▁आणण्याचा	-8877
▁खटल्यासाठी	-8878
▁कालावधीनंतर	-8879
▁तरतूदीनुसार	-8880
शाली	-8881
▁मुलाख	-8882
▁संकोच	-8883
▁येणारी	-8884
▁अर्थसंक	-8885
▁नाकारणे	-8886
▁अटकपूर्व	-8887
▁संस्थांनी	-8888
▁प्रवेशाच्या	-8889
एसए	-8890
ट्स	-8891
थित	-8892
ब्बल	-8893
▁ग्रंथ	-8894
▁कल्पने	-8895
▁कोठेही	-8896
▁परिषदेत	-8897
ऊक	-8898
धे	-8899
▁फळ	-8900
▁गाठ	-8901
पक्षी	-8902
▁नसला	-8903
विवादा	-8904
▁वापरणे	-8905
▁भरण्याची	-8906
▁फिर्यादीचे	-8907
▁याचिकाकर्त्याची	-8908
0.0	-8909
जोग	-8910
टीओ	-8911
ents	-8912
गोपाल	-8913
▁शोधात	-8914
नाबद्दल	-8915
▁बरोबरी	-8916
▁मिळवणे	-8917
▁मेघालय	-8918
▁व्यापा	-8919
▁होणारे	-8920
▁ब्रिटीश	-8921
▁अपीलांनी	-8922
▁असामान्य	-8923
▁तक्रारीची	-8924
▁कर्तव्याचे	-8925
▁सुव्यवस्था	-8926
▁बेकायदेशीरपणे	-8927
ैरे	-8928
स्टिंग	-8929
▁अग्नि	-8930
▁ठरतील	-8931
▁अपीलचा	-8932
▁मृताचा	-8933
▁शब्दात	-8934
▁संस्थेत	-8935
▁पूर्वसंध्येला	-8936
▁न्यायाधीशांसमोर	-8937
फळ	-8938
▁गाडी	-8939
▁वगैरे	-8940
▁वृद्ध	-8941
▁आयोगाचा	-8942
▁त्यांच्याशी	-8943
▁वापरकर्त्या	-8944
▁ब्यु	-8945
▁मृताचे	-8946
▁विकृती	-8947
▁न्यायाचे	-8948
▁राज्याची	-8949
▁पातळीवरील	-8950
▁प्रशिक्षित	-8951
त्रिम	-8952
▁काढू	-8953
▁माती	-8954
ैधानिक	-8955
▁विचित्र	-8956
▁कॉन्फरन्स	-8957
▁उत्पादनांच्या	-8958
▁ईआर	-8959
▁बाद	-8960
▁जर्म	-8961
ंबरोबर	-8962
▁प्रोब	-8963
▁बुद्ध	-8964
पणामुळे	-8965
▁दाखवून	-8966
▁राहतात	-8967
▁बोलावले	-8968
▁कॉपीराइट	-8969
▁अल्पसंख्याक	-8970
▁प्रशासनाच्या	-8971
किट	-8972
वनो	-8973
सेट	-8974
▁जीओ	-8975
▁नावनो	-8976
▁राहणा	-8977
सिव्हिल	-8978
▁दडपशाही	-8979
▁रस्त्यावर	-8980
शिला	-8981
ाब्द	-8982
▁पळून	-8983
ाब्दिक	-8984
▁लवचिक	-8985
▁संमेल	-8986
▁प्रतिसा	-8987
▁अस्तित्वा	-8988
▁संवैधानिक	-8989
▁सीआरअंतर्गत	-8990
▁सर्वोत्कृष्ट	-8991
जीत	-8992
▁Sh	-8993
टीशन	-8994
▁कडक	-8995
▁बॅक	-8996
▁चौदा	-8997
▁दुवा	-8998
▁सीबी	-8999
▁order	-9000
▁विकली	-9001
▁सुरेश	-9002
▁आरोपित	-9003
▁कॉन्स्टे	-9004
▁जगभरातील	-9005
▁पैशाच्या	-9006
▁क्षेत्राची	-9007
▁खी	-9008
कुवत	-9009
▁इष्ट	-9010
▁जंगम	-9011
▁ठाऊक	-9012
▁मद्य	-9013
▁असाइन	-9014
▁नृत्य	-9015
▁निवडून	-9016
▁चर्चेचा	-9017
▁श्रद्धा	-9018
▁योजनेनुसार	-9019
▁प्रतिवादीची	-9020
▁युक्तिवादाला	-9021
ळीस	-9022
▁सीम	-9023
▁सोन	-9024
सच्या	-9025
िकेशन	-9026
▁खरंच	-9027
▁मधून	-9028
▁कृतीत	-9029
▁खंडणी	-9030
▁पाहून	-9031
▁मोजमा	-9032
▁अधिसूचन	-9033
▁त्याउलट	-9034
▁तथ्यांचा	-9035
▁तथ्यात्मक	-9036
▁तरतुदींना	-9037
▁व्यवसायाचा	-9038
लीच्या	-9039
ांनंतर	-9040
▁डीडीए	-9041
▁उत्सुक	-9042
▁परिमाण	-9043
▁काहीतरी	-9044
▁पत्रकार	-9045
▁प्राधान	-9046
▁तिच्याशी	-9047
▁नियमांची	-9048
▁असल्याच्या	-9049
▁संयुक्तपणे	-9050
▁प्रतिबंधात्मक	-9051
▁साक्षीदाराच्या	-9052
वर्	-9053
्याम	-9054
ुकेशन	-9055
▁कमाई	-9056
▁सागरी	-9057
▁अटर्नी	-9058
▁मर्यादेत	-9059
▁निकालांचा	-9060
▁परवानग्या	-9061
▁राज्यांनी	-9062
▁प्रकल्पाच्या	-9063
उन	-9064
▁भु	-9065
अरिंग	-9066
पॉझिट	-9067
▁लायस	-9068
▁इनपुट	-9069
▁अधिभार	-9070
▁अपंगत्	-9071
▁संतुलित	-9072
▁पुस्तकात	-9073
▁याचिकेचा	-9074
▁राज्यघटनेत	-9075
यत	-9076
एसओ	-9077
एफआर	-9078
▁ओपी	-9079
▁वीर	-9080
र्याद	-9081
▁रोजग	-9082
▁वाढवणे	-9083
▁उद्भवणा	-9084
▁कृत्रिम	-9085
▁लक्ष्मी	-9086
▁दीर्घकाळ	-9087
▁स्थलांतर	-9088
▁विधानसभेत	-9089
▁अध्यायातील	-9090
▁निर्णयांवर	-9091
▁अल्पसंख्यां	-9092
▁समुदायाच्या	-9093
▁अंमलबजावणीची	-9094
सल	-9095
डीची	-9096
▁झेड	-9097
ित्तल	-9098
▁निराश	-9099
▁समजूत	-9100
▁कमकुवत	-9101
▁प्रस्त	-9102
▁ठेवलेले	-9103
▁अधिलिखित	-9104
▁राहण्यास	-9105
▁समुपदेशन	-9106
▁राष्ट्रपतींना	-9107
नगर	-9108
ates	-9109
वेदी	-9110
ेडकर	-9111
▁पाई	-9112
युक्ती	-9113
▁निष्प	-9114
▁फ्रेम	-9115
▁स्टेन	-9116
▁दोघांनी	-9117
▁एकमेकांशी	-9118
▁अधिसूचनेमध्ये	-9119
डीओ	-9120
कर्म	-9121
नासह	-9122
▁उपकरण	-9123
▁स्पेश	-9124
▁नंतरचे	-9125
▁धर्मादाय	-9126
▁प्रदर्शित	-9127
▁राजपत्रातील	-9128
झर	-9129
▁खत	-9130
▁रहा	-9131
क्काम	-9132
यांवर	-9133
▁केडर	-9134
▁निष्ठ	-9135
▁इतक्या	-9136
▁लागतात	-9137
▁भारताचा	-9138
▁भारताची	-9139
▁उलटपक्षी	-9140
▁भाषेच्या	-9141
▁न्यायाधिकरणाची	-9142
▁IST	-9143
▁ओपन	-9144
▁आर्क	-9145
▁पीएम	-9146
▁स्कू	-9147
▁डायरे	-9148
▁नामित	-9149
▁श्वास	-9150
▁कंपाऊंड	-9151
▁रूपांतरण	-9152
▁महिलांच्या	-9153
▁याचिकाकर्त्याचा	-9154
.&	-9155
▁sub	-9156
▁आकलन	-9157
▁मसुद	-9158
▁वॉटर	-9159
▁पत्रे	-9160
▁प्रसि	-9161
▁मिळकत	-9162
▁सैनिक	-9163
▁लायसन्स	-9164
▁कराराद्वारे	-9165
षा	-9166
गृह	-9167
▁मजुरी	-9168
▁मुलाची	-9169
▁शाब्दिक	-9170
▁जाण्याचे	-9171
▁दारूगोळा	-9172
▁राज्याला	-9173
▁व्यापाराच्या	-9174
जली	-9175
प्पट	-9176
▁Con	-9177
▁ताक	-9178
▁समुद	-9179
▁व्यत्य	-9180
ज्युकेशन	-9181
्यांमधून	-9182
▁बाबींची	-9183
▁सर्वाधिक	-9184
▁शब्दाच्या	-9185
▁एए	-9186
▁ताप	-9187
▁तीच	-9188
▁शंभ	-9189
▁ब्रा	-9190
▁गैरसो	-9191
नामध्ये	-9192
▁पदवीधर	-9193
▁मित्तल	-9194
▁पडलेल्या	-9195
▁मध्यभागी	-9196
▁बचावासाठी	-9197
▁बांगलादेश	-9198
ide	-9199
एलने	-9200
रियल	-9201
▁दंत	-9202
▁डोंग	-9203
▁बनली	-9204
▁अक्षर	-9205
▁लेखात	-9206
▁वयाचे	-9207
▁वाक्य	-9208
▁प्रॅक्ट	-9209
▁सूचनेनुसार	-9210
▁दिनानिमित्त	-9211
ीम	-9212
रीज	-9213
▁चल	-9214
मंडळा	-9215
▁resp	-9216
▁अन्स	-9217
▁तंदु	-9218
ंपासून	-9219
ॅटर्नी	-9220
▁दुहेरी	-9221
▁सेक्टर	-9222
▁तिसर्या	-9223
▁असमर्थता	-9224
▁सुस्पष्ट	-9225
▁सांगण्याची	-9226
oc	-9227
▁रोल	-9228
न्सिक	-9229
ूच्या	-9230
▁गोदा	-9231
▁ब्रे	-9232
▁केलेः	-9233
ापूर्वी	-9234
▁पूर्वज	-9235
▁पुरवठादार	-9236
▁कॉन्स्टेबल	-9237
▁ठोठावण्यात	-9238
▁प्रत्येकाला	-9239
▁विद्यापीठाने	-9240
▁म्हटल्याप्रमाणे	-9241
डीएफ	-9242
▁(&#	-9243
▁पटना	-9244
▁मुता	-9245
▁रेखा	-9246
ारातील	-9247
▁आचरणा	-9248
▁सुनील	-9249
▁कुरिया	-9250
▁नागपूर	-9251
▁परीक्ष	-9252
▁आरोपीचा	-9253
▁प्रस्तुत	-9254
▁हक्कांची	-9255
▁त्यांच्याद्वारे	-9256
बरोबरच	-9257
▁जोडली	-9258
▁विभाज	-9259
न्यायिक	-9260
्यावरील	-9261
▁आयटीआर	-9262
▁बारावी	-9263
▁पिस्तूल	-9264
▁मुख्यतः	-9265
▁राजेंद्र	-9266
▁हक्कांवर	-9267
ht	-9268
एडा	-9269
▁Ind	-9270
▁अबा	-9271
▁आणत	-9272
▁नॅन	-9273
▁बजा	-9274
▁रसाय	-9275
▁आज्ञा	-9276
▁त्याग	-9277
▁मार्शल	-9278
▁मुख्यत	-9279
▁गुन्ह्याची	-9280
खमी	-9281
▁दाद	-9282
▁आरंभ	-9283
▁धरून	-9284
▁पोषण	-9285
▁विधवा	-9286
▁सुरवात	-9287
▁Officer	-9288
▁दोषरहित	-9289
▁कारणासाठी	-9290
▁तुलनात्मक	-9291
▁मर्यादेचा	-9292
▁संस्थांकडून	-9293
▁कागदपत्रांवर	-9294
▁गुन्हेगाराच्या	-9295
म्ड	-9296
▁छेड	-9297
▁युग	-9298
▁नव्या	-9299
▁लिखित	-9300
आयडीएआय	-9301
▁कैद्या	-9302
▁बांधले	-9303
▁ब्युरो	-9304
▁स्पर्श	-9305
▁विकासास	-9306
▁कामांसाठी	-9307
▁उत्पन्नावर	-9308
माची	-9309
▁गरजे	-9310
▁तलाव	-9311
▁नसली	-9312
▁सेवक	-9313
▁नोएडा	-9314
▁ऑपरेशनल	-9315
▁दारिद्र	-9316
▁लोकांची	-9317
▁दिनाच्या	-9318
▁फॉरेन्सिक	-9319
▁मिळण्याची	-9320
▁यांच्यामार्फत	-9321
शै	-9322
ॉक्स	-9323
ution	-9324
▁लागव	-9325
▁नेत्या	-9326
▁निःपक्ष	-9327
▁विकल्या	-9328
▁विचारवि	-9329
▁उत्तराखंड	-9330
▁एज्युकेशन	-9331
▁प्रॉपर्टी	-9332
▁सदस्यांचा	-9333
▁तारखेपूर्वी	-9334
▁परिस्थितीवर	-9335
▁सामग्रीच्या	-9336
▁राज्यांमध्ये	-9337
▁इलेक्ट्रॉनिक्स	-9338
▁आत्	-9339
▁पंड	-9340
▁दरवा	-9341
▁धरुन	-9342
▁रणनी	-9343
▁सीएम	-9344
अनुदान	-9345
▁चेंबर	-9346
▁हिंदु	-9347
▁संघटित	-9348
्यानुसार	-9349
▁येण्यास	-9350
▁आणण्याची	-9351
▁डोक्यावर	-9352
▁त्यासंबंधित	-9353
लेय	-9354
्ला	-9355
▁su	-9356
ेखील	-9357
▁आहार	-9358
▁कन्स	-9359
▁डायरी	-9360
▁सेक्र	-9361
▁प्रचार	-9362
▁आंबेडकर	-9363
▁पुनर्मू	-9364
▁नमुन्यात	-9365
▁पृष्ठभाग	-9366
▁परराष्ट्र	-9367
▁सामग्रीचा	-9368
▁इंडियाच्या	-9369
▁नामनिर्देशन	-9370
पत	-9371
▁de	-9372
द्वि	-9373
▁कौश	-9374
▁नजर	-9375
▁आरएफ	-9376
▁क्रीडा	-9377
▁मांडणे	-9378
▁समितीचा	-9379
▁निर्णयात	-9380
▁उलटतपासणीत	-9381
▁नियुक्तीची	-9382
ईड	-9383
उप	-9384
▁छा	-9385
▁धड	-9386
सीसी	-9387
▁त्व	-9388
काकडून	-9389
▁अपीलची	-9390
▁प्रिंट	-9391
▁मुलाचे	-9392
▁वन्यजीव	-9393
▁राहण्याचा	-9394
▁प्रश्नांचा	-9395
एट	-9396
▁शहा	-9397
▁ठरवू	-9398
स्थाना	-9399
▁मणिपूर	-9400
▁लोखंडी	-9401
▁दहशतवाद	-9402
▁मृतदेहा	-9403
ील्ड	-9404
▁पशु	-9405
▁चालक	-9406
▁बनला	-9407
क्रिया	-9408
▁ड्युटी	-9409
▁वाढवून	-9410
▁पूर्ववत	-9411
▁निर्णयाकडे	-9412
▁टाकण्यासाठी	-9413
ट्टा	-9414
पीपी	-9415
▁फटा	-9416
▁बेड	-9417
▁सती	-9418
▁साफ	-9419
ition	-9420
ंकाळी	-9421
▁अलिक	-9422
▁कमिटी	-9423
▁पीपीए	-9424
▁लिफ्ट	-9425
▁जस्टिस	-9426
▁पाहिली	-9427
▁प्रांता	-9428
▁सुरूवात	-9429
▁स्पेक्ट	-9430
▁ग्रॅच्यु	-9431
▁मर्यादीत	-9432
▁मालकांना	-9433
▁घटकांच्या	-9434
▁धर्माच्या	-9435
▁प्रमाणावर	-9436
▁सांगण्यासाठी	-9437
परा	-9438
▁नौ	-9439
ांकन	-9440
हम्मद	-9441
▁एनटी	-9442
▁जगात	-9443
▁बीएस	-9444
▁अभयार	-9445
▁काढता	-9446
दारांना	-9447
▁अलीकडे	-9448
▁संशयित	-9449
▁उद्भवतो	-9450
▁लवादाचे	-9451
▁फायनान्स	-9452
▁मृत्यूचे	-9453
▁सायंकाळी	-9454
▁परिसरातील	-9455
▁व्यवहारात	-9456
▁अधिकारांवर	-9457
▁रिझोल्यूशन	-9458
▁शिस्तभंगाची	-9459
▁होण्यापासून	-9460
▁व्यवहाराच्या	-9461
▁त्यांच्यासाठी	-9462
.&#	-9463
अधि	-9464
थिल	-9465
▁किशन	-9466
▁बहुम	-9467
▁ठरवते	-9468
▁सोन्या	-9469
▁वर्चस्व	-9470
▁स्वच्छता	-9471
▁आकारण्यास	-9472
▁कौन्सिलने	-9473
लयीन	-9474
▁भास	-9475
▁कोटा	-9476
▁चंदी	-9477
▁कालबा	-9478
▁विनिमय	-9479
▁क्षेत्रीय	-9480
▁खनिजांच्या	-9481
▁पात्रतेच्या	-9482
▁समाप्तीनंतर	-9483
▁उत्पादनाच्या	-9484
▁राज्यपालांना	-9485
▁af	-9486
▁आघा	-9487
▁लाइ	-9488
व्हेशन	-9489
▁आयबिड	-9490
विरुध्द	-9491
▁त्यातून	-9492
▁पाठविणे	-9493
▁प्रविष्टी	-9494
▁व्यवस्थित	-9495
▁सापडलेल्या	-9496
▁परीक्षेच्या	-9497
▁यंत्रसामग्री	-9498
ेवाण	-9499
▁अंडर	-9500
▁उंची	-9501
▁खोटा	-9502
▁मोफत	-9503
भारतीय	-9504
▁कॅन्ट	-9505
▁ग्रीन	-9506
▁वाढवू	-9507
▁समायोजन	-9508
▁कालबाह्य	-9509
▁पद्धतीचा	-9510
▁प्रवर्तक	-9511
▁फाशीच्या	-9512
▁विभागाचे	-9513
▁प्रार्थने	-9514
▁सहाय्याने	-9515
▁युक्तिवादाचा	-9516
)]	-9517
षक	-9518
२३	-9519
भाडे	-9520
य्यम	-9521
▁गुड	-9522
▁डिल	-9523
▁सीपी	-9524
▁मोजमाप	-9525
▁महिन्यात	-9526
▁औपचारिकता	-9527
▁उपनिरीक्षक	-9528
▁अपीलकर्त्यांचा	-9529
▁“.	-9530
णाचे	-9531
्रीट	-9532
▁गेलो	-9533
▁एकूणच	-9534
▁मोजली	-9535
▁वेधून	-9536
▁अर्जात	-9537
▁ठेवतात	-9538
▁सातत्य	-9539
▁जीवनाचा	-9540
▁निवडणुक	-9541
▁खात्यावर	-9542
▁नसल्याचा	-9543
▁सन्माननीय	-9544
▁फिर्यादीची	-9545
▁फॉर्ममध्ये	-9546
▁कर्तव्याच्या	-9547
▁विधिमंडळाच्या	-9548
▁कार्यवाहीमध्ये	-9549
कॅ	-9550
नेड	-9551
▁prov	-9552
▁काडत	-9553
▁विधि	-9554
▁क्लिन	-9555
▁गैरसम	-9556
▁जावेत	-9557
▁पैलूवर	-9558
▁महागाई	-9559
▁सर्किट	-9560
▁अरुणाचल	-9561
▁टिप्पणी	-9562
▁योजनेचे	-9563
▁भेटवस्तू	-9564
▁राज्यघटनेचे	-9565
▁स्वरूपाच्या	-9566
▁मिळवण्यासाठी	-9567
वरण	-9568
सार	-9569
▁पडत	-9570
▁संच	-9571
▁सायकल	-9572
▁जणांना	-9573
▁उत्तरात	-9574
▁उद्भवले	-9575
▁प्रकटीकरण	-9576
▁पक्षांमध्ये	-9577
▁आमच्याद्वारे	-9578
lic	-9579
वाड	-9580
▁घन	-9581
माही	-9582
वेळे	-9583
ेसाठी	-9584
▁आवाह	-9585
▁बदलला	-9586
▁ब्लॅक	-9587
▁चंदीगड	-9588
▁संघाने	-9589
▁नोंदवून	-9590
▁न्यायालयांमध्ये	-9591
▁गे	-9592
ॉर्क	-9593
▁mon	-9594
▁not	-9595
▁रॉय	-9596
▁जोखमी	-9597
▁अबाधित	-9598
▁नोटिसा	-9599
▁पक्षाचे	-9600
▁नावनोंदणी	-9601
▁विश्रांती	-9602
▁संप्रेषणा	-9603
▁नोंदविलेले	-9604
▁घेण्याकरिता	-9605
मंत्र	-9606
▁पराव	-9607
ल्याचे	-9608
▁बनवते	-9609
▁शालेय	-9610
▁वादाचे	-9611
▁स्मारक	-9612
ारामध्ये	-9613
▁केंद्रा	-9614
▁वर्षाची	-9615
्यतिरिक्त	-9616
▁कमिशनच्या	-9617
▁खरेदीदारास	-9618
▁बोर्डाच्या	-9619
▁निःपक्षपाती	-9620
हीन	-9621
▁-.	-9622
▁शो	-9623
ween	-9624
▁सेन	-9625
▁नोडल	-9626
▁वाढली	-9627
▁अपार्ट	-9628
▁आयआयटी	-9629
▁जोडल्या	-9630
▁वाढविला	-9631
▁हार्दिक	-9632
▁टाकण्यात	-9633
▁मनुष्यबळ	-9634
▁सरकारांनी	-9635
▁सुविधांचा	-9636
▁कायद्यांचा	-9637
▁निकालानंतर	-9638
▁झाल्याबद्दल	-9639
▁राहण्यासाठी	-9640
ned	-9641
▁))	-9642
▁कथा	-9643
▁कॅट	-9644
▁मुळात	-9645
▁राजेश	-9646
▁शक्यतो	-9647
▁अत्यधिक	-9648
▁एकसारखे	-9649
▁पत्राच्या	-9650
▁घेतल्याशिवाय	-9651
▁राष्ट्राध्यक्ष	-9652
डो	-9653
एनओ	-9654
ापक	-9655
▁cas	-9656
▁गेट	-9657
परिषद	-9658
▁कल्पन	-9659
▁दुय्यम	-9660
▁मंजूरी	-9661
▁मालवाह	-9662
▁मृताची	-9663
▁अक्षरशः	-9664
▁इतरांनी	-9665
▁ठेवलेली	-9666
▁क्षेत्रे	-9667
कर्त्यांनी	-9668
▁त्याच्याद्वारे	-9669
----------------	-9670
▁न्यायपालिकेच्या	-9671
पला	-9672
निधी	-9673
▁बंड	-9674
▁जनता	-9675
▁लंडन	-9676
करणाची	-9677
▁मताशी	-9678
▁डॉलर्स	-9679
▁परवाने	-9680
्यामध्ये	-9681
▁धर्मनिर	-9682
▁पत्त्या	-9683
▁वक्तव्य	-9684
▁आव्हानात्मक	-9685
▁याचिकाकर्त्याचे	-9686
पूस	-9687
ागत	-9688
▁अर	-9689
विते	-9690
व्हरी	-9691
▁निगम	-9692
▁संकट	-9693
▁वाचून	-9694
र्जेदार	-9695
▁मालकास	-9696
▁सदस्यता	-9697
▁दिवसांची	-9698
▁राज्यांत	-9699
▁प्रसिद्धी	-9700
▁सेवांसाठी	-9701
▁अप्रत्यक्षपणे	-9702
गल	-9703
विता	-9704
▁शरण	-9705
तर्फे	-9706
नॅशनल	-9707
▁बेंच	-9708
द्यावर	-9709
▁शिकवण	-9710
▁यांनीही	-9711
▁शुद्धता	-9712
▁सत्यतेवर	-9713
▁वादविवादा	-9714
▁मूल्याच्या	-9715
▁न्यायपालिका	-9716
▁शिक्षकांच्या	-9717
▁बात	-9718
▁वाढू	-9719
▁दशकां	-9720
▁राकेश	-9721
▁ट्रॅक्टर	-9722
▁दस्तऐवजा	-9723
▁विकासाची	-9724
▁संस्थांचे	-9725
▁कलंक	-9726
▁बनवू	-9727
▁मूलत	-9728
▁सीजी	-9729
दीच्या	-9730
▁घ्याय	-9731
▁चळवळी	-9732
▁पसंती	-9733
▁वजावट	-9734
▁करायची	-9735
▁मोबाईल	-9736
▁वापरून	-9737
▁मागितले	-9738
▁पर्याप्त	-9739
▁कोर्टाकडून	-9740
श्चन	-9741
▁उंच	-9742
▁ग्रॅम	-9743
▁निवाडा	-9744
▁पर्यटक	-9745
▁भागाचा	-9746
▁मुलाचा	-9747
▁स्कूटर	-9748
▁व्यत्यय	-9749
▁दर्जेदार	-9750
▁नियमांना	-9751
कलमांतर्गत	-9752
▁क्षेत्राला	-9753
▁पहिल्यांदाच	-9754
▁प्रतिनिधीत्व	-9755
▁यांच्यासमवेत	-9756
▁कार्यालयाच्या	-9757
▁तरतुदींद्वारे	-9758
▁असमा	-9759
▁थोडा	-9760
▁लाइट	-9761
▁पराभूत	-9762
▁भूतकाळ	-9763
▁कराच्या	-9764
▁शब्दाची	-9765
▁कामकाजात	-9766
▁वापरलेले	-9767
▁कामांच्या	-9768
▁खरेदीदाराने	-9769
▁प्राधिकरणाची	-9770
aw	-9771
हीम	-9772
ॅमिकस	-9773
▁अब्ज	-9774
▁नोटा	-9775
▁बहुधा	-9776
▁गैरसमज	-9777
▁महानगर	-9778
▁नैतिकता	-9779
▁अग्रगण्य	-9780
▁संग्रहित	-9781
▁निकालामध्ये	-9782
▁न्यायनिवाडा	-9783
▁व्यक्तींसाठी	-9784
करुन	-9785
▁विनो	-9786
▁स्टो	-9787
▁गहाणखत	-9788
▁गेलेला	-9789
▁दुप्पट	-9790
▁समुदाया	-9791
▁विकसनशील	-9792
▁शरीराच्या	-9793
▁स्थानांतर	-9794
▁घटनापीठाने	-9795
▁अमर	-9796
▁एसडी	-9797
▁हृदय	-9798
▁टिकून	-9799
▁निघून	-9800
▁शाळेत	-9801
▁संकलन	-9802
▁दूरस्थ	-9803
▁परंपरा	-9804
▁रिसर्च	-9805
▁सांगता	-9806
▁दुर्दैवी	-9807
▁चौकशीसाठी	-9808
▁परिस्थितीनुसार	-9809
▁प्रतिवादींच्या	-9810
झम	-9811
▁भिं	-9812
▁वाघ	-9813
दारास	-9814
▁डोमेन	-9815
▁चालवणे	-9816
▁अवांछित	-9817
▁नेण्यात	-9818
▁बदल्यात	-9819
▁बरखास्त	-9820
▁वाक्यां	-9821
▁अधिकाधिक	-9822
▁अविभाजित	-9823
▁कारवाईची	-9824
▁मुतावल्ली	-9825
▁साहित्याचा	-9826
▁यशस्वीरित्या	-9827
▁हस्तक्षेपाची	-9828
▁न्यायाधिकरणाचे	-9829
ेक	-9830
कीत	-9831
जमीन	-9832
▁आपो	-9833
▁केश	-9834
मार्ट	-9835
▁परवड	-9836
▁पांढ	-9837
व्हीसी	-9838
▁धान्य	-9839
▁करायचे	-9840
▁खर्चाचा	-9841
▁officers	-9842
▁अहवालाची	-9843
▁उद्भवणारी	-9844
▁दुरुस्तीचा	-9845
▁देवाणघेवाण	-9846
▁भाडेकरूंनी	-9847
▁परवानगीशिवाय	-9848
▁वस्तुस्थितीवर	-9849
बाद	-9850
▁bet	-9851
▁एटी	-9852
▁प्रथ	-9853
▁राजू	-9854
▁राधा	-9855
▁आपोआप	-9856
▁प्रवाश	-9857
▁इन्फ्रा	-9858
▁कारवाईस	-9859
▁शब्दांचा	-9860
▁स्थितीचा	-9861
▁जमिनीच्या	-9862
▁वर्गाच्या	-9863
▁अहवालानुसार	-9864
▁दरम्यानच्या	-9865
तार	-9866
राण	-9867
▁नाय	-9868
▁फिर	-9869
▁बनू	-9870
▁मिल	-9871
पत्रे	-9872
▁	-9873
ा	-9874
्	-9875
र	-9876
य	-9877
े	-9878
त	-9879
क	-9880
ी	-9881
ल	-9882
ि	-9883
न	-9884
स	-9885
व	-9886
प	-9887
च	-9888
ं	-9889
म	-9890
ण	-9891
ह	-9892
द	-9893
आ	-9894
ो	-9895
.	-9896
ज	-9897
अ	-9898
श	-9899
ु	-9900
ध	-9901
ग	-9902
ट	-9903
ू	-9904
ब	-9905
,	-9906
ष	-9907
ड	-9908
ख	-9909
भ	-9910
ठ	-9911
ए	-9912
०	-9913
थ	-9914
ळ	-9915
१	-9916
उ	-9917
)	-9918
घ	-9919
(	-9920
फ	-9921
-	-9922
२	-9923
;	-9924
इ	-9925
ई	-9926
ृ	-9927
३	-9928
d	-9929
ै	-9930
झ	-9931
ढ	-9932
ॉ	-9933
u	-9934
e	-9935
i	-9936
&	-9937
#	-9938
o	-9939
ऊ	-9940
t	-9941
:	-9942
/	-9943
a	-9944
४	-9945
n	-9946
0	-9947
ॅ	-9948
r	-9949
ौ	-9950
५	-9951
ऑ	-9952
ओ	-9953
s	-9954
छ	-9955
f	-9956
६	-9957
“	-9958
ः	-9959
]	-9960
|	-9961
h	-9962
ञ	-9963
c	-9964
७	-9965
[	-9966
ँ	-9967
l	-9968
I	-9969
८	-9970
m	-9971
p	-9972
A	-9973
y	-9974
b	-9975
९	-9976
ऐ	-9977
v	-9978
S	-9979
%	-9980
औ	-9981
g	-9982
?	-9983
q	-9984
w	-9985
x	-9986
C	-9987
k	-9988
O	-9989
T	-9990
R	-9991
P	-9992
M	-9993
