<unk>	0
<s>	0
</s>	0
UuRrLl	0
DdAaTtEe	0
NnUuMm	0
▁ਦ	-0
▁ਕ	-1
▁ਸ	-2
▁ਨ	-3
▁ਹ	-4
▁ਵ	-5
▁ਅ	-6
ਾਂ	-7
▁ਜ	-8
ਾਰ	-9
▁ਪ	-10
▁ਵਿ	-11
▁ਇ	-12
ਤੇ	-13
▁ਦੇ	-14
▁ਹੈ	-15
ਸ਼	-16
▁ਮ	-17
ੂੰ	-18
ਿਆ	-19
▁ਦੀ	-20
▁ਲ	-21
▁ਤ	-22
ਾਲ	-23
ਰਾ	-24
▁ਨੂੰ	-25
ਤੀ	-26
▁ਅਤੇ	-27
▁ਉ	-28
▁ਕਿ	-29
▁ਗ	-30
▁ਬ	-31
ਤਾ	-32
▁ਕਰ	-33
ਦਾ	-34
੍ਰ	-35
▁ਕੀ	-36
▁ਵਿਚ	-37
ੋਂ	-38
ਹੀ	-39
▁ਦਾ	-40
▁ਇਸ	-41
▁ਰ	-42
▁ਸੀ	-43
▁ਆ	-44
ਿੱ	-45
ਆਂ	-46
▁ਲਈ	-47
ਜ਼	-48
▁ਜਾਂ	-49
ੱਚ	-50
▁ਹੋ	-51
ਦੇ	-52
ਾਨ	-53
▁ਪ੍ਰ	-54
▁ਕਰਨ	-55
▁ਵਿੱਚ	-56
ਰੀ	-57
&#	-58
ਕਾਰ	-59
▁ਇਹ	-60
▁(	-61
ਦੀ	-62
ਹੀਂ	-63
▁ਤੋਂ	-64
▁ਨਹੀਂ	-65
▁ਦੁ	-66
▁ਜਾ	-67
▁ਐ	-68
▁ਨਿ	-69
ਵਾ	-70
▁ਚ	-71
▁ਨੇ	-72
▁ਸ਼	-73
▁ਅਧ	-74
ਟੀ	-75
▁ਸੰ	-76
▁ਦੁਆ	-77
▁ਕੋ	-78
▁ਦੁਆਰਾ	-79
ਵੇ	-80
ੱਖ	-81
੍ਹ	-82
▁&#	-83
ਣਾ	-84
▁ਨਾਲ	-85
ਹਿ	-86
▁ਭ	-87
▁ਖ	-88
▁ਗਿਆ	-89
▁ਦਿੱ	-90
ੱਕ	-91
▁ਮੁ	-92
▁ਜਿ	-93
ਲਾ	-94
▁ਕੀਤਾ	-95
ੀਲ	-96
ਸ਼ਨ	-97
▁ਅਪ	-98
▁ਕੀਤੀ	-99
▁ਇਕ	-100
▁ਸਕ	-101
▁ਸਮ	-102
ਸੀ	-103
ਿਆਂ	-104
▁ਹਨ	-105
▁ਫ	-106
ਸੇ	-107
▁ਰਾ	-108
ਾਮ	-109
▁ਵੀ	-110
ਨੀ	-111
ਿੰ	-112
▁ਜ਼	-113
▁ਉਸ	-114
੍ਹਾਂ	-115
ਲੇ	-116
ਧਾਰ	-117
ਤਰ	-118
ਕਰ	-119
ਾਈ	-120
ੈਂ	-121
ਬੰ	-122
ਿਕ	-123
ਾਇ	-124
▁ਗਈ	-125
▁ਕੇ	-126
ਟਰ	-127
ੀਨ	-128
▁ਕਾਰ	-129
ਾਵ	-130
ਬੰਧ	-131
▁ਜੋ	-132
▁ਤੇ	-133
ਾਲਤ	-134
ਿਕਾਰ	-135
▁ਡ	-136
▁ਅਦ	-137
ੀਆਂ	-138
▁ਅਦਾਲਤ	-139
▁ਅਪੀਲ	-140
ਦੇਸ਼	-141
▁ਕਿਸੇ	-142
ਹਾ	-143
ਿਤ	-144
ਿਰ	-145
ਰਟ	-146
▁ਇੱਕ	-147
ਕਟ	-148
▁ਨਿਰ	-149
ੁੰ	-150
ਗਾ	-151
▁ਸੁ	-152
ਾਅ	-153
ਕਤੀ	-154
▁ਜਿਸ	-155
▁ਯ	-156
ਲੀ	-157
▁ਵਾਲ	-158
ਗੀ	-159
ਾਨੂੰ	-160
▁ਕੋਈ	-161
▁ਅਧਿਕਾਰ	-162
ਜਿ	-163
ਰਤ	-164
ਨਾ	-165
▁ਆਪ	-166
ਨ੍ਹਾਂ	-167
ਰੇ	-168
▁-	-169
▁ਦੋ	-170
▁ਸਰ	-171
ਾਰੀ	-172
ਨੁ	-173
ਕਤ	-174
▁ਉਹ	-175
ੈਸ	-176
▁ਲਾ	-177
▁ਨਿਯ	-178
▁ਰਾਜ	-179
▁ਉਪ	-180
▁ਟ	-181
ੇਸ਼	-182
▁ਦਿੱਤਾ	-183
▁ਅਧੀਨ	-184
ਉਣ	-185
ੋਗ	-186
▁ਗਏ	-187
ਣੇ	-188
▁ਤਰ	-189
ਕਰਤਾ	-190
ਾਹ	-191
▁ਅਨੁ	-192
ਲਾਂ	-193
ਬਰ	-194
ਵੇਂ	-195
ਾਸ	-196
ਦਰ	-197
▁ਐਕਟ	-198
▁ਮੰ	-199
▁ਕਾਨੂੰ	-200
▁ਕੀਤੇ	-201
▁ਸਕਦਾ	-202
ਕਿ	-203
ੌਰ	-204
▁ਕੋਰਟ	-205
ਉਂ	-206
▁ਪਹਿ	-207
▁ਦਰ	-208
ਾਰੇ	-209
▁ਘ	-210
ੁੱ	-211
▁ਦੀਆਂ	-212
▁ਅੰ	-213
ਡੀ	-214
ਵਾਂ	-215
▁ਤੌਰ	-216
▁ਹੋਣ	-217
੍ਰਾ	-218
▁ਧਾਰ	-219
ਕਸ	-220
ਿਧ	-221
▁ਰਿ	-222
ਮਾ	-223
ਰੂ	-224
▁ਦਿੱਤੀ	-225
▁ਕੰ	-226
ਵੀ	-227
ਸਾ	-228
▁ਚਾ	-229
▁ਸਥ	-230
ੱਦ	-231
▁ਰੱਖ	-232
▁ਹੋਰ	-233
ਸਾਰ	-234
▁ਅਜਿ	-235
▁ਚਾਹੀ	-236
▁/	-237
▁ਹੁੰ	-238
ਾਅਦ	-239
▁ਬਾਅਦ	-240
▁ਵਿਅ	-241
ਪਤ	-242
ਮੀ	-243
▁ਵਿਅਕਤੀ	-244
ਇਆ	-245
▁ਜਾਣ	-246
▁ਜਾਂਦਾ	-247
ਨਾਂ	-248
ਮੇ	-249
ਜੀ	-250
▁ਕੇਸ	-251
▁ਕੁ	-252
ਕੇ	-253
▁ਉਨ੍ਹਾਂ	-254
..	-255
ਰੋ	-256
ਿਸ	-257
▁ਪ੍ਰਾ	-258
▁ਸਾ	-259
▁ਪੀ	-260
ਗੇ	-261
▁ਪਰ	-262
▁ਨਿਯਮ	-263
▁ਅਨੁਸਾਰ	-264
▁ਜੇ	-265
ਾਮਲ	-266
▁ਸਰਕਾਰ	-267
ਿਤੀ	-268
▁ਤਾਂ	-269
▁ਅਸ	-270
▁ਵਿਚਾਰ	-271
ਸ਼ਟ	-272
ਪੀ	-273
▁ਏ	-274
▁ਧ	-275
▁ਮੌ	-276
▁ਅਪੀਲਕਰਤਾ	-277
ੱਥ	-278
▁ਹਾਈ	-279
ਸ਼ੀ	-280
▁ਭਾਰ	-281
▁ਫੈਸ	-282
ੂਰ	-283
▁ਨੰ	-284
▁ਐਸ	-285
▁ਕਰਨਾ	-286
▁ਤਰ੍ਹਾਂ	-287
ੱਲ	-288
▁ਵਿਸ਼	-289
▁ਵਾਲੇ	-290
▁ਸਨ	-291
▁ਸਾਲ	-292
▁ਸੰਬੰਧ	-293
▁ਵਜ	-294
ਦੋਂ	-295
ਖਿਆ	-296
ਿੰਗ	-297
ੇਂ	-298
▁ਬਿ	-299
ਗੂ	-300
ਾਵਾਂ	-301
ਜ਼ਾ	-302
ਣੀ	-303
▁ਵੱਖ	-304
ੰਗ	-305
ਵਿਧ	-306
▁ਆਰ	-307
▁ਸਿੱ	-308
ਦਾਰ	-309
ਨੇ	-310
▁ਪੈ	-311
▁ਉੱ	-312
ਵਾਈ	-313
▁ਕਿਹਾ	-314
ੱਸ	-315
ਹੇ	-316
▁ਸਪ	-317
▁ਨਾ	-318
ੋਟ	-319
ਟੀਸ਼ਨ	-320
▁ਖੇ	-321
▁ਕਾਨੂੰਨ	-322
▁ਪਟੀਸ਼ਨ	-323
▁ਵਜੋਂ	-324
▁ਜਦੋਂ	-325
▁ਸਿਰ	-326
ੁਰ	-327
ਿਆਨ	-328
ਸਥ	-329
▁ਲਾਗੂ	-330
▁ਅਰ	-331
▁ਪਹਿਲਾਂ	-332
▁ਲੋ	-333
▁ਪੇਸ਼	-334
ਕਾ	-335
▁ਬਣਾ	-336
▁ਧਾਰਾ	-337
▁ਆਪਣੇ	-338
▁ਜਿਵੇਂ	-339
▁ਚਾਹੀਦਾ	-340
▁ਕਰਦਾ	-341
ਸੀਂ	-342
ਭਾ	-343
▁ਜ਼ਰੂ	-344
▁ਹੀ	-345
▁ਹੇ	-346
ਬਲ	-347
ਆਈ	-348
▁ਸਿ	-349
ੋਰ	-350
▁ਅੱ	-351
▁ਸਮੇਂ	-352
▁ਆਦੇਸ਼	-353
ਵਿਧਾਨ	-354
ਵਾਬ	-355
ੁਕ	-356
▁ਦਿ	-357
ਜੂ	-358
ਹੁ	-359
▁ਵਾ	-360
ਫ਼	-361
ੱਟ	-362
▁ਹੇਠ	-363
▁ਦੇਣ	-364
ਵੇਗਾ	-365
▁ਸੰਵਿਧਾਨ	-366
ੰਡ	-367
▁ਹੋਏ	-368
▁ਸ਼ਾਮਲ	-369
▁.	-370
▁ਜਵਾਬ	-371
੍ਰੀ	-372
▁ਸਕਦੀ	-373
▁ਪ੍ਰਾਪਤ	-374
ਾਤ	-375
▁ਭਾਰਤ	-376
ਜੇ	-377
ਭਾਵ	-378
▁ਪੂ	-379
▁ਅਸੀਂ	-380
▁ਛ	-381
ਜਾ	-382
▁ਲੈ	-383
ਰਾਧ	-384
▁ਨਿਰਧਾਰ	-385
ੱਧ	-386
▁ਪਾ	-387
ੁਪ	-388
▁ਲਿ	-389
ਆਰ	-390
ਯੂ	-391
ਅਰ	-392
▁ਸਬੰਧ	-393
ਮਾਨ	-394
ੋਜ	-395
ੱਤ	-396
ਕੀ	-397
ਦਿਆਂ	-398
ਾਇਆ	-399
ਯੋਗ	-400
ਕਾਂ	-401
▁ਨਿਰਧਾਰਤ	-402
▁ਹਿੱ	-403
▁ਵਧ	-404
ੈਕ	-405
▁ਅਪਰਾਧ	-406
ਵਾਲ	-407
੍ਰਿ	-408
▁ਖੇਤਰ	-409
▁ਸਿਰਫ	-410
ਤਾਂ	-411
▁ਯੋਗ	-412
ਪਤੀ	-413
ਪੋ	-414
▁ਵੇ	-415
▁ਸੇ	-416
▁ਹੁੰਦਾ	-417
▁ਕਿਉਂ	-418
▁ਹਾਲ	-419
▁ਮੁਕ	-420
▁ਅਧਾਰ	-421
▁ਕੰਮ	-422
▁ਮੰਨ	-423
ਰੋਕਤ	-424
ਵਰ	-425
▁ਉਪਰੋਕਤ	-426
ਹਿਤ	-427
ਵਾਰ	-428
ਕਾਰੀ	-429
▁ਸਮਝ	-430
▁ਹਾਂ	-431
▁ਇੰ	-432
▁ਕਮ	-433
▁ਮਾਮ	-434
▁ਦਿੱਤੇ	-435
▁ਕੁਝ	-436
▁ਬੈਂ	-437
▁ਦੋਸ਼ੀ	-438
▁|	-439
▁ਕਿਉਂਕਿ	-440
▁ਜਨ	-441
▁ਜਾਰੀ	-442
ਥੇ	-443
▁ਵਿਕ	-444
ੱਜ	-445
▁ਬਾਰੇ	-446
▁ਕਾਰਨ	-447
▁ਮੈ	-448
ਇਰ	-449
.0	-450
ਿਲ	-451
▁ਵਿਆ	-452
ਾਲੀ	-453
ਸਟ	-454
ਬੂ	-455
▁ਸਾਰੇ	-456
▁ਪੁ	-457
▁ਜਾਂਦੀ	-458
ਡੇ	-459
▁ਮੁਕੱਦ	-460
ਟਾ	-461
ਬਲਯੂ	-462
▁ਵਰਤ	-463
▁ਵਕ	-464
▁ਨੰਬਰ	-465
ਜ਼ੀ	-466
▁ਆਮ	-467
▁ਜੱਜ	-468
▁ਤੱਕ	-469
▁ਮੈਂ	-470
ਬੀ	-471
▁ਦੱਸ	-472
▁ਤਹਿਤ	-473
ੜੀ	-474
▁ਦੂ	-475
▁ਵਕੀਲ	-476
▁ਪ੍ਰਬੰਧ	-477
▁ਸਥਿਤੀ	-478
ੁਣ	-479
▁ਭਾ	-480
▁ਅਜਿਹੀ	-481
▁ਅੱਗੇ	-482
▁ਉਦੇਸ਼	-483
ਤਮ	-484
▁ਕਾਰਵਾਈ	-485
੍ਹਾ	-486
ਾਂਕਿ	-487
ਖੇ	-488
ੁੱਧ	-489
ਨਾਮ	-490
▁ਨੋਟ	-491
ਾਦ	-492
▁ਸੇਵਾ	-493
▁ਜਾਇ	-494
▁ਤੱਥ	-495
▁ਹਾਲਾਂਕਿ	-496
▁ਜਾਂਚ	-497
▁ਪੜ	-498
▁ਸੋ	-499
▁ਬੇ	-500
▁ਲਿਆ	-501
▁ਬਹੁ	-502
ਸ਼ਟਰ	-503
ੈਕਸ	-504
▁ਆਈ	-505
▁ਮੌਜੂ	-506
▁ਮਾਮਲੇ	-507
ਬਿ	-508
▁ਵਿਸ਼ੇਸ਼	-509
▁[	-510
ੈਰ	-511
▁ਦਾਇਰ	-512
▁ਡਿ	-513
▁ਸਪੱ	-514
▁ਸਬੰਧਤ	-515
▁ਮਹ	-516
▁ਪ੍ਰਤੀ	-517
ੇਟ	-518
ਸਤਾ	-519
▁ਪ੍ਰਭਾਵ	-520
▁ਵਰਤੋਂ	-521
▁“	-522
▁ਕੰਪ	-523
ਕਣ	-524
▁ਮਿਤੀ	-525
▁ਯੂ	-526
▁ਸਹ	-527
ਵਾਨ	-528
▁ਕਰਦੇ	-529
▁ਇਲਾ	-530
ੜੇ	-531
▁ਫੈਸਲੇ	-532
ਸਤ	-533
ਦਾਨ	-534
ੂਲ	-535
▁ਉਕਤ	-536
▁ਤਕ	-537
ਧਾਨ	-538
▁ਉਸਨੇ	-539
▁ਸਹਿ	-540
▁ਘੱਟ	-541
ਚਿਤ	-542
▁ਕਮਿ	-543
ਐਸ	-544
▁ਸੂ	-545
▁ਕਾਨੂੰਨੀ	-546
▁ਕੇਂ	-547
▁ਬੀ	-548
▁ਸਪੱਸ਼ਟ	-549
▁ਸਬੂ	-550
▁ਰਾਸ਼ਟਰ	-551
ਿਆਰ	-552
ਕਮ	-553
ਕਲ	-554
▁ਜ਼ਰੂਰਤ	-555
▁ਕਾਰਜ	-556
▁ਰੋ	-557
ਪੋਰਟ	-558
▁ਆਪਣੀ	-559
ਪੂਰ	-560
ਚਾਰ	-561
▁ਪੱਖ	-562
ੰਤਰ	-563
▁ਦਿੰ	-564
▁ਨਿਆਂ	-565
ਸਥਾ	-566
▁ਸ਼ਕਤੀ	-567
ਮਤ	-568
▁ਅਜਿਹੇ	-569
▁ਜਵਾਬਦੇ	-570
▁ਕੰਪਨੀ	-571
ਾਰਟੀ	-572
ੇਸ਼ਨ	-573
ਾਰਾ	-574
▁ਉਲ	-575
ਨੂੰ	-576
▁ਵਰ	-577
▁ਮਨ	-578
....	-579
▁ਸਜ਼ਾ	-580
▁ਬਹੁਤ	-581
▁ਡੀ	-582
▁ਕਮਿਸ਼ਨ	-583
▁ਵਿਰ	-584
▁ਵਿਰੁੱਧ	-585
ਸ਼ਾ	-586
▁ਰੁਪ	-587
▁ਪ੍ਰਕ	-588
▁ਰਿਹਾ	-589
▁ਦਾਅ	-590
▁ਹੋਇਆ	-591
ਮੀਨ	-592
ਿਸ਼	-593
▁ਹਵਾਲ	-594
ਜ਼ਰ	-595
▁ਮੰਨਿਆ	-596
▁ਲੈਣ	-597
▁ਰੁਪਏ	-598
ਵੀਂ	-599
▁ਕਾ	-600
ੱਤਰ	-601
ੈਂਟ	-602
ਡਬਲਯੂ	-603
ਡਰ	-604
▁ਟੈਕਸ	-605
ੋਲ	-606
▁ਜਾਣਾ	-607
▁ਅੰਦਰ	-608
ਤਕ	-609
▁ਰਾਸ਼ਟਰਪਤੀ	-610
▁ਜਵਾਬਦੇਹ	-611
▁ਬਚ	-612
▁ਕਰਕੇ	-613
ਲਾਈ	-614
ਲਾਂਕਣ	-615
ੰਦ	-616
ਦਾਦ	-617
▁ਫ਼	-618
▁ਰਿਪੋਰਟ	-619
▁ਰੂ	-620
▁ਮੁਲਾਂਕਣ	-621
▁ਦੱਸਿਆ	-622
ਵਾਦ	-623
▁ਜਾਇਦਾਦ	-624
ਾਹਰ	-625
▁ਜ਼ਮੀਨ	-626
▁ਦਰਸਾ	-627
▁ਪ੍ਰਕਿਰ	-628
▁ਸਥਾ	-629
▁ਫੈਸਲਾ	-630
▁ਰਕਮ	-631
▁ਜ਼ਿੰ	-632
▁ਨਿਰਦੇਸ਼	-633
▁ਨਿਯੁ	-634
▁ਦਰਜ	-635
▁ਕਰਦਿਆਂ	-636
▁ਸਕਦੇ	-637
al	-638
ਧੀ	-639
▁ਇਲਾਵਾ	-640
ਨਲ	-641
▁ਵਿਦ	-642
▁ਵਿਵ	-643
▁ਅਰਥ	-644
▁ਵੱਧ	-645
▁ਸਹੀ	-646
▁ਪਾਲ	-647
▁ਠ	-648
▁ਲਾਭ	-649
▁ਸੋਧ	-650
▁ਸੁਰ	-651
▁ਉਤ	-652
▁ਸ੍ਰੀ	-653
ਮਾਂ	-654
ਗਿਆ	-655
▁ਹੱਕ	-656
▁ਮਹੱਤ	-657
▁ਪ੍ਰਦਾਨ	-658
▁ਰੂਪ	-659
▁ਪੂਰੀ	-660
ਮਾਣ	-661
ੋਣ	-662
ੁਰੂ	-663
ਪਰ	-664
▁ਚੀ	-665
ੈਕਟ	-666
▁ਦੌ	-667
▁ਮਾਲ	-668
▁ਪੰ	-669
▁ਕਰੇ	-670
▁ਨਿਯਮਾਂ	-671
▁ਸਮਝੌ	-672
▁ਹੋਵੇਗਾ	-673
▁ਬੈਂਚ	-674
▁ਗੈਰ	-675
ਸ਼ਤ	-676
▁ਸਾਹ	-677
▁ਅਦਾ	-678
ਬਾ	-679
ਹੁੰ	-680
ਿਧਾਂ	-681
▁ਜੁ	-682
▁ਇਨ	-683
▁ਸਬੂਤ	-684
▁ਹੁੰਦੀ	-685
ਹੁੰਚ	-686
▁ਸਿਧਾਂ	-687
▁ਪਹੁੰਚ	-688
▁ਵਿਅਕਤੀਆਂ	-689
ਾਇਤ	-690
▁ਰਹੇ	-691
▁ਰੱਦ	-692
qu	-693
▁ਸਮਰ	-694
▁ਮੈਂਬਰ	-695
ਇਕ	-696
▁ਮੌਜੂਦਾ	-697
▁ਸੁਰੱਖ	-698
ਗਰ	-699
▁ਚਾਹੀਦੀ	-700
ot	-701
▁ਬਿਆਨ	-702
ਖੀ	-703
▁ਨਤੀ	-704
ਬਦ	-705
▁ਸ਼ੁਰੂ	-706
▁ਵਿਕਾਸ	-707
▁ਪਿ	-708
▁ਧਿਰ	-709
▁ਜੀ	-710
▁ਅਧਿਕਾਰੀ	-711
▁ਪਰਿ	-712
▁ਪਾਸ	-713
ਰਾਨ	-714
▁ਸਾਡੇ	-715
ਜ਼ਾਂ	-716
▁ਗਵਾ	-717
▁ਖੁ	-718
▁ਕੋਲ	-719
▁ਪ੍ਰਕਿਰਿਆ	-720
▁ਜ਼ਰੂਰੀ	-721
▁ਸਿੰ	-722
▁ਜਿੱ	-723
▁ਮਾਰ	-724
▁ਮਹੱਤਵ	-725
▁ਸ਼੍ਰੀ	-726
▁ਧਿਆਨ	-727
▁ਲਗਾ	-728
ਟੇ	-729
▁ਬਣ	-730
▁0	-731
▁ਐਮ	-732
▁ਸ਼ਿਕ	-733
▁ਤਬ	-734
ਲੀਲ	-735
ੱਦੇ	-736
▁ਹਰ	-737
ਨੀਅਰ	-738
ਾਮਲਿਆਂ	-739
▁ਸਾਹਮ	-740
▁ਮਾਮਲਿਆਂ	-741
▁ਭੁ	-742
ਸਟਰ	-743
quot	-744
▁ਰੱਖਿਆ	-745
▁ਉੱਤੇ	-746
▁ਮਾ	-747
▁ਝ	-748
▁ਅਸਲ	-749
ਅਤ	-750
ਲਜ਼	-751
▁ਲਿਖ	-752
ਾਰਜ	-753
▁ਸਹਾਇ	-754
▁ਲਗ	-755
▁ਬਿਨਾਂ	-756
▁ਚੋਣ	-757
▁ਉੱਤਰ	-758
▁ਬੁ	-759
▁ਸਭ	-760
ਮੇਟੀ	-761
▁ਦੌਰਾਨ	-762
▁ਦਲੀਲ	-763
▁ਹੋਵੇ	-764
੍ਰਿਤ	-765
▁ਮੰਗ	-766
ਗਤਾ	-767
▁ਅੰਤਰ	-768
▁ਵਿਧਾਨ	-769
▁ਜ਼ਿੰਮੇ	-770
ਖਲ	-771
ਰਤਾਂ	-772
▁ਕਮੇਟੀ	-773
▁ਮੁਕੱਦਮਾ	-774
ੱਗ	-775
▁ਖ਼	-776
▁ਅਥ	-777
ਫਿਕ	-778
ਿਕਾਰਡ	-779
),	-780
▁ਹੋਣਾ	-781
▁ਜਮ	-782
ੈਲ	-783
▁ਮਹੱਤਵਪੂਰ	-784
ਚੀ	-785
▁ਗਲ	-786
ਵਲ	-787
▁ਰਿਕਾਰਡ	-788
▁ਜਾਏ	-789
▁ਐਲ	-790
▁ਪ੍ਰਸ਼ਨ	-791
▁ਸਮਾ	-792
ਬੇ	-793
ੌਂ	-794
▁ਆਗਿਆ	-795
ਛਾ	-796
▁ਹਵਾਲਾ	-797
▁ਮੁਕੱਦਮੇ	-798
▁ਡਾ	-799
ਿੰਨ	-800
ਮਰ	-801
ੰਤ	-802
ਸ਼ਟੀ	-803
▁ਕੱ	-804
▁ਅਥਾਰਟੀ	-805
▁ਜਾਵੇਗਾ	-806
▁ਟ੍ਰਿ	-807
ੌਤੀ	-808
ਧਾਰਾ	-809
▁ਭੁਗਤਾ	-810
▁ਪਟੀਸ਼ਨਕਰਤਾ	-811
ਟਾਂ	-812
▁ਸ਼ਬਦ	-813
▁ਵਾਲੀ	-814
▁ਐਨ	-815
▁ਦੋਸ਼	-816
▁ਕਰੋ	-817
▁ਜਾਣਕਾਰੀ	-818
▁ਕੇਂਦਰ	-819
▁ਦੇਸ਼	-820
▁ਟ੍ਰਿਬਿ	-821
▁ਸ਼ਿਕਾਇਤ	-822
ਮਾਰ	-823
▁ਮਿ	-824
ੰਘ	-825
▁ਭੁਗਤਾਨ	-826
▁ਵੱਲ	-827
▁ਹੋਈ	-828
▁ਜਿਨ੍ਹਾਂ	-829
ਜ਼ੇ	-830
ੱਡ	-831
▁ਜਨਤਕ	-832
ਮਤੀ	-833
▁ਬਦ	-834
▁ਥ	-835
▁ਸਿੰਘ	-836
ਟੀਫਿਕ	-837
੍ਰੇ	-838
▁ਮੌਤ	-839
▁ਨਾਮ	-840
▁ਰਹੀ	-841
▁ਅਗ	-842
▁ਨੋਟਿਸ	-843
▁ਸੁਣ	-844
ਸਲ	-845
▁ਫ਼ੈਸ	-846
▁ਇਨ੍ਹਾਂ	-847
▁ਯੋਜ	-848
ਗਤ	-849
ੈਕਟਰ	-850
▁ਤੁ	-851
ਫਲ	-852
▁ਸੰਵਿਧਾਨਕ	-853
re	-854
ੁੱਲ	-855
▁ਗੱਲ	-856
▁ਸਭਾ	-857
ਜਿਸਟਰ	-858
ਅਨ	-859
▁ਗਵਾਹ	-860
ੈਨ	-861
ਉਂਦਾ	-862
▁ਸਾਹਮਣੇ	-863
▁ਨੁ	-864
ਮੁ	-865
▁ਵਾਰ	-866
ਲਿਸ	-867
▁ਪੈਦਾ	-868
▁ਪੈਰਾ	-869
▁ਵਾਪ	-870
ੋਬ	-871
▁ਕੀਤੀਆਂ	-872
ਵੀਕਾਰ	-873
ਲਾਹ	-874
ਐਲ	-875
▁ਟੀ	-876
▁ਅਰਜ਼ੀ	-877
ਚੇ	-878
▁ਚਲਾ	-879
▁ਵਿਵਾਦ	-880
▁ਧਾਰਾਵਾਂ	-881
▁ਫਰ	-882
▁ਕਰਦੀ	-883
ਜ਼ਮੀ	-884
▁ਕਰਮ	-885
▁ਹਿੱਸੇ	-886
▁ਕੈ	-887
▁ਓ	-888
▁ਪੂਰਾ	-889
▁ਉੱਚ	-890
ੈਂਸ	-891
▁ਬਾਹਰ	-892
ਉਣਾ	-893
ਸ਼ਟਰੀ	-894
ਵਨ	-895
▁ਲਾਜ਼ਮੀ	-896
▁ਐਕਸ	-897
▁ਮੇ	-898
▁ਸਰਕਾਰੀ	-899
▁ਯੂਨੀ	-900
▁ਸਾਰ	-901
in	-902
ਪਾਰ	-903
ਕੁ	-904
▁ਸਲਾਹ	-905
ਿਆਦ	-906
▁ਪੁਲਿਸ	-907
▁ਅਧਿਕਾਰਾਂ	-908
▁ਤਿਆਰ	-909
▁ਤਬਦੀ	-910
▁ਅਣ	-911
▁ਮੁਆ	-912
▁ਵਿਖੇ	-913
▁ਬਣਾਉਣ	-914
▁ਉਦ	-915
▁ਪਿਛ	-916
▁ਲੋਕਾਂ	-917
ੰਘਣਾ	-918
▁ਪੱਤਰ	-919
ਿਡ	-920
▁ਜਿੱਥੇ	-921
ਤਰੀ	-922
▁ਸਿਧਾਂਤ	-923
▁ਵਿਚੋਂ	-924
ਬਤ	-925
▁ਰਹਿ	-926
▁ਸਹਾਇਤਾ	-927
ਦਾਤਾ	-928
▁ਮੁਦ	-929
▁ਮਿਲ	-930
▁ਪ੍ਰਣ	-931
▁ਸਟ	-932
▁ਤੱਥਾਂ	-933
▁ਉਲੰਘਣਾ	-934
ਲਬ	-935
▁ਤਿੰਨ	-936
ਰਾਰ	-937
▁ਸਮਾਜ	-938
▁ਜਾਵੇ	-939
▁ਦੂਜੇ	-940
▁ਵਪਾਰ	-941
▁ਸਿੱਖਿਆ	-942
▁ਅਜਿਹਾ	-943
ਸੂ	-944
ਮੈਂਟ	-945
▁ਆਦ	-946
ਕਰਨ	-947
ੋਸ਼	-948
▁&	-949
▁ਸਵੀਕਾਰ	-950
▁ਮ੍ਰਿਤ	-951
▁ਨੀ	-952
▁ਸੰਸ	-953
▁ਸੈ	-954
▁ਐਂ	-955
▁ਹਿੱਸਾ	-956
▁ਪਾਲਣਾ	-957
▁ਯੋਜਨਾ	-958
▁ਬਰਾ	-959
▁ਜੁਰ	-960
▁ਮਿਆਦ	-961
ਦਰੀ	-962
▁ਵਿਵਸਥਾ	-963
▁ਚੁਣ	-964
▁ਮੁੱਖ	-965
))	-966
ਸੰ	-967
ਹਾਰ	-968
ੋਰਡ	-969
▁ਨੋ	-970
ਸੁਪ	-971
ਸਿ	-972
ਸਥਾਵਾਂ	-973
▁ਇਕਰਾਰ	-974
er	-975
ਾਇਰ	-976
ਪਾਲ	-977
▁ਇੰਡੀ	-978
ਤੀਆਂ	-979
▁ਗੁ	-980
▁ਨਿਯੁਕਤੀ	-981
ii	-982
▁ਕਿਰਾ	-983
ਾਉਣ	-984
▁,	-985
▁ਨਤੀਜੇ	-986
▁ਕਬ	-987
▁ਆਮਦ	-988
▁ਬੈਂਕ	-989
▁ਸੁਰੱਖਿਆ	-990
▁ਖਰ	-991
▁ਸੁਪ	-992
an	-993
▁ਉਸਦੇ	-994
ਸੁਪਰਾ	-995
▁ਚੰ	-996
▁ਮਾਨ	-997
▁ਸ਼ਰਤਾਂ	-998
▁ਇਕਰਾਰਨਾਮ	-999
▁ਦਾਅਵਾ	-1000
ੜਾ	-1001
▁ਭਾਵ	-1002
ੰਭ	-1003
▁ਸਿਵਲ	-1004
▁ਫਿਰ	-1005
ਮੀਦ	-1006
ਐਮ	-1007
▁ਸਮਝੌਤੇ	-1008
▁ਬੇਨ	-1009
▁ਹੇਠਾਂ	-1010
▁ਉਮੀਦ	-1011
ਿੱਟ	-1012
▁ਵਿਭਾ	-1013
▁ਲੇ	-1014
▁ਸੀਨੀਅਰ	-1015
ਕਰਣ	-1016
▁ਗਈਆਂ	-1017
▁ਕਈ	-1018
▁ਤਰੀ	-1019
▁ਉਚਿਤ	-1020
ਨੈ	-1021
▁ਸਾਲਾਂ	-1022
▁I	-1023
▁ਭੇ	-1024
ਿਕਾ	-1025
▁ਮ੍ਰਿਤਕ	-1026
▁ਜਿਥੇ	-1027
▁ਬਣਾਇਆ	-1028
ਰੀਮ	-1029
▁ਸਕੇ	-1030
▁ਸਥਾਪਤ	-1031
▁ਪੀਡਬਲਯੂ	-1032
ਸਤਾਵੇ	-1033
ਪਾਦ	-1034
▁ਸੇਵਾਵਾਂ	-1035
▁ਭਰੋ	-1036
▁ਦਸਤਾਵੇ	-1037
ਉਂਦੀ	-1038
▁ਭਾਰਤੀ	-1039
▁ਨਵੀਂ	-1040
▁ਅਪਰਾਧਿਕ	-1041
▁ਰਿੱਟ	-1042
▁ਵਿਚਕਾਰ	-1043
▁ਮੁਲਜ਼	-1044
▁ਬੋਰਡ	-1045
ਹਤ	-1046
▁ਦਿੱਲੀ	-1047
▁ਵਿਕਰੀ	-1048
▁ਦੋਵਾਂ	-1049
▁ਉਸਨੂੰ	-1050
ਭਰ	-1051
▁ਨਿਆਂਇਕ	-1052
▁ਵਾਧ	-1053
▁ਧਿਰਾਂ	-1054
ਰਲ	-1055
ਦਗੀ	-1056
▁ਅਵ	-1057
▁ਹੁੰਦੇ	-1058
▁ਵਿਆਖਿਆ	-1059
▁ਜ਼ਿ	-1060
▁ਮੁਦਈ	-1061
▁ਉਦਯੋਗ	-1062
▁ਰੋਕ	-1063
ਬੰਦੀ	-1064
ਸ਼ੀਲ	-1065
▁ਉਤਪਾਦ	-1066
▁ਚੁ	-1067
▁ਸਾਨੂੰ	-1068
▁ਮਹੀ	-1069
▁ਅਦਾਲਤਾਂ	-1070
ਲੂ	-1071
▁ਉਸਦੀ	-1072
ਸਰ	-1073
▁ਸੂਚੀ	-1074
▁())	-1075
ੀਖਿਆ	-1076
▁ਵਾਲਾ	-1077
ਿਟ	-1078
▁ਕਿਸ	-1079
▁ਵਾਪਸ	-1080
ਟਿਡ	-1081
▁ਵਾਲਿਆਂ	-1082
ਸਟਿਸ	-1083
▁ਸੰਭਾਵ	-1084
▁ਮੁੜ	-1085
▁ਈ	-1086
▁ਪੜ੍ਹ	-1087
▁ਵਿਦਵਾਨ	-1088
ੇਤ	-1089
ਜ਼ਨ	-1090
▁ਪ੍ਰਦੇਸ਼	-1091
ਡਾ	-1092
▁ਮੁਆਵ	-1093
▁ਰੱਖਣ	-1094
ਹਿਰਾ	-1095
▁ਕਹਿ	-1096
▁ਯੋਗਤਾ	-1097
▁ਸੁਪਰੀਮ	-1098
▁ਜਸਟਿਸ	-1099
▁ਪ੍ਰਸਤਾ	-1100
▁ਚੁਣੌਤੀ	-1101
ਲਿਆਂ	-1102
ੱਤੀ	-1103
ਖਣ	-1104
▁ਵਿਭਾਗ	-1105
▁ਹੱਕਦਾਰ	-1106
▁ਦੇਣਾ	-1107
ੂਹ	-1108
ਪਟ	-1109
▁ਭਾਗ	-1110
▁ਖਰੀ	-1111
▁ਠਹਿਰਾ	-1112
▁ਡਬਲਯੂ	-1113
▁ਅਹੁ	-1114
▁ਸੁਣਵਾਈ	-1115
▁ਲਿਮ	-1116
▁ਕਿਰਾਏ	-1117
▁ਬਨਾਮ	-1118
▁ਟਰ	-1119
▁ਅਦਾਇ	-1120
▁ਪੂਰ	-1121
▁ਆਰਡਰ	-1122
ਵਰੀ	-1123
ਜਨ	-1124
▁ਹੁਕ	-1125
▁ਰਾਏ	-1126
▁ਜੱਜਾਂ	-1127
▁ਕਲ	-1128
▁ਦਿੰਦਾ	-1129
▁ਖਾਰਜ	-1130
▁ਵੱ	-1131
ੂਰੀ	-1132
▁ਇਕੋ	-1133
▁ਆਦਿ	-1134
on	-1135
▁d	-1136
▁ਅਦਾਇਗੀ	-1137
ੈਕਸ਼ਨ	-1138
੍ਰਾਂ	-1139
▁ਬੱਚ	-1140
ੇਅਰ	-1141
ਟੀਫਿਕੇਸ਼ਨ	-1142
▁ਮਨਜ਼	-1143
▁ਪਾਇਆ	-1144
▁ਅਪੀਲਕਰਤਾਵਾਂ	-1145
▁ਜਮ੍ਹਾ	-1146
▁ਪ੍ਰਸਤਾਵ	-1147
▁ਇਸਦੇ	-1148
▁ਪੱਧ	-1149
ਛਾਣ	-1150
▁ਕੋਸ਼	-1151
▁ਹੁਣ	-1152
ਫਾਰ	-1153
ੈਡ	-1154
▁ਸੰਸਥਾ	-1155
ੇਰੇ	-1156
ਿਣ	-1157
ut	-1158
ਲਬਧ	-1159
▁ਕਾਰੋਬ	-1160
▁ਦਿਨ	-1161
ਾਂਝ	-1162
▁ਪ੍ਰੋ	-1163
▁ਬਦਲ	-1164
▁ਫ਼ੈਸਲੇ	-1165
ਿੱਠ	-1166
▁ਬਲ	-1167
▁ਕੋਸ਼ਿਸ਼	-1168
ਿਅਤ	-1169
▁ਉਪਲਬਧ	-1170
ਵਿ	-1171
▁ਰੁ	-1172
▁ਹੋਵੇਗੀ	-1173
▁ਮਾਲਕ	-1174
▁ਨੋਟੀਫਿਕੇਸ਼ਨ	-1175
ਤਾਲ	-1176
▁ਪ੍ਰਮਾਣ	-1177
........	-1178
ਖਤ	-1179
▁ਅਸਫਲ	-1180
▁ਪਤਾ	-1181
▁ਘਟ	-1182
ਪੀਸੀ	-1183
▁ਉਹਨਾਂ	-1184
ਨਿਆ	-1185
▁ਉਦੇਸ਼ਾਂ	-1186
▁ਆਮਦਨੀ	-1187
ਖਾ	-1188
▁ਪਹਿਲੇ	-1189
▁ਜ਼ਿਕਰ	-1190
▁ਵੱਖਰੇ	-1191
ਖਰ	-1192
ੈਂਡ	-1193
▁ਇੰਡੀਆ	-1194
ਨਜ਼ਰ	-1195
▁ਉਮਰ	-1196
▁ਛੋਟ	-1197
▁ਜਿਹ	-1198
▁ਉਸੇ	-1199
▁ਲਿਮਟਿਡ	-1200
▁ਇਕੱ	-1201
▁ਮੱਦੇ	-1202
▁ਮੱਦੇਨਜ਼ਰ	-1203
▁ਸ਼੍ਰੇ	-1204
ਾਲੇ	-1205
▁ਅਜਿਹੀਆਂ	-1206
ਉਂਦੇ	-1207
▁ਪਛਾਣ	-1208
▁ਨਿਪਟ	-1209
ਵਾਰੀ	-1210
▁ਹਮ	-1211
ਵੱਖ	-1212
▁ਛੱਡ	-1213
▁ਗਰ	-1214
ਦਾਰੀ	-1215
▁ਸਮੂਹ	-1216
▁ਇੱਥ	-1217
▁ਮਹੱਤਵਪੂਰਣ	-1218
▁ਸਾਰੀਆਂ	-1219
ੜੀਂ	-1220
▁ਦਾਖਲ	-1221
▁ਸਮਰੱਥ	-1222
▁ਭੇਜ	-1223
▁ਬਿਨੈ	-1224
▁ਜਾਏਗੀ	-1225
ਜ਼ਾਦੀ	-1226
ੱਗਰੀ	-1227
▁ਬਾ	-1228
▁ਲੋੜੀਂ	-1229
ਆਈਆਰ	-1230
▁ਵਿੱਤੀ	-1231
ਜ਼ਤ	-1232
▁ਜਾਂਦੇ	-1233
▁ਨੁਕਸ	-1234
▁ਖਰੀਦ	-1235
▁ਖੋਜ	-1236
ਪਕ	-1237
ਪਨਾ	-1238
▁ਐਫ	-1239
▁ਮੋ	-1240
▁ਸੰਸਦ	-1241
▁ਨਿਰਮਾਣ	-1242
ਨਿਆਦੀ	-1243
ਪਾਤ	-1244
▁ਨਿਰਭਰ	-1245
ਲੋ	-1246
ਾਈਨ	-1247
▁t	-1248
▁ਘਰ	-1249
▁ਨੈ	-1250
▁ਪ੍ਰਵਾਨ	-1251
▁ਅਭ	-1252
▁ਸੰਭ	-1253
▁ਆਯ	-1254
▁ਜਾਣੀ	-1255
▁ਆਰਬਿ	-1256
▁ਸਥਾਨ	-1257
▁ਵਧੇਰੇ	-1258
▁ਲੋੜ	-1259
▁ਰੈ	-1260
ਨਾਵਾਂ	-1261
▁a	-1262
▁ਸ਼ੱਕ	-1263
ਸ਼ਣ	-1264
▁ਹੁਕਮ	-1265
▁ਸਮੇਤ	-1266
▁ਬੁਨਿਆਦੀ	-1267
▁ਭੂ	-1268
▁ਫੈਸਲਿਆਂ	-1269
▁ਨੀਤੀ	-1270
▁ਸਮੱਗਰੀ	-1271
▁ਜ਼ਿਲ	-1272
▁ਇਕਰਾਰਨਾਮੇ	-1273
▁ਰਜਿਸਟਰ	-1274
ਜੂਦ	-1275
▁ਇਤ	-1276
▁ਦੁਬ	-1277
▁ਸੰਤ	-1278
▁ਹਰੇ	-1279
▁ਪ੍ਰਣਾਲੀ	-1280
▁ਦਿੰਦੇ	-1281
▁o	-1282
▁ਸਾਡੀ	-1283
▁ਜ਼ਿੰਮੇਵਾਰ	-1284
ੀਰ	-1285
ੰਦਾ	-1286
▁ਭਾਵੇਂ	-1287
▁ਖਾ	-1288
▁ਬਾਵ	-1289
▁ਦਾਅਵੇ	-1290
ਚਾਰੀ	-1291
▁ਦੱ	-1292
▁ਮੰਤਰੀ	-1293
ਤਿਕ	-1294
▁c	-1295
▁ਕਾਰੋਬਾਰ	-1296
▁ਕੀਮਤ	-1297
▁ਖਾਸ	-1298
▁ਪੜਤਾਲ	-1299
▁ਜਗ	-1300
▁ਬਾਵਜੂਦ	-1301
▁ਭਰ	-1302
▁ਕਾਲ	-1303
▁ਰਾਸ਼ਟਰੀ	-1304
▁ਲੀ	-1305
▁ਸਾਬਤ	-1306
▁ਪਾਸੇ	-1307
ct	-1308
▁ਸਿੱਟੇ	-1309
▁ਪਿਛਲੇ	-1310
▁ਪੁੱ	-1311
ਵੀਜ਼ਨ	-1312
▁ਕੇਂਦਰੀ	-1313
▁ਉੱਤਰਦਾਤਾ	-1314
ਪੋਰੇ	-1315
en	-1316
▁ਗਲਤ	-1317
▁ਹੇਠਲੀ	-1318
▁ਗੋ	-1319
ਐਫ	-1320
▁ਆਦੇਸ਼ਾਂ	-1321
ਐਨ	-1322
▁ਵੈ	-1323
▁ਤਨ	-1324
ਫ਼ੀ	-1325
▁ਹਰੇਕ	-1326
▁ਮੁਲਜ਼ਮ	-1327
ਪ੍ਰ	-1328
ਠਨ	-1329
▁ਪ੍ਰਬੰਧਨ	-1330
▁ਪਰਿਭਾ	-1331
▁ਇਨਕਾਰ	-1332
▁ਸਵਾਲ	-1333
▁ਸੰਸਥਾਵਾਂ	-1334
ਖਾਹ	-1335
▁ਮੁੱਦੇ	-1336
▁ਬੇਨਤੀ	-1337
▁s	-1338
▁ਕ੍ਰ	-1339
ਜਬ	-1340
▁ਨਿਯੁਕਤ	-1341
▁ਹਿ	-1342
▁ਚੀਜ਼ਾਂ	-1343
▁ਅਧਿਕਾਰੀਆਂ	-1344
ਿਆਸ	-1345
▁ਬੰ	-1346
ਨੁੱਖ	-1347
▁ਚਾਹ	-1348
ਮਦ	-1349
▁ਨਿੱ	-1350
▁ਮੈਂਬਰਾਂ	-1351
▁ਖਤਮ	-1352
▁ਪਾਰਟੀ	-1353
▁ਕਰਵਾ	-1354
▁ਵਾਲੀਆਂ	-1355
▁ਨਿਯੰਤਰ	-1356
▁ਨਜ	-1357
ਤੰਤਰ	-1358
ਸ਼ਾਸ	-1359
▁ਜ਼ਿੰਮੇਵਾਰੀ	-1360
00	-1361
▁ਫਾਰ	-1362
▁ਪ੍ਰਗ	-1363
▁ਲਗਾਉਣ	-1364
▁ਸੰਤੁ	-1365
ਵਾਸ	-1366
ਣੀਆਂ	-1367
▁ਤਨਖਾਹ	-1368
▁ਬਰ	-1369
▁ਮਾਪ	-1370
▁ਅਧਿਕਾਰਤ	-1371
▁ਪਹਿਲੀ	-1372
▁ਪੱਧਰ	-1373
ਦਾਰਾਂ	-1374
▁ਕਾਰਪੋਰੇ	-1375
).	-1376
ੰਭੀਰ	-1377
▁ਸੌਂ	-1378
▁ਆਜ਼ਾਦੀ	-1379
▁ਆਫ਼	-1380
▁ਜ਼ੋਰ	-1381
▁ਕਰੇਗਾ	-1382
▁ਸਿਫਾਰ	-1383
ਾਨੀ	-1384
ਰੀਆਂ	-1385
▁ਮੀ	-1386
▁ਚੁੱਕ	-1387
▁ਨਜਿੱਠ	-1388
▁ਦੁਬਾਰਾ	-1389
▁ਕਾਫ਼ੀ	-1390
▁ਐਸਸੀ	-1391
▁ਤਬਦੀਲ	-1392
ੱਛ	-1393
▁ਗੰਭੀਰ	-1394
ਵੇਸ਼	-1395
ਤਾਵਾਂ	-1396
▁ਸਕੀ	-1397
▁ਸਿਫਾਰਸ਼	-1398
▁ਗਤੀ	-1399
ਦੂ	-1400
▁ਸਪਸ਼ਟ	-1401
▁ਯੂਨੀਵਰ	-1402
▁ਨਿਗ	-1403
▁ਕਾਰਨਾਂ	-1404
▁ਬਿਲ	-1405
▁ਵੰਡ	-1406
▁ਘੋਸ਼	-1407
▁ਬਰਾਬਰ	-1408
ਾਨਾ	-1409
ਏਗਾ	-1410
▁ਅਧਿਆ	-1411
▁ਜਾਇਜ਼	-1412
▁ਪੁਸ਼ਟੀ	-1413
ਸਿਟੀ	-1414
▁ਹਾ	-1415
ਦਮ	-1416
ਥਨ	-1417
▁ਮਨੁੱਖ	-1418
▁ਸਹਿਮਤੀ	-1419
▁ਅਭਿਆਸ	-1420
ਾਸਤ	-1421
▁ਸੁਣਾ	-1422
ਸਾਈ	-1423
ਨਿਆਂ	-1424
▁ਭਰੋਸਾ	-1425
▁ਨੁਕਸਾਨ	-1426
▁ਤਾ	-1427
ਦਰੇ	-1428
ਰਮ	-1429
▁ਅੰਤਮ	-1430
▁ਲੰ	-1431
▁ਸਾਂਝ	-1432
▁ਕਲਾ	-1433
▁ਪੋ	-1434
▁ਬਚਾਅ	-1435
▁ਆਰਬਿਟਰ	-1436
▁ਮਨਜ਼ੂਰੀ	-1437
▁ਪਾਰ	-1438
▁ਹੱਦ	-1439
▁ਕਰੇਗੀ	-1440
▁ਤੁਰ	-1441
ਥਿਕ	-1442
▁ਬਾਰ	-1443
ਜਿਸਟ	-1444
▁ਤੀ	-1445
▁ਜੁੜੇ	-1446
▁ਮੁਹ	-1447
▁ਬਚਾ	-1448
▁ਜਗ੍ਹਾ	-1449
▁ਏਜ	-1450
▁ਡਾਇਰ	-1451
▁ਉਮੀਦਵਾਰ	-1452
▁ਸ਼ਬਦਾਂ	-1453
▁ਪਰਿਵਾਰ	-1454
ਿਲਾ	-1455
▁ਪ੍ਰਬੰਧਾਂ	-1456
▁ਜਿਸਦਾ	-1457
ਕੂਲ	-1458
▁ਯੂਨੀਵਰਸਿਟੀ	-1459
▁ਸ਼ੁਰੂਆ	-1460
▁ਜਨਰਲ	-1461
▁ਸਹੂਲ	-1462
ਮੂ	-1463
ਟਿੰਗ	-1464
▁ਗਿਣ	-1465
▁ਅਹੁਦੇ	-1466
▁ਵਿਆਹ	-1467
▁ਸਿੱਖੀ	-1468
▁ਮਹੱਤਵਪੂਰਨ	-1469
▁ਦੱਸੇ	-1470
ਨਾਲ	-1471
▁ਸੰਕੇ	-1472
▁ਹਿੰ	-1473
ਜਾਜ਼ਤ	-1474
ਹਰ	-1475
▁ਬਲਕਿ	-1476
▁ਰਾਜਾਂ	-1477
▁ਨਿਸ਼	-1478
ਖੇਪ	-1479
▁ਦਖਲ	-1480
at	-1481
▁ਮੁੱ	-1482
▁ਇਜਾਜ਼ਤ	-1483
ਜ਼ਰੀ	-1484
ੰਬਰ	-1485
▁ਕਮਿਸ਼ਨਰ	-1486
▁ਐਡ	-1487
ਟਾਂਦਰੇ	-1488
ਗੀਆਂ	-1489
▁ਪੜਾਅ	-1490
▁ਕਰਮਚਾਰੀ	-1491
▁ਤੁਰੰਤ	-1492
▁ਦਿਸ਼ਾ	-1493
▁ਹੋਣਗੇ	-1494
▁ਅਪਣਾ	-1495
▁ਸੈਕਸ਼ਨ	-1496
ੋਧ	-1497
ਸਪ	-1498
▁ਉਲਟ	-1499
ਰਾਮ	-1500
ਰਸ	-1501
▁ਅਯੋਗ	-1502
ਅਲ	-1503
it	-1504
om	-1505
▁ਵਿਆਜ	-1506
▁ਗੁਣ	-1507
▁ਸਰੋ	-1508
ed	-1509
▁ਸਤ	-1510
ਪੱਖ	-1511
▁ਲਾਇ	-1512
▁ਲੱ	-1513
ਟਰੀ	-1514
▁ਜ਼ਿਲ੍ਹਾ	-1515
▁ਪ੍ਰਵਾਨਗੀ	-1516
▁ਖੇਤਰਾਂ	-1517
ਚਾਰੀਆਂ	-1518
▁ਕਾਨੂੰਨਾਂ	-1519
▁ਪੀੜ	-1520
ਕੋ	-1521
▁ਵਿਦੇਸ਼	-1522
▁ਪ੍ਰਕਾ	-1523
▁ਨਵ	-1524
▁ਘਟਨਾ	-1525
ਜਾਂ	-1526
ੁਕਵੀਂ	-1527
▁ਏਜੰ	-1528
▁ਪਹਿਲੂ	-1529
▁ਕਾਰਜਕਾਰੀ	-1530
ਦੀਆਂ	-1531
▁ਕਰਮਚਾਰੀਆਂ	-1532
▁ਇਸਤ	-1533
▁ਇੱਥੇ	-1534
▁ਚਲਾਉਣ	-1535
ਕੜ	-1536
▁ਸਮਰਥਨ	-1537
▁‘	-1538
▁ਰੱਖਣਾ	-1539
▁ਐਂਡ	-1540
▁ਸ਼੍ਰੇਣੀ	-1541
ਫਤ	-1542
▁ਸਿੱਧ	-1543
▁ਤਰਫ	-1544
▁ਵੇਰ	-1545
▁ਸੰਕੇਤ	-1546
▁p	-1547
▁ਫੰਡ	-1548
▁ਨਿੱਜੀ	-1549
▁in	-1550
▁ਕੈਦ	-1551
▁ਪੰਜ	-1552
▁ਤਰਫੋਂ	-1553
▁ਨਜ਼ਰ	-1554
ਲਾਟ	-1555
▁ਜੁਰਮ	-1556
▁ਗਵਾਹਾਂ	-1557
▁ਮੁੱਲ	-1558
▁ਆਧਾਰ	-1559
▁ਚਾਰਜ	-1560
▁ਰੇ	-1561
▁ਘਾ	-1562
▁ਮਹਿ	-1563
▁ਪ੍ਰਦਰ	-1564
ਨਿ	-1565
...	-1566
ਐਕਸ	-1567
▁ਸੁਤੰਤਰ	-1568
▁ਸਵ	-1569
▁ਮੈਡੀ	-1570
▁ਪ੍ਰਭਾਵਤ	-1571
▁ਬੋ	-1572
▁ਪੁਰ	-1573
ੈਂਦਾ	-1574
▁ਲੇਖ	-1575
▁ਲੋਕ	-1576
▁ਦਾਖ	-1577
▁ਬਚਾਓ	-1578
▁ਆਰਥਿਕ	-1579
▁ਪ੍ਰਸ	-1580
▁ਇਸੇ	-1581
▁ਖਰਚ	-1582
▁ਇਸਦਾ	-1583
▁ਸਮੀਖਿਆ	-1584
▁ਮੌਜੂਦ	-1585
ਫੀ	-1586
▁ਬੰਦ	-1587
▁ਚੈ	-1588
ਯੁ	-1589
▁ਆਪਣਾ	-1590
le	-1591
ੁਕਵਾਂ	-1592
▁ਅਮ	-1593
▁f	-1594
▁ਸਕੀਮ	-1595
▁ਸੁਧਾਰ	-1596
▁ਦਸਤਾਵੇਜ਼	-1597
▁ਇਰਾ	-1598
ਾਤਰਾ	-1599
▁ਵਧਾਉਣ	-1600
▁ਹਲ	-1601
▁ਸਮਝੌਤਾ	-1602
ਿਆਦਾ	-1603
▁ਵੇਖ	-1604
▁ਸੱਟ	-1605
▁m	-1606
▁ਨੌ	-1607
▁ਵਿਚਾਰਾਂ	-1608
▁ਵਪਾਰਕ	-1609
▁ਸਬੂਤਾਂ	-1610
ੁਕਵੇਂ	-1611
or	-1612
▁ਠਹਿਰਾਇਆ	-1613
▁ਨਿਵੇਸ਼	-1614
▁ਚੌ	-1615
ਕਸ਼	-1616
ਫਰ	-1617
▁ਗਤੀਵਿਧ	-1618
▁ਘੱਟੋ	-1619
▁ਸੁਰੱਖਿਅਤ	-1620
ਪੁਰ	-1621
ਥੋਂ	-1622
▁ਖੁਦ	-1623
▁ਉਠ	-1624
▁ਵਿਰੋ	-1625
▁ਸਿਖ	-1626
▁ਦਿਨਾਂ	-1627
▁ਅਪ੍ਰ	-1628
▁ਹੋਣੀ	-1629
ਟਾਉਣ	-1630
▁ਪ੍ਰੋਗ	-1631
ਸਾਇਆ	-1632
ਵਰਣ	-1633
१०	-1634
--	-1635
ਿੱਲ	-1636
▁ਵਾਹ	-1637
▁ਰਾਹੀਂ	-1638
ਰੀਰ	-1639
ਿਅ	-1640
▁ਕੌਂ	-1641
ਤਾਵਰਣ	-1642
▁ਵਧੀ	-1643
▁ਡਾਇਰੈਕਟਰ	-1644
ਯੁਕਤ	-1645
▁ਵੱਲੋਂ	-1646
▁ਜ਼ਿਆਦਾ	-1647
▁ਆਯੋਜ	-1648
▁ਉੱਪਰ	-1649
▁ਪਟੀਸ਼ਨਾਂ	-1650
▁ਚਾਰ	-1651
▁ਕਰੋੜ	-1652
ਾਈਲ	-1653
ਗਾਸਾ	-1654
▁ਸੌਂਪ	-1655
▁ਇਸਤਗਾਸਾ	-1656
▁ਗ੍ਰ	-1657
ਗਰਿਕ	-1658
▁ਮੈਡੀਕਲ	-1659
ਭਗ	-1660
ੂਨ	-1661
▁ਸਰੀਰ	-1662
▁ਬੈ	-1663
▁ਵਾਤਾਵਰਣ	-1664
▁ਕਰਾ	-1665
▁ਪਾਬੰਦੀ	-1666
▁ਹਾਲਤ	-1667
▁ਅਸਾਮ	-1668
▁ਕੁਮਾਰ	-1669
▁ਡਿਵੀਜ਼ਨ	-1670
▁ਭਵਨ	-1671
ਵਿੱ	-1672
.)	-1673
ਦਨ	-1674
▁ਮੰਤਰ	-1675
▁ਆਉਣ	-1676
▁ਨਾਗਰਿਕ	-1677
ਪਾ	-1678
▁ਲਗਾਇਆ	-1679
▁ਪ੍ਰਾਪਤੀ	-1680
ion	-1681
ਦਾਰਥ	-1682
▁ਦੂਸ	-1683
▁ਜੋੜ	-1684
▁ਦਿਲ	-1685
▁ਖੁੱਲ	-1686
▁re	-1687
▁ਤੁਹਾ	-1688
▁ਸੱਚ	-1689
▁ਕੇਸਾਂ	-1690
▁ਸਥਾਪਨਾ	-1691
▁ਸੰਗ	-1692
▁ਪਦਾਰਥ	-1693
un	-1694
▁ਜੀਵਨ	-1695
▁ਕਬਜ਼ੇ	-1696
▁ਸੈਸ਼ਨ	-1697
▁ਅੰਤ	-1698
▁dut	-1699
▁ਦੇਰੀ	-1700
▁ਜਲ	-1701
▁ਪਾਣੀ	-1702
▁ਸਥਿਤੀਆਂ	-1703
ਕਾਨੂੰ	-1704
▁ਦੋਵੇਂ	-1705
ਰਾਂ	-1706
ੱਤਾ	-1707
▁ਤਬਦੀਲੀ	-1708
▁ਪੁੱਛ	-1709
▁ਸੰਖੇਪ	-1710
▁ਨਿਯਮਤ	-1711
ਸਾਇ	-1712
▁ਅਨ	-1713
▁ਵਿਆਪਕ	-1714
▁ਦਰਸਾਇਆ	-1715
▁ਹਵਾਲੇ	-1716
▁ਸੰਬੰਧਿਤ	-1717
▁ਅਨੁਸੂ	-1718
▁ਲਗਭਗ	-1719
▁ਜਾਏਗਾ	-1720
ਜਿਸਟਰੇਟ	-1721
▁ਤਾਰੀ	-1722
ਬੱਧ	-1723
ਾਈਆਂ	-1724
▁ਖ਼ਾਸ	-1725
▁ਕੌਂਸਲ	-1726
ੱਈ	-1727
▁ਦ੍ਰਿ	-1728
▁ਗੁੰ	-1729
ਰਾਨੀ	-1730
▁ਚੰਗੀ	-1731
▁ਲਿਖਤੀ	-1732
ਸੈਂਸ	-1733
▁ਸੀਮਾ	-1734
▁ਮੈਜਿਸਟਰੇਟ	-1735
▁ਬੀਮਾ	-1736
▁ਮਜ਼	-1737
▁ਵਿਦੇਸ਼ੀ	-1738
▁ਵਿਸ਼ਵਾਸ	-1739
ਸ਼ਾਲੀ	-1740
▁ਛੇ	-1741
ੁੱਟੀ	-1742
ਾਂਚੇ	-1743
▁ਕਾਰਵਾਈਆਂ	-1744
▁ਮਰ	-1745
▁ਸ਼ਿਕਾਇਤਕਰਤਾ	-1746
ੱਕੀ	-1747
ਮਾਨਤ	-1748
▁ਮੁਸ਼	-1749
▁ਆਫ	-1750
▁ਇਕੱਠ	-1751
▁ਸੰਭਾਵਨਾ	-1752
▁ਹਾਲਤਾਂ	-1753
ਸਕਾਰ	-1754
▁ਰੱਖੀ	-1755
▁ਸੀਮਤ	-1756
▁ਜਮ੍ਹਾਂ	-1757
▁ਕੰਪਨੀਆਂ	-1758
▁ਗ਼	-1759
▁ਨਿਯੰਤਰਣ	-1760
▁ਵਿਅਕਤੀਗਤ	-1761
▁ਯੂਨੀਅਨ	-1762
▁ਸਬ	-1763
▁ਐਲਾਨ	-1764
▁ਬਣਾਈ	-1765
ਦਰਾ	-1766
▁w	-1767
ਮੁੱਖ	-1768
▁ਪੈਨ	-1769
▁ਲੱਖ	-1770
▁ਸੁਭ	-1771
▁ਮਹੀਨਿਆਂ	-1772
▁ਦੂਰ	-1773
▁ਕਾਰਜਾਂ	-1774
▁ਫੀ	-1775
▁ਸੁਝ	-1776
▁ਰਾਹਤ	-1777
▁ਮੁਆਵਜ਼ੇ	-1778
ੋਜੀ	-1779
ਸ਼ਰ	-1780
▁ਸਹਿਮਤ	-1781
▁ਨਿਰਣਾ	-1782
▁ਛੁੱਟੀ	-1783
ਲਤ	-1784
▁ਸ਼ੁਰੂਆਤ	-1785
▁ਤਰਜੀ	-1786
▁ਵੇਲੇ	-1787
▁ਖੁਲਾ	-1788
▁ਸੁਭਾਅ	-1789
▁ਮਨੁੱਖੀ	-1790
ਟੀਫਿਕੇਟ	-1791
ਮਨ	-1792
ਸ਼ਾਹ	-1793
ਰਾਸ਼ਟਰੀ	-1794
▁ਦਰਸਾਉਂਦਾ	-1795
▁ਗਣ	-1796
▁ਸਿਖਲਾਈ	-1797
ਡੂ	-1798
▁ਅਧਾਰਤ	-1799
ਕਾਨ	-1800
ਕੁਲ	-1801
▁ਤਾਰੀਖ	-1802
▁ਸਰਵ	-1803
▁ਕੁਲ	-1804
▁ਮਾਨਤਾ	-1805
ੈਸਟ	-1806
▁ਟ੍ਰਾਂ	-1807
▁ਸਰਟੀਫਿਕੇਟ	-1808
▁ਵੇਖਿਆ	-1809
▁ਝਗ	-1810
▁ਸਮਾਜਿਕ	-1811
▁ਸਮਾਂ	-1812
▁ਪਏਗਾ	-1813
ਅਮ	-1814
▁ਦਫ	-1815
▁ਪ੍ਰਸੰਗ	-1816
▁ਕੁੱਲ	-1817
ਾਰਡ	-1818
▁ਰੱਖਦਾ	-1819
ਨਰ	-1820
▁ਤਰੀਕ	-1821
▁II	-1822
▁ਮਾਮਲਾ	-1823
▁ਨਿਪਟਾਰਾ	-1824
▁ਸਿਹਤ	-1825
▁ਅਫ	-1826
▁ਚੱਲ	-1827
ਸੀਏ	-1828
▁ਅੱਜ	-1829
ਸਥਾਰ	-1830
▁ਵਿਸਥਾਰ	-1831
▁of	-1832
ਸ਼ਨਲ	-1833
▁ਵਧਾ	-1834
ਟਲ	-1835
▁ਲਾਇਸੈਂਸ	-1836
▁ਸ਼ਕਤੀਆਂ	-1837
▁ਇਸਦੀ	-1838
▁ਦਿੱਤੀਆਂ	-1839
▁ਕਟ	-1840
▁ਨਿਰਪੱਖ	-1841
▁ਰੱਖੇ	-1842
▁ਨਿਰੰਤਰ	-1843
▁ਪੁਰਸਕਾਰ	-1844
ਜਲੀ	-1845
ਜ਼ਾਰ	-1846
▁ਲਏ	-1847
▁ਪੂਰੇ	-1848
ic	-1849
▁ਪ੍ਰਮੁੱਖ	-1850
ਲੇਖ	-1851
▁ਹਸ	-1852
▁ਆਰਬਿਟਰੇਸ਼ਨ	-1853
▁ਵਜੇ	-1854
▁ਕਥ	-1855
▁ਦਫਤਰ	-1856
▁ਲੱਗ	-1857
▁ਲੜ	-1858
ਮਾਇ	-1859
੍ਹੇ	-1860
▁ਵੱਡੇ	-1861
ਦਰਤੀ	-1862
▁ਅਰਥਾਤ	-1863
ਚਾ	-1864
ਾਲੀਆ	-1865
ਸ਼ਲ	-1866
▁ਮੁਆਵਜ਼ਾ	-1867
▁ਯਾਦ	-1868
es	-1869
▁ਚਾਹੁੰ	-1870
▁ਗਲਤੀ	-1871
▁ਰਾਮ	-1872
▁ਪਤ	-1873
ਗਾਰ	-1874
▁ਤਕਨੀ	-1875
▁ਦੇਖਿਆ	-1876
▁ਆਈਪੀਸੀ	-1877
ਜੈਕਟ	-1878
▁ਇਤਰਾ	-1879
▁ਅਵਧੀ	-1880
▁ਨਿਗਰਾਨੀ	-1881
▁ਵਾਜਬ	-1882
▁ਕਾਰਪੋਰੇਸ਼ਨ	-1883
▁ਦਰਸਾਏ	-1884
▁ਕਰਨੀ	-1885
▁ਉਤਸ਼ਾਹ	-1886
▁ਜਾਂਦੀਆਂ	-1887
▁ਉਦਯੋਗਿਕ	-1888
▁ਸੰਬੰਧੀ	-1889
▁ਦੇਵੇਗਾ	-1890
ੋਂਦ	-1891
▁ਨਵੇਂ	-1892
▁ਕਬਜ਼ਾ	-1893
▁ਮਸ਼	-1894
▁ਗਿਣਤੀ	-1895
▁ਸਵੈ	-1896
▁ਖੇਤੀ	-1897
▁ਪ੍ਰਤੀਸ਼ਤ	-1898
▁ਕੁਦਰਤੀ	-1899
ਟਕ	-1900
▁ਫਾਰਮ	-1901
ਿੰਡ	-1902
▁ਰਜਿਸਟ	-1903
▁ਪੀੜਤ	-1904
▁ਜੁਰਮਾਨ	-1905
ਥੀ	-1906
▁ਤਰੱਕੀ	-1907
▁ਵਿਧੀ	-1908
ੇਰ	-1909
▁ਮੈਨੂੰ	-1910
ਮੋ	-1911
▁ਦੇਖ	-1912
▁ਤਰਾਂ	-1913
ਨਿਕ	-1914
ਗਿਆਨ	-1915
▁ਸੀਮ	-1916
ਪੂਰਨ	-1917
▁ਕਥਿਤ	-1918
▁ਤਰਜੀਹ	-1919
ਰਾਸਤ	-1920
▁ਨਿਰਦੇਸ਼ਾਂ	-1921
ਮੇਲ	-1922
▁ਰਾਜਪਾਲ	-1923
▁ਉਦਾ	-1924
ਜਰ	-1925
ਟਰਾਂ	-1926
ੱਈਆ	-1927
▁ਗਤੀਵਿਧੀਆਂ	-1928
ਵਾਰਡ	-1929
ਇਸ	-1930
ਹਰਾ	-1931
▁ਚੀਫ਼	-1932
▁ਮੌਕੇ	-1933
▁ਸਪਲਾਈ	-1934
▁ਪਰਿਭਾਸ਼ਾ	-1935
▁ਵੇਚ	-1936
▁ਲੀਜ਼	-1937
▁ਵਾਹਨ	-1938
▁ਫੀਸ	-1939
ਾਬ	-1940
▁ਹਾਲਾਤ	-1941
▁ਉਤਪਾਦਨ	-1942
▁ਸਮਾਨ	-1943
ੜੀਆਂ	-1944
ਕਾਨੂੰਨੀ	-1945
▁ਨਿਰੀ	-1946
▁ਦੁਰ	-1947
ਧਾਰਣ	-1948
▁ਬਿਨੈਕਾਰ	-1949
▁ਸਿਧਾਂਤਾਂ	-1950
▁ਵਿਸ਼ਵ	-1951
▁ਜ਼ਮਾਨਤ	-1952
▁ਸਿਰਲੇਖ	-1953
ਐਚ	-1954
iii	-1955
ਿੱਛ	-1956
▁ਅਪ੍ਰੈਲ	-1957
▁ਬਿਜਲੀ	-1958
▁ਮੰਤਰਾਲੇ	-1959
▁ਵਿੱਚੋਂ	-1960
ਿਮ	-1961
▁ਵਰਗ	-1962
ਪਤਾਲ	-1963
ure	-1964
▁ਸਿੱਟਾ	-1965
ਟਮ	-1966
▁ਬਿਲਕੁਲ	-1967
▁ਆਇਆ	-1968
ੁੱਟ	-1969
ra	-1970
▁ਹਸਪਤਾਲ	-1971
▁ਤਸ	-1972
▁ਸਿੰਗ	-1973
▁ਤਰੀਕੇ	-1974
ਟੀਆਂ	-1975
▁ਏਜੰਸੀ	-1976
ਵੇਟ	-1977
▁ਪ੍ਰਭਾਵਸ਼ਾਲੀ	-1978
▁ਹੱਥ	-1979
▁ਪ੍ਰਾਈ	-1980
▁ਪ੍ਰਸ਼ਾਸ	-1981
▁ਫ਼ਰ	-1982
ਸ਼ਰਤੇ	-1983
▁ਪੈਨਸ਼ਨ	-1984
ਇੰ	-1985
▁ਮਾਰਚ	-1986
▁ਨਿਰੀਖਣ	-1987
ੈਟ	-1988
ਖਾਸਤ	-1989
▁ਉਪਾਅ	-1990
▁ਅੰਤਰਰਾਸ਼ਟਰੀ	-1991
▁ਇਮਾਰ	-1992
ਦੰਡ	-1993
▁ਮਿਲੀ	-1994
ਹਰਣ	-1995
▁ਵਾਧੂ	-1996
▁ਮਾਪਦੰਡ	-1997
▁th	-1998
▁ਉਦੋਂ	-1999
.,	-2000
▁ਨੁਮਾਇ	-2001
▁ਡਾਕ	-2002
ਡਿੰਗ	-2003
▁ਟਰੱਸ	-2004
▁ਵਿਦਿਆਰ	-2005
▁ਅਟ	-2006
ਰਾਈ	-2007
▁ਨਿਰਣੇ	-2008
ਐੱ	-2009
▁ਪੋਸਟ	-2010
▁ਭਾਸ਼ਾ	-2011
▁ਨਾਮਜ਼	-2012
▁ਬਸ਼ਰਤੇ	-2013
ਡਲ	-2014
११	-2015
▁ਰੱਖਦੇ	-2016
▁ਸਥਾਨਕ	-2017
ਗੂਲੇ	-2018
▁ਮੌਕਾ	-2019
▁ਬਰੀ	-2020
▁ਪ੍ਰਦਰਸ਼ਨ	-2021
▁ਸੰਭਵ	-2022
ਬਕਾ	-2023
ਟੀਕਲ	-2024
▁ਮੁਹੱਈਆ	-2025
▁duty	-2026
▁ਭੂਮ	-2027
ੰਟੀ	-2028
▁ਐਚ	-2029
▁ਵੱਖਰਾ	-2030
▁ਸਿੰਗਲ	-2031
▁ਧਰਮ	-2032
▁ਐਫਆਈਆਰ	-2033
▁ਗਿਆਨ	-2034
▁ਦੂਜੀ	-2035
▁ਖਾਲੀ	-2036
▁ਅਸਾਮੀਆਂ	-2037
▁ਬੱਚੇ	-2038
▁ਦਸਤ	-2039
ਜ਼ਗਾਰ	-2040
ro	-2041
▁ਅਨੁਕੂਲ	-2042
ੋਨ	-2043
▁ਘੋਸ਼ਣਾ	-2044
▁ਗਠਨ	-2045
▁ਹਿੱਤ	-2046
▁ਰਸ	-2047
▁ਟ੍ਰਾਂਸ	-2048
ਚਲ	-2049
▁ਉਦਾਹਰਣ	-2050
▁ਜ਼ਾਬ	-2051
ਕੀਨੀ	-2052
▁ਪ੍ਰਾਜੈਕਟ	-2053
▁ਚਿੰ	-2054
▁ਪ੍ਰਧਾਨ	-2055
▁ਪੁਰਾ	-2056
▁ਵਟਾਂਦਰੇ	-2057
▁ਯਕੀਨੀ	-2058
▁ਨਾਲੋਂ	-2059
ਾਹਰੀ	-2060
ਾਇਮ	-2061
▁ਮਾਈਨ	-2062
▁ਮਾਰਕੀ	-2063
ਦੇਣ	-2064
ਤਮਕ	-2065
▁ਸਫਲ	-2066
▁ਰਿਹ	-2067
▁ਪਟੀਸ਼ਨਕਰਤਾਵਾਂ	-2068
▁ਪਿੰਡ	-2069
ਚਨਾ	-2070
▁ਕਟੌਤੀ	-2071
ਚਤ	-2072
▁ਬੱਚਿਆਂ	-2073
▁ਸੁਝਾਅ	-2074
▁ਬਿੱਲ	-2075
▁ਉਤਸ਼ਾਹਤ	-2076
▁ਪ੍ਰੀਖਿਆ	-2077
ਮਾਲ	-2078
▁ਪਤਨੀ	-2079
ਰਾਜ	-2080
▁ਵਸ	-2081
▁ਭੇਜਿਆ	-2082
▁ਉਹੀ	-2083
▁ਪ੍ਰਕਾਸ਼ਤ	-2084
▁ਇਲਾਜ	-2085
ਪੀਡਬਲਯੂ	-2086
▁ਪੇਸ਼ੇ	-2087
▁ਦਰਮ	-2088
▁ਪ੍ਰਾਈਵੇਟ	-2089
▁ਕਾਇਮ	-2090
ਵਿਆਂ	-2091
▁ਸ਼ੇਅਰ	-2092
▁ਪਤੀ	-2093
▁ਭੂਮਿਕਾ	-2094
▁ਖਰਚਿਆਂ	-2095
ਕਾਬ	-2096
▁ਰੁਕ	-2097
▁ਸਮਰੱਥਾ	-2098
ਕਰਾਰ	-2099
▁ਜ਼ਖ	-2100
▁ਬਣਾਏ	-2101
▁ਅਲਾਟ	-2102
ਜਾਏ	-2103
▁ਦਿਲਚ	-2104
ਿਅਕ	-2105
▁ਸਿੱਧੇ	-2106
ਚਰ	-2107
▁ਰਹਿਣ	-2108
▁ਸੁਸਾਇ	-2109
▁ਸਾਬਕਾ	-2110
▁ਸ਼ਰਤ	-2111
▁ਵਿਕਲ	-2112
▁ਰੈਗੂਲੇ	-2113
ਬਾੜੀ	-2114
▁ਘਾਟ	-2115
▁ਸਾਂਝੇ	-2116
▁ਸੰਯੁਕਤ	-2117
▁ਸੰਭਾਲ	-2118
▁ਕ੍ਰਮ	-2119
ਬਾਦ	-2120
▁ਗ੍ਰਿ	-2121
▁ਸਕੂਲ	-2122
▁ਤਕਨੀਕੀ	-2123
▁ਪਾਉਣ	-2124
▁ਪ੍ਰੀ	-2125
▁ਸੰਚਾਰ	-2126
▁ਰਾਜਨੀ	-2127
▁ਮਾਤਰਾ	-2128
▁ਮੁਕਾਬ	-2129
ਹਿਸ	-2130
▁ਮੁਖਰ	-2131
▁ਦਸਤਾਵੇਜ਼ਾਂ	-2132
▁ਮੁਖਰਜੀ	-2133
▁ਖੁਲਾਸਾ	-2134
▁ਪੈਂਦਾ	-2135
▁ਇਕਬ	-2136
▁ਕੋਡ	-2137
▁ਫ਼ੈਸਲਾ	-2138
ਵਾਦੀ	-2139
▁ਫੋਰ	-2140
▁ਬਾਲ	-2141
▁ਸੰਤੁਸ਼ਟ	-2142
ਜੀਨੀਅਰ	-2143
▁ਸਕਦੀਆਂ	-2144
▁ਬਰਕਰਾਰ	-2145
▁ਲਿਖੀਆਂ	-2146
ਬੰਦ	-2147
ੋਸੀਏ	-2148
ੋੜ	-2149
ਮੈਨ	-2150
▁ਤਰਕ	-2151
ਮਲ	-2152
▁ਵੱਡੀ	-2153
▁ਪ੍ਰੋਗਰਾਮ	-2154
▁ਤਬਾਦ	-2155
▁ਅਫਸਰ	-2156
▁ਰੋਕਣ	-2157
▁ਇੰਜੀਨੀਅਰ	-2158
▁ਵੈਬ	-2159
▁ਭਾਈ	-2160
▁ਅਨੁਸੂਚਿਤ	-2161
▁ਸੰਬੰਧਤ	-2162
ਗਰੀ	-2163
▁ਬਜਾਏ	-2164
ਵਿੱਖ	-2165
ਿਜ	-2166
▁ਨਜਿੱਠਣ	-2167
▁ਰੱਖਦਿਆਂ	-2168
ਮਕ	-2169
▁ਜਾਣਗੇ	-2170
▁ਪ੍ਰਗਟ	-2171
▁ਖੇਤੀਬਾੜੀ	-2172
▁ਦਿੰਦੀ	-2173
▁ਨਿਸ਼ਚਤ	-2174
▁ਵਿਵਸਥਾਵਾਂ	-2175
▁ਦੋਸ਼ਾਂ	-2176
ਿਵ	-2177
▁ਇੱ	-2178
ਕਾਰਾਂ	-2179
▁ਪ੍ਰੋਜ	-2180
▁ਐਸੋਸੀਏ	-2181
▁ਭਵਿੱਖ	-2182
ਵੇਗੀ	-2183
tr	-2184
▁ਚੇਅਰ	-2185
▁ਜਦ	-2186
▁ਬਕ	-2187
▁ਇਤਰਾਜ਼	-2188
▁ਪਟੀਸ਼ਨਰ	-2189
▁ਜ਼ਾਹਰ	-2190
ਸਾਈਟ	-2191
ਅਪ	-2192
▁ਸੁਣਾਈ	-2193
▁ਪੰਚ	-2194
▁ਸਟੇਟ	-2195
▁ਬੰਬੇ	-2196
▁ਅਕਾ	-2197
▁ਲਾਲ	-2198
▁ਯੋਗਦਾਨ	-2199
▁ਚਾਹੀਦੇ	-2200
▁ਜ਼ਬਤ	-2201
▁ਮੁੱਦ	-2202
▁ਸ਼ਾਸ	-2203
▁ਵਾਧਾ	-2204
▁ਡੀਡ	-2205
▁ਪ੍ਰੋਜੈਕਟ	-2206
▁ਮੁੱਦਿਆਂ	-2207
ੰਦਰ	-2208
▁ਸੂਚਿਤ	-2209
ਪਿਤ	-2210
ad	-2211
▁ਸੱਤ	-2212
▁ਪਾਰਟੀਆਂ	-2213
▁ਤੁਸੀਂ	-2214
▁ਹੱਲ	-2215
ਵਰਤ	-2216
▁ਕੋਰਸ	-2217
▁ਕਿਰਾਏਦਾਰ	-2218
ਬੂਤ	-2219
▁ਡਾਕਟ	-2220
▁ਸਹਾਇਕ	-2221
ਵਕ	-2222
uct	-2223
ਕੇਸ਼ਨ	-2224
▁ਮੁਸ਼ਕਲ	-2225
▁ਵਿਸ਼ਲੇ	-2226
▁ਭਰੋਸੇ	-2227
▁ਖਪਤ	-2228
▁ਜਨਵਰੀ	-2229
੍ਹੀ	-2230
▁ਵਿਚਾਰਿਆ	-2231
ਹਿਰ	-2232
▁ਗ੍ਰਿਫਤ	-2233
▁ਹਿੱਤਾਂ	-2234
▁ਖਰਚੇ	-2235
▁ਮਤ	-2236
ੰਗਲ	-2237
ਸ਼ਟੀਕਰਨ	-2238
▁ਸੰਪਤੀ	-2239
ਿਪ	-2240
▁ਦੂਜਾ	-2241
▁ਜਾਣੇ	-2242
▁ਸਾਲਸੀ	-2243
▁ਮਹਾਰਾ	-2244
▁ਜਿੱਥੋਂ	-2245
▁ਡਾਕਟਰੀ	-2246
▁ਕਦਮ	-2247
▁ਸਖਤ	-2248
ਥੀਆਂ	-2249
▁ਕਾਲਜ	-2250
▁ਮੰਨਣ	-2251
us	-2252
ਭਾਲ	-2253
▁ਹਥ	-2254
▁ਜਾਣਿਆ	-2255
▁ਦਸਤਖਤ	-2256
▁ਨਤੀਜਾ	-2257
▁ਜ਼ੁਰ	-2258
ਅੰਦਾ	-2259
▁ਅਪੀਲਾਂ	-2260
▁C	-2261
▁ਸਰੋਤ	-2262
▁ਆਰਟੀਕਲ	-2263
▁ਬਲਾ	-2264
▁ਪੈਸੇ	-2265
▁ਚਲ	-2266
▁ਦੁਹਰਾ	-2267
▁ਉਸਾਰੀ	-2268
▁ਖ਼ਾਸਕਰ	-2269
ੈਲੀ	-2270
▁ਲਾਅ	-2271
▁ਠੇ	-2272
▁ਧੋ	-2273
▁ਖੁੱਲ੍ਹ	-2274
▁ਵਿਗਿਆਨ	-2275
▁ਹਿਰਾਸਤ	-2276
▁ਰੁਜ਼ਗਾਰ	-2277
▁ਇਥੇ	-2278
▁ਦਾਇ	-2279
▁ਜਿਸਦੀ	-2280
is	-2281
▁ਅਚ	-2282
▁ਵਿਸ਼ਲੇਸ਼ਣ	-2283
▁ਸੁਨ	-2284
▁ਅੰਕ	-2285
ਚਾਲ	-2286
▁ਉਸਦਾ	-2287
▁ਇਕਬਾਲੀਆ	-2288
▁ਵਿਸ਼ਾ	-2289
ਕਰੀ	-2290
................	-2291
ਲੀਆਂ	-2292
▁ਅਜੇ	-2293
ਕੁਆ	-2294
▁b	-2295
▁ਵਿਸ਼ੇ	-2296
ਸੰਬਰ	-2297
▁ਇਰਾਦਾ	-2298
▁ਦਰਮਿਆਨ	-2299
▁ਹਥਿਆਰ	-2300
ਜਿਆਂ	-2301
▁ਸੌ	-2302
ਵੋ	-2303
▁...	-2304
▁ਵੱਡ	-2305
▁ਵਿਚਲੇ	-2306
▁ਰਿਟ	-2307
▁ਮਾਈਨਿੰਗ	-2308
▁ਅਗਸਤ	-2309
▁ਦੂਸਰੇ	-2310
ਸਪੀ	-2311
ਿਨ	-2312
ਕਿਆਂ	-2313
▁ਵਿਕਲਪ	-2314
▁ਦਸੰਬਰ	-2315
▁ਇਕਸਾਰ	-2316
ਸਤੂ	-2317
▁ਇੰਟਰ	-2318
▁ਸਹੂਲਤ	-2319
▁ਸਹੂਲਤਾਂ	-2320
▁ਪਾਲਣ	-2321
ਐੱਸ	-2322
▁ਲੱਭ	-2323
▁ਰਜਿਸਟਰਡ	-2324
▁ਸਮੁੰ	-2325
▁ਵੈਬਸਾਈਟ	-2326
ਚਾਰਜ	-2327
▁ਪੱਖਪਾਤ	-2328
▁ਮਹੀਨੇ	-2329
▁ਖਿਲਾ	-2330
▁ਚਲਾਇਆ	-2331
ੰਡੋ	-2332
ਫਟ	-2333
▁ਟੈਸਟ	-2334
੍ਰਿਆ	-2335
▁ਖਿਲਾਫ	-2336
truct	-2337
▁ਅਲ	-2338
▁ਬਣਨ	-2339
ਕਤਾ	-2340
ਬਾਜ਼ੀ	-2341
▁ਵਿੱਤ	-2342
ਿਕਸ	-2343
▁ਐਸੋਸੀਏਸ਼ਨ	-2344
ਸਤੀ	-2345
ੰਦੇ	-2346
▁ਦਰਸਾਉਣ	-2347
▁ਏਆਈਆਰ	-2348
▁ਭਰਤੀ	-2349
ਨਾਲੋਜੀ	-2350
▁ਬੋਲ	-2351
▁ਤੁਹਾਡੇ	-2352
▁ਕਿਸਮ	-2353
▁ਰਿਹਾਇ	-2354
▁ਮਨੋਰ	-2355
ਵੇਕ	-2356
▁ਦਾਖਲੇ	-2357
▁ਨਿਭਾ	-2358
੍ਰੇਸ਼ਨ	-2359
▁ਰੇਲ	-2360
ਜ਼ੋਰ	-2361
▁ਫ਼ਰਮਾਨ	-2362
▁ਵਿਕਸ	-2363
▁ਕੰਮਾਂ	-2364
▁ਦਿਲਚਸਪੀ	-2365
▁ਸੁਸਾਇਟੀ	-2366
▁ਸਥਾਈ	-2367
▁ਸਤੰਬਰ	-2368
ੋਹ	-2369
ing	-2370
▁ਚੁੱਕੇ	-2371
ਘਾ	-2372
▁ਕਦੇ	-2373
▁ਤਾਕਤ	-2374
▁ਰੁਕਾਵ	-2375
▁ਜਾਪ	-2376
▁ਸ਼ਰ	-2377
▁ਕੌ	-2378
▁ਹਮੇਸ਼	-2379
▁ਆਪਣੀਆਂ	-2380
▁ਉਮੀਦਵਾਰਾਂ	-2381
▁ਅੰਗ	-2382
▁ਦੇਸ਼ਾਂ	-2383
ਪਨ	-2384
▁ਖਿੱ	-2385
▁ਪਿਤਾ	-2386
▁ਟਾ	-2387
ਇਲ	-2388
▁ਲਿਆਉਣ	-2389
▁ਦੇਖਭਾਲ	-2390
▁ਨਾਮਜ਼ਦ	-2391
ਦਾਇ	-2392
ਿਹਾ	-2393
▁ਰਾਖ	-2394
▁ਰਿਸ਼	-2395
ਅਸਲ	-2396
▁ਪਰੇ	-2397
▁ਡੇ	-2398
▁ਅਗਲੇ	-2399
ਗੁ	-2400
ਦਰਭ	-2401
ੂੰਜੀ	-2402
▁ਗ੍ਰਹਿ	-2403
▁ਜ਼ਰੂਰਤਾਂ	-2404
▁ਅਧਿਆਇ	-2405
ਨਿਰ	-2406
▁ਮਜ਼ਬੂਤ	-2407
▁ਹੁੰਦੀਆਂ	-2408
▁ਇਕੱਲੇ	-2409
▁ਪ੍ਰੇਸ਼	-2410
ਪਾਲਿਕਾ	-2411
▁ਮੁੱਦਾ	-2412
▁ਦਰਸਾਉਂਦੀ	-2413
▁ਨਿਪਟਾਰੇ	-2414
▁ਕਰਨਾਟਕ	-2415
ੂਠ	-2416
▁ਰਾਜਨੀਤਿਕ	-2417
▁ਇਮਾਰਤ	-2418
▁ਸਾਡਾ	-2419
],	-2420
▁ਪ੍ਰੇਰ	-2421
▁ਨਾਨ	-2422
ਬੀਆਈ	-2423
▁ਵਿੰਡੋ	-2424
▁ਇਕਰਾਰਨਾਮਾ	-2425
▁ਮੌਜੂਦਗੀ	-2426
▁ਲਗਾਈ	-2427
▁ਸਧਾਰਣ	-2428
▁ਕਹਿਣ	-2429
▁ਸਮਝਿਆ	-2430
▁ਬਕਾਇਆ	-2431
▁ਮਈ	-2432
▁ਸਿੱਖ	-2433
ਸੀਆਈ	-2434
▁ਸਟਾ	-2435
▁ਟਰੱਸਟ	-2436
▁ਸੁਲ	-2437
tructure	-2438
▁ਮੇਰੇ	-2439
▁ਸੰਘ	-2440
▁ਸਾਰੀ	-2441
ਕਰਮ	-2442
▁ਡੈ	-2443
ੂਨੀ	-2444
▁ਝੂਠ	-2445
ਪਲ	-2446
▁ਜੁਲਾਈ	-2447
▁ਜ਼ਿੰਦਗੀ	-2448
▁ਲਿਆਂ	-2449
▁ਸੰਦਰਭ	-2450
ਿਸ਼ਚਿਤ	-2451
▁ਪੂੰਜੀ	-2452
▁ਡਿਸ	-2453
▁ਜਿੰ	-2454
ਤਲ	-2455
▁ਨੈਸ਼ਨਲ	-2456
▁ਵਸਤੂ	-2457
▁ਬਾਕੀ	-2458
▁ਮਾਰਕੀਟ	-2459
▁x	-2460
▁ਖਾਤੇ	-2461
▁ਅਸ਼	-2462
ar	-2463
▁ਸਰੀਰਕ	-2464
▁ਵਿਦਿਆਰਥੀਆਂ	-2465
▁ਪੇਸ਼ਕਸ਼	-2466
▁ਯੂਨ	-2467
▁ਸੜ	-2468
▁ਸੰਚਾਲ	-2469
▁ਅਨੁਪਾਤ	-2470
१२	-2471
ੋਧਨ	-2472
▁[]	-2473
ਜ਼ੀਆਂ	-2474
ੈਕਟਰੀ	-2475
▁ਵਿਵੇਕ	-2476
▁ਨਾਬ	-2477
▁ਦਾਇਰੇ	-2478
▁ਸਿੱਖੇ	-2479
ਜਾਇ	-2480
▁ਖਣ	-2481
▁the	-2482
ਫਾ	-2483
iv	-2484
▁ਕਿਵੇਂ	-2485
ੋਸ	-2486
▁ਕਰਾਉਣ	-2487
ਿਹਾਸ	-2488
▁ਧੋਖਾ	-2489
▁ਬੁਲਾ	-2490
ਗਿੱਛ	-2491
▁ਪੀਸੀ	-2492
▁ਵਿਰੋਧ	-2493
▁ਨਵੰਬਰ	-2494
▁ਵਿਚਾਰਨ	-2495
ਤਾਬ	-2496
▁ਦਰਜ਼	-2497
▁ਨਿਆਂਪਾਲਿਕਾ	-2498
▁ਇਹਨਾਂ	-2499
▁ਪ੍ਰਕਾਰ	-2500
▁ਹਦਾਇ	-2501
▁ਆਖ	-2502
▁ਗਵਾਹੀ	-2503
ੋਰੀ	-2504
▁ਜਲਦੀ	-2505
ਸ਼ਿਤ	-2506
▁ਲੈਂ	-2507
ਾਈਟ	-2508
ਪੱਤਰ	-2509
▁ਸੱ	-2510
▁ਸਮੁ	-2511
▁ਸੈਂ	-2512
▁ਛੋਟੇ	-2513
▁ਸ਼ੁੱਧ	-2514
▁ਵਿਦਿਅਕ	-2515
▁ਟੈਕ	-2516
▁ਸੈਕਟਰ	-2517
▁ਪੌ	-2518
▁ਭਾਵਨਾ	-2519
ੂਬਰ	-2520
▁ਖੜ	-2521
▁ਉੱਤਰਦਾਤਾਵਾਂ	-2522
▁ਵਿਸ਼ਾਲ	-2523
▁ਵੱਡਾ	-2524
ਸਨ	-2525
▁ਲਿਖਿਆ	-2526
▁ਅੰਦਰੂਨੀ	-2527
▁ਉਥੇ	-2528
▁ਲਗਾਏ	-2529
▁ਫਰਵਰੀ	-2530
▁ਸਮੁੱਚ	-2531
ੰਸ	-2532
▁ਜੈ	-2533
▁ਪ੍ਰਗਟਾ	-2534
ਿਆਰੀ	-2535
ਮਿਕ	-2536
ਮੀਰ	-2537
▁ਇਤਿਹਾਸ	-2538
▁ਧਾਰਨਾ	-2539
▁ਸੋਚ	-2540
as	-2541
ਯੋ	-2542
▁ਮੁਲਜ਼ਮਾਂ	-2543
ਬਨ	-2544
▁ਨਜ਼ਰੀ	-2545
van	-2546
ਕੇਟ	-2547
▁ਵੱਖੋ	-2548
▁ਫਲ	-2549
▁ਆਉਂਦੀ	-2550
ਹਨ	-2551
▁ਕਰਨਗੇ	-2552
▁ਪ੍ਰਭਾਵਿਤ	-2553
▁ਇਲ	-2554
ਕਤੂਬਰ	-2555
▁ਆਯੋਜਿਤ	-2556
▁ਸਮੁੰਦਰੀ	-2557
ent	-2558
ੰਜਨ	-2559
▁ਰੀ	-2560
ਮਾਰੀ	-2561
▁ਥਾਂ	-2562
▁ਸਾਹਮਣਾ	-2563
▁ਅਕਤੂਬਰ	-2564
▁ਚਾਲ	-2565
ਜਾਈ	-2566
ਧਨ	-2567
ਕੁਆਇਰ	-2568
ੈਂਡਰ	-2569
ੈਂਸੀ	-2570
▁ਭਲਾਈ	-2571
▁ਮੀਟਿੰਗ	-2572
ਿਲਾਫ਼	-2573
▁ਦਰਅਸਲ	-2574
▁ਵੀਂ	-2575
▁ਪੇ	-2576
▁ਖ਼ਿਲਾਫ਼	-2577
▁ਵਧੀਆ	-2578
ਤੇਮਾਲ	-2579
▁ਤੈ	-2580
▁ਪੁੱਛਗਿੱਛ	-2581
▁ਜੂਨ	-2582
ਡਿ	-2583
ਸਿਕ	-2584
▁ਦਰਖਾਸਤ	-2585
ਕਰੇ	-2586
▁ਸੂਟ	-2587
▁ਬੋਲੀ	-2588
▁ਅਧਿ	-2589
▁ਇਸਤੇਮਾਲ	-2590
▁ਪ੍ਰਸਤਾਵਿਤ	-2591
▁ਉੱਠ	-2592
▁ਚੇਅਰਮੈਨ	-2593
▁ਸਰਵਿਸ	-2594
▁ਲੈਣਾ	-2595
▁ਮੁਨਾ	-2596
▁ਕਦਰ	-2597
▁ਵੱਖਰੀ	-2598
▁ਪ੍ਰਣਬ	-2599
▁ਵਿਰੋਧੀ	-2600
▁ਬੈਠ	-2601
▁ਦਾਖਲਾ	-2602
▁ਉੱਦ	-2603
▁ਅੰਤਰਿਮ	-2604
ੁਟ	-2605
ੰਦਗੀ	-2606
ਗੈਰ	-2607
▁ਨਿਯਮਿਤ	-2608
ਸ਼ਕ	-2609
ਾਰਥ	-2610
▁ਕਲਪਨਾ	-2611
▁ਲੋੜੀਂਦੀ	-2612
▁ਰਿਜ਼ਰ	-2613
ਾਤਮਕ	-2614
▁ਚੀਜ਼	-2615
▁ਵਿਕਸਤ	-2616
▁ਜੁਰਮਾਨਾ	-2617
▁ਸਕੱਤਰ	-2618
▁ਐਕੁਆਇਰ	-2619
ਾਇਦ	-2620
▁ਪ੍ਰਸ਼ਾਸਨ	-2621
▁ਗੁਣਾਂ	-2622
▁ਦਿਖ	-2623
▁ਮਾਹਰ	-2624
▁ਜ਼ਿੰਮੇਵਾਰੀਆਂ	-2625
ਵਾਲੀ	-2626
▁ਗਣਨਾ	-2627
▁ਜਨਮ	-2628
▁ਅਵਾਰਡ	-2629
ਪਣ	-2630
▁ਡਿਪ	-2631
ਸ਼ਾਂ	-2632
ਜਾਬ	-2633
▁ਵਿਵਹਾਰ	-2634
▁ਸਰੋਤਾਂ	-2635
ਮਜ਼	-2636
▁ਕ੍ਰਿ	-2637
▁ਖੁੱਲ੍ਹਦੀ	-2638
▁ਸਾਲਾਨਾ	-2639
▁ਸਰਕਾਰਾਂ	-2640
▁ਇੱਛਾ	-2641
▁ਪਹੁੰਚਣ	-2642
ਰੀਜ਼	-2643
▁ਪ੍ਰਕਿਰਤੀ	-2644
▁ਸੁਲਝ	-2645
▁ਜ਼ਮੀਨਾਂ	-2646
ਝਲ	-2647
▁ਵੇਰਵੇ	-2648
▁ਸੰਗਠਨ	-2649
▁ਟਾਈ	-2650
▁ਸ਼ਾਇਦ	-2651
ਯਮ	-2652
▁ਮਾਣ	-2653
▁ਟ੍ਰਾਂਸਫਰ	-2654
▁ਬਹ	-2655
▁ਭਰਾ	-2656
▁ਬਣਦਾ	-2657
▁ਮਹਾਰਾਸ਼ਟਰ	-2658
▁ਜਾਨ	-2659
▁ਤੈਅ	-2660
▁ਹੋਈਆਂ	-2661
▁ਅਸਮਰ	-2662
▁ਕਰਜ਼ੇ	-2663
▁ਸ਼ਾਸਤ	-2664
ੜ੍ਹ	-2665
ੋਕੜ	-2666
▁ਲੋਕਤ	-2667
▁ਬੇਨਤੀਆਂ	-2668
▁ਬੰਗ	-2669
▁ਵੇਚਣ	-2670
▁ਪਿਛੋਕੜ	-2671
▁ਗੈਰਕਾਨੂੰਨੀ	-2672
▁ਗੁੰਝਲ	-2673
▁ਉਪਬੰਧ	-2674
▁ਤੇਲ	-2675
▁ਰੈਗੂਲੇਸ਼ਨ	-2676
▁ਚਰ	-2677
▁ਮੂਲ	-2678
▁ਮਕਾਨ	-2679
ਵਸ	-2680
▁ਵੇਖਣ	-2681
▁ਹਿੰਦੂ	-2682
▁ਸੰਸ਼	-2683
▁ਜਿਸਨੇ	-2684
▁ਕਾਰਪੋਰੇਟ	-2685
ਸ਼ੀਟ	-2686
▁ਕਾਪੀ	-2687
▁ਸਹਿਕਾਰੀ	-2688
▁ਠੇਕੇ	-2689
▁ਸ਼ਾਸਨ	-2690
▁ਦੁਖੀ	-2691
▁ਪੂਰਵ	-2692
▁ਅਪਵਾਦ	-2693
▁ਪੱਛ	-2694
▁ਮਿੱ	-2695
▁rele	-2696
ਧੜੀ	-2697
▁ਅਖ	-2698
▁ਜੰਗ	-2699
▁ਘੋਸ਼ਿਤ	-2700
▁ਸੁਨਿਸ਼ਚਿਤ	-2701
▁ਪੰਜਾਬ	-2702
▁ਗ਼ਲਤ	-2703
▁structure	-2704
▁ਸਦਨ	-2705
▁ਵਧੀਕ	-2706
▁ਸਖ	-2707
ਿੰਦਰ	-2708
ਟ੍ਰ	-2709
▁ਉਠਾ	-2710
▁ਗਿਰ	-2711
▁ਪ੍ਰਿੰ	-2712
▁ਹਟਾਉਣ	-2713
▁ਲੋੜੀਂਦੇ	-2714
▁ਕਿਤਾਬ	-2715
▁ਪ੍ਰੇਸ਼ਾਨ	-2716
##	-2717
▁ਲੰਬੇ	-2718
ਬਾਹਰੀ	-2719
▁ਸ਼ਾ	-2720
▁ਕਰੀ	-2721
▁ਕਨੂੰ	-2722
▁ਲਿਖੇ	-2723
▁ਉਪਕਰਣ	-2724
▁ਨਕ	-2725
▁ਕਾਰਜਸ਼ੀਲ	-2726
▁ਸੰਭਾਵਤ	-2727
▁ਥਾ	-2728
ਸ਼ਨੀ	-2729
ਾਇਤਾਂ	-2730
▁ਇੰਡੀਅਨ	-2731
ਟਨ	-2732
ਸ਼ਿਪ	-2733
▁ਰੇਲਵੇ	-2734
▁ਮਾਨਯੋਗ	-2735
▁ਅਨੁਸ਼ਾਸ	-2736
▁ਸਦ	-2737
▁ਸਥਿਤ	-2738
vant	-2739
ਿਆਚਾਰ	-2740
▁ਗੁੰਝਲਦਾਰ	-2741
▁ਨਾਗਰਿਕਾਂ	-2742
▁ਲਾਗਤ	-2743
▁ਸਥਾਪਿਤ	-2744
▁ਪ੍ਰਬੰਧਕੀ	-2745
▁ਧੋਖਾਧੜੀ	-2746
ਅੱਤ	-2747
ਜਾਣ	-2748
▁ਜ਼ਾਬਤੇ	-2749
▁relevant	-2750
▁ਜਿਹੜੀ	-2751
▁ਕੰਟਰ	-2752
ਾਂਚਾ	-2753
▁ਨੈਤਿਕ	-2754
ਵਟਾਂਦਰੇ	-2755
▁ਰਿਕ	-2756
▁ਵੇਂ	-2757
▁ਖਿੱਚ	-2758
ਪਨੀ	-2759
ਸੂਸ	-2760
ਯੋਗੀ	-2761
▁ਜ਼ੁਰਮਾਨ	-2762
▁ਆਵਾ	-2763
▁ਕਲਾਜ਼	-2764
▁ਸੱਟਾਂ	-2765
▁१	-2766
ੰਮਦ	-2767
▁ਮਿਲਿਆ	-2768
▁ਅਗਵਾਈ	-2769
▁ਅਧਿਐਨ	-2770
▁ਮਾਪਦੰਡਾਂ	-2771
▁ਮਹਿਸੂਸ	-2772
▁ਲਿਖਿਆਂ	-2773
ਸਾਂ	-2774
▁ਪੇਟ	-2775
ਸ਼ੀਅਲ	-2776
▁ਐਂਟਰੀ	-2777
▁ਤੱਤ	-2778
ਜਬੂਰ	-2779
▁ਰੁਕਾਵਟ	-2780
▁ਅਰਜ਼ੀਆਂ	-2781
ਕਸਦ	-2782
ਮਤਾਂ	-2783
ਸਥਾਨ	-2784
ਜਰਾ	-2785
ਨਿਧ	-2786
ਬਰੀ	-2787
▁ਡਾਕਟਰ	-2788
▁ਮੋਟਰ	-2789
▁ਸੀਆਰ	-2790
ਬਲਿਕ	-2791
ਰੇਲੂ	-2792
▁ਮੰਦਰ	-2793
▁h	-2794
▁ਮਜਬੂਰ	-2795
▁ਵਿਧਾਨਕ	-2796
▁ਹੋਂਦ	-2797
ਕਿੰਗ	-2798
▁ਬਿਹ	-2799
▁ਵਿਸ਼ੇਸ਼ਤਾਵਾਂ	-2800
ਰੀਏ	-2801
▁ਪੇਂ	-2802
▁ਇਨਕਮ	-2803
▁ਵਰਗੇ	-2804
▁ਕਾਮ	-2805
▁ਪ੍ਰਸ਼ਨਾਂ	-2806
ਯਾਤ	-2807
▁ਪ੍ਰਾਰਥ	-2808
ਾਇਓ	-2809
▁ਖੁਸ਼	-2810
▁ਜਿਸਦੇ	-2811
▁ਪੁਨਰ	-2812
,00	-2813
ri	-2814
▁ਪੇਸ਼ੇਵਰ	-2815
▁ਮਕਸਦ	-2816
▁ਜ਼ਖਮੀ	-2817
▁ਪਹਿਲੂਆਂ	-2818
ਕ੍ਰ	-2819
▁ਬਗੈਰ	-2820
▁ਜਿਹੜਾ	-2821
ੁਲ	-2822
ਜਨਕ	-2823
▁ਪ੍ਰਤੀਨਿਧ	-2824
ਸ਼ੁ	-2825
▁ਨਾਬਾਲ	-2826
▁ਬਰਾਮਦ	-2827
and	-2828
ਡੀਓ	-2829
▁ਆਉਂਦੇ	-2830
▁ਅਪਰਾਧੀ	-2831
▁ਘਟਾ	-2832
▁ਖੇਤਰੀ	-2833
▁ਧਾਰਮਿਕ	-2834
ਚਨ	-2835
▁ਚਾਹੁੰਦਾ	-2836
▁ਸਾਮ	-2837
▁ਪੱਕ	-2838
▁ਹਾਜ਼ਰੀ	-2839
▁ਪਹਿਲ	-2840
▁ਇਕੱਠੇ	-2841
ਟੈਕਸ	-2842
ਾਮਿਲ	-2843
▁A	-2844
▁ਇਕੱਤਰ	-2845
▁ਅਪਰਾਧਾਂ	-2846
ਵਰੇ	-2847
ੋਕ	-2848
ੁੱਝ	-2849
▁ਘਰੇਲੂ	-2850
▁ਜਿਹੇ	-2851
▁ਵਰਤੇ	-2852
▁ਆਖਰੀ	-2853
▁ਕਰਵਾਉਣ	-2854
ਕਾਲ	-2855
▁ਪਿਆ	-2856
▁ਕਰਜ਼ਾ	-2857
▁ਤਕਨਾਲੋਜੀ	-2858
▁ਸ਼ਾਂ	-2859
ਫਨਾਮ	-2860
▁ਮੁਅੱਤ	-2861
▁ਇਸ਼	-2862
ਹਿਰੀ	-2863
▁ਦ੍ਰਿੜ	-2864
▁ਰਿਟਾਇਰ	-2865
▁ਹਮੇਸ਼ਾਂ	-2866
ੰਟ	-2867
▁ਵਾਧੇ	-2868
ਜੀਤ	-2869
ਵੀਨ	-2870
▁ਬਣਾਉਣਾ	-2871
▁ਅਧੀਨਗੀ	-2872
ਡੀਆ	-2873
▁ਜਰੂ	-2874
▁ਪਹਿਲਾ	-2875
▁ਚਾਰਜਸ਼ੀਟ	-2876
▁ਗਰੰਟੀ	-2877
▁ਲੰਬ	-2878
▁ਮਸ਼ੀਨ	-2879
▁S	-2880
▁ਜਾਪਦਾ	-2881
ਠਿਤ	-2882
ਰਜਾ	-2883
▁ਹਲਫਨਾਮ	-2884
ਭੂ	-2885
ਿਹ	-2886
▁ਤਤਕ	-2887
ਸਟੀ	-2888
▁ਚਿੰਤਾ	-2889
▁ਨੁਮਾਇੰਦਗੀ	-2890
ਦਰਤ	-2891
▁ਕਵਰ	-2892
▁ਜ਼ਰੀਏ	-2893
▁ਆਮਦਨ	-2894
▁ਤਾਮਿਲ	-2895
▁com	-2896
----	-2897
▁ਨੌਕਰੀ	-2898
ਜਰਾਤ	-2899
▁ਸੰਬ	-2900
▁ਪੰਨਾ	-2901
▁ਇਲੈਕਟ	-2902
ਅੰਦਾਜ਼ੀ	-2903
▁ਸ਼੍ਰੇਣੀਆਂ	-2904
▁ਸਪੱਸ਼ਟੀਕਰਨ	-2905
▁ਇਰਾਦੇ	-2906
▁ਲਾਰਡ	-2907
▁ਖ਼ਤਮ	-2908
ੈਡਿਟ	-2909
▁ਰਜਿਸਟਰੀ	-2910
ਟਸ	-2911
▁ਤਲਾ	-2912
▁ਸੀਮਿਤ	-2913
ਇਨ	-2914
▁ਤੁਲ	-2915
▁ਗ੍ਰਾਂ	-2916
▁ਅਨੁਮਾਨ	-2917
▁ਖਰੀਦਦਾਰ	-2918
ਨਸੀ	-2919
▁ਮੈਨੇ	-2920
▁ਹਰਿਆ	-2921
ਲਟੀ	-2922
▁ਪ੍ਰਸਾਰ	-2923
▁ਘਟਾਉਣ	-2924
▁ਪ੍ਰਮਾਣਿਤ	-2925
▁ਕੀਮਤਾਂ	-2926
ਤਨ	-2927
▁ਮੁਕਤ	-2928
od	-2929
▁ਸੰਪੂਰਨ	-2930
▁ਧਰ	-2931
▁ਪਾਈ	-2932
▁ਹਮਲਾ	-2933
ੱਸਿਆ	-2934
ਕਾਰਾਤਮਕ	-2935
▁ਰਿਕਵਰੀ	-2936
ਟਰਨ	-2937
▁ਵਿਚਾਲੇ	-2938
▁ਉਤਪਾਦਾਂ	-2939
▁ਵਸੂ	-2940
▁ਝਗੜੇ	-2941
▁ਨਵਾਂ	-2942
▁ਅਸਥ	-2943
ਾਹਜ	-2944
▁ਮਾਨਸਿਕ	-2945
▁ਅਹਿ	-2946
▁ਨਵੀ	-2947
▁ਮਤਲਬ	-2948
▁ਸ੍ਰੀਮਤੀ	-2949
▁ਨਿਸ਼ਾਨ	-2950
▁ਮੇਲ	-2951
▁ਦੱਸਣ	-2952
▁ਅਲਾਟਮੈਂਟ	-2953
▁ਹਟਾ	-2954
▁ਸੁਪਰ	-2955
ਬਲੀ	-2956
ਸਿਆਂ	-2957
▁ਵਾਪਸੀ	-2958
ਤਾਰ	-2959
▁ਕੁਸ਼ਲ	-2960
▁ਕਨ	-2961
▁ਕੁਲੈਕਟਰ	-2962
▁ਹੁ	-2963
▁ਵਸੂਲੀ	-2964
▁ਗੁਜਰਾਤ	-2965
▁ਕਰਦੀਆਂ	-2966
▁ਬੈਂਕਾਂ	-2967
▁ਨਿਯੰਤਰਿਤ	-2968
ਾਵਰ	-2969
▁ਦਖਲਅੰਦਾਜ਼ੀ	-2970
१३	-2971
ਨਾਡੂ	-2972
▁ਕਰਜ਼	-2973
▁e	-2974
▁ਗਾਹ	-2975
▁ਚੁਣੇ	-2976
ਿਹਾਰ	-2977
▁ਲੈਂਦਾ	-2978
▁ਸੰਚਾਲਨ	-2979
▁ਬਹਿਸ	-2980
▁ਦਫ਼	-2981
▁ਰਿਪੋਰਟਾਂ	-2982
▁ਇਕਾਈ	-2983
▁ਨਵੀਨੀ	-2984
▁ਰਜਿਸਟ੍ਰੇਸ਼ਨ	-2985
▁ਅਣਹ	-2986
▁ਬਾਇਓ	-2987
ਗਿਣ	-2988
▁ਤਾਲ	-2989
▁ਨਿਗਮ	-2990
▁ਨਵੀਨ	-2991
▁ਧਾਰਕ	-2992
ਜ਼ਾਰੀ	-2993
▁ਦ੍ਰਿਸ਼ਟੀ	-2994
▁ਸਮੱਸਿਆ	-2995
३०	-2996
▁ਇਸ਼ਤ	-2997
▁ਹੋਏਗਾ	-2998
▁ਚੈੱਕ	-2999
▁ਚੇ	-3000
▁ਸਜਾ	-3001
▁wom	-3002
▁ਪ੍ਰਾਰਥਨਾ	-3003
▁ਐਪ	-3004
ਾਰਨੀ	-3005
▁ਇਸ਼ਤਿਹਾਰ	-3006
ਧਾਨੀ	-3007
▁ਆਯਾਤ	-3008
▁ਪੁੱਤਰ	-3009
▁ਪਰਿਭਾਸ਼ਤ	-3010
▁ਸਿਫਾਰਸ਼ਾਂ	-3011
▁ਅਣਹੋਂਦ	-3012
▁ਨਿਰਯਾਤ	-3013
▁ਮਨੋਰੰਜਨ	-3014
▁to	-3015
▁ਅਸਪ	-3016
ਮੀਨੀ	-3017
▁ਕ੍ਰਮਵਾਰ	-3018
▁ਵਿਵਾਦਾਂ	-3019
▁ਮੰਨਣਾ	-3020
▁ਸੰਮੇਲ	-3021
▁ਪਾਬੰਦ	-3022
ਬਾਰ	-3023
ੜਿਆਂ	-3024
▁ਜਿਨਸੀ	-3025
▁ਯੋਜਨਾਵਾਂ	-3026
▁ਰਜਿਸਟਰਾਰ	-3027
ਦਾਸ	-3028
▁ਉੱਤਮ	-3029
▁ਪੜ੍ਹਿਆ	-3030
▁ਧਾਰਣਾ	-3031
,000	-3032
▁ਸੋਧਿਆ	-3033
▁ਅਤ	-3034
▁ਵੋਟ	-3035
▁ਉੱਦਮ	-3036
▁ਐਡਵੋ	-3037
▁ਅਪਾਹਜ	-3038
ਬਾਨੀ	-3039
▁ਆਉਂਦਾ	-3040
▁ਸਤਿਕਾਰ	-3041
▁ਜੀਵ	-3042
ੜਿਆ	-3043
▁ਹਜ਼ਾਰ	-3044
ਰਾਬ	-3045
▁ਬਿਹਤਰ	-3046
▁ਅਸਪਸ਼ਟ	-3047
▁ਰਿਸ਼ਤੇ	-3048
▁ਪਲਾਟ	-3049
▁ਮੁਕਾਬਲੇ	-3050
▁ਕਤਲ	-3051
▁ਗ੍ਰਾ	-3052
▁ਮਨਜ਼ੂਰ	-3053
▁ਕਰਵਾਈ	-3054
ਐੱਮ	-3055
▁ਬਦਲਣ	-3056
੍ਰਿਸ਼ਟ	-3057
▁ਦਫ਼ਤਰ	-3058
ਜੋ	-3059
▁ਅਟਾਰਨੀ	-3060
▁ਆਰਬਿਟਰੇ	-3061
▁ਤਾਮਿਲਨਾਡੂ	-3062
ੋਸ਼ਣ	-3063
ਚਿ	-3064
ous	-3065
▁ਮਨਾ	-3066
ity	-3067
ਸਮ	-3068
ਵਰਤੋਂ	-3069
ਸ਼ੁਦਾ	-3070
▁ਕਿਰ	-3071
▁ਫਰਜ਼	-3072
ਹਾਜ਼	-3073
▁ਖੁੱ	-3074
▁ਕਿਸਮਾਂ	-3075
▁ਮੁਹੰਮਦ	-3076
▁ਲਿਖਤ	-3077
ਮੀਟਰ	-3078
▁ਕਹਿੰਦਾ	-3079
▁ਮਾਂ	-3080
▁ਭਾਸ਼ਣ	-3081
▁ਆਬ	-3082
ਗੁਜ਼ਾਰੀ	-3083
▁ਅਪਣਾਇਆ	-3084
ਭਾਈ	-3085
▁ਮੱਧ	-3086
▁ਇੱਥੋਂ	-3087
▁ਪੂਰਤੀ	-3088
▁ਐਡਵੋਕੇਟ	-3089
▁ਮਾਸ	-3090
ation	-3091
▁ਮੁਲਾ	-3092
▁ਹਰਿਆਣਾ	-3093
ਵਾਸੀ	-3094
ਟੋ	-3095
ਿੱਪ	-3096
ਡੀਨ	-3097
ew	-3098
▁ਪਬਲਿਕ	-3099
▁ਭ੍ਰਿਸ਼ਟ	-3100
▁ਸੰਤੁਲ	-3101
▁ਮੁਅੱਤਲ	-3102
▁ਖੋਲ	-3103
▁l	-3104
▁ਸੰਦੇਸ਼	-3105
▁ਚੰਦਰ	-3106
ਪਟਰ	-3107
pp	-3108
▁ਕੱਟ	-3109
ਡੀਏ	-3110
ਲੀਅਤ	-3111
▁ਨਤੀਜਿਆਂ	-3112
▁ਵੈਧ	-3113
vi	-3114
ਾਲਾ	-3115
▁ਸਹਿਯੋਗ	-3116
▁ਹੋਰਾਂ	-3117
▁ਫੌ	-3118
▁ਸਾਧਨ	-3119
▁ਤਬਾਦਲੇ	-3120
▁ਡਿਪਟੀ	-3121
ਹਾਨੂੰ	-3122
▁ਆਂ	-3123
▁ਯਾਤਰਾ	-3124
▁ਪਰਿਵਾਰਕ	-3125
▁ਨਿਭਾਉਣ	-3126
▁ਪੇਸ਼ਕਾਰੀ	-3127
ਮਾਨੀ	-3128
▁ਤੁਹਾਨੂੰ	-3129
ਥਾ	-3130
▁ਭਰੋਸੇਯੋਗ	-3131
▁ਪੜ੍ਹਨ	-3132
▁ਕਾਰਗੁਜ਼ਾਰੀ	-3133
ਅਪੀਲ	-3134
▁ਸੂਚਨਾ	-3135
▁ਏਕੜ	-3136
▁ਮਾਲਕੀ	-3137
▁ਸ਼ਿਕਾਇਤਾਂ	-3138
II	-3139
▁ਸਿੱਖਿਅਤ	-3140
▁ਸਵੇ	-3141
▁ਆਕਰ	-3142
▁ਦੁਰਵਰਤੋਂ	-3143
ਡੀਸ਼ੀਅਲ	-3144
▁ਸਭਿਆਚਾਰ	-3145
▁ਰਾਤ	-3146
ਅਧ	-3147
ਡੈਂਟ	-3148
ੋਧਿਤ	-3149
ਵਾਹ	-3150
ਜ਼ੁਰ	-3151
▁ਆਪਸੀ	-3152
▁ਬਿਹਾਰ	-3153
▁ਪ੍ਰੋਵ	-3154
ਲਾਮੀ	-3155
▁ਪੇਟੈਂਟ	-3156
▁ਐਪਲੀ	-3157
ਮੂਲੀਅਤ	-3158
▁ਮਿਲਦਾ	-3159
ਬਾਤ	-3160
ਵਾਏ	-3161
▁ਅਕਸ	-3162
▁ਅੰਦਾ	-3163
▁ਨਿਰਮਾ	-3164
ਫੇ	-3165
▁ਗ਼ੈਰ	-3166
▁ਸੈਂਟਰ	-3167
▁ਸ਼੍ਰੀਮਤੀ	-3168
▁ਇੰਸਟੀ	-3169
▁ਗ੍ਰਹਿਣ	-3170
▁ਆਖਰ	-3171
▁ਡਿਫ	-3172
▁ਨਜ਼ਰਬੰਦੀ	-3173
▁ਕਾਂ	-3174
▁ਡਰਾ	-3175
ਨੀਆ	-3176
▁ਤੇਜ਼ੀ	-3177
ੱਬ	-3178
▁ਗਾਂ	-3179
▁ਵਿਚਾਰੇ	-3180
ਕੋਣ	-3181
ਣਾਂ	-3182
▁ਗੱਲਬਾਤ	-3183
ਸਾਬ	-3184
ੰਮਲ	-3185
ਦਮਿਕ	-3186
ੈਸਰ	-3187
▁me	-3188
▁ਫਿਲ	-3189
▁ਭਾਗੀ	-3190
▁ਹਾਦ	-3191
▁ਆਖਰਕਾਰ	-3192
▁ਸ਼ਮੂਲੀਅਤ	-3193
▁ਦ੍ਰਿਸ਼ਟੀਕੋਣ	-3194
▁....	-3195
▁ਅਹੁਦਾ	-3196
▁ਰਹੀਆਂ	-3197
▁ਨਿਰਣਾਇਕ	-3198
ਟਨਾ	-3199
▁ਦੱਸਣਾ	-3200
ਪੈ	-3201
▁ਬਾਂ	-3202
▁ਸਨਮਾਨ	-3203
ੱਲੀ	-3204
ਸ਼ਮ	-3205
▁ਤੀਜੀ	-3206
ਕਾਏ	-3207
▁ਸੋਧਾਂ	-3208
▁ਮੁਕੰਮਲ	-3209
,,	-3210
▁ਕ੍ਰੈਡਿਟ	-3211
▁ਆਰਬਿਟਰੇਟਰ	-3212
▁ਮਿਸ਼	-3213
▁ਸੀਮਾਵਾਂ	-3214
▁ਸੰਪਰ	-3215
ਦੀਕ	-3216
▁ਖੋਲ੍ਹ	-3217
▁ਹਾਲਾਤਾਂ	-3218
▁ਜਾਤੀ	-3219
ate	-3220
▁ਡਰ	-3221
▁ਫਾਇ	-3222
ਧਰਾ	-3223
ਿੱਧ	-3224
▁ਠਹਿਰਾਉਣ	-3225
▁ਸਪੀ	-3226
▁ਅਕਾਦਮਿਕ	-3227
▁ਲੋੜੀਂਦਾ	-3228
▁ਸੰਕਲ	-3229
ਖਮ	-3230
ਿਸਟਮ	-3231
▁ਸਫਲਤਾ	-3232
▁ਕੰਟਰੋਲ	-3233
ਾਰਿਆਂ	-3234
ਸ਼ੀਲਤਾ	-3235
▁ਸਲਾਹਕਾਰ	-3236
▁ਪ੍ਰਤੀਕਰਮ	-3237
▁ਕਮੀ	-3238
ਿਓ	-3239
▁ਅਮਰੀ	-3240
▁ਅਰਥਾਂ	-3241
▁ਯੂਨਿਟ	-3242
▁ਮਦਰਾ	-3243
▁ਗੁਣਵ	-3244
▁ਮਦਰਾਸ	-3245
▁ਵਰਗੀ	-3246
ੌਲ	-3247
ੀਕਰਨ	-3248
▁ਰੰਗ	-3249
ਗਾਂ	-3250
▁ਗਜ਼	-3251
ਪੇ	-3252
ਲਜ਼ਾਮ	-3253
▁ਜਿਹੜੀਆਂ	-3254
▁E	-3255
ਤਰੇ	-3256
ਤਿਆਂ	-3257
▁ਅਕਸਰ	-3258
▁ਗ੍ਰਾਂਟ	-3259
▁ਏਅਰ	-3260
▁ਆਏ	-3261
▁ਮੁੰ	-3262
▁ਦ੍ਰਿੜਤਾ	-3263
▁ਠੋਸ	-3264
▁ਟੈਲੀ	-3265
▁ਕਾਨ	-3266
▁ਇਲਜ਼ਾਮ	-3267
▁ਸ਼ਰਮਾ	-3268
ਕੂ	-3269
▁ਹਦਾਇਤ	-3270
▁ਕਰਵਾਏ	-3271
▁ਸਰਵੇ	-3272
▁ਦਿਵਸ	-3273
▁ਪੇਂਡੂ	-3274
ਿੱਤਰ	-3275
▁ਇੰਸਟੀਚਿ	-3276
▁ਨੇੜ	-3277
▁ਰਿਹਾਇਸ਼ੀ	-3278
▁ਵਿਲ	-3279
ੱਖਣ	-3280
▁ਪਲ	-3281
▁ਫੈ	-3282
ਨਿਯਮ	-3283
▁ਰਾਇ	-3284
▁ਸੜਕ	-3285
▁ਵਿਧ	-3286
▁ਕਾਰਕ	-3287
▁ਕੁਦਰਤ	-3288
▁ਗੁਪਤ	-3289
▁ਸਮਝਣ	-3290
ਵੈਲ	-3291
▁ਸਰਬ	-3292
▁ਡੂੰ	-3293
▁ਕੇਵਲ	-3294
ਸਪੈਕਟਰ	-3295
▁ਜੇਲ	-3296
▁ਆਦਮੀ	-3297
▁ਪੁਰਾਣੇ	-3298
▁ਜਵਾਬਦੇਹੀ	-3299
▁ਰੇਟ	-3300
▁ਇਕਾਈਆਂ	-3301
▁ਸੰਮੇਲਨ	-3302
▁ਹਿੱਸਿਆਂ	-3303
ਵਿਆ	-3304
▁ਕਸਟ	-3305
▁ਸਮਾਰ	-3306
▁ਦਾਅਵੇਦਾਰ	-3307
▁V	-3308
▁ਕਨੂੰਨ	-3309
ੱਤੇ	-3310
▁ਰਾਜਸਥਾਨ	-3311
ਮਸ਼	-3312
▁ਲੈਂਡ	-3313
ਵਰਕ	-3314
੍ਰੇਟ	-3315
ies	-3316
▁ਦਾਅਵਿਆਂ	-3317
▁ਬਕਾਏ	-3318
▁ਲੇਬਰ	-3319
▁ਸੰਸ਼ੋਧਨ	-3320
▁ਭਾਲ	-3321
▁ਵਚਨ	-3322
▁ਕੋਰਟਾਂ	-3323
▁ਘਟਨਾਵਾਂ	-3324
ਕੋਰਟ	-3325
▁ਗਰੀ	-3326
▁ਵਿਗਾ	-3327
▁ਸਰਕੂਲ	-3328
੍ਰਾਈ	-3329
▁ਐੱ	-3330
▁ਸਿਸਟਮ	-3331
▁ਸੁਣਿਆ	-3332
▁ਨਗਰ	-3333
▁ਕਿਰਾਇਆ	-3334
▁ਨਮੂ	-3335
▁ਹੋਣਗੀਆਂ	-3336
▁ਵਰਤਿਆ	-3337
▁ਸੰਬੰਧਾਂ	-3338
▁ਵੈਧਤਾ	-3339
ਆਈਟੀ	-3340
ਾਂਗੇ	-3341
▁ਸਿਵਾਏ	-3342
▁ਐਪਲੀਕੇਸ਼ਨ	-3343
▁ਬਿਮਾਰੀ	-3344
▁ਪੱਛਮੀ	-3345
▁ਇਸ਼ਾਰਾ	-3346
xad	-3347
▁ਗ੍ਰਿਫਤਾਰ	-3348
ਟਰੋ	-3349
▁ਦੁਕਾਨ	-3350
▁ਚੈਪਟਰ	-3351
▁ਪਈ	-3352
▁ਚਾਹੁੰਦੇ	-3353
▁ਵਚਨਬੱਧ	-3354
▁ਜਾਇਦਾਦਾਂ	-3355
ੰਦੀ	-3356
▁ਪ੍ਰਾਵ	-3357
ਥਾਮ	-3358
ਬਾਦੀ	-3359
▁ਸਾਵ	-3360
▁ਤੁਲਨਾ	-3361
▁ਬੇਲੋ	-3362
▁ਇੰਡ	-3363
▁ਮੇਰੀ	-3364
▁ਪਾਬੰਦੀਆਂ	-3365
▁ਜੁਰਮਾਨੇ	-3366
੍ਰੇਡ	-3367
▁ਅੱਤ	-3368
▁ਹਿਸਾਬ	-3369
▁ਪ੍ਰਕ੍ਰਿਆ	-3370
▁ਐਕ	-3371
▁ਰਣ	-3372
ੰਤੂ	-3373
ਇੱਛ	-3374
ਦਾਇਕ	-3375
▁ਭਾਰੀ	-3376
▁ਵਰਤੀ	-3377
ਭਾਰ	-3378
▁ਅਗਲੀ	-3379
▁ਜਵਾਬਦਾਤਾ	-3380
ਾਈਡ	-3381
▁and	-3382
▁ਪ੍ਰੋਗਰਾ	-3383
ਵੇਦਨ	-3384
ਵਾਇ	-3385
▁ਡਰਾਈ	-3386
▁ਅਨੁਸ਼ਾਸਨੀ	-3387
▁ਆਂਧਰਾ	-3388
▁ਅਨੰਦ	-3389
▁ਖਾਤ	-3390
▁ਪਾਠ	-3391
▁ਜਾਤੀਆਂ	-3392
▁ਦੁਹਰਾਇਆ	-3393
;,	-3394
▁ਹਿੰਦੀ	-3395
▁ਵਿਚਲੀ	-3396
▁ਵੇਰਵਾ	-3397
ਵਰਾ	-3398
▁ਆਸ	-3399
▁ਮਿਲਣ	-3400
▁ਅਸਰ	-3401
▁ਸਲ	-3402
ਨਿਟੀ	-3403
▁ਪਲੇ	-3404
▁ਪ੍ਰੇਰਿਤ	-3405
ੋਜਨ	-3406
ੁਪਤਾ	-3407
▁ਟਿੱਪ	-3408
▁ਧਰਤੀ	-3409
▁ਸਭਾਵਾਂ	-3410
▁ਪੂਰਨ	-3411
▁ਭੰਡ	-3412
▁ਪ੍ਰੋਗਰਾਮਾਂ	-3413
▁ਇਥੋਂ	-3414
▁ਦਲੀਲਾਂ	-3415
▁ਮੀਟਰ	-3416
▁ਟੈਂਡਰ	-3417
▁ਵਾਂਝ	-3418
▁ਸਵੇਰੇ	-3419
▁ਨਿਜੀ	-3420
▁ਰੋਕਿਆ	-3421
ਧੁ	-3422
ਹਾਂ	-3423
▁ਸ਼ੰ	-3424
ੰਨ	-3425
▁ਪੈਂ	-3426
▁ਆਯੋਜਨ	-3427
▁ਫੰਡਾਂ	-3428
▁ਮੁਲਾਕਾ	-3429
▁ਏਕੀ	-3430
▁ਫਰਮ	-3431
▁ਤਤਕਾਲ	-3432
▁ਬਣਾਉਂਦਾ	-3433
ner	-3434
▁ਦਸ	-3435
▁III	-3436
▁ਸਾਜਿ	-3437
▁ਗਾਂਧੀ	-3438
▁ਪ੍ਰਾਵਧਾਨ	-3439
▁ਸੰਪਰਕ	-3440
▁ਬ੍ਰਿ	-3441
▁ਸਕਿਆ	-3442
▁ਜੂ	-3443
▁ਮੰਡਲ	-3444
ਡੀਨੈਂਸ	-3445
▁ਕਮਜ਼ੋਰ	-3446
▁ਜ਼ਮੀਨੀ	-3447
▁ਨਜਿੱਠਿਆ	-3448
▁ਨਾਬਾਲਗ	-3449
▁ਹੋਏਗੀ	-3450
ਿਫ	-3451
▁ਖੇਡ	-3452
ਗਲ	-3453
▁ਮਜ਼ਦ	-3454
▁ਸ਼ੁੱਧਤਾ	-3455
ਗਿਣਤੀ	-3456
▁ਬਾਜ਼ਾਰ	-3457
▁ਗਾਰ	-3458
▁ਬਣੇ	-3459
ਗੋ	-3460
▁ਬਜ਼ੁਰ	-3461
ਪੁ	-3462
▁ਲਿਆਂਦਾ	-3463
▁ਆਰਡੀਨੈਂਸ	-3464
▁ਜੁਡੀਸ਼ੀਅਲ	-3465
ਪਕਾਂ	-3466
▁ਨਿਯੁਕਤੀਆਂ	-3467
▁ਬਦਲਿਆ	-3468
▁ਸਰਕੂਲਰ	-3469
▁ਪ੍ਰਕਿਰਿਆਵਾਂ	-3470
▁ਸ਼ੀ	-3471
▁ਸਪੁਰ	-3472
ਦੇਹ	-3473
ੇਂਜ	-3474
▁ਮਰੀਜ਼	-3475
▁ਗੁਪਤਾ	-3476
▁ਬੰਗਾਲ	-3477
▁ਨਿਲਾਮੀ	-3478
ਸੀਪਲ	-3479
▁ਨੇੜੇ	-3480
ਉਂਦਿਆਂ	-3481
▁ਐੱਸ	-3482
▁ਹੋਣੇ	-3483
ਕੰ	-3484
▁ਵੇਰਵਿਆਂ	-3485
ਵੀਜ਼	-3486
▁ਜਿਹੀ	-3487
▁ਸੰਕਲਪ	-3488
▁ਛਾ	-3489
▁ਥੋ	-3490
▁ਅਲਾ	-3491
▁ਨਜ਼ਰੀਏ	-3492
ਐਲਪੀ	-3493
▁ਐਵਾਰਡ	-3494
ip	-3495
▁ਰਸਮੀ	-3496
▁ਰਾਸ਼ੀ	-3497
▁ਉਲਝ	-3498
▁ਗੰਭੀਰਤਾ	-3499
▁ਸਾਜ਼	-3500
▁ਰਿਜ਼ਰਵ	-3501
▁pro	-3502
▁ਵਾਂ	-3503
▁ਇਸਨੂੰ	-3504
▁ਸਟੀ	-3505
ਰਲਾ	-3506
▁ਕਾਰਡ	-3507
▁ਸੌਂਪਿਆ	-3508
ਸਲਾਂ	-3509
▁ਗ੍ਰਿਫਤਾਰੀ	-3510
▁ਸਾਜਿਸ਼	-3511
▁ਰਾਖੀ	-3512
▁ਮੈਜਿਸਟ	-3513
ਬਈ	-3514
.-	-3515
ment	-3516
▁ਸ਼ੁਰੂਆਤੀ	-3517
▁ਕਿਲੋ	-3518
▁ਮੁਕਾਬਲਾ	-3519
▁ਦੇਵੇਗੀ	-3520
ਿਕਤਾ	-3521
▁ਵਿਗਾੜ	-3522
▁ਬਿੰ	-3523
▁ਡੇਟਾ	-3524
▁ਫਰਮਾਨ	-3525
१४	-3526
▁ਮੁਫਤ	-3527
ਕਰਾ	-3528
▁ਅਧਿਆਪਕਾਂ	-3529
ਾਨਾਂ	-3530
▁ਦੋਸ਼ੀਆਂ	-3531
▁ਮੈਜਿਸਟ੍ਰੇਟ	-3532
ਡੀਆਂ	-3533
▁ਖੋਜਾਂ	-3534
▁ਤਬਾਦਲਾ	-3535
▁ਟਾਡਾ	-3536
▁ਮਾਲਕਾਂ	-3537
ਲਾਈਨ	-3538
▁ਏਜੰਟ	-3539
ਵਾਹੀ	-3540
▁ਸਟਾਫ	-3541
▁ਸਮੁੱਚੇ	-3542
▁ਸਪੀਕਰ	-3543
ਦਾਂ	-3544
▁ਅਦਾਰਿਆਂ	-3545
▁ਪਦਾਰਥਕ	-3546
▁ਮੁੰਬਈ	-3547
▁ਅਸਥਾਈ	-3548
▁ਮੰਨਦਾ	-3549
▁ਸ਼ਾਂਤੀ	-3550
ਫੀਆ	-3551
▁ਭੰਡਾਰ	-3552
▁ਅਮਲ	-3553
▁ਤਾਜ਼ਾ	-3554
ੋਲੋਜੀ	-3555
▁ਐਸਸੀਆਰ	-3556
▁ਰਿਟਾਇਰਮੈਂਟ	-3557
▁ਆਬਕਾਰੀ	-3558
ਰੀਆ	-3559
▁ਸ਼ੇਅਰਾਂ	-3560
ਅਧਿਕਾਰ	-3561
▁ਸਟੇਸ਼ਨ	-3562
▁ਗਰਭ	-3563
▁ਵਸੂਲ	-3564
▁i	-3565
▁ਉਠਾਏ	-3566
▁ਅਖੀ	-3567
▁ਗੈਸ	-3568
▁ਵਿਭ	-3569
▁[(	-3570
▁ਰਿਟਰਨ	-3571
▁ਤਜ	-3572
ਸਤਾਖਰ	-3573
▁ਚੋਣਾਂ	-3574
ੰਸਾ	-3575
▁ਰਾਈ	-3576
▁ਅਹਾ	-3577
▁ਪ੍ਰਿੰਸੀਪਲ	-3578
▁ਮੁਕੱਦਮੇਬਾਜ਼ੀ	-3579
▁ਮਨਾਹੀ	-3580
ੈਂਪ	-3581
ਕ੍ਰਿਤ	-3582
▁ਰੋਕਥਾਮ	-3583
▁ਅੱਗ	-3584
▁ਸਾਲਸ	-3585
▁ਤਸਦੀਕ	-3586
▁..	-3587
ov	-3588
▁ਲਾਈਨ	-3589
▁ਆਵਾਜਾਈ	-3590
▁ਮਲ	-3591
▁ਮਨੀ	-3592
▁ਸੁਣਾਇਆ	-3593
ਸੀਟੀ	-3594
ੰਤਰੀ	-3595
ੱਤਿਆ	-3596
ਧੁਨਿਕ	-3597
ਵੇਸ਼ਨ	-3598
▁ਡੂੰਘ	-3599
▁ਸਮੀਕਰਨ	-3600
▁ਬਿਆ	-3601
▁ਅਸਫਲਤਾ	-3602
der	-3603
▁ਦਰਸਾਉਂਦੇ	-3604
ਉਚਿਤ	-3605
▁ਪਦਾਰਥਾਂ	-3606
ਵੀਰ	-3607
▁ਹਸਤਾਖਰ	-3608
ਰੇਟ	-3609
▁ਅਰਦਾਸ	-3610
▁ਮਹੱਤਤਾ	-3611
▁ਹਫ਼	-3612
▁ਕਾਰਜਕਾਲ	-3613
ਾਂਸ	-3614
▁ਤਬਦੀਲੀਆਂ	-3615
▁ਇੰਜੀਨੀਅਰਿੰਗ	-3616
▁ਡੀਲ	-3617
▁ਲੰਘ	-3618
▁ਬਦਲੇ	-3619
▁ਬਿੰਦੂ	-3620
▁ਬੁਲਾਇਆ	-3621
ਸਮੇ	-3622
▁ਡਿਫਾਲ	-3623
▁ਜ਼ਾਬਤਾ	-3624
▁ਕਹਿਣਾ	-3625
▁ਸਾਰਿਆਂ	-3626
▁ਮਸ਼ੀਨਰੀ	-3627
▁ਰੁਝ	-3628
].	-3629
ਿਸਟ	-3630
▁ਪ੍ਰਗਟਾਵੇ	-3631
ਦੋ	-3632
▁ਲਿੰਗ	-3633
▁ਸੀਬੀਆਈ	-3634
▁ਐਸਸੀਸੀ	-3635
▁ਫੋਰਮ	-3636
ਤਕਾਰ	-3637
▁ਕਾਰਕਾਂ	-3638
▁ਸਾਜ਼ਿਸ਼	-3639
▁ਪਲਾਂ	-3640
▁ਪੰਚਾਇਤ	-3641
ੱਬੇ	-3642
ੁੱਪ	-3643
ਸਿੰਗ	-3644
▁ਜਹਾਜ਼	-3645
ਪੀਏ	-3646
▁ਮਤੇ	-3647
੍ਰਾਨਿਕ	-3648
▁ਮਿਲਦੀ	-3649
▁ਲੈਂਦੇ	-3650
▁app	-3651
▁ਅਖੀਰ	-3652
▁ਪ੍ਰਸ਼	-3653
▁ਆਧੁਨਿਕ	-3654
▁ਦੰਡ	-3655
▁ਐਕਸਚ	-3656
▁ਮਸ	-3657
▁ਸਖਤੀ	-3658
▁ਲੜਕੀ	-3659
▁ਪਾਵਰ	-3660
ਸ਼ਾਵਾਂ	-3661
▁ਸੌਂਪੀ	-3662
▁ਨਵੀਨਤਾ	-3663
▁ਫੌਜ	-3664
▁ਜਿਸਨੂੰ	-3665
ਾਂਸੀ	-3666
▁ਥਾਣੇ	-3667
▁n	-3668
ਾਨਕ	-3669
▁ਖੁਸ਼ੀ	-3670
▁ਉਧਾਰ	-3671
▁ਹੱਤਿਆ	-3672
▁ਕਸ	-3673
ਤਸ	-3674
ਭੋਗ	-3675
ੰਗਾਂ	-3676
▁ਡਿਗਰੀ	-3677
▁ਸਮਾਪਤੀ	-3678
▁ਸਕਣ	-3679
▁ਮੁਲਾਕਾਤ	-3680
ਸੋ	-3681
▁ਬੇਰ	-3682
ab	-3683
ਤਰਾ	-3684
ਮੈਟ	-3685
▁ਨੌਕਰ	-3686
▁ਭੇਜਣ	-3687
▁ਸਕੇਲ	-3688
▁ਅਚੱਲ	-3689
▁ਗਜ਼ਟ	-3690
▁ਡਿਜ਼	-3691
▁ਪਰੰਤੂ	-3692
▁ਚੀਫ	-3693
▁ਦਰਾਂ	-3694
▁ਪ੍ਰਤ	-3695
▁ਸਰਗਰ	-3696
mun	-3697
▁ਉਪਰ	-3698
▁ਸੰਤੁਸ਼ਟੀ	-3699
▁ਸੰਸਦੀ	-3700
▁ਵੱਖਰੀਆਂ	-3701
▁ਤਜਰ	-3702
▁ਕੰਪਿ	-3703
▁ਅਯੋਗਤਾ	-3704
▁ਏਜੰਸੀਆਂ	-3705
▁ਪਏ	-3706
th	-3707
ਨਾਹ	-3708
▁ਰੱਖਦੀ	-3709
ਚਾਰੇ	-3710
▁ਉਠਾਇਆ	-3711
ਨੋ	-3712
▁ਮਿਆਰ	-3713
੍ਰੈ	-3714
▁ਰਿਆ	-3715
▁ਬਰਖਾਸਤ	-3716
▁ਇਲੈਕਟ੍ਰਾਨਿਕ	-3717
▁ਐਕਸਚੇਂਜ	-3718
als	-3719
▁ਅਪਮਾਨ	-3720
▁ਅੱਠ	-3721
▁ਤੀਜੇ	-3722
ੈਰਿਫ	-3723
▁ਕਿਹ	-3724
▁ਸੰਤੁਲਨ	-3725
▁ਪ੍ਰੋਫ	-3726
▁ਪੱਧਰੀ	-3727
▁ਸਿੱਧੀ	-3728
ਵੀਨਾਮ	-3729
▁ਬਾਹਰੀ	-3730
▁ਅਚਾਨਕ	-3731
ਨਿਰਦੇਸ਼	-3732
▁ਅਨੁਸੂਚੀ	-3733
▁ਜੋਖਮ	-3734
▁ਸੁਣਨ	-3735
▁ਜੰ	-3736
▁ਅੰਸ਼ਕ	-3737
▁ਕ੍ਰਿਸ਼ਨ	-3738
▁[]]	-3739
▁ਖਣਿਜ	-3740
▁women	-3741
▁ਬੰਨ	-3742
▁ਪਿਛਲੀ	-3743
▁ਰਾਓ	-3744
▁ਅਵਸਰ	-3745
▁ਦੂਰੀ	-3746
▁ਵਿਹਾਰ	-3747
▁ਬਲਾਤਕਾਰ	-3748
▁ਪਾਏ	-3749
ਵਾਇਤੀ	-3750
▁ਵਾਅ	-3751
▁ਕੇਰਲਾ	-3752
▁ਗੱ	-3753
▁ਉਪਭੋਗ	-3754
ਸੁ	-3755
▁ਰਹਿੰਦੇ	-3756
▁ਹਲਫਨਾਮੇ	-3757
;.	-3758
▁ਖਪਤਕਾਰਾਂ	-3759
▁ਸੈਕ	-3760
▁ਗਿਰਵੀਨਾਮ	-3761
ਸਾਰੀ	-3762
▁ਖੰਡ	-3763
▁ਪੈਸ	-3764
▁ਬਿਆਨਾਂ	-3765
▁ਸਹਿਯੋਗੀ	-3766
▁ਸ਼ੇ	-3767
▁ਟਾਈਗਰ	-3768
▁ਬਹਾਲ	-3769
▁ਵੋ	-3770
▁ਅਹਾਤੇ	-3771
▁ਸਪੁਰਦਗੀ	-3772
▁ਨਕਦ	-3773
▁ਸੁਤੰਤਰਤਾ	-3774
ਦਰਸ਼	-3775
▁ਪ੍ਰਸ਼ੰਸਾ	-3776
ੇਦ	-3777
▁ਰੋਜ਼	-3778
▁ਰੋਸ਼ਨੀ	-3779
ਡਿਟ	-3780
ੋਨੀ	-3781
▁ਡਿਵੈਲ	-3782
▁ਹਾਈਕੋਰਟ	-3783
▁ਖੂਨ	-3784
▁ਵਧਾਈਆਂ	-3785
▁ਅਸੈਂ	-3786
▁ਕਰਾਸ	-3787
ur	-3788
▁ਵਧਾਈ	-3789
▁ਮਿਲਾ	-3790
▁ਉਜਾ	-3791
▁ਕਲਾਸ	-3792
▁ਇੰਗਲ	-3793
▁ਅਸਮਰੱਥ	-3794
▁ਨੈਟ	-3795
ਪੂਰਵਕ	-3796
▁ਵਧਾਇਆ	-3797
ਹਿਮੀ	-3798
▁ਰਹੇਗਾ	-3799
▁ਬੱਸ	-3800
▁ਪ੍ਰਤੀਕ	-3801
▁man	-3802
▁ਗੁਆ	-3803
▁ਲੋਕਤੰਤਰ	-3804
▁ਲੇਖਾਂ	-3805
ਰਜ	-3806
▁ਫਾਂਸੀ	-3807
▁ਮਾਪਿਆਂ	-3808
▁ਠੇਕੇਦਾਰ	-3809
▁ਸ਼ਹਿਰੀ	-3810
▁ਐਕਸੈਡ	-3811
▁ਵਿਕਰੇ	-3812
▁ਬਣਦੀ	-3813
▁ਮੰਗੀ	-3814
▁ਸ਼ਡਿ	-3815
ੂਲੀ	-3816
▁ਸਮੂਹਾਂ	-3817
gy	-3818
▁ਜਿਹੜੇ	-3819
▁ਲਗਾਉਣਾ	-3820
ਏਟ	-3821
▁ਦਰਸਾਈ	-3822
ਸੀਅਤ	-3823
ਜਿਵੇਂ	-3824
ਰੀਬਨ	-3825
ਾਵਲੀ	-3826
▁ਭੂਮੀ	-3827
▁ਟੈਰਿਫ	-3828
▁ਪੱਤਰਾਂ	-3829
▁ਜੁੜਿਆ	-3830
▁ਖਿੱਚਿਆ	-3831
▁ਤਕਰੀਬਨ	-3832
ਿਟੀ	-3833
▁ਤਹਿ	-3834
ਘਨ	-3835
▁ਟੇ	-3836
ਲਤਵੀ	-3837
ਾਚਾਰ	-3838
▁ਦੇਵੀ	-3839
▁ਪਿੱਛ	-3840
ਐਸਆਈ	-3841
ਬੁੱਝ	-3842
ਫਰੰਸ	-3843
ਜਿਸ	-3844
▁ਸਥਿਰ	-3845
▁ਭੋਜਨ	-3846
▁ਸਰਵੇਖਣ	-3847
▁ਨਿਰਮਾਤਾ	-3848
▁v	-3849
▁ਚੰਗੇ	-3850
▁ਪਿੱਛੇ	-3851
ਸ਼ੂ	-3852
▁ਹਲਫੀਆ	-3853
▁ਪਰਿਵਰਤ	-3854
▁ਫੇ	-3855
ਐਸਸੀ	-3856
▁ਵਿਗਿਆਨਕ	-3857
ਯਤਾ	-3858
▁ਅਵਸਥਾ	-3859
▁)	-3860
▁ਇੰਦਰਾ	-3861
▁ਵਾਪਰ	-3862
▁ਮੁਲਤਵੀ	-3863
▁ਸੰਵੇਦਨ	-3864
ਿੰਟ	-3865
ਲਾਘਾ	-3866
ract	-3867
▁ਰਾਹ	-3868
▁ਸਾਈ	-3869
▁ਫਾਈਲ	-3870
ਾਸਲ	-3871
ੋਬਾਈਲ	-3872
▁ਮਰਨ	-3873
▁ਅਸੈਂਬਲੀ	-3874
▁ਗਿ	-3875
▁ਜਨਤਾ	-3876
ਪਨੀਯਤਾ	-3877
▁ਜੇਲ੍ਹ	-3878
▁ਸਾਡੀਆਂ	-3879
▁ਮਜ਼ਦੂਰ	-3880
▁ਇੰਸਪੈਕਟਰ	-3881
▁ਖ਼ੁ	-3882
▁ਅਗਾ	-3883
▁ਅਲੀ	-3884
▁ਡਿਜੀ	-3885
▁ਅਣਜਾਣ	-3886
▁ਹਥਿਆਰਾਂ	-3887
▁ਆਡਿਟ	-3888
▁ਤੁਹਾਡੀ	-3889
▁ਮੈਰ	-3890
▁ਟਿਕਾ	-3891
▁ਅਰੰਭ	-3892
▁ਪੋਰਟ	-3893
▁ਲੱਗਣ	-3894
▁ਕਾਨਫਰੰਸ	-3895
▁ਗਾਰੰਟੀ	-3896
▁ਪੜ੍ਹੇ	-3897
▁ਅਣਉਚਿਤ	-3898
▁ਅਧਿਆਪਕ	-3899
▁ਝੂਠੇ	-3900
▁ਯੂਐਸ	-3901
▁ਦਿਖਾਈ	-3902
▁ਪਲਾਂਟ	-3903
▁ਤਾਲਮੇਲ	-3904
▁ਪਹੁੰਚੇ	-3905
ਖੰਡ	-3906
▁ਨੈਨ	-3907
▁ਮਿਲੇ	-3908
▁ਨਵੀਨੀਕਰਣ	-3909
▁ਸਾਥੀ	-3910
▁ਸਮਗਰੀ	-3911
▁ਭੜ	-3912
▁ਜਤਾ	-3913
▁ਲਾਭਾਂ	-3914
▁ਸ਼ਲਾਘਾ	-3915
ਪੰ	-3916
ਾਲੀਆਂ	-3917
▁ਜੋੜਿਆ	-3918
▁ਬਰਾਬਰੀ	-3919
▁ਵਿਲੱਖਣ	-3920
ਲਾਤ	-3921
▁ਸੈਕਟਰੀ	-3922
▁ਅਜ਼	-3923
▁ਜਾਣੂ	-3924
▁ਖਾਤਿਆਂ	-3925
▁ਵਕੀਲਾਂ	-3926
▁ਅਸਵੀਕਾਰ	-3927
▁ਵਰਗੀਕਰਣ	-3928
▁ਝਗੜਾ	-3929
▁ਕੋਲਾ	-3930
▁ਗਠਿਤ	-3931
▁ਕੰਮਕਾ	-3932
ੈਂਕ	-3933
ਂਡ	-3934
▁ਜਾਵੇਗੀ	-3935
ਸਾਦ	-3936
▁ਮਹਾਨ	-3937
▁ਮੁਦਈਆਂ	-3938
▁ਦਾਜ	-3939
▁ਨਾਗ	-3940
▁ਪ੍ਰਚਾਰ	-3941
▁ਪਰਿਵਰਤਨ	-3942
▁ਅੱਖ	-3943
▁ਰਿਆਇ	-3944
ਿਸੋ	-3945
▁ਨਿਰਾ	-3946
▁ਸਿੱਧਾ	-3947
▁ਆਬਾਦੀ	-3948
▁ਮਨਮਾਨੀ	-3949
ਸੰਦ	-3950
▁manner	-3951
ਸਫ	-3952
ਬਰਦ	-3953
▁ਗੋਪਨੀਯਤਾ	-3954
ੂਟ	-3955
▁ਮਹਾ	-3956
▁ਹਾਸਲ	-3957
▁ਇੰਟਰਨੈ	-3958
▁ਹੋਟਲ	-3959
▁ਆਨ	-3960
ਮੁਕਤ	-3961
▁ਥਾਵਾਂ	-3962
▁ਮਤਾ	-3963
ਂਸਪ	-3964
▁ਰਵਾਇਤੀ	-3965
▁ਐਸਐਲਪੀ	-3966
▁ਜਿਹਾ	-3967
▁ਲਾਈ	-3968
▁ਤਜਵੀਜ਼	-3969
▁ਮੁਦਰਾ	-3970
▁ਪ੍ਰਦੂ	-3971
▁ਮੰਨਦੇ	-3972
▁ਡਰਾਈਵਰ	-3973
▁ਮਦ	-3974
▁ਪ੍ਰਣਾਲੀਆਂ	-3975
▁ਦਿਮਾ	-3976
ੌਲੀ	-3977
▁ਇਹੀ	-3978
▁ਬ੍ਰ	-3979
▁ਸਵਾ	-3980
▁ਵਸਨੀ	-3981
ਗੜ	-3982
ouse	-3983
ਸਮੇਂ	-3984
▁ਇਨਸਾ	-3985
▁ਸਾਂਝਾ	-3986
ਇੰਟ	-3987
▁ਥੋੜ	-3988
ਜਵਾਨ	-3989
ਰੋਸੀ	-3990
ਅਧਿਕਾਰਤ	-3991
▁ਅਪਰਾਧਕ	-3992
ਲਰ	-3993
▁ਸੰਸਕਰਣ	-3994
ce	-3995
ਕਲਾਂ	-3996
▁ਜੈਨ	-3997
▁ਪ੍ਰਬੰਧਕ	-3998
▁ਖਾਂ	-3999
▁ਵਿਗਿਆ	-4000
ch	-4001
▁ਦੱਸਦਾ	-4002
▁ਪ੍ਰਦੇਸ਼ਾਂ	-4003
१५	-4004
ਏਸੀ	-4005
▁ਦਵਾਈ	-4006
▁ਖੁੱਲ੍ਹਾ	-4007
▁ਰਿਹਾਇਸ਼	-4008
▁ਨੈਟਵਰਕ	-4009
▁ਤੇਜ਼	-4010
▁ਲਾਇਆ	-4011
▁ਸਵੈਇੱਛ	-4012
mp	-4013
▁ਕੇਡਰ	-4014
▁ਨੈਤਿਕਤਾ	-4015
▁ਰੋਡ	-4016
▁ਗੰ	-4017
▁ਗੁਣਵੱਤਾ	-4018
ਅਤੇ	-4019
▁ਉਪਬੰਧਾਂ	-4020
▁ਬੈਂਕਿੰਗ	-4021
▁ਸੁੰ	-4022
▁ਮਿਲੀਅਨ	-4023
▁ਉਦਯੋਗਾਂ	-4024
▁ਪ੍ਰਕਾਸ਼	-4025
▁ਮਰਜ਼ੀ	-4026
▁ਚਰਿੱਤਰ	-4027
▁ਗ੍ਰੈ	-4028
▁ਪ੍ਰਮਾਣਿਕਤਾ	-4029
ਟੀਨ	-4030
▁ਮਿਸ	-4031
▁ਬਚਾਉਣ	-4032
▁ਕਿਲੋਮੀਟਰ	-4033
▁ਪਾਰਟ	-4034
ਾਨੇ	-4035
▁ਓਰਸ	-4036
▁ਟਕਰਾ	-4037
able	-4038
▁ਨਾਰ	-4039
▁ਝਗੜਿਆਂ	-4040
ਣਨ	-4041
ਮੋਰ	-4042
▁ਕਪ	-4043
▁ਭੰਗ	-4044
▁ਪਰੇਸ਼	-4045
▁ਕਿਰਾਏਦਾਰੀ	-4046
▁ਹਵਾਈ	-4047
ਚਾਈ	-4048
icip	-4049
▁ਜੰਗਲਾਤ	-4050
ਮਾਂਡ	-4051
▁ਕਾਗ	-4052
▁ਫੈਲ	-4053
▁ਗਤੀਵਿਧੀ	-4054
▁ਸ਼ਾਮ	-4055
▁ਸੱਚਾਈ	-4056
▁ਸੰਬੋਧਿਤ	-4057
ਵੇਅਰ	-4058
▁ਚੇਨ	-4059
▁ਪੱਕਾ	-4060
munity	-4061
▁ਕੰਮਕਾਜ	-4062
ਅਪੀਲਕਰਤਾ	-4063
ੋਟੀ	-4064
▁ਰਿਣ	-4065
▁ਕਮੇਟੀਆਂ	-4066
▁ਡਿਸਚਾਰਜ	-4067
▁ਰਾਖਵਾਂ	-4068
▁ਲਾਭਕਾਰੀ	-4069
ਜੁ	-4070
ਇੰਸ	-4071
▁ਧੀ	-4072
▁ਅਪਣਾਉਣ	-4073
▁ਮਾਰਗ	-4074
▁ਦੂਜਿਆਂ	-4075
▁ਨੌਜਵਾਨ	-4076
el	-4077
▁ਜੇਕਰ	-4078
▁ਮਿੱਟੀ	-4079
ਸੰਖੇਪ	-4080
▁ਸ਼ਾਨ	-4081
▁ਬੇਦ	-4082
▁ਸੰਨ	-4083
▁ਸਮਝਦਾ	-4084
▁ਯੂਨੀਵਰਸਿਟੀਆਂ	-4085
▁ਅਪਣਾਏ	-4086
▁ਜ਼ੁਰਮਾਨੇ	-4087
▁ਭੈ	-4088
ਨਿੰਗ	-4089
▁ਵਿਸ਼ੇਸ਼ਤਾ	-4090
▁ਜਾਨਵਰ	-4091
▁ਤਿ	-4092
ਅੰਦਰ	-4093
▁ਗੋਲ	-4094
▁ਵਿਦਿਆ	-4095
▁ਮਾਮੂਲੀ	-4096
ਵਿਕ	-4097
▁ਜ਼ੋਨ	-4098
▁ਪੂਰੀਆਂ	-4099
ਨੀਆਂ	-4100
▁ਬਚਣ	-4101
▁ਲੜੀ	-4102
▁ਮਹਾਂ	-4103
▁ਪਸੰਦ	-4104
ਾਕ	-4105
▁ਟੀਮ	-4106
▁ਮੀਡੀਆ	-4107
▁ਹੋਰਨਾਂ	-4108
▁ਭਾਈਚਾਰੇ	-4109
ੋਗ੍ਰਾ	-4110
▁ਜਾਣਦਾ	-4111
▁ਵਿਭਿੰਨ	-4112
▁ਕਾੱ	-4113
▁ਭਾਈਵਾਲੀ	-4114
▁ਪੈਂਡ	-4115
▁ਸੁੱਟ	-4116
▁ਲੰਬਿਤ	-4117
▁ਤਰੀਕਿਆਂ	-4118
ter	-4119
▁ਘਾਟੇ	-4120
▁ਰਾਖਵੇਂ	-4121
ਠੀ	-4122
▁ਹਾਦਸੇ	-4123
ਿਜ਼	-4124
▁ਦਹਾ	-4125
ਚਲਣ	-4126
▁ਵੈਲ	-4127
▁ਪੱਟ	-4128
▁ਪ੍ਰਸਾਦ	-4129
▁ਵਸਤੂਆਂ	-4130
ਨੂ	-4131
▁ਸਮਾਰੋਹ	-4132
▁ਅਥਾਰਟੀਆਂ	-4133
ਨਾਥ	-4134
▁ਟਨ	-4135
▁ਹਵਾ	-4136
▁ਪੂਰਕ	-4137
▁ਅੰਕੜੇ	-4138
▁ਹੇਠਲੀਆਂ	-4139
ਸਤਾਨ	-4140
▁ਬੋਝ	-4141
▁ਚਾਹੇ	-4142
▁ਸਾਈਟ	-4143
▁ਵਿਦਿਆਰਥੀ	-4144
-0	-4145
ect	-4146
ਕੀਨ	-4147
▁ਕਲਕ	-4148
▁ਸਕਾਰਾਤਮਕ	-4149
ork	-4150
ਧਰੀ	-4151
▁ਹਿੰਸਾ	-4152
▁ਕਿਤੇ	-4153
▁ਖਰੀਦਣ	-4154
▁ਪਟੀਸ਼ਨਰਾਂ	-4155
ਿਟਰ	-4156
▁ਅਬਦ	-4157
▁ਖਾਨ	-4158
▁ਅਪੰਗ	-4159
ਿੱਧੇ	-4160
▁ਮੈਨੇਜ	-4161
▁ਜਾਗ	-4162
▁ਸਿਕ	-4163
▁ਅਲੋ	-4164
▁ਜ਼ਬਰਦ	-4165
▁ਹੁਕਮਾਂ	-4166
▁ਛੋਟਾ	-4167
▁ਰਣਨੀ	-4168
▁ਬੰਦੋਬ	-4169
▁ਗਣਤੰਤਰ	-4170
▁ਚਾਹੀਦੀਆਂ	-4171
ਵਤੀ	-4172
ਮੁਲਜ਼	-4173
▁ਬਲਾਕ	-4174
ਕੜਿਆਂ	-4175
▁ਦਿਵਾ	-4176
ਨੋਲੋਜੀ	-4177
▁ਗੁੰਜਾਇ	-4178
▁ਸਮਾਨਤਾ	-4179
ਸੈਸ	-4180
▁ਦੁੱਖ	-4181
▁ਨੀਤੀਆਂ	-4182
▁ਪ੍ਰਗਟਾਵਾ	-4183
▁ਸੀਆਰਪੀਸੀ	-4184
▁ਖ਼ੁਦ	-4185
▁ਕਿਤਾਬਾਂ	-4186
▁ਖੁਸ਼ਹ	-4187
▁ਵੇਖਣਾ	-4188
▁ਪ੍ਰੋਵਿਸੋ	-4189
rop	-4190
ਚਿਆਂ	-4191
ਜਾਇਜ਼	-4192
▁ਤਜ਼ਰ	-4193
ਂਗ	-4194
▁ਉੱਠਦਾ	-4195
▁ਵਾਰੰਟ	-4196
▁ਡਾਇ	-4197
▁ਕੇਰਲ	-4198
▁ਗੁੰਜਾਇਸ਼	-4199
▁ਭ੍ਰਿਸ਼ਟਾਚਾਰ	-4200
ਨਸ	-4201
ਲਾਇੰਸ	-4202
▁ਰਿਕਾਰਡਾਂ	-4203
▁ਵਸੇ	-4204
ਕਾਮ	-4205
▁ਧਮਾ	-4206
ਪੈਰਾ	-4207
▁en	-4208
▁ਭਾਗੀਦਾਰੀ	-4209
▁ਸੇਬੀ	-4210
▁ਫਸਲਾਂ	-4211
▁ਇੰਚਾਰਜ	-4212
▁ਅੰਕੜਿਆਂ	-4213
▁ਦਬ	-4214
▁ਸਟੈਂਡ	-4215
▁ਸਾਂਝੀ	-4216
▁ਹੇਠਲੇ	-4217
▁ਇਮਾਰਤਾਂ	-4218
▁ਬੰਦੋਬਸਤ	-4219
ੱਲੇ	-4220
ਰੇਜ਼ੀ	-4221
▁ਪ੍ਰਾਜੈਕਟਾਂ	-4222
il	-4223
▁ਰਹਿਤ	-4224
▁ਰੈਜ਼	-4225
▁ਮੁਸ਼ਕਲਾਂ	-4226
####	-4227
▁ਦਿੰਦਿਆਂ	-4228
▁ਖਾਤਾ	-4229
▁ਪੌਦੇ	-4230
▁ਮੋਬਾਈਲ	-4231
▁ਰੌ	-4232
▁ਫੋਟ	-4233
▁ਜਾਣਗੀਆਂ	-4234
▁ਭਰਨ	-4235
▁ਸਦੀ	-4236
▁ਸਟਾਕ	-4237
▁ਤ੍ਰਿ	-4238
ੋਤਮ	-4239
▁ਕਲਕੱਤਾ	-4240
▁ਲਾਭਦਾਇਕ	-4241
ਟੇਟ	-4242
ਪੱਖੀ	-4243
▁ਕਰਾਰ	-4244
▁ਫ਼ੈਸਲਿਆਂ	-4245
▁ਨਜ਼	-4246
▁ਸੋਧਣ	-4247
▁ਬੰਨ੍ਹ	-4248
ਖਤਿਆਰੀ	-4249
▁ਚੌਧਰੀ	-4250
▁ਪ੍ਰਦਰਸ਼ਨੀ	-4251
▁ਚੰਗਾ	-4252
▁ਸਿਫ਼	-4253
▁ਮਿਹਨ	-4254
▁ਇਕੱਠੀ	-4255
;&#	-4256
▁ਵਣ	-4257
ਿਸੀ	-4258
▁ਸਕੂ	-4259
▁ਨਿਰਪੱਖਤਾ	-4260
ਵਿਵ	-4261
▁ਜੋੜਨ	-4262
▁duties	-4263
▁ਸਪਸ਼ਟੀਕਰਨ	-4264
ਜਾਮ	-4265
▁ਟਿੱਪਣੀ	-4266
ਪਰਵਾਹੀ	-4267
▁ਤਿਆਰੀ	-4268
▁ਡਵੀਜ਼ਨ	-4269
ਹੂ	-4270
ਵਿਆਪੀ	-4271
ਪਛਾ	-4272
▁ਇਕਸਾਰਤਾ	-4273
▁ਦਿਓ	-4274
▁ਗ੍ਰਾਮ	-4275
▁ਸ਼ਰਾਬ	-4276
▁ਡੀਲਰ	-4277
▁ਖੁਲਾਸੇ	-4278
▁ਵੇਖਦਿਆਂ	-4279
▁ਗਿਣਿਆ	-4280
▁ਰਿਲਾਇੰਸ	-4281
▁ਪ੍ਰਤੀਨਿਧਤਾ	-4282
ਟੀਆ	-4283
▁su	-4284
ਮੁੱਚ	-4285
▁ਤਲਾਕ	-4286
▁ਉਜਾਗਰ	-4287
▁ਸਿਫ਼ਾਰ	-4288
▁ਉਪਲਬਧਤਾ	-4289
▁ਜ਼ੁਰਮਾਨਾ	-4290
ਾਈਜ਼	-4291
▁ਮੁਸਲ	-4292
ਅੰਦਾਜ਼	-4293
▁ਮਿਸ਼ਨ	-4294
▁ਗਵਰ	-4295
▁ਪੈਂਦੀ	-4296
▁ਆਰਥਿਕਤਾ	-4297
▁ਇੰਡਸਟ	-4298
▁ਸ਼ੋਸ਼ਣ	-4299
▁ਵਿਭਾਗਾਂ	-4300
▁ਲਾਪਰਵਾਹੀ	-4301
▁ਏਸੀ	-4302
▁ਅੰਗਰੇਜ਼ੀ	-4303
▁ਪਲਾ	-4304
▁ਦੂਸਰਾ	-4305
▁ਕਰਾਂਗੇ	-4306
ਜੂਏਟ	-4307
▁ਅਹਿਮਦ	-4308
ਵਿੱਤਰ	-4309
▁ਨਮੂਨੇ	-4310
▁ਲੋਕਤੰਤਰੀ	-4311
▁ਪੇਪਰ	-4312
▁ਬਦਲਾ	-4313
ਐੱਫ	-4314
▁ਨਜ਼ਰੀਆ	-4315
▁ਟੈਕਨੋਲੋਜੀ	-4316
▁ਕੁਸ਼ਲਤਾ	-4317
▁ਪੜ੍ਹਨਾ	-4318
▁ਤੋੜ	-4319
ਕੈ	-4320
▁ਸਾਰਥ	-4321
ੜੀਸਾ	-4322
▁ਯਤਨ	-4323
▁ਪਾਲਿਸੀ	-4324
▁ਜਿੰਨਾ	-4325
▁ਵਿਧਾਇ	-4326
ਦੁ	-4327
▁ਜੰਮੂ	-4328
▁ਪਹਿਲਕ	-4329
▁ਬਾਈ	-4330
▁ਸਿਟੀ	-4331
▁ਕਾੱਪੀ	-4332
▁ਪ੍ਰਵੇਸ਼	-4333
▁ਸਾਵਧਾਨੀ	-4334
▁ਆਲ	-4335
▁ਮੁਰ	-4336
▁ਵਧਣ	-4337
▁ਦੇਣਦਾਰੀ	-4338
▁ਏਕੀਕ੍ਰਿਤ	-4339
ਣਕ	-4340
▁ਵੰਡਿਆ	-4341
▁ਨੀਤੀਗਤ	-4342
ਵਤ	-4343
ਗੜ੍ਹ	-4344
▁ਤੀਜਾ	-4345
ਘੇ	-4346
▁ਰੋਜ਼ਾਨਾ	-4347
ਜਾਂਚ	-4348
▁ਇਹੋ	-4349
▁ਦਿਮਾਗ	-4350
ੰਡਰੀ	-4351
▁ਸ਼ਾਹ	-4352
ਕਾਰਾ	-4353
▁ਕੁਆ	-4354
▁ਦੇਵੇ	-4355
▁ਵਾਂਗ	-4356
ਹਾੜੀ	-4357
ੰਦਿਆਂ	-4358
ੋਪ	-4359
ਐਕਟ	-4360
▁ਗੁਣਾ	-4361
ੰਡਮ	-4362
▁ਦੌਰਾ	-4363
▁ਵੇਖੋ	-4364
▁ਨਾਜਾਇਜ਼	-4365
▁ਸ਼੍ਰੀਮਾਨ	-4366
▁ਇਮਤ	-4367
▁ਸਟੀਲ	-4368
▁ਚੁੱਕਣ	-4369
▁ਰਹਿੰਦਾ	-4370
▁de	-4371
▁on	-4372
▁ਕੁਰ	-4373
▁ਯਕੀਨ	-4374
▁ਸੰਭਾਵਨਾਵਾਂ	-4375
▁ਯਤ	-4376
▁ਉਦਘਾ	-4377
▁ਧਮ	-4378
▁ਦੇਣੀ	-4379
▁ਨਜ਼ਰਅੰਦਾਜ਼	-4380
ਦੀਪ	-4381
▁ਮੁਖ	-4382
▁ਵਿਸਤ	-4383
▁ਕਾਲਜਾਂ	-4384
▁ਬਹੁਗਿਣਤੀ	-4385
ਚੁ	-4386
ropri	-4387
▁ਉਪਭੋਗਤਾ	-4388
▁ਪ੍ਰੋਸੈਸ	-4389
▁ਵਿਕਰੇਤਾ	-4390
ਗ੍ਰਾ	-4391
ਦੋਸ਼	-4392
ropriate	-4393
▁ਮਾਡਲ	-4394
▁ਉਪਾਵਾਂ	-4395
▁ਫੈਕਟਰੀ	-4396
ਪੀਐਸ	-4397
▁ਕਦਰਾਂ	-4398
▁ਬਿਮਾਰ	-4399
oun	-4400
▁ਮੈਸਰ	-4401
▁ਲੋੜੀਂਦੀਆਂ	-4402
▁ਕਮਜ਼	-4403
ਤਵ	-4404
▁ਮੁਆਫੀ	-4405
▁ਮੈਮੋਰ	-4406
ਐਡ	-4407
▁IV	-4408
ਸੀਐਲ	-4409
▁ਅਭਿਆਸਾਂ	-4410
ਟ੍ਰਲ	-4411
▁ਗੈਰਹਾ	-4412
▁ਡਿਫਾਲਟ	-4413
▁ਬਿਲਡਿੰਗ	-4414
▁ਸੂਚੀਬੱਧ	-4415
▁ਬੈਠਕ	-4416
▁g	-4417
ਹਾਬਾਦ	-4418
▁ਲੱਭਣ	-4419
▁ਮਾਲੀਆ	-4420
▁ਸੀਟਾਂ	-4421
ਮੌ	-4422
ਫ਼ਰਤ	-4423
▁ਸੀਟ	-4424
▁ਅਸਿੱਧੇ	-4425
▁ਮੇਮਨ	-4426
▁ਪ੍ਰਧਾਨਗੀ	-4427
▁ਰਿਫ	-4428
▁ਉੜੀਸਾ	-4429
);	-4430
ਂਸਪਲ	-4431
▁ਇੰਨਾ	-4432
▁ਫੀਸਾਂ	-4433
▁ਸੌਂਪੇ	-4434
▁ਬੇਰਹਿਮੀ	-4435
ਿਜਾਂ	-4436
▁ਬੁੱਧ	-4437
▁ਹਮਲੇ	-4438
ਹਿਣ	-4439
▁ਕਮਰੇ	-4440
▁ਸਮਝਦੇ	-4441
▁ਸ਼ਹਿਰ	-4442
▁ਮੈਮੋਰੰਡਮ	-4443
▁ਰਸੀ	-4444
▁ਯਤਨਾਂ	-4445
▁ਇਨਸਾਫ	-4446
▁ਤਸੱਲੀ	-4447
▁ਦੁਨੀਆ	-4448
▁ਪੱਥ	-4449
▁ਮਦਦ	-4450
▁ਫਲੈਟ	-4451
▁ਲਗਾਤਾਰ	-4452
▁ਪ੍ਰਦੂਸ਼ਣ	-4453
ੱਖਣੀ	-4454
ੱਭ	-4455
▁ਡਾਲ	-4456
▁ਜਾਣਬੁੱਝ	-4457
ੰਪ	-4458
▁ਜਾਗਰੂ	-4459
▁ਰੁਝਾਨ	-4460
▁ਵਿਰਾਸਤ	-4461
▁ਨਿਰਦੇਸ਼ਕ	-4462
ਵਟ	-4463
ੰਡੇ	-4464
▁ਨੁਕ	-4465
▁ਪਰਮ	-4466
▁ਸਮਰਪਣ	-4467
ਹੋ	-4468
ort	-4469
ਨਜ਼	-4470
▁ਲਾਭਪਾਤ	-4471
▁ਸ਼ਾਨਦਾਰ	-4472
▁ਐਮਐਸ	-4473
▁ਪ੍ਰਮੋ	-4474
▁ਸੈਕੰਡਰੀ	-4475
▁ਫੌਜਦਾਰੀ	-4476
ਪਰੇ	-4477
▁ਭੱਤੇ	-4478
▁ਭਗ	-4479
▁ਪ੍ਰੀਮੀ	-4480
;)	-4481
ਗਨ	-4482
ਸੰਸ	-4483
▁ਨਿਆ	-4484
▁ਵਰਜ	-4485
▁ਆਰੰਭ	-4486
▁ਖਣਿਜਾਂ	-4487
ਿੱਤ	-4488
ਪਰਟੀ	-4489
ਯੋਗਤਾ	-4490
▁ਵਿਸ਼ਵਵਿਆਪੀ	-4491
▁ਜਿੰਨੀ	-4492
ਂਟ	-4493
▁ਟਰਾ	-4494
▁ਯਾਤ	-4495
▁ਲਿੰ	-4496
▁ਲੱਗੀ	-4497
▁ਪਵਿੱਤਰ	-4498
ਵਿਧਾ	-4499
▁ਨਫ਼ਰਤ	-4500
▁ਪਰੋਸੀ	-4501
▁ਨਿਰਧਾਰਣ	-4502
▁ਨਾਮਜ਼ਦਗੀ	-4503
▁ਗੋਆ	-4504
▁ਮਾਈ	-4505
▁ਅਕਾਉਂ	-4506
▁ਮਹੀਨਾ	-4507
▁ਰਹਿਣਾ	-4508
▁ਰੈਗੂਲੇਟਰੀ	-4509
▁appropriate	-4510
▁con	-4511
▁ਉਲਟਾ	-4512
▁ਸੱਦਾ	-4513
▁ਛੁਟ	-4514
▁ਸੂਚ	-4515
▁ਗੌ	-4516
▁ਓਵਰ	-4517
▁ਹੌਲੀ	-4518
im	-4519
▁ਇਤਰਾਜ਼ਾਂ	-4520
▁ਚੰਦ	-4521
ਐਮਸੀ	-4522
▁ਅਣਗ	-4523
▁ਪੈਸਾ	-4524
▁ਮੰਜ਼	-4525
▁ਸੰਮਨ	-4526
▁ਦਰਸ਼ਨ	-4527
▁ਆਕਰਸ਼ਤ	-4528
▁ਪਰੋਸੀਜਰ	-4529
▁ਜ਼ੁ	-4530
▁ਪਰੀ	-4531
▁ਸੀਈ	-4532
▁ਮੈਨੇਜਰ	-4533
▁ਪਟੇ	-4534
▁ਬ੍ਰਾਂ	-4535
▁ਕਾਰੋਬਾਰੀ	-4536
▁ਫੜ	-4537
▁ਫੁੱਟ	-4538
ੱਕਰ	-4539
▁ਐਮਰਜ	-4540
▁ਫੋਟੋ	-4541
▁ਸੇਵਕ	-4542
▁ਸਰਗਰਮ	-4543
▁ਹਦਾਇਤਾਂ	-4544
▁ਪੱਖੋਂ	-4545
▁ਐਮਰਜੈਂਸੀ	-4546
▁:	-4547
ਅਨੁ	-4548
▁ਦਰਾ	-4549
▁ਗਾਹਕਾਂ	-4550
▁ਗਾਰਡ	-4551
▁ਸਮੁੱਚੀ	-4552
▁ਤਜਰਬਾ	-4553
▁ਟੈਕਸਾਂ	-4554
▁ਅਟੱਲ	-4555
▁ਅਸਟੇਟ	-4556
ਸਫੋਟ	-4557
▁ਵਿਸਫੋਟ	-4558
ਕ੍ਰਮ	-4559
ਸੋਲ	-4560
▁ਲੱਗੇ	-4561
ਿਕਟ	-4562
ਸਿਵਲ	-4563
▁ਸੀਏ	-4564
▁ਮਾਲਕੀਅਤ	-4565
▁ਪ੍ਰਦਰਸ਼ਤ	-4566
ਵਾਇਰ	-4567
▁ਮਾਸਟਰ	-4568
▁ਲੱਗਦਾ	-4569
▁ਪ੍ਰਾਪਰਟੀ	-4570
▁ਧਾਰਕਾਂ	-4571
▁ਰਹਿੰਦੀ	-4572
▁ਪਹੁੰਚਿਆ	-4573
▁ਅਗਲਾ	-4574
▁ਨਿਰਵਿ	-4575
ਆਈਐਲ	-4576
▁ਸੰਘੀ	-4577
▁ਵਿਭਾਗੀ	-4578
ੰਦਰੁ	-4579
▁ਵਿਵਾਦਪੂਰਨ	-4580
▁ਅਸਾ	-4581
▁ਗਰੀਬ	-4582
▁ਪ੍ਰਕਾਸ਼ਨ	-4583
▁ਡੋ	-4584
ਰਾਧਿਕਾਰ	-4585
▁community	-4586
ੈਂਬਰ	-4587
੍ਰਿਕ	-4588
▁ਚਾਂ	-4589
ਮਰੀ	-4590
ਪੀਆਂ	-4591
ਕੰਪਨੀ	-4592
ਦੋਸ਼ੀ	-4593
▁ਸੰਧੀ	-4594
▁१६	-4595
▁ਰਚ	-4596
ਜਾਇਆ	-4597
▁ਕੱਚ	-4598
▁ਮੈਸਰਜ਼	-4599
ਾਇਨਾ	-4600
▁ਰਸਤੇ	-4601
▁ਸ਼ੇਖ	-4602
ੱਡੀ	-4603
▁ਮੋਹਨ	-4604
ਮਾਨੇ	-4605
ਮਸ਼ਵਰੇ	-4606
▁ਸ਼ੱਕੀ	-4607
▁ਕਿਸ਼	-4608
▁ਦਬਾਅ	-4609
▁ਮੁਖੀ	-4610
▁ਅਖਬਾਰ	-4611
▁ਜਰੂਰੀ	-4612
▁ਤੰਦਰੁ	-4613
▁ਸਿਰਜ	-4614
▁ਬਹੁਮਤ	-4615
▁ਵਾਹਨਾਂ	-4616
▁ਰਿਣਦਾਤਾ	-4617
ਨਾਕ	-4618
▁ਐਡੀ	-4619
ਕੁਸ਼ੀ	-4620
▁ਘਰਾਂ	-4621
▁ਬੋਲਣ	-4622
▁ਸੁੰਦਰ	-4623
▁ਸੰਭਾਲਣ	-4624
▁ਇਤਿਹਾਸਕ	-4625
▁ਯੋਜਨਾਬੰਦੀ	-4626
▁ਰਿਜ਼ਰਵੇਸ਼ਨ	-4627
▁ਅਸਤੀ	-4628
▁ਲੇਖਾ	-4629
▁ਪ੍ਰਸੰ	-4630
▁ਪ੍ਰਸਾਰਣ	-4631
ਦੀਨ	-4632
▁ਭੇਜੇ	-4633
▁ਫਾਰਮੂ	-4634
▁ਵਾਅਦਾ	-4635
▁ਆਡੀ	-4636
▁ਖੁਰਾ	-4637
▁ਪੈਨਲ	-4638
ਦਾਈ	-4639
ਮਿਤ	-4640
ਪਾਤੀ	-4641
▁ਡਿਜ਼ਾਈਨ	-4642
▁ਅੰਡਰ	-4643
▁ਸਮਾਜਕ	-4644
▁ਸੁਪਰਡੈਂਟ	-4645
ਧਿਆ	-4646
▁ਹਰੀ	-4647
▁ਤਰੀਕਾ	-4648
▁ਖੁਦਮੁ	-4649
▁ਅਨੁਸਾਰੀ	-4650
▁ਜ਼ੁਬਾਨੀ	-4651
▁ਜ਼ਿਆਦਾਤਰ	-4652
ਜਤਾ	-4653
▁ਉਦਘਾਟਨ	-4654
ਸੈ	-4655
▁ਡਰਾਫਟ	-4656
▁ਸੁਲਝਾਇਆ	-4657
▁ਆਰਬਿਟ੍ਰਲ	-4658
ਬੀਰ	-4659
▁ਅਮਰੀਕਾ	-4660
▁ਸਰਬੋਤਮ	-4661
over	-4662
▁ਖਰੀਦਦਾਰਾਂ	-4663
ਵਿਵਹਾਰ	-4664
ਸੰਵਿਧਾਨ	-4665
ਗਮ	-4666
thod	-4667
▁ਅੱਧ	-4668
▁ਪ੍ਰਤੀਭੂ	-4669
▁ਨਕਾਰਾਤਮਕ	-4670
▁ਫਾ	-4671
▁ਖਰਚਾ	-4672
ਕਾਯੁਕਤ	-4673
▁ਰਾਜਧਾਨੀ	-4674
▁ਦੱਖਣੀ	-4675
ਂਦਰ	-4676
▁ਰਸਾਇ	-4677
▁method	-4678
▁ad	-4679
▁ਵਣਜ	-4680
▁ਲਿਆਇਆ	-4681
▁ਪੀਣ	-4682
▁ਅੰਦਾਜ਼	-4683
▁ਅਸਾਧਾਰਣ	-4684
▁ਨੁਮਾਇੰਦਿਆਂ	-4685
▁ਸ਼੍ਰੇਣੀਬੱਧ	-4686
ਸਕ	-4687
ਰੀਅਲ	-4688
▁ਧਮਕੀ	-4689
▁ਪੂਜਾ	-4690
▁ਅਬਦੁੱਲ	-4691
▁ਆਟੋ	-4692
ਮੁਲਜ਼ਮ	-4693
ੋਬਲ	-4694
▁ਟੁਕ	-4695
▁ਸੂਰ	-4696
▁ਸੰਬੋਧਨ	-4697
▁ਨਿਰਦੋਸ਼	-4698
▁u	-4699
▁ਦੇਵ	-4700
▁ਅਜ਼ਾਦੀ	-4701
▁ਸਪੈ	-4702
▁ਪੀਐਸ	-4703
▁ਇੱਜ਼ਤ	-4704
ਜਵਾਬ	-4705
▁ਪੈਰ	-4706
▁ਇੰਗਲੈਂਡ	-4707
▁ਮਾਰਕੀਟਿੰਗ	-4708
▁ਤਾਇਨਾ	-4709
▁;	-4710
▁ਰਾਇਲ	-4711
ਵਿਗਿਆਨ	-4712
▁ਉਪਚਾਰ	-4713
▁ਰਿਮਾਂਡ	-4714
▁ਇੰਨੀ	-4715
▁ਸਬੰਧਾਂ	-4716
ੁਇ	-4717
ਆਇੰਟ	-4718
▁ਖੋਹ	-4719
ਕਨ	-4720
ਬਰਾ	-4721
ergy	-4722
▁ਵਧਾਉਣਾ	-4723
▁ਖਾਣ	-4724
▁ਪੀੜਤਾਂ	-4725
ਸੋਲਵ	-4726
▁ਖੁਸ਼ਹਾਲੀ	-4727
ਕਾਲੀ	-4728
ਲੈਂਡ	-4729
▁ਕਹਾ	-4730
▁ਗ੍ਰੇ	-4731
▁ਆਯੋਜਤ	-4732
▁ਪ੍ਰੈਸ	-4733
▁energy	-4734
▁ਸੱਚਮੁੱਚ	-4735
ਨਿਰਦੇਸ਼ਾਂ	-4736
▁ਸਭਿਆਚਾਰਕ	-4737
ary	-4738
ram	-4739
▁ਵਰਣਨ	-4740
os	-4741
ੰਭਵ	-4742
▁ਸਹਿਣ	-4743
▁ਸਹੁੰ	-4744
▁ਅਸੰਭਵ	-4745
ਤੂ	-4746
▁ਦੁਰਘ	-4747
▁be	-4748
▁ਐਜੂ	-4749
ਨਲਾਈਨ	-4750
--------	-4751
▁ਨਿਰਭਰਤਾ	-4752
▁ਦਾਸ	-4753
▁ਬੇਦਖ	-4754
▁ਮਨੋਰਥ	-4755
▁ਮੌਕਿਆਂ	-4756
▁ਪਸ਼ੂ	-4757
ਿਆਲ	-4758
▁ਖੱਬੇ	-4759
▁ਮੰਤਰੀਆਂ	-4760
▁ਵੀਡੀਓ	-4761
icipal	-4762
▁ਪੁਰਾਣੀ	-4763
unicipal	-4764
▁ਡਾਟਾ	-4765
▁ਲਕਸ਼	-4766
▁ਮਾਰੂ	-4767
▁ਪੜ੍ਹਦਾ	-4768
▁ਕਮਜ਼ੋਰੀ	-4769
▁ਮ੍ਰਿਤਕਾਂ	-4770
ਡੇਸ਼ਨ	-4771
▁ਦੁਰਾ	-4772
▁ਸਮੱਸਿਆਵਾਂ	-4773
ਐੱਨ	-4774
ਲੀਅਮ	-4775
▁ਫੈਕ	-4776
▁ਖੁੱਲਾ	-4777
ਮੈ	-4778
ਰਖ	-4779
▁ਰਮ	-4780
ਟਿਸ਼	-4781
▁ਇਕੱਠਾ	-4782
▁ਬਾਰ੍ਹ	-4783
▁ਵੇਖਦੇ	-4784
▁ਹਫ਼ਤਿਆਂ	-4785
▁ਡਬਲਯੂਪੀ	-4786
▁ਯੋਗਤਾਵਾਂ	-4787
ਵਿੰਗ	-4788
▁ਪੱਕੇ	-4789
▁ਕਮੀਆਂ	-4790
ੋਟਾ	-4791
ਮਡ	-4792
▁or	-4793
▁ਕੱਪ	-4794
▁ਸਾਇ	-4795
▁ਚੁਣਿਆ	-4796
▁ਵਿਚਾਰੀ	-4797
ਤਕਰੇ	-4798
▁ਰਚਨਾ	-4799
▁ਸਰਪ੍ਰ	-4800
▁ਅਣਅਧਿਕਾਰਤ	-4801
▁ਪ੍ਰੋਸੈਸਿੰਗ	-4802
▁ਸਾਲਿਸ	-4803
▁ਖੁਦਮੁਖਤਿਆਰੀ	-4804
▁ਤਿਆ	-4805
▁ਵਿਤਕਰੇ	-4806
▁ਡਿੱ	-4807
▁ਦੇਹ	-4808
▁ਟਕਰਾਅ	-4809
▁ਕਿਸਾਨਾਂ	-4810
ਰੇਜ	-4811
ਸੋਧ	-4812
ਾਂਤ	-4813
▁ਰਹੇਗੀ	-4814
▁ਕਮਾਈ	-4815
▁ਵਰਗਾਂ	-4816
▁ਲਿਜਾਇਆ	-4817
▁ਸਾਲਿਸਿਟਰ	-4818
▁ਮਤਭ	-4819
ਪਮੈਂਟ	-4820
ਫਟਵੇਅਰ	-4821
▁ਦੁਸ਼ਮ	-4822
▁ਸਾਮ੍ਹ	-4823
▁ਕੋਸ਼ਿਸ਼ਾਂ	-4824
▁ਪ੍ਰਤੀਭੂਤੀਆਂ	-4825
▁Com	-4826
▁ਦੱਸੋ	-4827
▁ਚੁਣੌਤੀਆਂ	-4828
ਫ਼ਾ	-4829
▁ਚੱਲਣ	-4830
▁ਖੜ੍ਹੀ	-4831
▁ਕੋਰਸਾਂ	-4832
ਇਹ	-4833
ow	-4834
/0	-4835
ਐਮਈ	-4836
▁is	-4837
ਦੀਕੀ	-4838
ਲਿੰਗ	-4839
ਹੁਤਾ	-4840
▁ਰੁਤ	-4841
▁ਵਾਈ	-4842
▁ਪੱਥਰ	-4843
ਤਮਾ	-4844
ਵਿਸ਼	-4845
▁ਦੁੱਧ	-4846
▁ਦੰਡਾਵਲੀ	-4847
▁ਲੇਖਕ	-4848
▁ਪੁੱਛਿਆ	-4849
▁ਸਿਰਜਣਾ	-4850
▁ਮੌਸਮ	-4851
▁ਜੂਨੀਅਰ	-4852
ੇਸ਼ਵਰ	-4853
▁ਚਲਾਏ	-4854
▁ਮੈਮੋ	-4855
ਸ਼ਦ	-4856
ਧਾਰਨ	-4857
▁ਤੰਗ	-4858
▁ਦੁਪ	-4859
▁ਵਿਤਕ	-4860
▁ਪੋਸ਼ਣ	-4861
▁ਫਾਇਦਾ	-4862
ਭਾਗ	-4863
▁ਕੁੰ	-4864
▁ਗਲੋਬਲ	-4865
▁ਵਿਤਕਰਾ	-4866
ਕਿਸੇ	-4867
▁ਫਰਕ	-4868
▁ਇਕੁਇ	-4869
▁ਲੰਬਾਈ	-4870
▁ਤੀਹ	-4871
▁fram	-4872
):	-4873
▁ਟੈਕਸਟ	-4874
▁ਗੋਪਾਲ	-4875
▁ਜ਼ਖ਼	-4876
▁ਨਕਾਰ	-4877
▁ਮਸ਼ਵਰਾ	-4878
▁........	-4879
ਮੀਆਂ	-4880
▁ਜਰੂਰਤ	-4881
▁ਫੈਕਲਟੀ	-4882
▁ਅੱਤਵਾਦੀ	-4883
▁ਹਿੱਸੇਦਾਰਾਂ	-4884
▁ਸਮਝਣਾ	-4885
▁ਡਾਕਟਰਾਂ	-4886
▁ਕਰੀਏ	-4887
▁ਜੰਗਲ	-4888
▁ਵਿਆਹੁਤਾ	-4889
ਵਰੇਜ	-4890
▁ਹੈਂਡ	-4891
▁ਦੁਰਵਿਵਹਾਰ	-4892
▁ਮਾਰਟਮ	-4893
▁ਤਦ	-4894
ਆਰਸੀ	-4895
੍ਰੀਨ	-4896
▁ਰੂਪਾਂ	-4897
▁ਬ੍ਰਿਟਿਸ਼	-4898
਼ਤ	-4899
ਡਾਂ	-4900
▁ਫੋਰਸ	-4901
▁ਮਜ਼ਦੂਰਾਂ	-4902
ਜੋੜ	-4903
▁ਓਪਰੇ	-4904
▁ਚਾਰਟਰ	-4905
▁ਰੈਜ਼ੋਲ	-4906
▁ਨਰ	-4907
▁ਹੋਲ	-4908
▁ਪੂਰਬੀ	-4909
ਸ਼ਮਦੀ	-4910
▁ਕਸਟਮ	-4911
▁ਕਾਸ਼ਤ	-4912
▁ਇਕੁਇਟੀ	-4913
ਸੋਲਵੈਂਸੀ	-4914
▁ਪਾਰਕ	-4915
▁ਚਸ਼ਮਦੀ	-4916
▁at	-4917
▁ਲੋਨ	-4918
▁ਦੁਪਹਿਰ	-4919
▁ਬਣਾਉਂਦੀ	-4920
ਸਤੁ	-4921
ਫਿਆਂ	-4922
▁ਆਪਸ	-4923
▁ਵਿਜ	-4924
▁ਮੰਨੀ	-4925
▁ਗਿਰਵੀਨਾਮੇ	-4926
ਰੀਅਰ	-4927
▁ਦਬਾ	-4928
▁ਗੁੰਮ	-4929
▁ਛੱਡਣ	-4930
▁ਅਮੀਰ	-4931
▁ਦੱਸੀ	-4932
▁ਸੰਸਥਾਗਤ	-4933
ਲੀਆ	-4934
▁comp	-4935
ਤੀਸ਼	-4936
▁ਸਿਲ	-4937
▁ਵੰਡਣ	-4938
ਦਰਾਬਾਦ	-4939
▁ਅਸੰਤ	-4940
▁ਜ਼ਿਲ੍ਹੇ	-4941
▁ਦਰਜਾ	-4942
▁ਦਰਾਮਦ	-4943
▁ਖਪਤਕਾਰ	-4944
▁ਸੰਭਾਵਿਤ	-4945
ਿਓਂ	-4946
▁ਹੁਨਰ	-4947
▁ਵਰਤਮਾਨ	-4948
▁ਪਿਆਰ	-4949
▁ਅਸ਼ੁੱਧ	-4950
uter	-4951
ਪੀਐਲ	-4952
ਸੀਸੀ	-4953
▁ਮਨੋ	-4954
▁ਐਕਵਾਇਰ	-4955
▁ਮਿਸ਼ਰਾ	-4956
ਇਮਰੀ	-4957
▁ਛੱਤ	-4958
▁ਬੰਗਲ	-4959
▁ਕਾਪੀਆਂ	-4960
▁ਮੁਨਾਫਾ	-4961
ans	-4962
ਇਨਸਾ	-4963
▁ਅਹਿਮ	-4964
▁ਕੌਮੀ	-4965
▁ਖੋਲ੍ਹਣ	-4966
▁ਸੇਵਾਮੁਕਤ	-4967
੍ਰੋ	-4968
▁ਅੜ	-4969
ਜ਼ਾਦ	-4970
▁ਉਭਰ	-4971
▁ਵਰਤਣ	-4972
▁ਪ੍ਰਸਤੁ	-4973
▁ਦਸਤਾਵੇਜ਼ੀ	-4974
ਾਇਨ	-4975
▁ਪ੍ਰਚ	-4976
ਾਹੇ	-4977
▁ਜ਼ੋਰਦਾਰ	-4978
▁ਮੰਨਣਯੋਗ	-4979
▁ਦਿਖਾਇਆ	-4980
▁ਖੜੇ	-4981
▁ਭੇਜੀ	-4982
▁ਗ੍ਰੈਜੂਏਟ	-4983
▁In	-4984
▁xad	-4985
▁ਸਪੈਸ਼ਲ	-4986
ੀਕ	-4987
▁ਪੈਟਰੋ	-4988
▁ਸਥਾਨਾਂ	-4989
▁ਵਿਸ਼ਿਆਂ	-4990
ਅੰ	-4991
▁ਅਰਧ	-4992
▁ਅਗਵਾ	-4993
▁ਸਹਾਰਾ	-4994
ਰਨ	-4995
▁ਵਸੀਅਤ	-4996
▁ਰੱਖੀਆਂ	-4997
▁ਬੰਬ	-4998
▁ਹੈਦਰਾਬਾਦ	-4999
ੱਪਾ	-5000
▁ਨਿਕ	-5001
▁ਸੱਜੇ	-5002
ਤਾਨ	-5003
ਨੇਟ	-5004
▁ਅਪਰ	-5005
▁ਕਿਰਤ	-5006
▁ਖੜ੍ਹਾ	-5007
ਆਮ	-5008
▁ਫੋਨ	-5009
ework	-5010
▁ਰਿਵਾ	-5011
▁ਰੌਸ਼ਨੀ	-5012
▁ਚਸ਼ਮਦੀਦ	-5013
▁ਲੋਹੇ	-5014
▁framework	-5015
ਸਟਰੇ	-5016
▁ਐੱਫ	-5017
▁ਚੀਜ	-5018
▁ਠੀਕ	-5019
▁ਪ੍ਰੋਵੀ	-5020
▁ਉਪਕਰਣਾਂ	-5021
▁ਐਨਆਈ	-5022
racted	-5023
ਕਿਸਤਾਨ	-5024
▁ਜ਼ੁਰਮ	-5025
▁ਅਨੁਵਾਦ	-5026
ਗੰ	-5027
▁ਅਜ਼ਮਾ	-5028
ਪੂ	-5029
▁ਪਛ	-5030
▁for	-5031
▁ਕਰੀਬ	-5032
▁ਗੋਲੀ	-5033
▁ਸਮਝਾਇਆ	-5034
▁ਦੁਰਘਟਨਾ	-5035
ਮਾਚਲ	-5036
▁ਨਿਆਇਕ	-5037
ਅਪਰਾਧ	-5038
▁ਖਾਂਦਾ	-5039
ਪਾਂ	-5040
▁ਬਿੱ	-5041
▁ਸੰਵੇਦਨਸ਼ੀਲ	-5042
ul	-5043
ਭਾਵਾਂ	-5044
▁ਅਣਦੇ	-5045
▁ਚਿੱਠ	-5046
▁ਵਾਂਝਾ	-5047
▁ਸਾਮਾਨ	-5048
▁ਪ੍ਰਵਾਹ	-5049
▁ਵਚਨਬੱਧਤਾ	-5050
ਬਾਈ	-5051
ੰਗਤ	-5052
▁fit	-5053
▁ਅੰਡ	-5054
▁ਐਮਸੀਆਈ	-5055
▁ਪ੍ਰਯੋਗ	-5056
▁ਬੇਲੋੜੀ	-5057
▁ਬੈਲ	-5058
▁ਅਹਿਸ	-5059
▁ਪ੍ਰਤੀਤ	-5060
▁ਕਰਜ਼ਦਾਰ	-5061
ਪਾਲੀ	-5062
ਪਰਸਨ	-5063
▁ਚੇਤ	-5064
▁ਭੱਜ	-5065
ਅਸ	-5066
▁ਘੰ	-5067
▁ਚਿੰਤ	-5068
▁ਉਤਸ਼ਾ	-5069
ਚਾਹੇ	-5070
▁ਅਵਿਸ਼	-5071
▁ਕਸਟਮਜ਼	-5072
▁ਪੱਖਪਾਤੀ	-5073
ਫ਼ੇ	-5074
ਨਾਮਾ	-5075
ਵਾਲਾ	-5076
▁ਸੂਝ	-5077
▁ਮੱਛ	-5078
▁ਸੰਖਿਆ	-5079
▁ਮੰਨਦਿਆਂ	-5080
ਮਿ	-5081
▁ਤੀਸ	-5082
▁ਅਰਸੇ	-5083
▁ਸੰਗਠ	-5084
▁ਪਵੇਗੀ	-5085
ਾਮੀ	-5086
ਦਰਾਂ	-5087
▁ਏਸ਼ੀ	-5088
▁ਹਮਾਇਤ	-5089
▁ਰਜਿਸਟਰੀਕਰਣ	-5090
ਨਿਆਦ	-5091
ਦਾਬਾਦ	-5092
▁ਗਾਹਕ	-5093
▁ਨਿਰਵਿਘਨ	-5094
▁fa	-5095
▁ਵੈਨ	-5096
▁ਮੰਤਵ	-5097
▁ਦੁਆਲੇ	-5098
▁ਅਹਿਸਾਸ	-5099
▁ਲੱਗੀਆਂ	-5100
▁ਝੁਕ	-5101
▁ਕੇਂਦ	-5102
▁ਸਖ਼ਤ	-5103
▁ਕਿਰਿਆ	-5104
▁ਲਿਜਾਣ	-5105
▁ਹਮੇਸ਼ਾ	-5106
ਸ਼ੀਏ	-5107
▁ਕਮਾ	-5108
▁ਗੁਰ	-5109
ੈਨਸ਼ਨ	-5110
▁ਆਰਬੀਆਈ	-5111
▁ਵੈਂ	-5112
▁ਭੁੱਲ	-5113
▁ਹਲਫਨਾਮਾ	-5114
ਲੌ	-5115
ਅਲੀ	-5116
▁ਯਾਦਵ	-5117
▁ਪਹੁੰਚਾਉਣ	-5118
ਂਹ	-5119
ਇੱਕ	-5120
ੋਲਨ	-5121
▁ਚੋਰੀ	-5122
▁ਅਮਰੀਕੀ	-5123
▁ਲਾਇਸੰਸ	-5124
▁ਹਿਮਾਚਲ	-5125
▁ਮੈਨੇਜਮੈਂਟ	-5126
▁ਤਰਲ	-5127
▁ਸਟੇ	-5128
▁ਅਸ਼ੋਕ	-5129
▁ਪੱਧਰਾਂ	-5130
ਰਟੇ	-5131
▁ਅਕਾਉਂਟ	-5132
▁ਨਿਰੰਤਰਤਾ	-5133
▁ਡਾਇਰੈਕਟਰਾਂ	-5134
ਾਰਟ	-5135
▁ਪਾਂ	-5136
▁ਰੱਖੋ	-5137
ੂਡ	-5138
ਕਸ਼ਨ	-5139
ਨਾਮੇ	-5140
▁ਰਾਖਵਾਂਕਰਨ	-5141
ਆਈਡੀ	-5142
▁ਨਰਸ	-5143
▁ਖਰੜਾ	-5144
▁ਸੁਰੇ	-5145
ਐਕਸਐਕਸ	-5146
▁ਨੇੜਲੇ	-5147
▁ਭੀ	-5148
▁ਸ਼ਿਵ	-5149
▁ਆਸਟਰੇ	-5150
▁ਸੀਨੀਅਰਤਾ	-5151
▁ਪ੍ਰਤੀਨਿਧੀ	-5152
▁ਦੁਵ	-5153
▁ਸਮਕਾਲੀ	-5154
▁ਪ੍ਰੀਸ਼ਦ	-5155
ਚੇਤ	-5156
▁ex	-5157
▁ਤਰਫ਼	-5158
▁ਭੌ	-5159
▁ਦਰਵਾ	-5160
▁ਜੁਰਮਾਂ	-5161
▁ਮੁਨਾਫਿਆਂ	-5162
ਾਏ	-5163
▁ਖਾਦ	-5164
▁ਖੁਰਾਕ	-5165
▁ਸਾਮ੍ਹਣੇ	-5166
▁ਬੀਜ	-5167
▁ਰਚਣ	-5168
▁ਪ੍ਰਤਿ	-5169
▁ਡਿਵੈਲਪਮੈਂਟ	-5170
la	-5171
ਚਲਿਤ	-5172
▁ਅਲੱਗ	-5173
▁ਸ਼ਾਖਾ	-5174
▁ਭੈਣ	-5175
▁ਸੰਜ	-5176
▁ਜਾਨਵਰਾਂ	-5177
▁ਪ੍ਰਦਰਸ਼ਿਤ	-5178
▁ਦੇਰ	-5179
▁ਜ਼ੁਲ	-5180
▁ਪੁਨਰਗ	-5181
ਧੂ	-5182
ere	-5183
ਕਸ਼ਾ	-5184
▁ਚੁੱਕੀ	-5185
ਆਪ	-5186
ਟੀਸੀ	-5187
▁ਕਮਾਂ	-5188
▁ਮਸ਼ਹ	-5189
▁१७	-5190
▁ਜਨਜਾ	-5191
▁ਕਹਾਣੀ	-5192
▁ਸ਼ਿਕਾਰ	-5193
▁ਅਪਾਹਜਤਾ	-5194
▁ਪ੍ਰਾਇਮਰੀ	-5195
▁ਪੈਣ	-5196
ਸਤਾਨਾ	-5197
▁ਉਭਾਰ	-5198
▁ਜਾਅਲੀ	-5199
▁ਡਾਇਰੈਕਟ	-5200
▁ਤੰਦਰੁਸਤੀ	-5201
st	-5202
▁ਟਰਾਂਸ	-5203
▁ਅਪੰਗਤਾ	-5204
▁ਨਵੀਨੀਕਰਨ	-5205
▁ਨਦੀ	-5206
ਾਲਿਆ	-5207
▁ਪਰਤ	-5208
ਤਰਨਾਕ	-5209
▁ਲੱਗਿਆ	-5210
ਇੱ	-5211
ਗਣ	-5212
▁ਅੰਦ	-5213
▁ਮਰੀ	-5214
▁ਕੀਮਤੀ	-5215
▁ਅੰਜਾਮ	-5216
▁ਸੁਪਰਾ	-5217
▁ਜਾਣੀਆਂ	-5218
ol	-5219
ੁੱਭ	-5220
▁ਐਗ	-5221
▁bas	-5222
▁ਲਾਸ਼	-5223
▁ਰਕਮਾਂ	-5224
▁ਨਿੱਜਤਾ	-5225
▁ਭਰੋਸੇਯੋਗਤਾ	-5226
ਫੋਨ	-5227
▁ਏਪੀ	-5228
▁ਤਰਫ਼ੋਂ	-5229
▁ਬੇਇਨਸਾ	-5230
▁ਰਿਸ਼ਤੇਦਾਰ	-5231
ਮੰਦ	-5232
▁ਚਿੰਤਤ	-5233
▁ਐਜੂਕੇਸ਼ਨ	-5234
ਸਰਚ	-5235
▁ਸੰਪ	-5236
▁ਸਟੋਰ	-5237
▁ਭੌਤਿਕ	-5238
ਰਾਧਿਕਾਰੀ	-5239
▁ਆਤਮ	-5240
▁ਕੌਰ	-5241
▁ਗਲਤੀਆਂ	-5242
▁ਧਾਰਨ	-5243
▁ਜਾਣਦੇ	-5244
▁ਲੈਣਦਾਰ	-5245
▁ਤਰਕਸ਼ੀਲ	-5246
▁ਨਜ਼ਦੀਕੀ	-5247
ly	-5248
ਸਤਨ	-5249
▁ਦਰਦ	-5250
▁ਸੈਰ	-5251
▁ਟਰਾਇਲ	-5252
▁ਸਾਰਥਕ	-5253
▁ਸੜਕਾਂ	-5254
▁ਮੀਟਿੰਗਾਂ	-5255
▁ਮੈਰਿਟ	-5256
▁ਸੌਂਪਣ	-5257
▁ਪ੍ਰਾਵਧਾਨਾਂ	-5258
▁ਹਕੀ	-5259
ਪ੍ਰਾਈ	-5260
▁ਆਉਣਾ	-5261
▁ਚਾਲੂ	-5262
▁ਪ੍ਰਮਾ	-5263
▁ਖੁਦਕੁਸ਼ੀ	-5264
▁ਜ਼ਬਰਦਸਤੀ	-5265
ਉਪ	-5266
ਲਾਮ	-5267
▁ਰਿਸਰਚ	-5268
▁ਹਮਦਰ	-5269
▁ਅਫਸਰਾਂ	-5270
▁ਕਿਰਾਏਦਾਰਾਂ	-5271
ਐਸਈ	-5272
ਕਾਉਣ	-5273
੍ਰਹਿ	-5274
▁ਉੱਚਿਤ	-5275
▁ਸਮੂਹਕ	-5276
ਕਰਤਾਵਾਂ	-5277
▁ਉਦਾਹਰਣਾਂ	-5278
▁ਧਨ	-5279
▁ਹਟ	-5280
▁ਚੁੱਕਾ	-5281
ਜਵਾਬਦੇਹ	-5282
ਟੈਕ	-5283
▁ਉੱਭਰ	-5284
▁ਦੁਰਲ	-5285
▁ਵਾਂਝੇ	-5286
▁ਸਮਝਦਾਰੀ	-5287
▁ਪ੍ਰਭਾਵਾਂ	-5288
▁ਮੈਸ	-5289
▁ਜਦੋਂਕਿ	-5290
▁ਪ੍ਰਭਾ	-5291
▁ਰੁਚੀ	-5292
▁ਗਰਾਂ	-5293
▁ਘਟੀਆ	-5294
ੱਫਟਵੇਅਰ	-5295
▁ਅੰਦੋਲਨ	-5296
▁ਨਿਰਾਸ਼ਾ	-5297
ਮੇਨ	-5298
▁ਦੰਦ	-5299
▁ਦੱਸਦੇ	-5300
▁ਸਾਇੰਸ	-5301
▁ਬੈਗ	-5302
▁ਮਤਭੇਦ	-5303
▁ਵਸੇਬੇ	-5304
▁ਹੱਥਾਂ	-5305
▁ਜਾਗਰੂਕਤਾ	-5306
ੀਲੇ	-5307
▁ਸੈਨ	-5308
▁ਏਕਤਾ	-5309
▁ਚੌਥੇ	-5310
▁ਪਲੇਟ	-5311
ਡਨ	-5312
.00	-5313
ੂੰਹ	-5314
▁ਯੂਰ	-5315
▁ਕੱਚੇ	-5316
▁ਰਿਆਇਤ	-5317
▁ਦੁਰਲੱਭ	-5318
▁ਬਣਾਉਂਦੇ	-5319
▁ਨਿਰਦੇਸ਼ਤ	-5320
ਿਜਕ	-5321
▁ਆਓ	-5322
▁ਜੀਓ	-5323
▁ਲੈਸ	-5324
▁ਜ਼ੁਲਮ	-5325
▁ਅਧਾਰਾਂ	-5326
▁ਸਾੱਫਟਵੇਅਰ	-5327
ਬਿੰ	-5328
▁by	-5329
ਪੁਰਾ	-5330
ਿਹਾਨ	-5331
ਮ੍ਰਿਤ	-5332
▁ਤਾਇਨਾਤ	-5333
▁ਛੁਟਕਾਰਾ	-5334
▁ਸਾਫ	-5335
▁ਪਰਮਿਟ	-5336
▁ਚੇਅਰਪਰਸਨ	-5337
▁ਪਾਕਿਸਤਾਨ	-5338
▁ਇਨਸੋਲਵੈਂਸੀ	-5339
▁ਵਾਟਰ	-5340
▁ਸਾਰਾ	-5341
▁ਸੈੱਲ	-5342
ge	-5343
ਪਸ	-5344
ੈਗ	-5345
▁’	-5346
ਜੀਬ	-5347
▁ਅਸਮਰਥ	-5348
▁ਦੋਸਤਾਨਾ	-5349
ਭੁ	-5350
ੰਗਾ	-5351
▁ਨੇਤਾ	-5352
▁ਆਰਜ਼ੀ	-5353
▁ਡੂੰਘੀ	-5354
▁ਨੰਬਰਾਂ	-5355
▁ਪ੍ਰਤੀਕ੍ਰਿਆ	-5356
ਿਹਰੇ	-5357
੍ਰਿਸ਼ਨ	-5358
▁ਖ਼ਤਰੇ	-5359
ਹਿਰਾਂ	-5360
▁ਖਰਾਬ	-5361
▁ਗਰੁੱਪ	-5362
▁ਵਿਸਫੋਟਕ	-5363
▁ਪ੍ਰੀਮੀਅਮ	-5364
ਮਿਸ	-5365
▁ਨਿਕਲ	-5366
▁ਕੋਲੋਂ	-5367
▁ਮਿਸ਼ਰ	-5368
ਜੀਸੀ	-5369
▁ਚਲਦਾ	-5370
▁ਚੇਨਈ	-5371
▁ਮਾੜੇ	-5372
▁ਮੈਟਰੋ	-5373
▁ਪੁਨਰਗਠਨ	-5374
▁ਅਨਾ	-5375
▁ਚਿਹਰੇ	-5376
▁ਕਿੰ	-5377
ਸ਼ੇ	-5378
▁ਕੇਂਦਰਾਂ	-5379
▁ਵਿਧਾਨਿਕ	-5380
▁ਕੂ	-5381
▁ਹੋਮ	-5382
▁ਚੰਡੀ	-5383
▁ਪ੍ਰਗਤੀ	-5384
▁ਭਰੇ	-5385
▁ਪਵੇਗਾ	-5386
ਫਾਰਮ	-5387
▁ਬਾਗ	-5388
▁ਸਮੂ	-5389
▁ਮੁਆਇ	-5390
▁ਗੱਲਾਂ	-5391
▁ਸਵੈਇੱਛੁਕ	-5392
ਹਿਕ	-5393
▁ਸੀਜੇ	-5394
▁ਪਰੀਖਿਆ	-5395
ਣਾਅ	-5396
▁ਅੜਿੱ	-5397
▁ਨੁਕਤੇ	-5398
▁ਫਰਮਾਂ	-5399
▁ਬਿੱਲਾਂ	-5400
▁ਸੁਵਿਧਾ	-5401
uth	-5402
▁ਲੜਾਈ	-5403
▁ਅਜ਼ਮਾਓ	-5404
▁ਸਫਲਤਾਪੂਰਵਕ	-5405
ਡਮ	-5406
ਹੇਜ਼	-5407
▁ਕੈਲ	-5408
ਭਾਵਨਾ	-5409
▁ਗਰੀਬੀ	-5410
▁ਕਹਿੰਦੇ	-5411
ਲਿ	-5412
ਬਿਟ	-5413
ਪੇਸ਼	-5414
▁ਗੁਨਾਹ	-5415
▁ਇੰਨੇ	-5416
▁ਅੰਡਰਟੇ	-5417
▁ਅਹੁਦਿਆਂ	-5418
▁ਨਾਤੇ	-5419
▁ਸੈਨਾ	-5420
▁ਚਿੱਠੀ	-5421
▁ਝਾਰ	-5422
▁ਤਣਾਅ	-5423
▁ਉਸੀ	-5424
▁ਮੈਨੂ	-5425
▁ਸਾਫ਼	-5426
ay	-5427
ਬੁ	-5428
▁ਸ਼ੈ	-5429
੍ਹਿਆਂ	-5430
▁ਜੁੜੀ	-5431
▁ਰੈਡੀ	-5432
▁ਹੈਕਟ	-5433
▁basic	-5434
▁ਆਵਾਜ਼	-5435
▁ਭਾਗਾਂ	-5436
ਧਾਰਾਵਾਂ	-5437
▁ਲਗਾਈਆਂ	-5438
▁ਟੈਕਨਾਲੋਜੀ	-5439
▁#	-5440
▁un	-5441
▁ਲੜਨ	-5442
▁ਹੈਕਟੇਅਰ	-5443
▁ਭੂਸ਼ਣ	-5444
ੰਮ	-5445
ਓਵਰ	-5446
▁ਪਲਾਨ	-5447
▁ਭੁਗਤ	-5448
▁ਚਿ	-5449
ਆਈਸੀ	-5450
▁ਵਿਹ	-5451
ਰੇਸ਼ਨ	-5452
▁ਥਾਣਾ	-5453
▁ਬੀਸੀ	-5454
amp	-5455
ਖਸ਼	-5456
▁ਰੁਕਾਵਟਾਂ	-5457
ੁਰੱਖ	-5458
▁ਆਚਰ	-5459
▁ਦੁਵੱਲੇ	-5460
▁ਸੰਗਠਿਤ	-5461
,0	-5462
ੂਦ	-5463
▁ਚੈਂਬਰ	-5464
▁ਰਿਹਾਈ	-5465
ਵਾਂਸ	-5466
▁ਫਿਲਮ	-5467
▁ਰਸੀਦ	-5468
▁ਵਰ੍ਹੇ	-5469
▁ਅਣਚਾਹੇ	-5470
▁ਪ੍ਰਚਲਿਤ	-5471
ਖੋ	-5472
▁ਰਵ	-5473
ਵਾਮੀ	-5474
▁ਨੁਮਾਇੰਦੇ	-5475
raw	-5476
ਦਮੀਆਂ	-5477
▁ਮੱਛੀ	-5478
▁ਪਰਹੇਜ਼	-5479
ਡਜ਼	-5480
ਕੀਅਤ	-5481
▁ਸ਼ਿ	-5482
▁ਕਾਉਂ	-5483
▁ਡਾਲਰ	-5484
▁ਬਿਲਡਰ	-5485
▁ਗੁਪਤਤਾ	-5486
ਾਲਿਆਂ	-5487
▁ਲਾਉਣ	-5488
ਦਰਸ਼ਤਾ	-5489
ੇਂਦਰ	-5490
ੋਲਿਕ	-5491
▁ਗਰੇ	-5492
▁ਟ੍ਰਾਂਸਪੋਰਟ	-5493
੍ਰਤ	-5494
▁ਬਚਤ	-5495
▁ਸ਼ਖ	-5496
▁ਝਿਜਕ	-5497
▁ਪਏਗੀ	-5498
▁ਅਸੰਗਤ	-5499
▁ਵਾਪਰੀ	-5500
▁ਦਾਅਵੇਦਾਰਾਂ	-5501
ਫ਼ਰ	-5502
▁ਸਿਨ	-5503
▁ਅਸਮਾਨ	-5504
▁ਇਸਤੋਂ	-5505
▁ਧਮਾਕੇ	-5506
▁ਉਤਸ਼ਾਹਿਤ	-5507
▁ਕੁੱਟ	-5508
▁ਵਰਮਾ	-5509
▁ਸਿਨੇ	-5510
▁ਟ੍ਰੇਡ	-5511
▁ਰਾਇਲਟੀ	-5512
▁ਸੈਲ	-5513
▁ਹਰਾ	-5514
▁ਦੂਸਰੀ	-5515
▁ਗੈਰਹਾਜ਼ਰੀ	-5516
▁ਛੁਪ	-5517
▁ਅਟੁੱਟ	-5518
▁ਜਮਾ	-5519
▁ਕਲੱਬ	-5520
▁ਰੂਲ	-5521
▁ਟੀਚੇ	-5522
▁ਸ਼ੁੱਭ	-5523
▁ਅਜੀਬ	-5524
▁ਪਟਨਾ	-5525
▁ਤਜ਼ਰਬੇ	-5526
▁ਨਿਰਮਿਤ	-5527
▁ਵਿਦਵਾਨਾਂ	-5528
ਜਨਰਲ	-5529
▁ਕੋਲਕਾ	-5530
▁ਰੋਕਣਾ	-5531
▁ਐਨਡੀ	-5532
▁ਭੱਤਾ	-5533
▁ਜਵਾਬੀ	-5534
▁ਹਮਦਰਦੀ	-5535
▁ਤੁਲਨਾਤਮਕ	-5536
▁ਲੋਕਾਯੁਕਤ	-5537
▁ਟਰੱਸਟੀ	-5538
▁ਵਿਗਿਆਪਨ	-5539
▁ਬੇਇਨਸਾਫੀ	-5540
ਕਾਰਤਾ	-5541
▁ਸ਼ਰਧ	-5542
▁ਬਹਾਲੀ	-5543
▁ਮਾਰਕ	-5544
▁ਵਸਨੀਕ	-5545
▁ਚੰਡੀਗੜ੍ਹ	-5546
ਟਲੀ	-5547
▁ਬੁੱਧੀ	-5548
▁ਇੰਟਰਵਿ	-5549
▁ਸੰਗਠਨਾਂ	-5550
ਾਰਾਂ	-5551
▁ਇਕਜ	-5552
▁ਕਰਨੇ	-5553
▁ਮੁਆਫ	-5554
▁ਡਿਜੀਟਲ	-5555
▁ਸੰਪਤੀਆਂ	-5556
ੋਰਟ	-5557
▁ਰਿਸ਼ਵਤ	-5558
▁ਬਿਨੈਕਾਰਾਂ	-5559
▁ਅਡ	-5560
ਾਈਟਿਡ	-5561
▁ਲਿੰਕ	-5562
▁ਪ੍ਰੇਰਣਾ	-5563
au	-5564
ਰਖਾਅ	-5565
▁VII	-5566
ੀਲੈਂਸ	-5567
▁ਕੋਲੇ	-5568
▁ਸੌਦੇ	-5569
▁ਵਾਰਸਾਂ	-5570
▁ਪ੍ਰੋਫੈਸਰ	-5571
▁ਸੱਕ	-5572
▁ਮਾੜਾ	-5573
▁ਅਸ਼ਲੀਲ	-5574
ਪਾਰੀ	-5575
▁ਸਜ਼	-5576
▁ਪੈਂਡਿੰਗ	-5577
ੇਬਲ	-5578
ਭਾਰਤ	-5579
▁ਫਰੇ	-5580
▁ਕਾਡਰ	-5581
ਪੀਅਨ	-5582
▁ਬੇਨਿ	-5583
▁......	-5584
▁ਝਾਰਖੰਡ	-5585
▁ਪ੍ਰਤੀਯੋਗੀ	-5586
ਐਸਐਲ	-5587
ਸੀਆਰ	-5588
▁ਸਮਝੌਤਿਆਂ	-5589
ਰਕ	-5590
ੁਣਾ	-5591
ਵਾਨੀ	-5592
▁ਪ੍ਰਭੂ	-5593
▁ਮਾਰਿਆ	-5594
ੱਕੜ	-5595
▁ਬਜ	-5596
▁ਟ੍ਰੈ	-5597
▁ਪਹੁੰਚਾ	-5598
▁ਸਮੂਹਿਕ	-5599
▁ਦੁਕਾਨਾਂ	-5600
ਹਿਸੀਲ	-5601
▁ਕਿਰਪਾ	-5602
▁ਸਜ਼ਾਵਾਂ	-5603
▁ਸੁਧਾਰਾਂ	-5604
▁ਬਰਖਾਸਤਗੀ	-5605
ਗਰਸ	-5606
▁ਡੈਮ	-5607
▁ਪਾਰਦਰਸ਼ਤਾ	-5608
▁ਟੈਸ	-5609
▁ਅਣਦੇਖੀ	-5610
▁ਬਜ਼ੁਰਗਤਾ	-5611
▁ਪੈਟਰੋਲੀਅਮ	-5612
ਾਟਾ	-5613
ਐਮਐਸ	-5614
▁ਐਂਟਰ	-5615
▁ਕੋਲਕਾਤਾ	-5616
▁ਦੁਰਾਚਾਰ	-5617
▁ਅੰਡਰਟੇਕਿੰਗ	-5618
ੱਟੀ	-5619
▁ਤਲਬ	-5620
▁ਆਨੰਦ	-5621
▁ਚਲਾਨ	-5622
▁ਪਹਿਲਕਦਮੀਆਂ	-5623
ਾਲਾਂ	-5624
▁ਐਂਟੀ	-5625
▁ਦੋਸਤ	-5626
▁ਤਹਿਸੀਲ	-5627
▁ਨਿਵੇਸ਼ਕਾਂ	-5628
ਦੇਵ	-5629
▁ਮਜ	-5630
▁ਦੁਖ	-5631
▁ਯੂਕੇ	-5632
▁ਇਮਤਿਹਾਨ	-5633
▁ਵਿਕਲਪਿਕ	-5634
▁--	-5635
▁ਅਗਰ	-5636
▁ਚੈਕ	-5637
▁ਅਪਰੈਲ	-5638
ਵਨੀ	-5639
ਠਜੋੜ	-5640
▁ਵਪਾਰੀ	-5641
▁ਬੰਗਲੌਰ	-5642
▁ਅਪਰਾਧੀਆਂ	-5643
▁ਸਵੀਕਾਰਿਆ	-5644
ਲੇਟ	-5645
ਵੇਸ	-5646
▁ਅਤਿਅ	-5647
▁ਸੋਨੇ	-5648
▁ਵਰਜਿਤ	-5649
▁ਬੁਲਾਉਣ	-5650
ਤਸਵੀਰ	-5651
▁ਇਮਾਨ	-5652
▁ਮਿੰਟ	-5653
▁ਸਾਹਿਤ	-5654
▁ਦਫਤਰਾਂ	-5655
▁ਪ੍ਰਤਿਕ	-5656
▁ਇੰਡਸਟਰੀਜ਼	-5657
ਨੈਂਸ	-5658
▁ਬੈਕ	-5659
▁ਚੱਕਰ	-5660
▁ਟ੍ਰੇ	-5661
▁ਦਾਨ	-5662
ਟਰੀਆਂ	-5663
ੰਟਿਆਂ	-5664
▁ਯੂਨਾਈਟਿਡ	-5665
ਕਰਾਂ	-5666
▁ਆਚਰਣ	-5667
▁ਸ਼ੀਟ	-5668
▁ਸਕੂਲਾਂ	-5669
▁ਬਾਇਓਮੈਟ	-5670
▁ਝੀਲ	-5671
▁ਮਾਹ	-5672
▁ਟਰੱਕ	-5673
▁ਹੋਣੀਆਂ	-5674
▁ਪ੍ਰਤੀਬਿੰ	-5675
▁ਹਿੱਸੇਦਾਰੀ	-5676
▁ਸਦੱਸ	-5677
ਵੈ	-5678
▁ਹਕੀਕਤ	-5679
▁ਪ੍ਰਮਾਣੀ	-5680
▁ਪ੍ਰਵਾਨਿਤ	-5681
▁ਥੀ	-5682
▁ਇੱਕੋ	-5683
▁ਘੰਟਿਆਂ	-5684
▁ਸਦਭਾਵਨਾ	-5685
▁ਪਰਿਵਾਰਾਂ	-5686
▁ਪ੍ਰਸਤਾਵਾਂ	-5687
▁ਉਰ	-5688
▁ਜੁੜ	-5689
▁ਬੁਝ	-5690
▁ਮਾਰਨ	-5691
id	-5692
▁ਮੁਖਬਰ	-5693
▁ਮਾਰੂਤੀ	-5694
▁ਫਾਇਰ	-5695
▁ਗਰਾਂਟ	-5696
▁ਪਰਵਾਹ	-5697
▁ਮਲਕੀਅਤ	-5698
▁ਮੁਸਲਮਾਨ	-5699
▁ਛੋਟੀ	-5700
▁ਪੇਸ਼ਗੀ	-5701
▁ਧਾਰਨਾਵਾਂ	-5702
▁ਬਜਟ	-5703
▁ਉੱਘੇ	-5704
▁ਬੇਸ਼	-5705
▁ਰਸਤਾ	-5706
ਹਾਜ਼ਾਂ	-5707
▁ਅਤਿਅੰਤ	-5708
ਹੀਣ	-5709
ੰਡਨ	-5710
ਪੋਲੀ	-5711
▁ਕਸ਼	-5712
▁ਸੁਬ	-5713
▁ਕਾਰਣ	-5714
▁ਸਲਾਨਾ	-5715
▁ਲੈਣਦਾਰਾਂ	-5716
▁ਟੋ	-5717
▁ਸੰਗੀ	-5718
▁ਖੁੱਲੇ	-5719
▁ਦਿਲਚਸਪ	-5720
▁ਮਾਣਯੋਗ	-5721
ਵਕੂ	-5722
ਾਤਕ	-5723
▁ਫੈਲਾ	-5724
▁ਮਾਲੀ	-5725
▁ਨਿਵਾਸ	-5726
▁ਵਿਸਥਾਰਤ	-5727
ਇਡਾ	-5728
ਹਿਮ	-5729
ਿੰਦ	-5730
ੁੰਮ	-5731
▁ਸੁਚੇਤ	-5732
▁ਅਸਤੀਫਾ	-5733
▁ਇੰਟਰਨੈਸ਼ਨਲ	-5734
ਐਂਗ	-5735
ਕਸੀ	-5736
▁ਉਲਝਣ	-5737
▁ਖੰਡਨ	-5738
▁ਦੁਬਈ	-5739
▁ਸਿੰਚਾਈ	-5740
▁ਕੇਂਦ੍ਰਤ	-5741
▁ਸਹਿਕਾਰਤਾ	-5742
gh	-5743
ਮੀਆ	-5744
▁ਰਾਧ	-5745
▁ਅਨਾਜ	-5746
▁woman	-5747
▁ਭਾਸ਼ਾਵਾਂ	-5748
ਕਰੋ	-5749
ਦਮਾ	-5750
ਟੀਜ਼	-5751
▁ਚਲਾਉਣਾ	-5752
▁ਲੂ	-5753
ਜੂਰੀ	-5754
▁ਘੰਟੇ	-5755
▁ਮਿਆਰਾਂ	-5756
ਹਕ	-5757
ਨੀਕਲ	-5758
ਰਾਵਟ	-5759
▁ਇੱਛ	-5760
▁ਬਾਰ੍ਹਵੀਂ	-5761
▁ਰੈਗੂਲੇਸ਼ਨਜ਼	-5762
▁ਚੌਥਾ	-5763
▁ਰਹਿਮ	-5764
▁ਉਪਯੋਗ	-5765
▁ਸਵਾਗਤ	-5766
▁ਤਨਖਾਹਾਂ	-5767
▁ਬੀਸੀਸੀਆਈ	-5768
ਟਰਾ	-5769
▁ਫਿ	-5770
▁ਅਤਿ	-5771
▁ਘਾਟਾ	-5772
▁ਬੱਚਾ	-5773
▁ਗਿਰਾਵਟ	-5774
▁ਪੀੜ੍ਹੀ	-5775
▁ਸਟੈਂਡਰ	-5776
▁ਪ੍ਰਸਿੱਧ	-5777
▁ਪਰੇਸ਼ਾਨੀ	-5778
ਛਾੜ	-5779
▁ਜਾਣਨ	-5780
▁ਬੇਵਕੂ	-5781
ਸੰਵਿਧਾਨਕ	-5782
▁ਰਾਈਟ	-5783
▁ਸੈੱਸ	-5784
▁ਬੇਲੋੜਾ	-5785
▁ਸਕੀਮਾਂ	-5786
▁ਨੋਇਡਾ	-5787
▁ਸੱਕਤਰ	-5788
▁ਬਜ਼ੁਰਗ	-5789
▁ਮਰੀਜ਼ਾਂ	-5790
▁ਵਿਚਲੀਆਂ	-5791
▁ਸੰਸ਼ੋਧਿਤ	-5792
▁ਜ਼ਿਲ੍ਹਿਆਂ	-5793
ਹਿਰੂ	-5794
▁ਕਰਤਾ	-5795
▁ਗੁਰੂ	-5796
▁ਵਿਸਤ੍ਰਿਤ	-5797
▁ਰੇਖਾ	-5798
▁ਕਾਂਗਰਸ	-5799
ia	-5800
ਵਾਟ	-5801
ਦਰਗਾ	-5802
▁ਇੰਤ	-5803
▁ਕੈਂਪ	-5804
▁ਘਾਤਕ	-5805
▁ਥੋੜੇ	-5806
▁ਨਾਕਾ	-5807
ਮਸ਼ਵਰਾ	-5808
▁ਪ੍ਰੈਕ	-5809
▁ਪੰਦਰਾਂ	-5810
▁ਦਹਾਕਿਆਂ	-5811
▁ਸੁਸਾਇਟੀਆਂ	-5812
▁ਅਖੰਡ	-5813
▁ਸੰਜੇ	-5814
▁ਅੱਖਾਂ	-5815
▁ਪਾਉਂਦੇ	-5816
▁ਚਿੰਤਾਵਾਂ	-5817
▁ਉੱਚਾ	-5818
▁ਵੋਟਰ	-5819
▁ਕਰਜ਼ਿਆਂ	-5820
▁ਸਟੋ	-5821
ਸਾਈਕਲ	-5822
▁ਅਫਰੀ	-5823
▁ਭਿਆਨ	-5824
▁ਬਦਨਾਮ	-5825
ਪਿੰਗ	-5826
▁ਨੀਅਤ	-5827
▁ਜ਼ਮੀਰ	-5828
▁ਸਮਰਪਿਤ	-5829
▁ਨਿਰੀਖਣਾਂ	-5830
ith	-5831
▁ਚੈਨਲ	-5832
▁ਐਮਓ	-5833
ਆਰਥਿਕ	-5834
▁ਅਵੇਸ	-5835
▁ਚੁੱਪ	-5836
▁ਨਹਿਰੂ	-5837
▁ਬੰਦਰਗਾ	-5838
ਚਾਂ	-5839
ਲਿੰ	-5840
ਾਇਣ	-5841
ਲੈਕਸ	-5842
▁ਸੋਧੇ	-5843
▁ਹਲਕੇ	-5844
▁ਕੱਪੜੇ	-5845
▁ਫਾਇਦੇ	-5846
ੱਥੇ	-5847
▁ਉੱਚੇ	-5848
▁ਟੈਲੀਫੋਨ	-5849
▁computer	-5850
▁ਰਿਸ਼ਤੇਦਾਰਾਂ	-5851
)।	-5852
ਕੇਜ	-5853
ਸਿਰ	-5854
▁ਵਧੇ	-5855
▁ਲਿਖਣ	-5856
▁ਕਰਵਾਉਣਾ	-5857
ੀਨਾ	-5858
▁ਅਨੇ	-5859
▁ਅਸਹਿ	-5860
▁ਬੀਮੇ	-5861
▁ਮੇਰਾ	-5862
▁ਸੰਕਟ	-5863
ਉੱਚ	-5864
▁ਪੁੱਛੇ	-5865
▁ਬਦਲਣਾ	-5866
▁ਰਿਕਾਰਡਿੰਗ	-5867
▁ਕਿਲ	-5868
▁ਫਾਈ	-5869
▁ਬਣਨਾ	-5870
▁ਕਰੋੜਾਂ	-5871
ਕਿਸ	-5872
▁ਅਖੰਡਤਾ	-5873
▁ਰਸਾਇਣਕ	-5874
ਕਲਾ	-5875
ਸੀਆਂ	-5876
▁ਭਿੰਨ	-5877
ਸੈਕਸ਼ਨ	-5878
▁ਬੀਮਾਕਰਤਾ	-5879
▁ਜਦਕਿ	-5880
ਪੋਲੀਟਨ	-5881
▁ਰੇਡੀਓ	-5882
ਠੇ	-5883
▁ਟਿ	-5884
▁ਸੀਲ	-5885
▁ਖਤਰੇ	-5886
▁ਜਿੱਤ	-5887
▁ਪੜਾਵਾਂ	-5888
▁ਬੇਦਖਲੀ	-5889
▁ਸਰਪ੍ਰਸਤ	-5890
▁ਟੂ	-5891
▁ਕਿੰਗ	-5892
▁ਬਣਦੇ	-5893
▁ਬਣੀਆਂ	-5894
ated	-5895
▁ਸਾਧ	-5896
▁ਪ੍ਰੋਟ	-5897
▁ਬੁਨਿਆਦ	-5898
▁ਡਿਵੈਲਪਰ	-5899
▁ਚਾਕੂ	-5900
▁ਭਿਆਨਕ	-5901
▁ਪਹੁੰਚੀ	-5902
▁ਪ੍ਰਮਾਣੀਕਰਣ	-5903
▁CA	-5904
ਮੌਜੂ	-5905
▁ਛੂਟ	-5906
▁ਗੁਆਂ	-5907
▁ਮੰਗਣ	-5908
▁ਸਬਸਿ	-5909
ousing	-5910
ਜੈਕਸ਼ਨ	-5911
▁ਥੋੜ੍ਹੀ	-5912
▁ਨਾਥ	-5913
ਐਕਸਐਡ	-5914
▁ਬਾਡੀ	-5915
▁ਮੁਰੰ	-5916
▁ਮੈਗਾ	-5917
▁ਸਰਵਿਸਿਜ਼	-5918
▁ਕਰਜ਼ਦਾਰਾਂ	-5919
▁ਤਫ਼	-5920
▁ਬਹੁਤੇ	-5921
▁ਪੋਲ	-5922
▁ਐਨਜੀ	-5923
▁ਬਾਂਡ	-5924
▁ਸਿਨਹਾ	-5925
▁ਸਿਰਫ਼	-5926
▁ਮੁਰੰਮਤ	-5927
▁ਆਉਂਦੀਆਂ	-5928
▁ਦੁਹਰਾਉਣ	-5929
▁ਲਓ	-5930
▁ਖੇਤ	-5931
▁ਮੋਹਰ	-5932
ਣੂ	-5933
▁ਸੁਰਜੀਤ	-5934
▁१८	-5935
▁ਕਨੂੰਨੀ	-5936
▁ਲਿਆਂਦੀ	-5937
▁ਮੈਟਰੋਪੋਲੀਟਨ	-5938
▁ਨੌਂ	-5939
▁ਜਤਾਇਆ	-5940
▁ਵਿਧਵਾ	-5941
▁ਸਿਖਿਆ	-5942
ੰਡਰ	-5943
▁VI	-5944
ਅਰਿੰਗ	-5945
ੈਕਸੈਡ	-5946
▁ਲਹੂ	-5947
▁ਨਕਲੀ	-5948
▁ਕੁਆਲਟੀ	-5949
▁ਮਾਹਰਾਂ	-5950
▁ਸਿਨੇਮਾ	-5951
▁ਅਲਾਹਾਬਾਦ	-5952
ਫੋਰ	-5953
ਪ੍ਰਣ	-5954
▁ਆਈਏ	-5955
ਕਾਨੂੰਨ	-5956
▁under	-5957
▁ਅਰੁਣਾ	-5958
▁ਵਸੂਲਣ	-5959
▁ਵਿਭਿੰਨਤਾ	-5960
▁ਪੁਸ਼ਟੀਕਰਣ	-5961
ਖਾਵਾਂ	-5962
▁ਸੁਣਾਏ	-5963
▁ਸੂਰਤ	-5964
ੋਰੇਟ	-5965
▁ਉੱਨ	-5966
▁ਕਲੇ	-5967
▁ਹਰਜ	-5968
▁ਕਿੱਤਾ	-5969
▁ਪਰਿਭਾਸ਼ਿਤ	-5970
▁ਹੜ	-5971
▁ਤਸ਼	-5972
▁ਪੜ੍ਹੀ	-5973
▁ਮਿਹਨਤ	-5974
▁inf	-5975
▁ਸਵਰ	-5976
▁ਕੈਦੀ	-5977
▁ਟਿੱਪਣੀਆਂ	-5978
ਗ਼	-5979
ਾਡ	-5980
▁ਆਦਰਸ਼	-5981
▁ਜ਼ਖ਼ਮ	-5982
ਦਰਸ਼ੀ	-5983
▁ਹਾਈਡ	-5984
▁ਰਾਜਨੀਤੀ	-5985
ਸੀਟੀਈ	-5986
▁ਕਰਵਾਇਆ	-5987
▁ਸਬਸਿਡੀ	-5988
vii	-5989
ਫਾਈ	-5990
▁ਆਈਓ	-5991
▁ਬੁੱਝ	-5992
ਘੱਟ	-5993
ਲਾਲ	-5994
▁ਅੰਰ	-5995
▁ਹੈਲ	-5996
▁ਪੱਖਾਂ	-5997
ਚੰਦਰ	-5998
▁ਗਰਮ	-5999
▁ਸ਼ੁ	-6000
▁ਪੁਣੇ	-6001
▁ਮੁੱਕ	-6002
ਹਿਣਿਆਂ	-6003
▁ਆਕਰਸ਼ਿਤ	-6004
▁ਕੰਪਲੈਕਸ	-6005
ਐਸਆਰ	-6006
▁ਕਿਸਾਨ	-6007
▁with	-6008
▁ਤਿਆਗ	-6009
▁ਪ੍ਰਸ਼ਾਸਕੀ	-6010
ਖਨ	-6011
ਨਾਸ਼	-6012
▁ਅਵੈ	-6013
▁ਕੌਣ	-6014
▁ਰਿਫੰਡ	-6015
▁ਦਵਾਈਆਂ	-6016
▁ਮਸ਼ਹੂਰ	-6017
▁ਸੁਣਾਉਣ	-6018
▁ਕਨਵ	-6019
ਗ੍ਰਾਫ	-6020
▁ਬੁੱਕ	-6021
▁ਵਧਿਆ	-6022
▁ਸੀਪੀਸੀ	-6023
▁ਹਾਰ	-6024
▁ਬਰਾਮ	-6025
▁ਬੰਗਲਾ	-6026
▁ਪਾਉਂਦਾ	-6027
▁ਅਨੁਸ਼ਾਸਨ	-6028
▁ਐਂਟਰਪ੍ਰਾਈ	-6029
ੰਡਾ	-6030
▁ਮੈਕ	-6031
ਉਂਦੀਆਂ	-6032
▁ਮਨਜੂਰੀ	-6033
▁ਬਰਾਮਦਗੀ	-6034
▁ਸ਼ਕਤੀਸ਼ਾਲੀ	-6035
ੱਕੀਆਂ	-6036
ਨਾਵ	-6037
▁ਮੇਘ	-6038
ਗੋਪਾਲ	-6039
▁ਆਪਹੁ	-6040
▁ਕਾਂਸਟ	-6041
▁ਕੈਰੀਅਰ	-6042
▁ਪੁਆਇੰਟ	-6043
▁ਪ੍ਰਦਾਤਾ	-6044
▁ਵਸਨੀਕਾਂ	-6045
ਡੋ	-6046
ਆਈਏ	-6047
▁st	-6048
ਚੇਰੀ	-6049
▁ਅਵੈਧ	-6050
▁ਡਿਸਟ	-6051
ਨਿਆਂਇਕ	-6052
▁ਤਰੀਕਾਂ	-6053
▁ਜੱਜਮੈਂਟ	-6054
▁ਪਰੇਸ਼ਾਨ	-6055
▁ਭੇਟ	-6056
▁ਵੇਖੀ	-6057
▁ਖ਼ਤਰਾ	-6058
▁ਖਾਣਾਂ	-6059
▁ਜੈਪੁਰ	-6060
▁ਗਹਿਣਿਆਂ	-6061
▁ਪ੍ਰਤਿਕ੍ਰਿਆ	-6062
ਟਡ	-6063
▁ਚਲੇ	-6064
▁ਆਈਟੀ	-6065
▁ਰੋਕਦਾ	-6066
▁ਹਫ਼ਤੇ	-6067
▁ਨੋਟੀਫਿਕੇਸ਼ਨਾਂ	-6068
ਸ਼ਕਤੀ	-6069
▁ਉਤਾਰ	-6070
▁ਖਾਣਾ	-6071
▁ਦੇਖੋ	-6072
▁ਗ੍ਰੇਡ	-6073
▁ਅਸਧਾਰਨ	-6074
ਸ਼ੋਰ	-6075
▁ਮੂਰ	-6076
▁ਘੁੰਮ	-6077
▁ਮੁਹਿ	-6078
▁ਸਿਧਾਂਤਕ	-6079
▁ਸੁਲਝਾਉਣ	-6080
▁ਵਿਵੇਕਸ਼ੀਲ	-6081
ਐੱਲ	-6082
ਟਾਈ	-6083
ਾਂਗਾ	-6084
ਦਮੀ	-6085
▁ਕਲੀਨ	-6086
▁ਰੋਜ਼ੀ	-6087
ਐਨਐਲ	-6088
ਭਾਗੀ	-6089
▁ਡੈਬਿਟ	-6090
▁ਪਿੰਡਾਂ	-6091
▁ਪ੍ਰੈਕਟੀਸ਼ਨ	-6092
ਰਾਇ	-6093
ਾਰੂ	-6094
▁IS	-6095
ਐਸਟੀ	-6096
▁ਕੋਰ	-6097
▁ਮੋਰ	-6098
▁ਲਈਆਂ	-6099
▁ਲੈਂਦੀ	-6100
▁ਫਾਰਮੂਲੇ	-6101
ਲਕ	-6102
ਮਾਲਕ	-6103
▁ਫਸਲ	-6104
▁ਅਨੁਭ	-6105
ਕਾਮਨਾਵਾਂ	-6106
ਸਲਰ	-6107
ਆਰਟੀ	-6108
▁ਚਿਕ	-6109
▁ਰੁਖ	-6110
ਜੀਵ	-6111
ੂਸ਼ਨ	-6112
ਵੰਤ	-6113
ਬਖਸ਼	-6114
▁ਆਰਟ	-6115
▁ਪਿਸ	-6116
ਐਕਸੈਡ	-6117
▁ਇੰਤਜ਼ਾਰ	-6118
▁ਬੂ	-6119
▁ਦਮਨ	-6120
▁ਅਨਿਲ	-6121
▁ਲੰਮੇ	-6122
ਕਸ਼ਮੀਰ	-6123
ਮ੍ਰਿਤਕ	-6124
▁ਆਵੇਗੀ	-6125
▁ਘੁ	-6126
ਧਾਰਤ	-6127
▁ਫ਼ਤ	-6128
▁ਕੋਟੇ	-6129
▁ਸਿਰੇ	-6130
▁ਦੇਣਗੇ	-6131
▁ਆਲੇ	-6132
▁ਤਸਵੀਰ	-6133
▁ਸਮੱਗਰੀਆਂ	-6134
ਯਾ	-6135
ਹਾਨ	-6136
view	-6137
▁ਅਜੋ	-6138
▁ਝੂਠਾ	-6139
▁ਸਮਝੇ	-6140
ਰੈ	-6141
ੰਕ	-6142
ਮੋਟ	-6143
▁ਸਪੋਰਟ	-6144
ਪ੍ਰਣਾਲੀ	-6145
▁ਪ੍ਰੋਜੈਕਟਾਂ	-6146
.]	-6147
ਓਐਸ	-6148
ਫਾਈਡ	-6149
ਿਰਿਕ	-6150
▁ਬੇਸ	-6151
▁ਰਾਜਾ	-6152
▁ਪਾਸਪੋਰਟ	-6153
ਰਿ	-6154
▁ਅੰਨ	-6155
▁ਮਨ੍ਹਾ	-6156
▁ਸ਼ੰਕਰ	-6157
ਉਸ	-6158
ਮਿਲ	-6159
ਮੀਂ	-6160
ੋਲਡ	-6161
▁ਲਾਂ	-6162
▁ਕਸਰਤ	-6163
ਕਿਸਮਤੀ	-6164
▁ਮੈਰਿਜ	-6165
▁ਸਾਧਨਾਂ	-6166
ud	-6167
ਿਆਣ	-6168
▁()	-6169
▁ਝਾ	-6170
ਬਨਿਟ	-6171
▁ਕਲੀ	-6172
▁ਲਿਆਉਣਾ	-6173
ਮੈਂਟਸ	-6174
▁ਆਕਾਰ	-6175
▁ਰੋਕੂ	-6176
▁ਵਿਹੜੇ	-6177
▁ਯਾਤਰੀਆਂ	-6178
▁ਫੂਡ	-6179
ਿਰਿਕਤ	-6180
▁ਨੀਂਹ	-6181
▁ਮਲਟੀ	-6182
▁ਦਰਮਿਆ	-6183
▁ਬ੍ਰਾਂਚ	-6184
▁ਇਲਾਕਿਆਂ	-6185
▁ਬੋਲਦਿਆਂ	-6186
▁ਅਰਬ	-6187
▁ਡਿੱਗ	-6188
▁ਵਿਚੋਲ	-6189
▁ਕਸ਼ਮੀਰ	-6190
▁ਬੇਨਿਯਮ	-6191
▁ਗੇ	-6192
▁ਭਟਕ	-6193
▁ਪ੍ਰੇ	-6194
▁ਦੋਹਾਂ	-6195
▁ਜੁੜੀਆਂ	-6196
▁ਨਿਵਾਸੀ	-6197
▁ਪ੍ਰਤੱਖ	-6198
ੰਪਰਾ	-6199
▁ਵਕਫ	-6200
▁ਉਠਾਉਣ	-6201
▁ਮੁਆਇਨਾ	-6202
▁ਹਾਸ਼ੀਏ	-6203
▁ਹੋਲਡਿੰਗ	-6204
▁ਵਿਜੀਲੈਂਸ	-6205
▁00	-6206
▁ਚਿੱ	-6207
▁ਤਸਕਰੀ	-6208
▁ਸਟੈਂਡਰਡ	-6209
▁ਨੌਜਵਾਨਾਂ	-6210
▁ਯੋਜਨਾਬੱਧ	-6211
ਅੰਤ	-6212
▁(“	-6213
ੱਡੀਆਂ	-6214
▁ਕੈਬਨਿਟ	-6215
▁ਡਿਜੀਟਲੀ	-6216
▁ਪ੍ਰਾਪਤੀਆਂ	-6217
▁ਸਿਫ਼ਾਰਸ਼ਾਂ	-6218
▁ਜਾਤ	-6219
▁ਮਹਿਤਾ	-6220
▁ਤੁਹਾਡਾ	-6221
▁ਆਸਟਰੇਲੀਆ	-6222
▁ਪ੍ਰੇਸ਼ਾਨੀ	-6223
ਟੂ	-6224
ੌਨ	-6225
▁ਨੁਸ	-6226
ੱਤੀਸ	-6227
▁ਛਾਤੀ	-6228
▁ਪਾਲਿਕਾ	-6229
▁r	-6230
▁ਇਨੋ	-6231
▁ਡੀਜੀ	-6232
▁ਦੰਦਾਂ	-6233
▁ਸਟੈਂਪ	-6234
▁ਸੋਚਦੇ	-6235
▁ਫਰਜ਼ਾਂ	-6236
▁ਇੱਛਾਵਾਂ	-6237
▁ਅਪਗ	-6238
▁ਉਤਰ	-6239
▁ਠਾਕ	-6240
▁ਰਿਵਾਜ	-6241
▁ਅਫਰੀਕਾ	-6242
▁ਪ੍ਰੋਵੈਸ	-6243
▁ਯੂਰਪੀਅਨ	-6244
▁pri	-6245
▁ਕੱਲ	-6246
▁ਡਿਕ	-6247
▁ਆਈਟਮ	-6248
▁ਅਤਿਰਿਕਤ	-6249
▁ਮੰਤਰਾਲਾ	-6250
▁ਤਸੱਲੀਬਖਸ਼	-6251
▁ਡਾਇਰੈਕਟੋਰੇਟ	-6252
▁ਉਚ	-6253
ਸ਼ਿਕ	-6254
▁ਫਸਾ	-6255
▁ਆਜ਼ਾਦ	-6256
▁ਨੋਟਾਂ	-6257
▁ਸੰਗੀਤ	-6258
▁ਦੁਸ਼ਮਣੀ	-6259
▁ਵਿਵਹਾਰਕ	-6260
▁ਲਾਰਡਸ਼ਿਪ	-6261
▁ਨਿਰਮਾਤਾਵਾਂ	-6262
ਹਾਲ	-6263
▁ਓਮ	-6264
▁ਉਰਫ	-6265
▁ਸੁੱ	-6266
▁ਪੰਜਾਹ	-6267
▁ਅਖਬਾਰਾਂ	-6268
ੱਦਦ	-6269
ਟੇਬਲ	-6270
ਪਛਾਣੇ	-6271
▁ਅਸਾਨੀ	-6272
▁ਵਰਗੀਆਂ	-6273
▁ਨੁਕਸਾਨਦੇਹ	-6274
▁ਪ੍ਰਬੰਧਕਾਂ	-6275
ਬੀਆ	-6276
ਿਅਮ	-6277
▁ਚੀਨ	-6278
▁ਛੱਡਿਆ	-6279
▁ਪ੍ਰੋਬ	-6280
▁ਗੋਲੀਆਂ	-6281
ੈਂਸਿਕ	-6282
▁ਸੀਸੀ	-6283
▁ਨਵੀਆਂ	-6284
ਵਿਗਿਆਨਕ	-6285
▁ਨਜ਼ਰਬੰਦ	-6286
ੌਕ	-6287
▁ਨਾਜ਼	-6288
▁ਐਮਐਸਐਮਈ	-6289
▁ਰਾਖਵੇਂਕਰਨ	-6290
ਸਿਨ	-6291
▁ਯੰਤਰ	-6292
▁ਦਿਲੋਂ	-6293
########	-6294
▁ਪ੍ਰਸ਼ਾਸਨਿਕ	-6295
ਲੈ	-6296
▁ਜੀਵਣ	-6297
▁ਪਰੇਡ	-6298
▁ਅਗਰਵਾਲ	-6299
▁ਕਹਿੰਦੀ	-6300
per	-6301
ਮੰਡ	-6302
ਜਨਤਕ	-6303
ਵਾਂਗੇ	-6304
▁ਆਰਟੀ	-6305
▁ਕਾਬੂ	-6306
▁ਕਾਲਮ	-6307
▁ਸੰਤੁਲਿਤ	-6308
ਿਗ	-6309
lim	-6310
ਸ਼ਕਾਂ	-6311
▁ਬਿਮਾਰੀਆਂ	-6312
▁ਤੰ	-6313
▁ਸਿੱਖਣ	-6314
▁ਬਰਾਬਰਤਾ	-6315
▁ਮੇਘਾਲਿਆ	-6316
▁ਨਿਵੇਸ਼ਾਂ	-6317
▁ਭੋ	-6318
res	-6319
ਿਆਮ	-6320
▁ਚਮ	-6321
ਸਟਿਕ	-6322
▁ਇਨਾਮ	-6323
▁ਜ਼ਰੂਰ	-6324
▁ਥੋੜ੍ਹੇ	-6325
▁ਸੰਗ੍ਰਹਿ	-6326
▁ਟ੍ਰਾਂਜੈਕਸ਼ਨ	-6327
ਰੀਮਨ	-6328
ੈਂਟਸ	-6329
▁ਆਦਰ	-6330
▁ਰੋਲ	-6331
▁ਜਮਾਤ	-6332
▁ਏਸ਼ੀਆ	-6333
▁ਜੰਗਲੀ	-6334
▁ਯੂਜੀਸੀ	-6335
ਵੇਦੀ	-6336
▁ਭਰੀ	-6337
▁ਮੈਦਾਨ	-6338
▁ਰਮੇਸ਼	-6339
ਐਨਏ	-6340
ਧਾਰਕ	-6341
ੰਗਾਈ	-6342
▁ਏਆਈ	-6343
▁ਬਹਾ	-6344
▁ਇਸਨੇ	-6345
▁ਫਰੇਮ	-6346
▁ਕਨਵੈਨਸ਼ਨ	-6347
▁ਵਿਦੇਸ਼ਾਂ	-6348
ਬੈਂ	-6349
▁ਲਚ	-6350
ੁਕਰਾ	-6351
▁ਖਰੀਦੀ	-6352
▁ਚੱਲਦਾ	-6353
▁ਨਿਭਾਈ	-6354
▁ਟੀਚਿਆਂ	-6355
▁ਪਰੰਪਰਾ	-6356
▁ਪਲਾਟਾਂ	-6357
▁ਇੰਟਰਨੈਟ	-6358
ਵਿਟੀ	-6359
▁ਸੈਮੀ	-6360
▁ਛੱਤੀਸ	-6361
▁ਨਰੀਮਨ	-6362
▁ਪ੍ਰਚੂਨ	-6363
ਘਰ	-6364
▁ਗਾ	-6365
▁ਬਾਲਣ	-6366
▁ਵਿਜੇ	-6367
▁ਸੈੱਟ	-6368
▁ਰੱਖੇਗਾ	-6369
▁ਸਥਿਰਤਾ	-6370
▁ਐਕਸਾਈਜ਼	-6371
tt	-6372
▁ਸਵਾਮੀ	-6373
▁ਪ੍ਰੋਫਾਈਲ	-6374
ੂਕ	-6375
ਕਸੈਡ	-6376
ਮੀਕਲ	-6377
▁ਐਸਟੀ	-6378
▁ਪਛੜੇ	-6379
▁ਦਹਾਕੇ	-6380
▁ਨਿਵਾਰ	-6381
ੈਡਰੇਸ਼ਨ	-6382
▁ਪੈਮਾਨੇ	-6383
▁ਉਤਪਾਦਕਤਾ	-6384
ਂਟਰ	-6385
ਬਿਡ	-6386
ਾਸਟ	-6387
ਸੱਤਾ	-6388
▁ਧਾਤ	-6389
▁ਸਰਹ	-6390
inary	-6391
▁ਅਣਪਛਾ	-6392
▁ਤਸ਼ੱਦਦ	-6393
ਨਿਯ	-6394
ਡੀਪੀ	-6395
▁ਦਿਖਾ	-6396
▁ਤਤਕਾਲੀ	-6397
▁ਭਾਈਵਾਲ	-6398
▁ਐਂਟਰੀਆਂ	-6399
▁ਪ੍ਰਯੋਗਸ਼	-6400
▁ਪ੍ਰੋਵੈਸੋ	-6401
ਕੇਸ਼	-6402
▁ਬਾਰਾਂ	-6403
▁ਭਗਵਾਨ	-6404
▁ਅੱਤਵਾਦ	-6405
▁ਲਾਭਪਾਤਰੀਆਂ	-6406
▁ਗ਼ੈਰਕਾਨੂੰਨੀ	-6407
ੜਤ	-6408
ਸਪੈ	-6409
ਵੇਰੀ	-6410
▁ਕੌਮ	-6411
▁ਸੇਲ	-6412
▁ਯਾਨੀ	-6413
▁ਨਾਬਾਰਡ	-6414
▁ਰਾਖਵੀਂ	-6415
▁ਸਟੋਰੇਜ	-6416
liminary	-6417
▁ਸ਼ਾਖਾਵਾਂ	-6418
ਹਿਲੀ	-6419
▁ਡਾਇਰੀ	-6420
▁ਲੈਂਡਿੰਗ	-6421
ਨਾਵਾਰ	-6422
▁ਪੜ੍ਹੋ	-6423
▁ਮਾਲੀਏ	-6424
▁ਤੋਹ	-6425
▁that	-6426
▁ਮਾੜੀ	-6427
▁ਮਿਲਦੇ	-6428
▁ਵਿਨਾਸ਼	-6429
▁ਲਗਾਉਂਦਾ	-6430
ੀਲੀ	-6431
▁as	-6432
▁ਅਜ	-6433
▁ਲਖਨ	-6434
ਸਪਾਟਾ	-6435
▁ਬੈਂਚਾਂ	-6436
ਕੈਡ	-6437
▁xx	-6438
▁ਟਰੈਕ	-6439
▁ਕੰਟਰੈਕਟ	-6440
▁ਦਿੰਦੀਆਂ	-6441
▁ਪ੍ਰਸੰਸਾ	-6442
ain	-6443
ਸੇਵਾ	-6444
▁ਟਰਨ	-6445
▁ਧੰਨ	-6446
▁ਫੁਟ	-6447
▁ਆਈਡੀ	-6448
▁ਵਾਰਸ	-6449
ਪੜ	-6450
ਵਾਲੀਆ	-6451
▁ਫਾਉਂ	-6452
▁ਅਸੰਤੁ	-6453
▁ਆਵੇਗਾ	-6454
▁ਬੀਮਾਯੁਕਤ	-6455
ason	-6456
▁ਗੁੱ	-6457
▁ਟਰੇ	-6458
▁ਟਿਕ	-6459
ਪ੍ਰੈਸ	-6460
▁ਪਿਸਤ	-6461
▁ਬੇਸ਼ਕ	-6462
▁ਸਕ੍ਰੀਨ	-6463
▁ਸਿਫ਼ਾਰਸ਼	-6464
१९	-6465
ode	-6466
ਿਰਿਆ	-6467
▁ਵਫ਼	-6468
ਮੇਵਾਰ	-6469
▁ਚੈਰੀ	-6470
▁ਮਿਟਾ	-6471
▁ਲੱਕੜ	-6472
▁ਸ਼ੰਕਾ	-6473
▁ਕ੍ਰਿਕਟ	-6474
▁ਅਹਿਮਦਾਬਾਦ	-6475
ੀਂ	-6476
ਾਇਲ	-6477
▁ਵੀਹ	-6478
overn	-6479
▁ਰਾਜੀ	-6480
▁ਸੂਰਜ	-6481
▁ਰੈਜ਼ੋਲੂਸ਼ਨ	-6482
he	-6483
▁ਇਕਲੌ	-6484
▁ਸਮਰਥ	-6485
▁ਵਸਤਾਂ	-6486
▁ਪ੍ਰਮੋਟਰ	-6487
▁ਮਹਿੰਗਾਈ	-6488
ਨਲਜ਼	-6489
▁ਸਵੱਛ	-6490
▁ਕਾਗਜ਼	-6491
▁ਠਾਕੁਰ	-6492
ੀਲਡ	-6493
▁ਮੌਰ	-6494
▁draw	-6495
▁ਬੇਟੇ	-6496
▁ਪ੍ਰਥਾ	-6497
▁ਵਾਪਰਨ	-6498
▁ਬਾਇਓਮੈਟ੍ਰਿਕ	-6499
ਖਿਕ	-6500
ਪੀਐਫ	-6501
ureau	-6502
ਲਿੰਗੀ	-6503
▁reason	-6504
▁ਨਜਿੱਠਣਾ	-6505
▁ਗਿਰਵੀਨਾਮਾ	-6506
▁ਮੈਂਬਰਸ਼ਿਪ	-6507
ਪਤਾ	-6508
▁((	-6509
▁ਭੂਗ	-6510
▁ਮਾਹੌਲ	-6511
▁ਫਾਰਮੈਟ	-6512
▁ਮਹੀਨਾਵਾਰ	-6513
▁ਉੱਤਮਤਾ	-6514
▁ਬਦਕਿਸਮਤੀ	-6515
ਲਾਇਰ	-6516
▁ਸੇਵ	-6517
▁ਹਲਫ਼	-6518
▁ਮੈਸੂਰ	-6519
▁ਐਨਆਈਟੀ	-6520
▁ਸੁਧਾਰਨ	-6521
▁ਬੰਗਲਾਦੇਸ਼	-6522
ਾਰਕ	-6523
ਆਰਐਸ	-6524
ੋਨੀਤ	-6525
▁ਐੱਨ	-6526
▁ਜੁਆ	-6527
▁ਨਿਵੇਸ਼ਕ	-6528
▁ਮੈਗਾਵਾਟ	-6529
▁ਪ੍ਰਤੀਸ਼ਤਤਾ	-6530
ਬੋ	-6531
▁ਖਜ਼	-6532
▁ਪਾਈਪ	-6533
▁ਸੇਲਜ਼	-6534
▁ਮੈਨੂਅਲ	-6535
▁ਸ਼ਹਿਰਾਂ	-6536
ff	-6537
ਦਈ	-6538
▁ਗੜ	-6539
▁ਹੱਥੋਂ	-6540
▁ਕੈਮੀਕਲ	-6541
▁ਭਾਈਚਾਰ	-6542
▁ਸਕੱਤਰੇਤ	-6543
▁ਲਾਭਪਾਤਰੀ	-6544
ਾਵਲ	-6545
ੁੰਨ	-6546
▁ਬੌ	-6547
▁ਨਕਲ	-6548
▁ਬਣੀ	-6549
▁ਬਿਸ	-6550
▁ਅਲੋਪ	-6551
▁ਲੰਬੀ	-6552
▁ਲਾਭਅੰ	-6553
੍ਰਿਸ਼ਨਨ	-6554
▁ਰਣਨੀਤਕ	-6555
▁ਕਾਂਸਟੇਬਲ	-6556
▁ਘੱਟਗਿਣਤੀ	-6557
▁ਪਾਰਦਰਸ਼ੀ	-6558
ਉਟ	-6559
ਦਮਾਂ	-6560
▁ਮਰਦ	-6561
▁ਗਰਭਪਾਤ	-6562
▁ਰਹਿਣਗੇ	-6563
ras	-6564
ਚੀਨ	-6565
▁ਸੈਕਸ	-6566
▁ਗੁਣਵਤਾ	-6567
▁ਬਹਿਸਾਂ	-6568
▁ਦੱਸਦਿਆਂ	-6569
ਜ਼ਿਟ	-6570
▁ਲਿਖੀ	-6571
▁ਮਨੋਨੀਤ	-6572
▁ਤਕਨੀਕਾਂ	-6573
▁ਚੇਤੰਨ	-6574
▁ਸਮਲਿੰਗੀ	-6575
▁ਫੋਰੈਂਸਿਕ	-6576
ਹਰੀ	-6577
ੱਕੇ	-6578
ਵੀਸੀ	-6579
▁ਗੋਦ	-6580
▁ਬੇਈ	-6581
▁ਰੋਗ	-6582
▁ਪਈਆਂ	-6583
▁ਸਪਲਾਇਰ	-6584
▁ਸ਼ਖਸੀਅਤ	-6585
▁ਮਨਜ਼ੂਰਸ਼ੁਦਾ	-6586
ted	-6587
ਮਾਰਟਮ	-6588
ਮਿਸਾਲ	-6589
ਲੇਸ਼ਨ	-6590
▁ਕਿਹੜੇ	-6591
▁ਪਿਸਤੌਲ	-6592
▁ਟੈਕਸਟਾਈਲ	-6593
▁ਮੁਨ	-6594
▁ਖਰੜੇ	-6595
▁ਚਿੰਨ	-6596
▁ਰਾਜੀਵ	-6597
▁ਵੇਚਿਆ	-6598
▁ਜਹਾਜ਼ਾਂ	-6599
▁ਭਾਵਨਾਵਾਂ	-6600
▁ਫਾਉਂਡੇਸ਼ਨ	-6601
ਮਸ	-6602
▁ਪੱਟੇ	-6603
▁ਪਹਾੜੀ	-6604
▁ਟਰਾਂਸਪੋਰਟ	-6605
ੋਆ	-6606
▁ਕਤ	-6607
▁ਏਐਸ	-6608
▁ਕਰਤ	-6609
▁ਪਟੇਲ	-6610
▁ਪਰਦੇ	-6611
▁ਸੈਨਿਕ	-6612
ੜਾਈ	-6613
ੰਸੀ	-6614
ਤਮੰਦ	-6615
▁ਆਇਰ	-6616
▁ਐਸਿਡ	-6617
▁ਦਿਸ਼ਾਵਾਂ	-6618
▁ਜੜ	-6619
▁ਹਫ	-6620
ਮਾਹੀ	-6621
ਹੂਰੀ	-6622
▁ਕਿਸ਼ਨ	-6623
▁ਗਵਰਨਰ	-6624
▁ਮੌਖਿਕ	-6625
▁ਪ੍ਰਮਾਣੂ	-6626
.),	-6627
ਸੈਨ	-6628
▁ਉਜ	-6629
▁ਵਿਕਲਪਕ	-6630
▁ਘਿ	-6631
port	-6632
▁ਪਤੇ	-6633
▁ਭੀੜ	-6634
▁ਸੇਨ	-6635
ਹਤਮੰਦ	-6636
▁ਲਗਦਾ	-6637
▁ਸਵਾਰ	-6638
▁ਵਰਤੀਆਂ	-6639
▁ਬੇਮਿਸਾਲ	-6640
▁ਸੰਚਾਲਿਤ	-6641
▁ਡਰੱਗ	-6642
▁ਪੈਰੇ	-6643
▁ਖੜ੍ਹੇ	-6644
▁ਪੈਕੇਜ	-6645
▁ਰੁਤਬਾ	-6646
ਡੀਐਸ	-6647
▁ਮਕੈ	-6648
▁ਨਿਵਾਰਣ	-6649
ਖ਼	-6650
▁ਚਲਾਈ	-6651
▁ਲਾਈਟ	-6652
▁ਵਿੰਗ	-6653
em	-6654
▁ਕਲਰਕ	-6655
▁ਵਿਘਨ	-6656
▁ਜ਼ਿਮੀਂ	-6657
▁ਲਿਆਂਦੇ	-6658
overnment	-6659
▁ਉੱਠਿਆ	-6660
▁ਵਿਧਾਇਕ	-6661
▁ਸੂਚੀਆਂ	-6662
▁ਪ੍ਰਭਾਸ਼ਿਤ	-6663
▁ਮੋਟਰਸਾਈਕਲ	-6664
▁ਕੰਧ	-6665
▁ਛੇੜ	-6666
▁ਪਰਖ	-6667
▁ਫ਼ਰਜ਼	-6668
▁ਨਾਗਪੁਰ	-6669
▁ਦਰਵਾਜ਼ੇ	-6670
▁ਸਜ	-6671
▁ਟੇਬਲ	-6672
ੁਰੱਖਿਅਤ	-6673
▁ਦਿਹਾੜੀ	-6674
▁ਅਪ੍ਰਵਾਨ	-6675
▁ਭਰੋਸੇਮੰਦ	-6676
▁ਸੰਵੇਦਨਸ਼ੀਲਤਾ	-6677
our	-6678
▁ਦੌਲਤ	-6679
▁ਮੁਹਾਰ	-6680
▁ਸੁਝਾਏ	-6681
▁ਜਮਹੂਰੀ	-6682
▁ਨੇੜਿਓਂ	-6683
▁ਹਥਿਆਰਬੰਦ	-6684
ਰਥ	-6685
ਲਸ	-6686
ਵੰ	-6687
▁ਭੜਕ	-6688
ਲੀਮੈਂਟ	-6689
▁ਤਰਜੀਹੀ	-6690
▁ਮੰਜ਼ਿਲ	-6691
▁ਵਿਕਸਿਤ	-6692
ਹਮ	-6693
▁ਅਯ	-6694
▁ਤੋਲ	-6695
▁ਵਾਇਰ	-6696
▁ਹਟਾਏ	-6697
▁ਜੰਗਲਾਂ	-6698
▁ਫੈਡਰੇਸ਼ਨ	-6699
▁ਤਲ	-6700
▁ਰਕ	-6701
▁ਸਰਲ	-6702
▁ਤਾਕੀ	-6703
▁ਸੱਤਾ	-6704
▁ਸਵੀਕਾਰਨ	-6705
▁ਅਸਪਸ਼ਟਤਾ	-6706
▁ਲੁ	-6707
ਬਦਿਕ	-6708
▁ਟੁਕੜੇ	-6709
▁ਟਰਨਓਵਰ	-6710
▁ਸੁਰੇਸ਼	-6711
▁ਸੱਤਵੀਂ	-6712
ਬੂਲ	-6713
ਾਇਤੀ	-6714
▁ਮੰਨਦੀ	-6715
▁ਸਦਨਾਂ	-6716
▁ਪ੍ਰਸਤੁਤ	-6717
▁ਕਾਰਜਕ੍ਰਮ	-6718
ਮਨੀ	-6719
ੱਕਣ	-6720
ਿਸ਼ਨ	-6721
▁ਟੁੱਟ	-6722
▁ਮਸਜਿ	-6723
▁ਇੰਦਰਾਜ਼	-6724
▁ਵਿਵਾਦਿਤ	-6725
rastructure	-6726
ਸੀਆ	-6727
ਟਰਜ਼	-6728
▁ਬੀਤ	-6729
▁ਮਰੇ	-6730
ਟ੍ਰਿਕ	-6731
▁ਪਲੇਟਫਾਰਮ	-6732
▁ਮਾਧ	-6733
▁ਮੰਦ	-6734
▁ਲਰਨ	-6735
▁ਗਰਦਨ	-6736
▁ਨਸ਼ਟ	-6737
............	-6738
ਪੇਟ	-6739
ਰਾਈਟ	-6740
▁ਜਰਮ	-6741
▁ਡੋਮੇਨ	-6742
▁ਤਾਕੀਦ	-6743
▁ਭਰੀਆਂ	-6744
ਬਾਣੀ	-6745
ਤਾਵਨੀ	-6746
▁ਅਪਣਾਈ	-6747
▁ਭੰਡਾਰਨ	-6748
▁ਵੋਟਰਾਂ	-6749
▁ਐਡੀਸ਼ਨਲ	-6750
▁ਇੰਜੀਨੀਅਰਾਂ	-6751
age	-6752
est	-6753
ਕੋਟ	-6754
ਚੰਦ	-6755
ਡੀਕ	-6756
ਬੰਧਿਤ	-6757
▁ਨਸ਼ੀਲ	-6758
▁ਹੈਰਾਨ	-6759
▁ਨਾਜ਼ੁਕ	-6760
▁ਰੱਖੇਗੀ	-6761
▁ਸੀਵਰੇਜ	-6762
▁ਹਰਜਾਨੇ	-6763
▁ਪ੍ਰਭੂਸੱਤਾ	-6764
ਭਾਸ਼	-6765
▁ਗੌਰ	-6766
▁ਅੰਦਾਜ਼ਾ	-6767
▁ਟ੍ਰੈਫਿਕ	-6768
ਜ਼ਲ	-6769
ਆਈਐਸ	-6770
ਦੇਹੀ	-6771
▁ਉਡੀਕ	-6772
▁ਕਦਮਾਂ	-6773
▁ਡੀਐਨਏ	-6774
▁ਰਾਜੇਸ਼	-6775
▁ਵਿਚੋਲਗੀ	-6776
▁le	-6777
▁ਉੱਤ	-6778
▁ਚਾਨ	-6779
▁ਬਚੇ	-6780
▁ਲੀਵ	-6781
▁ਅੰਬੇ	-6782
▁ਸਰਗਰਮੀ	-6783
ਐਫਸੀ	-6784
ਨਾਉਣ	-6785
ੁੱਲਾ	-6786
ੋਗ੍ਰਾਮ	-6787
▁ਮੁਹਾਰਤ	-6788
▁ਸਰਵਜਨਕ	-6789
▁ਸ਼ਾਬਦਿਕ	-6790
▁ਐਕਸਪ੍ਰੈਸ	-6791
▁infrastructure	-6792
ਕਚਰ	-6793
ਾਮਾ	-6794
ਪੰਨਾ	-6795
▁ਓਪਨ	-6796
▁ਗੜਬ	-6797
▁ਚੋਟੀ	-6798
▁ਜਵਾਨ	-6799
▁ਅਸਾਮੀ	-6800
▁ਤਜਰਬੇ	-6801
▁ਦੀਵਾਨ	-6802
▁ਵਾਅਦੇ	-6803
▁ਮਹਾਤਮਾ	-6804
▁ਸਿੰਜਾਈ	-6805
▁ਭਾਗੀਦਾਰ	-6806
ਦਿ	-6807
ess	-6808
▁ਇਨਵ	-6809
▁ਗਲਾ	-6810
▁ਕਰਤੱ	-6811
▁ਨਿਕਾਸ	-6812
▁ਵਿਵਸਥ	-6813
▁ਤਿਮਾਹੀ	-6814
▁ਅਧੀਨਗੀਆਂ	-6815
▁ਦਰਸਾਉਂਦੀਆਂ	-6816
)]	-6817
ਦੁਰ	-6818
ੂਆਂ	-6819
ਬੀਐਸ	-6820
▁ਚਿੱਤਰ	-6821
▁ਨਿਰਾਸ਼	-6822
▁ਤਫ਼ਤੀਸ਼	-6823
▁ਅਸੰਤੁਸ਼ਟ	-6824
ਈਆ	-6825
ions	-6826
ਡੀਅਨ	-6827
ਡੀਸੀ	-6828
ਤਸਾਹ	-6829
ੈਂਸਰ	-6830
▁ਗਰੇਡ	-6831
▁ਬ੍ਰਾ	-6832
▁ਠੁਕਰਾ	-6833
▁ਪਲੇਂਟ	-6834
▁ਮੁਹਿੰਮ	-6835
▁ਨਵੀਨਤਾਕਾਰੀ	-6836
ਗਾਰੀ	-6837
▁ਗੇਟ	-6838
▁ਝੱਲ	-6839
▁ਮਿੰ	-6840
▁ਕਰੰਸੀ	-6841
▁ਤਲਾਸ਼ੀ	-6842
▁ਅਪਮਾਨਜਨਕ	-6843
ਮੁਦਈ	-6844
▁ਵਾਕ	-6845
▁ਅਕਾਰ	-6846
▁ਬਚਿਆ	-6847
▁ਲੀਡਰ	-6848
▁ਸੈਟਲ	-6849
▁ਮਿੱਤਲ	-6850
▁ਮੰਗਿਆ	-6851
▁ਲਾਪ੍ਰ	-6852
▁ਲਕਸ਼ਮੀ	-6853
▁ਪ੍ਰੋਤਸਾਹ	-6854
ਓਪੀ	-6855
▁ly	-6856
▁ਕਠ	-6857
▁ਗੋਲਾ	-6858
▁ਜਤਾਈ	-6859
▁ਬੇਇੱ	-6860
▁ਕਮਾਉਣ	-6861
▁ਯਾਤਰੀ	-6862
▁ਆਧਾਰਾਂ	-6863
▁ਸੈਂਟਰਲ	-6864
▁ਲਗਾਉਂਦੀ	-6865
▁ਪੋਸਟਮਾਰਟਮ	-6866
▁ਲਾਪ੍ਰਵਾਹੀ	-6867
ੂਕੀ	-6868
ਦਸ਼ਾ	-6869
ਲਾਈਟ	-6870
▁ਅਜੋਕੇ	-6871
▁ਡਿਜ਼ਾਇਨ	-6872
▁ਤਰੱਕੀਆਂ	-6873
▁ਮਨੁੱਖਤਾ	-6874
▁ਵਿਧਾਇਕਾਂ	-6875
▁ਭਵਿੱਖਬਾਣੀ	-6876
ੋਈ	-6877
▁ਦਲ	-6878
ਐਲਆਰ	-6879
ਰੋਟੀ	-6880
ਿੱਲੀ	-6881
▁ਕੱਟਣ	-6882
▁ਕਾਰਤੂ	-6883
▁ਨਿੰਦਾ	-6884
▁ਕਲਾਸਾਂ	-6885
▁ਨਾਰਾਇਣ	-6886
▁ਸਿਹਤਮੰਦ	-6887
▁ਕਾਨੂੰਨੀਤਾ	-6888
▁ਆਇ	-6889
ਡੀਆਰ	-6890
▁ਮਸਲ	-6891
▁ਆਈਆਂ	-6892
▁ਅਧਿਆਪਨ	-6893
▁ਬੋਰਡਾਂ	-6894
ਆਈਪੀ	-6895
ਸ਼ਵਰ	-6896
ਇੰਸਪੈਕਟਰ	-6897
▁ਖੋਲ੍ਹਿਆ	-6898
▁ਸਬਜ਼ੀਆਂ	-6899
ਵਾੜੀ	-6900
ਾਰੀਆਂ	-6901
ਸਰਕਾਰੀ	-6902
▁ਚੁੱਕਿਆ	-6903
▁ਇਮਾਨਦਾਰੀ	-6904
▁ਲਾਇਸੈਂਸਾਂ	-6905
ਜ਼ਬ	-6906
ਰਸ਼	-6907
▁ਸਮਾਪਤ	-6908
▁ਇੰਗਲਿਸ਼	-6909
ks	-6910
ੁਆਈ	-6911
ੱਦੀ	-6912
ਨਲਾਂ	-6913
▁ਚੈਨ	-6914
▁ਝਲਕ	-6915
▁ਸਵੀ	-6916
ਦਰਸ਼ਨ	-6917
▁ਟ੍ਰਾਈ	-6918
▁ਨਮੂਨਾ	-6919
▁ਦ੍ਰਿਸ਼	-6920
▁ਕਾਰੋਬਾਰਾਂ	-6921
▁ਪ੍ਰੋਤਸਾਹਨ	-6922
ਜੱਜ	-6923
▁ਫੋ	-6924
ਬ੍ਰੇ	-6925
▁ਅਫ਼	-6926
▁[]],	-6927
▁ਕਾਲੇ	-6928
▁ਘੇਰੇ	-6929
▁ਲੰਡਨ	-6930
▁ਸੁਨੀਲ	-6931
▁ਸਰਚਾਰਜ	-6932
▁ਮੁਕੱਦਮੇਬਾ	-6933
▁ਪ੍ਰੈਕਟੀਸ਼ਨਰ	-6934
ਧਰ	-6935
▁ਉਤਰਾ	-6936
▁ਪਾਲਸੀ	-6937
▁ਸਾਰਣੀ	-6938
▁ਲੀਜ਼ਾਂ	-6939
▁ਹਮਲਾਵਰ	-6940
ers	-6941
ial	-6942
ਪੇਖ	-6943
ਚਿੰਗ	-6944
▁ਅਨੁਭਵ	-6945
▁ਵਕਾਲਤ	-6946
▁ਸੋਚਿਆ	-6947
ਿਓਰ	-6948
ਿਕਲ	-6949
ੱਤਵ	-6950
ਜ਼ਾਮ	-6951
ਰਹਿਤ	-6952
ਕੁਮਾਰ	-6953
▁ਐਕਸੀ	-6954
▁ਬਾਲਗ	-6955
▁ਪੈਰਵੀ	-6956
▁ਬ੍ਰਿਜ	-6957
ਏਟੀ	-6958
ਸਲੀ	-6959
▁Ex	-6960
▁ਆਲੋ	-6961
▁ਡੇਅ	-6962
▁ਉੱਤਰੀ	-6963
▁ਅਲੋਚਨਾ	-6964
▁ਪਰਿਪੇਖ	-6965
ਭੁਗਤ	-6966
▁(&#	-6967
▁ਯੂਪੀ	-6968
▁ਅੰਨ੍ਹੇ	-6969
▁ਪ੍ਰੋਵੀਸੋ	-6970
▁ਪੰਚਾਇਤਾਂ	-6971
▁ਝੁੱ	-6972
▁ਸਦਾ	-6973
▁ਐਮਿਕਸ	-6974
▁ਜ਼ਹਾਜ਼	-6975
ਾਂਸਰ	-6976
▁ਥੋਕ	-6977
▁ਆਡੀਟਰ	-6978
▁ਖੇਡਾਂ	-6979
▁ਮਸਜਿਦ	-6980
▁ਉਤਪਾਦਕ	-6981
▁ਕਾਰਪੋਰੇਸ਼ਨਾਂ	-6982
ਕੁਸ਼ਲ	-6983
ਰੇਟਿਵ	-6984
▁ਉਲਝੇ	-6985
▁ਮੁਸਲਿਮ	-6986
▁ਅਰੁਣਾਚਲ	-6987
▁ਸੀਡਬਲਯੂ	-6988
▁ਮਿਲੀਭੁਗਤ	-6989
ਕੋਈ	-6990
ਘੜਤ	-6991
ਵਿਰ	-6992
▁ਘੁਸਪੈ	-6993
▁ਦਰਸਾਈਆਂ	-6994
----------------	-6995
ਐਸਪੀ	-6996
▁ਲੋਡ	-6997
▁ਟਰੈਕਟਰ	-6998
▁ਪੋਸਟਾਂ	-6999
▁ਬਣਾਏਗਾ	-7000
▁ਬਾਜ਼ਾਰਾਂ	-7001
▁ਹਸਪਤਾਲਾਂ	-7002
▁ਪ੍ਰੀਖਿਆਵਾਂ	-7003
▁ਉਕਸ	-7004
▁ਕਮਰ	-7005
▁ਹਾਦਸਾ	-7006
▁ਛੇੜਛਾੜ	-7007
▁ਡੂੰਘਾਈ	-7008
▁ਮਸਲਿਆਂ	-7009
▁ਬਸ	-7010
▁fac	-7011
▁ਕੈਨ	-7012
▁ਰਵੀ	-7013
▁ਪ੍ਰਿ	-7014
▁ਮੰਗਾਂ	-7015
▁ਮਿਲੇਗਾ	-7016
▁ਸੇਵਕਾਂ	-7017
▁ਖੁੱਲ੍ਹੇ	-7018
ਡੇਟ	-7019
ੈਰੀ	-7020
▁ਜੀਪ	-7021
▁ਪੁਸਤ	-7022
▁ਖਤਰਨਾਕ	-7023
▁ਨੋਟਿਸਾਂ	-7024
ਈਏ	-7025
ੌਂਪ	-7026
ੌਜੀ	-7027
ਨੀਅਮ	-7028
ਵਾਉਣ	-7029
▁ਐੱਮ	-7030
▁ਭਰਪੂਰ	-7031
ਸਿਸ	-7032
▁ਆਦਾਨ	-7033
▁ਰੈਸਟ	-7034
▁ਗਠਜੋੜ	-7035
▁ਅੜਿੱਕਾ	-7036
▁ਮਾਰਸ਼ਲ	-7037
▁ਚਾਹੁੰਦੀ	-7038
▁ਮਕੈਨੀਕਲ	-7039
ਜਰੀ	-7040
ਟਿਲ	-7041
▁So	-7042
▁ਸੱਠ	-7043
ਟੇਸ਼ਨ	-7044
▁ਰਵਾਨ	-7045
▁ਸਾਈਕਲ	-7046
▁ਰਣਨੀਤੀ	-7047
▁ਵਿਹਾਰਕ	-7048
▁ਅਣਪਛਾਤੇ	-7049
▁ਅਨਿਸ਼ਚਿਤ	-7050
um	-7051
▁ਸਮਾਲ	-7052
▁ਡਿਪਲੋ	-7053
▁ਮਨਘੜਤ	-7054
▁ਪ੍ਰਿੰਟ	-7055
▁-.	-7056
▁ਕੰਨ	-7057
▁ਸੇਧ	-7058
▁ਖੁੱਲੀ	-7059
▁ਬਾਰੂਦ	-7060
▁ਖਰੀਦਿਆ	-7061
▁ਪਹੁੰਚਣਾ	-7062
▁ਪ੍ਰਾਚੀਨ	-7063
▁ਲਾਇਬ੍ਰੇ	-7064
▁structures	-7065
ਖਾਵ	-7066
▁an	-7067
▁ਆਰਡੀ	-7068
▁ਉਦਾਰ	-7069
▁ਦਿਹਾ	-7070
▁ਪਾਤਰ	-7071
▁ਬੁਰਾ	-7072
▁ਵੋਟਾਂ	-7073
▁ਵੱਡੀਆਂ	-7074
▁ਕੰਟਰੋਲਰ	-7075
▁ਭੂਗੋਲਿਕ	-7076
▁ਲਾਭਅੰਸ਼	-7077
ub	-7078
ਪਿ	-7079
rans	-7080
ਉਹਾਰ	-7081
ਲੇਆਮ	-7082
▁ਬੀਐਸ	-7083
▁ਰਾਜੂ	-7084
▁ਬੇਕਾਰ	-7085
▁ਰਸਮਾਂ	-7086
▁ਦਰਸਾਉਣਾ	-7087
▁ਸਨਮਾਨਿਤ	-7088
ਡਰਲ	-7089
ਦਕਰ	-7090
ਮਲੀ	-7091
ਸੁਰ	-7092
▁ਚੂ	-7093
ਕੀਆਂ	-7094
ੈਟਾਂ	-7095
▁ਐਨਜੇ	-7096
▁ਮਿੱਲ	-7097
ਕ੍ਰਿਤੀ	-7098
ਸ਼ੋਰੈਂਸ	-7099
▁ਨੇਤਾਵਾਂ	-7100
▁ਕਰਜ਼ਾਦਾਤਾ	-7101
२०	-7102
ਸਟ੍ਰ	-7103
▁ਰੂਲਜ਼	-7104
ts	-7105
ਵਜ	-7106
ਗਰਾ	-7107
ਿੰਘ	-7108
ਹਿੱਤ	-7109
ਵਿਜ਼ਨ	-7110
▁ਤਿਉਹਾਰ	-7111
▁ਗਿਣਤੀਆਂ	-7112
ਲਡ	-7113
III	-7114
▁ਪਟ	-7115
▁ਲਟਕ	-7116
▁ਲਾਗ	-7117
▁ਲੱਛ	-7118
▁ਹੈਡ	-7119
▁ਨੋਡਲ	-7120
▁ਵਾਰੀ	-7121
▁ਆਸਾਨੀ	-7122
▁ਕਿਹੜਾ	-7123
▁ਕ੍ਰਿਸ	-7124
▁ਧੰਨਵਾਦ	-7125
▁ਬਲਾਕਾਂ	-7126
▁ਬੋਲੀਕਾਰ	-7127
▁ਇਲੈਕਟ੍ਰਾਨਿਕਸ	-7128
ੋਗੇ	-7129
ਕਨੂੰ	-7130
ਪਛਾਣ	-7131
▁ਟੀਚਾ	-7132
▁ਡਿਪਾ	-7133
▁ਅੰਗਾਂ	-7134
▁ਦਿਵਾਉਣ	-7135
▁ਨਸ਼ੀਲੇ	-7136
▁ਵਿਸਤਾਰ	-7137
▁ਪ੍ਰਮਾਣਤ	-7138
ਫੋ	-7139
ਈਅਰ	-7140
ਪਰੀ	-7141
ਰੇਜ਼	-7142
▁ਯੁੱ	-7143
▁ਬਾਬੂ	-7144
▁ਅਪਾਰਟ	-7145
▁ਅਵੇਸਲੇ	-7146
▁ਮਾਈਕਰੋ	-7147
▁ਮਿਸ਼ਰਣ	-7148
ੂਤ	-7149
ਬੇਸ	-7150
ਗਾਪੁਰ	-7151
▁ਡ੍ਰਾ	-7152
▁ਯੁੱਧ	-7153
▁ਭੇਜਣਾ	-7154
▁ਪ੍ਰਸੰਨ	-7155
▁ਨਾਬਾਲਿਗ	-7156
▁wh	-7157
ਕਾਰਜ	-7158
▁ਸਲੀ	-7159
ਏਆਈਆਰ	-7160
ਸੰਚਾਰ	-7161
▁ਸੰਜਮ	-7162
▁ਦਾਇਰਾ	-7163
▁ਮਹਿਲਾ	-7164
▁ਚਿੰਨ੍ਹ	-7165
▁ਸੁਸ਼ੀਲ	-7166
ਕੇਸ	-7167
ਦਾਮ	-7168
ਰਜੀ	-7169
▁ਟੂਰ	-7170
▁ਤਿੰ	-7171
▁ਬਣਿਆ	-7172
▁ਮੂੰਹ	-7173
▁ਸਟ੍ਰੀ	-7174
▁ਪੈਕਿੰਗ	-7175
▁ਚੇਤਾਵਨੀ	-7176
▁ਆਪ੍ਰੇਸ਼ਨ	-7177
ਟਾਨ	-7178
ਨੇਡਾ	-7179
▁ਪੰਛ	-7180
▁ਬੈਚ	-7181
▁ਮੰਨੇ	-7182
▁ਕਤਲੇਆਮ	-7183
▁ਤਿੰਨੋਂ	-7184
▁ਇਲਾਹਾਬਾਦ	-7185
▁ਜਨਜਾਤੀਆਂ	-7186
ਖੋਰੀ	-7187
ੱਤਿਆਂ	-7188
▁ਗਣਿਤ	-7189
▁ਸਰਕਟ	-7190
▁ਅਣਗਹਿਲੀ	-7191
▁ਵਿਸਥਾਰਪੂਰਵਕ	-7192
ਕੇਂ	-7193
ਾਇਕ	-7194
▁ਲਰਨਡ	-7195
▁ਜੋੜਨਾ	-7196
▁ਲਵੇਗੀ	-7197
ਵਿਸ਼ੇਸ਼	-7198
▁ਸੀਮੈਂਟ	-7199
ਖਰੀ	-7200
ਗਾਓ	-7201
ਜੂਰ	-7202
ਧਿਕ	-7203
▁ਫਰਾਰ	-7204
▁ਵਧਾਏ	-7205
▁ਹੋਵੋ	-7206
▁ਕਲਿਆਣ	-7207
▁ਜ਼ਿਲੇ	-7208
▁proper	-7209
▁ਸੱਤਵੇਂ	-7210
▁ਪੈਰਾਗ੍ਰਾਫ	-7211
ਪੂਟ	-7212
ਬਿਲ	-7213
▁ਉਠਾਈ	-7214
▁ਖਾਣੇ	-7215
▁ਨਾਮਾਂ	-7216
▁ਲਗਾਉਂਦੇ	-7217
▁ਸ਼ੁੱਭਕਾਮਨਾਵਾਂ	-7218
op	-7219
▁ਓਪੀ	-7220
▁ਕਠੋਰ	-7221
▁ਝੂਠੀ	-7222
▁ਦੌਰੇ	-7223
▁ਵੇਖੇ	-7224
▁ਅੰਤਿਕਾ	-7225
ਓਜ਼	-7226
▁ਝੋ	-7227
ered	-7228
ਮਾਰਕ	-7229
ਸੀਪੀ	-7230
ਸਰਕਾਰ	-7231
▁ਚਾਂਦੀ	-7232
▁ਪੀਪੀਏ	-7233
▁ਲਿਮਟਡ	-7234
▁ਸਪੈਕਟ	-7235
▁ਕੁਲਪਤੀ	-7236
▁ਘੁਸਪੈਠ	-7237
▁ਰਾਕੇਸ਼	-7238
▁ਸੰਘਰਸ਼	-7239
▁ਅੰਬੇਦਕਰ	-7240
ਲਈ	-7241
ਨੇਡ	-7242
▁ਏਰੀਆ	-7243
▁ਗਾਈਡ	-7244
▁ਗੰਗਾ	-7245
▁ਬਣਾਓ	-7246
▁ਸੌਦਾ	-7247
ਪ੍ਰਦਾਨ	-7248
▁ਬਾਗਬਾਨੀ	-7249
ਿਨੀ	-7250
ਜੀਕਲ	-7251
ਮਨੁੱਖ	-7252
▁ਦੇਣਦਾਰ	-7253
▁ਪੁਰਾਣਾ	-7254
ਆਰਆਈ	-7255
ਸਿਜ਼	-7256
▁ਸੀਓ	-7257
▁ਯੁੱਗ	-7258
▁ਅੱਗੋਂ	-7259
▁ਜੈਵਿਕ	-7260
▁ਚੈਨਲਾਂ	-7261
▁ਪਸ਼ੂਆਂ	-7262
▁ਬੇਨਿਯਮੀਆਂ	-7263
▁cover	-7264
▁ਦੋਸਤੀ	-7265
▁ਕੈਦੀਆਂ	-7266
▁ਮਹਿੰਦਰ	-7267
▁ਮਿਹਨਤਾ	-7268
▁ਸਮੁੰਦਰ	-7269
▁ਬਚਨ	-7270
▁ਮਾਰੀ	-7271
ਰਾਸ਼ਟਰ	-7272
▁ਕਲੋਨੀ	-7273
▁ਏਕੀਕਰਣ	-7274
ਰਾਏ	-7275
▁ਧੱਕ	-7276
ਦਾਸ਼ਤ	-7277
▁ਹੱਡੀ	-7278
▁trans	-7279
ੈਕਟਰੀਆਂ	-7280
▁ਸੌਂਪੀਆਂ	-7281
ਵੰਦ	-7282
ਬਿਆਂ	-7283
ਮੰਡਲ	-7284
▁ਪ੍ਰੈ	-7285
▁ਇਕਜੁਟ	-7286
▁ਖੁਦਾਈ	-7287
▁ਪ੍ਰੇਮ	-7288
▁ਰੁਤਬੇ	-7289
▁ਜ਼ਬਰਦਸਤ	-7290
ਖਤਾਂ	-7291
ਸਿਰਫ	-7292
ਿਜ਼ਮ	-7293
▁ਛੂਹ	-7294
▁ਮੋੜ	-7295
ਮੇਸ਼ਨ	-7296
▁ਫ਼ਰਕ	-7297
▁ਮੰਤਰਾਲਿਆਂ	-7298
▁ਲੌ	-7299
ਫਤਾਰ	-7300
▁ਖਣਨ	-7301
▁ਜ਼ੋ	-7302
▁ਦੱਸਦੀ	-7303
▁ਹਿੱਸੇਦਾਰ	-7304
▁ਅਮਰ	-7305
▁ਸ਼ੋ	-7306
▁ਸੌਖਾ	-7307
▁ਸੈਂਟੀ	-7308
ਪੂਟੇਸ਼ਨ	-7309
ਠਾ	-7310
ਦੇਸ਼ੀ	-7311
▁ਦੱਖਣ	-7312
▁ਬਲੈਕ	-7313
▁ਬੌਧਿਕ	-7314
▁ਚਾਂਸਲਰ	-7315
▁ਬਾਹਰਲੇ	-7316
ਂਸ	-7317
ਮੁਖੀ	-7318
ities	-7319
▁mode	-7320
▁ਚਮੜੀ	-7321
▁ਪਰਦਾ	-7322
▁ਲਾਈਫ	-7323
▁ਅਨੁਮਾਨਤ	-7324
▁ਨਜਿੱਠਦੇ	-7325
▁ਹਵਾਲਿਆਂ	-7326
:,	-7327
ਉਂਡ	-7328
ਵਿੰਦ	-7329
ਹਾਂਤ	-7330
▁cas	-7331
ਪ੍ਰਤੀ	-7332
▁ਮੋਤੀ	-7333
ਐਂਗਐਕਸ	-7334
▁ਬਾਰਸ਼	-7335
▁ਐਕਸਪੋਰਟ	-7336
▁ਇੰਸ਼ੋਰੈਂਸ	-7337
▁ਐਸੋਸੀਏਸ਼ਨਾਂ	-7338
ਬੀਸੀ	-7339
▁ਟੀਕਾ	-7340
▁ਤੀਸਰੇ	-7341
▁ਸੰਸਾਰ	-7342
▁ਅਜ਼ਮਾਇ	-7343
▁ਦੁਨੀਆਂ	-7344
▁ਫੋਟੋਆਂ	-7345
▁ਮਸ਼ਵਰੇ	-7346
▁ਅਨੁਕੂਲਤਾ	-7347
ਈਟੀ	-7348
ਬਾਰੀ	-7349
▁ਉਂਗ	-7350
▁ਫ੍ਰ	-7351
▁ਦਰਜੇ	-7352
▁ਸੂਬਾ	-7353
▁ਸੀਰੀਅਲ	-7354
▁ਕਾਰਜਸ਼ੀਲਤਾ	-7355
ਟੇਨ	-7356
ਨੀਕ	-7357
▁ਜੁਆਬ	-7358
ਅਪਰਾਧਿਕ	-7359
▁ਦਰਮਿਆਨੇ	-7360
▁ਕਾਪੀਰਾਈਟ	-7361
▁ਚੈਰੀਟੇਬਲ	-7362
▁ਉਤਰਾਧਿਕਾਰੀ	-7363
ਨਗਰ	-7364
ਰੀਅ	-7365
ਲਿਕ	-7366
ਫੋਰਡ	-7367
ਸਵਾਮੀ	-7368
▁ਮੁਨਾਸਿ	-7369
▁ਭਾਰਤੀਆਂ	-7370
▁ਸੰਵਿਧਾਨਕਤਾ	-7371
▁ਆਖ਼	-7372
ਕੁਆਰੀ	-7373
▁ਆਈਆਰ	-7374
▁ਨੈੱਟ	-7375
▁ਪੰਨੇ	-7376
▁ਭਰਿਆ	-7377
▁ਮਸਲੇ	-7378
▁ਸਾਖਰ	-7379
ਨਾਲੌਜੀ	-7380
▁ਨਿਸ਼ਾਨਾ	-7381
▁ਫਾਰਮੂਲਾ	-7382
▁ਮੁਨਾਸਿਬ	-7383
ਵਲੀ	-7384
▁ਮੰਡ	-7385
▁ਛੇਤੀ	-7386
ਮੁਲਾਂਕਣ	-7387
▁ਕਿਸ਼ੋਰ	-7388
▁ਸਰਵਉੱਚ	-7389
▁ਹਲਫ਼ਨਾਮੇ	-7390
▁ਡੈਪੂਟੇਸ਼ਨ	-7391
,&#	-7392
ਐਸਐਸ	-7393
ਮੀਨਲ	-7394
ਾਂਚਾਗਤ	-7395
▁South	-7396
▁ਪਰ੍ਹੇ	-7397
▁ਫੈਮਲੀ	-7398
▁ਫਾਰਮਾਸ	-7399
▁ਜਰੂਰਤਾਂ	-7400
▁ਦਰਸਾਏਗਾ	-7401
▁ਬੰਦਰਗਾਹ	-7402
▁ਡਰਾਈਵਿੰਗ	-7403
▁ਪ੍ਰਮੁੱਖਤਾ	-7404
▁ਸੁਵਿਧਾਜਨਕ	-7405
▁ਕਿਨ	-7406
▁ਚਾਰਟ	-7407
▁ਕੋਰਟਜ਼	-7408
▁ਗਰਭਵਤੀ	-7409
▁ਤਰਕਪੂਰਨ	-7410
▁ਪਵਿੱਤਰਤਾ	-7411
ੇਸ	-7412
▁ਫੀਡ	-7413
▁ਲੱਤ	-7414
▁ਐਗਰੀ	-7415
▁ਦੀਪਕ	-7416
ਟ੍ਰਿਕਸ	-7417
▁ਇਕਲੌਤਾ	-7418
▁ਐਬ	-7419
▁ਇੰਪ	-7420
▁ਟੈਗ	-7421
▁ਸ਼ੂ	-7422
ਇੰਡੀਆ	-7423
▁prim	-7424
▁ਚੌੜਾਈ	-7425
▁ਨਾਕਾਫੀ	-7426
▁ਮਿੰਟਾਂ	-7427
se	-7428
ਧਾ	-7429
ood	-7430
ਚੁਟੀ	-7431
▁ਹੁਨ	-7432
▁ਕਾਲੀ	-7433
▁ਸਕੂਟਰ	-7434
▁ਡਿਕਸ਼ਨ	-7435
▁ਪ੍ਰਸ਼ਾਸਕ	-7436
▁............	-7437
੍ਰਮ	-7438
ਫੇਰੀ	-7439
ਵੇਖੋ	-7440
▁ਪੌਦਾ	-7441
▁ਸ਼ਿਆਮ	-7442
▁ਫਿਲਮਾਂ	-7443
▁ਵਿਕਲਪਾਂ	-7444
▁ਕਿਲੋਗ੍ਰਾਮ	-7445
ਦੀਸ਼	-7446
ਪਤਨੀ	-7447
▁ਜਾਲ	-7448
ਕਾਰਨੀ	-7449
ਵੀਰਾਂ	-7450
ੀਲਿਆਂ	-7451
▁ਆਰਮੀ	-7452
▁ਗਿਰੀ	-7453
▁ਲੰਘਣ	-7454
▁ਕਵਰੇਜ	-7455
▁ਕਿਸਮਤ	-7456
▁ਮਿਆਰੀ	-7457
▁ਰੱਖਦੀਆਂ	-7458
▁ne	-7459
▁ਏਓ	-7460
▁ਜਰ	-7461
▁ਕੈਮ	-7462
▁ਬੇਲ	-7463
▁ਐਮਸੀ	-7464
▁ਐਸਆਈ	-7465
▁ਛੱਡਣਾ	-7466
▁ਪਾਈਆਂ	-7467
▁ਸ਼ੈਲੀ	-7468
▁ਐਨਜੇਏਸੀ	-7469
▁ਕ੍ਰਿਸ਼ਨਾ	-7470
▁ਅਸੁਰੱਖਿਅਤ	-7471
dia	-7472
ttp	-7473
ਰੀਅਨ	-7474
ਜ਼ਿਆਂ	-7475
▁ਨੋਟੀ	-7476
▁ਸਮਝੀ	-7477
▁ਰਣਜੀਤ	-7478
▁ਉਚਿਤਤਾ	-7479
ਜਿੰਗ	-7480
ਪੂਰਣ	-7481
▁ਵਜ਼ਨ	-7482
▁ਅਪਣਾਉਣਾ	-7483
▁ਰਾਮਚੰਦਰ	-7484
▁ਇਨੋਵੇਸ਼ਨ	-7485
▁ਏਆਈਸੀਟੀਈ	-7486
ਅਦ	-7487
ਨੋਦ	-7488
▁ਟ੍ਰ	-7489
▁proc	-7490
▁ਸਮਝਦੀ	-7491
und	-7492
ਡਿੱਠ	-7493
▁ਟਾਵਰ	-7494
▁ਵਾਕਾਂ	-7495
ਤੁ	-7496
ਵੇਜ਼	-7497
ਮੰਤਰੀ	-7498
▁ਪੂਰਬ	-7499
▁ਅਖੌਤੀ	-7500
▁ਡੀਡੀਏ	-7501
▁ਅਣਡਿੱਠ	-7502
▁ਕਾਗਜ਼ਾਂ	-7503
▁ਲੈਂਦਿਆਂ	-7504
▁ਸੈਕਟਰਾਂ	-7505
▁ਡਿਕਸ਼ਨਰੀ	-7506
ੱਫ	-7507
ਵਿਲ	-7508
ਜ਼ੀਲ	-7509
▁ਵਤੀ	-7510
▁ਸੋਲ	-7511
ਗੇਸ਼ਨ	-7512
▁ਚੜ੍ਹ	-7513
▁ਜੈਨੇਟ	-7514
▁ਨਦੀਆਂ	-7515
▁ਪਾਉਂਦੀ	-7516
▁ਸੰਪੱਤੀ	-7517
▁ਕਬੀਲਿਆਂ	-7518
▁ਦਸਤਖਤਾਂ	-7519
ਵੇਨ	-7520
ਿੰਗਰ	-7521
▁ਐਕਸਟ	-7522
▁ਫ਼ਤਵਾ	-7523
▁ਮਨੋਹਰ	-7524
▁ਵਿਅਰਥ	-7525
▁ਅਪਗ੍ਰੇਡ	-7526
▁ਸੁਪਰਵਾਈ	-7527
▁ਸਲਾਹਕਾਰਾਂ	-7528
ੈਚ	-7529
▁ਖਿਡ	-7530
▁ਰਤਨ	-7531
ਵਿੰਦਰ	-7532
▁ਆਰਮਡ	-7533
▁ਮੰਗੇ	-7534
▁ਸੋਕੇ	-7535
▁ਗ੍ਰੀਨ	-7536
▁ਕਾਵੇਰੀ	-7537
▁ਗਰੀਬਾਂ	-7538
▁ਚਿਰ	-7539
▁ਵਹਿ	-7540
ਦਾਨਾਂ	-7541
ਮੈਟਿਕ	-7542
▁ਮੈਕਸ	-7543
▁ਵਸੇਬਾ	-7544
▁ਅਸਮਰਥਾ	-7545
▁ਦੁਖਦਾਈ	-7546
▁ਉੱਦਮੀਆਂ	-7547
;(	-7548
ir	-7549
▁.-	-7550
▁ਭੱਟ	-7551
ੋਜੀਆਂ	-7552
ੋਰੈਂਟ	-7553
▁ਵਧਣਾ	-7554
▁ਹੇਰਾ	-7555
▁ਦਬਾਉਣ	-7556
▁ਹਾਜ਼ਰ	-7557
▁ਸਾਖਰਤਾ	-7558
▁ਦੂਰਸੰਚਾਰ	-7559
▁ਕਾਰਜਕਾਰਨੀ	-7560
▁ਘੋਸ਼ਣਾਵਾਂ	-7561
▁ਪ੍ਰੋਵੀਜ਼ਨ	-7562
;।	-7563
ਿਦ	-7564
ੁੱਕ	-7565
▁se	-7566
▁ਅਧੂ	-7567
▁ਡਿਗ	-7568
▁ਬੋਰ	-7569
▁ਟ੍ਰਾ	-7570
▁ਬਾਕਸ	-7571
▁ਆਲੋਚਨਾ	-7572
▁ਉੱਤਰਾਧਿਕਾਰੀ	-7573
ਮੈਂ	-7574
▁ਐਨਜੀਟੀ	-7575
▁ਟੈਸਟਾਂ	-7576
.&	-7577
▁ਉਦੈ	-7578
▁ਡੁੱ	-7579
▁ਸਾਂ	-7580
nergy	-7581
ਸ਼ਿਆਂ	-7582
▁ਪੜ੍ਹਦੇ	-7583
ਨਾਲੋਜੀਆਂ	-7584
▁ਲਿਆਉਂਦਾ	-7585
ਬਜ਼	-7586
▁sh	-7587
ਸ਼ਾਂਤ	-7588
▁ਅੰਡੇ	-7589
▁ਵੇਣੂ	-7590
▁ਸੋਲਰ	-7591
ਡੂਚੇਰੀ	-7592
▁ਅਪਡੇਟ	-7593
▁ਜਿੰਨੇ	-7594
▁ਸੰਧਿਆ	-7595
▁ਉਪਯੋਗਤਾ	-7596
▁ਉਪਭੋਗਤਾਵਾਂ	-7597
ਿੱਖ	-7598
ਸੀਕਿ	-7599
੍ਰੀਬਿ	-7600
▁ਬੁਰਾਈ	-7601
▁ਰੇਟਾਂ	-7602
▁ਲੋੜਾਂ	-7603
▁ਸੂਬਾਈ	-7604
▁ਜਨਜਾਤੀ	-7605
▁ਪੌਦਿਆਂ	-7606
▁ਹੇਰਾਫੇਰੀ	-7607
▁ਸੈਂਟੀਮੀਟਰ	-7608
ਜਦੋਂ	-7609
▁ਚੁੰ	-7610
ਸੰਮਤੀ	-7611
▁ਇਲਾਜ਼	-7612
▁ਜਨਹਿੱਤ	-7613
▁ਸਿੰਘਵੀ	-7614
chan	-7615
▁ਕਹੇ	-7616
ੌਂਪੜੀ	-7617
▁ਤੱਤਾਂ	-7618
▁ਆਈਸੀਸੀ	-7619
▁ਸਕ੍ਰੀਨਿੰਗ	-7620
ਪਹਿ	-7621
ਵਾਸ਼	-7622
▁ਘੇਰ	-7623
▁ਜੀਨ	-7624
ਇੱਛੁਕ	-7625
▁ਬੋਲਦੇ	-7626
▁Energy	-7627
▁ਕਰਨਗੀਆਂ	-7628
▁ਸਿੰਗਾਪੁਰ	-7629
▁ਰੈਸਟੋਰੈਂਟ	-7630
ੋਲੋ	-7631
ਸਮੈਂਟ	-7632
▁ਅੱਧੇ	-7633
▁ਪੀਪੀ	-7634
▁ਸ਼ੁਭ	-7635
▁ਹਾਰਡ	-7636
▁ਅੰਤਰਾਲ	-7637
ical	-7638
ਸੰਖਿਆ	-7639
▁ਆਰਾਮ	-7640
▁ਐਸਪੀ	-7641
▁ਨਰਾਇ	-7642
▁ਫਸਾਉਣ	-7643
▁ਫਲੈਟਾਂ	-7644
▁ਪ੍ਰਭਾਵੀ	-7645
ਓਰ	-7646
ਗਾਓਂ	-7647
▁ਅਨੀ	-7648
▁ਤਸੀ	-7649
▁ਲੜਕੇ	-7650
ਕਨੂੰਨੀ	-7651
▁ਕਿੰਗਡਮ	-7652
▁ਜਾਇਜ਼ਤਾ	-7653
ਨਮ	-7654
ਪੈਲ	-7655
viii	-7656
▁xxx	-7657
▁ਲੇਵੀ	-7658
▁ਵਿਚੋ	-7659
▁ਉਭਾਰਿਆ	-7660
▁ਕਾਰਤੂਸ	-7661
▁ਮਨੀਪੁਰ	-7662
▁ਸਵੈਇੱਛਤ	-7663
२१	-7664
ਮੁਹ	-7665
ਸਿਡ	-7666
▁ਇਨਫ	-7667
▁ਕਾਮੇ	-7668
▁ਬੁਰੀ	-7669
▁ਵਿਗੜ	-7670
▁ਕਨੇਡਾ	-7671
▁ਛੋਟਾਂ	-7672
▁ਸਰਬਸੰਮਤੀ	-7673
▁ਪੁਰਸਕਾਰਾਂ	-7674
ਨਨ	-7675
ਾਂਹ	-7676
▁ਲਰ	-7677
ਯੂਨੀ	-7678
▁ਈਸਾਈ	-7679
▁ਕ੍ਰਾ	-7680
▁ਤਸੀਹੇ	-7681
▁ਆਬਜੈਕਟ	-7682
▁ਚਾਰਟਰਡ	-7683
▁ਨਿਰਧਾਰਨ	-7684
▁ਵੇਣੂਗੋਪਾਲ	-7685
ਤੱਤਵ	-7686
ਪਬਲਿਕ	-7687
▁ਇਜ਼ਾ	-7688
▁ਨਿਰਦੇ	-7689
▁ਮਨਜੂਰ	-7690
▁ਵਿਚਲਾ	-7691
▁ਆਮਪਾਲੀ	-7692
▁ਕਮਿਸ਼ਨਾਂ	-7693
ਸਾਲ	-7694
ound	-7695
ਫੁੱਲ	-7696
▁ਨਰਮ	-7697
ਾਦਾਰੀ	-7698
▁ਰੇਸ਼	-7699
▁ਲਿਫਟ	-7700
▁ਹਰਕਤ	-7701
▁ਗੁਰੇਜ਼	-7702
ਵਰਡ	-7703
▁ਤਿਰ	-7704
▁ਰੇਤ	-7705
▁ਐਮਐਮ	-7706
▁ਚਾਲਕ	-7707
▁ਰੈਂਕ	-7708
▁ਸਮਾਗ	-7709
ਮਨੁੱਖੀ	-7710
▁ਇਕਬਾਲ	-7711
▁ਲਾਉਣਾ	-7712
▁ਸਿਖਿਅਤ	-7713
▁ਪ੍ਰੋਬੇਸ਼ਨ	-7714
▁uf	-7715
▁ਕਣਕ	-7716
▁ਗਲੀ	-7717
▁ਗਾਇ	-7718
▁ਕੂੜੇ	-7719
▁ਵਕਫ਼	-7720
ਟੀਨੈਂਟ	-7721
ਬਰਾਹਿਮ	-7722
▁means	-7723
▁ਵੈਂਕਟ	-7724
▁ਮਹਾਰਾਜ	-7725
▁ਸਮਾਗਮਾਂ	-7726
▁ਪਹਿਲਕਦਮੀ	-7727
▁ਬਜ਼ੁਰਗਾਂ	-7728
▁ਪ੍ਰੋਵੀਡੈਂਟ	-7729
▁ਕਸਬੇ	-7730
▁ਰੁੱਖ	-7731
▁ਫੁਟਕਲ	-7732
▁ਪੁਡੂਚੇਰੀ	-7733
▁ar	-7734
ਰਾਬੀ	-7735
ਸਤਾਂ	-7736
▁ਲੈਫ	-7737
▁ਅਈਅਰ	-7738
▁ਟਿਕਟ	-7739
▁ਪੈਟਰ	-7740
▁ਪ੍ਰੌ	-7741
▁ਫੇਰੀ	-7742
▁ਮੌਰਗ	-7743
▁ਕਰਨੀਆਂ	-7744
▁ਪਲਾਸਟਿਕ	-7745
▁ਰੈਜ਼ੋਲਿ	-7746
▁ਗੈਰਹਾਜ਼ਰ	-7747
▁ਡਿਸਟ੍ਰੀਬਿ	-7748
ਤੀਤ	-7749
ਦਿਆ	-7750
ਰੂਪ	-7751
▁ਬੈਨ	-7752
ਸ਼ਟਿਕ	-7753
▁ਫੁੱਲ	-7754
▁ਰਕਬੇ	-7755
▁ਵੈੱਬ	-7756
▁ਕਿੱਤੇ	-7757
▁ਸਰਹੱਦ	-7758
▁ਹਰੀਸ਼	-7759
▁ਪਹੁੰਚਾਇਆ	-7760
▁ਪ੍ਰਤੀਕੂਲ	-7761
▁ਲਾਇਸੰਸਸ਼ੁਦਾ	-7762
ਤੱਖ	-7763
ੋਜ਼	-7764
▁ac	-7765
ਡੀਐਫ	-7766
▁ਜਵਾ	-7767
▁ਤੱਟ	-7768
▁ਸੀਜੀ	-7769
▁ਮਿੱਤਰ	-7770
▁ਇਸ਼ਾਰੇ	-7771
▁ਲਾਰਡਜ਼	-7772
▁ਕਰਵਾਈਆਂ	-7773
▁ਤਸਵੀਰਾਂ	-7774
▁ਫਾਰਮਾਸਿ	-7775
▁ਮੈਨੇਜਿੰਗ	-7776
▁ਨਿਰਾਸ਼ਾਜਨਕ	-7777
igh	-7778
ਏਟਰ	-7779
ਸੀਲ	-7780
ਕਸ਼ੇ	-7781
▁ਪਿੱ	-7782
ੋਟੀਆਂ	-7783
▁ਅਧਿਕ	-7784
▁ਐਨਸੀ	-7785
▁ਐਮਬੀ	-7786
▁ਕੰਪੋ	-7787
▁ਫਲੋਰ	-7788
▁ਬਸਤੀ	-7789
▁ਬੈਠੇ	-7790
▁ਪ੍ਰਤਿਭਾ	-7791
▁ਪਾਬੰਦੀਸ਼ੁਦਾ	-7792
am	-7793
ire	-7794
▁ਗੀ	-7795
ਵਾਜਬ	-7796
ਭਾਵੇਂ	-7797
▁ਆਰਕੀ	-7798
▁ਹੈਲਥ	-7799
▁ਫਿੰਗਰ	-7800
▁ਦਿਵੇਦੀ	-7801
▁ਸਿਕਿਓਰ	-7802
▁ਅਪਾਰਟਮੈਂਟ	-7803
▁ww	-7804
▁ਠੰ	-7805
ਜੀਅਮ	-7806
ਦਾਨੀ	-7807
ਲੀਜ਼	-7808
▁www	-7809
▁ਖ਼ਬਰ	-7810
▁ਵਾਈਸ	-7811
▁ਸੋਚਣ	-7812
ੁਜ਼ਗਾਰ	-7813
▁ਵੈਲਯੂ	-7814
▁ਐਡਵਾਂਸ	-7815
▁ਦਿਹਾਤੀ	-7816
▁ਲੜਕੀਆਂ	-7817
▁ਸਾਵਧਾਨ	-7818
▁ਇਜ਼ਾਜ਼ਤ	-7819
▁ਕਿਸ਼ਤਾਂ	-7820
▁ਡਿਗਰੀਆਂ	-7821
▁ਬਹੁਪੱਖੀ	-7822
▁ਪੁਰਾਤੱਤਵ	-7823
▁ਵਫ਼ਾਦਾਰੀ	-7824
▁ਤਹਿਸੀਲਦਾਰ	-7825
▁reasonable	-7826
ਕੋਰ	-7827
▁ade	-7828
ਾਮੀਆਂ	-7829
ਮੁਹੰਮਦ	-7830
▁ਅੰਕੜਾ	-7831
▁ਮੁਦੱਈ	-7832
▁ਹੁਸੈਨ	-7833
▁ਆਈਆਈਟੀ	-7834
▁ਕਰਾਂਗਾ	-7835
▁ਜਗਦੀਸ਼	-7836
▁ਸੁਝਾਵਾਂ	-7837
▁ਪਹਾ	-7838
▁ਮੰਚ	-7839
▁ਉਚਿੱਤ	-7840
▁ਖਿੱਚਣ	-7841
▁ਛੇਵੇਂ	-7842
ਕਰਮਚਾਰੀ	-7843
▁ਸ਼ਾਸਤਰ	-7844
▁ਸਹਿਭਾਗੀ	-7845
ਹਾਕ	-7846
ਜ਼ੈਡ	-7847
▁ਅਨੌ	-7848
▁ਕਈਂ	-7849
▁ਰੂਮ	-7850
ction	-7851
▁ਵਿਜ਼	-7852
▁ਕੁੰਜੀ	-7853
▁ਜਾਪਦੀ	-7854
▁ਸਤੀਸ਼	-7855
ਮੌਜੂਦਗੀ	-7856
▁ਪੜ੍ਹਾਈ	-7857
▁ਸਪੈਕਟ੍ਰਮ	-7858
▁?	-7859
▁।	-7860
ਪਾਸ	-7861
ਬਾਂ	-7862
ਰਾਹ	-7863
▁ਸੁਖ	-7864
▁ਕਪੂਰ	-7865
▁ਲਿਸਟ	-7866
▁ਪਾਸਿਆਂ	-7867
▁ਬਣਾਈਆਂ	-7868
▁ਰਾਜਮਾਰ	-7869
▁ਬਿੰਦੂਆਂ	-7870
▁ਰਿਪੋਰਟਿੰਗ	-7871
ੱਲਾਂ	-7872
▁ਕਾਬਲ	-7873
▁ਪੈਰੀ	-7874
▁ਵਾਰਡ	-7875
▁ਪੁਰਸ਼	-7876
▁ਮਿਸਾਲ	-7877
▁mechan	-7878
▁ਜਨਸੰਖਿਆ	-7879
▁ਜੈਨੇਟਿਕ	-7880
▁ਗੈਰਕਨੂੰਨੀ	-7881
▁ਐਂਟਰਪ੍ਰਾਈਜ	-7882
ty	-7883
ਈਸੀ	-7884
ਪਾਈ	-7885
ਰਜ਼	-7886
ਿਅਲ	-7887
ਾਇਲਟ	-7888
▁ਉਤਸ	-7889
▁ਲਹਿਰ	-7890
▁ਹੈੱਡ	-7891
▁ਰੋਸਟਰ	-7892
▁ਇਕਵਿਟੀ	-7893
▁ਤਜ਼ਰਬਾ	-7894
▁ਪ੍ਰਸਾਰਿਤ	-7895
ਸਿਲ	-7896
▁ਮੂ	-7897
ਏਸ਼ਨ	-7898
ਾਈਲਡ	-7899
▁ਡੇਵ	-7900
▁ਪਰਸ	-7901
ਕਿਰਾਏ	-7902
▁ਐਸਟੋ	-7903
▁ਟਾਈਮ	-7904
▁ਲੈਣੀ	-7905
▁ਸਟੈਨ	-7906
▁ਸੱਚੀ	-7907
▁ਆਖ਼ਰੀ	-7908
▁ਬਦਲਾਅ	-7909
▁ਨਰਸਿੰਗ	-7910
▁ਨਰਿੰਦਰ	-7911
▁ਵਾਪਰਿਆ	-7912
▁ਸਪਾਂਸਰ	-7913
▁ਹੈਰਾਨੀ	-7914
▁ਵਧਾਉਂਦਾ	-7915
ਡਿਆ	-7916
ਦੁਆ	-7917
ਲਿਆ	-7918
▁ਐੱਲ	-7919
▁ਸਤਹ	-7920
▁ਅੱਡੇ	-7921
▁ਦਾਦਾ	-7922
▁ਵੇਚੀ	-7923
ਚੋਲ	-7924
▁ਭੱ	-7925
ਛੋਟਾ	-7926
▁ਤਿੱ	-7927
quate	-7928
ਸਲੂਕੀ	-7929
▁ਭੜਕਾ	-7930
▁ਰਿਵਿ	-7931
▁ਲੰਮਾ	-7932
ਕੇਂਦਰੀ	-7933
▁ਕਿੰਨੀ	-7934
▁ਫਸਾਇਆ	-7935
▁ਭੂਟਾਨ	-7936
▁ਆਡੀਟਰਾਂ	-7937
▁ਬਰਦਾਸ਼ਤ	-7938
▁ਫੈਕਟਰੀਆਂ	-7939
▁ਸੰਪੂਰਨਤਾ	-7940
ਦਿਕ	-7941
ਬੋਰਡ	-7942
▁ਪਟਾ	-7943
▁fact	-7944
▁ਝੋਨੇ	-7945
▁ਬਦਲੀ	-7946
▁ਰੀਅਲ	-7947
▁ਨਰਾਇਣ	-7948
▁ਸੈਮੀਨ	-7949
▁ਕੇਂਦਰਤ	-7950
▁ਅਪ੍ਰਤੱਖ	-7951
▁ਉਤਰਾਖੰਡ	-7952
▁ਸਹਿਣਸ਼ੀਲਤਾ	-7953
ਗਾਨ	-7954
▁ii	-7955
▁ਲਲ	-7956
▁ਸ਼ਬ	-7957
▁ਚਾਲੀ	-7958
▁ਮਜ਼ਦੂਰੀ	-7959
▁transport	-7960
▁ਭਾਈਚਾਰਿਆਂ	-7961
ਵਿਕਾਸ	-7962
▁ਟਾਟਾ	-7963
▁ਮਾਤਾ	-7964
▁ਸਭਿਅਕ	-7965
▁ਉਮੀਦਾਂ	-7966
▁ਕਾਉਂਸਲ	-7967
▁.......	-7968
▁ਬੰਨ੍ਹਿਆ	-7969
▁ਐਪਲੀਕੇਸ਼ਨਾਂ	-7970
ਬਟ	-7971
ਬਾਲ	-7972
ਮਿਨ	-7973
ੇਂਟ	-7974
▁ਸਚ	-7975
▁ਮਦਨ	-7976
▁ਅਸਾਨ	-7977
▁ਟੈਂਕ	-7978
▁ਬਾਂਹ	-7979
▁ਸੂਖਮ	-7980
▁drawn	-7981
▁ਭਟਕਣਾ	-7982
▁ਉੱਦਮਾਂ	-7983
▁ਕਾਮਿਆਂ	-7984
▁ਪੰਜਵੇਂ	-7985
▁ਵਰਕਸ਼ਾ	-7986
▁ਅੰਦਾਜ਼ੀ	-7987
▁ਬਿਨ੍ਹਾਂ	-7988
▁ਸੰਭਾਲਿਆ	-7989
▁ਭਾਵਨਾਤਮਕ	-7990
▁ਪ੍ਰਬੰਧਨਯੋਗ	-7991
ਤਮਈ	-7992
▁ਘੋਰ	-7993
▁ਪਿੰ	-7994
▁ਸਾੜ	-7995
▁ਤੀਬਰ	-7996
▁ਮਨਮੋ	-7997
▁ਵੈਲਥ	-7998
▁ਆਉਣਗੇ	-7999
▁ਕਿਸ਼ਤ	-8000
▁ਹਟਾਇਆ	-8001
ਾਕ੍ਰਿਸ਼ਨਨ	-8002
rom	-8003
▁ਈਆਰ	-8004
▁ਗ਼ਲ	-8005
ੰਗਾਨਾ	-8006
▁ਰਵਾਨਾ	-8007
▁ਸੁਬਰਾਮ	-8008
▁ਉਪਚਾਰਾਂ	-8009
vid	-8010
ਟਿਕ	-8011
▁ਗੈ	-8012
▁sub	-8013
▁ਕੁਨ	-8014
▁ਵਰਗਾ	-8015
▁ਅਨਿਆਂ	-8016
▁ਅੰਤਿਮ	-8017
▁ਵਿਭਾਜਨ	-8018
▁ਕਾਮਨਾਵਾਂ	-8019
%)	-8020
ਕੋਡ	-8021
ਿੱਕ	-8022
,,,,	-8023
ਪਮਾਨ	-8024
ਮਾਨਾ	-8025
▁ਬੜੇ	-8026
-----	-8027
▁ਐਨਟੀ	-8028
▁ਧੀਆਂ	-8029
▁ਫੀਲਡ	-8030
▁ਬਕਸੇ	-8031
▁ਯੂਨਿ	-8032
▁ਜਵਾਹਰ	-8033
▁ਨੇਪਾਲ	-8034
▁ਤਿੰਨਾਂ	-8035
▁ਦਿਨੇਸ਼	-8036
▁ਸ਼ਾਂਤਮਈ	-8037
▁ਠਹਿਰਾਉਣਾ	-8038
▁ਵਿਕਾਸਸ਼ੀਲ	-8039
ਆਪਣੇ	-8040
▁ਜਮਾਂ	-8041
▁ਸਭਿਅ	-8042
▁ਚਾਨਣਾ	-8043
▁ਨੇੜਤਾ	-8044
▁ਬੰਦੂਕ	-8045
▁ਰਿਮੋਟ	-8046
▁ਐਨਸੀਟੀ	-8047
▁ਬਦਸਲੂਕੀ	-8048
▁ਮੁੱਕਦਮਾ	-8049
▁ਇਸ਼ਤਿਹਾਰਬਾਜ਼ੀ	-8050
ak	-8051
ਵੇਅ	-8052
ਪਸ਼ਨ	-8053
▁ਪੰਡ	-8054
▁ਬਿਰ	-8055
▁ਚਰਚਾ	-8056
▁ਪਨਾਹ	-8057
▁ਵਧਦੇ	-8058
▁ਸਟਾਰ	-8059
▁ਤੁਲਸੀ	-8060
▁ਦਸਵੀਂ	-8061
▁ਫੈਡਰਲ	-8062
▁ਮੰਜ਼ਲ	-8063
▁ਵਾਲੀਅਮ	-8064
▁ਪੌਸ਼ਟਿਕ	-8065
▁ਫੋਰਸਿਜ਼	-8066
ਨਾਥਨ	-8067
▁ਕਾਸ	-8068
▁ਰੋਹ	-8069
ਆਈਡੀਏ	-8070
ਸਾਇਟੀ	-8071
▁ਅੱਧੀ	-8072
▁ਐਕਸਾਡ	-8073
▁ਲੱਖਾਂ	-8074
▁ਸ਼ੂਗਰ	-8075
ਥੋ	-8076
ਕਿਲ	-8077
ਪੁਟ	-8078
▁ਚਰਚ	-8079
▁ਸਿਖਰ	-8080
▁ਐਡਹਾਕ	-8081
▁ਪੈਣਗੇ	-8082
▁ਤਾਪਮਾਨ	-8083
▁ਗਵਰਨੈਂਸ	-8084
▁ਸ੍ਰੀਮਾਨ	-8085
▁ਹਿੰਦੂਆਂ	-8086
▁ਲੈਫਟੀਨੈਂਟ	-8087
▁ਪ੍ਰਤੀਬਿੰਬਤ	-8088
ੀਆ	-8089
ਨਾਰ	-8090
▁ਦਰੁ	-8091
▁http	-8092
▁ਸਲੀਮ	-8093
ਾਂਚਿਆਂ	-8094
▁ਪ੍ਰੋਮੋ	-8095
ਰਾਸ਼ਟਰਪਤੀ	-8096
▁ਐਨਡੀਪੀਐਸ	-8097
▁ਪ੍ਰਤੀਬਿੰਬ	-8098
ਓਸੀ	-8099
ਟਾਈਮ	-8100
ਵਿਤਾ	-8101
ਵੰਡੇ	-8102
▁ਲਾਏ	-8103
▁ਅਨਵਰ	-8104
▁ਉਚਾਈ	-8105
▁ਸ਼ਰਮ	-8106
ਸੀਨੀਅਰ	-8107
▁inter	-8108
▁order	-8109
▁ਸਿੱਕਮ	-8110
▁ਅਡਵਾਂਸ	-8111
▁ਐਨਸੀਐਲ	-8112
▁ਸੂਝਵਾਨ	-8113
▁ਅਲਾਟੀਆਂ	-8114
▁ਪ੍ਰਵਾਸੀ	-8115
▁ਨਿਯਮਾਵਲੀ	-8116
ਐਸਏ	-8117
ਸਰਾ	-8118
ਵਪਾਰ	-8119
▁ਖੜਾ	-8120
▁ਅਭੇਦ	-8121
▁ਕੇਬਲ	-8122
ਕੇਟਿੰਗ	-8123
▁ਤਕਨੀਕ	-8124
▁ਬੇਸਿਨ	-8125
▁ਮਿਲੀਆਂ	-8126
▁ਠੇਕੇਦਾਰਾਂ	-8127
ਲੇਮ	-8128
ੋਬਾਰ	-8129
▁ਇੰਟ	-8130
▁ਕਹੀ	-8131
▁ਦੌਰ	-8132
▁ਚੁਣਨ	-8133
▁ਹੋਸਟ	-8134
▁ਆਰਮਜ਼	-8135
▁ਪਰਿਸ਼	-8136
▁ਰਹਿੰਦ	-8137
▁ਸਟੇਟਸ	-8138
▁ਦਿਖਾਉਣ	-8139
▁ਵਿਕਰੇਤਾਵਾਂ	-8140
▁“.	-8141
ਐਫਆਰ	-8142
▁ਫਰੀ	-8143
▁ਡੀਮਡ	-8144
▁ਪਾੜੇ	-8145
▁ਗਾਹਕੀ	-8146
▁ਚੌਹਾਨ	-8147
▁ਏਜੰਟਾਂ	-8148
▁ਗ੍ਰੇਟਰ	-8149
▁ਦਿਵਾਇਆ	-8150
▁ਸੈਕਿੰਡ	-8151
▁ਏਅਰਪੋਰਟ	-8152
▁ਬਾਈਡਿੰਗ	-8153
▁ਸਾਰਥਕਤਾ	-8154
▁ਕਿਰਿਆਸ਼ੀਲ	-8155
ਸਹ	-8156
ਪੁਰਮ	-8157
▁ਗਲੇ	-8158
▁ਪੇਜ	-8159
▁ਦਰਿਆ	-8160
▁ਕਾਮਨਾ	-8161
ਹਲ	-8162
▁ਵਗ	-8163
▁ਲੀਡ	-8164
▁suit	-8165
▁ਸਫਾਈ	-8166
▁ਕਿਹੜੀ	-8167
▁ਅਣਵੰਡੇ	-8168
▁ਲਾਈਨਾਂ	-8169
▁ਮੁਸਲਮਾਨਾਂ	-8170
ale	-8171
ਗ੍ਰ	-8172
▁ਖੂਹ	-8173
▁ਬੀਚ	-8174
▁ਅਰੁਣ	-8175
▁ਕਪਾਹ	-8176
▁ਗੋਇਲ	-8177
▁ਲੱਭਣਾ	-8178
▁ਨਸ਼ਿਆਂ	-8179
▁ਇਨਕੁਆਰੀ	-8180
▁adequate	-8181
ੋਡ	-8182
mit	-8183
▁ਯੁ	-8184
▁ਤੋਰ	-8185
▁ਸੁਆ	-8186
▁ਸੱਸ	-8187
ਅਦਾਲਤ	-8188
▁ਤੰਬਾ	-8189
▁ਮਾਪਣ	-8190
ਪੀਸੀਐਲ	-8191
▁ਕਲੀਅਰ	-8192
▁ਸੰਪਾਦ	-8193
▁ਹੜਤਾਲ	-8194
▁ਟੈਲੀਵਿਜ਼ਨ	-8195
▁ਭੁਗਤਾਨਯੋਗ	-8196
ਲਾਭ	-8197
▁ol	-8198
ਜੀਆਂ	-8199
▁ਸੇਫ	-8200
vance	-8201
▁ਠੇਕਾ	-8202
▁ਬੀਤਣ	-8203
▁ਵਿੱਦ	-8204
▁ਸਾਂਭ	-8205
ਰੈਗੂਲੇ	-8206
▁ਅਫ਼ਸਰ	-8207
▁ਪਾਉਣਾ	-8208
▁ਪ੍ਰਸ਼ਾਂਤ	-8209
vel	-8210
ver	-8211
ਇੰਗ	-8212
ਥਰਾ	-8213
▁ਧਾ	-8214
▁ਵਲ	-8215
▁ਜ਼ੈਡ	-8216
▁ਨਾਰਾ	-8217
ਟਾਂਦਰਾ	-8218
▁ਅਗਾਂਹ	-8219
▁ਨਾਵਾਂ	-8220
▁ਭੋਪਾਲ	-8221
▁ਸਕ੍ਰਿ	-8222
▁ਦੁਸ਼ਮਣ	-8223
▁ਮੁਨਾਫੇ	-8224
▁ਖ਼ਤਰਨਾਕ	-8225
▁ਤ੍ਰਿਪੁਰਾ	-8226
ਜੁਡੀ	-8227
▁ਝਾੜ	-8228
▁ਦਾਨੀ	-8229
▁ਨਾਮਨਜ਼	-8230
▁ਲਰਨਿੰਗ	-8231
▁ਗਾਰੰਟੀਸ਼ੁਦਾ	-8232
ੂਮ	-8233
ਗੇਟ	-8234
ਹੂਮ	-8235
ਪ੍ਰਾ	-8236
ਅਧਾਰਤ	-8237
ਚਾਰੀਆ	-8238
ਧਿਕਾਰ	-8239
▁ਉਜਰਤ	-8240
▁ਪੱਟੀ	-8241
▁ਫਿਕਸ	-8242
▁ਫੌਜੀ	-8243
▁ਖਾਤਮੇ	-8244
▁ਵਿਨੋਦ	-8245
▁ਬੇਇੱਜ਼	-8246
▁ਮੇਰੀਆਂ	-8247
▁ਵਿਭਚਾਰ	-8248
▁ਮਨੁੱਖਾਂ	-8249
▁ਵਿਰੋਧਤਾ	-8250
▁ਰਿਟਰਨਿੰਗ	-8251
use	-8252
ਜ਼ੀਕਿ	-8253
▁ਕੋਟਾ	-8254
▁ਜਜ਼ਬ	-8255
▁ਡੁੱਬ	-8256
▁ਯਕੀਨਨ	-8257
▁ਸਮਾਗਮ	-8258
▁ਠੇਕਿਆਂ	-8259
▁ਪ੍ਰਮਾਣਿਕ	-8260
oc	-8261
ਆਰਏ	-8262
ਕਿਆ	-8263
ਪਰੀਤ	-8264
▁ਉਪਜ	-8265
ਸਿਡੀਆਂ	-8266
▁ਡੇਅਰੀ	-8267
▁ਪੋਰਟਲ	-8268
▁ਸ਼ਬਦਾ	-8269
ਸ਼ਿਕਾਇਤ	-8270
▁ਬੇਇੱਜ਼ਤੀ	-8271
▁ਤਕਨਾਲੋਜੀਆਂ	-8272
,.	-8273
ਐਮਏ	-8274
ਕਟਰ	-8275
ਵੇਦ	-8276
ਸਮੀ	-8277
ਕਾਬੂ	-8278
ਪਲੱਸ	-8279
ਮਾਣੂ	-8280
ੂੰਹਦ	-8281
▁ਤਾਜ	-8282
▁ਸਰਚ	-8283
▁ਐਨਐਚ	-8284
▁ਛਾਪੇ	-8285
▁ਵੈਸਟ	-8286
ਿਕਾਵਾਂ	-8287
▁ਜਿਹਨਾਂ	-8288
▁ਟਿਕਟਾਂ	-8289
▁ਨਾਰਾਜ਼	-8290
▁ਵਸੂਲਿਆ	-8291
▁ਐਸਟੋਪੈਲ	-8292
▁ਡਾਇਰੈਕਟਰੀ	-8293
▁ਸਲੂ	-8294
▁ਕਿੱਥੇ	-8295
▁ਵਤੀਰੇ	-8296
ਕਾਰਪੋਰੇ	-8297
▁ਉਲਟਾਉਣ	-8298
▁ਮਿਲੇਗੀ	-8299
ਚਾਓ	-8300
ਹੁਣ	-8301
ੈਰੇ	-8302
▁ਨੀਲ	-8303
▁ਆਰਪੀ	-8304
▁ਚਲਦੀ	-8305
▁ਸ਼ੈਡ	-8306
▁ਪ੍ਰਜਾ	-8307
▁ਸਦੀਵੀ	-8308
▁ਪਰਿਸ਼ਦ	-8309
▁ਬਾਇਓਟੈਕ	-8310
ਯੋਜ	-8311
▁ਓਏ	-8312
▁ਰਬ	-8313
ਇੱਛਾ	-8314
▁ਗਰੈ	-8315
▁ਰੁੱਝ	-8316
▁ਡੂੰਘੇ	-8317
▁ਦਰੁਸਤ	-8318
▁ਪੁਸਤਕ	-8319
▁ਮੂਰਤੀ	-8320
▁ਸਾਲਵੇ	-8321
▁ਸੱਤਿਆ	-8322
ਆਈਡੀਏਆਈ	-8323
▁ਵੇਚੀਆਂ	-8324
▁ਇਕੱਠਿਆਂ	-8325
ਜਨਨ	-8326
ਿੱਡ	-8327
ਜ਼ਾਤ	-8328
ਰਖਿਆ	-8329
▁ਗੁਲ	-8330
▁ਪਦਮ	-8331
ਫ਼ਤਾਰ	-8332
ਾਨੀਆਂ	-8333
▁ਗੁਣਕ	-8334
▁ਯਾਰਕ	-8335
▁ਰਾਣੀ	-8336
▁ਮਰਹੂਮ	-8337
▁ਮਨਮਾਨੇ	-8338
▁ਸਰਪਲੱਸ	-8339
▁ਹਵਾਲਗੀ	-8340
▁ਅਸਹਿਮਤੀ	-8341
ਹਰੇ	-8342
ਐਫਟੀ	-8343
▁ਕਦੋਂ	-8344
▁ਨਵਿਆ	-8345
▁ਰਾਈਫ	-8346
▁ਰੁਝੇ	-8347
▁ਰੈਗੂ	-8348
੍ਰੇਜ਼ੀ	-8349
▁ਅਸਾਈਨ	-8350
▁ਬਦਲਦਾ	-8351
▁ਬੇਦਖ਼	-8352
▁ਸਰਜਰੀ	-8353
▁ਬੇਕਾਬੂ	-8354
▁ਵਿਪਰੀਤ	-8355
▁ਸਸ਼ਕਤੀ	-8356
▁ਸੁਭਾਸ਼	-8357
▁ਨੋਟਬੰਦੀ	-8358
▁ਸ਼ਬਦਾਵਲੀ	-8359
▁ਸਾਂਝੇਦਾਰੀ	-8360
२२	-8361
ਬਸ	-8362
ਗਿਣਤ	-8363
▁ਬੁੱ	-8364
▁ਚੌਥੀ	-8365
▁ਵਿਆਪੀ	-8366
▁ਛੋਟੀਆਂ	-8367
▁ਭਰਾਵਾਂ	-8368
▁ਵੋਟਿੰਗ	-8369
▁ਯਾਦਗਾਰੀ	-8370
▁ਸਟੇਸ਼ਨਾਂ	-8371
▁ਵਿਚਾਰਧਾਰਾ	-8372
▁k	-8373
ੰਡੀ	-8374
▁per	-8375
▁ਲਿਸ	-8376
▁ਦੇਸੀ	-8377
▁ਮਜਬੂ	-8378
▁ਮਸਲਾ	-8379
▁ਝੁਕਾਅ	-8380
▁ਪੜਚੋਲ	-8381
▁ਵਜ੍ਹਾ	-8382
▁ਸਿਕਓਰ	-8383
▁ਜਵਾਬਾਂ	-8384
▁ਡਾਲਮੀਆ	-8385
▁ਬ੍ਰਾਂਡ	-8386
▁ਰਿਫਾਇਨ	-8387
▁advance	-8388
▁ਡਿਫਾਲਟਰ	-8389
ਟੇਜ	-8390
ਵਰਤੀ	-8391
▁ਅਚਨ	-8392
▁ਪਰਾ	-8393
▁ਨਿੰਦ	-8394
▁ਰਵੱਈ	-8395
▁ਸਜਾਵ	-8396
▁ation	-8397
▁ਅਬਾਦੀ	-8398
▁ਕ੍ਰਾਈ	-8399
▁ਸੰਮਤੀ	-8400
▁ਪ੍ਰਜਨਨ	-8401
▁ਭੜਕਾਉਣ	-8402
▁ਮਾਧਿਅਮ	-8403
▁ਕਾਗਜ਼ਾਤ	-8404
▁ਰਿਆਇਤਾਂ	-8405
▁ਅਵਿਸ਼ਵਾਸੀ	-8406
▁ਨਿਸ਼ਾਨਦੇਹੀ	-8407
▁ਪ੍ਰਯੋਗਸ਼ਾਲਾ	-8408
ਿੜ	-8409
ਅਜਿ	-8410
ਦਰੂ	-8411
▁ob	-8412
ਬਚਾਓ	-8413
▁ਚਮਕ	-8414
▁ਧਵਨ	-8415
▁ਪਵੇ	-8416
▁ਜੇਤੂ	-8417
▁ਇਕਸੁਰ	-8418
▁ਕਪਤਾਨ	-8419
▁ਕਾਲਾਂ	-8420
▁ਰਵੱਈਏ	-8421
▁ਐਫਐਸਐਲ	-8422
▁ਸੋਧੀਆਂ	-8423
▁ਕਲੀਅਰੈਂਸ	-8424
▁ਪੇਸ਼ੇਵਰਾਂ	-8425
▁ਯੂਆਈਡੀਏਆਈ	-8426
▁ਲਾਇਬ੍ਰੇਰੀ	-8427
ors	-8428
ਟੀਏ	-8429
ੋਟੇ	-8430
▁ਪੁਲਾ	-8431
▁ਨੁਕਤਾ	-8432
▁ਪੀਰੀਅ	-8433
ਕੁਸ਼ਲਤਾ	-8434
▁ਰਸੀਦਾਂ	-8435
▁ਬੇਈਮਾਨੀ	-8436
▁ਵਿਵਸਥਿਤ	-8437
▁municipal	-8438
▁ਪ੍ਰਧਾਨਮੰਤਰੀ	-8439
ੂੜ	-8440
ard	-8441
ਟੀਓ	-8442
▁ਭਟ	-8443
▁ਯਾ	-8444
▁ਸਯ	-8445
ਿਹਾਈ	-8446
▁was	-8447
▁ਆਇਰਨ	-8448
▁ਮੁਸੀ	-8449
▁ਸੱਚੇ	-8450
▁ਅੰਕਾਂ	-8451
▁ਉਦਾਸੀ	-8452
▁ਏਐਸਜੀ	-8453
▁ਖਰੀਦੇ	-8454
ication	-8455
ਵੋਕੇਸ਼ਨ	-8456
ਾਈਜ਼ੇਸ਼ਨ	-8457
▁ਸੁੱਰਖਿਆ	-8458
▁ਟਰੱਸਟੀਆਂ	-8459
gt	-8460
▁ext	-8461
▁res	-8462
▁ਗਰਮੀ	-8463
▁ਬੈਠਣ	-8464
▁ਸ਼ਿਰ	-8465
▁ਇਨਪੁਟ	-8466
▁ਜਾਵੇਦ	-8467
▁ਪਛਾਣਿਆ	-8468
▁ਸੀਜੇਆਈ	-8469
▁ਸੰਤੋਸ਼	-8470
▁ਅਵਾਰਡਾਂ	-8471
ive	-8472
ore	-8473
ਸੋਰ	-8474
▁ਮਕ	-8475
▁“(	-8476
ਿੱਖੜ	-8477
▁imp	-8478
▁ਨਾਈ	-8479
▁ਪੈਕ	-8480
▁ਫੇਰ	-8481
▁coun	-8482
▁from	-8483
▁ਐਮਐਚ	-8484
▁ਐਲਆਰ	-8485
▁ਕੰਟੀਨ	-8486
▁ਅਨਿੱਖੜ	-8487
▁ਸਟ੍ਰੀਟ	-8488
▁ਸਾਮੱਗਰੀ	-8489
▁ਅਵਿਸ਼ਵਾਸ	-8490
ism	-8491
ਮਾਸ	-8492
ਬਾਹੀ	-8493
ਵਾਸਤ	-8494
▁ਅਸੁ	-8495
▁ਕਾਹ	-8496
▁ਟੈਂ	-8497
▁ਗੱਡੀ	-8498
▁ਚੱਲੇ	-8499
▁ਜ਼ੁੰ	-8500
▁ਟਾਈਪ	-8501
▁ਸਾਲਾ	-8502
▁ਸੰਜੀ	-8503
▁“...	-8504
ਸ਼ਾਸ਼ਨ	-8505
▁ਅਲਾਟੀ	-8506
▁ਜੜ੍ਹਾਂ	-8507
▁ਝੌਂਪੜੀ	-8508
▁ਦੇਣਦਾਰੀਆਂ	-8509
ਜ਼ਰੂ	-8510
ਣਿਆਂ	-8511
ਮਾਤਰ	-8512
▁ਭੇਦ	-8513
▁ਮੇਨ	-8514
▁ਆਈਐਸ	-8515
▁ਮਾਨਵ	-8516
▁ਮੇਜ਼	-8517
▁ਲਲਿਤ	-8518
▁ਉੱਨਤੀ	-8519
▁ਤਬਾਹੀ	-8520
▁ਵਾਇਰਸ	-8521
▁ਅੜਿੱਕੇ	-8522
▁ਬਿਸਤਰੇ	-8523
▁ਐਗਜ਼ੀਕਿ	-8524
▁ਤੇਲੰਗਾਨਾ	-8525
▁ਅੰਗ੍ਰੇਜ਼ੀ	-8526
ਥਲ	-8527
iss	-8528
ਤੋਂ	-8529
ਲੀਓ	-8530
ੰਨਾ	-8531
▁//	-8532
▁ag	-8533
▁ਕਚ	-8534
ਚੂਰੀ	-8535
▁not	-8536
▁ਕਰਨਲ	-8537
▁ਸਦਮੇ	-8538
▁ਸੀਐਸ	-8539
▁ਕਾਰਪਸ	-8540
▁ਦਰਪੇਸ਼	-8541
▁ਨਿਸ਼ਚਤਤਾ	-8542
▁ਲੀਡਰਸ਼ਿਪ	-8543
▁ਸਬਸਿਡੀਆਂ	-8544
▁ਮਨੋਵਿਗਿਆਨਕ	-8545
ਡਰਨ	-8546
ਐਕਸਡ	-8547
ੰਦਰਾ	-8548
▁ਖੋਪ	-8549
▁ਗਹਿ	-8550
▁ਟਾਲ	-8551
▁ਟਰਾਂ	-8552
▁ਅਜ਼ਾਦ	-8553
▁ਮੁਹਾਵ	-8554
▁ਸੰਜੋਗ	-8555
▁ਕਮਾਂਡਰ	-8556
▁ਕੁਮਾਰੀ	-8557
▁ਕ੍ਰਿਪਾ	-8558
▁ਪ੍ਰਾਂਤ	-8559
▁ਸ਼ਰਧਾਲ	-8560
▁ਮੈਟ੍ਰਿਕਸ	-8561
ਸਾਗਰ	-8562
ਸੀਐਸ	-8563
▁ਅਸੀ	-8564
▁ਡਰੇ	-8565
▁ਮਲੇ	-8566
▁ਮੈਗ	-8567
ਨਿਰਭਰ	-8568
▁cons	-8569
▁ਗਾਰਡਨ	-8570
▁ਸੁਲਝਾ	-8571
▁ਅਖੀਰਲੇ	-8572
▁ਹਟਾਉਣਾ	-8573
▁ਟ੍ਰੇਨਿੰਗ	-8574
▁ਪੈਂਡੈਂਸੀ	-8575
ਸਮਝ	-8576
ੱਫੜ	-8577
ਧਾਰੀ	-8578
ਲਿਟੀ	-8579
▁ਏਟੀ	-8580
▁ਬਰੇ	-8581
▁ਭਾਂ	-8582
ਬੈਂਚਰ	-8583
▁ਅਕੈਡ	-8584
▁ਚਾਵਲ	-8585
▁ਤਿਰੂ	-8586
▁ਮੈਰੀ	-8587
▁ਕੋੜ੍ਹ	-8588
▁ਬੈਂਗਲ	-8589
▁ਲੈਬਾਰ	-8590
▁ਅਧਿਕਤਮ	-8591
▁ਪਾਣੀਆਂ	-8592
▁ਰੋਜ਼ਗਾਰ	-8593
▁ਸੰਚਾਰਿਤ	-8594
▁ਹਜ਼ਾਰਾਂ	-8595
ਹੈ	-8596
end	-8597
▁way	-8598
▁Comp	-8599
▁ਦਰੱਖ	-8600
▁ਬਾਲਾ	-8601
▁ਸਾਗਰ	-8602
▁ਖਿੱਚੀ	-8603
▁ਚੌਕਸੀ	-8604
▁ਝੁੱਗੀ	-8605
▁ਗ੍ਰਾਹਕ	-8606
▁ਦੇਵਾਂਗੇ	-8607
▁ਪੰਚਨਾਮਾ	-8608
▁ਰਾਜਿੰਦਰ	-8609
▁ਸਵੀਕਾਰਯੋਗ	-8610
ਚੁਅਲ	-8611
▁iii	-8612
▁ਉਤਪ	-8613
▁ਫੜਨ	-8614
▁ਸੰਧ	-8615
▁ਅਥਾਹ	-8616
▁ਗੁਲਾ	-8617
▁ਮਹਿਲ	-8618
▁India	-8619
▁ਮੁਕੁਲ	-8620
▁ਇਕਜੁੱਟ	-8621
▁ਵਧਾਉਂਦੇ	-8622
▁ਵਿਗਿਆਨੀਆਂ	-8623
ice	-8624
ਨੋਟ	-8625
ਰਾਓ	-8626
ਾਵਤ	-8627
ੈਂਚ	-8628
ੰਗੇ	-8629
ਗ੍ਰੈ	-8630
▁ਆਕਸ	-8631
▁ਮਨਾਂ	-8632
▁ਵਿਕਾ	-8633
▁ਪਾਂਡੇ	-8634
▁ਪਰਮਾਣੂ	-8635
▁ਮਾਈਨਜ਼	-8636
▁ਸੂਚਕਾਂ	-8637
▁methods	-8638
▁are	-8639
▁ਨਰੇ	-8640
▁port	-8641
▁ਅਣਗੌ	-8642
▁ਸਹਿਜ	-8643
▁ਸੀਬੀ	-8644
ਕ੍ਰੈਲੀ	-8645
ਨਿਰਮਾਣ	-8646
▁ਸੁਮੇਲ	-8647
▁ਕਰੈਡਿਟ	-8648
▁ਮੁਲਾਜ਼	-8649
▁ਲੱਭਤਾਂ	-8650
▁ਵਿਵਾਦਤ	-8651
▁ਗਤੀਸ਼ੀਲ	-8652
▁ਧਮਾਕਿਆਂ	-8653
▁ਪੁੱਤਰਾਂ	-8654
▁ਰਾਸ਼ਟਰਮੰਡਲ	-8655
ix	-8656
ਸਹਿ	-8657
osed	-8658
ਲਾਸ਼	-8659
▁ਸਟੈ	-8660
velop	-8661
ਵਾਸਤਵ	-8662
▁ਐਕਸਡ	-8663
▁ਬੈਲਟ	-8664
▁ਲੰਮੀ	-8665
▁ਸਲੂਕ	-8666
ਵੇਨਾਈਲ	-8667
▁ਪੋਲਟਰੀ	-8668
▁ਬਦਲਵੇਂ	-8669
▁ਮਿਲਾਵਟ	-8670
▁ਕੇਂਦਰਿਤ	-8671
▁ਰਾਜੇਂਦਰ	-8672
▁ਵਿਗਿਆਨੀ	-8673
▁ਦਰਸਾਉਂਦਿਆਂ	-8674
ੱਮ	-8675
ੰਕਾ	-8676
ਿੱਥੇ	-8677
ੈਕਚਰ	-8678
ਿਸਤਾਨ	-8679
▁.....	-8680
▁house	-8681
▁ਉਸਾਰੂ	-8682
▁ਪਾਟਿਲ	-8683
▁ਸ਼ੰਕੇ	-8684
▁ਕੈਲੰਡਰ	-8685
▁ਟੈਸਟਿੰਗ	-8686
▁ਪਾਠਕ੍ਰਮ	-8687
▁ਪੈਨਸ਼ਨਰੀ	-8688
▁ਅਪ੍ਰਵਾਨਿਤ	-8689
▁ਸੰਵਿਧਾਨਿਕ	-8690
ਨੇਜ	-8691
▁ਰੱ	-8692
ੰਪਿੰਗ	-8693
▁ਆਸ਼ਾ	-8694
▁ਟਿਸ਼	-8695
▁ਰੋਹਤ	-8696
▁ਐਕਸ਼ਨ	-8697
▁ਦੇਸਾਈ	-8698
ਰੈਗੂਲੇਸ਼ਨ	-8699
ਸਟੀਆਂ	-8700
▁ਧੱਫੜ	-8701
▁ਫੈਲਣ	-8702
▁ਸ਼ੋਅ	-8703
▁ਐਡਜੁਡੀ	-8704
▁ਦੇਹਾਂਤ	-8705
▁ਮੌਰਗਿਜ	-8706
▁ਲਿਖਤਾਂ	-8707
▁ਵਾਸੀਆਂ	-8708
▁ਸਬੰਧਿਤ	-8709
▁portion	-8710
▁ਜ਼ਖਮੀਆਂ	-8711
▁ਨੈੱਟਵਰਕ	-8712
▁ਠਹਿਰਾਉਂਦਿਆਂ	-8713
ule	-8714
ਲੀਅਨ	-8715
ਿੱਧੀ	-8716
▁ਅੰਬ	-8717
▁ਦੱਤ	-8718
▁ਸੋਮ	-8719
▁ਇਨਫਰ	-8720
▁ਉੱਚੀ	-8721
▁ਸਰਕਲ	-8722
▁ਪੈਟਰਨ	-8723
▁ਰਾਜਦੂ	-8724
▁ਸਧਾਰਨ	-8725
▁ਹਿੰਮਤ	-8726
▁ਅਗਲੇਰੀ	-8727
▁ਅਸੰਤੁਲ	-8728
▁ਲਾਸ਼ਾਂ	-8729
▁ਆਪਹੁਦਰੇ	-8730
▁ਮਾਸਪੇਸ਼	-8731
▁ਸ਼ਾਸਤਰੀ	-8732
▁ਕੁਨੈਕਸ਼ਨ	-8733
▁.........	-8734
▁ਪ੍ਰੋਟੈਕਸ਼ਨ	-8735
▁ਵਿਨਾਸ਼ਕਾਰੀ	-8736
▁ਕਾਰਜਪ੍ਰਣਾਲੀ	-8737
ient	-8738
ਸੈਨੀ	-8739
▁ਭਗਤ	-8740
ਮੁਕਤੀ	-8741
▁ਅਮਲੇ	-8742
▁ਖ਼ਾਨ	-8743
▁ਟਾਪੂ	-8744
ਵੀਜ਼ਨਲ	-8745
▁ਦਰਸ਼ਕ	-8746
▁ਬੇਦਖਲ	-8747
▁ਮਹੇਸ਼	-8748
▁ਸਮਾਰਕ	-8749
▁ਸੁਭਾਵ	-8750
▁ਐਲਾਨਿਆ	-8751
▁ਘਟਾਉਣਾ	-8752
▁ਰੋਹਤਗੀ	-8753
ਐਂ	-8754
ਪੀਪੀ	-8755
▁ਛਾਪ	-8756
▁ਨਿਹ	-8757
▁ਹੈਂ	-8758
▁ਡਾਂਸ	-8759
ਕਾਰੀਆਂ	-8760
▁ਕੈਂਸਰ	-8761
▁ਪਿੱਛਾ	-8762
▁ਫੈਲਾਉਣ	-8763
▁ਵਿਚੋਲੇ	-8764
ine	-8765
ਤਾਪ	-8766
ਥਨੀ	-8767
ਹਾਈ	-8768
▁ਪਵਨ	-8769
ਪੂਰਬੀ	-8770
▁ਅਗਾਮੀ	-8771
▁ਕਮਾਂਡ	-8772
▁ਤਾਰਾਂ	-8773
▁ਆਈਲੈਂਡ	-8774
▁ਜਾਗਰੂਕ	-8775
▁ਬਣਾਏਗੀ	-8776
▁ਪ੍ਰਫੁੱਲ	-8777
▁ਮੁਅੱਤਲੀ	-8778
ਈਐਫ	-8779
▁ਪਦ	-8780
ੌਲਿਆ	-8781
▁pre	-8782
ਨੈਤਿਕ	-8783
ਸੰਭਾਲ	-8784
ਹੋਤਰਾ	-8785
▁ਆਰਬੀ	-8786
▁ਐਸਐਚ	-8787
▁ਚਲਿਆ	-8788
▁ਮਾਪੇ	-8789
▁ਲੇਬਲ	-8790
ਨਿਯਮਾਂ	-8791
▁ਅਣਗਿਣਤ	-8792
▁ਕਬਜ਼ਿਆਂ	-8793
▁ਅਨਿੱਖੜਵਾਂ	-8794
▁ਇਲੈਕਟ੍ਰਿਕ	-8795
▁ਯੂਨੀਵਰਸਟੀਆਂ	-8796
▁ਰਾਧਾਕ੍ਰਿਸ਼ਨਨ	-8797
▁ਫਤ	-8798
▁ਇਸਮ	-8799
▁ਚਲੀ	-8800
▁ਜੌਨ	-8801
▁ਆਯੁਰ	-8802
▁ਇੰਦਰ	-8803
ਮੌਜੂਦਾ	-8804
▁ਚੌਦਾਂ	-8805
▁ਸੋਚਦਾ	-8806
▁ਇਕਮਾਤਰ	-8807
▁ਜੁਆਇੰਟ	-8808
▁ਪ੍ਰਵਿਰ	-8809
▁ਛੱਤੀਸਗੜ	-8810
▁ਜੁਵੇਨਾਈਲ	-8811
२३	-8812
ਫਿ	-8813
ਅਤੀ	-8814
ਸਕੋ	-8815
▁ch	-8816
▁ਖੱ	-8817
▁ਜਸ	-8818
▁pow	-8819
ਸਾਬਕਾ	-8820
▁ਜੋਸ਼	-8821
ਬੂਲੈਂਸ	-8822
▁ਪੈਂਦੇ	-8823
▁ਰਾਈਟਸ	-8824
▁ਕ੍ਰਿਸਟਲ	-8825
▁ਸੰਮੇਲਨਾਂ	-8826
▁ਪ੍ਰਸਤਾਵਨਾ	-8827
ੈਂਟਲ	-8828
▁ਕੋਣ	-8829
ਕਰੀਆਂ	-8830
▁ਆਤਮਾ	-8831
▁ਕਲਿੱਕ	-8832
▁ਪੁੱਛਣ	-8833
▁ਰੱਖਣੀ	-8834
▁ਸੰਜੀਵ	-8835
▁ਡਿਮਾਂਡ	-8836
▁ਪੈਟਰੋਲ	-8837
▁ਅਣਗੌਲਿਆ	-8838
▁ਨਾਗਰਿਕਤਾ	-8839
▁ਕਾਰਜਕੁਸ਼ਲਤਾ	-8840
▁]	-8841
all	-8842
ਵਾਜ	-8843
▁ਬੁਕ	-8844
▁ਸਹੁ	-8845
▁ਜਰਨਲ	-8846
▁ਬਿਤਾ	-8847
▁ਉੱਠਦੇ	-8848
▁ਮਾਸਿਕ	-8849
▁ਮੁਕਦਮਾ	-8850
▁ਇਬਰਾਹਿਮ	-8851
▁ਨੌਕਰੀਆਂ	-8852
▁ਪਰਿਭਾਸ਼ਾਵਾਂ	-8853
ust	-8854
ਲੋਕ	-8855
ਵਸਤੂ	-8856
ਹਾਨੀ	-8857
▁ਅਸੰ	-8858
▁ਮੀਲ	-8859
▁ਵਰਕਰ	-8860
▁ਇਸਲਾਮ	-8861
▁ਪ੍ਰਬਲ	-8862
▁ਆਕਰਸ਼ਕ	-8863
▁ਤਿਵਾੜੀ	-8864
▁ਅਦਾਇਗੀਆਂ	-8865
▁ਐਂਬੂਲੈਂਸ	-8866
▁ਡਿਪਾਜ਼ਿਟ	-8867
▁ਮੁਕੱਦਮੇਬਾਜ਼ਾਂ	-8868
ੋਂਗ	-8869
ਰੇਟਰ	-8870
▁ਘੁਟ	-8871
▁ਲਚਕ	-8872
▁ਫਾਸਟ	-8873
▁ਸਵਰਗੀ	-8874
▁ਸ਼ਰਾਰ	-8875
▁ਅਸੁਵਿਧਾ	-8876
▁ਕੁੱਟਮਾਰ	-8877
▁ਅਨੁਮਾਨਾਂ	-8878
▁ਜ਼ਿਮੀਂਦਾਰਾਂ	-8879
ੰਜ	-8880
ਹਿਬ	-8881
▁ਨਾਂ	-8882
▁ਪੰਪ	-8883
▁ਰੂਸ	-8884
▁ਆਟੋਮ	-8885
▁ਚਲਦੇ	-8886
▁ਬੈਠਾ	-8887
▁ਸੀਟੀ	-8888
overed	-8889
▁ਤੋੜਿਆ	-8890
▁ਸ਼ਾਂਤ	-8891
▁ਐਡੀਸ਼ਨ	-8892
▁ਪ੍ਰਚਲਤ	-8893
▁ਐਨਡੀਐਮਸੀ	-8894
ਬੇਨ	-8895
▁ਨਲ	-8896
▁ਫਸ	-8897
ਗਰਦੀ	-8898
▁ਰੂਟ	-8899
▁ਕੇਸ਼	-8900
▁ਦਾਗ਼	-8901
▁ਨਿਧੀ	-8902
▁ਰੋਹਿ	-8903
▁ਲੁੱਟ	-8904
▁ਸਪੇਸ	-8905
ਧਾਰਕਾਂ	-8906
▁ਇਕੱਲਾ	-8907
▁ਸਨਅਤੀ	-8908
▁ਸੰਮਿਲ	-8909
▁ਐਮਬੀਬੀਐਸ	-8910
if	-8911
▁ਘੋ	-8912
omen	-8913
▁ਆਇਲ	-8914
▁ਉਡਾ	-8915
ਲਾਈਜ਼	-8916
ਵਸਨੀਕ	-8917
▁prov	-8918
▁ਘੁੱਟ	-8919
▁ਲੋਇਆ	-8920
lement	-8921
▁ਏਐਸਆਈ	-8922
▁ਇਸਮਾਈਲ	-8923
▁ਤੋਹਫ਼ੇ	-8924
▁ਸਭਿਅਤਾ	-8925
▁ਹੱਡੀਆਂ	-8926
▁ਪ੍ਰਤਿਮਾ	-8927
▁ਮਿਸ਼ਰਿਤ	-8928
▁ਸੁਣਦਿਆਂ	-8929
▁ਐਲਾਨਨਾਮੇ	-8930
ਪਲੇ	-8931
▁pr	-8932
▁ਜੌ	-8933
▁ਆਦਤ	-8934
▁ਲੀਨ	-8935
▁ਹੇਮ	-8936
▁ਆਈਆਈ	-8937
▁ਕਿੱਲ	-8938
▁ਤਰਜ਼	-8939
▁ਹਿੰਦੁ	-8940
▁ਕੈਲਾਸ਼	-8941
▁ਕਮਿਸ਼ਨਰਾਂ	-8942
]]	-8943
ਉੱ	-8944
ਗੇਨ	-8945
▁it	-8946
ਟਰੈਕਟ	-8947
▁ਅੰਗੂ	-8948
▁ਕਮਰਾ	-8949
▁ਅਪਲਾਈ	-8950
▁ਚੇਤਨਾ	-8951
▁ਜੋੜਦਾ	-8952
▁ਬਹਾਨੇ	-8953
▁ਅਕੈਡਮੀ	-8954
▁ਆਯੁਰਵੈ	-8955
▁ਭੰਡਾਰਾਂ	-8956
▁ਹਾਦਸਿਆਂ	-8957
▁ਪਹੁੰਚਯੋਗ	-8958
:0	-8959
ਅਣ	-8960
ਗਵਰ	-8961
ਆਈਵੀ	-8962
ਚੀਆਂ	-8963
ਪੀਆਰ	-8964
ਵੀਨਿ	-8965
▁ਬਾਸ	-8966
ਨਸਪਤੀ	-8967
ਸੰਦੇਹ	-8968
▁ਸਕੈਨ	-8969
ਜ਼ਰੂਰੀ	-8970
▁ਕੀਟਨਾ	-8971
▁ਤਾਲੁਕ	-8972
▁ਫਰਾਂਸ	-8973
▁ਫੈਲਿਆ	-8974
▁ਆਰਟੀਆਈ	-8975
▁ਬੇਅਰਿੰਗ	-8976
▁ਮੁਸ਼ਕਿਲ	-8977
▁ਪਰਿਵਰਤਨਸ਼ੀਲ	-8978
▁y	-8979
ਵਿਅ	-8980
▁ਲੈਟਰ	-8981
▁ਵਧਦਾ	-8982
▁ਸੈੰਕ	-8983
▁ਇੰਸਟਰ	-8984
▁ਜੀਵਿਤ	-8985
▁ਵਧਾਉਂਦੀ	-8986
▁ਸਤਿਕਾਰਯੋਗ	-8987
▁ਸੇਵਾਮੁਕਤੀ	-8988
ਐਮਪੀ	-8989
ਹਕਾਂ	-8990
ਾਇਦਾ	-8991
▁ਡੀਏ	-8992
▁ਮਿਰ	-8993
▁ਮੁਤ	-8994
ਜ਼ਟਰੀ	-8995
ਮਿਸ਼ਨ	-8996
▁ਤਲਾਸ਼	-8997
▁ਧਰਮਾਂ	-8998
▁ਪੁਲਾੜ	-8999
▁ਲਕਸ਼ਮ	-9000
▁ਨਜ਼ਦੀਕ	-9001
▁ਅਸਮਾਨਤਾ	-9002
▁ਓਪਰੇਟਿੰਗ	-9003
▁ਨੋਟੀਫਾਈਡ	-9004
▁ਪ੍ਰਬੰਧਿਤ	-9005
▁ਗੈਰਕਾਨੂੰਨੀਤਾ	-9006
ਉਹ	-9007
ਐੱਚ	-9008
ਨਿੱ	-9009
ਪੋਰ	-9010
ਵਿਟ	-9011
ਅਤਾਂ	-9012
ਦੇਖੋ	-9013
ਵਾੜਾ	-9014
ਫਤਾਰੀ	-9015
▁ਉਤਰਨ	-9016
▁ਦਿਆਲ	-9017
▁ਗਣੇਸ਼	-9018
▁ਗੁੰਡਾ	-9019
▁ਸੋਸ਼ਲ	-9020
▁ਕਿਨਾਰੇ	-9021
▁ਜਿਹੀਆਂ	-9022
▁ਨਵਿਆਉਣ	-9023
▁ਰਿਆਇਤੀ	-9024
▁ਡਿਪਲੋਮਾ	-9025
▁ਵਿਚਾਰਨਾ	-9026
▁ਬੈਂਗਲੁਰੂ	-9027
▁ਕਨਵੋਕੇਸ਼ਨ	-9028
▁ਗਤੀਸ਼ੀਲਤਾ	-9029
ਛੇ	-9030
ਮਈ	-9031
oul	-9032
ਵਧੂ	-9033
ਐਮਐਲ	-9034
ਕੁੱਲ	-9035
▁ਇਜ਼	-9036
▁ਗੰਗ	-9037
▁ਨਾਇ	-9038
ਾਲੈਂਡ	-9039
▁ਅਣਸੁ	-9040
▁ਇਸਲਈ	-9041
▁ਲਾਈਵ	-9042
▁ਅਲਟਰਾ	-9043
▁ਖਦਸ਼ਾ	-9044
▁ਟੈਗੋਰ	-9045
ਨਿਰਧਾਰਤ	-9046
▁ਫਾਈਲਾਂ	-9047
▁ਯੰਤਰਾਂ	-9048
▁ਲੇਖਕਾਂ	-9049
▁ਪੀੜ੍ਹੀਆਂ	-9050
IV	-9051
ffic	-9052
▁ਗਲਪ	-9053
▁ਵਕਤ	-9054
▁ਆਈਸੀ	-9055
▁ਐਮਵੀ	-9056
▁ਕਸੂਰ	-9057
▁ਕਾਰੀ	-9058
▁ਖਿਆਲ	-9059
▁ਵਰਲਡ	-9060
▁ਜਿਥੋਂ	-9061
▁ਯੂਐਸਏ	-9062
▁ਅੰਸਾਰੀ	-9063
▁ਗੱਡੀਆਂ	-9064
ਲੋਕਾਯੁਕਤ	-9065
▁covered	-9066
▁ਆਰਡੀਐਕਸ	-9067
▁ਸੈੰਕਚੂਰੀ	-9068
▁ਸਸ਼ਕਤੀਕਰਨ	-9069
ਮਹ	-9070
lud	-9071
ਫਰੀ	-9072
ਕਾਂਤ	-9073
▁ਨੱਥ	-9074
▁ਏਓਆਰ	-9075
▁ਕਪੜੇ	-9076
▁ਚਾਰੇ	-9077
▁ਬ੍ਰੋ	-9078
▁ਮਜਬੂਤ	-9079
▁ਮੋਹਰੀ	-9080
▁ਸੁੱਟਣ	-9081
▁ਪੀਰੀਅਡ	-9082
▁ਪ੍ਰੇਰਕ	-9083
▁ਫਿਲਹਾਲ	-9084
▁ਬੁਕਿੰਗ	-9085
ਕਾਨੂੰਨਾਂ	-9086
▁ਰਾਈਫਲਾਂ	-9087
▁ਸੁੰਦਰਤਾ	-9088
▁ਨਿਰਦੋਸ਼ਤਾ	-9089
ੁਕੀ	-9090
▁ਫਟ	-9091
▁ਲਾਰ	-9092
▁ਕਟਾਈ	-9093
▁ਗਾਇਬ	-9094
▁ਨੇਵੀ	-9095
▁ਭੁਲੇ	-9096
▁ਖਜ਼ਾਨੇ	-9097
▁ਪਾਸਿਓਂ	-9098
▁ਵਿਅੰਗਾ	-9099
▁ਮੁਲਾਂਕਣਾਂ	-9100
ਕਿਨ	-9101
ਪੰਚ	-9102
ੂਅਲ	-9103
▁ਪਠ	-9104
ਖਾਨਾ	-9105
ਿਤਸਕ	-9106
▁ਚਿੱਟੇ	-9107
▁ਵੇਖਦਾ	-9108
▁ਕਰਾਉਣਾ	-9109
▁ਚਲਾਈਆਂ	-9110
▁ਛੁਟਕਾਰ	-9111
▁ਟੈਕਨਾਲੌਜੀ	-9112
ਟਿ	-9113
ਦਤ	-9114
ਛੂਤ	-9115
▁ਰਘ	-9116
ਅੰਤਰ	-9117
ਸ਼ਬਦ	-9118
▁ਜਣੇ	-9119
ਖੂੰਹਦ	-9120
▁ਆਡੀਓ	-9121
▁ਨਿੱਘ	-9122
▁ਵਧਦੀ	-9123
▁ਸ਼ਿਪ	-9124
▁ਕਰਤੱਵ	-9125
▁ਨਾਮਵਰ	-9126
▁ਨੁਸਖ਼	-9127
▁ਬਿਪਤਾ	-9128
▁ਸਿੰਡੀ	-9129
▁ਕਲੀਨਿਕ	-9130
▁ਬੇਵਕੂਫ	-9131
▁ਹਰਕਤਾਂ	-9132
▁ਮਲਹੋਤਰਾ	-9133
▁ਆਗਿਆਕਾਰੀ	-9134
▁ਨਿਰਸੰਦੇਹ	-9135
▁ਛੱਤੀਸਗੜ੍ਹ	-9136
ਕਚ	-9137
▁ਅਠ	-9138
ਗਾਰਾ	-9139
ਗੰਕਸ	-9140
▁ਈਸਟ	-9141
▁ਐਫੀ	-9142
▁ਗਰਾ	-9143
▁ਟੂਲ	-9144
▁ਥਰਮ	-9145
▁ਸਿਮ	-9146
▁ਖਸਰਾ	-9147
▁ਬੁਝਾ	-9148
▁ਬੈਲੇ	-9149
▁ਸੇਂਟ	-9150
▁ਮਰਦਾਂ	-9151
▁ਇੰਸਟਰੂ	-9152
▁ਲਾਰਡਸ਼ਿਪਸ	-9153
▁ਵਿਅੰਗਾਤਮਕ	-9154
VII	-9155
ੰਗੀ	-9156
▁ਬੜ	-9157
ਡੀਟੀ	-9158
ਪਲਜ਼	-9159
▁ਪੈਰੋ	-9160
▁ਵਰਕਸ	-9161
▁ਓਵਰਲੈ	-9162
▁ਡੀਏਸੀ	-9163
▁ਡੂੰਘਾ	-9164
▁ਥੀਏਟਰ	-9165
▁ਬਦਲਦੇ	-9166
▁ਲੈਣਗੇ	-9167
▁ਸਕੇਗਾ	-9168
▁ਜ਼ਹਿਰੀ	-9169
▁ਨਾਰਿਅਲ	-9170
▁ਬਨਸਪਤੀ	-9171
▁ਛੁੱਟੀਆਂ	-9172
▁ਸੁਨਹਿਰੀ	-9173
▁ਸੈਸ਼ਨਾਂ	-9174
▁ਅਜ਼ਮਾਇਸ਼	-9175
▁ਉਤਪਾਦਕਾਂ	-9176
▁ਗ੍ਰਾਹਕਾਂ	-9177
▁ਪੁਰਾਣੀਆਂ	-9178
▁interview	-9179
ਲੱਬ	-9180
ੌਦਾ	-9181
▁fe	-9182
▁ਟੌ	-9183
ਆਰਬੀ	-9184
ਡੈਂਸ	-9185
ਹਾਟੀ	-9186
▁ਅਰੋ	-9187
▁ਗੁੜ	-9188
▁ਵਹਾ	-9189
▁ਕੀੜੇ	-9190
▁ਨਹਿਰ	-9191
▁ਮਾਨਕ	-9192
ਰਜਿਸਟਰ	-9193
▁ਜ਼ਿਲਾ	-9194
▁ਡੀਪੀਸੀ	-9195
▁ਨੌਕਰਾਂ	-9196
▁ਮਹਿਮਾਨ	-9197
▁ਮੁਖੀਆਂ	-9198
▁ਮਹਾਰਾਜਾ	-9199
▁ਅਗਾਂਹਵਧੂ	-9200
▁ਉੱਤਰਦਾਇਕ	-9201
▁ਮਿਹਨਤਾਨਾ	-9202
▁ਅਸਾਈਨਮੈਂਟ	-9203
▁ਇਨਫਰਮੇਸ਼ਨ	-9204
################	-9205
▁000	-9206
▁ਕਿਫ	-9207
▁ਬਣੋ	-9208
▁ਵੇਜ	-9209
emale	-9210
▁ਅਵਿਵ	-9211
▁ਮਾਰੇ	-9212
▁ਸਫ਼ਾ	-9213
▁ਖਾਂਦੀ	-9214
▁ਜੋਸ਼ੀ	-9215
▁ਅਪੀਲਕਰ	-9216
▁ਡਰੱਗਜ਼	-9217
▁ਰਿਸ਼ਤਾ	-9218
▁ਸਦੱਸਤਾ	-9219
▁ਵਿੱਦਿਅਕ	-9220
▁ਪ੍ਰਤੀਬੱਧ	-9221
▁ਪ੍ਰਾਰਥਨਾਵਾਂ	-9222
ਡਿਓ	-9223
ਲੀਟ	-9224
ਵਿਚ	-9225
ਸਮਾ	-9226
ਕੋਸ਼	-9227
ਸ਼ੀਅਨ	-9228
▁ਰਖਾਵ	-9229
▁ਕਲਾਇੰਟ	-9230
▁ਘਿਨਾਉਣ	-9231
▁ਜ਼ਬਾਨੀ	-9232
▁ਮਿਲਾਉਣ	-9233
▁ਰੈਵੀਨਿ	-9234
▁ਸਮਝਦਾਰ	-9235
▁ਸੁਧਾਰੀ	-9236
▁counter	-9237
▁ਗਰੈਚੁਟੀ	-9238
▁Community	-9239
ਲਗ	-9240
ਸ਼ੀਆ	-9241
▁ਬੇਅ	-9242
▁ਮੀਨ	-9243
ਂਸਪੈਲ	-9244
ਪੜਤਾਲ	-9245
▁ਬਲਾਂ	-9246
▁ਕੈਂਪਸ	-9247
▁ਸਦੀਆਂ	-9248
ਗਵਰਨੈਂਸ	-9249
ਜ਼ੀਲੈਂਡ	-9250
▁ਆਦਮੀਆਂ	-9251
▁ਕਿਫਾਇਤੀ	-9252
▁ਮੁਹਾਵਰੇ	-9253
▁ਪ੍ਰਸਿੱਧੀ	-9254
▁ਐਡਜੁਡੀਕੇਟਿੰਗ	-9255
ਪੰਜ	-9256
ਮੁਖ	-9257
ਕੇਅਰ	-9258
ਪ੍ਰੋ	-9259
ਸਟੇਟ	-9260
ਾਹੁਣ	-9261
ੋਕੋਲ	-9262
▁ਜਲਣ	-9263
▁ਮੈਥ	-9264
ਕਸ਼ਾਡ	-9265
▁ਯੋਨੀ	-9266
▁ਲੱਛਣ	-9267
▁ਵੇਚੇ	-9268
▁ਹਫਤੇ	-9269
▁ਅਸਥਾਨ	-9270
▁ਕੱਲ੍ਹ	-9271
▁ਵਰਤਣਾ	-9272
▁ਤਰਕਹੀਣ	-9273
▁ਮਜਬੂਰੀ	-9274
▁ਸਿਰਜਣਾਤਮਕ	-9275
▁ਹਿੰਦੁਸਤਾਨ	-9276
lt	-9277
ਈਦ	-9278
)&#	-9279
ures	-9280
ਅਰਜ਼	-9281
ਬੀਟੀ	-9282
▁ਉਨੀ	-9283
▁ਤਾਰ	-9284
ਪਰੋਸੀ	-9285
▁ਅਸਲਾ	-9286
▁ਆਰਆਈ	-9287
▁ਤਾਲਕ	-9288
▁ਭੁੱਖ	-9289
▁ਐਕਸਗੰਕਸ	-9290
▁ਕੁਆਲਿਟੀ	-9291
▁ਪੱਟੇਦਾਰ	-9292
▁ਰਿਵਾਜਾਂ	-9293
▁ਫਾਇਦੇਮੰਦ	-9294
▁ਭਾਗੀਦਾਰਾਂ	-9295
▁ਆਧੁਨਿਕੀਕਰਨ	-9296
ha	-9297
ਪੱਕ	-9298
▁ca	-9299
▁ਸਿਗ	-9300
uthor	-9301
▁ਅਮਲੀ	-9302
▁ਨੱਬੇ	-9303
▁ਉੱਦਮੀ	-9304
▁ਸਪੁਰਦ	-9305
▁ਕ੍ਰਾਈਮ	-9306
▁ਤੰਬਾਕੂ	-9307
▁ਪਰਦੇਸੀ	-9308
▁ਪ੍ਰਿਵੀ	-9309
▁ਸੰਸਥਾਨ	-9310
▁ਹਾਈਡ੍ਰੋ	-9311
▁ਭਾਈਵਾਲਾਂ	-9312
▁ਅਕਾਉਂਟੈਂਟ	-9313
▁ਸਮਰੱਥਾਵਾਂ	-9314
ਐਕਸਐਕਸਐਕਸਐਕਸ	-9315
..............	-9316
,&	-9317
ਨੀਤ	-9318
ਪੀਓ	-9319
ਨਾਈਟ	-9320
ਬ੍ਰਿ	-9321
▁ਜ਼ੀ	-9322
▁ਮਧੂ	-9323
▁ਇਤਫਾ	-9324
▁ਥ੍ਰੈ	-9325
▁ਭਾੜੇ	-9326
▁ਮੇਜਰ	-9327
▁ਸਟੇਅ	-9328
▁ਕਬੀਲੇ	-9329
▁ਕਾਮਰਸ	-9330
▁ਵੈਂਚਰ	-9331
▁ਟਰਮੀਨਲ	-9332
▁ਬਦਨਾਮੀ	-9333
▁ਬੰਨ੍ਹੇ	-9334
▁ਅਹੁਦੇਦਾਰ	-9335
▁ਨਾਮਨਜ਼ੂਰ	-9336
▁ਵਿਰੋਧਤਾਈ	-9337
ose	-9338
ਤੀਆ	-9339
ਰਿਹ	-9340
ਅਨਾਂ	-9341
▁ਖੜੀ	-9342
▁ਨਕਦੀ	-9343
ਵਿਅਕਤੀ	-9344
ਾਲਾਵਾਂ	-9345
▁ਗਰਿੱਡ	-9346
▁ਰਿਹਾਅ	-9347
▁ਲੱਗਦੇ	-9348
▁ਕੁੱਟਿਆ	-9349
▁ਭੇਜੀਆਂ	-9350
▁primary	-9351
▁ਬੰਦਰਗਾਹਾਂ	-9352
▁ਵਿਸ਼ਵਾਸਾਂ	-9353
ਯਨ	-9354
ਬਹੁ	-9355
▁ਇਮ	-9356
ਜ਼ਨਸ	-9357
ਲੀਆਈ	-9358
▁ਨਮੀ	-9359
▁ਰੱਬ	-9360
ਰਿਹਾਇ	-9361
▁ਡੈਮੋ	-9362
▁ਤਜਵੀ	-9363
▁ਪਬਲੀ	-9364
▁ਯੂਟੀ	-9365
▁ਸੋਧੀ	-9366
ਯੂਨੀਅਨ	-9367
▁ਉਦਾਰੀ	-9368
▁ਗੁੱਸੇ	-9369
▁ਚੱਲਿਆ	-9370
▁ਬਿਜਾਈ	-9371
▁ਜਾਇਜ਼ਾ	-9372
▁ਬਾਹਰੋਂ	-9373
▁ਨਾਗਾਲੈਂਡ	-9374
ਾਵੀ	-9375
▁ਨੱਕ	-9376
ਡੀਸ਼ਾ	-9377
▁ਇਕੱਲ	-9378
▁ਮਹਾਰ	-9379
▁ਸ਼ਰੀ	-9380
mitted	-9381
▁ਜ਼ਹਿਰ	-9382
▁ਤਿਹਾਈ	-9383
▁ਚਾਹਵਾਨ	-9384
▁ਲੈਣਦੇਣ	-9385
▁ਸੰਸਕਾਰ	-9386
▁ਡੀਡਬਲਯੂ	-9387
▁ਅਣਮਨੁੱਖੀ	-9388
▁ਗੋਲੀਬਾਰੀ	-9389
▁ਪ੍ਰਮੋਟਰਾਂ	-9390
ਚਕ	-9391
▁ਫੁੱ	-9392
▁ਜਰਮਨ	-9393
▁ਟਰੇਡ	-9394
▁ਮੀਂਹ	-9395
▁ਲੈਕਚ	-9396
▁ਉਪਰਲੇ	-9397
▁ਵਧੀਆਂ	-9398
▁ਸਰਦਾਰ	-9399
▁ਆਈਸੀਟੀ	-9400
▁ਪੀਪਲਜ਼	-9401
▁ਬੇਲੋੜੇ	-9402
ਰਿਹਾਇਸ਼ੀ	-9403
▁ਗਵਾਹੀਆਂ	-9404
▁ਛੁਟਕਾਰੇ	-9405
▁ਪੈਦਾਵਾਰ	-9406
▁ਹੱਦਬੰਦੀ	-9407
▁suitable	-9408
ਥਮ	-9409
ਮੁੱ	-9410
ੜਨਾ	-9411
ਡਿਆਂ	-9412
ਲਿਤਾ	-9413
▁ਟਿਪ	-9414
▁ਪੁੰ	-9415
▁ਕੈਪੀ	-9416
▁ਸੱਚਾ	-9417
ਮੇਵਾਰੀ	-9418
▁ਬੁਲੇਟ	-9419
▁ਮੋਸ਼ਨ	-9420
▁ਗੁਹਾਟੀ	-9421
▁ਪ੍ਰਤਾਪ	-9422
▁ਪੰਛੀਆਂ	-9423
ਲੀਮੈਂਟਰੀ	-9424
▁mechanism	-9425
▁ਸਵੀਕਾਰਦਿਆਂ	-9426
२४	-9427
ਏਏ	-9428
ence	-9429
ount	-9430
ਫੇਅਰ	-9431
▁ਆਉਟ	-9432
eview	-9433
ਨਿੱਜੀ	-9434
ਮਾਨਤੀ	-9435
▁ਟੀਵੀ	-9436
▁ਡੈਲੀ	-9437
▁ਨੋਟਸ	-9438
▁ਪਿਛਾ	-9439
▁ਬੰਧਨ	-9440
ੁਰੱਖਿਆ	-9441
▁ਮਾਨਕੀ	-9442
▁ਐਗਰੀਕਲ	-9443
▁ਸਮਝਾਉਣ	-9444
▁ਚਿਕਿਤਸਕ	-9445
▁ਦਰਵਾਜ਼ਾ	-9446
▁ਵਰ੍ਹੇਗੰ	-9447
▁ਬਿਨੈਪੱਤਰ	-9448
▁ਰਿਫਾਇਨਰੀ	-9449
ਖਾਸ	-9450
ਗੀਰ	-9451
ਮਰਨ	-9452
ੰਕਰ	-9453
wood	-9454
ਆਰਟਰ	-9455
▁ਜੈਸ	-9456
▁ਦਾਰ	-9457
▁ਵਰਕ	-9458
ਤੀਸ਼ੀ	-9459
ਨਲੈਂਡ	-9460
ਵਿੱਤੀ	-9461
▁ਅਸਗਰ	-9462
▁ਸਵੇਰ	-9463
▁ਉਭਰਦਾ	-9464
▁ਕੌਮਾਂ	-9465
▁ਹਿੰਸਕ	-9466
▁ਸਥਾਪਤੀ	-9467
▁ਅਰਥਚਾਰੇ	-9468
▁ਓਪਰੇਸ਼ਨ	-9469
▁ਰਣਨੀਤੀਆਂ	-9470
▁ਮੁਕਾਬਲੇਬਾਜ਼ੀ	-9471
ਇਡ	-9472
.&#	-9473
ਬਰਟ	-9474
▁ਉੱਨਤ	-9475
▁ਕਾਰਟ	-9476
▁ਗੰਨੇ	-9477
▁ਚਰਬੀ	-9478
▁ਪੱਟਾ	-9479
▁ਫ੍ਰੀ	-9480
ਨਿਯਮਿਤ	-9481
▁ਐਨਪੀਏ	-9482
▁ਗ਼ਲਤੀ	-9483
▁ਫਿਰਕੂ	-9484
▁ਲਿਮਿਟ	-9485
▁ਸੰਵੇਦ	-9486
▁provis	-9487
▁ਮਿਟਾਉਣ	-9488
▁ਮੈਂਬਰੀ	-9489
▁ਸੁਣੀਆਂ	-9490
▁ਅਪਵਾਦਾਂ	-9491
▁ਪ੍ਰਮਾਣਾਂ	-9492
ਜੈ	-9493
▁,,	-9494
ਖਮਾਂ	-9495
ਬੈਂਕ	-9496
ਹਿਰਦ	-9497
▁ਕੇਨ	-9498
▁ਕੋਇ	-9499
▁ਡਬਲ	-9500
▁ਮਾਫ	-9501
ਜੱਜਾਂ	-9502
▁ਕੈਨੇ	-9503
▁ਨਸ਼ਾ	-9504
▁ਨਿਮਰ	-9505
▁ਮੈਟਰ	-9506
ਅੰਤਿਕਾ	-9507
▁ਪੱਛੜੇ	-9508
▁ਸ਼ਰਧਾਂ	-9509
▁ਸਾਈਟਾਂ	-9510
▁ਸੁਰੇਂਦਰ	-9511
▁ਇਲੈਕਟ੍ਰੀ	-9512
et	-9513
art	-9514
ਏਐਲ	-9515
ਨਰੀ	-9516
ਰੂਮ	-9517
ਲੇਸ	-9518
▁ਛੁ	-9519
ਖੇਤੀ	-9520
ਜ਼ੀਰ	-9521
▁ਕਤਾਰ	-9522
▁ਚੁਣੀ	-9523
▁ਦਿਲੀ	-9524
▁ਜੁਬਲੀ	-9525
▁ਜ਼ਿੰਦਾ	-9526
▁ਸੁਹਿਰਦ	-9527
▁ਲੈਕਚਰਾਰ	-9528
ef	-9529
ੱਝ	-9530
▁ਫੁ	-9531
▁ਨਸੀ	-9532
▁ਕਲੇਮ	-9533
▁ਪੱਛਮ	-9534
▁ਪਾਇਲਟ	-9535
▁ਵੱਕਾਰ	-9536
▁ਸੇਫਟੀ	-9537
▁ਇਜ਼ਰਾਈ	-9538
▁ਇੰਡੈਕਸ	-9539
▁ਕਾਰੀਗਰ	-9540
▁ਥ੍ਰੈਸ਼	-9541
▁ਬਾਲਗਾਂ	-9542
▁ਮੈਡੀਸਨ	-9543
▁ਸੀਵੀਸੀ	-9544
▁ਖੁਸ਼ਹਾਲ	-9545
▁ਮਸ਼ੀਨਾਂ	-9546
▁ਕਰਵਾਉਂਦਾ	-9547
▁ਲੈਬਾਰਟਰੀ	-9548
▁ਪ੍ਰਭਾਵਸ਼ੀਲਤਾ	-9549
▁transportation	-9550
ਲੀਫ	-9551
ਵਚਨ	-9552
▁.,	-9553
vent	-9554
ਨਾਮੀ	-9555
▁ਏਵੀ	-9556
▁ਐਮਏ	-9557
▁ਬੋਸ	-9558
▁ਮਾਡ	-9559
▁ਥੋੜੀ	-9560
▁ਮਨੋਜ	-9561
ਹੁਸੈਨੀ	-9562
▁ਭਵਾਨੀ	-9563
ਵਟਾਂਦਰਾ	-9564
ਗ੍ਰੈਜੂਏਟ	-9565
▁ਆਕਸਫੋਰਡ	-9566
▁ਪਹਾੜੀਆਂ	-9567
▁ਸੰਕਟਕਾਲ	-9568
▁ਪ੍ਰਵਿਰਤੀ	-9569
▁ਕਿੱਤਾਮੁਖੀ	-9570
▁ਗੁੰਡਾਗਰਦੀ	-9571
▁ਨਵੀਨਤਾਵਾਂ	-9572
▁ਗਜ	-9573
ਸਿੰਘ	-9574
▁ਜਾਓ	-9575
▁ਸੱਜ	-9576
▁ਸ਼ਫੀ	-9577
ission	-9578
▁ਆਰੰਭੀ	-9579
▁ਆਵੇਦਨ	-9580
▁ਡਿਸਪੋ	-9581
▁ਸ਼ੈਡਿ	-9582
▁ਸਪੋਰਟਸ	-9583
▁ਇੰਡਸਟਰੀ	-9584
▁ਖੜ੍ਹੀਆਂ	-9585
▁ਟ੍ਰੇਡਮਾਰਕ	-9586
▁ਪ੍ਰੋਟੋਕੋਲ	-9587
▁ਕੀਟਨਾਸ਼ਕਾਂ	-9588
ਆਨ	-9589
ਫੇਸ	-9590
ਜਾਇਬ	-9591
ਜੀਤੀ	-9592
ਵਜੋਂ	-9593
▁ਸ੍ਰ	-9594
ਸ਼੍ਰੀ	-9595
ਸੂਚਿਤ	-9596
▁ਗੋਲਡ	-9597
▁ਡੀਵੀ	-9598
ਹਿਰੀਆਂ	-9599
▁ਗਣਰਾਜ	-9600
▁ਜਰਮਨੀ	-9601
▁ਜਾਨਾਂ	-9602
▁ਜਿੰਦਾ	-9603
▁ਲਵੇਗਾ	-9604
▁ਪ੍ਰੀਵੀ	-9605
▁ਭਿੰਨਤਾ	-9606
▁ਪੂੰਜੀਗਤ	-9607
▁ਫਾਇਦਿਆਂ	-9608
▁ਆਸਟਰੇਲੀਆਈ	-9609
ਜਲ	-9610
ਚੋਣ	-9611
ਜਸਟ	-9612
ੇਰੀ	-9613
▁ਕੋਟ	-9614
▁ਮੀਟ	-9615
▁ਵਹੀ	-9616
ਰਾਈਜ਼	-9617
ੱਤੀਆਂ	-9618
▁ਤੋੜਨ	-9619
▁ਨਸਲੀ	-9620
▁ਬਣਤਰ	-9621
▁ਸੂਤੀ	-9622
ਰਿਪੋਰਟ	-9623
▁ਅਸਥਿਰ	-9624
▁ਜਾਣਨਾ	-9625
▁ਲਿਖਣਾ	-9626
mission	-9627
ੋਗ੍ਰਾਫੀ	-9628
▁female	-9629
▁ਇਨਸਾਫ਼	-9630
▁ਵਰਕਰਾਂ	-9631
▁ਵਹਿਸ਼ੀ	-9632
▁ਸ਼ਿਰਕਤ	-9633
▁ਕਾਲਜੀਅਮ	-9634
▁ਕਮਰਸ਼ੀਅਲ	-9635
▁ਪ੍ਰਯੋਗਸ਼ਾਲਾਵਾਂ	-9636
ਡਕ	-9637
ਉਕਿ	-9638
ਉਣੀ	-9639
ਆਰਡੀ	-9640
ਾਜ਼ੀ	-9641
▁dis	-9642
▁“..	-9643
▁ਪੀਐਚ	-9644
▁ਭਾਸ਼	-9645
▁ਅਜਾਇਬ	-9646
▁ਭਗਵਤੀ	-9647
▁ਹੱਦਾਂ	-9648
▁ਖਾਮੀਆਂ	-9649
▁ਰਾਜਦੂਤ	-9650
▁ਸੰਚਾਲਕ	-9651
▁ਐਨਆਈਓਐਸ	-9652
▁ਜੇਲ੍ਹਾਂ	-9653
velopment	-9654
▁ਅਸਵੀਕਾਰਨ	-9655
▁ਦੁਹਰਾਉਂਦੇ	-9656
ue	-9657
ਟੀਅਮ	-9658
ਬਾਜ਼	-9659
▁ਜੇਠ	-9660
▁ਟੈਨ	-9661
▁ਤੀਰ	-9662
▁ਬੇਵ	-9663
▁ਹਫਤ	-9664
round	-9665
੍ਹਵੀਂ	-9666
▁ਈਮੇਲ	-9667
▁ਦੇਖਣ	-9668
▁ਸ਼ੈਲ	-9669
▁ਅਫਗਾਨ	-9670
▁ਪਹਿਚਾ	-9671
▁ਭੁਗਤਣ	-9672
▁ਸਜਾਵਟ	-9673
▁ਹਰਾਉਣ	-9674
▁ਹੱਕਾਂ	-9675
▁ਜੋਖਮਾਂ	-9676
▁ਰੈਗੂਲਰ	-9677
▁ਸੌਂਪਣਾ	-9678
▁ਹਫਤਿਆਂ	-9679
▁ਅਸਮਰੱਥਾ	-9680
▁ਅੰਡਰਲਾਈ	-9681
▁ਸੂਚਕਾਂਕ	-9682
▁ਪ੍ਰੌਸੀਕਿ	-9683
ਜੁਨ	-9684
ਬੂਝ	-9685
ਲਾਅ	-9686
▁ਖੂ	-9687
▁ਚਲਣ	-9688
▁ਡੀਨ	-9689
ਤਰਿਆਂ	-9690
▁ਘਰੋਂ	-9691
▁ਹਵਾਬ	-9692
▁ਕਿਉਕਿ	-9693
▁ਐਮਓਈਐਫ	-9694
▁ਬਚਾਉਣਾ	-9695
▁ਸਵੱਛਤਾ	-9696
▁ਹਲਕਿਆਂ	-9697
▁ਵਿਸ਼ਾਲਤਾ	-9698
▁ਕਾਨਫਰੰਸਿੰਗ	-9699
ਚਿਨ	-9700
▁ab	-9701
▁ਯੋ	-9702
▁ਕੌਲ	-9703
▁ਜਲਦ	-9704
▁ਧਮਕ	-9705
▁ਫਾਲ	-9706
▁ਚੀਨੀ	-9707
▁ਬਚਪਨ	-9708
▁ਲਿਜਾ	-9709
▁ਕਲਪਿਤ	-9710
▁ਕਾਰਬਨ	-9711
▁ਬਲਾਸਟ	-9712
▁ਉਪਰਾਲੇ	-9713
▁ਨਵੀਨਤਮ	-9714
▁ਸਿਖਿਆਰ	-9715
ਮੁਲਜ਼ਮਾਂ	-9716
▁ਤਜਵੀਜ਼ਾਂ	-9717
▁ਸਿੰਡੀਕੇਟ	-9718
▁ਹਵਾਬਾਜ਼ੀ	-9719
▁ਮੁਲਾਕਾਤਾਂ	-9720
ਚੌ	-9721
ੈਬ	-9722
ਲਾਗ	-9723
ਿਤਾ	-9724
▁ਨਨ	-9725
▁ਓਰੀ	-9726
▁ਨਸਲ	-9727
▁ਵ੍ਹ	-9728
ਜ਼ਮੀਨ	-9729
ਡੇਵਿਟ	-9730
ਤਵੱਲੀ	-9731
▁ਕਿਰਨ	-9732
▁ਬਾਨੀ	-9733
▁ਲਾਂਚ	-9734
▁ਵਹਾਅ	-9735
ਂਡੇਸ਼ਨ	-9736
▁ਇਨਕਲਾ	-9737
▁ਭੈਣਾਂ	-9738
ਆਪਰੇਟਿਵ	-9739
▁ਅਗਲੀਆਂ	-9740
▁ਫੰਡਿੰਗ	-9741
▁ਬੰਨ੍ਹਣ	-9742
▁ਗੁਣਾਤਮਕ	-9743
▁ਟੈਕਸਯੋਗ	-9744
▁ਪਾਰਕਿੰਗ	-9745
▁ਰਚਨਾਤਮਕ	-9746
▁ਰੂਪਾਂਤਰ	-9747
ਕਾਰਪੋਰੇਸ਼ਨ	-9748
▁ਅਸਮਾਨਤਾਵਾਂ	-9749
ਉਤ	-9750
ਉਦ	-9751
ਉਰ	-9752
uty	-9753
ਬਾਗ	-9754
ighb	-9755
ਨਲੋਡ	-9756
ਮਿੰਗ	-9757
▁rec	-9758
▁ਮੋਨ	-9759
▁ਵੋਲ	-9760
▁ਐਗਰੋ	-9761
▁ਛਾਉਣ	-9762
▁ਬੂਟੇ	-9763
▁ਖੋਪੜੀ	-9764
▁ਗੜਬੜੀ	-9765
▁ਬ੍ਰਹਮ	-9766
▁ਵਿਆਜ਼	-9767
▁ਸਮਾਰਟ	-9768
▁ਸ਼ਾਸਕ	-9769
▁ਸੰਕੇਤਕ	-9770
▁ਚਲਾਉਂਦਾ	-9771
▁ਡੀਬੈਂਚਰ	-9772
▁ਬਿਲਡਰਾਂ	-9773
▁ਐਂਟਰਪ੍ਰਾਈਜ਼	-9774
orm	-9775
▁ਦੌੜ	-9776
ਪ੍ਰਦਰ	-9777
▁ਆਈਐਫ	-9778
▁ਫਲਾਂ	-9779
ਸ਼ਾਸਤਰ	-9780
▁ਗੋਦਾਮ	-9781
▁ਮਸਾਲੇ	-9782
▁ਮੌਤਾਂ	-9783
▁neighb	-9784
▁ਸੈਂਟਰਾਂ	-9785
▁ਐਫੀਡੇਵਿਟ	-9786
▁ਜਮਹੂਰੀਅਤ	-9787
▁ਰਿਸ਼ਵਤਖੋਰੀ	-9788
▁ਸੁਬਰਾਮਨੀਅਮ	-9789
ੱਠ	-9790
ime	-9791
ਸੰਗ	-9792
▁ਉਮ	-9793
ਪਾਸੜ	-9794
ਹੋਲਡ	-9795
▁ਇੰਦ	-9796
▁ਈਕੋ	-9797
ਤਵਾਰੀ	-9798
ਥਾਵਾਂ	-9799
ਫਾਰਮਰ	-9800
੍ਰਿਕਸ	-9801
▁ਐਲਜੀ	-9802
▁ਬਰਬਾਦ	-9803
▁ਬੇਅੰਤ	-9804
▁ਮੰਦਭਾ	-9805
▁ਬੈਨਰਜੀ	-9806
▁ਮਲਟੀਪਲ	-9807
▁ਮਾਡਲਾਂ	-9808
▁ਸੀਲਬੰਦ	-9809
▁ਅੰਡੇਮਾਨ	-9810
▁ਵਪਾਰੀਆਂ	-9811
▁ਅੰਡਰਲਾਈੰਗ	-9812
VI	-9813
uc	-9814
ord	-9815
ਕੁਝ	-9816
ਟਿਵ	-9817
ਮਾਈ	-9818
ਲਾਇ	-9819
▁ਆਉ	-9820
▁ਕੈਥ	-9821
ution	-9822
ਵਪਾਰਕ	-9823
▁ਐਮਟੀ	-9824
▁ਥੋੜਾ	-9825
▁ਮੋਦੀ	-9826
▁ਸ਼ਿਲ	-9827
ਕੇਸ਼ਨਲ	-9828
▁ਮਾਰਕਸ	-9829
▁ਗੱਠਜੋੜ	-9830
▁ਪਾਂਡਿਆ	-9831
▁ਮੰਦਰਾਂ	-9832
▁ਦਰਸ਼ਕਾਂ	-9833
▁ਨਾਮਾਂਕਣ	-9834
▁ਰੁਝੇਵਿਆਂ	-9835
rit	-9836
ਗਾਮ	-9837
ਹੋਰ	-9838
▁ਜਬਰ	-9839
▁ਸਪਾ	-9840
▁case	-9841
▁ਨੀਲੇ	-9842
▁ਐਨਐਸਈ	-9843
▁ਗਹਿਣੇ	-9844
▁ਡਰਾਇੰਗ	-9845
▁ਸੀਆਈਡੀ	-9846
▁ਗਵਰਨਿੰਗ	-9847
▁ਫਾਇਰਿੰਗ	-9848
▁ਵਿਚਾਰਦੇ	-9849
ਗਨੀ	-9850
ਯਾਨ	-9851
ਕ੍ਰਿ	-9852
ਵਿੱਤ	-9853
▁ਦੋਨ	-9854
ੈਂਸ਼ਨ	-9855
▁ਬੋਨਸ	-9856
▁ਸਵਰਗ	-9857
ਜਾਇਦਾਦ	-9858
▁ਪਟਾਕੇ	-9859
▁ਪਾਰਸਲ	-9860
ਸ਼ੁਮਾਰੀ	-9861
▁ਇਕਪਾਸੜ	-9862
▁ਦੁਰਾਡੇ	-9863
▁ਪਹਿਚਾਣ	-9864
▁ਭੱਤਿਆਂ	-9865
▁ਪੱਛੜੀਆਂ	-9866
▁ਮੇਜ਼ਬਾਨੀ	-9867
AC	-9868
ig	-9869
ਰੋਕ	-9870
ਲੇਜ	-9871
▁ਉਭ	-9872
▁ਛੱ	-9873
ਥਾਰਥ	-9874
ੈਸਟੀ	-9875
▁ਉਪਾ	-9876
▁ਕੁੱ	-9877
▁ਮੱਲ	-9878
▁ਅਜੀਤ	-9879
▁ਅਨੰਤ	-9880
▁ਐਚਐਸ	-9881
▁	-9882
ਾ	-9883
ਰ	-9884
ੀ	-9885
ਸ	-9886
ਿ	-9887
ਦ	-9888
ਕ	-9889
ੇ	-9890
ਤ	-9891
ਨ	-9892
ਹ	-9893
ਂ	-9894
ਲ	-9895
ਵ	-9896
ਜ	-9897
ਪ	-9898
ਮ	-9899
ਅ	-9900
ੰ	-9901
ਆ	-9902
ੋ	-9903
ੱ	-9904
਼	-9905
ੈ	-9906
ਇ	-9907
ਗ	-9908
ੂ	-9909
ੁ	-9910
ਚ	-9911
ਬ	-9912
ਟ	-9913
.	-9914
,	-9915
ਣ	-9916
ਈ	-9917
ਧ	-9918
ਉ	-9919
੍	-9920
ਖ	-9921
०	-9922
ਡ	-9923
ਭ	-9924
ਫ	-9925
;	-9926
ਏ	-9927
१	-9928
ਐ	-9929
ਥ	-9930
&	-9931
)	-9932
ਯ	-9933
#	-9934
-	-9935
(	-9936
।	-9937
ੌ	-9938
२	-9939
ੜ	-9940
ਘ	-9941
ਝ	-9942
३	-9943
ਠ	-9944
i	-9945
ਛ	-9946
e	-9947
:	-9948
t	-9949
/	-9950
0	-9951
a	-9952
o	-9953
४	-9954
r	-9955
n	-9956
u	-9957
ਓ	-9958
५	-9959
s	-9960
l	-9961
d	-9962
|	-9963
]	-9964
c	-9965
“	-9966
६	-9967
[	-9968
I	-9969
m	-9970
p	-9971
७	-9972
q	-9973
h	-9974
f	-9975
v	-9976
y	-9977
८	-9978
%	-9979
w	-9980
g	-9981
?	-9982
x	-9983
९	-9984
b	-9985
‘	-9986
A	-9987
C	-9988
S	-9989
k	-9990
V	-9991
’	-9992
E	-9993
