<unk>	0
<s>	0
</s>	0
UuRrLl	0
DdAaTtEe	0
NnUuMm	0
்க	-0
்த	-1
்ப	-2
ம்	-3
ன்	-4
ல்	-5
்ட	-6
க்க	-7
த்த	-8
▁ம	-9
ப்ப	-10
▁க	-11
▁ப	-12
▁வ	-13
▁அ	-14
ும்	-15
ட்ட	-16
து	-17
தி	-18
▁ச	-19
ரு	-20
ள்	-21
ிய	-22
▁ந	-23
▁இ	-24
ந்த	-25
ர்	-26
▁த	-27
ைய	-28
ின்	-29
ற்	-30
ில்	-31
▁எ	-32
ற்ற	-33
ங்க	-34
ாக	-35
▁உ	-36
டு	-37
ிற	-38
ான	-39
ன்ற	-40
ரி	-41
க்கு	-42
ண்ட	-43
ப்பட்ட	-44
▁ஆ	-45
ுற	-46
▁வி	-47
▁ஒ	-48
ார	-49
கள	-50
டி	-51
▁மு	-52
▁மற்ற	-53
▁செ	-54
ள்ள	-55
ில	-56
▁மற்றும்	-57
ல்ல	-58
ுவ	-59
ர்க	-60
வு	-61
்ச	-62
ால்	-63
▁செய	-64
▁ஒரு	-65
ிர	-66
மை	-67
ிக்க	-68
ற்க	-69
கள்	-70
று	-71
▁அவ	-72
க்	-73
ப்பு	-74
▁(	-75
ீதி	-76
ப்பட	-77
ார்	-78
▁வழ	-79
▁மே	-80
▁இந்த	-81
த்து	-82
ங்கள	-83
ாள	-84
த்தின்	-85
லை	-86
ம்ப	-87
ன்ப	-88
ப்	-89
▁வே	-90
▁கு	-91
▁என்ற	-92
ட்டு	-93
மன்ற	-94
▁அல்ல	-95
வி	-96
ாய	-97
ருந்த	-98
▁நீதி	-99
ர்ப	-100
▁தொ	-101
ங்கள்	-102
த்தில்	-103
▁கொ	-104
தற்க	-105
மான	-106
▁அல்லது	-107
▁சட்ட	-108
த்தை	-109
▁குற	-110
▁பொ	-111
▁தி	-112
னை	-113
டுத்த	-114
முற	-115
▁மா	-116
ுக்கு	-117
ுள்ள	-118
த்	-119
ையில்	-120
ர்கள	-121
திய	-122
ஸ்	-123
ிற்க	-124
▁செய்	-125
ண்	-126
ச்ச	-127
ிப்ப	-128
▁தே	-129
ருக்க	-130
ிறது	-131
▁ஏ	-132
களை	-133
றி	-134
ிட	-135
▁பி	-136
ாவ	-137
▁பெ	-138
ால	-139
ாத	-140
▁வேண்ட	-141
▁கூ	-142
ரச	-143
டிய	-144
ழ்	-145
கு	-146
▁நீதிமன்ற	-147
▁அதி	-148
வை	-149
ையும்	-150
ாட்ட	-151
சி	-152
ர்கள்	-153
▁செய்ய	-154
ின	-155
▁அரச	-156
ர்ப்ப	-157
ரை	-158
வே	-159
▁நட	-160
ளி	-161
▁உள்ள	-162
வில்	-163
▁வெ	-164
▁வழங்க	-165
▁போ	-166
மாக	-167
ாது	-168
தை	-169
▁என்று	-170
ழு	-171
ையை	-172
▁நி	-173
னு	-174
▁என்ப	-175
▁எந்த	-176
▁அதிக	-177
த்திற்க	-178
க்கப்பட்ட	-179
ண்டு	-180
ீட்ட	-181
▁தீ	-182
ணை	-183
▁மூ	-184
▁தொட	-185
▁நிற	-186
ொரு	-187
ட்ச	-188
▁இது	-189
தன்	-190
ிருந்த	-191
ப்படு	-192
▁பதி	-193
கிறது	-194
டன்	-195
▁கீ	-196
ரா	-197
▁ஜ	-198
வா	-199
▁குற்ற	-200
▁வேண்டும்	-201
பி	-202
ற்ப	-203
▁பிர	-204
▁நா	-205
ச்	-206
ல்முற	-207
▁விதி	-208
ுக்க	-209
வும்	-210
நில	-211
▁கரு	-212
ன்ன	-213
ிட்ட	-214
▁கீழ்	-215
ளை	-216
ல்முறைய	-217
தல்	-218
வர்	-219
ட்	-220
▁நில	-221
லா	-222
தாக	-223
▁மேல்முறைய	-224
▁வா	-225
▁பு	-226
ந்து	-227
்த்த	-228
▁-	-229
▁சு	-230
வொரு	-231
▁சம	-232
▁குறிப்ப	-233
ரிய	-234
▁மேல	-235
னர்	-236
▁பய	-237
ன்று	-238
▁உய	-239
த்திற்கு	-240
ிக	-241
மைய	-242
▁இருந்த	-243
டை	-244
வர	-245
மா	-246
ர்வ	-247
▁&	-248
▁ஆக	-249
▁திரு	-250
ாரண	-251
▁பிரி	-252
▁ர	-253
வில்லை	-254
களின்	-255
▁பொரு	-256
டைய	-257
ங்களை	-258
ுத்த	-259
▁து	-260
▁வர	-261
்கள்	-262
தற்கு	-263
▁இல்ல	-264
▁அவர்	-265
ுள்ளது	-266
▁தன	-267
▁உரி	-268
ீட்டாள	-269
▁சே	-270
த்தக	-271
▁இருக்க	-272
▁உத்த	-273
▁மீ	-274
▁நிறுவ	-275
டிக்க	-276
▁எதி	-277
▁சி	-278
▁எந்தவொரு	-279
▁இன்	-280
▁மூல	-281
▁முடிய	-282
▁உயர்	-283
▁அறி	-284
ரிக்க	-285
▁கா	-286
களில்	-287
ப்பட்டது	-288
▁செய்த	-289
▁அதிகார	-290
▁கொண்ட	-291
▁பின்	-292
தற்கான	-293
ருப்ப	-294
▁உத்தர	-295
ட்ப	-296
▁இந்திய	-297
▁மேலும்	-298
▁தா	-299
ித்த	-300
தே	-301
▁தீர்ப்ப	-302
ருக்கு	-303
ய்	-304
▁/	-305
▁கோ	-306
த்திய	-307
சிய	-308
▁நீதிமன்றம்	-309
ot	-310
▁என	-311
qu	-312
▁அனு	-313
quot	-314
ிருந்து	-315
முறை	-316
▁செயல	-317
ோத	-318
கா	-319
▁தெ	-320
ப்படும்	-321
▁அடி	-322
ங்கு	-323
▁தொடர்ப	-324
▁வெள	-325
▁மாநில	-326
ப்படுத்த	-327
▁சொ	-328
ாடு	-329
▁சா	-330
▁வழக்க	-331
▁அந்த	-332
ண்ண	-333
தார	-334
▁மேல்முறையீட்டாள	-335
ோது	-336
▁சட்டத்தின்	-337
▁முடி	-338
ளித்த	-339
▁முற	-340
ிலும்	-341
ையின்	-342
▁நோ	-343
க்கிய	-344
▁நிறுவன	-345
▁கே	-346
▁கட்ட	-347
▁விச	-348
▁பரி	-349
க்கும்	-350
▁இர	-351
▁வரு	-352
வாக	-353
வ்	-354
▁மூலம்	-355
..	-356
▁வழக்கு	-357
ுக	-358
றிய	-359
▁பதில	-360
▁அரசிய	-361
த்தி	-362
▁அடிப்பட	-363
▁ஐ	-364
ின்ற	-365
▁தொழ	-366
த்தகைய	-367
தில்	-368
ான்	-369
பதி	-370
▁உறு	-371
ேர	-372
ாம	-373
▁வை	-374
▁அமை	-375
களுக்கு	-376
ட்சி	-377
லி	-378
னால்	-379
ரின்	-380
லாம்	-381
ாரி	-382
▁செல	-383
▁நிய	-384
ீடு	-385
ோச	-386
்கள	-387
▁பிற	-388
▁முன்	-389
▁பயன்ப	-390
மதி	-391
த்துவ	-392
▁பிரிவு	-393
▁அதன்	-394
▁இய	-395
மே	-396
▁என்பது	-397
▁மேற்க	-398
நீதி	-399
விய	-400
▁சிற	-401
▁உண்	-402
▁ஆகிய	-403
▁இல்	-404
▁அத்தகைய	-405
ுடன்	-406
▁பொது	-407
தல	-408
க்கூ	-409
ராக	-410
ர்களின்	-411
ாய்	-412
▁ஊ	-413
▁கால	-414
நீதிமன்ற	-415
▁அற	-416
▁திட்ட	-417
வடிக்க	-418
▁அள	-419
▁நடவடிக்க	-420
▁பகு	-421
▁நப	-422
▁ய	-423
ஞ்ச	-424
▁உரிமை	-425
▁ஆம்	-426
▁கட	-427
▁பார	-428
▁தவ	-429
▁காரண	-430
▁குற்றம்	-431
ணி	-432
ிக்கப்பட்ட	-433
ிலிருந்து	-434
▁தேதிய	-435
▁இட	-436
ப்படுகிறது	-437
▁நோக்க	-438
ாட்டு	-439
▁நீ	-440
▁இல்லை	-441
▁மதி	-442
ாதி	-443
▁பதிலளித்த	-444
▁தலை	-445
ழை	-446
▁எண்	-447
ாட்டப்பட்ட	-448
▁அரசியல	-449
▁செயல்ப	-450
த்தால்	-451
▁முன்ன	-452
▁ட	-453
ற்று	-454
▁அது	-455
▁பல	-456
▁அனை	-457
▁செய்யப்பட்ட	-458
▁சந்த	-459
▁ஏற்ப	-460
ர்க்க	-461
▁அம	-462
ிருக்க	-463
▁அரசியலமை	-464
னி	-465
கை	-466
▁நடவடிக்கை	-467
▁நடை	-468
டுத்து	-469
▁முதல்	-470
ர்த்த	-471
ள்க	-472
▁சட்டம்	-473
▁நேர	-474
▁ஆண்ட	-475
▁பாது	-476
ங்களில்	-477
▁ஆனால்	-478
வற்ற	-479
மும்	-480
ின்றன	-481
ாவது	-482
▁உயர்நீதிமன்ற	-483
▁சாட்டப்பட்ட	-484
▁வெளிய	-485
▁குறை	-486
▁சூ	-487
▁குறிப்பிட	-488
▁பாதுகா	-489
▁முடியாது	-490
▁மட்டு	-491
▁என்பதை	-492
▁பயன்படுத்த	-493
க்கள	-494
▁கூற	-495
ாங்க	-496
▁எஸ்	-497
கிற	-498
▁அறிக்க	-499
▁ஜன	-500
▁ஒப்ப	-501
வன	-502
ர்களுக்கு	-503
▁தனது	-504
ீட்டு	-505
▁தேதியிட்ட	-506
ோம்	-507
▁மனு	-508
▁தர	-509
▁கட்டு	-510
▁செய்வ	-511
▁அத	-512
▁தாக்க	-513
▁மாற்ற	-514
▁.	-515
▁பதிவு	-516
ரே	-517
▁|	-518
▁கண	-519
▁இருப்ப	-520
ாலும்	-521
▁அனுமதி	-522
▁மறு	-523
▁பெற	-524
மையான	-525
▁அன்று	-526
▁மதிப்ப	-527
▁உரு	-528
▁அடிப்படையில்	-529
▁டி	-530
.0	-531
▁&#	-532
ைக்	-533
▁கற்ற	-534
▁சமர்ப்ப	-535
ங்களுக்கு	-536
ங்களின்	-537
ையான	-538
▁அரசாங்க	-539
றிந்த	-540
▁அரசு	-541
ிப்பு	-542
▁தண்ட	-543
றை	-544
ஸ்த	-545
▁ஒப்பந்த	-546
▁வேண்டிய	-547
▁ஆல	-548
ிரி	-549
▁கைய	-550
▁மிக	-551
▁நம்ப	-552
▁முடிவு	-553
▁விஷ	-554
▁உட	-555
ஸ்ட	-556
வின்	-557
▁சில	-558
ப்பின	-559
தால்	-560
▁வேறு	-561
▁பண	-562
ர்ச்ச	-563
▁பொறு	-564
வர்கள்	-565
▁அவர்கள்	-566
செ	-567
▁ஈ	-568
▁நாங்கள்	-569
▁ஆண்டு	-570
ிக்கும்	-571
்ப்ப	-572
▁துணை	-573
▁ஹ	-574
▁அவர	-575
▁விள	-576
்க்க	-577
ிற்கு	-578
▁அனைத்து	-579
▁எழு	-580
ார்கள்	-581
ப்படுவ	-582
▁நிர	-583
▁நீதிபதி	-584
▁விஷய	-585
கி	-586
▁செலுத்த	-587
டுவ	-588
▁அறிவி	-589
▁எனவே	-590
்களை	-591
▁ஆத	-592
தற்காக	-593
க்கள்	-594
▁தாக்கல்	-595
▁உட்ப	-596
&#	-597
ுறை	-598
▁என்றும்	-599
போ	-600
ையாக	-601
▁போது	-602
▁கொள்க	-603
▁முக்கிய	-604
▁தொழில	-605
▁ஆலோச	-606
▁அவரது	-607
▁உருவா	-608
▁பின்னர்	-609
ாரணை	-610
ந்திர	-611
ட்டிய	-612
▁உத்தரவு	-613
ாளர்	-614
▁குழ	-615
படி	-616
ாமல்	-617
லிய	-618
▁விசாரணை	-619
▁பற்ற	-620
▁மட்டுமே	-621
ரும்ப	-622
▁வள	-623
▁நீதிமன்றத்தின்	-624
▁திற	-625
ொள்ள	-626
ப்படவில்லை	-627
▁பே	-628
▁[	-629
▁தக	-630
▁நிர்வ	-631
ஷ்	-632
வான	-633
▁கொள்ள	-634
ண்ணப்ப	-635
ட்சிய	-636
ப்பின்	-637
▁ல	-638
மையை	-639
▁ஆர	-640
▁இரண்டு	-641
▁சம்ப	-642
▁கற்றறிந்த	-643
▁தன்	-644
▁விண்ணப்ப	-645
▁உள்ளது	-646
▁நிறை	-647
தா	-648
ாவின்	-649
▁தீர்	-650
▁இற	-651
டுக்க	-652
▁தெளி	-653
▁“	-654
▁வரை	-655
ரண	-656
கார	-657
▁கேள்	-658
▁இருக்கும்	-659
▁ஓ	-660
▁வரி	-661
▁ஒப்பு	-662
மு	-663
யூ	-664
▁வழக்கில்	-665
▁கவன	-666
▁மன	-667
தும்	-668
▁நிலை	-669
நிலை	-670
லக	-671
▁ஆண	-672
▁வார	-673
▁ரா	-674
ர்களை	-675
ங்கி	-676
▁ரூ	-677
கின்றன	-678
சு	-679
▁வெளி	-680
▁வழங்கப்பட்ட	-681
▁இருந்து	-682
ஜி	-683
மி	-684
க்கான	-685
▁படி	-686
ுக்கும்	-687
▁முழு	-688
எஸ்	-689
▁அதிகாரி	-690
▁உத	-691
▁விளை	-692
ெரிக்க	-693
ழிய	-694
ழி	-695
டும்	-696
▁நியம	-697
ட்டி	-698
ூக	-699
▁பிரதி	-700
க்கூடிய	-701
▁கட்சி	-702
ஆர்	-703
▁தய	-704
தற்கும்	-705
▁அமெரிக்க	-706
▁நியாய	-707
▁மத்திய	-708
ங்	-709
▁போன்ற	-710
▁தகு	-711
▁எதிராக	-712
ுவதற்கான	-713
▁காண	-714
ண்டும்	-715
த்திர	-716
▁நிறைவே	-717
வோ	-718
பிள்	-719
ப்பை	-720
▁உறுதி	-721
ரான	-722
▁வெளிப்ப	-723
▁குறிப்பிட்ட	-724
▁முதல	-725
ர்ந்த	-726
ரும்	-727
▁ஆகியவற்ற	-728
▁உண்மை	-729
▁"	-730
விட்ட	-731
ுறுத்த	-732
ித்து	-733
▁கொண்டு	-734
க்கி	-735
....	-736
▁தகவ	-737
ென	-738
▁ஆண்டின்	-739
▁நான்	-740
▁பெற்ற	-741
கர்	-742
க்கம்	-743
ப்பட்டுள்ள	-744
▁தெரி	-745
▁என்ன	-746
ுடைய	-747
ம்போது	-748
▁சமூக	-749
▁தற்ப	-750
▁மொ	-751
ாம்	-752
▁இணை	-753
▁நிர்வாக	-754
▁பரிந்து	-755
பிள்யூ	-756
▁இரு	-757
வெ	-758
▁கருத	-759
▁அதே	-760
▁கேள்வி	-761
வரை	-762
த்தையும்	-763
ரீ	-764
ரோ	-765
ேன்	-766
▁விவ	-767
▁வந்த	-768
ுவது	-769
ஃப்	-770
▁தோ	-771
▁ஏற்ற	-772
▁உறுப்பின	-773
சீ	-774
தான	-775
▁சேவை	-776
▁ரி	-777
▁பகுதி	-778
ொண்ட	-779
ாகும்	-780
▁நிறைவேற்ற	-781
▁பொருத்த	-782
▁தொடர்பான	-783
▁கூட்ட	-784
▁கை	-785
னிய	-786
▁நடைமுறை	-787
வேறு	-788
▁முய	-789
▁தேவை	-790
மாறு	-791
▁பரிந்துரை	-792
▁பத	-793
▁தேவ	-794
▁அல	-795
ர்த	-796
▁பா	-797
▁கி	-798
▁விதிமுறை	-799
ாதார	-800
ர்வு	-801
▁கருத்தில்	-802
வரும்	-803
▁சூழ்	-804
ினும்	-805
▁மனுதார	-806
▁வழி	-807
ாவில்	-808
▁மரு	-809
கம்	-810
▁ஒது	-811
▁ஆணைய	-812
▁ஸ்	-813
ெட்	-814
ுக்கான	-815
தம்	-816
▁கண்ட	-817
▁அவை	-818
▁பொருள	-819
களையும்	-820
),	-821
▁கல	-822
▁ஒவ்	-823
▁மருத்துவ	-824
லில்	-825
▁பதிலளித்தவர்	-826
▁வக	-827
▁தீர்மான	-828
டபிள்யூ	-829
▁அக	-830
ியது	-831
தேச	-832
▁இழ	-833
▁வரம்ப	-834
பெ	-835
வ்வா	-836
▁ஒழு	-837
▁வாதி	-838
▁என்	-839
ைப்	-840
▁திருத்த	-841
மிட	-842
▁தவிர	-843
▁ஆதார	-844
ியின்	-845
▁தண்டனை	-846
▁ஆதர	-847
ூர்வ	-848
▁தூ	-849
▁ஜனாதி	-850
▁அரசியலமைப்பு	-851
ாளி	-852
ைகள்	-853
ார்ப	-854
▁வச	-855
▁பாதி	-856
▁கருத்து	-857
▁பகுதிய	-858
▁குறித்து	-859
▁கிட	-860
ியில்	-861
▁முறைய	-862
பா	-863
டுப்ப	-864
▁மீண்டும்	-865
▁பெஞ்ச	-866
▁ஒவ்வொரு	-867
னம்	-868
▁அங்க	-869
க்கப்பட	-870
வண	-871
▁அதை	-872
▁ஒன்ற	-873
▁நிக	-874
வரின்	-875
▁சரிய	-876
பு	-877
ள்வ	-878
▁ஏற்றுக்க	-879
ினார்	-880
ைக்கு	-881
▁0	-882
▁அழை	-883
தையும்	-884
மானது	-885
ரால்	-886
▁பொருட	-887
ன்படி	-888
க்குவ	-889
▁விசாரண	-890
வரு	-891
▁தொழில்	-892
ர்ந்து	-893
த்தது	-894
▁முடியும்	-895
ப்பட்டுள்ளது	-896
▁பார்	-897
▁டெ	-898
ய்ய	-899
வர்கள	-900
ுக்காக	-901
ிற்ப	-902
▁பிரச்ச	-903
▁அதிகாரம்	-904
▁பூ	-905
த்திற்காக	-906
▁வது	-907
▁பாதுகாப்பு	-908
னும்	-909
▁தொடர்பாக	-910
ாளர்கள்	-911
வாதி	-912
▁தனி	-913
த்துடன்	-914
▁நக	-915
▁விதிகள்	-916
ிலான	-917
த்துறை	-918
ிரிவு	-919
▁செல்ல	-920
▁அறிவ	-921
▁சக	-922
ூல	-923
▁எங்கள்	-924
ுவதற்கு	-925
களும்	-926
ந்தைய	-927
▁விரும்ப	-928
▁விற்ப	-929
ய்வு	-930
▁புதிய	-931
▁வில	-932
▁மேல்முறையீட்டு	-933
ூறிய	-934
▁கூட	-935
▁பட	-936
ோதைய	-937
ற்சி	-938
▁சீ	-939
▁வரைய	-940
▁மேற்கூறிய	-941
▁மீது	-942
▁தேசிய	-943
▁பல்	-944
ன்றால்	-945
ருக்கும்	-946
▁பர	-947
▁க்கு	-948
▁கல்	-949
▁எடுத்து	-950
▁அதாவது	-951
▁ஆய	-952
தாகவும்	-953
▁தேதி	-954
▁குழு	-955
▁இறந்த	-956
▁ஸ்ரீ	-957
▁நிதி	-958
ோக	-959
விர	-960
வியல்	-961
▁கிடை	-962
▁பொருந்த	-963
▁வருமான	-964
▁துணைப்ப	-965
▁இரண்ட	-966
ேய	-967
▁வேலை	-968
▁A	-969
▁சட்டமன்ற	-970
▁சொத்து	-971
ப்த	-972
▁இறு	-973
எல்	-974
த்துள்ள	-975
▁கிர	-976
▁வாழ	-977
▁உண	-978
▁மேம்ப	-979
டுக்கப்பட்ட	-980
மொ	-981
ப்படி	-982
▁நேரத்தில்	-983
▁மூன்று	-984
ீதிய	-985
ணிக	-986
னார்	-987
▁சம்பந்த	-988
▁இதன்	-989
▁தீர்ப்பு	-990
▁நல	-991
▁கூறி	-992
லும்	-993
▁ஊழிய	-994
▁அடைய	-995
மையில்	-996
ுள்ளன	-997
▁பல்வேறு	-998
▁தற்போதைய	-999
சீல	-1000
போது	-1001
▁அரசியலமைப்பின்	-1002
▁தீர்ப்பாய	-1003
வீ	-1004
▁கூறிய	-1005
▁சூழ்நிலை	-1006
ாய்ப்ப	-1007
ிக்கிறது	-1008
▁அறிக்கை	-1009
▁சார்ப	-1010
்ச்ச	-1011
▁நடு	-1012
▁விடு	-1013
▁ஜனாதிபதி	-1014
▁வணிக	-1015
▁அவசிய	-1016
▁இல	-1017
▁தவற	-1018
▁நெ	-1019
▁தெளிவாக	-1020
வாத	-1021
▁ஏன	-1022
ேக	-1023
ீக	-1024
▁கொள்கை	-1025
▁கடி	-1026
தந்திர	-1027
த்திலும்	-1028
▁'	-1029
▁வடி	-1030
▁நாட	-1031
ேற்ற	-1032
▁மிகவும்	-1033
▁காவ	-1034
ைத்	-1035
▁சிறப்பு	-1036
ாட்டின்	-1037
▁கட்டண	-1038
ியா	-1039
▁பட்டிய	-1040
▁போல	-1041
ூர்	-1042
ிறார்	-1043
டைந்த	-1044
செய்ய	-1045
ல்ப	-1046
▁தயாரி	-1047
▁I	-1048
▁குறிப்பி	-1049
ரல்	-1050
▁இரா	-1051
▁அப்ப	-1052
▁தள்ள	-1053
▁தொடர்புடைய	-1054
▁கூடு	-1055
▁தகுதி	-1056
▁காட்ட	-1057
▁எண்ண	-1058
ப்படுகின்றன	-1059
ங்கிய	-1060
▁கண்டு	-1061
▁உற்ப	-1062
▁சுதந்திர	-1063
க்களை	-1064
▁உரிமைய	-1065
▁உச்ச	-1066
▁எல்ல	-1067
▁லி	-1068
ணய	-1069
▁எவ்வா	-1070
▁உயர்நீதிமன்றம்	-1071
ாளு	-1072
▁அச	-1073
ெனில்	-1074
ப்பில்	-1075
▁குத்தக	-1076
▁பற்றி	-1077
▁ரிட்	-1078
▁பங்கு	-1079
்கு	-1080
ன்மை	-1081
▁ஏற்க	-1082
கோ	-1083
▁பிறகு	-1084
ையா	-1085
▁அவர்களின்	-1086
▁மாத	-1087
▁நீதித்துறை	-1088
▁முந்தைய	-1089
ஷன்	-1090
▁அதற்கு	-1091
▁நாடு	-1092
தாகக்	-1093
▁பொருளாதார	-1094
ிருப்ப	-1095
த்தைப்	-1096
▁வைத்தி	-1097
்களின்	-1098
▁நிர்	-1099
▁குழுவ	-1100
▁அண	-1101
▁அமைச்ச	-1102
ப்பி	-1103
▁தங்கள்	-1104
▁சரியான	-1105
▁யூ	-1106
▁பின்வரு	-1107
▁சம்பந்தப்பட்ட	-1108
க்கப்பட்டது	-1109
▁விரி	-1110
நி	-1111
▁விட	-1112
னித	-1113
▁இருந்தது	-1114
ுவதில்	-1115
▁ஒரே	-1116
ிக்கப்பட	-1117
வரி	-1118
த்தார்	-1119
டாது	-1120
▁மரண	-1121
ரில்	-1122
ோர்	-1123
▁வடிவ	-1124
▁குற்றச்ச	-1125
▁மக்கள	-1126
▁அறிவிப்பு	-1127
▁பெஞ்ச்	-1128
▁இண	-1129
ப்போது	-1130
▁ஒழுங்கு	-1131
ட்டுள்ள	-1132
▁கட்டுப்ப	-1133
களைப்	-1134
▁பெய	-1135
▁ஆவண	-1136
தியின்	-1137
நாய	-1138
பிடி	-1139
▁வருவ	-1140
▁வர்த்த	-1141
▁அரசியல்	-1142
சா	-1143
▁ஜே	-1144
எம்	-1145
ுட்ப	-1146
▁நிறுவனம்	-1147
ாளுமன்ற	-1148
ம்பர்	-1149
▁S	-1150
▁நடுவர்	-1151
▁தடை	-1152
▁துணைப்பிரிவு	-1153
▁ஷ	-1154
▁ராஜ	-1155
▁சிவில்	-1156
▁வய	-1157
ணுவ	-1158
▁நியாயமான	-1159
▁கூறு	-1160
▁தேர்த	-1161
பந்த	-1162
▁என்னவெ	-1163
▁மனுவ	-1164
▁இந்தியா	-1165
ஸ்ப	-1166
▁தலைமை	-1167
ுப	-1168
லின்	-1169
▁பொருள்	-1170
▁வழங்கிய	-1171
▁என்னவென்றால்	-1172
செய	-1173
போன்ற	-1174
▁உள்ளட	-1175
▁அனுமதிக்க	-1176
லைய	-1177
ல்கள்	-1178
முக	-1179
ஸ்ட்	-1180
▁,	-1181
▁உலக	-1182
▁அதில்	-1183
னையை	-1184
▁வீ	-1185
மற்ற	-1186
▁வங்கி	-1187
▁பற்றிய	-1188
ம்ச	-1189
▁வேறுப	-1190
ுத	-1191
▁இத	-1192
▁துறை	-1193
▁எம்	-1194
▁பதவி	-1195
மார்	-1196
களால்	-1197
க்கூடாது	-1198
▁P	-1199
▁அலுவ	-1200
▁உள்ளன	-1201
▁மூத்த	-1202
▁பரிசீல	-1203
▁வலிய	-1204
ியாக	-1205
▁இடைய	-1206
▁அனுப்ப	-1207
ுபடி	-1208
▁கூறப்பட்ட	-1209
▁சிங்	-1210
்களுக்கு	-1211
ii	-1212
▁பயி	-1213
▁பால	-1214
▁நடத்த	-1215
▁செய்யப்பட்டது	-1216
▁விற்பனை	-1217
▁புது	-1218
▁பின்வருமாறு	-1219
▁திரும்ப	-1220
்துறை	-1221
ியை	-1222
ாட்டில்	-1223
▁நிபந்த	-1224
▁அட	-1225
▁வழங்கு	-1226
▁C	-1227
▁குறைந்த	-1228
ல்லி	-1229
▁நிரூ	-1230
ாட்டை	-1231
ிடம்	-1232
▁வாக்கு	-1233
▁குழந்த	-1234
ய்வ	-1235
▁பணி	-1236
வுக்கு	-1237
▁நீதிமன்றத்தால்	-1238
ப்பது	-1239
▁பின்வரும்	-1240
மில்	-1241
▁எது	-1242
வட்ட	-1243
தான்	-1244
ுள்ளார்	-1245
▁நு	-1246
▁தொடர்ந்து	-1247
▁அமைப்பு	-1248
▁சேர்க்க	-1249
▁முன்னர்	-1250
▁காய	-1251
▁பெரிய	-1252
▁அப	-1253
▁தள்ளுபடி	-1254
▁கடு	-1255
▁அடிப்படை	-1256
▁இராணுவ	-1257
▁தொடங்க	-1258
ங்களுக்காக	-1259
த்தல்	-1260
▁கண்டுபிடி	-1261
நுட்ப	-1262
க்காக	-1263
▁குற்றவியல்	-1264
).	-1265
▁கணக்க	-1266
▁காரணமாக	-1267
ல்களை	-1268
▁தொக	-1269
▁நிர்ணய	-1270
▁பங்க	-1271
ிறோம்	-1272
▁முறையில்	-1273
ாள்	-1274
▁இல்லாத	-1275
▁சொந்த	-1276
▁மோச	-1277
கிறார்	-1278
▁குடிய	-1279
▁அடையாள	-1280
ஷ்ட	-1281
மிருந்து	-1282
▁முறை	-1283
சை	-1284
▁சாட்சி	-1285
மையாக	-1286
▁நிகழ்	-1287
▁கூறினார்	-1288
மது	-1289
▁தொழில்நுட்ப	-1290
▁ஆள	-1291
த்திற்கும்	-1292
▁நீதிமன்றத்தில்	-1293
▁கருது	-1294
▁மெ	-1295
்டர்	-1296
▁குத்தகை	-1297
ித	-1298
▁விளைவாக	-1299
டியாக	-1300
▁செய்யப்பட	-1301
▁ஏனெனில்	-1302
▁பத்திர	-1303
▁முன்ப	-1304
▁மீற	-1305
ானது	-1306
▁ஈடு	-1307
▁உத்தரவை	-1308
்ட்	-1309
▁மனித	-1310
ொள்வ	-1311
▁அவருக்கு	-1312
▁பொறுத்த	-1313
▁அங்கீக	-1314
▁கார	-1315
▁இடை	-1316
▁நடைபெ	-1317
மண	-1318
▁தனிய	-1319
▁வகு	-1320
▁வளர்ச்ச	-1321
▁கல்வி	-1322
00	-1323
▁பின்ப	-1324
▁உடன	-1325
ினர்	-1326
▁குறிப்பாக	-1327
▁ஆலோசகர்	-1328
த்திற்கான	-1329
▁சர்வ	-1330
▁ஒப்புதல்	-1331
▁நாம்	-1332
கே	-1333
▁மொத்த	-1334
▁செயல்படுத்த	-1335
ப்ரா	-1336
விட	-1337
▁அட்ட	-1338
ிருக்கும்	-1339
▁லிமிட	-1340
▁குற்றச்சாட்டு	-1341
▁மேற்கண்ட	-1342
வருக்கு	-1343
▁பார்வ	-1344
▁சத	-1345
▁சங்க	-1346
▁குற்றவ	-1347
▁சரி	-1348
▁வலியுறுத்த	-1349
▁லிமிடெட்	-1350
▁எதிரான	-1351
▁நிரூப	-1352
ரிட	-1353
▁அளவு	-1354
am	-1355
▁உறுதிப்படுத்த	-1356
ாடுகள்	-1357
▁பொருத்தமான	-1358
ராம	-1359
த்திலிருந்து	-1360
படுத்த	-1361
▁நிறுத்த	-1362
வர்களுக்கு	-1363
▁வாய்ப்ப	-1364
வால்	-1365
▁விரு	-1366
▁மேல்முறையீடு	-1367
னவே	-1368
▁நே	-1369
ிரு	-1370
▁சார்பாக	-1371
▁எவ்வாற	-1372
ழுவ	-1373
ஸ்க	-1374
▁சான்று	-1375
▁என்பதையும்	-1376
ாவிட்ட	-1377
நாயக	-1378
▁ஏற்றுக்கொள்ள	-1379
▁சந்தேக	-1380
▁இயக்கு	-1381
▁விருப்ப	-1382
▁பாராளுமன்ற	-1383
▁அவ்	-1384
▁பேர	-1385
ியல்	-1386
▁விகி	-1387
▁வகையில்	-1388
▁எடுக்க	-1389
பட்ச	-1390
லைக்க	-1391
ாயினும்	-1392
▁பிரதிநி	-1393
▁அளித்த	-1394
▁வெளிப்படுத்த	-1395
▁கையக	-1396
▁ஏற்கனவே	-1397
▁கடமை	-1398
ார்க்க	-1399
▁இழப்ப	-1400
ற்ச	-1401
மாற்ற	-1402
▁கீழ	-1403
ட்டது	-1404
க்கப்பட்டுள்ளது	-1405
ீட்டை	-1406
▁ஆணை	-1407
▁ரத்து	-1408
▁எவ்வாறாயினும்	-1409
ாய்ந்த	-1410
▁இன்ன	-1411
ையால்	-1412
▁வகை	-1413
▁வழங்குவ	-1414
ஸ்திர	-1415
ிச்ச	-1416
ெய	-1417
ட்க	-1418
▁அவற்ற	-1419
▁வழக்கின்	-1420
▁அம்ச	-1421
நாட்டு	-1422
▁வேட்ப	-1423
▁வாரிய	-1424
▁அளவ	-1425
ினை	-1426
மூல	-1427
▁வெளிப்பட	-1428
▁இதுபோன்ற	-1429
▁சந்தர்ப்ப	-1430
▁இருந்தால்	-1431
▁சர்ச்ச	-1432
▁நிராக	-1433
▁உண்மையில்	-1434
டும்ப	-1435
ிக்கப்பட்டது	-1436
▁கூடுதல்	-1437
▁வாத	-1438
களைக்	-1439
த்தக்க	-1440
▁நிபந்தனை	-1441
▁மாவட்ட	-1442
▁நடவடிக்கைகள்	-1443
▁விளக்க	-1444
ட்டார்	-1445
▁மக்கள்	-1446
ஜ்	-1447
ாளர்கள	-1448
▁உற	-1449
வுகள்	-1450
▁சாத	-1451
▁தெரிவி	-1452
ழ்ச்ச	-1453
▁நிலையில்	-1454
▁முரண	-1455
க்கிறது	-1456
▁சமர்ப்பித்த	-1457
▁மாண	-1458
▁தன்மை	-1459
ர்ம	-1460
▁ஆகியவை	-1461
▁தொகை	-1462
ழக	-1463
▁வெற்ற	-1464
▁நிலுவ	-1465
னின்	-1466
சுப்ரா	-1467
▁விஷயத்தில்	-1468
▁புக	-1469
▁மின்	-1470
▁வாழ்க்க	-1471
ிக்கை	-1472
ீதியான	-1473
▁நோக்கம்	-1474
கிறோம்	-1475
▁சான்ற	-1476
▁நபர்	-1477
▁உதவி	-1478
▁குடும்ப	-1479
▁ஆர்	-1480
▁திருமண	-1481
களுடன்	-1482
▁தகவல்	-1483
ோதனை	-1484
▁கடன்	-1485
▁சர்வதேச	-1486
ப்புகள்	-1487
ப்பூர்வ	-1488
amp	-1489
▁நான	-1490
▁குறித்த	-1491
தேனும்	-1492
மாகும்	-1493
ர்ப்பு	-1494
ோடு	-1495
▁மேலே	-1496
▁ஏற்படுத்த	-1497
▁பிரதிநிதி	-1498
▁பத்தி	-1499
▁பிரச்சினை	-1500
▁ஆகும்	-1501
னா	-1502
னைய	-1503
களாக	-1504
▁பெரும்ப	-1505
▁சிக்க	-1506
▁ஜூ	-1507
▁வருட	-1508
▁எதிர்க	-1509
ங்களும்	-1510
▁முற்ற	-1511
........	-1512
▁தள	-1513
▁ஏதேனும்	-1514
▁பராம	-1515
பூர்வ	-1516
▁நாள	-1517
▁செய்யும்	-1518
▁நோக்கத்திற்காக	-1519
▁நினை	-1520
▁வெளியிட	-1521
▁இருப்பினும்	-1522
▁ஆப	-1523
▁அவர்கள	-1524
▁எதுவும்	-1525
▁தகுதிய	-1526
ாட	-1527
▁இறுதி	-1528
▁ஆராய	-1529
▁கிராம	-1530
▁புகார	-1531
▁கட்டாய	-1532
வன்	-1533
▁பின்ன	-1534
▁பொறுத்தவரை	-1535
▁நுழை	-1536
▁நடவடிக்கைகளை	-1537
ரிமை	-1538
▁வார்த்த	-1539
▁சேவ	-1540
ட்டிக்க	-1541
நிய	-1542
▁அடுத்த	-1543
ந்திய	-1544
▁குறிப்பு	-1545
திலும்	-1546
▁ஜனநாயக	-1547
ார்த்த	-1548
▁கட்சிய	-1549
தியாக	-1550
தைக்	-1551
▁ஆதரவாக	-1552
▁மற்றொரு	-1553
▁வல	-1554
▁என்பதைக்	-1555
ப்படலாம்	-1556
ரிக்கப்பட்ட	-1557
▁கையகப்படுத்த	-1558
ிரிய	-1559
ினால்	-1560
ோப	-1561
▁சுய	-1562
▁ஆண்டில்	-1563
▁செல்	-1564
▁முறையீடு	-1565
▁முக	-1566
▁நிறுவனங்கள்	-1567
▁கடுமையான	-1568
▁உற்பத்தி	-1569
▁அலுவலக	-1570
▁ஆலோசக	-1571
மைப்பு	-1572
மெ	-1573
▁முயற்சி	-1574
ரம்	-1575
▁பின்பற்ற	-1576
ங்களையும்	-1577
ாவிட்டால்	-1578
▁தூண்ட	-1579
▁செய்வதற்கான	-1580
▁பிரதிவாதி	-1581
▁பொதுவான	-1582
▁போதுமான	-1583
னில்	-1584
விக்க	-1585
▁ஈடுப	-1586
▁சட்டத்தை	-1587
▁தனிப்பட்ட	-1588
▁கோரிக்க	-1589
▁ஊதிய	-1590
▁மாற	-1591
▁திட்டம்	-1592
▁மேற்ப	-1593
▁காப்ப	-1594
▁பிரிவின்	-1595
▁முதன்	-1596
▁சுட்டிக்க	-1597
▁காலத்திற்கு	-1598
ாரிக்க	-1599
▁ஆச	-1600
ேட்	-1601
ஃப	-1602
▁இல்லாமல்	-1603
▁இந்தியாவின்	-1604
▁வரும்	-1605
ரங்க	-1606
▁அரசாங்கம்	-1607
▁ஆஜ	-1608
ந்தது	-1609
▁வரம்பு	-1610
▁பாதுகாப்ப	-1611
ற்சிய	-1612
▁நடைமுற	-1613
▁இரண்டாவது	-1614
▁பல்க	-1615
▁உட்பட	-1616
▁கடந்த	-1617
▁சுற்று	-1618
என்	-1619
▁ஆய்வு	-1620
▁ஆரம்ப	-1621
ருவ	-1622
▁தேவையான	-1623
▁சாட்சிய	-1624
▁விதிகளின்	-1625
▁இஸ்	-1626
ன்ச	-1627
ல்லை	-1628
▁M	-1629
▁நடைபெற்ற	-1630
▁தொடர	-1631
▁பாக	-1632
▁சட்டத்தில்	-1633
▁இப்போது	-1634
▁சாட்டப்பட்டவர்	-1635
▁கடை	-1636
▁இந்தச்	-1637
ப்பட்டு	-1638
தைத்	-1639
▁ஆட்ச	-1640
▁சென்ற	-1641
▁அகற்ற	-1642
▁முன்மொ	-1643
▁கொண்டுள்ளது	-1644
▁செய்தார்	-1645
ழுது	-1646
ப்படாத	-1647
ழல்	-1648
▁புற	-1649
மீ	-1650
▁தலைய	-1651
தியில்	-1652
▁உண்மையான	-1653
▁ஐபி	-1654
▁சக்த	-1655
செய்த	-1656
ிறேன்	-1657
ர்ந்தெ	-1658
▁வெளியே	-1659
▁பாதிக்கப்பட்ட	-1660
▁குடி	-1661
▁குற்றவாளி	-1662
டுப்பு	-1663
களுக்கும்	-1664
▁ஆட்சே	-1665
▁தேர்வு	-1666
▁பல்கலைக்க	-1667
றிஞ	-1668
▁அனுப	-1669
▁பழ	-1670
மல்ல	-1671
▁பயன	-1672
▁வரையறு	-1673
கின்ற	-1674
▁காவல	-1675
ண்ட்	-1676
க்கப்படும்	-1677
▁வழக்கறிஞ	-1678
▁யூனிய	-1679
▁கர்த்த	-1680
ுவதன்	-1681
▁செய்தது	-1682
ீட்டில்	-1683
▁நீதிப	-1684
தம	-1685
ப்பிய	-1686
▁பொறுப்ப	-1687
ிருந்தது	-1688
▁நிறுவனத்தின்	-1689
ரீதியான	-1690
▁உரிமைகோ	-1691
ித்துவ	-1692
்களில்	-1693
ங்களால்	-1694
ங்கும்	-1695
மில்லை	-1696
▁தேர்ந்தெ	-1697
்கா	-1698
▁இன்னும்	-1699
ின்படி	-1700
▁தாக்கு	-1701
▁பார்க்க	-1702
▁தலைவர்	-1703
▁நிலைய	-1704
▁முற்றிலும்	-1705
▁இயற்க	-1706
ளம்	-1707
வம்	-1708
ியான	-1709
▁இங்க	-1710
▁முடியாத	-1711
வகு	-1712
▁அச்ச	-1713
▁முன்வை	-1714
▁பிரதேச	-1715
▁மதிப்பீட்டாள	-1716
▁மைய	-1717
▁உள்ளடக்கிய	-1718
▁தொகையை	-1719
ுத்து	-1720
த்தைக்	-1721
▁கணி	-1722
ளவு	-1723
▁ஒன்று	-1724
▁தீவிர	-1725
▁ஆகியவற்றின்	-1726
▁கேள்விக்கு	-1727
▁நீதிபதிகள்	-1728
▁சல	-1729
ப்போ	-1730
▁வர்த்தக	-1731
ிட்	-1732
ங்கிணை	-1733
▁உச்சநீதிமன்ற	-1734
▁மதிப்பு	-1735
▁உத்தரவின்	-1736
▁பரிச	-1737
ிக்	-1738
▁மனுதாரர்	-1739
▁ஒப்பந்தம்	-1740
தில்லை	-1741
ப்படுத்து	-1742
யா	-1743
ப்ட	-1744
▁மறுப	-1745
▁தமி	-1746
▁எஃப்	-1747
▁நன்மை	-1748
▁வழங்கப்பட்டது	-1749
▁உரிம	-1750
▁பஞ்ச	-1751
ிகள்	-1752
▁கவு	-1753
▁ஒருங்கிணை	-1754
ஷ்டிர	-1755
▁செயல்முற	-1756
வர்களின்	-1757
ிருந்தார்	-1758
▁அதிகாரிகள்	-1759
▁அவர்களுக்கு	-1760
▁தாம	-1761
▁பணிய	-1762
▁தீர்ப்பை	-1763
மாகக்	-1764
▁அறிக்கையை	-1765
▁எடுத்துக்க	-1766
▁உரிமைகள்	-1767
▁மோ	-1768
▁மூன்ற	-1769
க்கூடும்	-1770
▁பிறப்ப	-1771
த்துவம்	-1772
▁புரி	-1773
மய	-1774
▁வாக	-1775
ிரம	-1776
▁வாக்குமூல	-1777
▁தொழிலாள	-1778
▁பிரா	-1779
▁இந்தியாவில்	-1780
க்கப்பட்டுள்ள	-1781
▁துற	-1782
ராத	-1783
▁அத்திய	-1784
த்திட்ட	-1785
▁நீங்கள்	-1786
▁தனியார்	-1787
▁தன்ன	-1788
...	-1789
ருக	-1790
▁ஒப்பந்தத்தின்	-1791
▁கடித	-1792
▁N	-1793
▁கூட்டு	-1794
வாறு	-1795
▁உருவாக்க	-1796
ாப்	-1797
▁உண்டு	-1798
ிடமிருந்து	-1799
▁இடையில்	-1800
▁பட்ட	-1801
தலை	-1802
▁டாக	-1803
▁மேற்கொள்ள	-1804
ுவிட்ட	-1805
▁தீர்க்க	-1806
▁உங்கள்	-1807
▁சிறந்த	-1808
சியின்	-1809
▁அரசாங்கத்தின்	-1810
▁செய்க	-1811
ற்றை	-1812
▁இதே	-1813
்பு	-1814
▁சான்றித	-1815
த்துள்ளது	-1816
டுக்கும்	-1817
விரோத	-1818
ங்களைப்	-1819
▁தொகு	-1820
▁கடன	-1821
▁முடிவுக்கு	-1822
▁அவசியம்	-1823
▁இருக்கலாம்	-1824
▁சப	-1825
ிறார்கள்	-1826
▁சதவீ	-1827
▁அவரை	-1828
தாகும்	-1829
▁ஆணையம்	-1830
▁விருது	-1831
வர்த்த	-1832
▁உள்	-1833
▁திருப்த	-1834
த்தில	-1835
▁சான்றுகள்	-1836
▁நிலைப்ப	-1837
▁சொல்ல	-1838
▁சட்டரீதியான	-1839
ோதும்	-1840
▁ஆர்வ	-1841
▁உரிமையை	-1842
ூதிய	-1843
ாவை	-1844
▁செய்து	-1845
▁இதில்	-1846
▁நம்பிய	-1847
வுகளை	-1848
மோ	-1849
▁கூறியது	-1850
வித	-1851
▁சோ	-1852
ுவதற்காக	-1853
--	-1854
▁தவறான	-1855
சார	-1856
▁உடன்ப	-1857
ப்பட்டன	-1858
▁விவர	-1859
▁ஒதுக்க	-1860
▁பணம்	-1861
ில்லிய	-1862
▁வட்டி	-1863
▁சவால்	-1864
ர்த்தி	-1865
▁நல்ல	-1866
ிடுவ	-1867
வாரண	-1868
▁கணிச	-1869
▁தரப்பின	-1870
an	-1871
ினி	-1872
ப்பட்டால்	-1873
மின்	-1874
▁சலுக	-1875
ுந	-1876
த்தைத்	-1877
ிற்கும்	-1878
ுவதற்கும்	-1879
▁தற்போது	-1880
▁கோர	-1881
▁சட்டவிரோத	-1882
தைப்	-1883
▁விகித	-1884
▁தேர்தல்	-1885
▁விவகார	-1886
▁சாத்திய	-1887
▁அங்கு	-1888
களிலும்	-1889
▁ஒழுங்குமுறை	-1890
▁பொருந்தும்	-1891
னுடைய	-1892
▁யூனியன்	-1893
தாரர்	-1894
ட்டும்	-1895
▁வைத்திருப்ப	-1896
▁மறை	-1897
▁இணங்க	-1898
ையிலும்	-1899
▁நடந்த	-1900
▁வழிக	-1901
▁வேண்டு	-1902
சாய	-1903
▁அதிகரி	-1904
▁கவ	-1905
▁ஆயுத	-1906
▁குழந்தை	-1907
▁மீட்ட	-1908
நிற	-1909
▁நிலம்	-1910
▁கொண்டிருக்க	-1911
▁நன	-1912
ய்வூதிய	-1913
யின்	-1914
▁சோதனை	-1915
▁மத	-1916
▁நிதிய	-1917
▁கலந்து	-1918
▁ஒதுக்கி	-1919
▁அபராத	-1920
▁கட்டுரை	-1921
ையே	-1922
த்தா	-1923
▁நிவாரண	-1924
▁சிறை	-1925
▁ஏற்பாடு	-1926
▁ஆகியோ	-1927
▁ஐரோ	-1928
ெக	-1929
▁டாக்டர்	-1930
▁இத்தகைய	-1931
▁சிக	-1932
▁எதிர்ப	-1933
▁விளம்ப	-1934
▁நிலுவையில்	-1935
▁நியமிக்கப்பட்ட	-1936
▁விரை	-1937
▁தற்க	-1938
▁மக	-1939
▁காரணம்	-1940
▁ஏற்பட்ட	-1941
யில்	-1942
ாண்ட	-1943
▁ஆகவே	-1944
▁விலை	-1945
▁அர்த்த	-1946
▁சமர்ப்பிப்பு	-1947
செய்யப்பட்ட	-1948
▁இதனால்	-1949
ொழுது	-1950
▁வழிவகு	-1951
ீட்டின்	-1952
்தான்	-1953
▁வயது	-1954
வுபடுத்த	-1955
▁கண்கா	-1956
▁கருத்தை	-1957
களுக்கான	-1958
▁விசாரணையின்	-1959
▁வைக்க	-1960
▁மாநிலத்தின்	-1961
ித்தது	-1962
▁அடை	-1963
▁ஓய்வூதிய	-1964
▁செய்யப்படும்	-1965
▁பொருட்கள்	-1966
▁முடிவை	-1967
▁உடன்	-1968
▁கல்ல	-1969
▁ஒப்புக்	-1970
▁உண்மைகள்	-1971
▁செல்லுப	-1972
▁தீர்மானிக்க	-1973
க்கார	-1974
ப்படை	-1975
வர்களை	-1976
▁வழக்கை	-1977
▁சுரங்க	-1978
▁கிடைக்க	-1979
வில	-1980
▁கைது	-1981
▁முக்கியமான	-1982
ுள்ளனர்	-1983
▁பட்டியல்	-1984
▁பேச்ச	-1985
னே	-1986
களைத்	-1987
▁ஆசிரிய	-1988
▁தீர்ப்பின்	-1989
▁இயல்ப	-1990
▁நீண்ட	-1991
▁அடையாளம்	-1992
▁அதன்ப	-1993
▁மனுவை	-1994
ர்களால்	-1995
▁அவ்வாறு	-1996
ளிப்ப	-1997
▁விவசாய	-1998
▁இயக்குந	-1999
▁முன்னாள்	-2000
முதல்	-2001
▁வர்க்க	-2002
▁சேர்ந்த	-2003
▁நீதிமன்றங்கள்	-2004
எஃப்	-2005
ப்படுவது	-2006
▁நியமனம்	-2007
▁பொறுப்பு	-2008
▁அதன்படி	-2009
னையின்	-2010
▁தொடர்பு	-2011
▁சிகிச்ச	-2012
வுடன்	-2013
▁கட்டுப்படுத்த	-2014
▁திட்டத்தின்	-2015
▁நெருக்க	-2016
▁வடிவமை	-2017
▁பயிற்சி	-2018
லுக்கு	-2019
ையையும்	-2020
▁சுருக்க	-2021
▁பல்கலைக்கழக	-2022
▁கையாள	-2023
▁தொழி	-2024
ுறவு	-2025
▁மீதான	-2026
டுகிறது	-2027
ிறகு	-2028
▁அணுக	-2029
ருக்கான	-2030
▁யு	-2031
மார	-2032
▁நிர்வக	-2033
▁ஆண்டுகள்	-2034
▁வழங்குகிறது	-2035
▁ஸ்ட	-2036
லாப	-2037
▁மி	-2038
▁தொழில்துறை	-2039
ீர்	-2040
▁பிராந்திய	-2041
▁பார்வையில்	-2042
▁ஜென	-2043
ந்	-2044
▁மச	-2045
ப்பெ	-2046
க்களின்	-2047
▁அணு	-2048
▁நோக்கங்களுக்காக	-2049
▁படை	-2050
ர்த்து	-2051
▁அடைந்த	-2052
மேல்	-2053
ருடைய	-2054
ாச	-2055
▁கோட்ப	-2056
▁போர	-2057
▁மதிப்பீட்டு	-2058
▁V	-2059
▁வசதி	-2060
ண்மை	-2061
▁புரிந்து	-2062
ம்பு	-2063
ீஸ்	-2064
▁பள்ள	-2065
ன்ஸ்	-2066
னுக்கு	-2067
றும்	-2068
ாய்வு	-2069
▁வெளியேற்ற	-2070
ங்களைக்	-2071
▁பெரு	-2072
.,	-2073
▁புகார்	-2074
▁அதன்பிறகு	-2075
▁வழங்கப்படும்	-2076
▁போக்கு	-2077
▁குறிக்கிறது	-2078
▁முழுமையான	-2079
▁சூழ	-2080
▁E	-2081
▁நீட்ட	-2082
▁எடுக்கப்பட்ட	-2083
ானிய	-2084
▁செய்வது	-2085
▁சொற்க	-2086
ப்பதற்கான	-2087
▁நிராகரி	-2088
▁மட்டுமல்ல	-2089
▁சுட்டிக்காட்ட	-2090
்ப்பரே	-2091
ஜிஸ்திர	-2092
▁லட்ச	-2093
▁என்பதால்	-2094
கால	-2095
▁நீர்	-2096
▁கூறுகிறது	-2097
▁கட்டணம்	-2098
▁மாதி	-2099
ோசலி	-2100
ழும்	-2101
▁மாஜிஸ்திர	-2102
▁நோய	-2103
ரமான	-2104
▁ஆக்க	-2105
▁மார்	-2106
▁மகி	-2107
▁அசல்	-2108
▁பரிவர்த்த	-2109
▁கொண்டுவ	-2110
▁அவதான	-2111
ும்போது	-2112
▁உத்தரவாத	-2113
▁நான்கு	-2114
ரையா	-2115
வது	-2116
▁ஆல்	-2117
▁அறிய	-2118
▁வழங்குவதற்கான	-2119
ங்களுடன்	-2120
▁விதிமுறைகள்	-2121
▁குழுவின்	-2122
▁பூர்த்தி	-2123
▁என்றால்	-2124
▁குடிம	-2125
▁காட்டு	-2126
ேயே	-2127
போல்	-2128
▁நபர்கள்	-2129
▁மணி	-2130
▁கெ	-2131
ீன்	-2132
▁இங்கு	-2133
ையைப்	-2134
த்திற்குள்	-2135
வ்வேறு	-2136
ொட	-2137
▁மாந	-2138
▁பங்கள	-2139
▁சதி	-2140
▁வெவ்வேறு	-2141
▁பரந்த	-2142
▁இவ்வா	-2143
▁ஒற்றை	-2144
▁சோசலி	-2145
▁மேம்படுத்த	-2146
டுத்துகிறது	-2147
▁தொலை	-2148
த்துக்	-2149
▁நாட்டின்	-2150
▁இடத்தில்	-2151
மாண	-2152
ங்களுக்கும்	-2153
▁நடத்தை	-2154
▁விண்ணப்பத்தை	-2155
சோ	-2156
னமான	-2157
வின	-2158
▁விளக்கம்	-2159
▁விலக்கு	-2160
▁விதிகளை	-2161
▁ஒத்து	-2162
▁சகோத	-2163
▁எழுப்ப	-2164
▁வாட	-2165
▁உதவிய	-2166
▁விண்ணப்பம்	-2167
▁செல்லுபடிய	-2168
▁பெறு	-2169
ந்த்	-2170
▁தண்டனையை	-2171
▁கண்டறிய	-2172
▁உடல்	-2173
▁நமது	-2174
▁இடையிலான	-2175
ாகிய	-2176
▁கொடுக்க	-2177
கிறார்கள்	-2178
▁வசூல	-2179
▁நம்பிக்க	-2180
▁அவன்	-2181
▁இவ்வாறு	-2182
▁வளர்ச்சி	-2183
ில்லியன்	-2184
▁கொடுத்த	-2185
▁பெண	-2186
▁ஆஜரான	-2187
▁கவுன்ச	-2188
▁மேற்பட்ட	-2189
▁அரசின்	-2190
▁இயக்க	-2191
▁குறிப்பிட்டுள்ள	-2192
க்கால	-2193
ப்பா	-2194
er	-2195
ெழு	-2196
தோடு	-2197
▁சுக	-2198
▁விதிக்க	-2199
ஜே	-2200
▁சிறிய	-2201
▁சுற்ற	-2202
ிஸ்த	-2203
▁விசாரணையை	-2204
▁பாட	-2205
▁தோல்	-2206
▁எழுத்து	-2207
ளா	-2208
▁கல்லூ	-2209
பின்	-2210
▁அளிக்க	-2211
ந்தர	-2212
▁விநிய	-2213
▁சந்தை	-2214
▁வலை	-2215
ழிவு	-2216
மாகவும்	-2217
▁முரண்ப	-2218
ித்தல்	-2219
▁பேரில்	-2220
ிக்கப்பட்டுள்ளது	-2221
ோள்	-2222
on	-2223
்சி	-2224
▁எங்களுக்கு	-2225
▁எனது	-2226
விட்டது	-2227
▁வழிகாட்டு	-2228
▁பொலி	-2229
▁செயல்த	-2230
ன்க	-2231
▁ஐந்து	-2232
▁வங்க	-2233
▁அத்தியாய	-2234
▁ஆகையால்	-2235
▁சாதாரண	-2236
▁வெளிநாட்டு	-2237
▁கார்ப்பரே	-2238
▁சூழ்நில	-2239
ப்பட்டுள்ளன	-2240
▁O	-2241
ியுள்ளது	-2242
▁மதிப்பீடு	-2243
▁சமர்ப்பித்தார்	-2244
▁ஆறு	-2245
▁செயல்பாடு	-2246
▁இழப்பீடு	-2247
▁தூண்டப்பட்ட	-2248
மையின்	-2249
ப்ரல்	-2250
▁அறிமுக	-2251
▁சிபி	-2252
▁நலன	-2253
▁சமர்ப்பிக்க	-2254
▁விடுவ	-2255
▁முன்னேற்ற	-2256
▁இன்று	-2257
▁விப	-2258
▁தகவல	-2259
ச்சூ	-2260
▁கோடி	-2261
▁வழங்கப்பட	-2262
▁தீர்ப்பாயம்	-2263
▁ஜி	-2264
ப்படுவதற்கு	-2265
▁வழக்குத்	-2266
ையுடன்	-2267
▁ஒப்புக்க	-2268
▁தீர்வு	-2269
ண்டனை	-2270
▁எரி	-2271
▁பதவிய	-2272
ார்ந்த	-2273
ளிக்க	-2274
▁குறைப	-2275
▁II	-2276
▁ஆதாரங்களை	-2277
▁கணிசமான	-2278
▁மருத்துவம	-2279
த்துக்கு	-2280
வராக	-2281
▁ஒருவர்	-2282
▁கொடுப்ப	-2283
ஷி	-2284
▁என்றாலும்	-2285
தியான	-2286
நட	-2287
▁செயல்திற	-2288
▁என்பதில்	-2289
▁வருகிறது	-2290
▁பொதுவாக	-2291
▁B	-2292
ன்ட்	-2293
▁தொடர்ச்ச	-2294
▁ஜாம	-2295
▁மன்ற	-2296
▁ஏற்று	-2297
▁ஆளுந	-2298
▁வளாக	-2299
▁கள	-2300
▁உறுப்பினர்கள்	-2301
▁நபரின்	-2302
ாளரின்	-2303
மிய	-2304
▁முதலாள	-2305
▁நடைமுறைக்கு	-2306
▁மாநிலத்தில்	-2307
▁பாரா	-2308
▁கட்டமை	-2309
▁உருவாக்குவ	-2310
▁முழுவ	-2311
▁ஈரா	-2312
▁நகர	-2313
ளவில்	-2314
▁குறைந்தபட்ச	-2315
▁திரும்பப்	-2316
▁அமைந்த	-2317
▁மார்ச்	-2318
▁உடை	-2319
ிற்கான	-2320
▁வாகன	-2321
▁வேத	-2322
▁பரிமாற்ற	-2323
▁வாய்ப்பு	-2324
வைக்	-2325
▁குறிய	-2326
க்கில்	-2327
▁பெறப்பட்ட	-2328
ிருந்தாலும்	-2329
தில	-2330
▁ஏப்ரல்	-2331
▁திருத்தம்	-2332
▁சூழ்நிலைகளில்	-2333
த்தன்மை	-2334
ப்பதன்	-2335
▁வார்த்தை	-2336
▁நம்	-2337
ிருந்தால்	-2338
▁பெரும்	-2339
▁ஆயு	-2340
▁தன்மையை	-2341
▁பதிலளித்தவர்கள்	-2342
▁இயற்ற	-2343
▁நூ	-2344
१०	-2345
பல	-2346
▁தீர்ப்பில்	-2347
▁காலம்	-2348
தியை	-2349
▁செயல்பட	-2350
▁மனை	-2351
▁விளைவு	-2352
ிருந்தும்	-2353
▁நடி	-2354
▁சுற்றுச்சூ	-2355
▁கொலை	-2356
▁''	-2357
▁கட்டத்தில்	-2358
▁மறுஆ	-2359
▁மசோத	-2360
ீதியாக	-2361
▁கிள	-2362
▁தெரிய	-2363
▁அதிகாரத்தை	-2364
▁சட்டபூர்வ	-2365
▁விழ	-2366
▁வாடகை	-2367
▁கணக்கு	-2368
▁வீட்ட	-2369
ருடன்	-2370
▁அக்க	-2371
▁பராமரி	-2372
த்தும்	-2373
▁வாங்க	-2374
▁வரலா	-2375
▁தட	-2376
ர்ந	-2377
▁கற்ப	-2378
▁விமான	-2379
ாக்	-2380
''	-2381
▁மாறாக	-2382
▁திட்டத்தை	-2383
▁வாங்கு	-2384
▁தேச	-2385
▁புள்ள	-2386
▁அமர்வு	-2387
▁நன்கு	-2388
ப்பதில்	-2389
▁நிரூபிக்க	-2390
வச	-2391
▁உடனடி	-2392
▁கேட்க	-2393
▁அறிவுறுத்த	-2394
▁தரப்பு	-2395
▁தவறாக	-2396
வால	-2397
▁ஆலோசனை	-2398
லம்	-2399
ப்படுத்தப்பட்ட	-2400
லே	-2401
ுட	-2402
▁உள்ளூர்	-2403
▁சுகாதார	-2404
▁வழிகாட்டுதல	-2405
ாளர்களின்	-2406
பார	-2407
▁வழக்குகள்	-2408
▁நிலைமை	-2409
ொண்டு	-2410
▁திருப்பி	-2411
ங்கர	-2412
▁ஐரோப்பிய	-2413
▁நம்பக	-2414
ொள்க	-2415
▁அளவிற்கு	-2416
iii	-2417
களிலிருந்து	-2418
▁வழக்குகளில்	-2419
▁எல்	-2420
▁பார்த்த	-2421
▁முன்பு	-2422
▁மாநிலம்	-2423
▁இருந்தாலும்	-2424
▁முதன்மை	-2425
ிப்பதற்கான	-2426
▁உட்படுத்த	-2427
லர்	-2428
▁சுமார்	-2429
▁நேரம்	-2430
▁விர	-2431
மன்	-2432
▁சோசலிச	-2433
▁இருப்பதால்	-2434
▁நடைபெற்றது	-2435
களைச்	-2436
▁PW	-2437
ோட்ட	-2438
▁அவற்றின்	-2439
▁நேரடி	-2440
▁என்பதும்	-2441
▁வழிநட	-2442
விர்க்க	-2443
ஷ்டிரபதி	-2444
▁கட்டுமான	-2445
▁வேண்டியது	-2446
▁தந்த	-2447
▁தடுப்பு	-2448
▁குமார்	-2449
▁மேல்	-2450
▁ஆட்சேப	-2451
▁திறந்த	-2452
▁நாட்களுக்கு	-2453
▁ராஷ்டிரபதி	-2454
▁நடைமுறையில்	-2455
▁சரியாக	-2456
ிப்பது	-2457
▁வெளிப்படையாக	-2458
றுப	-2459
▁அனுமதிக்கப்பட்ட	-2460
▁பகுதியாக	-2461
க்கீ	-2462
▁நுக	-2463
▁R	-2464
▁ஃப	-2465
முடிய	-2466
▁கருதப்படும்	-2467
க்கண	-2468
▁மறுக்க	-2469
▁கலை	-2470
▁சேக	-2471
▁முறையாக	-2472
▁முழுமையாக	-2473
▁பொருட்களின்	-2474
▁உடனடியாக	-2475
தன	-2476
▁கேள்விய	-2477
▁புஷ்	-2478
▁தவிர்க்க	-2479
ச்சய	-2480
▁மறுஆய்வு	-2481
ரத்தில்	-2482
▁பரிவர்த்தனை	-2483
▁மீட்டெ	-2484
▁பக்க	-2485
த்தம்	-2486
▁தொழிலாளர்	-2487
▁விநியோக	-2488
ீப	-2489
▁தான்	-2490
▁கட்சிகள்	-2491
▁அபராதம்	-2492
▁ஜெ	-2493
▁விரிவான	-2494
▁வெடி	-2495
க்கட்ட	-2496
▁விவாத	-2497
▁தெளிவாகிறது	-2498
ுவதை	-2499
▁செலவு	-2500
▁கூற்று	-2501
▁தகவல்களை	-2502
▁அறிக்கையில்	-2503
▁மண	-2504
▁நுழைவு	-2505
▁மேம்பாட்டு	-2506
▁மொழி	-2507
▁தோன்ற	-2508
▁T	-2509
ாதீ	-2510
▁சிந்த	-2511
▁கொண்டது	-2512
▁உணவு	-2513
்தார	-2514
▁உற்பத்திய	-2515
▁குறிப்பிடப்பட்ட	-2516
▁நிச்சய	-2517
▁எந்தவித	-2518
▁செப்ட	-2519
த்தன்	-2520
▁சதவீத	-2521
▁மேலா	-2522
நப	-2523
▁தாமத	-2524
▁எனக்கு	-2525
▁நிலையான	-2526
▁குமார	-2527
ுறம்	-2528
▁விடுப்பு	-2529
▁லட்சம்	-2530
லு	-2531
▁வித	-2532
ாப	-2533
▁மாஜிஸ்திரேட்	-2534
ையில்லை	-2535
▁போக்குவர	-2536
▁பொருந்தாது	-2537
நீ	-2538
▁செய்தி	-2539
▁எழும்	-2540
▁குற்றத்தை	-2541
▁கொள்வ	-2542
▁உன்	-2543
."	-2544
▁விசாரணைக்கு	-2545
▁உள்ளிட்ட	-2546
ிருக்கிறது	-2547
▁செயல்முறை	-2548
▁வெளிப்படையான	-2549
▁பாத	-2550
▁விசாரிக்க	-2551
▁வாங்குப	-2552
▁கட்டிட	-2553
▁s	-2554
▁ரூப	-2555
▁அட்டவண	-2556
▁செலுத்து	-2557
ப்ர	-2558
புண	-2559
▁தவறி	-2560
ருந்து	-2561
▁தொழிலாளர்கள்	-2562
ாட்சி	-2563
▁கவனத்தில்	-2564
▁அடிப்படையாக	-2565
▁நிறைவேற்றப்பட்ட	-2566
▁கவனிக்க	-2567
▁எதிர்ப்பு	-2568
▁ஆக்கிரம	-2569
▁யுத்த	-2570
▁திருப்தி	-2571
▁எண்ணிக்க	-2572
டுவது	-2573
▁விளம்பர	-2574
க்ஸ்	-2575
▁நிலத்தை	-2576
▁நிபுண	-2577
▁சகோதர	-2578
த்துக்க	-2579
▁அவர்களை	-2580
▁இடைக்கால	-2581
▁வீடு	-2582
ரியான	-2583
கையில்	-2584
்கிறது	-2585
▁வாழ்	-2586
▁சக்தி	-2587
▁ஆராய்ச்ச	-2588
ிடப்பட்ட	-2589
▁தடுக்க	-2590
▁எடுத்துக்	-2591
▁வாழ்த்த	-2592
▁பக	-2593
▁பொலிஸ்	-2594
▁தொழிற்ச	-2595
▁கிழ	-2596
பொரு	-2597
▁எடுத்த	-2598
▁மேற்கொண்ட	-2599
▁சம்பவ	-2600
▁டெல்லி	-2601
வருக்கும்	-2602
▁பேர்	-2603
ுங்கள்	-2604
ாய்வ	-2605
▁முதலில்	-2606
▁போட்டிய	-2607
▁அச்சுறுத்த	-2608
பாச	-2609
▁வைத்த	-2610
டக	-2611
▁வெளிச்ச	-2612
▁வக்கீ	-2613
▁கமி	-2614
▁அவதானிப்பு	-2615
▁எதிர்ப்ப	-2616
ெல்ல	-2617
▁அவள்	-2618
ளிக்கும்	-2619
▁தில்லி	-2620
▁பிரதிநிதித்துவ	-2621
▁தெளிவான	-2622
▁திறன்	-2623
▁மக்களின்	-2624
▁பிரார்த்த	-2625
▁வந்தது	-2626
ீகார	-2627
ாலிக	-2628
▁கூடுதல	-2629
ாளராக	-2630
▁சொல்	-2631
▁தமிழ்	-2632
▁சுற்றுச்சூழல்	-2633
▁வழங்கும்	-2634
▁சுயாதீ	-2635
▁நோக்கி	-2636
▁முகர்	-2637
▁அறிவிப்பை	-2638
▁பதிலாக	-2639
▁விசாரி	-2640
▁பரிசீலிக்க	-2641
▁தாக்குதல	-2642
▁உல	-2643
னுடன்	-2644
in	-2645
▁ஒப்படை	-2646
▁பாராட்ட	-2647
▁நடத்திய	-2648
▁டிவி	-2649
திக	-2650
வாய்ந்த	-2651
▁வாச	-2652
▁முன்னு	-2653
த்தொ	-2654
▁திட்டமிட	-2655
வையும்	-2656
யம்	-2657
▁ஜனவரி	-2658
▁தனிநப	-2659
▁நவ	-2660
ச்சார	-2661
லாக	-2662
▁டிச	-2663
னான	-2664
▁டை	-2665
▁விவாதி	-2666
▁ரீதியாக	-2667
▁அறிவிக்கப்பட்ட	-2668
ேற்ப	-2669
▁கருதுகிறோம்	-2670
▁அமெரிக்கா	-2671
▁அழ	-2672
▁முன்னோ	-2673
முள்ள	-2674
▁வருமானம்	-2675
▁எதிர்கால	-2676
▁எல்லா	-2677
▁W	-2678
▁படிக்க	-2679
▁பராமரிக்க	-2680
▁போன்றவற்ற	-2681
▁மாற்றிய	-2682
▁நேரடியாக	-2683
▁இதை	-2684
▁உண்மையை	-2685
▁கீழே	-2686
▁குறிக்க	-2687
▁தக்க	-2688
▁அழு	-2689
▁கையெழு	-2690
▁ஜனாதிப	-2691
▁நிகழ்வு	-2692
ாவதாக	-2693
▁புதுப்ப	-2694
▁சமீப	-2695
▁செப்டம்பர்	-2696
▁எளி	-2697
▁கல்விய	-2698
▁கொண்டார்	-2699
▁அணுகு	-2700
▁இங்கே	-2701
▁முடியவில்லை	-2702
▁இணைப்பு	-2703
ணியில்	-2704
▁ஆண்டுகளுக்கு	-2705
▁செல்லுபடியாகும்	-2706
▁உள்ளடக்கியது	-2707
ளைய	-2708
ொலை	-2709
▁செல்வ	-2710
ஸ்சி	-2711
▁குடியரச	-2712
▁அளவில்	-2713
▁வெளியிட்ட	-2714
ாளருக்கு	-2715
ிலா	-2716
ிலே	-2717
▁அபி	-2718
சூ	-2719
ெய்	-2720
▁ஆதரவு	-2721
நோ	-2722
ருப	-2723
▁முயற்சிய	-2724
ங்களிலும்	-2725
▁தயாரிக்க	-2726
▁தற்காலிக	-2727
ிட்டு	-2728
ar	-2729
்துற	-2730
▁சர்	-2731
▁முன்மொழிய	-2732
▁வைக்கப்பட்ட	-2733
▁பேச	-2734
ப்பிற்கு	-2735
▁வழக்கமான	-2736
▁உட்பிரிவு	-2737
▁இன	-2738
▁தன்னை	-2739
▁ஒத்துழை	-2740
▁F	-2741
▁சுதந்திரம்	-2742
▁தீர்ப்பாயத்தின்	-2743
▁ஒருப	-2744
ொப்ப	-2745
ம்படி	-2746
▁இருந்தார்	-2747
▁இருக்கு	-2748
▁அங்கீகார	-2749
நா	-2750
ர்ச	-2751
▁உருவாக்கு	-2752
▁டிவிஷன்	-2753
▁ஆகஸ்ட்	-2754
▁மை	-2755
மிக்க	-2756
ிடையே	-2757
▁புகார்தார	-2758
▁கண்டுபிடிப்பு	-2759
▁ஆணைக்கு	-2760
▁இறக்கு	-2761
▁விசாரணையில்	-2762
▁நியமிக்க	-2763
▁சட்டங்கள்	-2764
களின்படி	-2765
▁வட	-2766
ர்களும்	-2767
▁மனுவில்	-2768
▁வாரியம்	-2769
▁மின்சார	-2770
▁சூழலில்	-2771
▁தோட்ட	-2772
▁ஆஃப்	-2773
்டோப	-2774
கிறேன்	-2775
டுத்துதல்	-2776
▁பார்வை	-2777
▁திட்டங்கள்	-2778
▁தெரிவிக்க	-2779
▁இதற்கு	-2780
▁குத்தகைதார	-2781
▁கட்டுப்பாடு	-2782
▁குறிப்பிடத்தக்க	-2783
▁எச்ச	-2784
▁சலுகை	-2785
▁பயங்கர	-2786
▁கல்லூரி	-2787
▁என்றார்	-2788
▁ஏற்றுக்கொண்ட	-2789
ும	-2790
ரிடம்	-2791
▁திர	-2792
பே	-2793
▁தெரிகிறது	-2794
ஒரு	-2795
மயமா	-2796
▁பிரதம	-2797
▁வாழ்க்கை	-2798
த்தின	-2799
▁போலவே	-2800
▁திருமதி	-2801
▁நிறுவனங்களின்	-2802
▁அமல்ப	-2803
▁வழிமுறை	-2804
▁இறந்தவரின்	-2805
▁உள்நாட்டு	-2806
▁அறிந்த	-2807
▁முதலாளித்துவ	-2808
றுவ	-2809
ாதது	-2810
▁அதிகமாக	-2811
லான	-2812
▁இருந்தன	-2813
ட்டர்	-2814
▁எப்ப	-2815
▁வேண்டுக	-2816
▁D	-2817
▁முக்கியத்துவம்	-2818
▁சுவ	-2819
▁ஜெனரல்	-2820
▁கோரிக்கை	-2821
▁வெற்றி	-2822
▁இடம்	-2823
११	-2824
▁வாக்க	-2825
▁புல	-2826
▁ஒழுங்க	-2827
▁உரிமைகளை	-2828
▁செய்வதற்கு	-2829
ாரா	-2830
▁வெறு	-2831
▁பிரச்சின	-2832
▁கையொப்ப	-2833
▁தண	-2834
ர்திரு	-2835
▁காவல்துறை	-2836
னுக்காக	-2837
▁நடவடிக்கைகளில்	-2838
▁இருக்காது	-2839
▁நியாயப்படுத்த	-2840
▁பிரிவில்	-2841
▁வெளிப்பாடு	-2842
ாளர்களுக்கு	-2843
▁வாதிட	-2844
த்துற	-2845
▁கண்ண	-2846
ங்களைத்	-2847
▁ஓய்வு	-2848
▁முழுவதும்	-2849
▁மோத	-2850
த்தான்	-2851
ருத்தி	-2852
▁தேவையில்லை	-2853
▁டிசம்பர்	-2854
▁ஆண்டுகளில்	-2855
▁ஜூலை	-2856
▁முடிந்த	-2857
ந்தி	-2858
▁ஜெய	-2859
▁இப்ப	-2860
▁வலைத்த	-2861
▁உருவாக்கும்	-2862
▁விஷயத்தை	-2863
▁L	-2864
ிலோ	-2865
▁பத்திய	-2866
மின்றி	-2867
▁கேர	-2868
▁மண்ட	-2869
ொள்வது	-2870
▁வெளிப்புற	-2871
▁அரசுக்கு	-2872
▁மோசமான	-2873
▁உறுப்பினர்	-2874
▁நிறுவப்பட்ட	-2875
க்களுக்கு	-2876
▁எதிர்பார்க்க	-2877
டல்	-2878
ையிலான	-2879
▁மாற்றியமை	-2880
▁உயர்வு	-2881
ம்ம	-2882
க்கப்படுகிறது	-2883
▁ஆட்சேபனை	-2884
▁பொருட்களை	-2885
ஸின்	-2886
▁புத்தக	-2887
வேண்டும்	-2888
▁பகுதியில்	-2889
ட்டை	-2890
▁இடையே	-2891
ழ்ச்சி	-2892
▁அப்பொழுது	-2893
▁எந்தவிதமான	-2894
ையற்ற	-2895
▁முகர்ஜி	-2896
▁கிரி	-2897
▁பொருத்தவரை	-2898
ப்புக்கு	-2899
▁பயன்பாடு	-2900
னையும்	-2901
ங்களுக்கான	-2902
▁மேலதிக	-2903
▁சமமான	-2904
ல்கள	-2905
ரிகை	-2906
▁அடங்கும்	-2907
▁காரணங்கள்	-2908
்டோபர்	-2909
▁வழங்குவது	-2910
or	-2911
க்த	-2912
▁ஜேர்ம	-2913
II	-2914
▁காண்ப	-2915
ின்றனர்	-2916
▁தொகுதி	-2917
▁ஒட்டு	-2918
▁ஜோ	-2919
ிவி	-2920
▁ஒருங்கிணைந்த	-2921
▁கப்ப	-2922
ளிக்கப்பட்ட	-2923
யோ	-2924
ஹ்	-2925
▁செய்யப்படவில்லை	-2926
en	-2927
▁சட்டத்தால்	-2928
வீன	-2929
▁விதிகளுக்கு	-2930
▁சட்டபூர்வமான	-2931
▁ஆகியவற்றை	-2932
ல்க	-2933
▁உட்பட்ட	-2934
▁அறக்கட்ட	-2935
▁கூறப்படும்	-2936
▁கேள்விக்குரிய	-2937
▁தொழிற்சங்க	-2938
சப	-2939
▁போராட்ட	-2940
▁பாலியல்	-2941
▁முயற்ச	-2942
▁அதிகாரத்தின்	-2943
▁சிங்க	-2944
▁கவனித்த	-2945
▁கட்டளை	-2946
▁அழைப்பு	-2947
மொத்த	-2948
▁இன்ற	-2949
நிறுத்த	-2950
▁ரெ	-2951
▁சீர்திரு	-2952
▁சான்றிதழ்	-2953
▁தெளிவுபடுத்த	-2954
▁நவம்பர்	-2955
திலிருந்து	-2956
▁பொறிய	-2957
▁இவை	-2958
],	-2959
▁மர	-2960
வாய்ப்ப	-2961
▁வெள்ள	-2962
ையிலிருந்து	-2963
ஸில்	-2964
▁வந்து	-2965
▁உட்பட்டு	-2966
ட்டத்தில்	-2967
▁செய்யப்படுகிறது	-2968
▁வர்த்தகம்	-2969
▁ஸ்க	-2970
▁ஒன்றிய	-2971
ாட்டிற்கு	-2972
▁சிறைத்த	-2973
▁மோசடி	-2974
▁இணைக்கப்பட்ட	-2975
ராச	-2976
▁அமல்படுத்த	-2977
▁சந்தேகத்திற்கு	-2978
▁சேவைகள்	-2979
▁போர்	-2980
▁காப்பீட்டு	-2981
................	-2982
ையைத்	-2983
▁விஜ	-2984
ந்தர்	-2985
al	-2986
▁கட்சியின்	-2987
▁சமத்துவ	-2988
▁பறி	-2989
▁அங்கீகரிக்க	-2990
▁நிர்வாகம்	-2991
▁ஆதரிக்க	-2992
ிடும்	-2993
ர்களாக	-2994
▁ஆகியோர்	-2995
▁சேவைகளை	-2996
▁கர்ந	-2997
▁கேட்ட	-2998
▁விரோத	-2999
▁மில்லியன்	-3000
ர்ட	-3001
▁கர்நாட	-3002
▁கோட்	-3003
பார்க்க	-3004
ுமா	-3005
▁முடிவ	-3006
▁ஸ்த	-3007
▁வாதிட்டார்	-3008
▁பணியா	-3009
▁நிரந்தர	-3010
▁சட்டமன்றம்	-3011
▁பகி	-3012
▁கொடுக்கப்பட்ட	-3013
▁வருவாய்	-3014
▁நபரும்	-3015
it	-3016
▁இயற்கை	-3017
▁பெரும்பான்	-3018
▁ஒதுக்கப்பட்ட	-3019
▁திச	-3020
ிக்கப்படும்	-3021
மாய	-3022
▁ஆராய்ச்சி	-3023
▁ஒப்புதல	-3024
▁ஆட்சிய	-3025
▁வைத்திருக்க	-3026
▁காரணங்களுக்காக	-3027
▁எவ்வாறு	-3028
ப்படும்போது	-3029
▁கருதுகிறது	-3030
டியோ	-3031
ப்ரவரி	-3032
▁உருவாக்கிய	-3033
▁ஜூன்	-3034
▁இறுதியில்	-3035
▁துணைப்பிரி	-3036
▁தனியு	-3037
▁உயர்ந்த	-3038
▁எழுத்துப்பூர்வ	-3039
▁யா	-3040
▁பம்ப	-3041
▁நடத்துவ	-3042
▁முன்க	-3043
▁போன்றவை	-3044
ஞான	-3045
ிப்பை	-3046
▁புலி	-3047
▁எனக்	-3048
▁நியமன	-3049
▁கணக்கில்	-3050
மின	-3051
▁பணியாற்ற	-3052
▁பகுப்ப	-3053
பாசிட்	-3054
▁கண்டறிந்த	-3055
▁தகுதிவாய்ந்த	-3056
▁ராம்	-3057
▁மூலதன	-3058
▁வழக்கறிஞர்	-3059
▁பொருந்தக்கூடிய	-3060
▁பொருத்தமானது	-3061
கின்றனர்	-3062
▁பாதுகாக்க	-3063
வணை	-3064
▁உட்பட்டது	-3065
▁பொருளை	-3066
ிடு	-3067
▁சும	-3068
▁போக்குவரத்து	-3069
▁காட்டுகிறது	-3070
ென்றால்	-3071
▁x	-3072
ப்பற்ற	-3073
▁அக்டோபர்	-3074
▁கருதப்பட	-3075
ராக்	-3076
▁தின	-3077
ப்பட்டார்	-3078
▁கூட்டுறவு	-3079
▁டெபாசிட்	-3080
▁இருப்பதாக	-3081
ப்பதற்கு	-3082
னைக்கு	-3083
▁வைப்பு	-3084
▁பயிற்சிய	-3085
▁வேலைவாய்ப்ப	-3086
ங்களாக	-3087
▁தண்டனைக்கு	-3088
பிர	-3089
▁இலாப	-3090
▁சொன்ன	-3091
▁போட்டி	-3092
ாண	-3093
ார்வ	-3094
▁பெண்	-3095
▁மேற்கோள்	-3096
▁ஐபிசியின்	-3097
▁தவறு	-3098
▁இயல்பு	-3099
▁பிறப்பித்த	-3100
▁காசோ	-3101
▁மட்டுமல்லாமல்	-3102
▁தான	-3103
▁பயனுள்ள	-3104
▁அறிமுகப்படுத்த	-3105
▁தொடக்க	-3106
▁மாற்று	-3107
▁ஐபிசி	-3108
▁அளிக்கிறது	-3109
▁எஸ்சி	-3110
▁கர்த்தர்	-3111
▁விரும்புக	-3112
▁கேட்டு	-3113
▁விதிவில	-3114
▁எல்லைக்கு	-3115
▁G	-3116
▁அப்பா	-3117
▁ஊடக	-3118
▁நாட்டில்	-3119
▁அடிப்படையாகக்	-3120
▁கொள்கையை	-3121
▁போல்	-3122
▁முதலீடு	-3123
ிப்பதில்	-3124
ற்கு	-3125
ாவும்	-3126
ப்புற	-3127
▁உரிமைகோர	-3128
▁நிராகரிக்க	-3129
▁பிரார்த்தனை	-3130
▁மனுதாரர்கள்	-3131
▁உத்தரவுக்கு	-3132
▁மேல்முறையீட்டை	-3133
▁ரோ	-3134
டா	-3135
▁தெரிவித்தார்	-3136
மிகு	-3137
▁கருதி	-3138
த்தெ	-3139
▁ஏல	-3140
▁அபிவி	-3141
▁மாறுப	-3142
சர	-3143
▁ஆகியவற்றில்	-3144
▁தோல்விய	-3145
▁வாய்ந்த	-3146
▁இயந்திர	-3147
▁உயர்த்த	-3148
▁அவள	-3149
;.	-3150
▁வேறுபாடு	-3151
த்துள்ளார்	-3152
▁பள்ளி	-3153
▁கம்ப	-3154
னையில்	-3155
மடைந்த	-3156
▁அரு	-3157
▁கூற்றுப்படி	-3158
ூட்டிய	-3159
▁SC	-3160
ரைஞ	-3161
▁துறையில்	-3162
▁நாள்	-3163
▁அறிக்கையின்	-3164
ாகவும்	-3165
▁தயாரிப்பு	-3166
▁குறிக்கும்	-3167
▁நுகர்வ	-3168
▁முயன்ற	-3169
ரிசீல	-3170
னோ	-3171
▁மனதில்	-3172
▁ஒதுக்கீடு	-3173
▁இஸ்ரே	-3174
▁மீட்க	-3175
▁பவன்	-3176
ாலி	-3177
▁ஒட்டுமொத்த	-3178
▁அட்டவணை	-3179
▁உரிமையாளர்	-3180
ரிக	-3181
ியால்	-3182
▁ஆயுள்	-3183
▁மேலாண்மை	-3184
▁சாலை	-3185
▁விடுவி	-3186
▁செயலாளர்	-3187
▁வழக்குரைஞ	-3188
▁வேண்டுமெ	-3189
▁மறுபரிசீல	-3190
▁நிச்சயமாக	-3191
ூட	-3192
▁பை	-3193
▁ரயில்	-3194
▁தனித்த	-3195
▁திருத்தப்பட்ட	-3196
▁மீட்ப	-3197
▁அனும	-3198
வான்	-3199
ிர்	-3200
▁இழப்பு	-3201
▁ஐக்கிய	-3202
▁சாள	-3203
▁விட்டு	-3204
▁இருப்பு	-3205
தல்ல	-3206
்புமிகு	-3207
▁கடிதம்	-3208
த்தட்ட	-3209
▁நிலையை	-3210
▁பிள	-3211
ோள	-3212
▁ஜாமீன்	-3213
▁அருக	-3214
▁கிட்ட	-3215
ப்படிய	-3216
▁குறுக	-3217
▁ரச	-3218
▁சமுத	-3219
▁சமுதாய	-3220
▁நபருக்கு	-3221
▁மாண்புமிகு	-3222
▁தொடர்ச்சியான	-3223
▁நேர்	-3224
▁பிரண	-3225
▁மட்டும்	-3226
▁மூன்றாம்	-3227
▁செய்யவில்லை	-3228
▁வேல	-3229
▁விற்க	-3230
▁தொடர்ந்த	-3231
▁பிரச்சார	-3232
IR	-3233
▁சொத்தின்	-3234
னிமேல்	-3235
ையானது	-3236
▁இருப்பது	-3237
▁வாழ்த்துக்க	-3238
▁பிரணாப்	-3239
▁அழைத்து	-3240
▁கோரி	-3241
▁ஆற்ற	-3242
▁பதிவ	-3243
காரா	-3244
ணிப்பு	-3245
தியால்	-3246
▁பகுதியை	-3247
▁பிணை	-3248
க்குவி	-3249
▁சாட்ட	-3250
ிலுள்ள	-3251
▁குவ	-3252
லாத	-3253
தூ	-3254
▁சூழ்நிலைகள்	-3255
▁அவ்வ	-3256
ுக்கிட	-3257
▁அளவிலான	-3258
▁சிறு	-3259
▁அமைக்கப்பட்ட	-3260
ர்ச்சி	-3261
வாய	-3262
▁வரிய	-3263
ியுள்ள	-3264
▁குறைவாக	-3265
ேற்க	-3266
▁ஆரம்பத்தில்	-3267
சார்	-3268
▁இருக்கும்போது	-3269
▁திசை	-3270
▁வலது	-3271
▁எதிர்	-3272
ியோக	-3273
மிட்ட	-3274
▁வகையான	-3275
▁பேச்சுவ	-3276
மாகவோ	-3277
▁கழ	-3278
த்தான	-3279
▁துன்ப	-3280
▁அமைப்ப	-3281
▁பாதிக்க	-3282
விக்கும்	-3283
▁கொடுப்பன	-3284
ேயான	-3285
▁இடமாற்ற	-3286
▁வெளிச்சத்தில்	-3287
▁நீதிபதியின்	-3288
தாவது	-3289
▁பொதும	-3290
▁பயண	-3291
▁மறுபரிசீலனை	-3292
▁ஊக்குவி	-3293
த்தன	-3294
▁சொத்தை	-3295
▁பதிலளித்தவரின்	-3296
போதிலும்	-3297
▁இடது	-3298
,00	-3299
▁உப	-3300
▁கவலை	-3301
▁புர	-3302
▁பிப்ரவரி	-3303
▁மும்ப	-3304
▁குறுக்கு	-3305
▁சீர்திருத்த	-3306
▁முன்கூட்டிய	-3307
▁ஒப்பந்தத்தில்	-3308
ம்மு	-3309
▁யார	-3310
▁பறிமுதல்	-3311
▁மாதங்களுக்கு	-3312
▁இறக்குமதி	-3313
▁முன்மொழியப்பட்ட	-3314
▁தரவு	-3315
▁இந்து	-3316
▁வார்த்தைகளில்	-3317
▁சொத்துக்களை	-3318
▁அரசால்	-3319
விதி	-3320
▁இல்லைய	-3321
▁கையா	-3322
▁காவல்	-3323
▁வலைத்தளம்	-3324
▁செய்யப்பட்டன	-3325
▁உள்க	-3326
ங்ட	-3327
▁...	-3328
▁உத்தியோக	-3329
▁அறிவு	-3330
▁செய்வதில்	-3331
ிரா	-3332
▁தன்னிச்ச	-3333
▁இறந்தவர்	-3334
▁பதிவுசெய்த	-3335
▁சட்டப்பூர்வ	-3336
ியும்	-3337
▁செய்தல்	-3338
▁அணி	-3339
▁வாக்குமூலம்	-3340
▁மந்த	-3341
▁சிகிச்சை	-3342
ஸ்தான்	-3343
▁கிடைக்கும்	-3344
▁திறமையான	-3345
▁பிரமாண	-3346
▁அலகு	-3347
▁கலா	-3348
▁காலாவ	-3349
▁சிறைத்தண்டனை	-3350
▁நிலைப்பாடு	-3351
ங்கால	-3352
ஞ்சு	-3353
▁நம்பிக்கை	-3354
மூ	-3355
▁குற்றத்தின்	-3356
▁விதிக்கப்பட்ட	-3357
▁குறிப்பிட்டார்	-3358
க்கை	-3359
▁மேற்கு	-3360
ராள	-3361
▁சதித்திட்ட	-3362
▁இல்லையா	-3363
▁நாட்கள்	-3364
▁அடுத்தடுத்த	-3365
▁சாளரத்தில்	-3366
▁கிட்டத்தட்ட	-3367
▁நிலத்தின்	-3368
சம்	-3369
▁அவமதி	-3370
▁மறுபுறம்	-3371
▁உருவாக்கப்பட்ட	-3372
மற்றது	-3373
ாட்டைக்	-3374
▁தகரா	-3375
▁பிசி	-3376
▁மீதம	-3377
▁உடன்படிக்க	-3378
▁காயம்	-3379
▁கருவி	-3380
▁ஹெ	-3381
▁அனுமதிக்கப்பட	-3382
▁நலனுக்காக	-3383
▁அவசியமில்லை	-3384
▁தயார	-3385
▁குறுகிய	-3386
ட்டுள்ளது	-3387
▁நாக	-3388
▁மகாரா	-3389
ங்களது	-3390
ையாகும்	-3391
ிருப்பது	-3392
▁உரையா	-3393
▁பிரதிபல	-3394
▁உத்தரவாதம்	-3395
ாளர்களை	-3396
▁குற்றப்ப	-3397
▁மேலாக	-3398
ார்ட்	-3399
▁மெட்	-3400
ஜா	-3401
▁ஈர்க்க	-3402
டிக்கும்	-3403
▁கண்காண	-3404
▁வேறுபட்ட	-3405
▁அவசர	-3406
▁மீதமுள்ள	-3407
▁சமூகத்தின்	-3408
▁மோட்டார்	-3409
▁உத்தரவுகளை	-3410
▁பதில்	-3411
▁பெயர்	-3412
▁எதிர்த்து	-3413
▁கர்நாடக	-3414
▁அங்கீகரி	-3415
▁உள்கட்ட	-3416
▁ஆணையத்தின்	-3417
ோட	-3418
வொ	-3419
▁எண்ணெய்	-3420
▁இஸ்ர	-3421
▁ஊழியர்கள்	-3422
▁உலகள	-3423
▁ஏராள	-3424
ர்களுக்கான	-3425
▁உதவு	-3426
▁ஆதரி	-3427
▁தேதியில்	-3428
எச்	-3429
ொடர்ப	-3430
த்திருக்க	-3431
▁திறக்கும்	-3432
▁பேச்சுவார்த்த	-3433
▁விதிமுறைகளை	-3434
கட	-3435
ச்சி	-3436
டுக்கு	-3437
▁கூறப்படுகிறது	-3438
▁விரிவா	-3439
▁வலி	-3440
▁காவலில்	-3441
▁அந்	-3442
விகி	-3443
▁இதேபோல்	-3444
▁ஆட்சி	-3445
▁மொழிய	-3446
▁இரண்டாம்	-3447
▁நோக்கத்தை	-3448
▁நீதிமன்றங்களின்	-3449
ரமாக	-3450
▁கவுன்சில்	-3451
▁வலுவ	-3452
ிருக்கிற	-3453
▁அபிவிருத்தி	-3454
▁கமிஷ	-3455
▁இலங்க	-3456
▁மசோதா	-3457
ர்களுக்கும்	-3458
சட்ட	-3459
▁பயங்கரவாத	-3460
▁சரிபார்க்க	-3461
▁குடியிரு	-3462
▁செய்வதன்	-3463
▁நிவாரணம்	-3464
லோ	-3465
பாத்	-3466
▁படம்	-3467
▁ஒப்பந்தத்தை	-3468
ண்ப	-3469
ிக்கவும்	-3470
▁மனைவி	-3471
▁கையாள்வ	-3472
▁அனைத்தும்	-3473
▁முடிவில்	-3474
க்களில்	-3475
▁இஸ்ரவே	-3476
▁குறைபாடு	-3477
ரிடமிருந்து	-3478
ரப்பு	-3479
க்குப்	-3480
ப்பதற்கும்	-3481
ியிட	-3482
▁ஒருபோதும்	-3483
▁காவல்துற	-3484
▁கூடுதலாக	-3485
ங்களிலிருந்து	-3486
es	-3487
iv	-3488
▁விவே	-3489
▁இருக்கிறது	-3490
▁சுயாதீன	-3491
வதற்கு	-3492
புதிய	-3493
▁சென்று	-3494
▁விடுவிக்கப்பட்ட	-3495
ச்சு	-3496
▁தாவ	-3497
▁காண்க	-3498
▁பிரே	-3499
மல்	-3500
டம்	-3501
▁வழங்கப்படுகிறது	-3502
வாங்க	-3503
▁அவருடைய	-3504
.)	-3505
சீர	-3506
▁எச்	-3507
▁இருந்தபோதிலும்	-3508
▁நீதிமன்றத்தை	-3509
▁பிரான்	-3510
ப்படுத்தும்	-3511
▁ஏழு	-3512
▁வன	-3513
ெல்லாம்	-3514
▁அதிகரிக்க	-3515
▁வரையறுக்கப்பட்ட	-3516
▁எப்போதும்	-3517
▁முறையான	-3518
▁கலாச்சார	-3519
▁கருதப்படுகிறது	-3520
▁நிறுவனத்திற்கு	-3521
▁கொள்கையின்	-3522
▁சிபிஐ	-3523
▁வழங்குவதற்காக	-3524
▁குற்றப்பத்தி	-3525
ழ்ச்சிய	-3526
▁பகுதிகளில்	-3527
▁அக்கறை	-3528
▁இளை	-3529
▁சர	-3530
▁Vs	-3531
வைப்	-3532
ர்களில்	-3533
ழ்வு	-3534
▁இலவச	-3535
▁வழிவகுக்கும்	-3536
▁நடவடிக்கைகளின்	-3537
▁பெரும்பால	-3538
▁மன்ன	-3539
▁அனுமான	-3540
▁வடிவத்தில்	-3541
▁பின்னணியில்	-3542
at	-3543
▁ஆணையர்	-3544
▁பதிவில்	-3545
ஜரா	-3546
ரையும்	-3547
▁கோரிய	-3548
▁அந்தந்த	-3549
▁தலைப்பு	-3550
▁பிரதான	-3551
;,	-3552
வந்த	-3553
▁அட்	-3554
▁கன	-3555
சர்வ	-3556
▁எழுதிய	-3557
▁நபர்களின்	-3558
▁மருந்து	-3559
▁உடைமை	-3560
,000	-3561
ாக்கு	-3562
▁சேவையில்	-3563
▁விடுதலை	-3564
▁விரிவாக	-3565
▁அறிந்து	-3566
▁ஆவணங்கள்	-3567
▁போலீஸ்	-3568
ப்படுவதை	-3569
▁கட்டுப்பாட்டு	-3570
ப்பரா	-3571
ுடனும்	-3572
த்திற்குப்	-3573
இந்த	-3574
▁தன்னுடைய	-3575
▁பதிலளித்தவர்கள	-3576
▁ஏற்றுமதி	-3577
▁அந்தக்	-3578
▁பெண்கள்	-3579
▁கருத்த	-3580
▁மறுசீர	-3581
▁ஏற்படும்	-3582
முறையை	-3583
ாகக்	-3584
▁அறிவிக்க	-3585
▁தேதியிலிருந்து	-3586
▁ஆரோ	-3587
▁விஷயம்	-3588
ட்டில்	-3589
▁பரிசோதனை	-3590
▁உதவ	-3591
▁உழை	-3592
▁தற்போதுள்ள	-3593
▁ஆட்சேர்ப்பு	-3594
ொண்டார்	-3595
▁மதிப்பீட்டாளர்	-3596
▁இதுவரை	-3597
ாவிய	-3598
மினல்	-3599
ஷ்ண	-3600
▁அல்லாத	-3601
▁புறக்கண	-3602
▁பட்டியலில்	-3603
ன்றே	-3604
▁துப்பா	-3605
▁எழுத	-3606
ியூ	-3607
----	-3608
▁கால்	-3609
▁தலையிட	-3610
▁மானிய	-3611
▁நாளிலிருந்து	-3612
க்குள்	-3613
ியுள்ளார்	-3614
▁கையாளும்	-3615
▁பஞ்சாப்	-3616
▁செய்கிறது	-3617
ஜன	-3618
▁என்னை	-3619
▁ஆகியவற்றைக்	-3620
▁தயாராக	-3621
▁கலந்துரையா	-3622
▁விண்ணப்பதார	-3623
▁வகையிலும்	-3624
▁பெறும்	-3625
▁உத்தியோகபூர்வ	-3626
சே	-3627
▁பதவியில்	-3628
▁எச்சரிக்க	-3629
▁சர்ச்சை	-3630
▁நூற்ற	-3631
▁பக்கம்	-3632
▁ஏனென்றால்	-3633
▁நொ	-3634
▁முடிவுகளை	-3635
ிருந்தனர்	-3636
▁அறிக்கைகள்	-3637
▁சாதி	-3638
த்தனர்	-3639
▁கிரிமினல்	-3640
▁பால்	-3641
▁குஜரா	-3642
▁செயல்	-3643
▁சதவிகி	-3644
▁வாடிக்க	-3645
▁டால	-3646
▁இணக்க	-3647
டுப்பது	-3648
▁பரவ	-3649
▁இளைஞ	-3650
▁மரிய	-3651
▁மாதிரி	-3652
▁ஒத்த	-3653
▁நிரப்ப	-3654
▁செய்துள்ளது	-3655
ப்படுவார்	-3656
▁அந்தச்	-3657
▁அறிவிப்பின்	-3658
▁இரத்த	-3659
ன்த	-3660
▁சேம	-3661
▁குறைவான	-3662
▁விகிதத்தில்	-3663
▁பற	-3664
▁தனக்கு	-3665
▁சார்பில்	-3666
▁உறவு	-3667
▁கோட்பாடு	-3668
▁அதிகாரப்பூர்வ	-3669
ாவ்	-3670
ப்பிர	-3671
▁கொல்ல	-3672
▁ஆழ	-3673
▁சங்கம்	-3674
▁செய்தனர்	-3675
▁தோற்ற	-3676
▁உண்மைகளை	-3677
▁முன்கூட்டியே	-3678
▁ஊதியம்	-3679
▁பத்தியில்	-3680
வுப	-3681
த்தறி	-3682
▁விஷயங்களில்	-3683
▁வன்	-3684
▁கேரள	-3685
▁உத்தரவில்	-3686
▁ஆய்வ	-3687
▁ஏராளமான	-3688
▁காலியிட	-3689
▁காலத்திற்குள்	-3690
ுவதாக	-3691
▁நீதித்துற	-3692
▁சூழ்நிலையில்	-3693
▁போதிலும்	-3694
▁சேத	-3695
▁விட்ட	-3696
்க்	-3697
யில	-3698
१२	-3699
▁எண்ணிக்கை	-3700
▁என்பதற்கு	-3701
ரக	-3702
ப்பொரு	-3703
▁முற்ப	-3704
▁மகாராஷ்டிர	-3705
த்தன்மையை	-3706
▁அமைச்சகம்	-3707
▁வெளியிடப்பட்ட	-3708
ையோ	-3709
▁லெ	-3710
்ப்பு	-3711
கமான	-3712
ள்ளது	-3713
பொ	-3714
▁பணிபு	-3715
ப்பதற்காக	-3716
▁பிடி	-3717
▁காரணி	-3718
▁நாளில்	-3719
▁வரிச	-3720
▁குற்றவாள	-3721
லைக்	-3722
▁நிபந்தனைகள்	-3723
நக	-3724
▁வியா	-3725
▁வருவாய	-3726
குந்த	-3727
▁முடிவுகள்	-3728
ரூ	-3729
க்கப்பட்டு	-3730
▁மூன்றாவது	-3731
▁பெறுவதற்கான	-3732
▁அரசாங்கத்தால்	-3733
▁கூறுவ	-3734
▁உரிமம்	-3735
▁பாரபட்ச	-3736
▁முடியுமா	-3737
விட்டார்	-3738
ர்க்	-3739
▁தேவையற்ற	-3740
▁வெளியிடுவ	-3741
▁செலவின	-3742
▁திருமணம்	-3743
ரியா	-3744
▁இருப்பதை	-3745
▁சவு	-3746
▁சதவீதம்	-3747
தோ	-3748
▁ஸ்ப	-3749
ic	-3750
குற	-3751
▁ஏற்படுத்தும்	-3752
▁கொள்கைகளை	-3753
▁Cr	-3754
▁கவுன்சில	-3755
▁பதிலளிப்ப	-3756
ங்கில	-3757
ெக்ட	-3758
குற்ற	-3759
▁அவ்வப்போது	-3760
▁அதனுடன்	-3761
ிலேயே	-3762
▁ஊக்குவ	-3763
ாளரால்	-3764
ப்படாது	-3765
▁கட்சிகளின்	-3766
ஷ்ப	-3767
▁குற்றங்கள்	-3768
▁நிறைவேற்றிய	-3769
▁சாட்சிகளின்	-3770
க்கப்படவில்லை	-3771
▁விஷயங்கள்	-3772
▁சீன	-3773
▁இடங்களில்	-3774
▁தேவைப்படும்	-3775
ீர்கள்	-3776
▁சவால	-3777
▁சட்டத்திற்கு	-3778
▁எதிர்க்க	-3779
இனிமேல்	-3780
▁ஆலோசகரின்	-3781
▁பரப்ப	-3782
ப்புரிமை	-3783
▁வைத்திருக்கும்	-3784
▁பழங்கு	-3785
▁தனித்துவ	-3786
▁ஆலை	-3787
ஷிங்ட	-3788
▁வைத்து	-3789
கசிய	-3790
▁அறிவியல்	-3791
▁விவரங்கள்	-3792
▁பெரும்பாலான	-3793
▁மூட	-3794
▁கவனி	-3795
▁ரூபாய்	-3796
▁வாடிக்கைய	-3797
▁பிரமாணப்	-3798
▁சது	-3799
▁சென்	-3800
▁தனியுரிமை	-3801
▁ஆண்டுகளாக	-3802
▁எழுந்த	-3803
▁ஆன	-3804
▁நிலக்க	-3805
▁வேண்டுமென்றே	-3806
ேஷ்	-3807
▁சப்	-3808
▁ஒழுங்குபடுத்த	-3809
▁முத்திர	-3810
▁செய்வதற்காக	-3811
▁செய்வதற்கும்	-3812
▁ஆதார்	-3813
is	-3814
▁அமைப்பின்	-3815
▁தகராறு	-3816
▁அர	-3817
▁கவனம்	-3818
▁வழக்குகளை	-3819
ட்படுத்த	-3820
▁யோ	-3821
▁வாஷிங்ட	-3822
▁அறக்கட்டளை	-3823
▁இருப	-3824
▁அதிகாரிகளின்	-3825
▁நபரை	-3826
▁பெயரில்	-3827
▁செயல்படும்	-3828
▁காட்டப்பட்ட	-3829
நாடு	-3830
▁காசோலை	-3831
▁ஹை	-3832
ஹி	-3833
▁திட்டங்களை	-3834
ோபாய	-3835
க்கின்	-3836
▁கைப்பற்ற	-3837
▁நீதியின்	-3838
▁பிரிவுகளின்	-3839
▁குடியிருப்பு	-3840
க்தி	-3841
▁ஹரியான	-3842
▁கிராமப்புற	-3843
▁சொற்கள	-3844
▁உலகளாவிய	-3845
்களையும்	-3846
▁எதிர்கொள்ள	-3847
ிருக்கலாம்	-3848
வரால்	-3849
▁செய்யலாம்	-3850
க்கும்போது	-3851
▁வீடியோ	-3852
▁வரையிலான	-3853
▁உறுதிய	-3854
▁முன்னுரிமை	-3855
நெ	-3856
▁வரம்பை	-3857
▁வீட்டு	-3858
▁வழங்கியது	-3859
திக்க	-3860
▁சமரச	-3861
▁எக்	-3862
▁கடைசி	-3863
▁காணவில்லை	-3864
▁நாட்களுக்குள்	-3865
▁மக்களுக்கு	-3866
▁செயல்பாட்டு	-3867
▁ஆளும்	-3868
▁விற்பனைய	-3869
▁குத்தகைதாரர்	-3870
ருப்பு	-3871
▁வரையறை	-3872
மையையும்	-3873
▁தங்க	-3874
குதியில்	-3875
▁நிறைவேற்று	-3876
ிழ	-3877
▁o	-3878
முடியாத	-3879
▁அறிவிப்ப	-3880
▁செய்யப்பட்டு	-3881
க்ஷ	-3882
▁பஞ்சாய	-3883
▁பாராளுமன்றம்	-3884
▁பழைய	-3885
▁ஈராக்	-3886
▁பங்களிப்பு	-3887
▁மாதம்	-3888
▁காங்க	-3889
▁காரணத்திற்காக	-3890
ணைக்கள	-3891
▁நிர்வாகத்தின்	-3892
▁அமைச்சர்	-3893
தீ	-3894
ட்டோ	-3895
▁கிடைத்த	-3896
▁ஃ	-3897
▁தரம்	-3898
▁ஆங்கில	-3899
ங்கா	-3900
▁நாடாளுமன்ற	-3901
▁மிகப்பெ	-3902
▁ஊழியர்	-3903
▁கொண்டிருக்கும்	-3904
சாரி	-3905
▁ஒத்தி	-3906
▁குறைக்க	-3907
▁ஆதரவ	-3908
ம்பரிய	-3909
▁பகுப்பாய்வு	-3910
டூ	-3911
▁மதிப்பெ	-3912
மயமாக்க	-3913
ஜெ	-3914
▁கவனித்தது	-3915
▁நம்பர்	-3916
▁அழைத்துச்	-3917
ராஸ்	-3918
ப்படியான	-3919
லால்	-3920
ல்லிய	-3921
▁தொடர்புடையது	-3922
சர்வ்	-3923
▁நியூ	-3924
▁திணைக்கள	-3925
▁ஏன்	-3926
▁பங்குதார	-3927
▁காலத்தில்	-3928
▁ஆன்	-3929
▁சொந்தமான	-3930
ப்படாவிட்டால்	-3931
▁மாக	-3932
▁மூலமும்	-3933
▁அதிகபட்ச	-3934
▁பிந்தைய	-3935
வ்வ	-3936
ுவை	-3937
▁நிலுவைத்	-3938
▁சண்ட	-3939
▁ஜீ	-3940
▁முன்னதாக	-3941
▁சமீபத்திய	-3942
▁கட்டுரைகள்	-3943
▁நான்க	-3944
▁தெளிவாகக்	-3945
▁இல்லையெனில்	-3946
▁கலால்	-3947
▁உங்களுக்கு	-3948
்தா	-3949
▁முன்னணி	-3950
▁உச்சநீதிமன்றம்	-3951
▁உள்ளனர்	-3952
▁தகுதியற்ற	-3953
▁அன்ப	-3954
▁பாரம்பரிய	-3955
ெக்டர்	-3956
▁பதவிக்கு	-3957
நிறுவ	-3958
ப்படுத்துதல்	-3959
▁விம	-3960
▁சேர்க்கை	-3961
▁மரியாத	-3962
▁எதையும்	-3963
▁பிரெ	-3964
தானால்	-3965
▁என்பதுதான்	-3966
▁ஒழுக்க	-3967
▁பத்து	-3968
▁தக்கவை	-3969
▁மறைமுக	-3970
▁பகுத்தறி	-3971
க்குவது	-3972
▁அழைக்க	-3973
▁தாக்குதல்	-3974
▁வல்ல	-3975
த்தக்கது	-3976
▁சார்ந்த	-3977
▁பிரச்சினைகள்	-3978
▁அத்தியாயம்	-3979
▁கணக்கிட	-3980
▁தகவல்கள்	-3981
▁முடியாதது	-3982
▁எல்லைக்குள்	-3983
னைக்	-3984
மையும்	-3985
ட்டின்	-3986
▁முன்மொழி	-3987
ப்பிடி	-3988
▁லா	-3989
▁விபத்து	-3990
▁பார்வைய	-3991
▁பெரும்பாலும்	-3992
ஞ்	-3993
▁ரயில்வே	-3994
க்கப்படலாம்	-3995
▁உரிமைகோரல்	-3996
▁சொத்துக்கள்	-3997
▁ஓர	-3998
▁கிழக்கு	-3999
▁பிரை	-4000
▁மீறி	-4001
▁உள்ளதா	-4002
▁மரணம்	-4003
த்துவிட்ட	-4004
▁யார்	-4005
▁செலவுகள்	-4006
யி	-4007
▁முறையே	-4008
ணு	-4009
▁)	-4010
▁கோப	-4011
▁கட்டுர	-4012
▁தடைசெய்ய	-4013
▁தடுத்து	-4014
▁அனைவரும்	-4015
▁அடமான	-4016
ைக்குரிய	-4017
▁நீக்கம்	-4018
▁பிரித்தெ	-4019
].	-4020
▁செல்வா	-4021
▁ரிசர்வ்	-4022
▁கடுமையாக	-4023
ையின	-4024
▁காங்கிர	-4025
▁அதிப	-4026
ிற்காக	-4027
▁ஆரோக்கிய	-4028
▁குழந்தைகள்	-4029
▁மாட்ட	-4030
▁சம்பள	-4031
ாமி	-4032
சூப்பரா	-4033
▁வாங்கிய	-4034
▁வாரி	-4035
▁வேளா	-4036
▁விரும்பும்	-4037
ீடுகள்	-4038
▁தவறிய	-4039
▁என்பதற்கான	-4040
▁செயல்பாட்டில்	-4041
ல்களில்	-4042
▁இறுதியாக	-4043
▁கோரிக்கையை	-4044
▁தாமதம்	-4045
▁அளிக்கப்பட்ட	-4046
▁சட்டமன்றத்தின்	-4047
▁சோத	-4048
▁நாடுகள்	-4049
குதி	-4050
ணர்வு	-4051
▁வேதனை	-4052
▁நம்புக	-4053
▁ஆந்திர	-4054
▁லாப	-4055
▁வகுப்பு	-4056
▁பயன்படுத்து	-4057
▁v	-4058
ிலிருந்தும்	-4059
▁மந்திரி	-4060
▁கொள்கைகள்	-4061
▁தெரிவ	-4062
ுள்ளோம்	-4063
▁உறுதியான	-4064
▁ஒன்றாக	-4065
▁விதிகளின்படி	-4066
▁உள	-4067
▁அளி	-4068
▁நாணய	-4069
▁படிவ	-4070
▁மாநிலங்கள்	-4071
ப்படுத்துகிறது	-4072
டர்	-4073
▁ஜனநாயகக்	-4074
▁வரைவு	-4075
▁கட்டளைய	-4076
▁குறிப்பிடுவ	-4077
லைப்	-4078
ுற்ற	-4079
க்கவில்லை	-4080
ப்பதை	-4081
▁....	-4082
ெற்ற	-4083
▁இயக்குனர்	-4084
▁நடந்து	-4085
▁அமெரிக்காவின்	-4086
▁மின்ன	-4087
▁விளைய	-4088
▁அதற்கான	-4089
ப்பான	-4090
▁கூட்டத்தில்	-4091
▁மும்பை	-4092
▁பாதுகாப்பை	-4093
▁தடைய	-4094
▁திரை	-4095
▁தமிழ	-4096
னைப்	-4097
▁ஆர்ப்ப	-4098
▁நுகர்வோர்	-4099
▁AIR	-4100
▁போதுமானதாக	-4101
▁கூடிய	-4102
▁பின்த	-4103
▁மகாராஷ்டிரா	-4104
▁உர	-4105
▁ஆப்க	-4106
ராட்சி	-4107
▁மிகக்	-4108
▁பயன்படுத்தப்பட	-4109
▁அதேபோல்	-4110
ண்டி	-4111
▁நினைவு	-4112
▁தவிர்ப்ப	-4113
ப்படுகிறார்	-4114
▁அதிகாரங்கள்	-4115
▁மகன்	-4116
▁சேகரி	-4117
▁எதிர்பார	-4118
▁சை	-4119
ர்மற	-4120
வெளி	-4121
▁ஏக்க	-4122
▁வேண்டுமா	-4123
▁தலைமைய	-4124
ரியின்	-4125
▁முன்னெ	-4126
▁குஜராத்	-4127
▁குறைந்தபட்சம்	-4128
ப்பாடு	-4129
▁அவற்றை	-4130
▁பவன	-4131
▁குடியரசு	-4132
கூ	-4133
▁காயமடைந்த	-4134
▁கண்	-4135
▁செயல்திறன்	-4136
▁விரைவாக	-4137
ப்படுகிறார்கள்	-4138
▁படைய	-4139
▁ரஷ்	-4140
▁அங்கீகாரம்	-4141
▁வீட்டிற்கு	-4142
▁க்கும்	-4143
▁வருமானத்தை	-4144
▁காலக	-4145
▁உட்க	-4146
▁ஒன்றாகும்	-4147
▁ஹரியானா	-4148
▁வலுவான	-4149
▁அந்நிய	-4150
▁சம்பவம்	-4151
ிடபிள்யூ	-4152
▁வருங்கால	-4153
▁பத்திரம்	-4154
▁சாட்சிகள்	-4155
▁முன்னில	-4156
ற்செய	-4157
▁கத	-4158
▁இந்தப்	-4159
▁கொடுத்து	-4160
▁வெற்றிக	-4161
▁உரிமைகோருப	-4162
AR	-4163
▁உத்தரவுகள்	-4164
▁வடிவமைக்கப்பட்ட	-4165
▁தந்தை	-4166
▁ஆராய்ந்த	-4167
▁கொண்டிருந்த	-4168
ஐடி	-4169
▁நிகழ	-4170
ழிப்பு	-4171
நீக்கம்	-4172
ாளிகள்	-4173
▁ஆணையை	-4174
சுருக்க	-4175
ரைக்	-4176
▁இலிருந்து	-4177
▁வேலைவாய்ப்பு	-4178
▁வழங்குவதில்	-4179
ண்டர்	-4180
▁இங்கிலா	-4181
▁ஒளி	-4182
ர்களைக்	-4183
ுவிட்டது	-4184
▁வரிவிதி	-4185
▁அரி	-4186
▁அனுபவ	-4187
மூலம்	-4188
பை	-4189
▁१	-4190
்டு	-4191
▁ன்	-4192
▁செருக	-4193
▁அதிகாரசப	-4194
திப	-4195
ிட்டல்	-4196
ிஸ்தான	-4197
▁முன்பே	-4198
க்குவதற்கு	-4199
ப்பாக	-4200
▁பாகுப	-4201
▁வழங்குந	-4202
▁தனித்துவமான	-4203
▁இதேபோன்ற	-4204
▁ஊழல்	-4205
டுக	-4206
▁தங்களது	-4207
▁ஸ்தாப	-4208
▁மனுதாரரின்	-4209
▁கூறப்பட்டது	-4210
▁சமூகம்	-4211
▁தெளிவாகத்	-4212
▁வங்கியின்	-4213
▁ப்	-4214
ாவிற்கு	-4215
▁மேம்பாடு	-4216
ஞ்ஞான	-4217
▁வாதத்தை	-4218
▁இனி	-4219
▁சுற்றற	-4220
▁ஆர்ப்பாட்ட	-4221
▁நபர்களுக்கு	-4222
▁விண்ணப்பதாரர்	-4223
▁எஸ்ட	-4224
▁உள்கட்டமைப்பு	-4225
ரிக்	-4226
▁வெற்றிட	-4227
த்தள	-4228
▁வக்கீல்	-4229
மயம்	-4230
ப்பர்	-4231
▁அப்பாற்ப	-4232
ருஷ்ண	-4233
ாண்டு	-4234
▁தன்னார்வ	-4235
ின்றது	-4236
▁விருப்பப்படி	-4237
▁கான்	-4238
▁ஏற்பட	-4239
▁உள்ளடக்க	-4240
▁கொண்டுவர	-4241
▁பெஞ்சின்	-4242
▁விழு	-4243
▁ஆலோசனையை	-4244
३०	-4245
▁நவீன	-4246
▁மனுக்கள்	-4247
▁விவகாரம்	-4248
▁அரசாங்கத்திற்கு	-4249
சரி	-4250
ல்களின்	-4251
▁துணைப்பிரிவின்	-4252
▁பிறந்த	-4253
ரன்	-4254
▁கூறுவதானால்	-4255
▁தாது	-4256
▁தடுப்ப	-4257
▁வழியில்	-4258
▁பயன்படுத்தி	-4259
▁ஆசிய	-4260
▁புரிந்துக	-4261
▁படித்த	-4262
▁பீ	-4263
அரச	-4264
த்ய	-4265
ுறுத்து	-4266
தண்டனை	-4267
▁பம்பாய்	-4268
▁தவிர்த்த	-4269
▁பங்கேற்ப	-4270
ப்பட்டுள்ளபடி	-4271
▁பார்க்கும்போது	-4272
ியளவில்	-4273
டெ	-4274
▁வாதம்	-4275
▁தற்செய	-4276
▁அரை	-4277
▁பெற்றார்	-4278
ிருக்கிறார்	-4279
▁அரசியலமைப்பை	-4280
லீ	-4281
ட்ரோ	-4282
▁சேவையை	-4283
▁உத்தரவிட	-4284
▁புகை	-4285
▁விஞ்ஞான	-4286
▁திருப்பிச்	-4287
▁மனுதாரருக்கு	-4288
ர்களுடன்	-4289
▁விருப்பம்	-4290
▁மட்ட	-4291
ளிய	-4292
▁விகிதம்	-4293
ோசி	-4294
▁கொடூ	-4295
மேல்முறைய	-4296
▁குறியீட்டின்	-4297
ேலிய	-4298
▁உறுப்பினராக	-4299
▁இணைந்து	-4300
வதை	-4301
▁கருத்துக்களை	-4302
ிப்பதன்	-4303
▁மூலோபாய	-4304
▁ஷா	-4305
ுமாறு	-4306
▁உதவும்	-4307
▁கொள்	-4308
▁தெளிவுப	-4309
டாக	-4310
▁இரவு	-4311
வார	-4312
ேயுள்ள	-4313
நேர	-4314
▁கூடாது	-4315
▁ஊழியர்களின்	-4316
னல்	-4317
▁இந்தத்	-4318
▁பற்றாக்கு	-4319
▁பிழை	-4320
▁அல்	-4321
ாந்திர	-4322
தாகத்	-4323
ன்கள்	-4324
ீகார்	-4325
▁வழங்குதல்	-4326
▁மாற்றம்	-4327
▁செலுத்தும்	-4328
▁அசோ	-4329
▁அனுபவம்	-4330
▁கட்சிகளுக்கு	-4331
ாயிர	-4332
▁லால்	-4333
▁கொள்ளும்	-4334
▁ஆளுநர்	-4335
▁நோட்ட	-4336
▁சொற்கள்	-4337
த்தின்படி	-4338
ப்பட்டனர்	-4339
சக்தி	-4340
ஸ்திரேலிய	-4341
ூரில்	-4342
▁ஒன்றை	-4343
▁அமைந்துள்ள	-4344
▁சாத்தியமான	-4345
காஷ்	-4346
▁அதிகாரங்களைப்	-4347
▁இருக்கக்கூடாது	-4348
▁முஸ்	-4349
▁சந்தர்ப்பத்தில்	-4350
▁முறையீடுகள்	-4351
வேட்	-4352
க்காவ	-4353
▁தல	-4354
▁மணியளவில்	-4355
யை	-4356
▁வாய்ப்பை	-4357
▁போலீ	-4358
▁விதிமுற	-4359
ஸி	-4360
▁xx	-4361
▁சட்டங்களின்	-4362
▁குறிப்பிடுவது	-4363
▁அணுகுமுறை	-4364
▁உயிர	-4365
▁அனைவருக்கும்	-4366
▁செல்லும்	-4367
▁துப்பாக்கி	-4368
▁பாதிக்கும்	-4369
▁இந்தியாவுக்கு	-4370
ரைப்	-4371
சமயம்	-4372
ம்பண்ண	-4373
▁தயாரிப்ப	-4374
▁இழந்த	-4375
▁மது	-4376
த்தைச்	-4377
▁காட்சி	-4378
▁தயாரிக்கப்பட்ட	-4379
ாதான	-4380
▁கையாண்ட	-4381
ொடர்பு	-4382
்களும்	-4383
▁பெறுவ	-4384
▁அதேசமயம்	-4385
சுருக்கமாக	-4386
▁விளம்பரம்	-4387
▁மருத்துவமனை	-4388
▁தண்டனைக்குரிய	-4389
▁ஏற்பட்டது	-4390
த்திலே	-4391
ரியில்	-4392
▁போன	-4393
▁இலக்கு	-4394
▁தனித்தனிய	-4395
▁விதிவிலக்கு	-4396
▁நிலைப்பாட்டை	-4397
▁குறிப்பிடு	-4398
த்தொகை	-4399
▁நாடுகளில்	-4400
▁ஓய்வூதியம்	-4401
ம்ஸ்	-4402
ாவசிய	-4403
▁சுருக்கமாக	-4404
▁ஐப்	-4405
ுபான்	-4406
▁பீகார்	-4407
▁மாநிலத்திற்கு	-4408
ur	-4409
▁ஆஜராக	-4410
▁முரணானது	-4411
▁கலந்துரையாட	-4412
il	-4413
▁இந்	-4414
திரு	-4415
▁இருவரும்	-4416
மென்ட்	-4417
ுறுத்தல்	-4418
▁பராமரிப்பு	-4419
▁ஒப்பந்தக்கார	-4420
▁முடிவெ	-4421
▁வித்திய	-4422
▁நிர்வகிக்க	-4423
▁குற்றத்திற்காக	-4424
▁கலந்த	-4425
▁கடமையை	-4426
▁மனைவிய	-4427
▁பத்திரிகை	-4428
▁டோ	-4429
▁மாகாண	-4430
▁இடமின்றி	-4431
ஹா	-4432
கமாக	-4433
▁பிரைவேட்	-4434
▁முன்பாக	-4435
▁சட்டங்களை	-4436
ர்வை	-4437
▁படத்தில்	-4438
▁வழிநடத்த	-4439
▁நிரூபிக்கப்பட்ட	-4440
▁உணர	-4441
▁நடிக்க	-4442
ஷ்பிர	-4443
▁ஓட்டு	-4444
▁வித்தியாச	-4445
ிக்கப்படலாம்	-4446
▁சுத்த	-4447
ப்படுவதில்லை	-4448
▁இருக்கிற	-4449
▁மரணதண்டனை	-4450
▁அழுத்த	-4451
▁நாய	-4452
▁தொடங்கிய	-4453
▁லே	-4454
▁பிரெஞ்சு	-4455
▁அதிகாரத்தைப்	-4456
காவ	-4457
▁சுங்க	-4458
▁பஞ்சாயத்து	-4459
▁நிறுவனங்களுக்கு	-4460
▁இயலா	-4461
வல	-4462
ion	-4463
ழகம்	-4464
▁சபா	-4465
▁ஜேர்மனிய	-4466
▁அரசியலமைப்பில்	-4467
மனே	-4468
▁குண்டு	-4469
▁நலன்களை	-4470
▁தேதிக்கு	-4471
▁ஆகியோரின்	-4472
▁முயற்சிகள்	-4473
▁விதிக்கப்படும்	-4474
ுக்கள்	-4475
▁துஷ்பிர	-4476
ிப்பாக	-4477
▁கருத்துப்படி	-4478
ீது	-4479
▁பத்திரத்தை	-4480
▁கொள்முதல்	-4481
தொ	-4482
▁டே	-4483
▁புலன	-4484
▁வாகனம்	-4485
▁மதிப்பெண	-4486
ப்து	-4487
ட்பட்ட	-4488
▁எடுப்ப	-4489
▁முடிக்க	-4490
▁நிலைக்கு	-4491
▁கள்	-4492
சாப்த	-4493
▁சிறுபான்	-4494
▁முக்கியமாக	-4495
▁வழங்கப்படவில்லை	-4496
▁தீர்ப்பாயத்தால்	-4497
▁கொண்டுள்ளன	-4498
▁இருத	-4499
▁எழுப்பிய	-4500
▁நிலக்கரி	-4501
்ட்ட	-4502
▁சபை	-4503
▁பணத்தை	-4504
▁பிபி	-4505
▁சரிசெய்ய	-4506
▁வீட்டில்	-4507
१३	-4508
▁இதன்மூலம்	-4509
▁பதிலளிக்க	-4510
▁கார்ப்பரேஷன்	-4511
▁வெறுமனே	-4512
ாட்	-4513
▁பெறுவதற்கு	-4514
▁அட்டவணையில்	-4515
▁தசாப்த	-4516
▁குறிப்பிட்டது	-4517
▁வைக்கப்பட்டுள்ள	-4518
▁நிகழ்ந்த	-4519
▁கார்ப்பரேட்	-4520
▁தடுப்புக்காவ	-4521
ியம்	-4522
▁கோருவ	-4523
▁செலுத்தப்பட்ட	-4524
ீல்	-4525
▁யோச	-4526
▁இப்பொழுது	-4527
▁வேட்பாளர்	-4528
▁அத்தியாவசிய	-4529
▁வரம்பைப்	-4530
ப்படுகிற	-4531
▁விதியின்	-4532
ித்தார்	-4533
▁பக்	-4534
▁கையில்	-4535
▁பேசிய	-4536
▁கிற	-4537
▁எல்லை	-4538
ிடத்தில்	-4539
▁விடுத்த	-4540
▁தரப்பில்	-4541
▁முறையீட்டை	-4542
▁வாக்கள	-4543
▁பட்டியல	-4544
▁செயல்பாடுகள்	-4545
▁ஆராய்	-4546
▁துல்லிய	-4547
▁கொடு	-4548
▁கிடைக்கக்கூடிய	-4549
▁வழங்கல்	-4550
▁கருத்துக்கள்	-4551
▁பல்கலைக்கழகம்	-4552
▁அனுபவி	-4553
ாய்வழி	-4554
▁கணக்கி	-4555
▁ட்	-4556
ர்ட்	-4557
▁தண்டனைச்	-4558
▁பில்லியன்	-4559
▁முக்கியத்துவ	-4560
▁வசூலிக்க	-4561
▁வேண்டாம்	-4562
▁திட்டத்தில்	-4563
ச்சல	-4564
▁தவறானது	-4565
▁மகிழ்ச்சிய	-4566
▁வங்கிய	-4567
▁மிகுந்த	-4568
▁மீட்பு	-4569
▁சபையின்	-4570
▁முரண்பாடு	-4571
▁ஆணைக்குழுவ	-4572
▁வலு	-4573
▁பிரிவி	-4574
▁உரையாற்ற	-4575
ூட்ட	-4576
▁உதவுகிறது	-4577
▁வருடாந்திர	-4578
▁வாதிடப்பட்டது	-4579
சாலை	-4580
▁வாரியத்தின்	-4581
▁எழுப்பப்பட்ட	-4582
▁பரஸ்ப	-4583
▁சந்திர	-4584
▁பொறுப்பை	-4585
▁ஹோ	-4586
▁வட்ட	-4587
ஷா	-4588
▁அவதானிப்புகள்	-4589
▁குப்த	-4590
▁பிற்ப	-4591
▁புள்ளி	-4592
▁கொடுக்கும்	-4593
▁அவற்றில்	-4594
மொழி	-4595
▁உணர்வு	-4596
▁[(	-4597
▁தார	-4598
ாடும்	-4599
▁துறையின்	-4600
யு	-4601
▁தண்ண	-4602
னாகிய	-4603
▁வழங்குவதன்	-4604
▁சமமாக	-4605
▁பிரகட	-4606
▁விதத்தில்	-4607
▁தங்கிய	-4608
▁செய்துள்ளார்	-4609
▁ஜனாதிபதியின்	-4610
▁அதிகாரியின்	-4611
▁நிறுவனத்தில்	-4612
▁தாய	-4613
▁பரிந்துரைக்க	-4614
us	-4615
▁காரணங்களை	-4616
ொன்று	-4617
▁பெரி	-4618
▁ஆபத்து	-4619
களுக்காக	-4620
▁மெமோ	-4621
▁சித்த	-4622
▁இந்தி	-4623
▁வாரிசு	-4624
▁கையெழுத்திட்ட	-4625
ட்டிஷ்	-4626
▁தேவன	-4627
▁விதிமுறைகளின்	-4628
▁அமைச்சக	-4629
▁வேறுவ	-4630
▁அதிகாரிகளுக்கு	-4631
வழ	-4632
▁சார	-4633
▁அடிக்க	-4634
▁அடிப்படையிலான	-4635
▁ஹோட்ட	-4636
▁தேர்தலில்	-4637
▁அதிகாரத்தால்	-4638
நாட்ட	-4639
▁பண்ட	-4640
▁வரலாற்று	-4641
ப்படுவதால்	-4642
லாக்க	-4643
டியில்	-4644
▁இலக்க	-4645
▁இரண்டாவதாக	-4646
▁விழிப்பு	-4647
▁செயல்படுவ	-4648
▁உருவாக	-4649
▁என்றான்	-4650
▁ஆவணங்களை	-4651
▁கிளை	-4652
▁விமர்ச	-4653
மக்கு	-4654
▁மீறிய	-4655
▁முறையை	-4656
▁அளவுகோ	-4657
▁ஆப்கான	-4658
▁தொலைபே	-4659
▁நண்ப	-4660
▁பகிர	-4661
ிப்பதற்காக	-4662
▁சுமை	-4663
செய்து	-4664
ீட்டாளர்	-4665
▁அன்	-4666
யர்	-4667
ாலை	-4668
▁உறுதியாக	-4669
ர்பி	-4670
▁கதை	-4671
▁வருகை	-4672
▁சான்றிதழ	-4673
##	-4674
▁சதுர	-4675
▁கடைசிய	-4676
▁கேள்வியை	-4677
▁ஆஸ்திரேலிய	-4678
ராஜ	-4679
ரியும்	-4680
▁நிற்க	-4681
▁வங்கிகள்	-4682
▁திட்டவட்ட	-4683
ியோ	-4684
ட்டுக்	-4685
க்குதல்	-4686
▁வெறும்	-4687
▁நபர்களை	-4688
ரியாக	-4689
▁தொழிற்	-4690
▁ஜாமீ	-4691
▁சேவையின்	-4692
▁நிகழ்ச்சி	-4693
ப்படுவார்கள்	-4694
▁நடத்தப்பட்ட	-4695
▁எப்படி	-4696
▁அடங்கிய	-4697
▁விருதை	-4698
க்கப்பட்டன	-4699
▁காரணமும்	-4700
▁பில	-4701
சன்	-4702
▁ஒத்துழைப்பு	-4703
▁ஏகா	-4704
டனும்	-4705
பிடிக்க	-4706
▁எழுதப்பட்ட	-4707
AC	-4708
▁வான	-4709
▁மிகப்	-4710
▁இடையேயான	-4711
ராஜ்	-4712
்க்கு	-4713
▁ஆயிர	-4714
▁அலட்சிய	-4715
▁a	-4716
▁பழங்குடிய	-4717
▁மாணவர்கள்	-4718
▁வழக்குகளின்	-4719
▁சால	-4720
முற்ற	-4721
▁பொருட்படுத்த	-4722
▁ராஜா	-4723
▁நோக்கமாகக்	-4724
▁மக்களை	-4725
▁எப்போது	-4726
▁நாடுகளின்	-4727
▁ஏற்பட்டால்	-4728
▁டெல்ல	-4729
▁வரையற	-4730
திபத்திய	-4731
▁காயங்கள்	-4732
▁மிகப்பெரிய	-4733
▁திட்டமிடப்பட்ட	-4734
▁கனி	-4735
▁அதைப்	-4736
▁இயக்குநர்	-4737
▁அம்	-4738
▁அப்படிய	-4739
▁நியாயமற்ற	-4740
▁தோல்வியுற்ற	-4741
ர்வில்	-4742
▁காப்புரிமை	-4743
▁ஓரளவு	-4744
▁உறுப்பினர்களின்	-4745
▁சமாள	-4746
ோதி	-4747
▁சமாதான	-4748
▁தீங்கு	-4749
▁மெட்ராஸ்	-4750
▁கருதப்பட்ட	-4751
▁ஆதாய	-4752
▁தகுதியான	-4753
▁கம்	-4754
வ்வளவு	-4755
க்குமாறு	-4756
▁உடல	-4757
▁நெருக்கடி	-4758
▁மகா	-4759
▁செயல்முறைய	-4760
▁முக்கியமானது	-4761
க்கியது	-4762
ங்களைச்	-4763
▁அப்பால்	-4764
▁உள்ளார்ந்த	-4765
▁சமர்ப்பிப்ப	-4766
▁ரவ	-4767
▁வெகு	-4768
▁கற்றுக்க	-4769
▁ஏகாதிபத்திய	-4770
ியன்	-4771
▁தலைவராக	-4772
▁செய்யப்பட்டுள்ள	-4773
டங்கு	-4774
▁விரும்பவில்லை	-4775
▁கையகப்படுத்தல்	-4776
▁ஊக	-4777
▁அதைத்	-4778
▁அலுவல	-4779
▁உலகின்	-4780
▁வலியுறுத்தினார்	-4781
ில்ல	-4782
வரையில்	-4783
▁மறுத்துவிட்ட	-4784
▁தீவிரமாக	-4785
▁நேரத்திலும்	-4786
▁வன்முறை	-4787
▁விவரிக்க	-4788
▁முறைகே	-4789
ணிய	-4790
▁அளவை	-4791
▁பிழ	-4792
▁புகழ	-4793
ாததால்	-4794
▁கட்சிகள	-4795
▁பொறுத்தது	-4796
▁பொதுக்	-4797
▁காலை	-4798
▁விவரி	-4799
▁மணிக்கு	-4800
▁இணைய	-4801
க்குகிறது	-4802
▁வறு	-4803
▁என்னும்	-4804
ம்பட	-4805
▁வரிச்	-4806
el	-4807
ாக்க	-4808
▁அனுப்பிய	-4809
▁அவமதிப்பு	-4810
▁சாக	-4811
மில்லாத	-4812
▁கேட்டுக்க	-4813
▁கட்டணங்கள்	-4814
▁கையகப்படுத்தும்	-4815
ேஷ	-4816
▁தானாக	-4817
▁பிரிட்டிஷ்	-4818
▁தீர்மானிக்கும்	-4819
▁இராஜ	-4820
▁நோக்கத்துடன்	-4821
▁வெளிப்படுத்திய	-4822
▁அம்சம்	-4823
▁ஆர்வமுள்ள	-4824
▁கொண்டுவருவ	-4825
▁நபருக்கும்	-4826
ிக்கொண்ட	-4827
▁தற்கொலை	-4828
▁தரு	-4829
▁துறைமுக	-4830
▁முன்னோடி	-4831
▁எந்தப்	-4832
னுக்கும்	-4833
▁சரண	-4834
▁விவேக	-4835
ுகின்றன	-4836
▁வர்த்தமான	-4837
ஸ்டர்	-4838
▁கணவர்	-4839
▁பிரசா	-4840
வர்களில்	-4841
▁வரிவிதிப்பு	-4842
▁நிர்வாகி	-4843
▁கண்காணிப்பு	-4844
ிணை	-4845
▁தாய்	-4846
நிறுவன	-4847
ாளியின்	-4848
▁ஈடுபட்டுள்ள	-4849
▁தொழில்முறை	-4850
▁அட்டவணையின்	-4851
▁விதிக்கப்பட	-4852
▁உரை	-4853
▁குடிமக	-4854
▁ராஜஸ்தான்	-4855
▁புகார்தாரர்	-4856
யோகம்	-4857
த்ரா	-4858
▁மண்டல	-4859
▁தூண்டு	-4860
▁சேர்ந்து	-4861
▁போரா	-4862
▁சென்றார்	-4863
▁நடைமுறைகள்	-4864
▁உத்தரவிட்டது	-4865
▁ஆயுதங்கள்	-4866
▁விடுதலைப்	-4867
▁பேச்சுவார்த்தை	-4868
வற்றை	-4869
ார்கள	-4870
▁ஒப்பந்தங்கள்	-4871
வரையும்	-4872
▁கலந்தால	-4873
▁ஏற்றுக்கொள்வ	-4874
▁WP	-4875
ம்முடைய	-4876
ெடுப்பு	-4877
▁ல்	-4878
▁ஆர்வம்	-4879
▁தீர்ப்புகள்	-4880
▁விளைவிக்கும்	-4881
பெய	-4882
▁சிரம	-4883
ேல்	-4884
▁முது	-4885
▁காணப்பட்ட	-4886
▁பொறுத்து	-4887
▁புலனாய்வு	-4888
▁பொய்ய	-4889
▁செலுத்தப்பட	-4890
▁புதி	-4891
▁அலுவலகம்	-4892
▁வர்க்கத்தின்	-4893
▁வீர	-4894
▁தமது	-4895
▁பொறுத்தவரையில்	-4896
▁முனை	-4897
வர்களும்	-4898
கும்	-4899
ினாலும்	-4900
▁பகுதிகள்	-4901
▁மாதங்கள்	-4902
▁நடைமுறைப்படுத்த	-4903
ch	-4904
மான்	-4905
▁அபாய	-4906
▁காந்தி	-4907
▁கொள்ளப்பட்ட	-4908
▁முன்வைக்கப்பட்ட	-4909
ழ்ந்த	-4910
▁அதிகமான	-4911
▁வாய	-4912
மாட்ட	-4913
ஸ்தீ	-4914
▁சினி	-4915
▁நீடி	-4916
▁கொண்டிருப்ப	-4917
▁--	-4918
தட்ச	-4919
ரண்ட	-4920
▁விலக	-4921
▁Ex	-4922
▁படத்தை	-4923
▁ஊழியர்களுக்கு	-4924
▁நிபுணர்	-4925
ோகன்	-4926
ாதாரண	-4927
▁உரிய	-4928
▁உயிர்	-4929
▁தணிக்கை	-4930
▁சிதை	-4931
▁ராஜ்	-4932
▁கற்றல்	-4933
▁காலகட்டத்தில்	-4934
▁அதிகாரங்களை	-4935
▁கடல்	-4936
▁வளர்ந்து	-4937
▁சுதந்திரத்தை	-4938
▁நகல்	-4939
▁பெண்ண	-4940
▁d	-4941
▁சின்	-4942
▁இழப்பீட்டு	-4943
ரொ	-4944
த்தப்பட்ட	-4945
▁வருகின்றன	-4946
ல்லா	-4947
▁விவசாயி	-4948
▁இடமாற்றம்	-4949
▁ஆசிரியர்	-4950
▁பசு	-4951
மித்த	-4952
ொருவர்	-4953
▁ஒன்றிணை	-4954
▁துஷ்பிரயோகம்	-4955
▁எடுத்துக்காட்டு	-4956
▁ஓட்டுந	-4957
ுகிறது	-4958
்பெற்ற	-4959
▁பாலின	-4960
▁மீறுவ	-4961
▁ஆதாரங்கள்	-4962
▁நீதிமன்றமும்	-4963
ையைக்	-4964
▁அம்ப	-4965
▁சம்ம	-4966
▁பிரேத	-4967
▁ஒத்திவை	-4968
▁கொண்டிருந்தது	-4969
ிக்கான	-4970
▁திறம்பட	-4971
▁மனுக்களை	-4972
▁வகைப்படுத்த	-4973
▁அதிகாரத்திற்கு	-4974
▁கைதி	-4975
▁செலுத்திய	-4976
▁குண்ட	-4977
▁வேளாண்	-4978
▁வசதிகள்	-4979
▁மின்சாரம்	-4980
▁பொறுப்பேற்க	-4981
▁III	-4982
ுக்கள	-4983
லுக்கான	-4984
▁விரைவான	-4985
▁இலங்கை	-4986
▁மாநாடு	-4987
▁சலுகைகள்	-4988
▁கீழேயுள்ள	-4989
▁ஆதாரங்களின்	-4990
▁நம்பகத்தன்மை	-4991
▁உத்தரவும்	-4992
▁குறைபாடுகள்	-4993
IC	-4994
▁xxx	-4995
▁வாய்வழி	-4996
▁அளிக்கும்	-4997
▁நுழைந்த	-4998
▁பிரதிவா	-4999
▁கவனமாக	-5000
▁வைத்துக்	-5001
▁பொறுப்பான	-5002
▁குடியிருப்ப	-5003
▁தனித்தனியாக	-5004
▁குண	-5005
ட்டுக்கு	-5006
பர	-5007
▁திய	-5008
▁வேற	-5009
▁இந்தக்	-5010
▁வளர்ப்ப	-5011
▁துருப்பு	-5012
▁முழ	-5013
▁ஆண்டுக்கு	-5014
▁பன்	-5015
▁வீத	-5016
▁பேச்சு	-5017
▁முதலாளி	-5018
▁குறைந்தது	-5019
ாட்டி	-5020
▁நோயாளி	-5021
ன்றும்	-5022
▁கீழும்	-5023
▁இறப்பு	-5024
▁புகைப்பட	-5025
▁புள்ளிவி	-5026
றந்த	-5027
▁முதலீட்டு	-5028
ேர்	-5029
சிங்	-5030
ஜித்	-5031
▁உண்ட	-5032
தியும்	-5033
▁வைக்கப்பட	-5034
▁தலைவர்கள்	-5035
ஜிட்டல்	-5036
▁மத்தியஸ்த	-5037
▁மாற்றப்பட்ட	-5038
▁கடமைய	-5039
▁சேர்ப்ப	-5040
▁நடந்தது	-5041
▁துறைகளில்	-5042
▁நெறி	-5043
▁தாராள	-5044
▁இறக்கும்	-5045
கொண்ட	-5046
▁தேவைப்படுகிறது	-5047
பொது	-5048
▁அர்ப்ப	-5049
▁பிரப	-5050
டுகின்றன	-5051
▁முன்னேற்றம்	-5052
இது	-5053
வருக்க	-5054
▁பரஸ்பர	-5055
▁வெளியிடப்பட்டது	-5056
நாள்	-5057
▁துர	-5058
▁கவர்	-5059
வரான	-5060
▁கொழு	-5061
▁வரிசையில்	-5062
திவு	-5063
▁இடம்ப	-5064
▁கவனத்தை	-5065
▁முகா	-5066
▁நம்பகமான	-5067
ரெ	-5068
▁மனி	-5069
▁சரியானது	-5070
▁மேல்முறையீடுகள்	-5071
▁சக்திய	-5072
▁வழியாக	-5073
▁குழப்ப	-5074
▁பாக்கி	-5075
▁பட்	-5076
▁கோரு	-5077
னுக்கான	-5078
▁விரைவில்	-5079
▁புகழ்பெற்ற	-5080
▁தொழிலாளர்கள	-5081
ிஸ்	-5082
▁நோட்டீஸ்	-5083
▁இருந்தனர்	-5084
▁வரவே	-5085
▁தீர்ப்பளித்த	-5086
▁கடினம்	-5087
ூறு	-5088
▁கார்	-5089
்கூட	-5090
▁வர்	-5091
▁உறவின	-5092
▁புள்ளிவிவர	-5093
▁மாற்றுவதற்கான	-5094
ாலே	-5095
கின்றது	-5096
▁பாலஸ்தீ	-5097
ல்களுக்கு	-5098
▁நிறுவனங்களில்	-5099
▁அவர்களது	-5100
▁திரும்பி	-5101
▁தகுதியுடைய	-5102
பட	-5103
▁மாறி	-5104
தட்சணை	-5105
▁நட்பு	-5106
▁வேலைநிறுத்த	-5107
▁கிலோ	-5108
▁இல்லாததால்	-5109
▁பன்ன	-5110
▁தொழில்நுட்பம்	-5111
ிப்பதற்கும்	-5112
▁சகோதரர்	-5113
▁வந்தார்	-5114
ஆர்பி	-5115
▁நிறுத்தி	-5116
▁முன்மொழிவு	-5117
▁மாநிலங்களில்	-5118
▁சர்ச்சைக்குரிய	-5119
▁அதிகாரமும்	-5120
▁பரிமாற்றம்	-5121
▁இயற்றப்பட்ட	-5122
குற்றம்	-5123
▁மேற்கொள்வ	-5124
மானால்	-5125
விற்கு	-5126
▁பத்திரங்கள்	-5127
▁பயன்படுத்துவதன்	-5128
▁லோ	-5129
ஸை	-5130
▁ஜெனர	-5131
▁பெயரிட	-5132
▁தேவைகள்	-5133
▁தோன்று	-5134
▁கொடூரமான	-5135
ள்ளார்	-5136
om	-5137
▁தவிர்த்து	-5138
னையாக	-5139
▁அன்ற	-5140
▁எரிவாய	-5141
▁மீட்டெடுப்ப	-5142
▁தீர்ப்பையும்	-5143
லையும்	-5144
▁கருணை	-5145
வள	-5146
▁தோல்வி	-5147
▁கூறியுள்ளது	-5148
ன்பது	-5149
த்தியேக	-5150
▁தெரிந்த	-5151
▁டிஜிட்டல்	-5152
▁ஒருங்கிணைப்பு	-5153
▁அடித்தள	-5154
மயமாக்கல்	-5155
▁விளையாட்டு	-5156
▁நோய்	-5157
▁கட்டணத்தை	-5158
சம	-5159
▁ஊக்க	-5160
▁கருவிய	-5161
▁அவர்களில்	-5162
மைக்கு	-5163
▁புனித	-5164
▁வழங்கினார்	-5165
ிங்	-5166
▁கடமைகள்	-5167
▁ஏழை	-5168
▁சராச	-5169
▁பயன்படுத்துவது	-5170
▁உண்மைய	-5171
▁கிருஷ்ண	-5172
▁விதிமுறைகளில்	-5173
▁ராம	-5174
▁அரசியலமைப்ப	-5175
ந்தில்	-5176
▁ஆராய்வ	-5177
ாவிட்டாலும்	-5178
ணா	-5179
▁விலக்க	-5180
▁வெளியுறவு	-5181
▁நன்	-5182
▁அலுவலர்	-5183
▁கேள்விகள்	-5184
▁சான்றிதழை	-5185
▁கர்த்தருடைய	-5186
ுகிற	-5187
வாற்ற	-5188
▁படிவம்	-5189
▁நீதித்துறையின்	-5190
▁கூற்ற	-5191
▁எங்களால்	-5192
த்தினால்	-5193
▁நலன்	-5194
▁தகவல்த	-5195
▁உதாரண	-5196
▁எடுக்கும்	-5197
▁செய்தித்த	-5198
சின்	-5199
ப்படுத்தல்	-5200
▁கொடுப்பனவு	-5201
▁பாலி	-5202
வாதிகள்	-5203
▁ஆக்கிரமிப்ப	-5204
▁ராய	-5205
▁பெற்றோ	-5206
▁பாகுபாடு	-5207
▁மாறிய	-5208
▁ஈரான	-5209
▁பெற்றது	-5210
▁தொடங்கப்பட்ட	-5211
▁இருந்தபோது	-5212
▁சம்	-5213
ஸ்தான	-5214
▁கட்டுப்பாட்ட	-5215
மைச்ச	-5216
▁அதின்	-5217
▁குழுக்கள்	-5218
டியை	-5219
ினரின்	-5220
▁இருப்பதைக்	-5221
பைல்	-5222
▁சஞ்ச	-5223
▁பங்கை	-5224
▁மதிப்பை	-5225
▁மட்டுப்படுத்த	-5226
▁பேசி	-5227
▁பாதுகாக்கப்பட்ட	-5228
▁தப்ப	-5229
டியின்	-5230
ர்களையும்	-5231
▁மாறுபட்ட	-5232
▁திட	-5233
▁பெட்ரோ	-5234
▁பரிந்துரைகள்	-5235
▁குப்தா	-5236
▁வரலாற்ற	-5237
ினா	-5238
ேகம்	-5239
க்கட	-5240
▁ஆதரவை	-5241
▁சேர்க்கப்பட்ட	-5242
பீ	-5243
▁பிரத்தியேக	-5244
▁வேட்பாளர்கள்	-5245
▁குரு	-5246
▁அவரைப்	-5247
▁குழுவில்	-5248
▁பயன்படுத்துவ	-5249
▁கனிம	-5250
▁பிரதமர்	-5251
);	-5252
▁க்	-5253
▁எழுத்த	-5254
லைத்	-5255
▁மாசு	-5256
१४	-5257
ரைத்	-5258
▁பொறி	-5259
▁ஒற்று	-5260
ர்ப்புற	-5261
▁விரிவுபடுத்த	-5262
▁ரஷ்ய	-5263
▁பரிசோதி	-5264
ாற்ற	-5265
▁எட்டு	-5266
▁ஈடுபட்ட	-5267
▁சிக்கல்களை	-5268
▁படுக	-5269
▁பண்பு	-5270
▁நகராட்சி	-5271
▁ஆக்கிரமிப்பு	-5272
▁இராணுவம்	-5273
படிய	-5274
▁பிரச்சினையை	-5275
▁மதிப்புமிக்க	-5276
▁திரைப்பட	-5277
ிக்கப்படக்கூடிய	-5278
அல்ல	-5279
▁நன்ற	-5280
▁நடவடிக்கைகளைத்	-5281
தர்	-5282
▁சம்பாதி	-5283
▁உரிமையின்	-5284
▁அறிவிப்பில்	-5285
▁பிரதிவாதிகள்	-5286
▁புவ	-5287
ாலா	-5288
▁மாலை	-5289
▁மீறல்	-5290
▁நகர்த்த	-5291
▁மாநிலங்களுக்கு	-5292
▁பணிகள்	-5293
▁கூறியுள்ளார்	-5294
ுள்ளபடி	-5295
▁மருத்துவக்	-5296
▁செய்யப்படலாம்	-5297
▁தெளிவற்ற	-5298
ிஸ்தான்	-5299
▁விலங்கு	-5300
▁முடிவின்	-5301
▁அவளை	-5302
▁அட்வா	-5303
▁உறுப்பு	-5304
▁பகுதியாகும்	-5305
▁சந்தேகமில்லை	-5306
▁டிர	-5307
▁செய்ப	-5308
▁ஏக்கர்	-5309
க்குவதற்கான	-5310
▁கட்டமைப்பு	-5311
▁அமெரிக்காவில்	-5312
▁தொழிலாளர்களின்	-5313
▁திறனை	-5314
▁கப்பல்	-5315
▁பெறுவது	-5316
▁வாதிக்கு	-5317
▁நிறைவேற்றுவதில்	-5318
ராசிரிய	-5319
த்ரி	-5320
▁மறுவ	-5321
▁கருதப்பட்டது	-5322
▁விண்ணப்பிக்க	-5323
▁அமைச்சர்கள்	-5324
▁வழிகாட்டுதல்களை	-5325
வதற்கான	-5326
▁புத்தி	-5327
▁அவசியமான	-5328
▁விருப்பத்தை	-5329
▁வரதட்சணை	-5330
▁தடைசெய்யப்பட்ட	-5331
▁சிறி	-5332
▁வடக்கு	-5333
▁செயல்பாடுகளை	-5334
லாமல்	-5335
▁அஞ்ச	-5336
▁விதை	-5337
ுக்கிடையில்	-5338
▁செலுத்தப்படும்	-5339
ஜீ	-5340
▁ஆவணம்	-5341
▁இடத்தை	-5342
▁அனுமதித்தது	-5343
நிக	-5344
ன்பு	-5345
ையைச்	-5346
▁கம்யூ	-5347
▁பதிவாளர்	-5348
▁இரும்ப	-5349
▁கடமைகளை	-5350
டோ	-5351
▁பலர்	-5352
▁நாட்ட	-5353
▁உடைய	-5354
▁அருகில்	-5355
▁பரிசோத	-5356
▁செலுத்துதல்	-5357
▁it	-5358
டையும்	-5359
▁நிறைந்த	-5360
▁தொழிற்சாலை	-5361
▁நிபந்தனைகளை	-5362
▁இயக்குநர்கள்	-5363
ுடனான	-5364
▁ஆதாரமும்	-5365
மைப்ப	-5366
ள்களை	-5367
▁விவாக	-5368
▁தங்களுக்கு	-5369
▁விய	-5370
▁புத்திர	-5371
-0	-5372
▁சுற்றுலா	-5373
▁வாழ்க்கையை	-5374
▁அனைத்தையும்	-5375
▁மேற்கூறியவற்ற	-5376
▁நியமனங்கள்	-5377
▁நம்பிக்கையை	-5378
▁மேற்கொள்ளப்பட்ட	-5379
னாக	-5380
▁மொத்தம்	-5381
▁நகர்ப்புற	-5382
▁கிடைக்கவில்லை	-5383
▁பொறியியல்	-5384
▁உண்மைகளின்	-5385
மாய்	-5386
க்கணக்கான	-5387
னமுற்ற	-5388
▁தொடங்கி	-5389
▁தலைப்பில்	-5390
ப்படுவதற்கான	-5391
▁பெறுதல்	-5392
த்துக்கும்	-5393
அல்லது	-5394
▁அதைக்	-5395
▁நினைவில்	-5396
டுகள்	-5397
▁பில்	-5398
▁அப்து	-5399
▁சத்திய	-5400
ாவற்ற	-5401
▁கொள்ளலாம்	-5402
▁போத	-5403
▁உறவுகள்	-5404
▁செய்யத்	-5405
▁அசாதாரண	-5406
▁உள்ளீடு	-5407
▁காலாவதிய	-5408
▁வெளியிட்டது	-5409
▁என்பதைப்	-5410
▁சேமிப்பு	-5411
▁சங்கத்தின்	-5412
▁இல்லாவிட்டால்	-5413
ட்டப்பட்ட	-5414
▁u	-5415
டுவதற்கு	-5416
▁செயல்முறையை	-5417
ுதல்	-5418
▁அதற்க	-5419
வர்களால்	-5420
▁பேராசிரிய	-5421
▁திருத்தத்தின்	-5422
மீக	-5423
▁அற்ப	-5424
▁பயணி	-5425
▁அவர்களுடைய	-5426
தின்	-5427
ாமலும்	-5428
▁யாரும்	-5429
▁கட்டிடம்	-5430
▁படத்தின்	-5431
▁இயல்புநிலை	-5432
▁ரூபாய	-5433
றுகிறது	-5434
▁கண்டறி	-5435
▁பிரிட்ட	-5436
▁ரீதியான	-5437
துக்க	-5438
▁வளர்ச்சிய	-5439
திர்	-5440
▁திறந்திருக்கும்	-5441
பாய்	-5442
▁அழுத்தம்	-5443
▁மார	-5444
▁சித்திர	-5445
▁தேட	-5446
▁காண்கிறோம்	-5447
▁பாவ	-5448
▁குறுக்க	-5449
▁கடைசியாக	-5450
▁தடுக்கும்	-5451
▁நிலத்தில்	-5452
ல்டி	-5453
▁கிறிஸ்த	-5454
சீலி	-5455
▁ஓட்ட	-5456
▁நடைமுறைச்	-5457
▁பாத்திர	-5458
த்துள்ளனர்	-5459
▁மாநிலங்களின்	-5460
▁குறிப்பிடலாம்	-5461
▁ஏலம்	-5462
▁கூறலாம்	-5463
னியர்	-5464
▁அகில	-5465
ரிப்பு	-5466
▁இருக்கிறார்	-5467
PC	-5468
▁லோக	-5469
▁நிறைவு	-5470
▁பிரதிநிதிகள்	-5471
▁..	-5472
▁ஐக்	-5473
▁பரிசீலி	-5474
▁இடத்திற்கு	-5475
▁வைக்கப்பட்டது	-5476
re	-5477
▁விடய	-5478
▁மோசமாக	-5479
▁முதலீட்டாள	-5480
▁எடுத்துக்கொள்ள	-5481
்த்	-5482
▁CA	-5483
▁சர்மா	-5484
▁சதவிகித	-5485
▁படிப்பு	-5486
ர்மறையான	-5487
▁ஊனமுற்ற	-5488
▁கோரப்பட்ட	-5489
ஸ்போ	-5490
▁அதிகம்	-5491
▁தரத்தை	-5492
▁அவர்களால்	-5493
▁பாதுகாப்பான	-5494
▁கூறப்பட்டுள்ளது	-5495
சிற	-5496
▁வரவு	-5497
▁ஒவ்வொ	-5498
▁கடற்ப	-5499
▁கமிட்ட	-5500
▁காங்கிரஸ்	-5501
▁கார்ப்பரேஷ	-5502
▁அத்தியாயத்தின்	-5503
▁மையம்	-5504
ுகிறார்	-5505
▁தலைமையிலான	-5506
ேச	-5507
ளையும்	-5508
▁காணப்பட்டது	-5509
▁தானிய	-5510
▁கான	-5511
▁வந்துள்ளது	-5512
வார்	-5513
▁போருக்கு	-5514
▁அம்சங்கள்	-5515
▁வரம்புக்கு	-5516
▁பங்கேற்க	-5517
▁பாராட்டு	-5518
III	-5519
▁சரிபார	-5520
▁காட்டிய	-5521
▁எழுகிறது	-5522
▁பங்குகளை	-5523
▁மட்டத்தில்	-5524
▁தேவைகளை	-5525
TE	-5526
வேண்ட	-5527
▁கணினி	-5528
▁நிமிட	-5529
செய்யும்	-5530
▁அதற்குப்	-5531
▁அளித்தது	-5532
▁பெற்றோர்	-5533
▁விளைவைக்	-5534
ழ்ச்சியில்	-5535
ிப்படுத்த	-5536
▁குள	-5537
பொருள்	-5538
ங்குகிறது	-5539
▁வருவதற்கு	-5540
▁அருகிலுள்ள	-5541
▁நிறுவனத்தால்	-5542
▁வைத்திருப்பது	-5543
▁ரே	-5544
▁இஸ்லா	-5545
▁க்கான	-5546
▁நீதிக்கான	-5547
▁மறுசீரமைப்பு	-5548
▁சமர்ப்பிப்புகளை	-5549
IA	-5550
சில்	-5551
▁அதற்காக	-5552
▁தெரிவித்த	-5553
▁முதுக	-5554
்குமார்	-5555
▁மதிப்பிட	-5556
▁பின்தங்கிய	-5557
கிர	-5558
மாதி	-5559
ள்ளி	-5560
ன்களை	-5561
▁நடைமுறையை	-5562
▁நீட்டிக்க	-5563
▁சம்பந்தமாக	-5564
▁தகவல்தொடர்பு	-5565
▁அழைக்கப்படும்	-5566
▁சகல	-5567
▁பகிர்ந்து	-5568
பிட்	-5569
ுவிட	-5570
ையிட	-5571
விழ	-5572
ெடி	-5573
லிருந்து	-5574
▁சந்தேகம்	-5575
▁செய்தால்	-5576
▁சார்	-5577
ட்சியின்	-5578
▁திருத்துவ	-5579
▁சம்பளம்	-5580
▁கொண்டனர்	-5581
▁பின்னோ	-5582
▁கைகளில்	-5583
▁மாற்றாக	-5584
▁குழுவால்	-5585
▁தொலைபேசி	-5586
▁வலதுசாரி	-5587
▁நடத்தியது	-5588
▁காவல்துறையின	-5589
▁இவர்	-5590
▁இணைந்த	-5591
▁உட்பிரி	-5592
▁குத்தகைக்கு	-5593
▁கழி	-5594
▁விகிதா	-5595
▁விரும்பினால்	-5596
▁தன்மையைக்	-5597
▁பரிசீலித்த	-5598
▁தடுப்புக்காவல்	-5599
▁அறை	-5600
கரமான	-5601
▁தொலைக்க	-5602
▁அறிவாற்ற	-5603
▁விவரங்களை	-5604
ப்பண்ண	-5605
▁இரும்பு	-5606
▁வேறுவித	-5607
▁அறிவித்தார்	-5608
▁தவறிவிட்டது	-5609
▁தெற்கு	-5610
▁மகிழ்	-5611
▁காலத்தை	-5612
▁மாற்றுவது	-5613
▁விஷயங்களை	-5614
▁பணிபுரி	-5615
▁கண்காணிப்ப	-5616
▁சத்த	-5617
▁பிளா	-5618
▁பாதிக்கப்பட	-5619
சால	-5620
பவர்	-5621
▁இந்தியாவ	-5622
ிக்கப்பட்டு	-5623
▁எடுத்துக்காட்ட	-5624
நல	-5625
ஜென்	-5626
▁இப்படி	-5627
▁அந்தத்	-5628
▁எரிவாயு	-5629
▁புதிதாக	-5630
▁வாங்குபவர்	-5631
▁சட்டவிரோதமானது	-5632
▁:	-5633
▁அலி	-5634
ளையில்	-5635
▁அந்தஸ்த	-5636
▁அறிவித்த	-5637
▁நீதிபதிகளின்	-5638
▁நடவடிக்கையும்	-5639
▁தாவர	-5640
▁சென்னை	-5641
▁சிலர்	-5642
▁நோக்கில்	-5643
▁ஒருவருக்க	-5644
னங்கள்	-5645
▁உள்துறை	-5646
▁கல்க	-5647
▁அறிகுற	-5648
▁தண்டனையின்	-5649
▁கொண்டுள்ள	-5650
▁வேண்டுகோள	-5651
ரத்து	-5652
▁இல்லாதது	-5653
▁மூலமாகவோ	-5654
▁தீர்ப்புகளை	-5655
▁பற்றாக்குறை	-5656
மையற்ற	-5657
▁கர்ப்ப	-5658
▁திருப்பித்	-5659
▁விதிமுறைகளுக்கு	-5660
ையின்படி	-5661
▁கொள்வது	-5662
▁சொற்களை	-5663
க்களும்	-5664
ாளர்களால்	-5665
▁வசிக்கும்	-5666
▁பகுத்தறிவு	-5667
▁குறிப்பிடுகிறது	-5668
▁ஷெ	-5669
ேட்ட	-5670
▁இரகசிய	-5671
நெறி	-5672
ஞ்சம்	-5673
வர்களாக	-5674
▁சமீபத்தில்	-5675
▁இவற்ற	-5676
▁கடமையாகும்	-5677
▁வெப்ப	-5678
▁அமைக்க	-5679
▁பவனில்	-5680
▁பிரிவுகள்	-5681
▁பதிவுகள்	-5682
▁நெருக்கமான	-5683
▁வழக்குக்கு	-5684
▁பரிந்துரைகளை	-5685
ோடே	-5686
▁மொஹ	-5687
▁நெட்	-5688
▁போய்	-5689
ஒதுக்க	-5690
▁எடுக்கப்பட	-5691
▁வளர்ச்சியை	-5692
▁மீட்டெடுக்க	-5693
▁இளம்	-5694
▁முன்னே	-5695
▁இயக்கம்	-5696
▁உருவாக்குதல்	-5697
▁ஒருவருக்கொருவர்	-5698
பிசி	-5699
ென்று	-5700
▁உன்ன	-5701
▁ஐந்த	-5702
▁பரவலாக	-5703
▁தீர்மானம்	-5704
▁சுயாதீனமான	-5705
▁பணிநீக்கம்	-5706
தற்கோ	-5707
▁ஸ்திர	-5708
▁அனுமதிய	-5709
▁கழு	-5710
▁எல்லாவற்ற	-5711
▁ஆசிரியர்கள்	-5712
▁ஐடி	-5713
▁மத்தியில்	-5714
▁தோன்றுகிறது	-5715
▁எலு	-5716
▁கலெக்டர்	-5717
▁காப்பாற்ற	-5718
▁கட்டமைப்பை	-5719
▁மருத்துவமனைக்கு	-5720
பிரதேச	-5721
▁வெட்டு	-5722
▁வெளியீடு	-5723
▁திரி	-5724
▁ஒன்றுக்கு	-5725
▁கர	-5726
▁நொடி	-5727
▁நடத்து	-5728
▁சாட்சியின்	-5729
ணம்	-5730
▁கமிஷன்	-5731
▁அனுபவிக்க	-5732
▁இழி	-5733
ும்படி	-5734
ினிய	-5735
செய்வ	-5736
▁எங்க	-5737
▁கணிசமாக	-5738
▁நிர்மாண	-5739
▁இயலாமை	-5740
பய	-5741
▁பயோ	-5742
ரால	-5743
்தொ	-5744
▁IV	-5745
▁இணைக்க	-5746
▁நீண்டகால	-5747
▁சாட்சிகளை	-5748
▁மனுஷ	-5749
▁பெங்கள	-5750
;)	-5751
▁கைவி	-5752
டியும்	-5753
▁உலகம்	-5754
▁உத்தரவால்	-5755
▁முடிந்தது	-5756
▁வழங்குவதற்கு	-5757
▁முதன்மையான	-5758
▁நிறுவனங்களை	-5759
▁பான	-5760
▁கம்யூனி	-5761
.-	-5762
▁பதிவே	-5763
▁அதிகரிப்பு	-5764
▁வேண்டுகோள்	-5765
▁இருப்பதாகவும்	-5766
▁சிவ	-5767
டுகிறார்	-5768
வலிய	-5769
▁காத	-5770
▁நம்புகிறேன்	-5771
ீடும்	-5772
ர்னி	-5773
ுகள்	-5774
▁சரக்கு	-5775
▁வணிகத்தை	-5776
ாஸ்	-5777
ரியை	-5778
▁பிரசாத்	-5779
நாள	-5780
ரிச	-5781
▁டொ	-5782
▁இரண்டும்	-5783
▁வழக்கமாக	-5784
▁ஒப்புக்கொண்ட	-5785
மதிய	-5786
ட்சியை	-5787
▁நிரூபி	-5788
▁ஆலோசனையின்	-5789
ன்பொரு	-5790
▁இழக்க	-5791
ிக்கொள்ள	-5792
▁சிஆர்பி	-5793
▁கிடைக்கிறது	-5794
▁அடுக்கு	-5795
▁கட்டாயப்படுத்த	-5796
▁ஸ்டேட்	-5797
▁தகுதிகள்	-5798
▁விரிவாக்க	-5799
▁கூறுகிறார்	-5800
▁செயல்பாட்டை	-5801
▁கண்டறியப்பட்டது	-5802
▁அரசுகள்	-5803
▁மேற்பார்	-5804
▁கூட்டாட்சி	-5805
▁சுருக்கமான	-5806
▁உருவாக்குகிறது	-5807
▁பெருக்க	-5808
▁திட்டமிடல்	-5809
▁உத்தரவையும்	-5810
லைன்	-5811
ாளரை	-5812
et	-5813
▁மறைந்த	-5814
ோல்	-5815
▁சூழல்	-5816
▁தொடர்க	-5817
▁முதலாவதாக	-5818
▁உடன்படிக்கை	-5819
ச்சார்ப	-5820
▁லார்ட்	-5821
▁காலத்தின்	-5822
ிருக்கிறோம்	-5823
▁பகுதியின்	-5824
▁குடிமக்கள்	-5825
பால்	-5826
ங்காவ	-5827
க்குறி	-5828
▁விளக்கத்தின்	-5829
ர்வே	-5830
▁ரசீது	-5831
▁வரம்பைக்	-5832
▁வர்க்கம்	-5833
▁அறியப்பட்ட	-5834
▁முன்னிலையில்	-5835
▁அவனை	-5836
▁விதிகளில்	-5837
▁நீதிமன்றங்களில்	-5838
ப்பும்	-5839
▁கார்ப	-5840
ாட்டையும்	-5841
▁பின்னோக்கி	-5842
டான	-5843
▁நீத	-5844
தார்த்த	-5845
▁குழுவை	-5846
▁நினைக்க	-5847
▁தொடர்பானது	-5848
▁தேவி	-5849
▁கூட்டணி	-5850
▁அப்படியே	-5851
▁விண்ணப்பத்தில்	-5852
பிரி	-5853
▁கிரே	-5854
▁நிலங்களை	-5855
▁வாஷிங்டன்	-5856
▁ஏற்பாடுகள்	-5857
▁உத்தரபிரதேச	-5858
▁குற்றவாளிகள்	-5859
▁பெரும்பான்மை	-5860
▁பொதுச்	-5861
▁வாதியின்	-5862
▁அதற்கேற்ப	-5863
▁சந்தையில்	-5864
▁எளிய	-5865
▁பிரபல	-5866
டுவதற்கான	-5867
ுவார்	-5868
▁விடுப	-5869
▁காணலாம்	-5870
▁நிலைநிறுத்த	-5871
▁நீதிபதியால்	-5872
▁உணர்ந்த	-5873
▁சட்டப்பூர்வமாக	-5874
▁பூர்	-5875
ாண்டில்	-5876
▁பத்திரிக	-5877
▁இயற்கையில்	-5878
▁உருவாக்குவது	-5879
▁சட்டமன்றத்தால்	-5880
பொருள	-5881
▁பதிப்பு	-5882
▁கண்டுபிடிக்க	-5883
▁n	-5884
▁எகி	-5885
▁கண்டிப்பாக	-5886
▁அமைந்துள்ளது	-5887
▁வழிகாட்டுதல்கள்	-5888
▁க்குப்	-5889
▁உன	-5890
▁மாள	-5891
▁பதவியை	-5892
▁உபக	-5893
▁நெரு	-5894
▁இயல்புநில	-5895
▁நிறுவனத்தை	-5896
வர்களுக்கும்	-5897
▁நிர்வகிக்கும்	-5898
▁விரும்பிய	-5899
▁மாதங்களுக்குள்	-5900
்கார	-5901
▁சிர	-5902
▁தானே	-5903
ற்றுக்	-5904
▁தொலைதூ	-5905
▁பொருத்தமாக	-5906
▁குடியரசின்	-5907
▁குழந்தையின்	-5908
):	-5909
as	-5910
மீர்	-5911
▁இடஒதுக்க	-5912
▁விளைவுகளை	-5913
▁பிரதேசம்	-5914
▁நிகழ்வில்	-5915
▁சீர	-5916
▁கூடுதலான	-5917
▁மாநிலங்கள	-5918
▁பெரிதும்	-5919
▁அமைப்புகள்	-5920
▁ஒப்புக்கொள்ள	-5921
▁நிபந்தனைகளுக்கு	-5922
னியா	-5923
ும்கூட	-5924
▁சுரண்ட	-5925
▁கூட்டம்	-5926
▁நிலையத்தில்	-5927
▁கோயில	-5928
▁டெண்டர்	-5929
▁எடுத்துச்	-5930
கொ	-5931
▁அவரிடம்	-5932
▁தீவிரமான	-5933
வலியுறுத்தல்	-5934
▁நெறிமுறை	-5935
▁மாதிரியான	-5936
▁தீர்ப்பால்	-5937
▁செய்யப்பட்டார்	-5938
▁செய்யப்பட்டால்	-5939
ஞ்சிய	-5940
▁தங்களை	-5941
▁வணிகத்தின்	-5942
சதி	-5943
கட்ட	-5944
ிருந்தன	-5945
▁வெள்ளை	-5946
▁முன்வைக்க	-5947
▁நீதிபதிகளை	-5948
ம்பி	-5949
▁இங்குள்ள	-5950
▁தோன்றும்	-5951
▁பசுமை	-5952
ழில்	-5953
▁காரணத்தை	-5954
▁உறுதிமொழி	-5955
▁பார்க்கவும்	-5956
▁வெற்றிகரமாக	-5957
▁நடைமுறைகளின்	-5958
ோடி	-5959
▁உபகரண	-5960
▁அடுத்து	-5961
▁நிலங்கள்	-5962
▁சமத்துவக்	-5963
▁வழிவகுத்தது	-5964
un	-5965
▁வேதனைய	-5966
▁அந	-5967
ஸ்கோ	-5968
ப்பான்	-5969
▁அசையா	-5970
▁பரிசு	-5971
▁நெட்வொ	-5972
▁நீர்ப்ப	-5973
▁பகிர்வு	-5974
ச்சே	-5975
ல்ஸ்	-5976
▁அதிபர்	-5977
▁c	-5978
ீட்டிற்கு	-5979
▁இஸ்ரவேல்	-5980
▁முயற்சிக்க	-5981
வேன்	-5982
▁யூத	-5983
ஸ்ரா	-5984
ிவிட்ட	-5985
le	-5986
கையை	-5987
▁வளர்ந்த	-5988
▁சிங்கின்	-5989
முனை	-5990
▁செயல்களை	-5991
▁உழைக்கும்	-5992
▁குறிப்புகள்	-5993
▁தேதியிட்டது	-5994
▁திட்டத்திற்கு	-5995
ராண்ட	-5996
்பூர்	-5997
▁ஆணைக்குழு	-5998
▁பெரும	-5999
▁பொருட்கள	-6000
▁வழங்கவில்லை	-6001
▁வாக்குறு	-6002
தாம்	-6003
ிருக்கு	-6004
▁முறையீட்டில்	-6005
▁ஆய்	-6006
▁நிறுவனமாக	-6007
▁விவாகரத்து	-6008
▁பச்ச	-6009
▁ஆண்டிற்கான	-6010
ாராய	-6011
▁செயற்ப	-6012
▁நிராகரித்தது	-6013
▁போலி	-6014
பிடபிள்யூ	-6015
▁தெரியவில்லை	-6016
▁வலுப்படுத்த	-6017
தாகவோ	-6018
ிப்பதற்கு	-6019
IO	-6020
▁இதற்க	-6021
▁ஈராக்கில்	-6022
டே	-6023
▁செயல்கள்	-6024
மட்ட	-6025
னைகள்	-6026
▁முரணாக	-6027
▁என்பதன்	-6028
▁பிரிக்க	-6029
▁அனுப்பின	-6030
▁பின்னால்	-6031
▁ஆகியவற்றுக்கு	-6032
▁தீர்ப்பளிக்கும்	-6033
ன்னி	-6034
▁அமைதி	-6035
▁அப்துல்	-6036
க்கூடியது	-6037
▁கடிதத்தை	-6038
▁பொருளைக்	-6039
னத்தின்	-6040
▁சூத்திர	-6041
▁திறந்து	-6042
▁மாற்றங்கள்	-6043
▁கொள்ளுங்கள்	-6044
▁தினசரி	-6045
▁படப்பிடி	-6046
AI	-6047
▁ரொ	-6048
▁ஆதி	-6049
▁வயதை	-6050
▁பற்றியும்	-6051
▁ஆப்கானிஸ்தான	-6052
நோய	-6053
▁வாசி	-6054
▁அவனுக்கு	-6055
▁எழ	-6056
▁அவதூ	-6057
▁தெலு	-6058
ர்வின்	-6059
▁ஆதாரச்	-6060
▁படுகொலை	-6061
க்கப்படாத	-6062
▁கட்டாயமாக	-6063
▁குற்றங்களை	-6064
ற்றது	-6065
▁ஒப்புதலுடன்	-6066
▁ஏற்றுக்கொண்டது	-6067
▁இதர	-6068
ங்கர்	-6069
▁மீட்டர்	-6070
▁உம்முடைய	-6071
▁இமா	-6072
▁எக்ஸ்	-6073
▁தேவையை	-6074
▁திட்டமி	-6075
▁நேரத்தை	-6076
▁பங்கேற்ற	-6077
▁விவரிக்கப்பட்ட	-6078
he	-6079
ம்தான்	-6080
த்திடம்	-6081
▁ஆற்றல்	-6082
▁கட்டிய	-6083
▁கடிதங்கள்	-6084
▁வழங்குவதற்கும்	-6085
▁செலுத்துவதற்கான	-6086
/0	-6087
▁சூட்	-6088
▁கடந்து	-6089
▁ஆகியவற்றால்	-6090
▁ஹவு	-6091
▁அவகா	-6092
▁சமாளிக்க	-6093
▁மனுதாரர்களின்	-6094
▁வர்த்தமானியில்	-6095
▁மொபைல்	-6096
▁பரிசுத்த	-6097
▁கவனத்திற்கு	-6098
ருக்காக	-6099
வர்களுடன்	-6100
ிருக்கிறார்கள்	-6101
▁ஞான	-6102
டுதல்	-6103
▁ஆழ்ந்த	-6104
▁கடினமான	-6105
▁குறிப்பிட்டு	-6106
ந்தா	-6107
▁பஸ்	-6108
ையேயான	-6109
▁அரசாங்கத்தை	-6110
ப்டின	-6111
▁சுற்றறிக்கை	-6112
பொருட	-6113
▁தார்	-6114
▁தவறாகப்	-6115
▁வலியுறுத்து	-6116
▁நீதிமன்றங்களால்	-6117
▁t	-6118
ிடையில்	-6119
▁காலமாக	-6120
▁அதிகாரிய	-6121
▁சித்திரவதை	-6122
▁மருத்துவமனையில்	-6123
▁ஆற	-6124
மெட்	-6125
ிறன்	-6126
ொள்கிறது	-6127
▁மறுசீரமை	-6128
▁அளவுருக்க	-6129
▁சதவிகிதம்	-6130
▁இழப்பீட்டை	-6131
நாயகர்	-6132
▁குறைய	-6133
▁அமைச்சர	-6134
▁நீதவான்	-6135
▁இருந்ததால்	-6136
▁அறிவிப்புகள்	-6137
▁கூட்டா	-6138
▁கோரும்	-6139
▁மின்னணு	-6140
▁பகுதிக்கு	-6141
▁அறிக்கைகளை	-6142
▁விளக்கத்தை	-6143
ைட்	-6144
ில்தான்	-6145
▁கையெழுத்த	-6146
▁மாற்றப்பட்டது	-6147
பான	-6148
நாட்டில்	-6149
▁மாஜிஸ்திரே	-6150
▁எடை	-6151
▁ரிமா	-6152
▁பிரிவை	-6153
▁பணிபுரியும்	-6154
▁தயாரித்த	-6155
▁தேர்ந்தெடுப்ப	-6156
▁எதிர்காலத்தில்	-6157
▁எட்ட	-6158
ஸ்ட்ரீ	-6159
▁ராஜாவ	-6160
▁வாரம்	-6161
▁முதலமைச்ச	-6162
▁சிறுபான்மைய	-6163
▁தரைய	-6164
▁நகர்	-6165
▁வரலாறு	-6166
▁வாழ்க்கையின்	-6167
▁உயர	-6168
க்கூறு	-6169
▁சூரிய	-6170
▁பன்னிர	-6171
▁எதிர்த்த	-6172
▁வருகிறார்	-6173
▁பத்திரத்தின்	-6174
ர்களிடமிருந்து	-6175
▁மலை	-6176
▁மகள்	-6177
ுவதும்	-6178
▁தேர்வில்	-6179
க்கப்பட்டுள்ளன	-6180
▁விகிதாசார	-6181
▁முதன்மையாக	-6182
▁தொண்டு	-6183
▁அதிகப்படியான	-6184
vi	-6185
▁ஆப்	-6186
▁இச	-6187
▁வெளியேற	-6188
ப்பகுதியில்	-6189
▁ஆதாரம்	-6190
▁முன்வைத்த	-6191
▁துணைப்பிரிவில்	-6192
ானா	-6193
ோளை	-6194
▁டன்	-6195
லுடன்	-6196
▁ரகசிய	-6197
▁கட்சிக்கு	-6198
ில்லை	-6199
▁சீனா	-6200
▁வெளியி	-6201
▁நீதிபதியாக	-6202
▁நிர்ணயிக்கும்	-6203
▁வழங்கியுள்ளது	-6204
மிருந்தும்	-6205
▁பணியாளர்கள்	-6206
▁சட்டவிரோதமாக	-6207
▁தொழிலாளர்களை	-6208
la	-6209
▁வசம்	-6210
நடை	-6211
▁ஓர்	-6212
ஸ்கர்	-6213
▁நடுவ	-6214
ால்தான்	-6215
▁சேகரிக்க	-6216
▁ஆலோசகரால்	-6217
PA	-6218
१५	-6219
▁ஓடி	-6220
முடைய	-6221
ுவசதி	-6222
க்குறை	-6223
▁சுதந்திரமாக	-6224
ியுள்ளன	-6225
ிவிட்டது	-6226
▁கண்காட்சி	-6227
▁தேதிகளில்	-6228
▁மதிப்பிடுவ	-6229
▁இருப்பதாகக்	-6230
▁பிரீ	-6231
நிலையை	-6232
ப்படக்கூடாது	-6233
▁அலுவலகத்தில்	-6234
▁ஆலோசகர்களால்	-6235
க்குழு	-6236
▁எவ்வளவு	-6237
▁காணப்படுகிறது	-6238
ாரிய	-6239
ுவதைத்	-6240
▁பாட்ட	-6241
▁மீறும்	-6242
▁அறங்காவ	-6243
▁தீர்மானிக்கப்பட	-6244
ரின	-6245
மற்றும்	-6246
லையன்ஸ்	-6247
▁விலையை	-6248
▁பரிந்துர	-6249
▁முன்மாதி	-6250
▁தொடர்ச்சியாக	-6251
மர்த்த	-6252
▁ஈராக்கிய	-6253
லிசி	-6254
▁நடத்தி	-6255
ங்களுக்குள்	-6256
▁கலந்தாலோசி	-6257
▁தொடங்கியது	-6258
க்கே	-6259
நீர்	-6260
▁சந்திக்க	-6261
▁வரவில்லை	-6262
▁எண்ணிக்கையில்	-6263
பக்ஷ	-6264
க்குத்	-6265
▁என்பதே	-6266
▁மாட்டார்	-6267
▁கடிதத்தில்	-6268
▁எண்ணிக்கையிலான	-6269
க்கோ	-6270
▁வட்டிய	-6271
▁காப்பீட்டாள	-6272
▁மாதத்திற்கு	-6273
▁இசை	-6274
▁மோகன்	-6275
▁நிறைவேற்றியது	-6276
எந்த	-6277
னமாக	-6278
▁அட்டர்னி	-6279
▁பார்வையை	-6280
▁அதிகாரிகளால்	-6281
கொள்ள	-6282
▁துணி	-6283
▁கடிதத்தின்	-6284
ேக்	-6285
▁கன்	-6286
▁காக	-6287
▁கலைஞ	-6288
▁மாநாட்டில்	-6289
▁பார்த்து	-6290
▁ஆகியோரால்	-6291
▁உரிமையும்	-6292
▁செயல்பாட்டின்	-6293
▁வாழ்த்துக்கள்	-6294
டுத்தர	-6295
▁சார்பு	-6296
▁நமக்கு	-6297
▁வழங்கப்பட்டன	-6298
நகர்	-6299
▁பாதுகாவ	-6300
களான	-6301
▁கிரா	-6302
▁மாளிக	-6303
▁அடிப்படைக்	-6304
▁முறையீடுகளில்	-6305
▁ஒலி	-6306
▁தகவலறிந்த	-6307
▁ரிலையன்ஸ்	-6308
▁அதிகாரியாக	-6309
▁அலகா	-6310
▁அணிவகு	-6311
▁அத்துடன்	-6312
டனான	-6313
▁நுழ	-6314
ர்சஸ்	-6315
▁ஐரோப்ப	-6316
▁மூப்பு	-6317
▁லெப்டின	-6318
▁சிக்கலான	-6319
▁இயற்கையின்	-6320
▁விஷயத்தின்	-6321
▁ஏற்றுக்கொள்வது	-6322
ாத்கார	-6323
▁விதம்	-6324
▁மாறும்	-6325
▁சிறையில்	-6326
▁படைகள்	-6327
▁செலவுகளை	-6328
▁மூடப்பட்ட	-6329
▁வைத்திருந்த	-6330
பிய	-6331
▁இள	-6332
▁கைவிட	-6333
▁மேம்பட்ட	-6334
ொன்ற	-6335
▁பலாத்கார	-6336
ுக்கிடையேயான	-6337
▁வாய்ப்புகள்	-6338
▁கழிவு	-6339
▁முகவர்	-6340
▁இஸ்ரேலிய	-6341
▁வழிமுறைகளை	-6342
▁ஏழ	-6343
▁அவருடன்	-6344
▁இதோ	-6345
▁டெவல	-6346
▁பென்	-6347
ப்பைக்	-6348
▁ஏற்றுக்	-6349
▁சுத்திக	-6350
▁உண்மைதான்	-6351
▁கொடுத்தார்	-6352
▁மாட்டார்கள்	-6353
▁வருடம்	-6354
க்கிற்கு	-6355
▁சிறப்பாக	-6356
▁நெடு	-6357
▁மரியாதை	-6358
▁தாக்கத்தை	-6359
▁ஏற	-6360
▁யாத	-6361
▁ஏஜென்	-6362
▁புகாரை	-6363
▁புதுமை	-6364
▁வழிய	-6365
▁வைக்கும்	-6366
▁நடைமுறைகளை	-6367
▁இதற்கிடையில்	-6368
▁உரிமையாளர்கள்	-6369
▁விண்ணப்பங்கள்	-6370
மர்	-6371
ஸ்வ	-6372
ந்தார்	-6373
▁இரண்டையும்	-6374
▁எதிர்பார்ப்பு	-6375
▁தோற்க	-6376
வருக்கான	-6377
▁அதுவும்	-6378
▁சேர்த்த	-6379
▁கண்ணோட்ட	-6380
▁குறியீடு	-6381
▁நீர்ப்பாச	-6382
▁வழிமுறைகள்	-6383
▁அணை	-6384
▁எரு	-6385
மாநில	-6386
▁அங்கே	-6387
▁விரும்புகிறேன்	-6388
▁சொலிசி	-6389
▁இன்னொரு	-6390
▁கியூ	-6391
▁சட்டசப	-6392
▁ஒப்பிடு	-6393
▁தொலைக்காட்சி	-6394
▁சொலிசிட்டர்	-6395
▁விண்ணப்பங்களை	-6396
ேயும்	-6397
▁எனில்	-6398
▁குழந்தைகளின்	-6399
▁வளர்ச்சியின்	-6400
▁விளைவுகள்	-6401
▁வீட்டுவசதி	-6402
▁உறுப்பினர்களை	-6403
▁வழங்கப்பட்டால்	-6404
ent	-6405
▁கூட்டாக	-6406
▁காலங்களில்	-6407
ெனி	-6408
▁ஹீ	-6409
▁கழக	-6410
▁உயிரி	-6411
▁வணிகம்	-6412
▁அப்போது	-6413
▁சமத்துவம்	-6414
▁விரிவாகக்	-6415
▁பத்திகளில்	-6416
▁வழக்கைத்	-6417
▁சபாநாயகர்	-6418
▁வாழ்க்கைத்	-6419
▁குற்றத்தைச்	-6420
▁சேகரிக்கப்பட்ட	-6421
▁மேம்படுத்துதல்	-6422
பால	-6423
ூல்	-6424
பாரி	-6425
▁தாங்க	-6426
▁வெர்சஸ்	-6427
▁ஆராய்ந்து	-6428
▁முரண்பாடுகள்	-6429
தாலும்	-6430
▁மருத்துவர்	-6431
▁கொள்ளவில்லை	-6432
▁நிகர	-6433
▁ஸ்ரால	-6434
▁தொலைதூர	-6435
▁போதுமானது	-6436
▁அனுமதியின்	-6437
▁நேரத்திற்குள்	-6438
▁ஊட்ட	-6439
▁அதிகாரியால்	-6440
▁எதிர்கொள்ளும்	-6441
ட்டா	-6442
▁அமைப்பில்	-6443
▁பேராசிரியர்	-6444
▁தீர்ப்பதற்கு	-6445
ol	-6446
▁OF	-6447
▁ரீ	-6448
▁லக்	-6449
▁அமைப்பை	-6450
ளின்	-6451
▁நகலை	-6452
▁என்க	-6453
▁எழுது	-6454
▁நம்மை	-6455
▁நடுத்தர	-6456
▁பங்குகள்	-6457
▁வேளையில்	-6458
▁கட்டுமானம்	-6459
▁செய்யப்படாத	-6460
டைந்து	-6461
▁டைகர்	-6462
த்துள்ளன	-6463
▁செயல்படுகிறது	-6464
சல்	-6465
ஞ்சி	-6466
▁ஆர்ட	-6467
AT	-6468
▁அளிப்ப	-6469
▁சமரசம்	-6470
▁பன்முக	-6471
▁அனுமதிக்கும்	-6472
▁உந்து	-6473
▁முத்திரை	-6474
▁அலட்சியம்	-6475
▁கையாண்டது	-6476
▁நடத்தப்பட்டது	-6477
டியா	-6478
இந்திய	-6479
▁அதைச்	-6480
முறையாக	-6481
▁காலாவதியாகும்	-6482
வைத்	-6483
▁பூக	-6484
▁அனுப்பு	-6485
▁காலியாக	-6486
▁பிரகாஷ்	-6487
▁முன்பதிவு	-6488
▁போன்றவற்றை	-6489
▁வளாகத்தில்	-6490
▁வேண்டியிருந்தது	-6491
ri	-6492
ரிம	-6493
ராம்	-6494
▁சிறுவ	-6495
▁வாழ்வ	-6496
▁தணிக்க	-6497
▁செய்ததாக	-6498
▁தமிழ்நாடு	-6499
தலில்	-6500
▁ஏனைய	-6501
க்குச்	-6502
▁கீழ்ப்ப	-6503
▁வளர்ச்சிக்கு	-6504
▁தரமான	-6505
▁தரநிலை	-6506
▁மேற்பார்வ	-6507
▁முயற்சிகளை	-6508
ரியல்	-6509
ாட்டைப்	-6510
▁இராஜபக்ஷ	-6511
ேஷன்	-6512
▁ராவ்	-6513
▁கடற்க	-6514
▁இதுதான்	-6515
▁அவளுக்கு	-6516
▁மக்கள்தொ	-6517
▁உதவியுடன்	-6518
▁உத்தரவைப்	-6519
▁சிக்கல்கள்	-6520
▁பெருக	-6521
▁கூறும்	-6522
▁ஜெயின்	-6523
ிலி	-6524
்கர்	-6525
▁மனோ	-6526
▁நீதிபதிய	-6527
▁இந்நிக	-6528
▁தர்க்க	-6529
▁முஸ்லி	-6530
▁தேவனாகிய	-6531
▁சிந்திக்க	-6532
▁உற்பத்தியில்	-6533
▁மிரு	-6534
▁முகவரி	-6535
▁விடுவிக்க	-6536
ின்ப	-6537
▁கல்வித்	-6538
▁நான்காவது	-6539
▁அழி	-6540
▁நல்	-6541
▁பகிரங்க	-6542
ஜிய	-6543
தரா	-6544
▁ஜோர்	-6545
ாக்கள்	-6546
▁புகாரில்	-6547
▁தலைமையில்	-6548
▁தன்னிச்சையாக	-6549
ாரும்	-6550
▁தண்ணீ	-6551
▁ஜேர்மன்	-6552
▁சட்டமும்	-6553
▁கார்ட	-6554
▁பேரழிவு	-6555
▁பதவிக்க	-6556
▁பணியமர்த்த	-6557
▁வக்	-6558
▁ஆபத்தான	-6559
▁செலுத்துவதில்	-6560
ப்புவ	-6561
ியமைய	-6562
▁அதிரு	-6563
ப்பையும்	-6564
▁தலையிடுவ	-6565
சிபி	-6566
ருங்கள்	-6567
▁மன்றம்	-6568
▁அளவுக்கு	-6569
▁வயதுக்கு	-6570
▁வழங்குவதை	-6571
▁புதுப்பிக்க	-6572
வாசி	-6573
▁குண்டுவ	-6574
▁அப்போதைய	-6575
▁விழாவில்	-6576
▁வார்த்தையின்	-6577
▁PAR	-6578
▁வளை	-6579
▁விசுவ	-6580
▁பரிசீலிக்கப்பட	-6581
பூ	-6582
வழை	-6583
▁No	-6584
்களால்	-6585
▁நடக்க	-6586
ிருந்தோ	-6587
▁விஷயத்திலும்	-6588
நாத்	-6589
ஷ்டவச	-6590
விட்டு	-6591
ஸுக்கு	-6592
▁i	-6593
▁உலகில்	-6594
▁கையாளு	-6595
▁செயலில்	-6596
▁விண்ணப்பத்தின்	-6597
ாவே	-6598
ிலு	-6599
▁ஆளு	-6600
▁தூத	-6601
▁எளிதா	-6602
ுவிட்டார்	-6603
▁தொடங்குவதற்கு	-6604
▁தரையிற	-6605
▁நீடிக்க	-6606
▁கண்டறிந்தது	-6607
▁தன்னிச்சையான	-6608
▁சொத்துக்களின்	-6609
▁இறையா	-6610
்களைப்	-6611
இறந்த	-6612
▁வரிசை	-6613
▁உள்ளார்	-6614
▁இன்றியமைய	-6615
▁தரப்பினரால்	-6616
ிகா	-6617
சட்டம்	-6618
முறையின்	-6619
▁உரிமையைப்	-6620
▁கெஞ்ச	-6621
▁கம்யூனிஸ்ட்	-6622
▁வரவழை	-6623
▁ஒன்பது	-6624
▁மற்றவற்ற	-6625
▁விஜய	-6626
▁சிறிது	-6627
ப்பொருள்	-6628
▁செல்வாக்கு	-6629
▁திருத்தங்கள்	-6630
▁அனுமதிக்கிறது	-6631
▁h	-6632
நீக்க	-6633
▁எதிர்கொண்ட	-6634
▁லெப்டினன்ட்	-6635
▁வாக்குமூலத்தில்	-6636
ுவின்	-6637
▁தவறிவிட்ட	-6638
ce	-6639
லெ	-6640
ைகளை	-6641
▁ஏற்பாட்டின்	-6642
▁பெறப்பட்டது	-6643
பெற்ற	-6644
ின்று	-6645
▁தட்ட	-6646
▁வில்	-6647
▁துணைத்	-6648
▁முறைகள்	-6649
▁கூட்டமைப்பு	-6650
ீழ	-6651
பாத்தில்	-6652
▁இஸ்ரேல்	-6653
▁........	-6654
▁அதிருப்த	-6655
▁அம்சங்களை	-6656
பதில	-6657
வேளை	-6658
▁பிரச	-6659
▁கம்பெனி	-6660
▁வசதிகளை	-6661
▁உண்மைகளையும்	-6662
ஜூ	-6663
▁பம்பாய	-6664
▁தேசத்தின்	-6665
▁சமர்ப்பித்து	-6666
▁பரிந்துரைத்தது	-6667
்கோ	-6668
சிவில்	-6669
▁நிதிக்	-6670
▁குற்றங்களுக்காக	-6671
ஸ்கி	-6672
னையையும்	-6673
▁செலுத்துவதற்கு	-6674
▁செய்யுங்கள்	-6675
நகர	-6676
▁ஹரி	-6677
▁யின்	-6678
▁ஜம்மு	-6679
▁வருவது	-6680
▁கொண்டால்	-6681
▁மென்பொரு	-6682
▁கவுன்சிலின்	-6683
ST	-6684
சலே	-6685
▁சேர	-6686
▁வேலையின்	-6687
▁உருவாக்கி	-6688
ut	-6689
▁தமிழக	-6690
▁காப்பீடு	-6691
▁கிராமத்தில்	-6692
▁அழிக்க	-6693
▁இயக்குன	-6694
▁தார்மீக	-6695
▁விலையில்	-6696
▁வாடகைக்கு	-6697
▁மறுவா	-6698
▁அணுகல்	-6699
▁நடத்தப்படும்	-6700
சஸ்	-6701
னான்	-6702
▁தடாவின்	-6703
▁நன்மைகள்	-6704
ச்சார்பற்ற	-6705
▁சந்தேகமும்	-6706
▁பொதுத்துறை	-6707
▁அப்பாற்பட்ட	-6708
▁துன்புறுத்த	-6709
▁நடவடிக்கைக்கான	-6710
▁PART	-6711
விலும்	-6712
▁பிள்ள	-6713
▁அடமானம்	-6714
▁கல்கத்தா	-6715
▁வெளிவந்த	-6716
▁அச்சுறுத்தல்	-6717
ப்போக	-6718
▁எழுதி	-6719
▁கமிஷனர்	-6720
▁நுகர்வோ	-6721
▁கருவிகள்	-6722
ொன்ன	-6723
▁பெற்று	-6724
ினார்கள்	-6725
▁காட்டும்	-6726
ப்படுகிறதா	-6727
▁விரும்பினார்	-6728
▁சினிமா	-6729
▁மொழிபெய	-6730
மட்	-6731
▁ஜாமீனில்	-6732
▁போக	-6733
▁பணியில்	-6734
▁பார்ப்ப	-6735
▁சந்தித்த	-6736
▁அப்படியான	-6737
▁நடவடிக்கையை	-6738
▁பிராந்தியத்தில்	-6739
ராய	-6740
▁ஊடு	-6741
▁இன்றைய	-6742
▁பொருளாதாரம்	-6743
▁ஒட்டுமொத்தமாக	-6744
▁நம்பியுள்ளார்	-6745
▁ஐம்ப	-6746
▁ஈடுபட	-6747
▁சட்டக்	-6748
▁இருதரப்பு	-6749
▁புத்திசால	-6750
▁அறிவித்தது	-6751
▁வேறுபட்டது	-6752
▁வேண்டியதில்லை	-6753
▁ஆபரே	-6754
▁எலும்பு	-6755
▁வியாபார	-6756
▁குற்றச்சாட்டை	-6757
ளிப்பு	-6758
▁நுட்ப	-6759
▁வறுமை	-6760
ர்ச்சிய	-6761
▁அடிக்கடி	-6762
▁வாழ்க்கையில்	-6763
▁உமது	-6764
▁அசையாச்	-6765
▁வழங்கப்படலாம்	-6766
தாய	-6767
▁க்குள்	-6768
▁முரணான	-6769
▁பூர்வாங்க	-6770
▁விதிக்கும்	-6771
▁அனுப்பப்பட்ட	-6772
▁உருவாக்கியது	-6773
▁அரசியலமைப்புச்	-6774
ிருப்பதாக	-6775
▁அளித்தார்	-6776
▁பக்கத்தில்	-6777
▁மீட்கப்பட்ட	-6778
▁சமர்ப்பிப்பை	-6779
▁......	-6780
▁பொருட்களுக்கு	-6781
▁கொண்டிருந்தார்	-6782
்கொ	-6783
ப்படாமல்	-6784
▁தனித்தனி	-6785
▁சாட்சியாக	-6786
▁நெருங்கிய	-6787
▁அதிகரிக்கும்	-6788
▁பொறுப்பாகும்	-6789
க்கிர	-6790
மானவை	-6791
ிற்று	-6792
▁நீதியை	-6793
▁நேற்று	-6794
▁நெடுஞ்ச	-6795
▁விற்பனையை	-6796
வாரி	-6797
▁பயிர்	-6798
▁பாதகமான	-6799
▁முப்பது	-6800
▁சாத்தியக்கூறு	-6801
▁மஹ	-6802
ண்ணை	-6803
▁ஒன்றில்	-6804
▁மனுவின்	-6805
▁மாநிலத்தால்	-6806
▁விழிப்புணர்வு	-6807
▁எஸ்டேட்	-6808
▁தலையீடு	-6809
▁பிறகும்	-6810
▁முன்னிட்டு	-6811
▁மேற்பார்வை	-6812
ஜன்	-6813
ுக்களை	-6814
▁பட்டண	-6815
▁அசோசிய	-6816
▁டைம்ஸ்	-6817
▁நுகர்வு	-6818
--------	-6819
▁விவாதம்	-6820
▁ரிமாண்ட்	-6821
▁செய்தியில்	-6822
▁சராசரி	-6823
ட்டியில்	-6824
▁அர்த்தத்தில்	-6825
▁சட	-6826
▁போதை	-6827
ர்த்துக்	-6828
விடம்	-6829
▁அறுவை	-6830
▁தீர்க்கும்	-6831
▁தரப்பினருக்கு	-6832
▁கட்டுப்பாடுகள்	-6833
ுய	-6834
▁வழிகாட்ட	-6835
▁ஆகியவற்றுடன்	-6836
▁போட்டியிடும்	-6837
▁உத்தரவுகளுக்கு	-6838
▁விளி	-6839
▁ஆஜர்ப	-6840
▁சங்கங்கள்	-6841
▁நேரங்களில்	-6842
▁புத்திசாலித்த	-6843
ச்சா	-6844
▁பருவ	-6845
வருடன்	-6846
▁வசிப்ப	-6847
ாளர்களாக	-6848
▁சார்க்க	-6849
▁மாதிரியாக	-6850
▁செல்லுபடியை	-6851
▁தூய்	-6852
ச்சின்	-6853
▁ஆழமான	-6854
▁நலனில்	-6855
த்திலேயே	-6856
▁பயனுள்ளதாக	-6857
▁வழக்குரைஞர்	-6858
ன்னா	-6859
▁நிகழ்வுகள்	-6860
ec	-6861
ளோ	-6862
▁ஒப்புதலை	-6863
▁முயற்சியை	-6864
No	-6865
▁மண்ண	-6866
▁சோவிய	-6867
ப்பெண்ண	-6868
▁தெரியும்	-6869
▁நியமிக்கும்	-6870
மாற	-6871
த்தோ	-6872
சித்து	-6873
▁பின்பு	-6874
▁தொடரும்	-6875
▁பின்வருவன	-6876
க்கப்பட்டார்	-6877
ed	-6878
▁வேக	-6879
▁கடத்த	-6880
▁நீதிய	-6881
▁ஆளுநரின்	-6882
களிடமிருந்து	-6883
▁ஆணைக்குழுவின்	-6884
▁ஆயுதம்	-6885
▁வாதிட்ட	-6886
▁நாட்களில்	-6887
▁கோட்பாடுகள்	-6888
ினாமா	-6889
▁பட்டா	-6890
▁ஹைதரா	-6891
▁எங்களை	-6892
▁நாட்டு	-6893
▁விருதுகள்	-6894
▁ஆணையத்தால்	-6895
க்கெ	-6896
ருதி	-6897
▁பாட்	-6898
▁அவதூறு	-6899
▁உதாரணமாக	-6900
▁பாலஸ்தீனிய	-6901
▁உட்பிரிவின்	-6902
▁நியாயமற்றது	-6903
▁தனியுரிமைக்கான	-6904
▁அண்	-6905
நியாய	-6906
▁ஆச்ச	-6907
▁கையே	-6908
▁சொசை	-6909
▁சுற்றி	-6910
▁அப்படியானால்	-6911
▁மக்களுக்கும்	-6912
▁வருமானத்தில்	-6913
திகள்	-6914
▁கருதிய	-6915
▁நிலையம்	-6916
▁கற்பித்தல்	-6917
▁தீர்மானத்தை	-6918
▁விரும்புகிறோம்	-6919
ியல	-6920
வாலா	-6921
ாயுக	-6922
▁பண்ண	-6923
▁ரெஸ்	-6924
▁வற்ப	-6925
ளையின்	-6926
▁செலவில்	-6927
▁தொழில்முனை	-6928
▁ஆகியோருக்கு	-6929
▁நடத்துவதற்கு	-6930
வந்து	-6931
▁கடனை	-6932
▁பாதை	-6933
▁வரியை	-6934
▁ஸ்ராலினி	-6935
▁பெறுகிறது	-6936
▁மதிப்பாய்வு	-6937
▁மகிழ்ச்சியடை	-6938
ig	-6939
ஸ்ஸ	-6940
ோக்கு	-6941
▁சுரே	-6942
▁சமநிலை	-6943
▁உறவுகளை	-6944
▁நன்மைகளை	-6945
▁பிரான்ஸ்	-6946
▁உட்பிரிவுகள்	-6947
▁கொண்டிருக்கிறது	-6948
▁பதினை	-6949
▁இன்ஸ்ப	-6950
▁கையாள்கிறது	-6951
▁சூழ்நிலைகளை	-6952
▁ஒன்றியத்தின்	-6953
ிவிடும்	-6954
▁சொல்லி	-6955
▁வழிநடத்து	-6956
▁பயன்படுத்திய	-6957
▁மல	-6958
ையினர்	-6959
▁கோப்பு	-6960
▁கடற்படை	-6961
▁சேவைகளின்	-6962
▁நேர்மையான	-6963
▁சென	-6964
ப்பொருட	-6965
்களுடன்	-6966
▁அமைச்சின்	-6967
▁சுருக்கமாகக்	-6968
▁நம்பகத்தன்மையை	-6969
▁டிரா	-6970
▁வடிவமைப்பு	-6971
ளில்	-6972
▁பலவீ	-6973
▁தகுந்த	-6974
▁காலாவதியான	-6975
▁அத்தியாயத்தில்	-6976
ர்கு	-6977
▁பொருளின்	-6978
▁தாக்குதலை	-6979
IT	-6980
கல்	-6981
▁பயோமெட்	-6982
▁முடிவடைந்த	-6983
▁தரப்பினரும்	-6984
▁இருக்கக்கூடும்	-6985
ாயிரம்	-6986
▁மகிழ்ச்சி	-6987
▁மரப	-6988
க்கவும்	-6989
ிப்பின்	-6990
ர்களிடையே	-6991
▁இஸ்லாமிய	-6992
▁மறுவாழ்வு	-6993
▁பத்திரத்தில்	-6994
▁பயன்படுத்துதல்	-6995
▁பழி	-6996
▁அடையாளத்தை	-6997
▁ஆஜர்படுத்த	-6998
▁பரிந்துரைத்த	-6999
த்திருப்ப	-7000
▁கணக்கெடுப்பு	-7001
▁ஹே	-7002
▁இத்த	-7003
▁தளம்	-7004
▁செயல்பட்டு	-7005
▁பிரச்சினையில்	-7006
▁சுதந்திரத்தின்	-7007
▁இவ்	-7008
▁நரே	-7009
மையைப்	-7010
▁ஒழுங்கமை	-7011
▁தீர்ப்பைக்	-7012
▁எண்ணிக்கையை	-7013
▁ஏர்	-7014
▁தங்கு	-7015
▁வளர்க்க	-7016
▁தவறினால்	-7017
▁தொடக்கத்தில்	-7018
▁பதிலளிப்பவர்	-7019
▁தேவைப்பட்டால்	-7020
▁அன	-7021
▁ஆக்	-7022
வையாக	-7023
▁சிங்கள	-7024
முறையில்	-7025
▁கணக்கான	-7026
▁தாமதமாக	-7027
▁துரதிர்	-7028
▁மகத்தான	-7029
களுக்குள்	-7030
▁வியாபாரி	-7031
▁பெருநிறுவன	-7032
▁வேண்டுகோளை	-7033
▁விவகாரங்கள்	-7034
▁வைத்திருப்பவர்	-7035
▁பாய	-7036
▁பலவீன	-7037
▁வல்லுந	-7038
த்துக்கொண்ட	-7039
▁சூழ்நிலையை	-7040
▁தொழில்முனைவோ	-7041
ஆரில்	-7042
▁லண்ட	-7043
த்தினர்	-7044
த்தாலும்	-7045
▁பின்னரே	-7046
ப்படக்கூடிய	-7047
▁உரிமையாளரின்	-7048
▁ஒழ	-7049
ாவால்	-7050
▁சீரான	-7051
▁இவர்கள்	-7052
▁எரிசக்தி	-7053
▁எடுக்கப்பட்டது	-7054
▁வலைத்	-7055
▁அப்படி	-7056
▁முகமது	-7057
▁ஒன்றியம்	-7058
▁பிடபிள்யூ	-7059
▁ராக	-7060
▁சிறைவா	-7061
▁முஸ்லீ	-7062
▁ஒன்றும்	-7063
▁மெமோராண்ட	-7064
▁கட்டணங்களை	-7065
▁மய	-7066
▁வயதி	-7067
ச்சத்து	-7068
▁வெட்ட	-7069
ப்படுவதாக	-7070
▁தொடங்கும்	-7071
▁சுற்றறிக்க	-7072
▁மருந்துகள்	-7073
▁k	-7074
ீத்	-7075
▁இழு	-7076
கைகள்	-7077
னத்தை	-7078
ந்தின்	-7079
▁விஜய்	-7080
▁சோவியத்	-7081
ப்பெருக்க	-7082
▁எட்	-7083
▁கேட	-7084
▁அருகே	-7085
▁உடலில்	-7086
▁சைக்கி	-7087
▁விரோதமாக	-7088
▁நிலைமைகள்	-7089
▁தொடர்ந்தது	-7090
▁விற்பனைக்கு	-7091
▁நம்பியிருந்தார்	-7092
▁அழக	-7093
▁தீப	-7094
காட்ட	-7095
▁செயலை	-7096
▁குறிப்பை	-7097
▁விகிதத்தை	-7098
▁அதிகாரிகளை	-7099
▁சிபிசியின்	-7100
▁செயல்திறனை	-7101
டுத்துகின்றன	-7102
▁குடிமக்களின்	-7103
மேஷ்	-7104
▁பணிகளை	-7105
▁எப்படிய	-7106
▁வாழ்வாதார	-7107
▁p	-7108
▁பிளவு	-7109
▁வெகுஜன	-7110
பூர்வமான	-7111
▁தொகையில்	-7112
▁பெயர்கள்	-7113
▁அதிகாரிக்கு	-7114
▁முயற்சிக்கவும்	-7115
▁வங்காள	-7116
▁சட்டப்படி	-7117
▁சர்ச்சையை	-7118
▁பொருள்கள்	-7119
▁வேதனையடைந்த	-7120
▁இழப்பீட்டுத்	-7121
▁குற்றப்பத்திரிக	-7122
கிழ	-7123
▁தரும்	-7124
க்குரிய	-7125
▁ஒருவரின்	-7126
▁நம்முடைய	-7127
▁நீட்டிப்பு	-7128
▁இங்கிலாந்து	-7129
▁இயல்புநிலையாக	-7130
த்தனமான	-7131
▁நிர்வாகக்	-7132
▁வேறுபடுத்த	-7133
▁வழங்குகின்றன	-7134
▁வம்ச	-7135
ாவிலும்	-7136
▁உடலுறவு	-7137
▁மரணத்தை	-7138
ிருப்பதால்	-7139
ER	-7140
▁உங்கள	-7141
▁நடைபெற	-7142
ீவ்	-7143
▁டீ	-7144
ம்மை	-7145
▁பாங்க	-7146
▁செய்துள்ள	-7147
▁விளக்கப்பட	-7148
▁வரையறுக்கிறது	-7149
▁ஆட்டோ	-7150
▁புவிய	-7151
▁முதலிய	-7152
▁கையொப்பமிட	-7153
▁இடங்கள்	-7154
▁பங்கைக்	-7155
▁சுற்றியுள்ள	-7156
சாமி	-7157
▁உளவு	-7158
▁புலம்ப	-7159
▁வக்ஃப்	-7160
▁தப்பெண்ண	-7161
▁தீர்ப்புகளில்	-7162
க்கப்பட்டுள்ளபடி	-7163
போல	-7164
ண்டை	-7165
▁மில்	-7166
ங்கில்	-7167
▁செய்வதை	-7168
▁மடங்கு	-7169
▁அவகாசம்	-7170
▁வரம்பில்	-7171
ET	-7172
ஷின்	-7173
பிரிவு	-7174
▁நுழைய	-7175
பவர்கள்	-7176
ர்களைப்	-7177
▁கடன்களை	-7178
▁வளங்களை	-7179
▁தற்செயலான	-7180
▁பிரிவுகளில்	-7181
▁பிரச்சினைகளை	-7182
▁சேன	-7183
ணைப்பு	-7184
ப்பார்	-7185
▁விளக்கு	-7186
▁பல்ல	-7187
வாழ்வு	-7188
▁குறைகளை	-7189
பதிலளித்த	-7190
விருக்கும்	-7191
▁தொழில்கள்	-7192
▁செய்கிறார்	-7193
▁விவசாயிகள்	-7194
▁தேவைகளுக்கு	-7195
▁செபி	-7196
▁மரபு	-7197
▁ஹெக்ட	-7198
▁தத்துவ	-7199
▁வெற்று	-7200
▁ஒருபுறம்	-7201
▁இனப்பெருக்க	-7202
▁செயல்முறையின்	-7203
வரிட	-7204
▁குளி	-7205
▁பெயரை	-7206
▁நீடித்த	-7207
த்துக்கொள்ள	-7208
▁கேள்விப்பட்ட	-7209
ஹர்	-7210
▁பெறவில்லை	-7211
இன்	-7212
ொழு	-7213
மையுடன்	-7214
▁சூழ்நிலைகளின்	-7215
கன்	-7216
ாலம்	-7217
▁தனிநபர்	-7218
திருத்தம்	-7219
ிக்கப்பட்டன	-7220
▁உண்மைகளில்	-7221
திர	-7222
ation	-7223
ற்றொட	-7224
▁மதம்	-7225
▁வண்ண	-7226
க்களையும்	-7227
▁பிரகடனம்	-7228
▁வங்கியில்	-7229
▁மரணத்திற்கு	-7230
and	-7231
▁ஜனநாய	-7232
▁மீதும்	-7233
நோய்	-7234
துடன்	-7235
ுவேன்	-7236
▁ஆய்வக	-7237
▁மிருக	-7238
▁இடைவெளி	-7239
▁தொகுப்பு	-7240
▁மொழியில்	-7241
▁நிறைவேற்றும்	-7242
▁வற	-7243
சியா	-7244
▁கறை	-7245
▁பொய்	-7246
▁இரட்டை	-7247
ாதிருந்த	-7248
▁பதவிகளை	-7249
▁ஆர்வத்தை	-7250
▁குறைப்பு	-7251
ID	-7252
ையொ	-7253
▁சகா	-7254
▁தனிமை	-7255
▁பாண்ட	-7256
▁சிறார்	-7257
▁துரதிர்ஷ்டவச	-7258
▁மேலாளர்	-7259
▁ஆவணங்களின்	-7260
▁தை	-7261
லையை	-7262
ியான்	-7263
▁பாரி	-7264
▁பட்டய	-7265
▁அம்சத்தை	-7266
▁தொகையும்	-7267
▁கட்டப்பட்ட	-7268
▁அனுப்பப்பட்டது	-7269
பெற	-7270
ட்ஸ்	-7271
▁எரிபொருள்	-7272
▁கூட்டாண்மை	-7273
ீர	-7274
▁கூர்	-7275
▁பிறர்	-7276
பிரிக்க	-7277
▁எருசலே	-7278
▁சொற்றொட	-7279
▁தொழிலாளி	-7280
▁செய்யுமாறு	-7281
▁வாய்ப்புகளை	-7282
▁பிரித்தெடுக்க	-7283
▁வாதிடப்படுகிறது	-7284
தெ	-7285
ோன்	-7286
▁கண்ணிய	-7287
▁அனைவரையும்	-7288
▁வாகனத்தின்	-7289
▁உரிமையையும்	-7290
▁நீதிபதிக்கு	-7291
த்திலோ	-7292
டுவதில்	-7293
▁ஈர்த்த	-7294
▁துண்டு	-7295
▁வெளிநாட்ட	-7296
▁வகுத்துள்ள	-7297
▁நிர்வாகத்தை	-7298
▁களின்	-7299
▁பிரபு	-7300
▁முறிய	-7301
ட்டுகள்	-7302
▁கட்சியை	-7303
▁விளக்கினார்	-7304
▁செய்யக்கூடிய	-7305
▁திட்டவட்டமான	-7306
▁;	-7307
க்ட	-7308
▁மிர	-7309
▁ஹோட்டல்	-7310
▁ஊக்குவிக்க	-7311
▁வாரியத்தால்	-7312
▁வின	-7313
ங்கல்	-7314
▁நடிக	-7315
▁இருபது	-7316
▁முரண்பாட	-7317
▁முயற்சியில்	-7318
பாலி	-7319
▁விலகி	-7320
▁ஆத்திர	-7321
▁புகாரின்	-7322
▁இயந்திரங்கள்	-7323
கண	-7324
▁இயல	-7325
▁ஆயின	-7326
▁பொருள்களை	-7327
▁வெளிப்பாட்டின்	-7328
▁கதி	-7329
▁ஆய்வுகள்	-7330
▁பயக்கும்	-7331
▁நடத்தப்பட	-7332
▁இடஒதுக்கீடு	-7333
▁பதிலளிக்கும்	-7334
▁l	-7335
▁அடிப	-7336
▁செய்யவோ	-7337
▁வரிக்கு	-7338
▁பின்பற்றி	-7339
▁அரங்க	-7340
▁தலைவரான	-7341
த்துடனும்	-7342
▁தண்டிக்க	-7343
▁அனுமதியின்றி	-7344
▁உத்தரவுப்படி	-7345
▁பின்னணி	-7346
▁பதிவுகளை	-7347
▁கவனித்தபடி	-7348
▁கட்டுப்பாட்டில்	-7349
▁அமலாக்க	-7350
▁கடன்கள்	-7351
▁செய்தித்தாள	-7352
▁வருமானத்தின்	-7353
▁தீர்ப்பளித்தது	-7354
▁போட	-7355
▁எந்தக்	-7356
▁கலெக்ட	-7357
▁செயற்க	-7358
▁வழங்கலாம்	-7359
▁மன்றத்தின்	-7360
ெல்	-7361
▁மகள	-7362
ிப்பில்	-7363
▁அந்தப்	-7364
▁குமாரனாகிய	-7365
▁புறக்கணிக்க	-7366
▁சட்டத்தின்படி	-7367
▁நிர்வாகத்தில்	-7368
LP	-7369
▁முறி	-7370
▁யூரோ	-7371
▁தாண்ட	-7372
▁காரணிகள்	-7373
▁மோதல்களை	-7374
▁யதார்த்த	-7375
▁வழிவகுக்கிறது	-7376
ிலை	-7377
்பி	-7378
▁१६	-7379
▁முட	-7380
▁சுகாதாரம்	-7381
▁சர்ச்சையும்	-7382
▁வலியுறுத்தியது	-7383
வுன்	-7384
▁ஃபெ	-7385
▁டாலர்	-7386
▁சேமிக்க	-7387
ra	-7388
▁தேவன்	-7389
மன	-7390
பல்	-7391
ாளரான	-7392
▁பதின	-7393
▁விழா	-7394
ப்பட்டதாக	-7395
▁அவசியத்தை	-7396
▁அணுகுமுறையை	-7397
▁ரஜ	-7398
▁எண்ணெய	-7399
▁பதிவின்	-7400
▁ஓட்டுநர்	-7401
▁முடியாமல்	-7402
▁முயன்றார்	-7403
▁ஆயினும்கூட	-7404
▁திணைக்களம்	-7405
▁தரப்பினரின்	-7406
ம்போ	-7407
▁இயல்பான	-7408
▁சலுகைகளை	-7409
▁இடத்திலிருந்து	-7410
றல்	-7411
▁அக்கற	-7412
▁இடைவெ	-7413
▁கல்வியை	-7414
▁என்பதாகும்	-7415
▁எஃ	-7416
மீது	-7417
▁தேடல்	-7418
▁வந்தனர்	-7419
▁அர்த்தம்	-7420
▁செயல்பட்ட	-7421
▁வழங்கவும்	-7422
▁நெருக்கமாக	-7423
IL	-7424
மனை	-7425
ாலோ	-7426
வாதம்	-7427
வானது	-7428
▁காரிய	-7429
▁அடக்கு	-7430
▁ஆட்சியை	-7431
▁ஏஜென்சி	-7432
ாளர்களும்	-7433
▁பணியாளர்	-7434
▁பட்டியலிட	-7435
▁காரணத்தையும்	-7436
▁கோட	-7437
▁அகமது	-7438
▁டிக்க	-7439
▁எழுந்தது	-7440
▁நடவடிக்கைக்கு	-7441
நாத	-7442
▁அட்டை	-7443
▁தகப்ப	-7444
▁மிகச்	-7445
▁அமர்ந்த	-7446
▁அலகுகள்	-7447
▁கொண்டவை	-7448
▁தங்குமிட	-7449
▁இருப்பார்	-7450
▁காட்டினார்	-7451
▁வக்கீல்கள்	-7452
▁ரு	-7453
▁பெறாத	-7454
▁விஷயமாக	-7455
▁செய்யும்போது	-7456
de	-7457
▁கடவு	-7458
▁வழிப	-7459
▁சோதனையை	-7460
▁நிறுவப்பட்டது	-7461
▁விளம்பரமில்லாத	-7462
ராகிய	-7463
▁பேசு	-7464
▁வாதிகள்	-7465
▁செய்யவும்	-7466
▁இருக்கின்றன	-7467
ன்புரி	-7468
▁உலகப்	-7469
சித்திர	-7470
விக்கான	-7471
▁இராணுவத்	-7472
▁சொந்தமானது	-7473
▁பத்திரிகைய	-7474
▁வழக்கிலும்	-7475
▁முடிவுகளில்	-7476
ோகம்	-7477
வாகும்	-7478
▁கற்பனை	-7479
▁நீதிபதியை	-7480
▁என்பதற்காக	-7481
▁ஆட்சேபனைகளை	-7482
',	-7483
ME	-7484
▁ஆன்லைன்	-7485
▁பிரீமிய	-7486
▁விசுவாச	-7487
▁செயல்பாட்ட	-7488
▁செய்துள்ளனர்	-7489
▁விவகாரத்தில்	-7490
மாவ	-7491
▁கப	-7492
▁கதா	-7493
▁ராய்	-7494
வையில்	-7495
▁மேற்ச	-7496
▁எப்போதுமே	-7497
▁பெட்ரோலிய	-7498
ாடி	-7499
▁யூன	-7500
▁மைக்	-7501
அதாவது	-7502
▁இப்பட	-7503
▁அவளுடைய	-7504
▁அணுசக்தி	-7505
▁உரிமைகளைப்	-7506
தாபி	-7507
▁ஒளிபர	-7508
ுக்குள்	-7509
▁அதிகரித்து	-7510
▁மனுக்களில்	-7511
▁கொள்கைகளுக்கு	-7512
▁ஹீரோ	-7513
ுவிட்டன	-7514
▁விளைவை	-7515
▁பின்னரும்	-7516
.00	-7517
▁வலிமை	-7518
வற்றில்	-7519
▁ஏமாற்ற	-7520
▁பதினைந்து	-7521
ிப்போ	-7522
▁மதுபான	-7523
▁இமாச்சல	-7524
▁கொள்கைக்கு	-7525
அம	-7526
▁லை	-7527
▁துண்ட	-7528
▁உற்பத்த	-7529
▁எதிரானது	-7530
▁எஃகு	-7531
முடியாது	-7532
▁அடைந்தால்	-7533
ிருக்கின்றன	-7534
▁பிரச்சாரம்	-7535
▁குழும	-7536
▁ஹவுஸ்	-7537
▁டெல்லியில்	-7538
▁பொதுமக்கள்	-7539
மாக்க	-7540
ம்பரில்	-7541
ுக்குப்	-7542
ெயர்ந்த	-7543
▁கடனாளி	-7544
▁போக்கில்	-7545
▁கட்டியெழு	-7546
▁தன்மையில்	-7547
▁தொடர்கிறது	-7548
▁பாதுகாப்பாக	-7549
▁விரிவாக்கம்	-7550
▁பரிவர்த்தனைகள்	-7551
ாலய	-7552
▁ரவி	-7553
ள்ளான	-7554
னையுடன்	-7555
▁ஆலோசனைக்	-7556
▁திருத்தத்தை	-7557
▁உண்மைகளுக்கு	-7558
▁சமய	-7559
▁நிறைய	-7560
▁மிஸ்ரா	-7561
▁மேற்சொன்ன	-7562
▁வகைப்பாடு	-7563
▁அதன	-7564
ஆரின்	-7565
▁அசோக்	-7566
மருந்து	-7567
▁எக்ஸ்ப	-7568
▁சண்டிக	-7569
▁முறைகேடு	-7570
▁ராஜினாமா	-7571
▁மாணவர்களை	-7572
▁சமர்ப்பிப்புகள்	-7573
▁மழை	-7574
▁ஜான்	-7575
▁சகோதரி	-7576
▁வந்தபோது	-7577
▁வேலைக்கு	-7578
▁இலாபங்கள்	-7579
▁பிறப்பிக்க	-7580
▁ஆலய	-7581
▁தயவு	-7582
▁போரை	-7583
சியில்	-7584
▁ஏழாவது	-7585
▁வகிக்க	-7586
▁செயலற்ற	-7587
▁புவியியல்	-7588
▁கொள்கைகளின்	-7589
os	-7590
ச்செ	-7591
▁நிதிச்	-7592
▁விருந்த	-7593
▁அடைவதற்கு	-7594
▁எண	-7595
▁ஒரி	-7596
மைப்பை	-7597
▁சமகால	-7598
▁எச்சரி	-7599
▁பிணைப்பு	-7600
▁அறிவாற்றல்	-7601
சர்	-7602
பாமா	-7603
ிறதா	-7604
▁கொள்ளப்பட	-7605
▁திருமணமான	-7606
▁நியாயமானது	-7607
▁வெற்றிடமாக	-7608
▁நம்பியுள்ளது	-7609
்ப்	-7610
▁மூடி	-7611
▁பூகோள	-7612
ிருப்பதை	-7613
▁கேட்டார்	-7614
▁கருதினார்	-7615
▁குற்றத்திற்கு	-7616
▁மருத்துவர்கள்	-7617
வணிக	-7618
▁கொல்க	-7619
▁வென்ற	-7620
▁மேலாதிக்க	-7621
▁முடிந்தவரை	-7622
▁பயோமெட்ரிக்	-7623
▁துவ	-7624
க்குற	-7625
▁நீக்க	-7626
ையொட்டி	-7627
▁திருப்ப	-7628
்களுக்கும்	-7629
▁மதிப்பீட்டை	-7630
ாதுகா	-7631
▁பிளேய	-7632
▁பேசும்	-7633
▁துருக்க	-7634
▁வார்த்தையை	-7635
▁இல்லாவிட்டாலும்	-7636
▁கோவா	-7637
▁ரசிக	-7638
ாளரும்	-7639
▁அண்ட்	-7640
▁பட்டம்	-7641
▁பொழுது	-7642
▁கூறவில்லை	-7643
▁மதிப்பில்	-7644
▁தற்காலிகமாக	-7645
▁நடவடிக்கைகளும்	-7646
▁பெரும்பான்மையான	-7647
ின்றி	-7648
த்தினாலும்	-7649
▁வரம்புகள்	-7650
▁வாழ்த்துக்களை	-7651
ஃபி	-7652
▁NO	-7653
கிராம்	-7654
ெடுப்ப	-7655
▁குடியே	-7656
▁தாங்கள்	-7657
▁கேள்விகளை	-7658
ீழ்	-7659
▁தாக	-7660
▁அடைந்து	-7661
▁ஆண்டும்	-7662
▁நிலைமையை	-7663
▁பாராவில்	-7664
▁கொண்டுள்ளனர்	-7665
▁சுட்டிக்காட்டு	-7666
▁தீர்ப்பதற்கான	-7667
▁குர	-7668
▁ஜஸ்ட	-7669
▁சேதம்	-7670
▁கமிட்டி	-7671
ொள்கிறோம்	-7672
▁பெஞ்சால்	-7673
▁சரிபார்ப்பு	-7674
▁தீர்க்கப்பட்ட	-7675
ing	-7676
▁ஆவி	-7677
ம்பல்	-7678
▁சற்று	-7679
ுவிடும்	-7680
▁ஆதாரங்களில்	-7681
▁திட்டங்களின்	-7682
▁கவனிக்கப்பட்ட	-7683
ரைய	-7684
ார்களா	-7685
▁இட்டு	-7686
வர்த்தி	-7687
க்காகவும்	-7688
▁புலிகளின்	-7689
▁தீர்ப்பும்	-7690
▁மறுபடியும்	-7691
▁ஊட்டச்சத்து	-7692
▁உறுப்பினர்களாக	-7693
ாண்டின்	-7694
▁தொழிற்க	-7695
▁நிறுவுதல்	-7696
▁வழங்குமாறு	-7697
▁நிலையத்திற்கு	-7698
▁செயலா	-7699
▁துறைகள்	-7700
▁சரிசெய்த	-7701
▁வீட்டின்	-7702
▁பெருமளவில்	-7703
▁வெற்றிகரமான	-7704
▁மலைய	-7705
ரிலும்	-7706
ிப்பதை	-7707
▁சவுத்ரி	-7708
▁முடித்த	-7709
▁ஊழியரின்	-7710
▁உரிமைகோருபவர்	-7711
▁மதிப்பிடப்பட்ட	-7712
ாகவே	-7713
▁தூர	-7714
ிற்குள்	-7715
லுக்கும்	-7716
▁சாதகமாக	-7717
▁திருப்திக	-7718
▁கவனித்தார்	-7719
▁தவறிவிட்டார்	-7720
▁விண்ணப்பமும்	-7721
▁விதிவிலக்கான	-7722
த்மா	-7723
வைகள்	-7724
▁மாநக	-7725
▁அவசியமாக	-7726
▁நலன்புரி	-7727
▁வரையப்பட்ட	-7728
▁புதுப்பித்தல்	-7729
மிர	-7730
பரப்பு	-7731
▁அம்பல	-7732
▁அவரின்	-7733
▁ஆசாரிய	-7734
▁வகுக்க	-7735
▁தினத்தை	-7736
▁ஜனநாயகம்	-7737
▁பாகிஸ்தான	-7738
▁மற்றொன்று	-7739
▁ஒவ்வொன்றும்	-7740
▁தொடங்கினார்	-7741
ெங்க	-7742
▁சமயம்	-7743
▁சம்மன்	-7744
▁முற்றிலு	-7745
ப்படுத்திய	-7746
▁செல்கிறது	-7747
▁ஏற்படுத்தாது	-7748
▁சாத்தியமில்லை	-7749
▁பிரதிவாதியின்	-7750
ீட்டைக்	-7751
▁நடித்த	-7752
▁செய்யாத	-7753
▁மிகாமல்	-7754
▁காட்டியது	-7755
▁வெளிப்படை	-7756
▁டெல்லியின்	-7757
▁சிஆர்பிசியின்	-7758
,0	-7759
▁தரை	-7760
▁திக	-7761
▁டெண்ட	-7762
▁வரைபட	-7763
▁அன்பான	-7764
▁இழப்பை	-7765
▁துணைவே	-7766
▁நின்று	-7767
▁வீட்டை	-7768
▁நான்காம்	-7769
▁முயன்றது	-7770
▁சந்தைப்படுத்தல்	-7771
▁திண	-7772
ற்சாக	-7773
▁அப்பாவி	-7774
▁பகுதிகளை	-7775
▁வரம்பின்	-7776
பாய	-7777
வகை	-7778
▁நதி	-7779
க்கலை	-7780
▁வடிவம்	-7781
▁ஆயிரக்கணக்கான	-7782
▁நிறுவனங்களால்	-7783
றிவு	-7784
எக்ஸ்	-7785
▁அவனுடைய	-7786
▁கூறுவது	-7787
▁நிறுத்து	-7788
▁#	-7789
▁வீடுகள்	-7790
பொருளாதார	-7791
▁இந்தியாவை	-7792
▁தனிநபரின்	-7793
▁உள்ளீடுகள்	-7794
றான	-7795
▁சுழ	-7796
▁திறமை	-7797
▁அனுமானம்	-7798
▁எதிர்ப்பை	-7799
▁மாநாட்டின்	-7800
▁பொருளாதாரத்தின்	-7801
▁சந்தோ	-7802
▁சில்ல	-7803
▁சொல்வது	-7804
▁நடக்கும்	-7805
▁வாசிப்பு	-7806
▁கிடைத்தது	-7807
▁வைப்புத்தொ	-7808
▁கட்டுரையில்	-7809
▁அமைப்புகளின்	-7810
▁காட்டுகின்றன	-7811
▁தடைகள்	-7812
▁ரெட்டி	-7813
▁தரங்களை	-7814
▁நடத்தும்	-7815
▁நூற்றாண்டு	-7816
▁படிவத்தில்	-7817
▁கட்டாயத்தில்	-7818
▁புகார்தாரரின்	-7819
ிழமை	-7820
▁தொழு	-7821
▁மற்றவர்கள்	-7822
▁உரிமையாளருக்கு	-7823
கட்டு	-7824
▁ஈரான்	-7825
▁கோயில்	-7826
▁தொந்தர	-7827
▁அனுப்பி	-7828
▁நலன்கள்	-7829
ாவிலிருந்து	-7830
▁பங்களிப்பை	-7831
▁குடும்பத்தின்	-7832
▁புரிந்துகொள்ள	-7833
▁காவல்துறையினர்	-7834
ுள்	-7835
▁-.	-7836
▁பொதி	-7837
▁வயதான	-7838
▁விதியை	-7839
▁வேறொரு	-7840
▁வழக்குச்	-7841
▁குறித்தும்	-7842
▁முற்றிலுமாக	-7843
▁தேர்ந்தெடுக்க	-7844
▁காலப்பகுதியில்	-7845
▁வைத்திருந்தார்	-7846
▁ஹூ	-7847
▁கருவ	-7848
▁கஷ்ட	-7849
▁பிதா	-7850
ணக்கான	-7851
▁பாரத்	-7852
▁மோதல்	-7853
▁தொடர்வ	-7854
ப்பிரிக்க	-7855
▁சமூகத்தில்	-7856
▁தகவல்களைப்	-7857
####	-7858
▁ஒபாமா	-7859
தாபிமான	-7860
▁உடன்பட	-7861
▁பெண்ணின்	-7862
▁முதலாவது	-7863
▁இயற்கையான	-7864
▁காரணங்களின்	-7865
▁சட்டத்தையும்	-7866
▁அரசாங்கத்தில்	-7867
▁ஆடை	-7868
▁இண்ட	-7869
▁தாஸ்	-7870
ந்துபோ	-7871
▁சிகிச்சைய	-7872
▁ஆலோசகர்கள்	-7873
▁மூலமாகவும்	-7874
ானி	-7875
்களைக்	-7876
▁இறந்தார்	-7877
▁மாற்றும்	-7878
▁நடைபெறும்	-7879
▁எச்சரிக்கை	-7880
▁சுயாதீனமாக	-7881
▁வெடிமருந்து	-7882
▁வழக்குரைஞரின்	-7883
▁மைதான	-7884
ுகிறேன்	-7885
▁கூற்றை	-7886
▁பலவீனமான	-7887
▁அதிகரித்த	-7888
▁பயன்பாட்டு	-7889
▁பாதிக்காது	-7890
▁அரசாங்கங்கள்	-7891
மளிக்க	-7892
▁குறைவு	-7893
▁சுமத்த	-7894
▁கால்நடை	-7895
▁தொடுப்ப	-7896
▁மீறுவதாக	-7897
ஹோ	-7898
லாந்து	-7899
▁சொற்ப	-7900
▁நம்பி	-7901
டிகாட்ட	-7902
டுங்கள்	-7903
▁செல்லுபடியாக	-7904
▁பயன்படுத்தும்	-7905
▁காகித	-7906
ிருப்பதைக்	-7907
▁கையொப்பம்	-7908
▁பெண்களின்	-7909
▁எடுத்துள்ளது	-7910
▁பாதுகாக்கும்	-7911
செல	-7912
▁VII	-7913
▁நீள	-7914
▁திறக்க	-7915
▁இறந்தவரை	-7916
▁மோதல்கள்	-7917
▁நெடுஞ்சாலை	-7918
▁ஊக்குவிக்கும்	-7919
தலின்	-7920
விடும்	-7921
▁உங்களை	-7922
▁உனக்கு	-7923
▁யாருடைய	-7924
க்களுக்கும்	-7925
▁கொண்டுள்ளோம்	-7926
▁வாக்குமூலத்தை	-7927
லன்	-7928
ல்வி	-7929
வரது	-7930
மேலும்	-7931
ுவதில்லை	-7932
▁சொத்தில்	-7933
த்துக்கொள்வ	-7934
▁ஒரிசா	-7935
▁பயணம்	-7936
▁கொடுமை	-7937
▁கிருஷ்ணா	-7938
▁முடிவெடுக்கும்	-7939
ist	-7940
ஆர்ட	-7941
ென்ஸ்	-7942
ந்திரா	-7943
▁உணர்த	-7944
▁நிருப	-7945
▁ஆராய்வது	-7946
▁வாதங்கள்	-7947
▁எதிர்பார்ப்ப	-7948
▁வைக்கப்படும்	-7949
▁பிரதிபலிக்கிறது	-7950
▁ஜு	-7951
▁ரை	-7952
▁ஆண்	-7953
▁காற்று	-7954
▁ஆதாரமாக	-7955
▁குடியேற்ற	-7956
▁பாதுகாத்தல்	-7957
▁அறிவிப்புக்கு	-7958
வக	-7959
னிங்	-7960
வையின்	-7961
▁பிரதிவாதிக்கு	-7962
த்யா	-7963
▁போட்ட	-7964
ளின்படி	-7965
▁தடையற்ற	-7966
க்கும்படி	-7967
▁தாமதத்தை	-7968
▁முன்னிலை	-7969
▁மையங்கள்	-7970
▁ஒத்துப்போ	-7971
▁கணக்குகள்	-7972
▁அழைக்கப்பட்ட	-7973
▁ஜனாதிபதியால்	-7974
im	-7975
சில	-7976
ரொட்	-7977
▁கழகம்	-7978
ியாகும்	-7979
▁அப்புற	-7980
▁உடலின்	-7981
▁சென்றது	-7982
▁தானாகவே	-7983
▁முழுவது	-7984
செய்கிறது	-7985
▁அலகாபாத்	-7986
▁ஆபிரிக்க	-7987
▁வெளிநாடு	-7988
கிறதா	-7989
ட்டல்	-7990
▁உற்சாக	-7991
▁பெட்டி	-7992
▁படப்பிடிப்பு	-7993
த்ம	-7994
பியா	-7995
▁தலா	-7996
▁மாண்ட	-7997
▁எகிப்த	-7998
▁இயங்கும்	-7999
▁நீக்குதல்	-8000
▁தயாரிப்புகள்	-8001
▁கணக்கிடப்பட்ட	-8002
▁ஜஸ்டிஸ்	-8003
▁தெரியாது	-8004
▁விசாரணைக்	-8005
▁துப்பாக்கிச்	-8006
CR	-8007
IV	-8008
ழ்க	-8009
▁பூம	-8010
▁தப்பி	-8011
▁தயார்	-8012
▁நேரில்	-8013
▁ஒப்படைக்க	-8014
▁நபர்களால்	-8015
▁பொருத்தமற்ற	-8016
▁எடுத்துக்கொள்வ	-8017
▁மாநிலத்திற்கான	-8018
▁e	-8019
ுறு	-8020
▁கண்டன	-8021
▁இயலாது	-8022
▁சில்லறை	-8023
▁வரியின்	-8024
▁நேர்மறையான	-8025
▁ஏற்படுத்துகிறது	-8026
▁இதய	-8027
▁தருவ	-8028
▁விக்	-8029
ுவரும்	-8030
▁சர்வே	-8031
▁விபரீ	-8032
▁புலிகள்	-8033
▁மன்னிப்பு	-8034
▁பெண்களுக்கு	-8035
▁வழக்கறிஞரின்	-8036
AL	-8037
▁சம்மத	-8038
ினருக்கு	-8039
▁வைப்பது	-8040
▁விசித்திர	-8041
▁உத்தரவுகளின்	-8042
ல்களையும்	-8043
▁தொகைக்கு	-8044
▁கடனாளியின்	-8045
ia	-8046
▁சாவ	-8047
ங்கம்	-8048
ப்பதாக	-8049
▁நிலவர	-8050
▁அளவைக்	-8051
▁நோக்கு	-8052
▁ஆகியோரை	-8053
▁முதுகலை	-8054
▁தேவனுடைய	-8055
▁திட்டமிட்ட	-8056
▁எங்களுக்குத்	-8057
ஜு	-8058
தள	-8059
▁இன்ட	-8060
▁மீன்	-8061
▁மார்ப	-8062
▁ஒருவரை	-8063
▁நடைமுறையின்	-8064
▁வேட்பாளர்களின்	-8065
நான்	-8066
▁உறவை	-8067
▁இன்றி	-8068
▁கமிஷன	-8069
▁சஞ்சய்	-8070
ிடுகிறது	-8071
▁தேர்ச்சி	-8072
▁வருகின்றனர்	-8073
▁இனப்பெருக்கம்	-8074
▁நிபந்தனைகளின்	-8075
OC	-8076
ெக்ட்	-8077
▁என்ஐ	-8078
▁மனசா	-8079
பயங்கர	-8080
▁வட்டார	-8081
ுவதாகும்	-8082
▁ஹி	-8083
▁மென்	-8084
▁கற்பழிப்பு	-8085
▁அப்பாற்பட்டது	-8086
னையான	-8087
▁விளக்கும்	-8088
▁விடுத்தார்	-8089
▁ஏற்படுத்திய	-8090
▁ஆண்டுகளுக்கும்	-8091
ro	-8092
லாமா	-8093
▁அவசரகால	-8094
▁கர்த்தருக்கு	-8095
முய	-8096
▁AP	-8097
ிக்கொ	-8098
▁இயங்க	-8099
▁மேமன்	-8100
▁நோக்கங்கள்	-8101
▁பழங்குடியினர்	-8102
▁ஆண்டுகளுக்குப்	-8103
தாரி	-8104
▁ஜூனியர்	-8105
▁இளைஞர்கள்	-8106
▁மாவட்டத்தில்	-8107
▁கலந்துரையாடலின்	-8108
ாரஸ்	-8109
▁ஆயினும்	-8110
▁வளர்ப்பு	-8111
▁சோசலிஸ்ட்	-8112
மொழிய	-8113
▁அம்ர	-8114
▁பூஜ்	-8115
▁முயல	-8116
▁கட்டம்	-8117
ாளர்களில்	-8118
▁முறையின்	-8119
▁பெஞ்சிற்கு	-8120
▁பொறுப்புகள்	-8121
▁மாணவர்களுக்கு	-8122
▁ஷேக்	-8123
▁எங்கு	-8124
▁மாணவர்	-8125
▁மறுத்து	-8126
▁மாற்றுவதன்	-8127
▁குற்றத்தில்	-8128
▁மதிப்பெண்கள்	-8129
▁வெளிப்படையானது	-8130
▁தீய	-8131
▁சூர்	-8132
▁நாட்டை	-8133
்களுக்கான	-8134
▁விசாரித்த	-8135
▁உரிமையாளராக	-8136
▁செய்யக்கூடாது	-8137
▁ஒழுங்குமுறைகள்	-8138
▁மறுத்துவிட்டது	-8139
லிக்க	-8140
▁தெற்க	-8141
▁பயனற்ற	-8142
▁ஒழுக்கா	-8143
ாவிற்கும்	-8144
▁ஒழுங்குப	-8145
▁மனிதாபிமான	-8146
நிதி	-8147
ர்ஸ்	-8148
▁அநீதி	-8149
▁கிடைய	-8150
▁பாரிய	-8151
▁படுக்க	-8152
▁எளிதில்	-8153
▁கோரியது	-8154
ுகை	-8155
▁நிலவும்	-8156
ர்களுக்காக	-8157
▁அண்மையில்	-8158
▁வற்புறுத்த	-8159
▁வெளிப்படுத்தும்	-8160
ய்ட	-8161
ப்பைத்	-8162
ெங்கிலும்	-8163
▁காண்பிக்கும்	-8164
▁சுத்திகரிப்பு	-8165
▁புரிந்துணர்வு	-8166
▁அரசியலமைப்பால்	-8167
▁குத்தகைதாரரின்	-8168
ஸ்வர்	-8169
▁வருஷ	-8170
▁ஆர்ஸ்	-8171
▁ட்ரொட்	-8172
▁கூறுகள்	-8173
▁மற்றவற்றுடன்	-8174
▁சூழ்நிலைகளையும்	-8175
ஸ்பி	-8176
▁பணியை	-8177
ரீதியாக	-8178
▁எவரும்	-8179
▁வழக்கைப்	-8180
▁பயன்பாட்ட	-8181
▁அதிகாரத்துவ	-8182
ாளர்களுக்கும்	-8183
▁கொள்ளும்போது	-8184
▁கட்சிகளுக்கான	-8185
▁கையகப்படுத்து	-8186
ஜினிய	-8187
்பால்	-8188
வியின்	-8189
▁எங்கள	-8190
▁பேரழி	-8191
▁பின்தொட	-8192
்களுக்காக	-8193
▁தயாரிக்கும்	-8194
▁உயிரு	-8195
▁காற்ற	-8196
▁நன்கொ	-8197
கிழக்கு	-8198
▁புறநிலை	-8199
▁திசையில்	-8200
▁தக்கவைக்க	-8201
▁கட்டுப்பாட்டை	-8202
ங்கட	-8203
வாழ்	-8204
▁மந்திர	-8205
▁மறுத்த	-8206
மைப்பின்	-8207
▁தலைப்பின்	-8208
▁வரும்போது	-8209
▁விநியோகம்	-8210
▁பலாத்காரம்	-8211
▁பகுதியையும்	-8212
▁குழந்தைகளுக்கு	-8213
ையு	-8214
▁நேரு	-8215
▁பட்ச	-8216
▁நிலப்ப	-8217
▁சிந்தனை	-8218
▁பதவிகளுக்கு	-8219
▁தாள	-8220
▁அறுப	-8221
▁சச்ச	-8222
▁தொழிற	-8223
▁மாஸ்டர்	-8224
▁நிகழ்த்த	-8225
▁வளாகத்தை	-8226
நீதித்துறை	-8227
▁இன்றியமையாத	-8228
▁சுற்றுச்சூழ	-8229
▁முறையீடுகளை	-8230
▁விதிக்கிறது	-8231
▁சுமத்தப்பட்ட	-8232
▁நம்பிக்கையின்	-8233
▁சாதிய	-8234
▁தண்ணீர்	-8235
▁கட்டிடத்தின்	-8236
▁நிகழ்வுகளின்	-8237
▁உக	-8238
படம்	-8239
▁குறி	-8240
▁உயர்க	-8241
▁பண்ணை	-8242
▁அர்ப்பண	-8243
▁அறியும்	-8244
▁ஆனாலும்	-8245
▁மூன்றில்	-8246
▁ஏற்பாட்டை	-8247
க்கியுள்ளது	-8248
▁உரிமைகளின்	-8249
▁ஊழியருக்கு	-8250
▁இன்ஸ்பெக்டர்	-8251
ாதே	-8252
ஸ்டிக்	-8253
▁ஆவார்	-8254
▁கோட்ட	-8255
▁மாற்றத்தை	-8256
▁வாதிடுகிறார்	-8257
▁போவ	-8258
னித்துவ	-8259
▁விதிகளால்	-8260
▁நிறுவனங்கள	-8261
த்திடமிருந்து	-8262
▁மலி	-8263
▁நிகழும்	-8264
▁உண்மையாக	-8265
ோஸ்	-8266
▁ஸ்தாபன	-8267
▁இருக்கிறதா	-8268
▁காலியிடங்கள்	-8269
▁கலந்தாலோசித்து	-8270
பாள	-8271
பியின்	-8272
திருப்ப	-8273
எந்தவொரு	-8274
▁கட்சியாக	-8275
▁பலப்படுத்த	-8276
▁அமைக்கப்பட்டது	-8277
ஹு	-8278
▁எங்கே	-8279
▁கொன்ற	-8280
▁நாகரிக	-8281
▁பிளாட்	-8282
ட்சியில்	-8283
▁தேர்வுக்	-8284
▁பகுப்பாய்	-8285
▁மாதங்களில்	-8286
▁விகிதங்கள்	-8287
▁அரசாங்கமும்	-8288
▁g	-8289
▁லீ	-8290
▁இறை	-8291
பாதுகா	-8292
▁பங்குச்	-8293
▁அம்ரபாலி	-8294
▁கிடையாது	-8295
▁பொருளும்	-8296
▁வாதத்தில்	-8297
▁காத்திருக்க	-8298
▁முடிவுகளின்	-8299
ஒழு	-8300
ட்டம்	-8301
▁சந்த்	-8302
▁எங்கும்	-8303
▁நோக்கமும்	-8304
▁மேலதிகமாக	-8305
▁குடியரசுக்	-8306
▁திருமணத்தை	-8307
▁வழிநடத்தும்	-8308
▁கண்டறியப்பட்ட	-8309
▁குறிப்பிடவில்லை	-8310
▁CO	-8311
▁ஆளான	-8312
▁சோதி	-8313
▁தியாக	-8314
அரசாங்க	-8315
▁மாருதி	-8316
▁இலக்கிய	-8317
▁மீறுவது	-8318
▁முஸ்லீம்	-8319
▁போட்டியிட	-8320
▁சட்டத்திலும்	-8321
▁மாற்றுவதற்கு	-8322
▁இயற்றப்பட்டது	-8323
▁குற்றங்களுக்கு	-8324
த்துப்	-8325
▁எண்ணை	-8326
▁எதிர்மற	-8327
▁ஏற்பாடும்	-8328
▁உபகரணங்கள்	-8329
▁சட்டமன்றத்	-8330
▁மனுதாரர்களுக்கு	-8331
▁ஹு	-8332
▁மகே	-8333
பிள்யு	-8334
▁சாராம்	-8335
▁திசையை	-8336
▁பாங்க்	-8337
▁ஆச்சரிய	-8338
▁எக்ஸ்பிர	-8339
▁செழிப்பு	-8340
▁கல்வியின்	-8341
▁வெளியிட்டார்	-8342
▁m	-8343
▁மண்	-8344
ப்பைப்	-8345
▁நின்ற	-8346
▁ஈர்ப்ப	-8347
▁நடிகர்	-8348
▁ஊழியர்களை	-8349
▁ஸ்ராலினிச	-8350
▁சிறுபான்மை	-8351
▁தயவுசெய்து	-8352
▁உண்மையிலேயே	-8353
▁மாலா	-8354
▁உச்சி	-8355
▁கேட்டுக்	-8356
▁குடும்பம்	-8357
▁போராட்டம்	-8358
▁எதிராகவும்	-8359
▁வேறுபாடுகள்	-8360
வர்களிடமிருந்து	-8361
ிறு	-8362
ஞ்சல்	-8363
▁சாதகமான	-8364
▁எடுத்தது	-8365
▁கடமையில்	-8366
▁நிர்ணயிக்க	-8367
▁நேரடியாகவோ	-8368
களிலிருந்தும்	-8369
ப்படுவதாகவும்	-8370
▁அவதானிப்புகளை	-8371
▁சேர்ந்தவர்கள்	-8372
▁மனுதாரருக்கான	-8373
▁கற்றுக்கொண்டார்	-8374
ீம்	-8375
▁இலவசமாக	-8376
▁ஆணையாளர்	-8377
▁பயன்பாட்டை	-8378
▁பிரதிபலிக்க	-8379
▁தொடங்குகிறது	-8380
▁தடய	-8381
▁உன்னை	-8382
▁பயனாளி	-8383
▁தனியுரி	-8384
▁வெளியில்	-8385
▁காப்பீட்டுக்	-8386
▁சமுதாயத்தின்	-8387
கிரி	-8388
ஸ்வர	-8389
▁நடன	-8390
▁பத்த	-8391
அமெரிக்க	-8392
▁விதித்த	-8393
▁தாக்குதல்கள்	-8394
▁கொள்ளப்பட்டது	-8395
MP	-8396
மியா	-8397
▁போய	-8398
▁ரோஹ	-8399
▁கிளி	-8400
▁செஸ்	-8401
▁பழக்க	-8402
▁மாசுப	-8403
▁இடைநிலை	-8404
▁செய்திய	-8405
▁ஆயுதங்களை	-8406
▁கொடுப்பனவுகள்	-8407
ிப்	-8408
▁அவு	-8409
▁முட்ட	-8410
ல்களும்	-8411
▁கிராம்	-8412
▁நபரால்	-8413
க்களுடன்	-8414
▁ஆதிக்கம்	-8415
▁விடுத்து	-8416
▁நிராகரித்த	-8417
▁நடவடிக்கையில்	-8418
▁காஷ்	-8419
▁ஒருவருக்கு	-8420
▁குண்டுவெடி	-8421
▁வைக்கப்பட்டு	-8422
ட்சிக	-8423
▁அமிக	-8424
▁கடின	-8425
வேண்டிய	-8426
▁இடங்களை	-8427
▁கண்டனம்	-8428
▁வேலையில்	-8429
▁நிலையங்கள்	-8430
ஞ்ச்	-8431
▁நேர்க	-8432
▁காணும்	-8433
▁முன்னால்	-8434
▁பகுதியும்	-8435
▁பாகிஸ்தான்	-8436
▁ஒப்பிடும்போது	-8437
ேத	-8438
ிட்டி	-8439
▁படிவு	-8440
▁தடையாக	-8441
▁புரட்சி	-8442
▁விமர்சன	-8443
▁கருத்தையும்	-8444
▁போன்றவற்றில்	-8445
▁மாற்றியமைக்க	-8446
▁பரிந்துரைக்கும்	-8447
xx	-8448
க்கா	-8449
▁பெர்	-8450
▁குற்றமற்ற	-8451
▁பதிவேட்டில்	-8452
▁பாக்கிஸ்தான	-8453
▁ஒற்றுமை	-8454
ிக்கொண்டு	-8455
▁பணத்தைத்	-8456
▁மறுப்பது	-8457
▁குழந்தையை	-8458
▁நிகழ்வுகளில்	-8459
▁ஆதாரங்களையும்	-8460
▁காள	-8461
▁தழுவ	-8462
▁சூப்பர்	-8463
▁திறனில்	-8464
▁பொருட்டு	-8465
▁மதத்தின்	-8466
▁மறைமுகமாகவோ	-8467
▁சாட்சியங்களை	-8468
▁ஏற்பட்டுள்ளது	-8469
▁மீள	-8470
மாண்ட	-8471
▁கோல்	-8472
ங்களின்படி	-8473
▁முன்வந்து	-8474
▁சட்டத்தைப்	-8475
▁சான்றுகளின்	-8476
ூப்	-8477
▁१७	-8478
▁ஏக	-8479
ட்டியின்	-8480
▁வளங்கள்	-8481
▁இன்ஜினிய	-8482
▁தணிக்கும்	-8483
▁இஸ்ரவேலின்	-8484
▁வேட்பாளர்களை	-8485
.]	-8486
ES	-8487
▁அக்	-8488
ூரின்	-8489
ையெல்லாம்	-8490
▁செல்வந்த	-8491
▁பாதிப்பு	-8492
▁மகிழ்ச்ச	-8493
▁உருவாக்குவதற்கு	-8494
புர	-8495
▁IA	-8496
▁புறக்க	-8497
▁பற்றாக்குற	-8498
▁வாரியத்திற்கு	-8499
▁அறக்கட்டளையின்	-8500
▁மேல்முறையீடுகளை	-8501
▁விதிமுறைகளையும்	-8502
▁இதைக்	-8503
▁தளபதி	-8504
▁சீர்கு	-8505
மளிக்கும்	-8506
▁செய்தித்	-8507
▁தெரிந்து	-8508
ெர்	-8509
வுள்ள	-8510
▁இந்தோ	-8511
▁நபராக	-8512
▁கடத்தல்	-8513
▁செய்யாமல்	-8514
▁இங்கிலாந்தில்	-8515
▁குறிப்பிடுவதன்	-8516
தாப	-8517
ெண்ண	-8518
▁ஈவு	-8519
▁சாய	-8520
ஆர்டி	-8521
▁நேரி	-8522
▁கான்ஸ்ட	-8523
▁தரையில்	-8524
▁தொலைவில்	-8525
▁பழங்குடி	-8526
▁பிரச்சனை	-8527
▁சேவைகளில்	-8528
▁அனுப்பினார்	-8529
▁முடிந்ததும்	-8530
▁தொழிற்சங்கங்கள்	-8531
▁கர்	-8532
ாதபடி	-8533
▁அலங்க	-8534
▁முகாம	-8535
வற்றின்	-8536
▁நல்லது	-8537
▁உத்தரவி	-8538
▁விசாரணைகள்	-8539
▁நம்புவதற்கு	-8540
▁உத்தரவிட்டார்	-8541
▁குடிமக்களுக்கு	-8542
▁லாபம்	-8543
▁பெருநகர	-8544
▁வெடிப்பு	-8545
▁உண்மையின்	-8546
▁ஆதரிக்கும்	-8547
க்குவதற்கும்	-8548
ad	-8549
ுவதோடு	-8550
▁அன்றாட	-8551
▁பவனின்	-8552
▁போக்கை	-8553
▁ஒருமித்த	-8554
▁மறைமுகமாக	-8555
▁பகுதியிலும்	-8556
▁Mo	-8557
ங்கை	-8558
லர்கள்	-8559
வரம்பு	-8560
க்குழுவ	-8561
▁விபச்சார	-8562
▁ஆட்சியின்	-8563
▁கருத்தாகும்	-8564
▁ஆணையத்திற்கு	-8565
▁சுட்டிக்காட்டிய	-8566
ாயுக்தா	-8567
நிலையில்	-8568
▁தாக்கம்	-8569
▁தோன்றிய	-8570
▁வேலைகள்	-8571
▁தீர்க்கத	-8572
▁மீறுகிறது	-8573
▁சார்பாகவும்	-8574
▁கற்றுக்கொண்ட	-8575
▁ஆக்கிர	-8576
▁கட்டாயம்	-8577
▁வெளியேறி	-8578
▁மாணவர்களின்	-8579
▁கருதப்படலாம்	-8580
▁GO	-8581
▁இரத்தக்	-8582
▁காணாமல்	-8583
▁சபையில்	-8584
▁பிரிவுக்கு	-8585
வரிடமிருந்து	-8586
▁நலன்களுக்கு	-8587
▁விற்பனையின்	-8588
▁உலகெங்கிலும்	-8589
em	-8590
ென்	-8591
▁மித	-8592
க்கொலை	-8593
▁மைனர்	-8594
▁வர்மா	-8595
▁மனிதவள	-8596
▁வாக்கிய	-8597
▁ஈடுசெய்ய	-8598
▁வேட்பாளரின்	-8599
▁அகற்றுவதற்கான	-8600
▁நிறுத்தப்பட்ட	-8601
த்தே	-8602
▁பூஷ	-8603
வூட்ட	-8604
▁பெய்	-8605
க்கத்தில்	-8606
▁கடமையின்	-8607
▁தாதுக்கள்	-8608
▁திரும்பப்பெ	-8609
▁வழங்கும்போது	-8610
▁பயன்படுத்தலாம்	-8611
ண்டுகள்	-8612
▁கிரிக்க	-8613
▁குமாரன்	-8614
▁சிக்கலை	-8615
▁நேர்காண	-8616
▁கிழக்கில்	-8617
▁திரும்பிய	-8618
▁பொருளையும்	-8619
▁ஆகியவற்றிற்கு	-8620
ரிங்	-8621
▁களில்	-8622
▁நொய்ட	-8623
▁சிறைவாசம்	-8624
▁அர்ப்பணிப்பு	-8625
▁00	-8626
ண்டா	-8627
விரி	-8628
ப்போல	-8629
▁லிக்	-8630
▁இரக்க	-8631
▁விதிய	-8632
▁முன்முய	-8633
▁விழுந்த	-8634
▁உடன்பாடு	-8635
ப்படுவதைக்	-8636
▁முக்கியம்	-8637
▁வேறுவிதமாக	-8638
▁பிரதேசத்தின்	-8639
▁கட்டுப்பாட்டின்	-8640
ற்றி	-8641
த்துச்	-8642
▁இருதய	-8643
▁பாஸ்போ	-8644
▁இணக்கமாக	-8645
▁முகத்தில்	-8646
▁கையெழுத்திட	-8647
பலி	-8648
வழி	-8649
செய்தது	-8650
▁எட்டிய	-8651
▁முதலியன	-8652
▁நிற்கும்	-8653
▁காலனித்துவ	-8654
▁மகிழ்விக்க	-8655
ஏஏ	-8656
மேன்	-8657
ல்பி	-8658
▁நாம	-8659
▁கேட்ப	-8660
▁வருத்த	-8661
▁நிதியுத	-8662
▁வைத்தார்	-8663
▁ஆரோக்கியமான	-8664
▁வேண்டுமானால்	-8665
▁துருப்புக்கள்	-8666
▁ஒப்புக்கொண்டார்	-8667
▁தரப்பினருக்கும்	-8668
ண்க	-8669
▁பாச	-8670
▁புனை	-8671
▁குரல்	-8672
▁நாராய	-8673
மட்டும்	-8674
▁பெறலாம்	-8675
▁இயக்கும்	-8676
▁சோதனைகள்	-8677
▁வீழ்ச்சிய	-8678
▁வருவதாகவும்	-8679
த்திலிருந்தும்	-8680
பாட	-8681
ந்தை	-8682
▁நோயாளியின்	-8683
ிடமிருந்தும்	-8684
▁ஆகியவற்றைப்	-8685
PD	-8686
ாவாக	-8687
மையால்	-8688
▁காப்பு	-8689
▁விதமாக	-8690
▁விபரீத	-8691
▁தோற்றம்	-8692
▁செயலாக்க	-8693
▁பட்டியலை	-8694
▁நடைமுறைக்	-8695
▁உள்ளடக்கும்	-8696
▁கூறப்பட்டுள்ள	-8697
க்ச	-8698
▁குறு	-8699
▁தயக்க	-8700
▁பிரகா	-8701
▁தவறியது	-8702
▁மானியம்	-8703
▁வைத்தது	-8704
▁முழுவதிலும்	-8705
▁பயன்பாட்டின்	-8706
▁அடைவ	-8707
▁உகந்த	-8708
▁யாதவ்	-8709
ிட்டார்	-8710
▁அதனால்	-8711
▁ஐம்பது	-8712
▁தலையில்	-8713
▁பணக்கார	-8714
▁பிரிவின	-8715
▁ஐந்தாவது	-8716
▁ஊதியங்கள்	-8717
▁கோட்பாட்டின்	-8718
▁நிரூபிக்கப்பட	-8719
மேல்முறையீட்டாள	-8720
சொ	-8721
▁,,	-8722
வானி	-8723
▁உயி	-8724
▁இதற்காக	-8725
▁சென்றனர்	-8726
▁அனுப்பும்	-8727
▁கடைப்பிடி	-8728
▁கட்டுரையின்	-8729
▁தெரிவித்தனர்	-8730
▁சச்சர	-8731
▁நாற்ப	-8732
▁மாமிய	-8733
தாரர்கள்	-8734
▁செயற்கை	-8735
▁பெற்றவர்	-8736
▁அனுபவித்த	-8737
▁அமைச்சரவை	-8738
▁தன்மைக்கு	-8739
▁செய்கிறோம்	-8740
▁துப்பாக்கிய	-8741
▁தீர்மானத்தின்	-8742
▁பொதுத்	-8743
▁காரணியாக	-8744
▁வாகனத்தை	-8745
▁மாற்றப்படும்	-8746
லோக	-8747
திகா	-8748
▁SLP	-8749
▁சவா	-8750
ெயின்	-8751
்களாக	-8752
மதிப்ப	-8753
▁வந்தன	-8754
ிருந்தே	-8755
▁செய்வதைத்	-8756
▁In	-8757
கான்	-8758
ுரிமை	-8759
போக்கு	-8760
▁மசோதாவை	-8761
▁பெற்றனர்	-8762
▁நிவர்த்தி	-8763
▁கேள்வியைக்	-8764
▁நாட்டிற்கு	-8765
▁தேதியின்படி	-8766
ang	-8767
காஸ்	-8768
சிக்க	-8769
த்தடி	-8770
னியாரி	-8771
▁சுதந்திரமான	-8772
",	-8773
▁ஞ	-8774
▁லு	-8775
▁சித	-8776
களாலும்	-8777
ாவையும்	-8778
▁திரட்ட	-8779
வுக்கும்	-8780
▁மறுப்பு	-8781
▁வலைத்தள	-8782
விலிருந்து	-8783
▁அர்த்தமல்ல	-8784
▁துல்லியமான	-8785
▁வட்டியுடன்	-8786
▁இயக்கத்தின்	-8787
▁குழுக்களின்	-8788
▁முத	-8789
▁இளைய	-8790
▁அதையே	-8791
▁எதுவு	-8792
▁ஜனங்கள்	-8793
▁ஈடுபடுத்த	-8794
▁கொடுத்தது	-8795
▁அனுப்பியது	-8796
▁திட்டங்களில்	-8797
▁நட்ச	-8798
ிருக்கவில்லை	-8799
▁கையாள்வதில்	-8800
▁பெற்றுள்ளது	-8801
்பந்த	-8802
▁ஆயிரம்	-8803
▁இடைவெள	-8804
▁ஜெய்ப்ப	-8805
▁பரப்பளவு	-8806
▁நட்சத்திர	-8807
▁அறிவிப்பதன்	-8808
யல்	-8809
▁காச	-8810
▁மஹி	-8811
▁நூறு	-8812
▁ஊடுருவ	-8813
▁மையத்தில்	-8814
▁ராஜாவாகிய	-8815
▁விவகாரத்தை	-8816
▁கைப்பற்றப்பட்ட	-8817
▁தீர்மானிப்பதில்	-8818
▁ஐய	-8819
▁nan	-8820
▁எனக்குத்	-8821
ாளருக்கும்	-8822
▁பாதுகாப்பதற்கான	-8823
ஜிங்	-8824
▁அளவிட	-8825
▁சாதனை	-8826
▁போரில்	-8827
▁நூற்றுக்க	-8828
▁இடைநீக்கம்	-8829
▁சட்டத்துடன்	-8830
மயமாக்கப்பட்ட	-8831
▁மேம்பாட்டுத்	-8832
▁(“	-8833
தேசிய	-8834
ினான்	-8835
▁தொந்தரவு	-8836
க்கூடியதாக	-8837
▁மீறுவதாகும்	-8838
▁கட்டமைப்பின்	-8839
▁திருத்தப்பட்டது	-8840
விவர	-8841
▁பரீ	-8842
▁போக்க	-8843
▁முறையற்ற	-8844
▁சர்ச்சையின்	-8845
art	-8846
மத்	-8847
வரே	-8848
▁தீர்வை	-8849
▁சிமென்ட்	-8850
▁தொடர்பும்	-8851
▁கொள்கையில்	-8852
▁பிரதேசத்தில்	-8853
▁பத்திகள்	-8854
▁கையாள்வது	-8855
▁விவாதிக்கப்பட்ட	-8856
சூர்	-8857
▁பகை	-8858
ர்வால்	-8859
▁காட்டி	-8860
▁மென்பொருள்	-8861
▁மெமோராண்டம்	-8862
ெக்	-8863
த்தீ	-8864
ரையில்	-8865
▁தலைமுறை	-8866
▁படைப்பு	-8867
▁கூர்மையான	-8868
▁விவாதிக்க	-8869
▁சமூகத்திற்கு	-8870
▁பொதுமக்களின்	-8871
▁திட்டங்களுக்கு	-8872
▁என்பதைத்	-8873
▁பிரிவினை	-8874
▁ஆட்சிக்கு	-8875
▁சாட்சியம்	-8876
▁பகிரங்கமாக	-8877
▁வைப்புத்தொகை	-8878
▁சமர்ப்பித்தது	-8879
oc	-8880
▁புன	-8881
க்களால்	-8882
▁செய்வார்	-8883
▁நிர்பந்த	-8884
▁தொழிற்சால	-8885
▁மாதத்தில்	-8886
▁முடிவடையும்	-8887
▁விசித்திரமான	-8888
▁புள்ளிவிவரங்கள்	-8889
நலம்	-8890
▁காட்டிலும்	-8891
▁அதிகாரியிடம்	-8892
▁சேவையிலிருந்து	-8893
▁பவு	-8894
▁பயன்	-8895
▁புனே	-8896
ிக்காக	-8897
க்குவதன்	-8898
▁செல்வது	-8899
▁போலீசார்	-8900
▁பங்கேற்பு	-8901
▁கட்சிகளும்	-8902
▁தெரிவித்துக்	-8903
▁இருக்கிறார்கள்	-8904
▁ஏற்றுக்கொண்டார்	-8905
ont	-8906
ட்ஜ்	-8907
வாய்	-8908
றுதல்	-8909
ட்டிக்	-8910
ணியின்	-8911
தொடர்ப	-8912
யிற்சி	-8913
▁தேயில	-8914
▁ஊடகங்கள்	-8915
▁உற்பத்தித்த	-8916
▁கருணைக்கொலை	-8917
▁சொல்லுகிறார்	-8918
▁பாதுகாப்பின்	-8919
▁முடிவுகளுக்கு	-8920
▁எடுத்துக்கொண்ட	-8921
▁செய்யப்பட்டனர்	-8922
id	-8923
மறை	-8924
ுவா	-8925
▁அமில	-8926
▁பவர்	-8927
▁பழுது	-8928
த்தனமாக	-8929
ப்பதும்	-8930
▁உட்குற	-8931
▁உதவியை	-8932
▁செய்கின்றன	-8933
▁காலியிடங்களை	-8934
▁வெளியிட்டுள்ள	-8935
▁நீட்டிக்கப்பட்ட	-8936
▁ஏபி	-8937
லானது	-8938
்தார்	-8939
▁பாரதி	-8940
▁ஒளிபரப்ப	-8941
▁செலுத்துவ	-8942
▁சர்ச்சைகள்	-8943
▁பாடத்திட்ட	-8944
▁நாடுகளுக்கு	-8945
▁வேலைத்திட்ட	-8946
▁பெயரிடப்பட்ட	-8947
ழில	-8948
▁இன்ப	-8949
போதும்	-8950
▁யோசனை	-8951
▁அடைந்தது	-8952
▁உறுதிப்ப	-8953
▁தேவைகளைப்	-8954
▁குறிப்பில்	-8955
▁பணியாற்றிய	-8956
▁முழுவதுமாக	-8957
▁கிடைக்கின்றன	-8958
▁மதிப்பீட்டின்	-8959
க்கிரம	-8960
▁அளவீடு	-8961
▁சர்க்க	-8962
▁தாண்டி	-8963
▁விடயம்	-8964
காஷ்மீர்	-8965
▁கண்டார்	-8966
▁பெருகிய	-8967
▁அமைதியான	-8968
▁நிர்ணயம்	-8969
▁பற்றியது	-8970
▁தாக்குதலுக்கு	-8971
▁நிறுவனங்களும்	-8972
ஷன்ஸ்	-8973
▁சூடு	-8974
▁புல்ல	-8975
▁உடனேயே	-8976
▁மனதைப்	-8977
▁மூலமாக	-8978
▁கடற்கரை	-8979
▁செல்வம்	-8980
▁மாறியது	-8981
▁நோக்கங்களை	-8982
▁பன்னிரண்டு	-8983
EP	-8984
ன்றி	-8985
▁ஃபோ	-8986
▁வீச	-8987
ருத்தல்	-8988
▁ஆவணத்தின்	-8989
▁கொள்கிறேன்	-8990
sp	-8991
மோச	-8992
ஷர்	-8993
ங்களே	-8994
▁அருணா	-8995
▁நேபாள	-8996
▁அவரால்	-8997
▁பிரிவுகளை	-8998
▁விதிமுறையை	-8999
▁நிறுவுவதற்கு	-9000
▁அலுவலகத்திற்கு	-9001
மனித	-9002
ச்சிற	-9003
ிட்டது	-9004
ீட்டர்	-9005
டபிள்யு	-9006
▁ஆதிக்க	-9007
▁எஞ்சிய	-9008
▁கொண்டதாக	-9009
ுகிறார்கள்	-9010
▁காரணங்களால்	-9011
▁வீதம்	-9012
▁விடுக்க	-9013
▁சேவைக்கு	-9014
▁மத்தியப்	-9015
▁வாதங்களை	-9016
▁சட்டமாகும்	-9017
▁துல்லியமாக	-9018
▁நிறுவனமும்	-9019
▁அதிலிருந்து	-9020
▁ஊக்குவித்தல்	-9021
▁ஒப்பந்தக்காரர்	-9022
▁இடி	-9023
▁நாளை	-9024
ப்பட்ச	-9025
ம்பில்	-9026
▁தாக்கிய	-9027
▁வரவேற்ப	-9028
▁அறிவுறுத்து	-9029
▁கட்டியெழுப்ப	-9030
லிக	-9031
▁ஆட	-9032
▁அலை	-9033
▁ஆண்கள்	-9034
▁பரீட்ச	-9035
டும்போது	-9036
▁இறையாண்மை	-9037
▁பொருத்தமானதாக	-9038
▁வழக்குகளுக்கு	-9039
இய	-9040
எஸ்சி	-9041
ேந்திர	-9042
▁உள்ளே	-9043
▁தூக்க	-9044
▁மணிநேர	-9045
▁சொசைட்டி	-9046
▁தணிக்கைய	-9047
▁கட்டுரைகளை	-9048
க்கப்பட்டால்	-9049
▁ஆட்சேபனைகள்	-9050
▁தகுதியற்றவர்	-9051
vii	-9052
▁தடா	-9053
▁வாய்	-9054
▁சுமையை	-9055
▁தளத்தை	-9056
▁கழித்தல்	-9057
▁நம்பப்பட்ட	-9058
▁பரப்பளவில்	-9059
▁விசாரணையைத்	-9060
▁நூற்றுக்கணக்கான	-9061
▁தேய்	-9062
▁வேகமாக	-9063
▁வசித்து	-9064
வர்களையும்	-9065
▁மறுத்தார்	-9066
▁வெற்றிபெற	-9067
ங்களுக்குப்	-9068
ீப்	-9069
▁நிக்க	-9070
▁ஒருவன்	-9071
▁சப்ளைய	-9072
▁இந்திரா	-9073
ய்வாய்ப்ப	-9074
▁பெற்றவர்கள்	-9075
▁முதன்மையானது	-9076
▁சட்டமன்றத்தில்	-9077
▁அதிகரித்துள்ளது	-9078
▁ஜா	-9079
ணக்க	-9080
மாகிய	-9081
▁சத்ய	-9082
தியானது	-9083
▁தொற்று	-9084
▁மைக்ரோ	-9085
▁வருவாயை	-9086
▁தொடர்புப	-9087
▁பாதையில்	-9088
▁வழக்கைக்	-9089
▁அதிருப்தி	-9090
▁கருதினால்	-9091
▁தகவல்களின்	-9092
▁நீர்ப்பாசன	-9093
▁நிறைவேற்றுவது	-9094
▁அசாம்	-9095
▁குழாய	-9096
▁தற்கா	-9097
▁இடையூறு	-9098
▁கீழ்க்க	-9099
▁பிறப்பு	-9100
▁அதிகாரசபை	-9101
▁புதுமையான	-9102
▁பதிலளித்தவரை	-9103
▁வாடிக்கையாளர்	-9104
▁நிர்வாகத்திற்கு	-9105
ஃபோ	-9106
அடி	-9107
நம்ப	-9108
பாரா	-9109
▁எமது	-9110
▁தலைநக	-9111
விலங்கு	-9112
ல்லியில்	-9113
ொள்கிறேன்	-9114
▁துறைக்கு	-9115
ப்படாததால்	-9116
▁வாகனங்கள்	-9117
▁இயக்குநராக	-9118
▁கூறுகையில்	-9119
▁பிரத்தியேகமாக	-9120
▁ஷிய	-9121
முன்ன	-9122
ரிடைய	-9123
▁செல்க	-9124
▁இயக்கிய	-9125
▁ஈடுபடும்	-9126
▁கோரினார்	-9127
▁வாக்களிக்க	-9128
▁அளித்துள்ளது	-9129
▁சட்டபூர்வமாக	-9130
▁வழங்குநர்கள்	-9131
▁கண்டுபிடிப்பது	-9132
வனை	-9133
ராதி	-9134
▁செவி	-9135
▁ஆவணத்தை	-9136
▁இனிமேல்	-9137
▁சிவப்பு	-9138
▁கிறிஸ்தவ	-9139
▁தொழிலில்	-9140
▁அதிர்ச்சி	-9141
▁குற்றங்களின்	-9142
▁செலுத்துங்கள்	-9143
▁கம	-9144
▁நால	-9145
ாராம்	-9146
ீர்கள	-9147
▁தவணை	-9148
ோக்கான	-9149
▁ஆறாவது	-9150
▁தோற்றுவ	-9151
▁கொல்லப்பட்ட	-9152
ஹெ	-9153
வல்	-9154
▁விண்	-9155
▁ஆளுமை	-9156
▁அமிகஸ்	-9157
▁இருக்கை	-9158
▁வேளாண்மை	-9159
ிக்கப்படாத	-9160
▁கட்சியும்	-9161
▁சிகிச்சையை	-9162
▁முரண்பாடான	-9163
▁கருத்துக்கு	-9164
▁இல்லாதிருந்த	-9165
ன்ம	-9166
பஸ்	-9167
்தக	-9168
ஹ்ரா	-9169
துங்க	-9170
▁பாடல்	-9171
▁ரஷ்யா	-9172
▁ஐரோப்பா	-9173
▁படங்கள்	-9174
▁வாடகைக்	-9175
▁ஓய்வுபெற்ற	-9176
▁குறைக்கும்	-9177
▁தீர்ப்பைப்	-9178
▁இருக்கிறோம்	-9179
▁காரணத்தினால்	-9180
st	-9181
வாஸ்	-9182
▁சின	-9183
துவாக	-9184
▁மேட்	-9185
▁தபால்	-9186
கத்தின்	-9187
▁ஒருதலை	-9188
▁கழித்து	-9189
▁புரட்சிக	-9190
▁வாரிசுகள்	-9191
▁எடுக்கவில்லை	-9192
▁r	-9193
▁யுபி	-9194
▁கட்டட	-9195
▁பூங்கா	-9196
▁விலைகள்	-9197
த்திலுள்ள	-9198
▁சீனியாரி	-9199
பதிலளித்தவர்	-9200
▁பத்திரங்களை	-9201
▁சமர்ப்பிக்கும்	-9202
▁புரோ	-9203
▁அனில்	-9204
இந்தியா	-9205
▁கருதுவ	-9206
▁தனியாக	-9207
▁யுத்தம்	-9208
▁பாரபட்சமும்	-9209
▁போன்றவற்றின்	-9210
▁பயன்படுத்துவதை	-9211
▁வாங்குபவருக்கு	-9212
▁ஆப்கானிஸ்தானில்	-9213
▁விதிக்கப்பட்டது	-9214
ஷிய	-9215
▁அடிய	-9216
▁கட்ச	-9217
▁தீவு	-9218
னையால்	-9219
▁அனுசரி	-9220
▁கார்டு	-9221
▁இணக்கம்	-9222
▁பயணிகள்	-9223
▁செய்பவர்	-9224
▁ஜனநாயகத்தின்	-9225
▁நீதிமன்றங்களை	-9226
▁பொதுமக்களுக்கு	-9227
▁ஷி	-9228
▁இடு	-9229
▁உபரி	-9230
▁கன்ன	-9231
ுள்ளதாக	-9232
▁சிபிசி	-9233
▁வாழும்	-9234
▁உணர்ந்து	-9235
▁சந்திப்பு	-9236
▁சொற்களில்	-9237
▁மீட்டெடுப்பது	-9238
▁நிராகரிக்கப்பட	-9239
ஷீ	-9240
▁அஹ்	-9241
▁பிரத்ய	-9242
▁வணிகப்	-9243
▁உந்துதல்	-9244
▁ஜனாதிபதிய	-9245
▁நோய்வாய்ப்ப	-9246
▁சந்தேகத்தின்	-9247
▁விற்பனையாளர்	-9248
▁செய்கிறார்கள்	-9249
மணி	-9250
▁சால்	-9251
▁நற்ப	-9252
ஜியின்	-9253
ியுடன்	-9254
▁சத்தீ	-9255
▁உருப்ப	-9256
▁மதிக்க	-9257
▁சட்டமாக	-9258
▁மில்லிய	-9259
▁இணக்கமான	-9260
▁எழுப்பின	-9261
▁மாதிரிகள்	-9262
▁கீழ்க்கண்ட	-9263
ud	-9264
விச	-9265
ள்ளே	-9266
▁சீல்	-9267
▁பேசினார்	-9268
▁உட்பட்டவை	-9269
▁தொழில்துற	-9270
▁விரும்புகிறது	-9271
மதா	-9272
ேசு	-9273
க்கொ	-9274
▁ஆபாச	-9275
▁காடு	-9276
களிடம்	-9277
மளித்த	-9278
▁சபாநாயக	-9279
▁ஏற்றத்தா	-9280
▁எடுத்துள்ள	-9281
▁முன்னோக்கி	-9282
▁சுரங்கங்கள்	-9283
ப்படுவதற்கும்	-9284
▁வாக்களிக்கும்	-9285
▁தெரிவிக்கவில்லை	-9286
பர்	-9287
▁ஏசி	-9288
மையைக்	-9289
ுத்திர	-9290
ப்புதல்	-9291
▁இடைத்த	-9292
▁பண்டைய	-9293
▁முற்று	-9294
▁தொகைகள்	-9295
ொள்கிறார்	-9296
▁பள்ளத்தா	-9297
▁விதிமுறைக்கு	-9298
▁காம	-9299
▁உடலை	-9300
▁சட்டமிய	-9301
▁சபைக்கு	-9302
▁பங்களாத	-9303
▁இந்தியன்	-9304
▁குற்றவாளியாக	-9305
▁பாதுகாப்புப்	-9306
▁தொடங்கப்பட்டது	-9307
தைய	-9308
▁களை	-9309
▁ஆவிய	-9310
▁கற்க	-9311
▁செலாவ	-9312
▁குறிக்கோள	-9313
▁விருதுகளை	-9314
▁மேற்கொண்டு	-9315
▁நெட்வொர்க்க	-9316
ரகம்	-9317
ள்ளா	-9318
ாகப்	-9319
▁லெப	-9320
▁வர்ண	-9321
▁இதைச்	-9322
▁இனவாத	-9323
▁கருவூல	-9324
▁போதும்	-9325
▁ஆணையின்	-9326
▁கருத்தின்	-9327
▁யூனியனின்	-9328
▁எக்ஸ்பிரஸ்	-9329
▁கோரிக்கையின்	-9330
ஜர்	-9331
▁சஹ	-9332
ஜெட்	-9333
திகார	-9334
▁அன்ச	-9335
▁தெரு	-9336
▁நெகி	-9337
▁ஐபிட்	-9338
▁சவாலை	-9339
▁பதட்ட	-9340
▁உணர்வை	-9341
▁சக்தியை	-9342
▁செலவினங்களை	-9343
,"	-9344
AIR	-9345
ரசு	-9346
ோப்ப	-9347
▁முஷ	-9348
▁அபிலா	-9349
மித்தம்	-9350
▁வெடிகு	-9351
▁தேய்மான	-9352
▁ராயல்டி	-9353
▁கவனித்து	-9354
▁பாதுகாவல	-9355
▁பிரத்யேக	-9356
▁மக்கள்தொகை	-9357
▁இராணுவத்தின்	-9358
▁தேர்தல்களில்	-9359
▁அனுப்பப்படும்	-9360
▁திருத்தத்திற்கு	-9361
ரிகள்	-9362
வனும்	-9363
்ட்ஸ்	-9364
▁ஸ்ட்	-9365
▁அடங்க	-9366
▁அண்டை	-9367
▁உடற்ப	-9368
▁புனைக	-9369
▁சட்டமா	-9370
▁ஆபரேட்ட	-9371
▁விளிம்பு	-9372
▁சாதாரணமாக	-9373
▁கோட்பாட்டை	-9374
▁சரியானதல்ல	-9375
▁பலி	-9376
▁தத்தெ	-9377
▁மேகால	-9378
ப்படுமா	-9379
▁உரிமதார	-9380
▁திசைதிருப்ப	-9381
▁கேள்விகளுக்கு	-9382
த்ர	-9383
ாகி	-9384
▁குதி	-9385
▁ஜாதி	-9386
▁மனநல	-9387
ட்டிங்	-9388
▁செய்தன	-9389
▁பாட்னா	-9390
▁மறைக்க	-9391
▁நலனுக்கு	-9392
▁நிலத்தடி	-9393
▁அனைத்துலக	-9394
▁ஆலோசனையைக்	-9395
▁உத்தரவிட்ட	-9396
▁புலம்பெயர்ந்த	-9397
▁த்	-9398
▁நகரம்	-9399
▁கருதியது	-9400
▁எதிர்மறையான	-9401
▁கட்டத்திலும்	-9402
▁போதைப்பொருள்	-9403
ாயன	-9404
▁சுத	-9405
னாலும்	-9406
முதலில்	-9407
▁கூறினர்	-9408
▁வசதியாக	-9409
▁முதல்வர்	-9410
ப்படுகிறோம்	-9411
▁அமெரிக்கப்	-9412
▁ஆசிரியர்களின்	-9413
ks	-9414
▁திரா	-9415
▁அப்பட்ட	-9416
▁கருதும்	-9417
▁உயிருடன்	-9418
▁நிலைமைகளை	-9419
▁பதவிகளில்	-9420
▁ஜனாதிபதிக்கு	-9421
பட்ட	-9422
னியில்	-9423
ப்படுப	-9424
▁கோவில	-9425
▁வராது	-9426
ிலென்ஸ்	-9427
▁செலவிட	-9428
▁குற்றச்	-9429
▁சுயவிவர	-9430
▁வந்தால்	-9431
▁புள்ளிகள்	-9432
▁கொண்டுவரப்பட்ட	-9433
▁பதிலளித்தவரால்	-9434
▁அறிவுறுத்தல்கள்	-9435
ag	-9436
▁கவி	-9437
▁வலைய	-9438
கையின்	-9439
▁மண்டலம்	-9440
▁இயேசு	-9441
▁ஒப்பிட	-9442
▁தந்திர	-9443
த்தைந்து	-9444
▁கணவரின்	-9445
▁சர்வாதி	-9446
▁பாடநெறி	-9447
▁சரியாகக்	-9448
க்குறிப்பு	-9449
▁அடிப்படையை	-9450
▁உறுதியளித்த	-9451
▁பகுதிகளுக்கு	-9452
▁விருப்பத்தின்	-9453
▁நம்பியிருந்தது	-9454
ul	-9455
ரத்	-9456
ருமான	-9457
▁பந்த	-9458
▁முதி	-9459
▁வியட்	-9460
▁அமர்த்த	-9461
▁கடைப்பி	-9462
▁உயிரியல்	-9463
▁ஆளுநருக்கு	-9464
▁சார்க்கோசி	-9465
▁தகுதியுள்ள	-9466
▁கட்டாயமாகும்	-9467
▁வேண்டுகோளின்	-9468
▁கட்டுப்பாடுகளை	-9469
டெட்	-9470
ணியை	-9471
▁குர்த	-9472
ப்படாதது	-9473
க்குவதில்	-9474
▁வாக்களித்த	-9475
▁சம்பவத்தின்	-9476
▁அலுவலகத்தின்	-9477
▁குர்	-9478
▁சாதன	-9479
▁நாத்	-9480
▁பான்	-9481
▁தங்கள	-9482
▁சொற்பொ	-9483
▁வங்கிக்	-9484
▁வருவதால்	-9485
▁அதிகாரியை	-9486
▁புகார்கள்	-9487
▁மசோதாவின்	-9488
▁மறுக்கும்	-9489
▁உள்ளடக்கம்	-9490
▁கிரிக்கெட்	-9491
▁புறப்பட்டு	-9492
▁மூன்றாவதாக	-9493
▁புத்தகங்கள்	-9494
▁வார்த்தைகள்	-9495
▁தீர்ப்புகளின்	-9496
▁சொத்துக்களுக்கு	-9497
▁சிக்	-9498
▁பக்த	-9499
கொண்டு	-9500
லையில்	-9501
வரிடம்	-9502
▁காலவர	-9503
▁ஆகவும்	-9504
▁எதுவாக	-9505
▁பரிமாண	-9506
▁புறம்ப	-9507
▁அறையில்	-9508
▁சுவாரஸ்	-9509
ப்படுத்தி	-9510
▁சீர்குலை	-9511
▁தண்டனையாக	-9512
▁செய்துள்ளன	-9513
▁நிலையத்தின்	-9514
▁ஒருதலைப்பட்ச	-9515
▁செய்யப்படுவது	-9516
▁செயல்பாடுகளைச்	-9517
▁MC	-9518
▁அஜ	-9519
▁ஹா	-9520
▁மண்டப	-9521
▁மாண்டம	-9522
▁டெவலப்ப	-9523
▁மதிப்பீட்ட	-9524
▁இழிவுபடுத்த	-9525
▁பெறுவதற்காக	-9526
▁அமைப்பதற்கான	-9527
▁வெளிப்பாட்டை	-9528
▁நாட்களுக்குப்	-9529
சிங்க	-9530
▁தென்	-9531
▁மேலோ	-9532
க்கிக்	-9533
ுவதால்	-9534
வரியில்	-9535
▁லிக்விட	-9536
▁சதவீதமாக	-9537
▁இயல்புடைய	-9538
▁குமாரதுங்க	-9539
▁தேர்தல்கள்	-9540
▁சமுதாயத்தில்	-9541
▁நடத்துவதற்கான	-9542
▁உறுப்பினர்களால்	-9543
▁CR	-9544
▁தலைக	-9545
▁யுஎஸ்	-9546
▁பிரகடன	-9547
இறந்தவர்	-9548
▁ஆத்திரமூ	-9549
▁தீர்த்து	-9550
▁படித்தது	-9551
▁கவனக்குறை	-9552
▁சுருக்கம்	-9553
▁பணிபுரிந்த	-9554
▁எதிர்மறையாக	-9555
▁வல்லுநர்கள்	-9556
▁பயன்படுத்திக்	-9557
▁செயல்படுத்தப்பட	-9558
ஷை	-9559
▁நை	-9560
▁கிண	-9561
▁வைர	-9562
▁சிம்	-9563
▁குழாய்	-9564
▁தமிழீழ	-9565
▁வளரும்	-9566
ுவார்கள்	-9567
▁உழைப்பு	-9568
▁சிறைச்ச	-9569
▁கூறினால்	-9570
▁மாவட்டம்	-9571
▁மாற்றப்பட	-9572
▁அடக்குமுறை	-9573
▁இண்டஸ்ட்ரீ	-9574
▁நெட்வொர்க்	-9575
▁தனிநபர்களின்	-9576
▁எடுக்கப்படும்	-9577
▁மூழ்க	-9578
டுத்தது	-9579
▁அரிதான	-9580
▁இரவில்	-9581
▁பதவிகள்	-9582
▁பின்பற்று	-9583
▁பொருத்தமற்றது	-9584
▁கண்காணிப்பாளர்	-9585
▁செயல்படுத்தும்	-9586
▁தவிர்ப்பதற்காக	-9587
லக்ட்	-9588
ார்க்	-9589
னைடெட்	-9590
க்காரர்	-9591
▁இவ்வளவு	-9592
▁கூட்டுக்	-9593
▁அவர்களைப்	-9594
▁வரலாற்றில்	-9595
▁இந்தியாவும்	-9596
▁சந்தர்ப்பம்	-9597
▁திட்டவட்டமாக	-9598
▁ஆப்கானிஸ்தான்	-9599
மிக	-9600
▁ஜக	-9601
▁புனர	-9602
▁மெகாவ	-9603
▁எனவும்	-9604
▁நிதியை	-9605
▁யூனிட்	-9606
▁முன்னறி	-9607
▁சுவாரஸ்ய	-9608
▁வேதனைக்கு	-9609
▁வேண்டியதன்	-9610
▁அதிகாரிகளும்	-9611
டிக்கு	-9612
பாடும்	-9613
▁எஸ்டி	-9614
▁ஏதும்	-9615
▁மையமாக	-9616
▁உடன்படு	-9617
▁நிறுவப்பட	-9618
▁பக்கச்சார்பற்ற	-9619
IS	-9620
▁உறி	-9621
▁கிஷ	-9622
ணர்வை	-9623
ாலின்	-9624
▁அதனை	-9625
த்தகாத	-9626
▁புண்ப	-9627
▁சுவாமி	-9628
▁திசைகள்	-9629
▁வெடிபொருட	-9630
▁உற்பத்தியை	-9631
▁காணப்படும்	-9632
▁நிச்சயமற்ற	-9633
▁தெரிவித்தது	-9634
▁இருப்பார்கள்	-9635
AS	-9636
வினர்	-9637
▁மாதா	-9638
▁தேதியை	-9639
▁ஜெனரலின்	-9640
▁திறன்களை	-9641
▁பண்புகள்	-9642
▁ரூபாய்க்கு	-9643
▁ஏற்பட்டுள்ள	-9644
▁பிறப்பித்தது	-9645
▁ஷ்	-9646
▁சென்ன	-9647
▁டவுன்	-9648
▁தூரம்	-9649
▁நிகழ்ச்ச	-9650
▁வாதிகளின்	-9651
▁குடியரசுத்	-9652
▁சேர்க்கப்பட	-9653
▁முடியாவிட்டால்	-9654
தீன்	-9655
▁ரிய	-9656
▁பாகு	-9657
▁ஆழமாக	-9658
▁தடையை	-9659
▁நெடுவ	-9660
னார்கள்	-9661
▁கூடும்	-9662
▁தாவீது	-9663
▁புத்து	-9664
▁அளித்து	-9665
▁அகற்றும்	-9666
▁தொடரலாம்	-9667
▁அரசியலில்	-9668
▁வேறுபாட்டை	-9669
▁குடும்பத்தின	-9670
▁தண்டிக்கப்பட்ட	-9671
ாலிய	-9672
▁உறை	-9673
▁முகம்	-9674
ப்படியாக	-9675
▁தடையும்	-9676
களுக்குப்	-9677
▁குழந்தைகளை	-9678
▁வளர்ச்சியில்	-9679
▁வைத்திருத்தல்	-9680
கேட்	-9681
▁அவரும்	-9682
▁மனிதன்	-9683
▁ராஜீவ்	-9684
க்கங்கள்	-9685
▁ஆலோசகரான	-9686
▁தெலுங்கு	-9687
▁வெளியிடு	-9688
▁மாநிலத்தை	-9689
▁வாதத்தின்	-9690
▁தனிநபர்கள்	-9691
▁விஜிலென்ஸ்	-9692
▁சர்ச்சையில்லை	-9693
▁வாழ்த்துக்களைத்	-9694
EC	-9695
▁எவ்	-9696
▁நிகழ்தக	-9697
▁மாட்டாது	-9698
▁தரநிலைகள்	-9699
▁கேள்வியும்	-9700
▁விசாரணையும்	-9701
முன்	-9702
▁தைரிய	-9703
ராகவும்	-9704
▁ஒத்திசை	-9705
▁ஒளிபரப்பு	-9706
▁திருத்தச்	-9707
▁நிதியுதவி	-9708
▁தவிர்ப்பது	-9709
▁பெரும்பான்மைய	-9710
▁வெளியிடுவதற்கு	-9711
▁உறுதிப்படுத்தல்	-9712
யோக	-9713
▁அரபு	-9714
▁சேருவ	-9715
▁மேலான	-9716
▁ரமேஷ்	-9717
▁திறனைக்	-9718
▁உணர்ச்சி	-9719
▁சமநிலையை	-9720
▁நபரையும்	-9721
▁மாமியார்	-9722
▁என்றார்கள்	-9723
▁செய்ததாகக்	-9724
▁விலைப்பட்ட	-9725
▁அளிக்கவில்லை	-9726
▁கண்ணோட்டத்தில்	-9727
▁வாரங்களுக்குள்	-9728
▁ஏடி	-9729
▁ஜவு	-9730
▁சாலைகள்	-9731
▁புத்தகம்	-9732
▁விதிக்கு	-9733
▁கோருகிறது	-9734
▁சட்டங்களில்	-9735
▁அகா	-9736
த்தாள	-9737
ர்ட்ட	-9738
▁தரவரி	-9739
▁கோபால்	-9740
▁குறையாத	-9741
பயங்கரவாத	-9742
▁மனைவியின்	-9743
▁நேர்மையற்ற	-9744
▁அறிவிக்கும்	-9745
▁ஏற்படுத்தியது	-9746
▁நச	-9747
நாம்	-9748
ாடாக	-9749
▁SCC	-9750
சியுடன்	-9751
ன்களின்	-9752
▁பிள்ளை	-9753
▁வெள்ளி	-9754
▁பதிப்பை	-9755
▁பணியாற்றி	-9756
▁நிகழ்வுகளை	-9757
▁அதிகாரசபையின்	-9758
▁நீதிமன்றங்களும்	-9759
ெடு	-9760
▁பூச	-9761
▁இசைய	-9762
▁கூலி	-9763
ப்புவாத	-9764
▁இணையதள	-9765
ோடிட்டுக்	-9766
▁ஆய்வாளர்	-9767
▁சாலையில்	-9768
ப்பட்டதாகக்	-9769
▁ஒழுக்காற்று	-9770
▁கருதப்படாது	-9771
▁ஒதுக்கீட்டாள	-9772
▁வரவிருக்கும்	-9773
▁வேலைநிறுத்தம்	-9774
ir	-9775
▁சன	-9776
ச்சிய	-9777
▁உருவ	-9778
த்தோடு	-9779
டத்தில்	-9780
தியியல்	-9781
▁எழுப்பு	-9782
▁கொள்ளாமல்	-9783
▁நிரந்தரமாக	-9784
▁வளாகத்தின்	-9785
▁சீனியாரிட்டி	-9786
▁ஒப்படைக்கப்பட்ட	-9787
தர	-9788
ter	-9789
▁தலி	-9790
▁பாலா	-9791
ரிடையே	-9792
▁சட்டத்	-9793
▁வருவதாக	-9794
ப்பட்டுள்ளனர்	-9795
▁தீர்ப்பளிக்க	-9796
▁ஆண்டுகளுக்குள்	-9797
▁தீர்ப்பாயங்கள்	-9798
▁அர்	-9799
டுகிற	-9800
▁மொஹமட்	-9801
▁கணக்கிய	-9802
▁முறைக்கு	-9803
ஸ்தி	-9804
▁தேடி	-9805
▁ரீதிய	-9806
▁விற்ற	-9807
▁உருப்படி	-9808
▁குற்றஞ்ச	-9809
▁யுனைடெட்	-9810
▁வழிகளில்	-9811
▁முயற்சியும்	-9812
த்திருக்கிறது	-9813
▁செய்தித்தாள்	-9814
▁வழக்கறிஞரால்	-9815
▁வருடங்களுக்கும்	-9816
செய்க	-9817
▁தொடர்	-9818
ர்களிடம்	-9819
▁காலநிலை	-9820
▁பட்ஜெட்	-9821
▁குற்றமாக	-9822
▁தொகையின்	-9823
ரிலிருந்து	-9824
▁அலுவலகத்தை	-9825
▁செய்ததற்காக	-9826
▁உத்தரவாதத்தை	-9827
▁நிகழ்வுகளிலும்	-9828
ாதா	-9829
▁ஊழ	-9830
தனம்	-9831
ர்த்	-9832
▁ஜாக	-9833
ர்களான	-9834
▁கவுர்	-9835
▁சோதனைய	-9836
▁நிலவரப்படி	-9837
▁வெளியிடும்	-9838
▁அறிவிப்பும்	-9839
▁பொறுப்புக்கூ	-9840
▁விசாரிக்கும்	-9841
▁தெளிவுபடுத்து	-9842
▁நடவடிக்கையின்	-9843
▁விதிமுறைகளால்	-9844
்தே	-9845
ராஜா	-9846
ப்பூர்	-9847
▁அச்சு	-9848
▁ஆபத்தை	-9849
▁சூர்யா	-9850
▁தாங்கி	-9851
▁பிடிக்க	-9852
▁அளித்தவர்	-9853
▁கிளர்ச்சி	-9854
▁வனவிலங்கு	-9855
▁வருவாயின்	-9856
▁கவனிக்கப்பட	-9857
▁விண்ணப்பித்த	-9858
▁கலந்துரையாடல்	-9859
▁அகல	-9860
▁டிரை	-9861
▁மருந்த	-9862
ப்படுவதையும்	-9863
▁கடத்தப்பட்ட	-9864
EF	-9865
வாஜி	-9866
க்கூட	-9867
ினேன்	-9868
▁லஞ்சம்	-9869
▁வளாகம்	-9870
▁இன்டர்ந	-9871
▁முஸ்லிம	-9872
▁தன்னாட்சி	-9873
▁நிறுவனமான	-9874
▁உச்சவரம்பு	-9875
▁வங்கிகளின்	-9876
▁பாதிக்கிறது	-9877
▁சக்திவாய்ந்த	-9878
▁குறிக்கப்பட்ட	-9879
ஜிசி	-9880
்	-9881
▁	-9882
த	-9883
க	-9884
ு	-9885
ி	-9886
ப	-9887
ட	-9888
ம	-9889
ர	-9890
ா	-9891
வ	-9892
ற	-9893
ன	-9894
ல	-9895
ை	-9896
ய	-9897
ள	-9898
ச	-9899
ந	-9900
அ	-9901
.	-9902
,	-9903
ே	-9904
ண	-9905
இ	-9906
ெ	-9907
எ	-9908
ீ	-9909
ொ	-9910
ங	-9911
ழ	-9912
ோ	-9913
உ	-9914
ூ	-9915
ஆ	-9916
ஒ	-9917
०	-9918
१	-9919
)	-9920
ஸ	-9921
(	-9922
;	-9923
ஜ	-9924
ஏ	-9925
-	-9926
२	-9927
&	-9928
ஷ	-9929
३	-9930
:	-9931
o	-9932
0	-9933
t	-9934
ஐ	-9935
/	-9936
u	-9937
i	-9938
ஞ	-9939
#	-9940
q	-9941
४	-9942
ஹ	-9943
I	-9944
"	-9945
ஊ	-9946
a	-9947
A	-9948
'	-9949
५	-9950
ஃ	-9951
ஈ	-9952
e	-9953
|	-9954
C	-9955
ஓ	-9956
“	-9957
P	-9958
]	-9959
[	-9960
r	-9961
n	-9962
S	-9963
s	-9964
६	-9965
E	-9966
R	-9967
l	-9968
m	-9969
T	-9970
O	-9971
p	-9972
७	-9973
M	-9974
?	-9975
N	-9976
x	-9977
d	-9978
W	-9979
c	-9980
%	-9981
D	-9982
h	-9983
F	-9984
B	-9985
L	-9986
८	-9987
v	-9988
V	-9989
g	-9990
९	-9991
k	-9992
G	-9993
