<unk>	0
<s>	0
</s>	0
UuRrLl	0
DdAaTtEe	0
NnUuMm	0
்க	-0
்த	-1
்ப	-2
ம்	-3
ன்	-4
ல்	-5
்ட	-6
க்க	-7
த்த	-8
▁ம	-9
ப்ப	-10
▁க	-11
▁ப	-12
▁அ	-13
▁வ	-14
▁.	-15
ும்	-16
ட்ட	-17
▁ச	-18
து	-19
தி	-20
▁,	-21
ரு	-22
ள்	-23
ிய	-24
▁ந	-25
▁இ	-26
ந்த	-27
ர்	-28
▁த	-29
ைய	-30
▁எ	-31
ின்	-32
ற்	-33
ில்	-34
ற்ற	-35
ங்க	-36
ாக	-37
▁உ	-38
டு	-39
ிற	-40
ான	-41
ன்ற	-42
ரி	-43
க்கு	-44
▁ஆ	-45
ண்ட	-46
ப்பட்ட	-47
ுற	-48
▁வி	-49
▁ஒ	-50
ார	-51
கள	-52
▁மு	-53
டி	-54
▁மற்ற	-55
▁செ	-56
ள்ள	-57
ில	-58
▁மற்றும்	-59
ல்ல	-60
ுவ	-61
ர்க	-62
வு	-63
்ச	-64
ால்	-65
▁செய	-66
▁ஒரு	-67
ிர	-68
மை	-69
ிக்க	-70
ற்க	-71
▁)	-72
▁அவ	-73
று	-74
கள்	-75
▁(	-76
க்	-77
▁மே	-78
ப்பு	-79
ீதி	-80
ப்பட	-81
▁இந்த	-82
▁வழ	-83
ார்	-84
த்து	-85
ங்கள	-86
ாள	-87
த்தின்	-88
லை	-89
ம்ப	-90
ன்ப	-91
ப்	-92
▁கு	-93
▁வே	-94
▁என்ற	-95
▁அல்ல	-96
ட்டு	-97
மன்ற	-98
ாய	-99
ருந்த	-100
▁நீதி	-101
ர்ப	-102
▁தொ	-103
▁;	-104
வி	-105
ங்கள்	-106
த்தில்	-107
▁கொ	-108
தற்க	-109
மான	-110
▁சட்ட	-111
▁அல்லது	-112
த்தை	-113
▁குற	-114
▁பொ	-115
▁தி	-116
▁பி	-117
▁-	-118
னை	-119
டுத்த	-120
▁மா	-121
முற	-122
▁ஏ	-123
ுக்கு	-124
ுள்ள	-125
த்	-126
ையில்	-127
ர்கள	-128
திய	-129
ஸ்	-130
ிற்க	-131
▁செய்	-132
ண்	-133
▁தே	-134
ச்ச	-135
ிப்ப	-136
ருக்க	-137
▁சி	-138
ிறது	-139
களை	-140
றி	-141
ிட	-142
ாவ	-143
▁பெ	-144
▁கூ	-145
▁வேண்ட	-146
ால	-147
ாத	-148
▁அர	-149
டிய	-150
ழ்	-151
▁நீதிமன்ற	-152
▁அதி	-153
ையும்	-154
வை	-155
கு	-156
ாட்ட	-157
ர்கள்	-158
▁அரச	-159
▁செய்ய	-160
▁&	-161
ின	-162
ர்ப்ப	-163
▁நட	-164
▁வெ	-165
ரை	-166
ளி	-167
வே	-168
▁உள்ள	-169
வில்	-170
▁போ	-171
▁வழங்க	-172
மாக	-173
ாது	-174
▁என்று	-175
▁அத	-176
▁நி	-177
ழு	-178
ையை	-179
▁எந்த	-180
▁அதிக	-181
னு	-182
▁என்ப	-183
த்திற்க	-184
க்கப்பட்ட	-185
ண்டு	-186
ீட்ட	-187
▁ஜ	-188
▁தீ	-189
ணை	-190
▁மூ	-191
▁நிற	-192
▁இது	-193
▁தொட	-194
ட்ச	-195
▁ர	-196
ொரு	-197
▁பதி	-198
ிருந்த	-199
▁குற்ற	-200
ப்படு	-201
கிறது	-202
▁கீ	-203
டன்	-204
▁நா	-205
▁வேண்டும்	-206
தை	-207
ற்ப	-208
▁பிர	-209
வா	-210
ச்	-211
▁சு	-212
ல்முற	-213
▁விதி	-214
ுக்க	-215
வும்	-216
ிட்ட	-217
▁கரு	-218
நில	-219
ன்ன	-220
ளை	-221
▁கீழ்	-222
▁பு	-223
ல்முறைய	-224
தல்	-225
வர்	-226
ட்	-227
▁மேல்முறைய	-228
▁நில	-229
▁வா	-230
லா	-231
தாக	-232
▁:	-233
ந்து	-234
்த்த	-235
▁சம	-236
வொரு	-237
▁குறிப்ப	-238
▁மேல	-239
▁பய	-240
னர்	-241
ரிய	-242
ன்று	-243
▁உய	-244
▁/	-245
த்திற்கு	-246
மைய	-247
ரா	-248
▁இருந்த	-249
டை	-250
▁திரு	-251
வர	-252
ர்வ	-253
▁பொரு	-254
▁ஆக	-255
▁பிரி	-256
ாரண	-257
வில்லை	-258
மா	-259
களின்	-260
டைய	-261
▁ஐ	-262
▁து	-263
ங்களை	-264
ுத்த	-265
▁வர	-266
ிக	-267
▁மீ	-268
்கள்	-269
▁தன	-270
பி	-271
▁அவர்	-272
▁இல்ல	-273
தற்கு	-274
ுள்ளது	-275
▁உரி	-276
▁சே	-277
ீட்டாள	-278
▁கா	-279
▁நிறுவ	-280
▁இருக்க	-281
த்தக	-282
▁உத்த	-283
▁எதி	-284
▁இன்	-285
▁எந்தவொரு	-286
டிக்க	-287
▁மூல	-288
▁உயர்	-289
▁முடிய	-290
▁அறி	-291
ரிக்க	-292
ித்த	-293
ப்பட்டது	-294
களில்	-295
▁அதிகார	-296
▁செய்த	-297
▁பின்	-298
▁இந்திய	-299
▁கொண்ட	-300
தற்கான	-301
▁உத்தர	-302
ருப்ப	-303
▁#	-304
ட்ப	-305
▁தா	-306
▁மேலும்	-307
▁தீர்ப்ப	-308
▁கோ	-309
ருக்கு	-310
ய்	-311
▁நீதிமன்றம்	-312
▁என	-313
த்திய	-314
ot	-315
qu	-316
▁அனு	-317
சிய	-318
▁qu	-319
▁quot	-320
▁ட	-321
ிருந்து	-322
▁செயல	-323
ோத	-324
முறை	-325
▁தெ	-326
▁கே	-327
▁அடி	-328
▁மாநில	-329
ப்படும்	-330
▁வெள	-331
▁சா	-332
▁சொ	-333
▁தொடர்ப	-334
ங்கு	-335
ப்படுத்த	-336
▁வழக்க	-337
ாடு	-338
தன்	-339
▁அந்த	-340
▁மேல்முறையீட்டாள	-341
ண்ண	-342
தார	-343
▁சட்டத்தின்	-344
ோது	-345
கா	-346
▁முடி	-347
▁நிறுவன	-348
▁முற	-349
ளித்த	-350
▁விச	-351
▁நோ	-352
ிலும்	-353
▁இர	-354
▁0	-355
க்கிய	-356
ையின்	-357
▁கட்ட	-358
▁பரி	-359
▁வரு	-360
▁டி	-361
க்கும்	-362
▁எஸ்	-363
▁பதில	-364
வாக	-365
▁வழக்கு	-366
▁மூலம்	-367
வ்	-368
▁அரசிய	-369
ாம	-370
▁தொழ	-371
றிய	-372
▁அடிப்பட	-373
ுக	-374
த்தி	-375
ின்ற	-376
த்தகைய	-377
தில்	-378
▁உறு	-379
ோச	-380
ேர	-381
▁வை	-382
▁அமை	-383
ான்	-384
லி	-385
ட்சி	-386
ரின்	-387
களுக்கு	-388
னால்	-389
▁நிய	-390
▁ய	-391
லாம்	-392
பதி	-393
▁செல	-394
ாரி	-395
ீடு	-396
்கள	-397
▁பிற	-398
▁முன்	-399
▁பிரிவு	-400
▁பயன்ப	-401
▁இய	-402
த்துவ	-403
▁அதன்	-404
▁சிற	-405
மதி	-406
▁என்பது	-407
▁"	-408
▁மேற்க	-409
▁உண்	-410
சி	-411
விய	-412
▁பொது	-413
▁ஆகிய	-414
▁இல்	-415
▁அத்தகைய	-416
▁ஊ	-417
ுடன்	-418
க்கூ	-419
ர்களின்	-420
ாய்	-421
ராக	-422
நீதி	-423
தல	-424
▁கால	-425
▁அற	-426
▁பார	-427
▁திட்ட	-428
▁அள	-429
வடிக்க	-430
▁குற்றம்	-431
▁பகு	-432
▁நடவடிக்க	-433
நீதிமன்ற	-434
▁நப	-435
▁கட	-436
▁உரிமை	-437
ஞ்ச	-438
▁தவ	-439
▁ஆம்	-440
மே	-441
▁காரண	-442
ணி	-443
▁இட	-444
ிக்கப்பட்ட	-445
▁நீ	-446
▁தேதிய	-447
ிலிருந்து	-448
▁நோக்க	-449
ப்படுகிறது	-450
▁பதிலளித்த	-451
▁மதி	-452
▁இல்லை	-453
ாட்டு	-454
▁தலை	-455
ாதி	-456
▁எண்	-457
ழை	-458
▁அரசியல	-459
▁முன்ன	-460
தே	-461
ாட்டப்பட்ட	-462
▁செயல்ப	-463
▁அம	-464
த்தால்	-465
▁பல	-466
▁அது	-467
னி	-468
▁அனை	-469
▁சந்த	-470
ற்று	-471
▁அரசியலமை	-472
▁செய்யப்பட்ட	-473
▁ஏற்ப	-474
ர்க்க	-475
ிருக்க	-476
▁நடை	-477
▁நடவடிக்கை	-478
கை	-479
▁சூ	-480
டுத்து	-481
▁முதல்	-482
▁சட்டம்	-483
▁'	-484
▁பாது	-485
▁நேர	-486
ள்க	-487
▁ஆண்ட	-488
▁ஆனால்	-489
ங்களில்	-490
மும்	-491
வற்ற	-492
▁உயர்நீதிமன்ற	-493
▁பாதுகா	-494
ின்றன	-495
ாவது	-496
▁சாட்டப்பட்ட	-497
▁குறை	-498
▁வெளிய	-499
▁குறிப்பிட	-500
▁முடியாது	-501
▁மட்டு	-502
▁பயன்படுத்த	-503
▁என்பதை	-504
க்கள	-505
▁ஜன	-506
▁கூற	-507
ாங்க	-508
▁ஒப்ப	-509
▁அறிக்க	-510
கி	-511
கிற	-512
▁கட்டு	-513
ர்களுக்கு	-514
▁தனது	-515
வன	-516
▁தேதியிட்ட	-517
ீட்டு	-518
▁மனு	-519
▁தர	-520
▁ஈ	-521
ோம்	-522
▁செய்வ	-523
▁மாற்ற	-524
▁தாக்க	-525
▁கண	-526
▁பதிவு	-527
ைக்	-528
▁|	-529
▁இருப்ப	-530
▁மதிப்ப	-531
ாலும்	-532
▁அனுமதி	-533
▁மறு	-534
ரே	-535
▁பெற	-536
▁அன்று	-537
மையான	-538
▁உரு	-539
▁அடிப்படையில்	-540
▁அரசாங்க	-541
▁கற்ற	-542
▁சமர்ப்ப	-543
ர்த்த	-544
ங்களுக்கு	-545
▁அரசு	-546
ங்களின்	-547
ையான	-548
▁ஹ	-549
றிந்த	-550
▁ஒப்பந்த	-551
▁தண்ட	-552
▁மிக	-553
▁ஆல	-554
▁கைய	-555
றை	-556
▁நம்ப	-557
▁பண	-558
ஸ்த	-559
▁வேண்டிய	-560
▁உட	-561
▁சில	-562
ிப்பு	-563
▁விஷ	-564
▁முடிவு	-565
▁நாங்கள்	-566
▁அவர்கள்	-567
▁வேறு	-568
ஸ்ட	-569
▁பொறு	-570
ப்பின	-571
தால்	-572
▁ஆண்டு	-573
ிரி	-574
ர்ச்ச	-575
▁துணை	-576
வர்கள்	-577
▁அவர	-578
ிக்கும்	-579
▁ஆர்	-580
▁விள	-581
்ப்ப	-582
வின்	-583
▁அனைத்து	-584
்க்க	-585
ிற்கு	-586
▁எழு	-587
▁நிர	-588
ார்கள்	-589
ப்படுவ	-590
▁நீதிபதி	-591
▁ஓ	-592
▁விஷய	-593
▁செலுத்த	-594
▁அறிவி	-595
▁எனவே	-596
டுவ	-597
▁ஆத	-598
்களை	-599
▁தொழில	-600
▁உட்ப	-601
▁தாக்கல்	-602
தற்காக	-603
க்கள்	-604
▁ல	-605
▁முக்கிய	-606
▁போது	-607
▁கொள்க	-608
▁என்றும்	-609
ையாக	-610
▁அவரது	-611
▁ஆலோச	-612
ுறை	-613
செ	-614
ியின்	-615
▁உருவா	-616
▁பின்னர்	-617
ாரணை	-618
▁குழ	-619
▁ஆர	-620
▁விசாரணை	-621
▁உத்தரவு	-622
ாளர்	-623
போ	-624
▁]	-625
ந்திர	-626
▁வள	-627
ாமல்	-628
▁பே	-629
▁பற்ற	-630
▁இற	-631
▁மட்டுமே	-632
▁[	-633
படி	-634
▁திற	-635
▁நீதிமன்றத்தின்	-636
▁“	-637
ரும்ப	-638
▁தக	-639
▁நிர்வ	-640
ொள்ள	-641
ப்படவில்லை	-642
▁சம்ப	-643
▁இரண்டு	-644
ஷ்	-645
வான	-646
▁கொள்ள	-647
ண்ணப்ப	-648
ட்டிய	-649
ப்பின்	-650
மையை	-651
▁தன்	-652
▁விண்ணப்ப	-653
▁கற்றறிந்த	-654
▁வரி	-655
▁தீர்	-656
லிய	-657
▁நிறை	-658
▁உள்ளது	-659
ாவின்	-660
தா	-661
▁தெளி	-662
டுக்க	-663
▁வரை	-664
▁கேள்	-665
▁ஒப்பு	-666
▁இருக்கும்	-667
▁என்	-668
ரண	-669
▁ரூ	-670
▁மன	-671
ித்து	-672
▁வழக்கில்	-673
▁கவன	-674
▁நிலை	-675
▁வார	-676
▁ஆண	-677
▁வெளி	-678
தும்	-679
கார	-680
லக	-681
நிலை	-682
ர்களை	-683
கின்றன	-684
ங்கி	-685
▁முழு	-686
▁வழங்கப்பட்ட	-687
▁இருந்து	-688
▁படி	-689
ாம்	-690
யூ	-691
ுக்கும்	-692
க்கான	-693
▁உத	-694
▁அதிகாரி	-695
ுடைய	-696
▁விளை	-697
ெரிக்க	-698
▁நியம	-699
▁அமெரிக்க	-700
▁பிரதி	-701
▁நியாய	-702
▁மத்திய	-703
ட்டி	-704
டும்	-705
▁கட்சி	-706
▁தய	-707
ூக	-708
ழிய	-709
க்கூடிய	-710
▁தகு	-711
▁காண	-712
தற்கும்	-713
ங்	-714
▁போன்ற	-715
▁எதிராக	-716
ுவதற்கான	-717
▁வெளிப்ப	-718
▁முதல	-719
▁நிறைவே	-720
மி	-721
ண்டும்	-722
பிள்	-723
வோ	-724
▁உறுதி	-725
ப்பை	-726
▁குறிப்பிட்ட	-727
ரான	-728
ழி	-729
ர்ந்த	-730
ரும்	-731
▁நான்	-732
▁உண்மை	-733
▁ஆகியவற்ற	-734
த்திர	-735
விட்ட	-736
ுறுத்த	-737
▁கொண்டு	-738
▁i	-739
▁மொ	-740
▁தகவ	-741
க்கி	-742
▁ஆண்டின்	-743
ென	-744
▁சமூக	-745
▁பெற்ற	-746
ப்பட்டுள்ள	-747
▁தற்ப	-748
▁தெரி	-749
▁என்ன	-750
க்கம்	-751
▁இணை	-752
கர்	-753
சீ	-754
ம்போது	-755
▁இரு	-756
▁நிர்வாக	-757
▁கருத	-758
▁எம்	-759
▁பரிந்து	-760
▁அதே	-761
பிள்யூ	-762
▁கேள்வி	-763
▁விவ	-764
த்தையும்	-765
ரீ	-766
ேன்	-767
▁ரி	-768
▁தோ	-769
▁வந்த	-770
வரை	-771
▁சேவை	-772
ுவது	-773
▁உறுப்பின	-774
ஃப்	-775
▁பகுதி	-776
▁ஏற்ற	-777
▁கி	-778
தான	-779
▁பொருத்த	-780
▁கூட்ட	-781
ொண்ட	-782
▁பா	-783
ாகும்	-784
▁கை	-785
▁நிறைவேற்ற	-786
ரோ	-787
▁நடைமுறை	-788
▁தொடர்பான	-789
ியில்	-790
ைப்	-791
▁அல	-792
▁முய	-793
▁தேவை	-794
▁ஸ்	-795
▁தேவ	-796
வேறு	-797
▁பரிந்துரை	-798
▁பத	-799
▁பொருள	-800
மாறு	-801
▁விதிமுறை	-802
▁மரு	-803
ர்த	-804
▁ரா	-805
▁மனுதார	-806
▁சூழ்	-807
▁கருத்தில்	-808
ாதார	-809
வரும்	-810
ர்வு	-811
ினும்	-812
▁வழி	-813
▁திருத்த	-814
ஜி	-815
ாவில்	-816
▁ஒது	-817
▁பதிலளித்தவர்	-818
▁ஆணைய	-819
மு	-820
ெட்	-821
வெ	-822
ுக்கான	-823
▁அவை	-824
▁கல	-825
▁கண்ட	-826
கம்	-827
▁ஒவ்	-828
▁மருத்துவ	-829
தம்	-830
▁அக	-831
களையும்	-832
▁ஒழு	-833
▁டபிள்யூ	-834
▁வாதி	-835
▁தீர்மான	-836
லில்	-837
▁வக	-838
▁இழ	-839
ட்சிய	-840
ியது	-841
▁வரம்ப	-842
▁புதிய	-843
தேச	-844
வ்வா	-845
▁ஆதார	-846
▁தண்டனை	-847
▁தவிர	-848
மிட	-849
▁ஆதர	-850
▁தூ	-851
▁வச	-852
▁ஜனாதி	-853
னிய	-854
▁அரசியலமைப்பு	-855
ூர்வ	-856
▁பாதி	-857
▁க்கு	-858
ார்ப	-859
ாளி	-860
ைகள்	-861
▁கருத்து	-862
ினார்	-863
▁A	-864
▁கிட	-865
▁பகுதிய	-866
▁குறித்து	-867
▁முறைய	-868
▁அங்க	-869
▁ஒவ்வொரு	-870
▁மீண்டும்	-871
டுப்ப	-872
▁பெஞ்ச	-873
▁ஒன்ற	-874
▁நிக	-875
க்கப்பட	-876
..	-877
▁சரிய	-878
பெ	-879
வரின்	-880
ள்வ	-881
▁ஏற்றுக்க	-882
▁டெ	-883
▁பொருட	-884
ைக்கு	-885
▁எல்	-886
▁அழை	-887
னம்	-888
▁தொழில்	-889
தையும்	-890
மானது	-891
பா	-892
ரால்	-893
வண	-894
▁பாதுகாப்பு	-895
ன்படி	-896
▁விசாரண	-897
க்குவ	-898
▁பார்	-899
▁தனி	-900
ர்ந்து	-901
▁பூ	-902
▁முடியும்	-903
ப்பட்டுள்ளது	-904
▁வது	-905
ய்ய	-906
▁அதிகாரம்	-907
▁பிரச்ச	-908
▁நக	-909
ுக்காக	-910
த்தது	-911
▁விற	-912
த்திற்காக	-913
வர்கள	-914
▁தொடர்பாக	-915
னும்	-916
▁விதிகள்	-917
வரு	-918
▁பட	-919
ாளர்கள்	-920
த்துடன்	-921
▁இறந்த	-922
▁அதாவது	-923
ிலான	-924
த்துறை	-925
▁எங்கள்	-926
ிரிவு	-927
▁விற்ப	-928
▁செல்ல	-929
▁அறிவ	-930
▁சீ	-931
▁மேல்முறையீட்டு	-932
ுவதற்கு	-933
▁வில	-934
▁ஜே	-935
களும்	-936
▁தேசிய	-937
▁கிர	-938
ந்தைய	-939
▁விரும்ப	-940
வாதி	-941
ய்வு	-942
ூல	-943
▁சக	-944
▁கூட	-945
ூறிய	-946
▁பர	-947
ிற்	-948
▁கல்	-949
▁வரைய	-950
ோதைய	-951
▁நிதி	-952
▁மேற்கூறிய	-953
▁ஆய	-954
▁பல்	-955
▁ஸ்ரீ	-956
▁எடுத்து	-957
▁மீது	-958
ன்றால்	-959
▁I	-960
ருக்கும்	-961
▁குழு	-962
▁இரண்ட	-963
▁தேதி	-964
ைத்	-965
தாகவும்	-966
▁நிப	-967
▁வருமான	-968
▁வேலை	-969
▁பொருந்த	-970
▁முயற்	-971
▁துணைப்ப	-972
ோக	-973
▁கிடை	-974
வியல்	-975
▁சொத்து	-976
ணிக	-977
▁சட்டமன்ற	-978
▁வாழ	-979
▁இறு	-980
ேய	-981
விர	-982
▁உண	-983
ப்த	-984
▁மேம்ப	-985
▁மூன்று	-986
▁ஊழிய	-987
டுக்கப்பட்ட	-988
ப்படி	-989
▁இதன்	-990
▁சம்பந்த	-991
▁நேரத்தில்	-992
▁தீர்ப்பு	-993
▁C	-994
ீதிய	-995
▁நல	-996
▁கூறி	-997
▁தற்போதைய	-998
▁அடைய	-999
▁வணிக	-1000
சு	-1001
மையில்	-1002
▁பல்வேறு	-1003
ுள்ளன	-1004
▁தீர்ப்பாய	-1005
▁அரசியலமைப்பின்	-1006
சீல	-1007
▁இல	-1008
▁சூழ்நிலை	-1009
த்துள்ள	-1010
▁நடு	-1011
▁நெ	-1012
▁கூறிய	-1013
▁விடு	-1014
▁தவற	-1015
போது	-1016
லும்	-1017
▁அறிக்கை	-1018
▁சார்ப	-1019
ாய்ப்ப	-1020
▁ஜனாதிபதி	-1021
ிக்கிறது	-1022
▁அங்கீ	-1023
▁சுத	-1024
வீ	-1025
்ச்ச	-1026
▁சிறப்பு	-1027
▁அவசிய	-1028
▁ஏன	-1029
▁?	-1030
▁தெளிவாக	-1031
▁கடி	-1032
▁கொள்கை	-1033
வாத	-1034
மொ	-1035
ேக	-1036
னார்	-1037
த்திலும்	-1038
▁நாட	-1039
▁வடி	-1040
▁மிகவும்	-1041
▁காவ	-1042
▁கட்டண	-1043
ேற்ற	-1044
▁S	-1045
▁பட்டிய	-1046
▁அப்ப	-1047
▁P	-1048
ாட்டின்	-1049
▁போல	-1050
▁இரா	-1051
▁அச	-1052
ிறார்	-1053
டைந்த	-1054
▁பொருளாதார	-1055
▁தகுதி	-1056
▁கூடு	-1057
▁தயாரி	-1058
▁தொடர்புடைய	-1059
▁நீதித்துறை	-1060
▁உற்ப	-1061
செய்ய	-1062
ூர்	-1063
▁சுதந்திர	-1064
▁யூ	-1065
ியா	-1066
▁தள்ள	-1067
▁குறிப்பி	-1068
ரல்	-1069
▁உச்ச	-1070
▁எண்ண	-1071
▁காட்ட	-1072
▁குத்தக	-1073
▁கண்டு	-1074
▁உரிமைய	-1075
▁எல்ல	-1076
ப்படுகின்றன	-1077
ங்கிய	-1078
▁லி	-1079
க்களை	-1080
ல்ப	-1081
▁ரிட்	-1082
▁எவ்வா	-1083
ணய	-1084
▁உயர்நீதிமன்றம்	-1085
▁பங்கு	-1086
ாளு	-1087
ெனில்	-1088
▁ஏற்க	-1089
ப்பில்	-1090
▁பற்றி	-1091
▁முந்தைய	-1092
▁அவர்களின்	-1093
்கு	-1094
ன்மை	-1095
▁மாத	-1096
▁பிறகு	-1097
ையா	-1098
▁நாடு	-1099
▁அதற்கு	-1100
▁சிவில்	-1101
ஷன்	-1102
▁அதை	-1103
தாகக்	-1104
▁அண	-1105
▁விரி	-1106
▁வைத்தி	-1107
ிருப்ப	-1108
▁ஒழுங்கு	-1109
▁நிர்	-1110
த்தைப்	-1111
▁அமைச்ச	-1112
▁குழுவ	-1113
▁சரியான	-1114
்களின்	-1115
▁தங்கள்	-1116
▁ஒரே	-1117
ப்பி	-1118
▁மரண	-1119
▁சம்பந்தப்பட்ட	-1120
▁விட	-1121
▁பின்வரு	-1122
க்கப்பட்டது	-1123
▁கட்டுப்ப	-1124
னித	-1125
▁வலிய	-1126
▁இருந்தது	-1127
▁மக்கள	-1128
ுவதில்	-1129
ிக்கப்பட	-1130
▁அரசியல்	-1131
▁குற்றச்ச	-1132
டாது	-1133
▁அறிவிப்பு	-1134
▁நிறுவனம்	-1135
ோர்	-1136
▁வடிவ	-1137
▁இண	-1138
▁ராஜ	-1139
▁ஷ	-1140
▁பெஞ்ச்	-1141
▁வர்த்த	-1142
▁பெய	-1143
▁இந்தியா	-1144
▁ஆவண	-1145
த்தார்	-1146
▁வருவ	-1147
ட்டுள்ள	-1148
▁கண்டுபி	-1149
தியின்	-1150
களைப்	-1151
நாய	-1152
▁a	-1153
▁நியாயமான	-1154
ப்போது	-1155
▁நடுவர்	-1156
▁நு	-1157
▁தடை	-1158
▁வய	-1159
ாளுமன்ற	-1160
▁எஃப்	-1161
▁தலைமை	-1162
▁துணைப்பிரிவு	-1163
ம்பர்	-1164
▁தேர்த	-1165
▁உலக	-1166
▁பொருள்	-1167
கோ	-1168
ணுவ	-1169
ுப	-1170
▁கூறு	-1171
▁மனுவ	-1172
▁என்னவெ	-1173
▁பால	-1174
▁தகவல	-1175
▁உள்ளட	-1176
ஸ்ப	-1177
▁வீ	-1178
▁வங்கி	-1179
ுத	-1180
▁அதில்	-1181
▁வழங்கிய	-1182
▁என்னவென்றால்	-1183
▁அனுமதிக்க	-1184
லைய	-1185
▁சிங்	-1186
போன்ற	-1187
ஸ்ட்	-1188
வரி	-1189
ரில்	-1190
▁%	-1191
னையை	-1192
சா	-1193
▁இத	-1194
▁மூத்த	-1195
▁பற்றிய	-1196
▁விற்பனை	-1197
▁அப	-1198
▁துறை	-1199
▁வேறுப	-1200
நி	-1201
▁பதவி	-1202
ியாக	-1203
முக	-1204
லின்	-1205
▁அலுவ	-1206
களால்	-1207
▁புது	-1208
க்கூடாது	-1209
▁குறைந்த	-1210
▁உள்ளன	-1211
▁பரிசீல	-1212
▁அம்	-1213
▁கூறப்பட்ட	-1214
▁இடைய	-1215
▁அனுப்ப	-1216
▁திரும்ப	-1217
ுபடி	-1218
▁பணி	-1219
்களுக்கு	-1220
▁அட	-1221
▁நிபந்த	-1222
▁நடத்த	-1223
▁செய்யப்பட்டது	-1224
▁குழந்த	-1225
▁பின்வருமாறு	-1226
▁அடிப்படை	-1227
்துறை	-1228
▁நிரூ	-1229
ாட்டில்	-1230
▁வழங்கு	-1231
ியை	-1232
மார்	-1233
ல்லி	-1234
▁வலியுறுத்த	-1235
▁வாக்கு	-1236
ாட்டை	-1237
ிடம்	-1238
▁குற்றவியல்	-1239
ுட்ப	-1240
ய்வ	-1241
▁இராணுவ	-1242
▁நீதிமன்றத்தால்	-1243
▁பெரிய	-1244
▁கடு	-1245
செய	-1246
வட்ட	-1247
▁எது	-1248
ப்பது	-1249
▁பின்வரும்	-1250
▁சேர்க்க	-1251
▁முன்னர்	-1252
வுக்கு	-1253
▁தொடர்ந்து	-1254
▁அமைப்பு	-1255
▁காய	-1256
ுள்ளார்	-1257
▁கார	-1258
▁கண்டுபிடி	-1259
▁தள்ளுபடி	-1260
மில்	-1261
▁ஆள	-1262
▁குத்தகை	-1263
▁மெ	-1264
தான்	-1265
▁தொடங்க	-1266
▁கணக்க	-1267
ங்களுக்காக	-1268
▁குடிய	-1269
▁சாட்சி	-1270
நுட்ப	-1271
▁மோச	-1272
▁காரணமாக	-1273
சை	-1274
க்காக	-1275
▁பங்க	-1276
▁தொக	-1277
▁நிர்ணய	-1278
▁தொழில்நுட்ப	-1279
▁சொந்த	-1280
ிறோம்	-1281
▁முறையில்	-1282
த்தல்	-1283
கரி	-1284
▁இல்லாத	-1285
▁அடையாள	-1286
ாள்	-1287
கிறார்	-1288
▁முறை	-1289
ஷ்ட	-1290
மிருந்து	-1291
▁நிகழ்	-1292
மையாக	-1293
▁மனித	-1294
▁கூறினார்	-1295
▁நீதிமன்றத்தில்	-1296
ித	-1297
▁கருது	-1298
த்திற்கும்	-1299
்டர்	-1300
▁தனிய	-1301
மது	-1302
▁சர்வ	-1303
▁பத்திர	-1304
▁விளைவாக	-1305
மற்ற	-1306
▁இடை	-1307
டியாக	-1308
▁ஏனெனில்	-1309
▁செய்யப்பட	-1310
▁முன்ப	-1311
▁மொத்த	-1312
▁மீற	-1313
▁ஈடு	-1314
▁நாம்	-1315
▁குறிப்பாக	-1316
▁உடன	-1317
▁கல்வி	-1318
ினர்	-1319
ானது	-1320
▁வளர்ச்ச	-1321
▁உத்தரவை	-1322
்ட்	-1323
▁அவருக்கு	-1324
ொள்வ	-1325
▁வகு	-1326
▁பொறுத்த	-1327
▁நடைபெ	-1328
▁மேல்முறையீடு	-1329
▁பின்ப	-1330
▁ஒப்புதல்	-1331
▁அட்ட	-1332
▁ஆலோசகர்	-1333
மண	-1334
▁சத	-1335
▁சங்க	-1336
த்திற்கான	-1337
▁செயல்படுத்த	-1338
▁குற்றவ	-1339
▁குற்றச்சாட்டு	-1340
ப்ரா	-1341
ிருக்கும்	-1342
▁லிமிட	-1343
▁மேற்கண்ட	-1344
▁சரி	-1345
▁பார்வ	-1346
விட	-1347
வருக்கு	-1348
▁பொருத்தமான	-1349
▁நிரூப	-1350
▁லிமிடெட்	-1351
▁எதிரான	-1352
▁அளவு	-1353
▁உறுதிப்படுத்த	-1354
▁ஜி	-1355
▁ii	-1356
▁நே	-1357
ாடுகள்	-1358
ரிட	-1359
த்திலிருந்து	-1360
▁நிறுத்த	-1361
▁வாய்ப்ப	-1362
படுத்த	-1363
▁விரு	-1364
ிரு	-1365
வர்களுக்கு	-1366
ியல்	-1367
▁சான்று	-1368
▁பாராளுமன்ற	-1369
▁பேர	-1370
▁எவ்வாற	-1371
▁சார்பாக	-1372
▁சந்தேக	-1373
▁பரா	-1374
ஸ்க	-1375
▁விருப்ப	-1376
ழுவ	-1377
▁இயக்கு	-1378
வால்	-1379
▁என்பதையும்	-1380
▁அவ்	-1381
▁விகி	-1382
▁ஏற்றுக்கொள்ள	-1383
னவே	-1384
▁கையக	-1385
ாவிட்ட	-1386
▁ஏற்கனவே	-1387
நாயக	-1388
▁பிரதிநி	-1389
▁கடமை	-1390
▁வகையில்	-1391
▁எடுக்க	-1392
▁இழப்ப	-1393
பட்ச	-1394
லைக்க	-1395
ாயினும்	-1396
▁வெளிப்படுத்த	-1397
▁அளித்த	-1398
▁கீழ	-1399
▁இன்ன	-1400
▁ஆணை	-1401
▁வாரிய	-1402
▁வகை	-1403
▁ரத்து	-1404
ட்டது	-1405
க்கப்பட்டுள்ளது	-1406
ீட்டை	-1407
▁அவற்ற	-1408
ல்கள்	-1409
▁வெளிப்பட	-1410
▁எவ்வாறாயினும்	-1411
ாய்ந்த	-1412
ையால்	-1413
▁வழக்கின்	-1414
▁இதுபோன்ற	-1415
▁வழங்குவ	-1416
ஸ்திர	-1417
ட்க	-1418
▁அம்ச	-1419
▁வேட்ப	-1420
▁உண்மையில்	-1421
ெய	-1422
▁அளவ	-1423
நாட்டு	-1424
▁கூடுதல்	-1425
▁மக்கள்	-1426
ினை	-1427
▁ஜூ	-1428
▁சர்ச்ச	-1429
▁சந்தர்ப்ப	-1430
▁சாத	-1431
▁மாவட்ட	-1432
▁இருந்தால்	-1433
▁நிராக	-1434
▁நிபந்தனை	-1435
▁சுப்ரா	-1436
மாற்ற	-1437
▁வாத	-1438
டும்ப	-1439
ிக்கப்பட்டது	-1440
களைக்	-1441
த்தக்க	-1442
▁பயிற்	-1443
▁விளக்க	-1444
▁புக	-1445
▁நடவடிக்கைகள்	-1446
▁வாழ்க்க	-1447
▁வெற்ற	-1448
ார்க்க	-1449
▁உற	-1450
ட்டார்	-1451
ாளர்கள	-1452
▁தெரிவி	-1453
▁முரண	-1454
mp	-1455
▁மாண	-1456
வுகள்	-1457
ழ்ச்ச	-1458
▁சர்வதேச	-1459
▁நிலையில்	-1460
மூல	-1461
▁மின்	-1462
▁சமர்ப்பித்த	-1463
க்கிறது	-1464
ஜ்	-1465
▁தொகை	-1466
▁நிலுவ	-1467
பு	-1468
▁தன்மை	-1469
▁பத்தி	-1470
▁ஆகியவை	-1471
▁திருமண	-1472
▁மேலே	-1473
ழக	-1474
▁உதவி	-1475
▁கடன்	-1476
▁நபர்	-1477
▁தகவல்	-1478
▁விஷயத்தில்	-1479
▁நான	-1480
▁குடும்ப	-1481
▁சான்ற	-1482
னின்	-1483
▁நோக்கம்	-1484
ர்ம	-1485
ீதியான	-1486
கிறோம்	-1487
▁ஆட்ச	-1488
▁M	-1489
ிக்கை	-1490
ோதனை	-1491
களுடன்	-1492
ப்பூர்வ	-1493
▁ஏதே	-1494
▁குறித்த	-1495
ப்புகள்	-1496
▁பெரும்ப	-1497
▁சிக்க	-1498
▁பிரதிநிதி	-1499
▁பராம	-1500
▁ஏதேனும்	-1501
மாகும்	-1502
ோடு	-1503
▁ஏற்படுத்த	-1504
▁பிரச்சினை	-1505
▁வருட	-1506
▁முற்ற	-1507
▁எதிர்க	-1508
▁amp	-1509
▁ஆகும்	-1510
▁ஆப	-1511
னைய	-1512
களாக	-1513
ர்ப்பு	-1514
னா	-1515
▁தள	-1516
▁இறுதி	-1517
ங்களும்	-1518
▁நுழை	-1519
▁புகார	-1520
▁கிராம	-1521
▁நாள	-1522
▁இருப்பினும்	-1523
▁நினை	-1524
▁அவர்கள	-1525
▁கட்டாய	-1526
▁முக	-1527
▁தகுதிய	-1528
▁வெளியிட	-1529
▁குறிப்பு	-1530
▁ஜனநாயக	-1531
▁நோக்கத்திற்காக	-1532
▁செய்யும்	-1533
▁ஆராய	-1534
பூர்வ	-1535
▁எதுவும்	-1536
▁பின்ன	-1537
▁அடுத்த	-1538
ேட்	-1539
▁பொறுத்தவரை	-1540
▁சுய	-1541
▁சேவ	-1542
▁நடவடிக்கைகளை	-1543
▁வார்த்த	-1544
ாட	-1545
▁பிரதிவாதி	-1546
▁தனிப்பட்ட	-1547
▁உற்பத்தி	-1548
வன்	-1549
ட்டிக்க	-1550
▁கடுமையான	-1551
▁வல	-1552
▁கையகப்படுத்த	-1553
▁செல்	-1554
ினால்	-1555
திலும்	-1556
▁மற்றொரு	-1557
தியாக	-1558
தைக்	-1559
▁ஆதரவாக	-1560
ாந்த	-1561
ார்த்த	-1562
▁நிறுவனங்கள்	-1563
▁என்பதைக்	-1564
▁ஊதிய	-1565
ப்படலாம்	-1566
▁முறையீடு	-1567
ோப	-1568
க்கப்பட்டுள்ள	-1569
ிரிய	-1570
▁அலுவலக	-1571
▁ஆண்டில்	-1572
ருக	-1573
▁பொதுவான	-1574
▁தூண்ட	-1575
▁போதுமான	-1576
▁காப்ப	-1577
▁பின்பற்ற	-1578
▁முதன்	-1579
ங்களையும்	-1580
ரிமை	-1581
▁ஆலோசக	-1582
ாவிட்டால்	-1583
▁செய்வதற்கான	-1584
▁சட்டத்தை	-1585
ரம்	-1586
▁இந்தியாவின்	-1587
▁மாற	-1588
▁கோரிக்க	-1589
▁அரசாங்கம்	-1590
▁ஈடுப	-1591
விக்க	-1592
ஃப	-1593
▁திட்டம்	-1594
▁ஆச	-1595
னில்	-1596
▁மேற்ப	-1597
▁பிரிவின்	-1598
▁இஸ்	-1599
▁கடந்த	-1600
▁சுட்டிக்க	-1601
▁காலத்திற்கு	-1602
ாரிக்க	-1603
▁இப்போது	-1604
▁இரண்டாவது	-1605
▁வரும்	-1606
▁இல்லாமல்	-1607
▁சுற்று	-1608
▁கடை	-1609
மைப்பு	-1610
▁பாதுகாப்ப	-1611
▁ஆஜ	-1612
▁நடைமுற	-1613
▁பல்க	-1614
▁வரம்பு	-1615
▁ஆரம்ப	-1616
ந்தது	-1617
மெ	-1618
▁பாக	-1619
▁ஐபி	-1620
▁ஆய்வு	-1621
▁உட்பட	-1622
▁இந்தச்	-1623
▁தேவையான	-1624
▁N	-1625
ன்ச	-1626
▁விதிகளின்	-1627
நிய	-1628
▁உண்மையான	-1629
▁சட்டத்தில்	-1630
▁நடைபெற்ற	-1631
ருவ	-1632
▁தொடர	-1633
▁சுருக்க	-1634
▁புற	-1635
▁பழ	-1636
00	-1637
▁அகற்ற	-1638
▁சாட்டப்பட்டவர்	-1639
ப்பட்டு	-1640
▁முன்மொ	-1641
▁யூனிய	-1642
தைத்	-1643
▁சென்ற	-1644
▁குற்றவாளி	-1645
▁கொண்டுள்ளது	-1646
▁செய்தார்	-1647
ழுது	-1648
தில்ல	-1649
ப்படாத	-1650
▁தலைய	-1651
▁சக்த	-1652
▁பார்க்க	-1653
ழல்	-1654
▁குடி	-1655
▁ஆட்சே	-1656
▁தேர்வு	-1657
▁வெளியே	-1658
தியில்	-1659
▁பல்கலைக்க	-1660
▁நிறுவனத்தின்	-1661
ிறேன்	-1662
ர்ந்தெ	-1663
▁உரிமைகோ	-1664
▁பயன	-1665
செய்த	-1666
▁இங்க	-1667
▁வரையறு	-1668
டுப்பு	-1669
களுக்கும்	-1670
▁அனுப	-1671
றிஞ	-1672
▁முயற்சி	-1673
▁காவல	-1674
▁சுர	-1675
▁வழக்கறிஞ	-1676
மல்ல	-1677
▁கர்த்த	-1678
க்கப்படும்	-1679
▁தேர்ந்தெ	-1680
ண்ட்	-1681
ுவதன்	-1682
▁பொறுப்ப	-1683
▁இயற்க	-1684
▁நீதிப	-1685
▁மதிப்பீட்டாள	-1686
▁செய்தது	-1687
ீட்டில்	-1688
ப்பிய	-1689
▁இன்னும்	-1690
தம	-1691
ிருந்தது	-1692
ித்துவ	-1693
ரீதியான	-1694
ிரம	-1695
்களில்	-1696
ங்களால்	-1697
▁முற்றிலும்	-1698
▁தலைவர்	-1699
▁கணி	-1700
மில்லை	-1701
▁தாக்கு	-1702
▁அச்ச	-1703
ின்படி	-1704
ங்கும்	-1705
▁தீவிர	-1706
▁உள்ளடக்கிய	-1707
▁நிலைய	-1708
ியான	-1709
▁சல	-1710
▁பஞ்ச	-1711
▁தமி	-1712
▁மைய	-1713
வம்	-1714
ளம்	-1715
▁முடியாத	-1716
▁ஒன்று	-1717
▁பிரதேச	-1718
▁முன்வை	-1719
▁வர்த்தக	-1720
▁உச்சநீதிமன்ற	-1721
▁தொகையை	-1722
▁பணிய	-1723
ுத்து	-1724
▁நீதிபதிகள்	-1725
வகு	-1726
....	-1727
்கா	-1728
▁டாக	-1729
▁கேள்விக்கு	-1730
த்தைக்	-1731
▁மதிப்பு	-1732
▁மனுதாரர்	-1733
▁ஒப்பந்தம்	-1734
▁ஆகியவற்றின்	-1735
▁பாதிக்கப்பட்ட	-1736
ளவு	-1737
▁பரிச	-1738
ங்கிணை	-1739
▁உரிம	-1740
▁நன்மை	-1741
▁உத்தரவின்	-1742
▁ஒருங்கிணை	-1743
ிக்	-1744
▁தாம	-1745
தில்லை	-1746
ப்போ	-1747
▁மறுப	-1748
சாய	-1749
▁மோ	-1750
▁அங்கீகரி	-1751
▁மூன்ற	-1752
▁வழங்கப்பட்டது	-1753
ப்படுத்து	-1754
▁கவு	-1755
ப்ட	-1756
▁செயல்முற	-1757
கின்ற	-1758
ிகள்	-1759
▁அதிகாரிகள்	-1760
ஷ்டிர	-1761
▁அவர்களுக்கு	-1762
▁எடுத்துக்க	-1763
ிருந்தார்	-1764
யா	-1765
▁நீங்கள்	-1766
▁பட்ட	-1767
▁இந்தியாவில்	-1768
▁அரசாங்கத்தின்	-1769
▁தன்ன	-1770
▁வாக	-1771
▁தனியார்	-1772
வர்களின்	-1773
▁அத்திய	-1774
▁உரிமைகள்	-1775
▁கூட்டு	-1776
▁தீர்ப்பை	-1777
▁தொழிலாள	-1778
▁அறிக்கையை	-1779
சியின்	-1780
▁சிறந்த	-1781
மாகக்	-1782
▁புரி	-1783
ம்ம	-1784
▁சோ	-1785
க்கூடும்	-1786
▁பிறப்ப	-1787
▁கடன	-1788
▁வாக்குமூல	-1789
மய	-1790
த்துவம்	-1791
▁தொகு	-1792
▁உங்கள்	-1793
▁துற	-1794
▁ஒப்பந்தத்தின்	-1795
வாறு	-1796
▁E	-1797
ிட்	-1798
த்திட்ட	-1799
▁கடித	-1800
▁மக	-1801
▁உருவாக்க	-1802
ாப்	-1803
▁உண்டு	-1804
ிடமிருந்து	-1805
▁இடையில்	-1806
▁தீர்க்க	-1807
▁மேற்கொள்ள	-1808
▁உள்	-1809
ுவிட்ட	-1810
▁சப	-1811
▁சதவீ	-1812
▁இதே	-1813
்பு	-1814
▁சான்றித	-1815
▁செய்க	-1816
▁தவறான	-1817
ற்றை	-1818
▁ஆர்வ	-1819
▁சொல்ல	-1820
டுக்கும்	-1821
ீர்	-1822
ராத	-1823
ங்களைப்	-1824
▁இருக்கலாம்	-1825
▁அவசியம்	-1826
▁முடிவுக்கு	-1827
▁நல்ல	-1828
▁இதில்	-1829
▁அவரை	-1830
▁விருது	-1831
▁சான்றுகள்	-1832
ிறார்கள்	-1833
▁திருப்த	-1834
▁ஆணையம்	-1835
▁சட்டரீதியான	-1836
தாகும்	-1837
விரோத	-1838
▁பணம்	-1839
▁ஒழுங்குமுறை	-1840
த்தில	-1841
▁சாட்சிய	-1842
▁நிலைப்ப	-1843
▁கணிச	-1844
▁வட்டி	-1845
த்துள்ளது	-1846
ோதும்	-1847
▁உரிமையை	-1848
ூதிய	-1849
ாவை	-1850
▁செய்து	-1851
லிச	-1852
▁நம்பிய	-1853
▁சட்டவிரோத	-1854
ில்லிய	-1855
▁தற்போது	-1856
▁கூறியது	-1857
வுகளை	-1858
ுவதற்காக	-1859
▁விவர	-1860
ல்களை	-1861
▁யு	-1862
▁டாக்டர்	-1863
வித	-1864
▁ஒதுக்க	-1865
▁உடன்ப	-1866
▁யூனியன்	-1867
▁சலுக	-1868
ப்பட்டன	-1869
▁சவால்	-1870
ர்த்தி	-1871
▁தேர்தல்	-1872
ிடுவ	-1873
வர்த்த	-1874
▁தரப்பின	-1875
▁கோர	-1876
ப்பட்டால்	-1877
ுந	-1878
த்தைத்	-1879
ிற்கும்	-1880
ுவதற்கும்	-1881
▁கட்டுரை	-1882
▁விகித	-1883
▁சாத்திய	-1884
தைப்	-1885
வாரண	-1886
▁ஐரோ	-1887
▁மறை	-1888
▁அங்கு	-1889
▁நிலம்	-1890
▁குழந்தை	-1891
▁தற்க	-1892
▁விவகார	-1893
ாண்ட	-1894
▁ஆயுத	-1895
▁மத	-1896
▁அதிகரி	-1897
▁பொருந்தும்	-1898
▁வேண்டு	-1899
▁வைத்திருப்ப	-1900
சார	-1901
ட்டும்	-1902
களிலும்	-1903
▁வழிக	-1904
னுடைய	-1905
▁கவ	-1906
தலை	-1907
▁இணங்க	-1908
ையிலும்	-1909
▁நடந்த	-1910
▁மீட்ட	-1911
▁நன	-1912
▁சோதனை	-1913
▁நிதிய	-1914
▁அபராத	-1915
▁கண்கா	-1916
தாரர்	-1917
▁சிறை	-1918
▁கொண்டிருக்க	-1919
▁ஓய்வ	-1920
▁விரை	-1921
▁கலந்து	-1922
▁ஒதுக்கி	-1923
▁நிவாரண	-1924
ித்தது	-1925
▁இத்தகைய	-1926
▁ஓய்வூதிய	-1927
▁ஏற்பாடு	-1928
ெக	-1929
மோ	-1930
▁எதிர்ப	-1931
▁ஆகியோ	-1932
மின்	-1933
▁நிலுவையில்	-1934
▁விளம்ப	-1935
▁நிராகரி	-1936
▁நியமிக்கப்பட்ட	-1937
▁மி	-1938
▁கல்ல	-1939
ையே	-1940
▁வயது	-1941
▁விலை	-1942
▁காரணம்	-1943
▁ஆகவே	-1944
▁பொருட்கள்	-1945
▁பட்டியல்	-1946
▁அர்த்த	-1947
▁ஏற்பட்ட	-1948
▁இதனால்	-1949
னே	-1950
▁மாநிலத்தின்	-1951
▁சமர்ப்பிப்பு	-1952
செய்யப்பட்ட	-1953
▁சுரங்க	-1954
▁முன்னாள்	-1955
▁வழிவகு	-1956
ீட்டின்	-1957
்தான்	-1958
▁விசாரணையின்	-1959
ொழுது	-1960
வுபடுத்த	-1961
▁கருத்தை	-1962
▁உடன்	-1963
▁அடை	-1964
▁V	-1965
▁கைது	-1966
▁பேச்ச	-1967
▁வைக்க	-1968
களுக்கான	-1969
▁இயல்ப	-1970
▁செய்யப்படும்	-1971
▁முடிவை	-1972
▁ஒப்புக்	-1973
▁உண்மைகள்	-1974
an	-1975
த்தா	-1976
▁செல்லுப	-1977
▁ஆசிரிய	-1978
▁தீர்மானிக்க	-1979
▁நீண்ட	-1980
▁முக்கியமான	-1981
▁வழக்கை	-1982
க்கார	-1983
▁கிடைக்க	-1984
▁விவசாய	-1985
வர்களை	-1986
▁ஸ்ட	-1987
▁தீர்ப்பின்	-1988
▁அவ்வாறு	-1989
▁அடையாளம்	-1990
களைத்	-1991
▁நியமனம்	-1992
▁இயக்குந	-1993
▁வர்க்க	-1994
▁நீதிமன்றங்கள்	-1995
▁அதன்ப	-1996
▁மனுவை	-1997
ர்களால்	-1998
▁தொழிற்	-1999
கிச்ச	-2000
ட்சியின்	-2001
▁சேர்ந்த	-2002
▁பொறுப்பு	-2003
▁பயிற்சி	-2004
ாந்திய	-2005
▁நெருக்க	-2006
▁கட்டுப்படுத்த	-2007
▁சிகிச்ச	-2008
▁தொடர்பு	-2009
ப்படுவது	-2010
▁அதன்படி	-2011
▁பல்கலைக்கழக	-2012
ுள்ளனர்	-2013
▁திட்டத்தின்	-2014
ாச	-2015
னையின்	-2016
▁வடிவமை	-2017
வுடன்	-2018
ையையும்	-2019
▁மதிப்பீட்டு	-2020
▁ஜென	-2021
▁நோய	-2022
▁கையாள	-2023
▁தொழில்துறை	-2024
▁புகார்	-2025
▁அணுக	-2026
ுறவு	-2027
▁மீதான	-2028
டுகிறது	-2029
▁B	-2030
ருக்கான	-2031
▁பிராந்திய	-2032
வில	-2033
▁ஆண்டுகள்	-2034
▁நிர்வக	-2035
▁அணு	-2036
▁வழங்குகிறது	-2037
▁மார்	-2038
▁இங்கு	-2039
லாப	-2040
▁படை	-2041
▁மச	-2042
▁போர	-2043
ருடைய	-2044
▁பள்ள	-2045
லுக்கு	-2046
▁பார்வையில்	-2047
ீன்	-2048
ிறகு	-2049
▁அசல்	-2050
▁பெரு	-2051
ப்பெ	-2052
▁நோக்கங்களுக்காக	-2053
▁வசதி	-2054
▁புரிந்து	-2055
ர்த்து	-2056
▁அடைந்த	-2057
▁கோட்ப	-2058
▁முழுமையான	-2059
க்களின்	-2060
▁O	-2061
ளிப்ப	-2062
ீஸ்	-2063
மேல்	-2064
▁போக்கு	-2065
▁நீட்ட	-2066
▁வெளியேற்ற	-2067
மார	-2068
▁நலன	-2069
▁திருத்தம்	-2070
ானிய	-2071
ாய்வு	-2072
ங்களைக்	-2073
றும்	-2074
▁லட்ச	-2075
▁சூழ	-2076
ப்படை	-2077
ம்பு	-2078
▁வழங்கப்படும்	-2079
▁அதன்பிறகு	-2080
க்கிரம	-2081
▁நீர்	-2082
▁குறிக்கிறது	-2083
▁சொற்க	-2084
▁கட்டணம்	-2085
▁கெ	-2086
▁கார்ப்ப	-2087
▁எடுக்கப்பட்ட	-2088
▁மாஜி	-2089
▁செய்வது	-2090
▁கள	-2091
ண்மை	-2092
ப்பதற்கான	-2093
▁மட்டுமல்ல	-2094
ன்ஸ்	-2095
முதல்	-2096
▁மாதி	-2097
▁சுட்டிக்காட்ட	-2098
ரச	-2099
▁பரிவர்த்த	-2100
▁என்பதால்	-2101
▁சோச	-2102
▁கூறுகிறது	-2103
▁சிபி	-2104
▁மாஜிஸ்திர	-2105
▁நான்கு	-2106
▁மகி	-2107
▁II	-2108
▁கார்ப்பரே	-2109
ழும்	-2110
ந்	-2111
▁பாரா	-2112
▁அறிய	-2113
ரமான	-2114
▁ஆல்	-2115
▁குடிம	-2116
▁மணி	-2117
▁உத்தரவாத	-2118
▁கொண்டுவ	-2119
▁அவதான	-2120
ும்போது	-2121
▁என்றால்	-2122
▁காட்டு	-2123
▁இனி	-2124
ரையா	-2125
▁சதி	-2126
▁குழுவின்	-2127
▁விதிமுறைகள்	-2128
▁வழங்குவதற்கான	-2129
▁ஒற்றை	-2130
ங்களுடன்	-2131
▁பூர்த்தி	-2132
▁பங்கள	-2133
▁நபர்கள்	-2134
▁பரந்த	-2135
ேயே	-2136
போல்	-2137
▁மாந	-2138
ிக்கு	-2139
▁தொலை	-2140
▁நாட்டின்	-2141
▁வெவ்	-2142
த்திற்குள்	-2143
ையைப்	-2144
▁நடத்தை	-2145
▁வெவ்வேறு	-2146
▁இவ்வா	-2147
▁ஒத்து	-2148
▁வாட	-2149
▁விளக்கம்	-2150
▁மேம்படுத்த	-2151
டுத்துகிறது	-2152
▁எச்	-2153
ீன	-2154
▁இடத்தில்	-2155
கால	-2156
▁சிறிய	-2157
ங்களுக்கும்	-2158
▁விலக்கு	-2159
▁விண்ணப்பத்தை	-2160
▁சகோத	-2161
▁உடல்	-2162
▁நமது	-2163
▁நம்பிக்க	-2164
▁விதிகளை	-2165
மாண	-2166
▁s	-2167
▁எழுப்ப	-2168
▁செல்லுபடிய	-2169
▁பெண	-2170
▁உதவிய	-2171
▁பெறு	-2172
▁விண்ணப்பம்	-2173
வது	-2174
ில்லியன்	-2175
▁சுக	-2176
▁தண்டனையை	-2177
வின	-2178
▁கண்டறிய	-2179
▁கவுன்ச	-2180
▁வசூல	-2181
▁இவ்வாறு	-2182
▁கொடுக்க	-2183
▁இடையிலான	-2184
ியுள்ளது	-2185
ித்தல்	-2186
▁அவன்	-2187
கிறார்கள்	-2188
▁அரசின்	-2189
▁சந்தை	-2190
▁கல்லூ	-2191
▁வெளிநாட்டு	-2192
▁இயக்க	-2193
▁கொடுத்த	-2194
▁ஐந்து	-2195
▁சாதாரண	-2196
நிற	-2197
▁ஆஜரான	-2198
▁மேற்பட்ட	-2199
▁குறிப்பிட்டுள்ள	-2200
க்கால	-2201
▁விநிய	-2202
er	-2203
▁மனை	-2204
▁எனது	-2205
▁தோல்	-2206
ெழு	-2207
தோடு	-2208
▁பாட	-2209
▁சுற்ற	-2210
ப்பா	-2211
த்துக்	-2212
▁எழுத்து	-2213
▁விதிக்க	-2214
▁அத்தியாய	-2215
▁விசாரணையை	-2216
▁எங்களுக்கு	-2217
ிஸ்த	-2218
▁ஆறு	-2219
▁எரி	-2220
▁முரண்ப	-2221
▁விப	-2222
▁ஏப்	-2223
▁வலை	-2224
▁அளிக்க	-2225
மாகவும்	-2226
ழிவு	-2227
▁வங்க	-2228
▁பேரில்	-2229
▁செயல்த	-2230
ோள்	-2231
ிக்கப்பட்டுள்ளது	-2232
ளா	-2233
▁வழிகாட்டு	-2234
on	-2235
▁இழப்பீடு	-2236
▁சூழ்நில	-2237
▁மதிப்பீடு	-2238
▁தீர்ப்பாயம்	-2239
▁v	-2240
விட்டது	-2241
▁இன்று	-2242
▁தூண்டப்பட்ட	-2243
ாகிய	-2244
▁ஆகையால்	-2245
▁செயல்பாடு	-2246
▁விடுவ	-2247
ப்பட்டுள்ளன	-2248
▁T	-2249
▁R	-2250
▁அறிமுக	-2251
▁சமர்ப்பித்தார்	-2252
்சி	-2253
▁கணிசமான	-2254
▁ஈரா	-2255
எஸ்	-2256
▁முன்னேற்ற	-2257
யில்	-2258
மையின்	-2259
▁ஏப்ரல்	-2260
▁சமர்ப்பிக்க	-2261
▁மன்ற	-2262
▁மார்ச்	-2263
ன்க	-2264
ச்சூ	-2265
▁கோடி	-2266
▁வழங்கப்பட	-2267
▁வழக்குத்	-2268
ந்த்	-2269
ந்தர	-2270
▁பொதுவாக	-2271
▁தீர்வு	-2272
▁தொடர்ச்ச	-2273
ப்படுவதற்கு	-2274
▁ஒப்புக்க	-2275
▁பராமரி	-2276
ையுடன்	-2277
▁குறைப	-2278
▁பதவிய	-2279
▁முதலாள	-2280
▁மருத்துவம	-2281
▁ஒருவர்	-2282
▁ஏற்று	-2283
ார்ந்த	-2284
ொட	-2285
ளிக்க	-2286
▁ஆதாரங்களை	-2287
▁செயல்திற	-2288
▁கொடுப்ப	-2289
வராக	-2290
▁என்றாலும்	-2291
▁ஜாம	-2292
▁ஆளுந	-2293
▁என்பதில்	-2294
▁வருகிறது	-2295
▁நகர	-2296
த்துக்கு	-2297
▁உறுப்பினர்கள்	-2298
ன்ட்	-2299
▁பரிமாற்ற	-2300
ண்டனை	-2301
▁குறைந்தபட்ச	-2302
▁வளாக	-2303
னுக்கு	-2304
தியான	-2305
▁திரும்பப்	-2306
▁நடைமுறைக்கு	-2307
▁உடை	-2308
▁மாநிலத்தில்	-2309
▁நபரின்	-2310
▁கட்டமை	-2311
▁பேச	-2312
சோ	-2313
▁நூ	-2314
ாளரின்	-2315
▁ஆயு	-2316
▁கிள	-2317
▁பெரும்	-2318
▁உருவாக்குவ	-2319
▁வேத	-2320
▁குறிய	-2321
மிய	-2322
▁முழுவ	-2323
▁வாகன	-2324
▁PW	-2325
▁பதிலளித்தவர்கள்	-2326
ளவில்	-2327
▁அமைந்த	-2328
ஷி	-2329
▁சுற்றுச்சூ	-2330
▁வாய்ப்பு	-2331
ினி	-2332
ிற்கான	-2333
▁பெறப்பட்ட	-2334
வைக்	-2335
▁வாடகை	-2336
▁கொலை	-2337
▁வார்த்தை	-2338
ிருந்தாலும்	-2339
▁சூழ்நிலைகளில்	-2340
த்தன்மை	-2341
ப்பதன்	-2342
▁நடி	-2343
▁செயல்பட	-2344
▁ஆலோசனை	-2345
ிருந்தால்	-2346
தில	-2347
▁இயற்ற	-2348
▁தன்மையை	-2349
▁விழ	-2350
▁சட்டபூர்வ	-2351
க்கில்	-2352
ர்ந	-2353
▁காலம்	-2354
▁வீட்ட	-2355
▁கட்சிய	-2356
▁தீர்ப்பில்	-2357
▁வாங்கு	-2358
१०	-2359
▁விளைவு	-2360
▁உடனடி	-2361
▁வரலா	-2362
▁மசோத	-2363
தியை	-2364
▁கணக்கு	-2365
▁மறுஆ	-2366
▁அதிகாரத்தை	-2367
ிருந்தும்	-2368
▁கற்ப	-2369
▁தெரிய	-2370
▁கட்டத்தில்	-2371
▁தேச	-2372
▁உள்ளூர்	-2373
▁தட	-2374
ீதியாக	-2375
▁தடுப்பு	-2376
▁விமான	-2377
▁ஐரோப்பிய	-2378
▁ஆக்கிரம	-2379
▁ஃப	-2380
பின்	-2381
▁வாங்க	-2382
நட	-2383
ருடன்	-2384
▁மாறாக	-2385
▁அமர்வு	-2386
ுண	-2387
▁புள்ள	-2388
▁சுகாதார	-2389
▁மாநிலம்	-2390
த்தும்	-2391
▁திட்டத்தை	-2392
▁நேரடி	-2393
▁பயங்க	-2394
▁கேட்க	-2395
▁நன்கு	-2396
▁முதன்மை	-2397
▁தவறாக	-2398
▁நிரூபிக்க	-2399
▁அறிவுறுத்த	-2400
▁பொலி	-2401
லம்	-2402
லாக	-2403
▁நம்பக	-2404
ப்பதில்	-2405
▁தரப்பு	-2406
கரிக்க	-2407
▁நிலைமை	-2408
▁வழிகாட்டுதல	-2409
▁வழக்குகள்	-2410
▁சோசலிச	-2411
வால	-2412
ுட	-2413
▁சுமார்	-2414
மீ	-2415
▁பார்த்த	-2416
▁திருப்பி	-2417
▁விர	-2418
ப்படுத்தப்பட்ட	-2419
▁முன்பு	-2420
▁வழக்குகளில்	-2421
ாளர்களின்	-2422
▁அளவிற்கு	-2423
களிலிருந்து	-2424
▁ரூப	-2425
▁தந்த	-2426
▁இருந்தாலும்	-2427
▁செப்ட	-2428
▁கருதப்படும்	-2429
▁அவற்றின்	-2430
▁நேரம்	-2431
ொண்டு	-2432
ிப்பதற்கான	-2433
▁உட்படுத்த	-2434
▁ஜெ	-2435
▁திறந்த	-2436
▁தவி	-2437
▁நடைபெற்றது	-2438
லர்	-2439
▁செலவு	-2440
▁நடைமுறையில்	-2441
▁ராஷ்டிர	-2442
▁D	-2443
▁F	-2444
▁இருப்பதால்	-2445
▁குமார்	-2446
▁கட்டுமான	-2447
▁என்பதும்	-2448
▁ஆட்சேப	-2449
▁வழிநட	-2450
▁நுக	-2451
களைச்	-2452
▁மேல்	-2453
▁புஷ்	-2454
▁ராஷ்டிரபதி	-2455
▁வெளிப்படையாக	-2456
▁வேண்டியது	-2457
▁பக்க	-2458
▁கலை	-2459
ோட்ட	-2460
▁நுழைவு	-2461
▁பீ	-2462
▁W	-2463
▁நாட்களுக்கு	-2464
▁தொழிலாளர்	-2465
▁பொருட்களின்	-2466
ொள்க	-2467
▁சரியாக	-2468
▁அனுமதிக்கப்பட்ட	-2469
ிப்பது	-2470
றுப	-2471
வச	-2472
▁முழுமையாக	-2473
▁பரிவர்த்தனை	-2474
▁பயங்கர	-2475
▁தவிர்க்க	-2476
▁மறுக்க	-2477
▁பகுதியாக	-2478
க்கீ	-2479
▁முறையாக	-2480
▁உடனடியாக	-2481
▁சிந்த	-2482
க்கண	-2483
▁விநியோக	-2484
▁எக்	-2485
▁தான்	-2486
முடிய	-2487
▁அபராதம்	-2488
▁கேள்விய	-2489
▁எதிர்ப்பு	-2490
▁மறுஆய்வு	-2491
▁கிழ	-2492
▁அறிக்கையில்	-2493
▁மொழி	-2494
பல	-2495
▁மண	-2496
▁அக்க	-2497
ச்சய	-2498
▁கட்சிகள்	-2499
▁மீட்டெ	-2500
▁உணவு	-2501
ரத்தில்	-2502
▁விரிவான	-2503
▁நீதிய	-2504
▁வெடி	-2505
▁சரிப	-2506
▁விவாத	-2507
▁நிலையான	-2508
▁x	-2509
▁மேம்பாட்டு	-2510
▁தெளிவாகிறது	-2511
ுவதை	-2512
க்கட்ட	-2513
▁நிச்சய	-2514
▁கூற்று	-2515
▁சதவீத	-2516
▁தகவல்களை	-2517
ாப	-2518
▁உற்பத்திய	-2519
▁தோன்ற	-2520
▁குறிப்பிடப்பட்ட	-2521
▁மேலா	-2522
▁எனக்கு	-2523
▁கொண்டது	-2524
்தார	-2525
க்கப்பட்டு	-2526
லே	-2527
▁எந்தவித	-2528
▁வாங்குப	-2529
▁தாமத	-2530
▁போக்குவர	-2531
த்தன்	-2532
▁டிச	-2533
▁வளர்ச்சி	-2534
▁விடுப்பு	-2535
▁வெளிப்படையான	-2536
▁நவ	-2537
▁லட்சம்	-2538
▁வாச	-2539
▁குமார	-2540
▁வித	-2541
▁உன்	-2542
▁மாஜிஸ்திரேட்	-2543
வீன	-2544
▁பொருந்தாது	-2545
▁பாத	-2546
▁யுத்த	-2547
▁குற்றத்தை	-2548
▁தொழிலாளர்கள்	-2549
ையில்லை	-2550
▁இணைப்பு	-2551
▁செயல்முறை	-2552
▁எழும்	-2553
▁விசாரணைக்கு	-2554
ீப	-2555
ிர்	-2556
▁பக	-2557
▁கொள்வ	-2558
▁கட்டிட	-2559
ிருக்கிறது	-2560
▁டெல்லி	-2561
▁உள்ளிட்ட	-2562
▁விசாரிக்க	-2563
▁அழ	-2564
▁அட்டவண	-2565
ுறம்	-2566
ாட்சி	-2567
▁பொலிஸ்	-2568
▁செலுத்து	-2569
▁தொழிற்ச	-2570
▁இடைக்கால	-2571
▁தவறி	-2572
▁தமிழ்	-2573
▁எண்ணிக்க	-2574
▁விளம்பர	-2575
தன	-2576
லு	-2577
▁கவனிக்க	-2578
▁செப்டம்பர்	-2579
▁அடிப்படையாக	-2580
▁கவனத்தில்	-2581
▁நிறைவேற்றப்பட்ட	-2582
▁சகோதர	-2583
▁வாழ்	-2584
▁நிபுண	-2585
▁வட	-2586
▁வீடு	-2587
▁L	-2588
டுவது	-2589
▁நிலத்தை	-2590
▁பேர்	-2591
▁அவர்களை	-2592
ருந்து	-2593
▁ஆராய்ச்ச	-2594
▁ஜனவரி	-2595
▁முயற்ச	-2596
▁முதலில்	-2597
▁கமி	-2598
▁சுற்றுச்சூழல்	-2599
▁வாழ்த்த	-2600
▁செய்தி	-2601
நப	-2602
்கிறது	-2603
▁தடுக்க	-2604
▁எடுத்துக்	-2605
கையில்	-2606
பாச	-2607
▁வக்கீ	-2608
▁டை	-2609
▁சம்பவ	-2610
▁சுயாத	-2611
▁எடுத்த	-2612
▁மேற்கொண்ட	-2613
▁அச்சுறுத்த	-2614
▁அமெரிக்கா	-2615
▁உல	-2616
வருக்கும்	-2617
▁எதிர்ப்ப	-2618
ுங்கள்	-2619
ாய்வ	-2620
▁சுயாதீன	-2621
▁தற்கால	-2622
ப்ர	-2623
▁அவள்	-2624
ிடப்பட்ட	-2625
▁தெளிவான	-2626
▁வைத்த	-2627
▁தில்லி	-2628
▁திட்டமிட	-2629
▁சக்தி	-2630
▁மக்களின்	-2631
▁கூடுதல	-2632
▁வெளிச்ச	-2633
▁பிரதிநிதித்துவ	-2634
▁ஊட	-2635
▁திறன்	-2636
▁00	-2637
▁பிரார்த்த	-2638
▁அவதானிப்பு	-2639
▁iii	-2640
ளிக்கும்	-2641
▁முன்னு	-2642
▁நோக்கி	-2643
▁சொல்	-2644
▁வந்தது	-2645
▁அறிவிப்பை	-2646
ாளராக	-2647
▁வழங்கும்	-2648
▁முகர்	-2649
▁பதிலாக	-2650
▁ஒப்படை	-2651
▁பரிசீலிக்க	-2652
▁டிவி	-2653
▁விசாரி	-2654
▁தனிநப	-2655
▁தாக்குதல	-2656
ரியான	-2657
▁பாராட்ட	-2658
▁எல்லா	-2659
▁நடத்திய	-2660
னுடன்	-2661
▁எதிர்கால	-2662
வாய்ந்த	-2663
ர்ச	-2664
த்தொ	-2665
▁அறிவிக்கப்பட்ட	-2666
▁இங்கே	-2667
▁வருமானம்	-2668
▁G	-2669
வையும்	-2670
▁முன்னோ	-2671
▁ஆஃப்	-2672
▁விவாதி	-2673
ெல்ல	-2674
▁அருக	-2675
ச்சார	-2676
யம்	-2677
▁ரீதியாக	-2678
னான	-2679
▁மாற்றிய	-2680
த்துக்க	-2681
▁அழு	-2682
▁ஆகஸ்ட்	-2683
▁புதுப்ப	-2684
▁கருதுகிறோம்	-2685
▁நேரடியாக	-2686
ேற்ப	-2687
▁அபி	-2688
▁இதை	-2689
▁கீழே	-2690
▁தற்காலிக	-2691
▁ஜனாதிப	-2692
▁படிக்க	-2693
▁சமீப	-2694
முள்ள	-2695
▁உள்ளடக்கியது	-2696
▁தக்க	-2697
▁பராமரிக்க	-2698
▁எளி	-2699
▁கல்விய	-2700
▁போன்றவற்ற	-2701
▁குறிக்க	-2702
▁உண்மையை	-2703
ாக்	-2704
▁கையெழு	-2705
▁நிகழ்வு	-2706
▁ஆண்டுகளுக்கு	-2707
▁அணுகு	-2708
ாவதாக	-2709
▁கொண்டார்	-2710
▁சட்டங்கள்	-2711
▁செல்லுபடியாகும்	-2712
▁ரெ	-2713
▁முடியவில்லை	-2714
▁போட்டிய	-2715
▁செல்வ	-2716
ணியில்	-2717
▁மை	-2718
▁இன	-2719
▁இறக்கு	-2720
▁அங்கீகார	-2721
▁டிசம்பர்	-2722
▁அளவில்	-2723
▁ஆதரவு	-2724
▁வாழ்க்கை	-2725
▁புகார்தார	-2726
▁சுதந்திரம்	-2727
▁வெளியிட்ட	-2728
▁சர்	-2729
ாளருக்கு	-2730
▁கட்டுப்பாடு	-2731
▁கிரி	-2732
ிலே	-2733
▁வாரியம்	-2734
▁வழக்கமான	-2735
▁முன்மொழிய	-2736
▁சுருக்கமாக	-2737
▁உட்பிரிவு	-2738
▁குத்தகைதார	-2739
திக	-2740
ளைய	-2741
▁ஓய்வு	-2742
▁தயாரிக்க	-2743
ஸ்சி	-2744
ங்களிலும்	-2745
ிட்டு	-2746
▁ஒத்துழை	-2747
▁திருப்தி	-2748
்துற	-2749
▁ஜெய	-2750
▁கண்டுபிடிப்பு	-2751
▁ஒருப	-2752
▁தன்னை	-2753
ப்பிற்கு	-2754
▁தீர்ப்பாயத்தின்	-2755
▁இறந்தவரின்	-2756
▁திருமதி	-2757
▁புல	-2758
ம்படி	-2759
ொப்ப	-2760
▁கல்லூரி	-2761
▁இருந்தார்	-2762
▁வெளிப்புற	-2763
▁இருக்கு	-2764
▁ஜூலை	-2765
▁தோட்ட	-2766
▁டிவிஷன்	-2767
▁உருவாக்கு	-2768
▁மின்சார	-2769
▁சலுகை	-2770
▁இதற்கு	-2771
▁ஆணைக்கு	-2772
ிடையே	-2773
▁இப்ப	-2774
▁முதலாளித்துவ	-2775
▁விசாரணையில்	-2776
ொலை	-2777
▁நம்	-2778
▁உள்நாட்டு	-2779
▁நியமிக்க	-2780
▁பிரதம	-2781
▁திர	-2782
ும	-2783
▁ஒழுங்க	-2784
▁திட்டங்கள்	-2785
ர்களும்	-2786
▁சூழலில்	-2787
▁மனுவில்	-2788
களின்படி	-2789
மிக்க	-2790
▁குறிப்பிடத்தக்க	-2791
த்தன	-2792
்டோப	-2793
▁எச்ச	-2794
▁பார்வை	-2795
கிறேன்	-2796
▁தெரிவிக்க	-2797
டுத்துதல்	-2798
▁சுவ	-2799
▁என்றார்	-2800
▁அக்டோப	-2801
▁கண்ண	-2802
▁இடம்	-2803
▁ஜெனரல்	-2804
▁ஏற்றுக்கொண்ட	-2805
▁கையொப்ப	-2806
▁நிறுவனங்களின்	-2807
▁எப்ப	-2808
▁வெறு	-2809
▁அறிந்த	-2810
▁தெரிகிறது	-2811
ாரா	-2812
நீ	-2813
மயமா	-2814
▁வழிமுறை	-2815
▁அதிகமாக	-2816
த்தின	-2817
▁போலவே	-2818
▁அமல்ப	-2819
▁நவம்பர்	-2820
ாதது	-2821
▁இருந்தன	-2822
▁வாக்க	-2823
▁வேண்டுக	-2824
▁முக்கியத்துவம்	-2825
லான	-2826
▁தண	-2827
▁கோரிக்கை	-2828
ார்ப்ப	-2829
▁சூப்ப	-2830
ருப	-2831
ar	-2832
▁விஜ	-2833
ேட்ட	-2834
▁தொகுதி	-2835
றுவ	-2836
▁காவல்துறை	-2837
११	-2838
▁உரிமைகளை	-2839
▁பிரச்சின	-2840
ின்றனர்	-2841
▁செய்வதற்கு	-2842
ரிடம்	-2843
ர்திரு	-2844
▁கேர	-2845
▁நடவடிக்கைகளில்	-2846
னுக்காக	-2847
▁வெளிப்பாடு	-2848
▁நியாயப்படுத்த	-2849
▁பிரிவில்	-2850
▁இருக்காது	-2851
▁மோசமான	-2852
▁ராம்	-2853
▁வாதிட	-2854
மன்	-2855
▁மோத	-2856
▁எஸ்சி	-2857
ாளர்களுக்கு	-2858
த்துற	-2859
ங்களைத்	-2860
▁முடிந்த	-2861
▁முழுவதும்	-2862
▁உறுப்பினர்	-2863
▁கழ	-2864
▁ஆண்டுகளில்	-2865
▁ஜேர்ம	-2866
▁மண்ட	-2867
▁மாற்றியமை	-2868
ருத்தி	-2869
▁விஷயத்தை	-2870
▁தேவையில்லை	-2871
▁சிங்க	-2872
நோ	-2873
▁புத்தக	-2874
▁பத்திய	-2875
▁வலைத்த	-2876
க்கப்பட்டுள்ளன	-2877
▁உருவாக்கும்	-2878
▁சீர்திரு	-2879
▁ஜோ	-2880
▁அரசுக்கு	-2881
மின்றி	-2882
▁ஆட்சேபனை	-2883
ெய்	-2884
ொள்வது	-2885
▁எதிர்பார்க்க	-2886
▁நிறுவப்பட்ட	-2887
▁பாலியல்	-2888
ிச்ச	-2889
▁மேலதிக	-2890
த்தான்	-2891
▁உயர்வு	-2892
▁பொருட்களை	-2893
ிவி	-2894
ையிலான	-2895
க்களுக்கு	-2896
▁பயன்பாடு	-2897
▁அப்பொழுது	-2898
▁தொழிற்சங்க	-2899
க்கப்படுகிறது	-2900
▁ஜூன்	-2901
▁சமமான	-2902
▁ஒருங்கிணைந்த	-2903
▁எந்தவிதமான	-2904
ஸின்	-2905
▁ஒட்டு	-2906
▁இடையே	-2907
▁பகுதியில்	-2908
▁சட்டத்தால்	-2909
▁கப்ப	-2910
ிலோ	-2911
▁வெள்ள	-2912
▁அறக்கட்ட	-2913
▁அழைப்பு	-2914
▁முகர்ஜி	-2915
▁முயற்சிய	-2916
▁பொருத்தவரை	-2917
▁கோட்	-2918
▁அடங்கும்	-2919
ங்களுக்கான	-2920
▁சட்டபூர்வமான	-2921
▁காரணங்கள்	-2922
▁ஸ்க	-2923
ரிகை	-2924
ல்கள	-2925
▁வழங்குவது	-2926
▁இன்ற	-2927
ையற்ற	-2928
or	-2929
▁காண்ப	-2930
▁மகிழ்ச்ச	-2931
▁அக்டோபர்	-2932
▁வெற்றி	-2933
▁நிரந்தர	-2934
ளிக்கப்பட்ட	-2935
▁கேள்விக்குரிய	-2936
▁இறந்தவர்	-2937
▁செய்யப்படவில்லை	-2938
en	-2939
▁விதிகளுக்கு	-2940
ஹ்	-2941
▁மோசடி	-2942
▁ஆகியவற்றை	-2943
▁கூறப்படும்	-2944
▁போராட்ட	-2945
▁வர்த்தகம்	-2946
▁இவை	-2947
▁காப்பீட்டு	-2948
▁போர்	-2949
▁கட்டளை	-2950
▁உட்பட்ட	-2951
▁மர	-2952
▁அதிகாரத்தின்	-2953
னையும்	-2954
▁கர்ந	-2955
▁சான்றிதழ்	-2956
▁பொறிய	-2957
▁கர்நாட	-2958
▁AI	-2959
▁புலி	-2960
▁சீர்திருத்த	-2961
ல்க	-2962
▁கவனித்த	-2963
▁சேவைகள்	-2964
▁விரோத	-2965
▁நிர்வாகம்	-2966
▁தனியு	-2967
▁தெளிவுபடுத்த	-2968
▁சந்தேகத்திற்கு	-2969
ப்புக்கு	-2970
▁அங்கீகரிக்க	-2971
▁இயற்கை	-2972
டல்	-2973
வேண்டும்	-2974
▁மில்லியன்	-2975
▁பறி	-2976
திலிருந்து	-2977
க்த	-2978
▁ஒன்றிய	-2979
நிறுத்த	-2980
▁வந்து	-2981
▁உட்பட்டு	-2982
ஸில்	-2983
▁முன்க	-2984
▁மூலதன	-2985
ையிலிருந்து	-2986
▁செய்யப்படுகிறது	-2987
▁வருவாய்	-2988
▁சமத்துவ	-2989
▁பெரும்பான்	-2990
▁சிறைத்த	-2991
▁கட்சியின்	-2992
▁ஸ்த	-2993
ாட்டிற்கு	-2994
▁பம்ப	-2995
▁கேட்ட	-2996
▁அமல்படுத்த	-2997
▁யா	-2998
வாய்ப்ப	-2999
ையைத்	-3000
in	-3001
ொருள்	-3002
சப	-3003
▁தகுதிவாய்ந்த	-3004
ாண	-3005
▁ஆதரிக்க	-3006
▁ஆகியோர்	-3007
▁சேவைகளை	-3008
▁பயங்கரவாத	-3009
▁சட்டமன்றம்	-3010
ந்தர்	-3011
ர்களாக	-3012
▁கொடுக்கப்பட்ட	-3013
ிடும்	-3014
ோட	-3015
▁மட்ட	-3016
ுமா	-3017
▁பணியா	-3018
▁முடிவ	-3019
▁பகி	-3020
▁டெபாச	-3021
▁கள்	-3022
▁வாதிட்டார்	-3023
▁ஒப்புதல	-3024
▁திச	-3025
▁நபரும்	-3026
▁கூட்டுறவு	-3027
▁உயர்ந்த	-3028
சர	-3029
▁ரோ	-3030
ிக்கப்படும்	-3031
▁வைத்திருக்க	-3032
▁ஐபிசி	-3033
▁இயல்பு	-3034
▁காரணங்களுக்காக	-3035
▁பொருந்தக்கூடிய	-3036
▁எவ்வாறு	-3037
▁கருதுகிறது	-3038
▁துணைப்பிரி	-3039
▁இறுதியில்	-3040
ப்படும்போது	-3041
▁அபிவி	-3042
▁எழுத்துப்பூர்வ	-3043
ப்ரவரி	-3044
▁உருவாக்கிய	-3045
▁வேலைவாய்ப்ப	-3046
▁போன்றவை	-3047
▁போக்குவரத்து	-3048
▁இலாப	-3049
▁மாற்று	-3050
▁நடத்துவ	-3051
▁நியமன	-3052
▁வழக்கறிஞர்	-3053
மின	-3054
▁கணக்கில்	-3055
ஞான	-3056
ிப்பை	-3057
▁பகுப்ப	-3058
▁பணியாற்ற	-3059
▁எனக்	-3060
▁பொருத்தமானது	-3061
ர்ட	-3062
டியோ	-3063
▁தின	-3064
▁கண்டறிந்த	-3065
▁உட்பட்டது	-3066
▁..	-3067
▁வைப்பு	-3068
▁பாதுகாக்க	-3069
ார்வ	-3070
▁டெபாசிட்	-3071
▁சும	-3072
▁தவறு	-3073
▁அழுத்த	-3074
▁SC	-3075
ிடு	-3076
▁யின்	-3077
▁பொருளை	-3078
▁காட்டுகிறது	-3079
▁பெண்	-3080
ென்றால்	-3081
வணை	-3082
▁விதிவில	-3083
▁மேற்கோள்	-3084
▁போட்டி	-3085
▁கருதப்பட	-3086
▁பிரார்த்தனை	-3087
▁சொன்ன	-3088
மாய	-3089
▁தான	-3090
▁ஆராய்ச்சி	-3091
▁தொடக்க	-3092
க்கப்பட்டன	-3093
▁அமைப்ப	-3094
ப்பட்டார்	-3095
▁இருப்பதாக	-3096
▁தண்டனைக்கு	-3097
▁காசோ	-3098
ங்களாக	-3099
▁ஐபிசியின்	-3100
▁குறுக	-3101
ராக்	-3102
▁இடது	-3103
▁பயனுள்ள	-3104
▁படம்	-3105
ப்பற்ற	-3106
ந்தி	-3107
▁ஏல	-3108
▁அப்பா	-3109
▁உரிமைகோர	-3110
▁அறிமுகப்படுத்த	-3111
▁இஸ்ரே	-3112
▁பிறப்பித்த	-3113
▁மட்டுமல்லாமல்	-3114
யோ	-3115
ட்டை	-3116
▁அளிக்கிறது	-3117
▁மருத்துவமனை	-3118
▁கர்த்தர்	-3119
▁நாட்டில்	-3120
▁பை	-3121
▁முதலீடு	-3122
▁கேட்டு	-3123
▁விரும்புக	-3124
▁ஊடக	-3125
▁மனுதாரர்கள்	-3126
▁எல்லைக்கு	-3127
▁போல்	-3128
▁கம்ப	-3129
▁சேகரி	-3130
▁கொள்கையை	-3131
▁அடிப்படையாகக்	-3132
ிப்பதில்	-3133
▁உரிமையாளர்	-3134
▁மாறுப	-3135
▁நுகர்வ	-3136
மொத்த	-3137
▁நிராகரிக்க	-3138
▁தோல்விய	-3139
ாவும்	-3140
ராச	-3141
▁மேல்முறையீட்டை	-3142
▁உத்தரவுக்கு	-3143
ப்புற	-3144
▁கருதி	-3145
▁தெரிவித்தார்	-3146
▁இயந்திர	-3147
த்தெ	-3148
▁திருத்தப்பட்ட	-3149
▁செயலாளர்	-3150
▁அறிக்கையின்	-3151
▁ஆகியவற்றில்	-3152
▁அவள	-3153
ியால்	-3154
▁சாலை	-3155
▁ஆயுள்	-3156
▁ரயில்	-3157
▁ஐக்கிய	-3158
▁வாய்ந்த	-3159
மிகு	-3160
▁உயர்த்த	-3161
▁வேறுபாடு	-3162
▁பிள	-3163
▁அட்டவணை	-3164
▁நாள்	-3165
▁வேண்டுமெ	-3166
▁தயாரிப்பு	-3167
கின்றனர்	-3168
▁மேலாண்மை	-3169
▁ஒட்டுமொத்த	-3170
மடைந்த	-3171
பே	-3172
னையில்	-3173
▁ஒதுக்கீடு	-3174
▁கூற்றுப்படி	-3175
▁நிச்சயமாக	-3176
▁துறையில்	-3177
▁மூன்றாம்	-3178
ரைஞ	-3179
ூட்டிய	-3180
▁வழக்குரைஞ	-3181
▁குறிக்கும்	-3182
▁மீட்ப	-3183
▁விடுவி	-3184
▁பிப்ரவரி	-3185
ரிக	-3186
▁முயன்ற	-3187
ாகவும்	-3188
▁மீட்க	-3189
▁மனதில்	-3190
▁பவன்	-3191
▁கிட்ட	-3192
▁தொடர்ச்சியான	-3193
▁தனித்த	-3194
▁சமுத	-3195
▁சமுதாய	-3196
ூட	-3197
▁இருப்பு	-3198
ரிசீல	-3199
▁ஒதுக்கப்பட்ட	-3200
ியும்	-3201
▁மறுபரிசீல	-3202
▁இழப்பு	-3203
▁மறுபரிசீலனை	-3204
▁அனும	-3205
▁நேர்	-3206
▁கடிதம்	-3207
▁ஜாமீன்	-3208
▁மனைவி	-3209
வான்	-3210
▁விட்டு	-3211
▁சாள	-3212
▁நிலையை	-3213
▁மாண்பு	-3214
தல்ல	-3215
த்தட்ட	-3216
▁மந்த	-3217
▁மட்டும்	-3218
▁மாண்புமிகு	-3219
த்துள்ளார்	-3220
▁வேல	-3221
ோள	-3222
▁குவ	-3223
▁மேற்கு	-3224
▁பிரண	-3225
▁விற்க	-3226
▁நபருக்கு	-3227
▁இரத்த	-3228
al	-3229
▁வரிய	-3230
▁சொத்தின்	-3231
▁சிறு	-3232
▁பிரச்சார	-3233
▁செய்யவில்லை	-3234
▁காண்க	-3235
▁குறுகிய	-3236
▁தொடர்ந்த	-3237
▁பதிவ	-3238
மல்	-3239
▁வாழ்த்துக்க	-3240
▁ஆற்ற	-3241
ங்கால	-3242
▁பிரணாப்	-3243
▁இருப்பது	-3244
▁முன்கூட்டிய	-3245
▁இனிமேல்	-3246
▁இந்து	-3247
▁கோரி	-3248
▁பிணை	-3249
ையானது	-3250
▁வலது	-3251
▁அழைத்து	-3252
▁எதிர்	-3253
ேற்க	-3254
▁புர	-3255
▁பொதும	-3256
காரா	-3257
▁அவ்வ	-3258
தியால்	-3259
▁சாட்ட	-3260
▁இடமாற்ற	-3261
▁பகுதியை	-3262
▁பேச்சுவ	-3263
ணிப்பு	-3264
▁ஆரம்பத்தில்	-3265
ியோக	-3266
க்குவி	-3267
▁சூழ்நிலைகள்	-3268
▁நாக	-3269
ிலுள்ள	-3270
லாத	-3271
▁அளவிலான	-3272
▁யார	-3273
▁ஹெ	-3274
ுக்கிட	-3275
▁திசை	-3276
ியுள்ள	-3277
▁மும்ப	-3278
▁குறைவாக	-3279
▁இறக்குமதி	-3280
▁தன்னிச்ச	-3281
▁துன்ப	-3282
▁பதிலளித்தவரின்	-3283
▁இருக்கும்போது	-3284
▁உப	-3285
▁Cr	-3286
▁பறிமுதல்	-3287
▁நம்பிக்கை	-3288
▁கொடுப்பன	-3289
▁வகையான	-3290
ற்கு	-3291
மிட்ட	-3292
▁கலா	-3293
▁நீதிபதியின்	-3294
▁விரிவா	-3295
வாய	-3296
த்தான	-3297
மாகவோ	-3298
ப்பதற்கு	-3299
▁அறிவு	-3300
விக்கும்	-3301
▁பாதிக்க	-3302
ேயான	-3303
▁பயண	-3304
▁பள்ளி	-3305
▁ஊக்குவி	-3306
▁வெளிச்சத்தில்	-3307
▁காவல்	-3308
▁குறுக்கு	-3309
▁முன்மொழியப்பட்ட	-3310
▁கவலை	-3311
▁சொத்தை	-3312
▁தரவு	-3313
▁இல்லைய	-3314
▁உத்தியோக	-3315
ti	-3316
▁ஒப்பந்தத்தில்	-3317
போதிலும்	-3318
▁உள்க	-3319
▁மாதங்களுக்கு	-3320
▁திறமையான	-3321
▁சட்டப்பூர்வ	-3322
சம்	-3323
▁அபிவிருத்தி	-3324
▁கிட்டத்தட்ட	-3325
▁சொத்துக்களை	-3326
▁இலங்க	-3327
▁அரசால்	-3328
▁வார்த்தைகளில்	-3329
▁அலகு	-3330
▁மகாரா	-3331
▁அணி	-3332
▁பதிவுசெய்த	-3333
▁அவசர	-3334
▁குற்றத்தின்	-3335
▁கையா	-3336
▁மெட்	-3337
▁வலைத்தளம்	-3338
▁சிகிச்சை	-3339
▁செய்யப்பட்டன	-3340
▁பயிற்சிய	-3341
ார்ட்	-3342
ங்ட	-3343
▁ஆதரி	-3344
▁பிரமாண	-3345
▁செய்வதில்	-3346
ப்படிய	-3347
▁வாக்குமூலம்	-3348
▁செய்தல்	-3349
▁அடுத்தடுத்த	-3350
▁காலாவ	-3351
▁பக்கம்	-3352
▁இரண்டாம்	-3353
▁ல்	-3354
▁கிடைக்கும்	-3355
கட்ட	-3356
ஸ்தான்	-3357
▁நிலத்தின்	-3358
▁அவமதி	-3359
▁சிறைத்தண்டனை	-3360
▁சதித்திட்ட	-3361
▁நிலைப்பாடு	-3362
▁கன	-3363
▁தகரா	-3364
▁நாட்கள்	-3365
▁கருவி	-3366
▁குறிப்பிட்டார்	-3367
ேஷ்	-3368
▁ஏர	-3369
▁இல்லையா	-3370
ஞ்சு	-3371
▁மீதம	-3372
▁மோட்டார்	-3373
▁ஊழியர்கள்	-3374
▁சாளரத்தில்	-3375
▁காயம்	-3376
க்கை	-3377
II	-3378
ிரா	-3379
▁மறுபுறம்	-3380
▁குற்றப்ப	-3381
▁உடன்படிக்க	-3382
▁சமூகத்தின்	-3383
மற்றது	-3384
ாட்டைக்	-3385
ாலி	-3386
▁சிபிஐ	-3387
▁கர்நாடக	-3388
▁வலி	-3389
▁அந்	-3390
▁சேம	-3391
▁அனுமதிக்கப்பட	-3392
▁குடியிரு	-3393
ரசு	-3394
▁அவசியமில்லை	-3395
▁நலனுக்காக	-3396
▁ஈர்க்க	-3397
ட்டுள்ளது	-3398
ிருப்பது	-3399
▁ஆட்சி	-3400
▁உத்தரவாதம்	-3401
ங்களது	-3402
ையாகும்	-3403
▁தயார	-3404
▁உரையா	-3405
▁உள்கட்ட	-3406
▁பிரதிபல	-3407
▁பெயர்	-3408
▁மீதமுள்ள	-3409
▁உலகள	-3410
▁பிரான்	-3411
▁எண்ணெய்	-3412
▁வேறுபட்ட	-3413
▁மேலாக	-3414
▁பேச்சுவார்த்த	-3415
▁கண்காண	-3416
ாளர்களை	-3417
▁பிசி	-3418
டிக்கும்	-3419
▁பதில்	-3420
▁விவரி	-3421
▁உத்தரவுகளை	-3422
▁ஏராள	-3423
▁எதிர்த்து	-3424
▁வலுவ	-3425
▁ஆணையத்தின்	-3426
ரவே	-3427
...	-3428
▁காவலில்	-3429
▁கமிஷ	-3430
▁உதவு	-3431
ர்களுக்கான	-3432
▁விதிமுறைகளை	-3433
▁நிறுவனத்திற்கு	-3434
▁தேதியில்	-3435
▁கவுன்சில்	-3436
▁திறக்கும்	-3437
னோ	-3438
▁நீதிமன்றங்களின்	-3439
வொ	-3440
டா	-3441
▁சர	-3442
டுக்கு	-3443
▁இதேபோல்	-3444
▁கூறப்படுகிறது	-3445
▁வன	-3446
ரமாக	-3447
........	-3448
ிருக்கிற	-3449
▁நோக்கத்தை	-3450
▁மசோதா	-3451
▁அனைத்தும்	-3452
▁இணைக்கப்பட்ட	-3453
▁வேதனை	-3454
▁பிரே	-3455
▁சரிபார்க்க	-3456
▁நிவாரணம்	-3457
ர்களுக்கும்	-3458
▁செய்வதன்	-3459
▁அவருடைய	-3460
▁ஒப்பந்தத்தை	-3461
ூட்ட	-3462
▁ரூபாய்	-3463
▁கலாச்சார	-3464
▁விவே	-3465
▁குறைபாடு	-3466
▁ஏழு	-3467
▁தாவ	-3468
பாத்	-3469
▁அட்	-3470
ண்ப	-3471
ிக்கவும்	-3472
▁கையாள்வ	-3473
▁முடிவில்	-3474
▁இலவச	-3475
▁காவல்துற	-3476
▁கூடுதலாக	-3477
▁ஒருபோதும்	-3478
▁இஸ்ரவே	-3479
க்களில்	-3480
▁விடுவிக்கப்பட்ட	-3481
▁முறையான	-3482
ப்பதற்கும்	-3483
தூ	-3484
▁காலிய	-3485
es	-3486
ங்களிலிருந்து	-3487
▁இருக்கிறது	-3488
▁நீதிமன்றத்தை	-3489
▁மதிப்பீட்டாளர்	-3490
▁சென்று	-3491
ரிடமிருந்து	-3492
வதற்கு	-3493
▁எப்போதும்	-3494
ரப்பு	-3495
▁இளை	-3496
▁வழங்கப்படுகிறது	-3497
விகி	-3498
த்திருக்க	-3499
▁நிகழ்ச்ச	-3500
▁இருந்தபோதிலும்	-3501
▁குற்றப்பத்தி	-3502
▁அதிகரிக்க	-3503
▁பெரும்பால	-3504
▁கருதப்படுகிறது	-3505
ெல்லாம்	-3506
▁விடுதலை	-3507
ச்சி	-3508
சீர	-3509
▁கொள்கையின்	-3510
▁வழங்குவதற்காக	-3511
▁அனுமான	-3512
▁பிரதான	-3513
வாங்க	-3514
க்குப்	-3515
▁கட்டுப்பாட்டு	-3516
▁AIR	-3517
▁தலைப்பு	-3518
ப்படுத்தும்	-3519
▁உடைமை	-3520
▁மன்ன	-3521
▁அக்கறை	-3522
▁பகுதிகளில்	-3523
▁ஏற்றுமதி	-3524
▁நீதித்துற	-3525
▁Vs	-3526
ர்களில்	-3527
▁வழிவகுக்கும்	-3528
▁நடவடிக்கைகளின்	-3529
▁தன்னுடைய	-3530
▁குஜ	-3531
▁அந்தந்த	-3532
▁ஆட்சேர்ப்பு	-3533
▁மருந்து	-3534
▁போலீஸ்	-3535
▁மறுசீர	-3536
▁பதிவில்	-3537
▁வடிவத்தில்	-3538
▁பின்னணியில்	-3539
▁பெண்கள்	-3540
ழ்வு	-3541
வைப்	-3542
▁ஆணையர்	-3543
ஜா	-3544
▁நபர்களின்	-3545
ச்சு	-3546
▁என்னை	-3547
▁கோரிய	-3548
▁பதிலளித்தவர்கள	-3549
லோ	-3550
▁எழுதிய	-3551
▁தற்போதுள்ள	-3552
▁இதுவரை	-3553
வந்த	-3554
▁உழை	-3555
▁கால்	-3556
▁குஜரா	-3557
▁பஞ்சாப்	-3558
▁சேவையில்	-3559
▁ஆவணங்கள்	-3560
ாக்கு	-3561
▁ஆரோ	-3562
ரையும்	-3563
▁கருத்த	-3564
▁விரிவாக	-3565
▁அந்தக்	-3566
▁அறிந்து	-3567
▁பால்	-3568
ப்படுவதை	-3569
▁அல்லாத	-3570
த்திற்குப்	-3571
ுடனும்	-3572
▁நொ	-3573
▁ஏற்படும்	-3574
▁சூப்பரா	-3575
▁மானிய	-3576
▁துப்பா	-3577
▁விஷயம்	-3578
▁அறிவிக்க	-3579
▁தேதியிலிருந்து	-3580
முறையை	-3581
▁பரிசோதனை	-3582
▁உதவ	-3583
ள்ளது	-3584
▁கொல்ல	-3585
ொண்டார்	-3586
▁எழுத	-3587
▁மரிய	-3588
▁விதிக்கப்பட்ட	-3589
ாவிய	-3590
மினல்	-3591
▁வியா	-3592
ீர்கள்	-3593
▁புறக்கண	-3594
▁முன்கூட்டியே	-3595
ாகக்	-3596
▁பட்டியலில்	-3597
ஷ்ண	-3598
▁சாதி	-3599
▁ஊதியம்	-3600
▁விண்ணப்பதார	-3601
ொடர்ப	-3602
▁வேண்டுமென்ற	-3603
▁உத்தியோகபூர்வ	-3604
ர்ச்சி	-3605
▁தலையிட	-3606
▁கிரிமினல்	-3607
▁நாளிலிருந்து	-3608
▁லெ	-3609
▁டால	-3610
▁செயல்	-3611
ியுள்ளார்	-3612
▁கையாளும்	-3613
▁சர்ச்சை	-3614
▁கலந்துரையா	-3615
▁000	-3616
▁தயாராக	-3617
▁ஆகியவற்றைக்	-3618
▁வாடிக்க	-3619
▁செய்கிறது	-3620
▁இளைஞ	-3621
கே	-3622
▁நூற்ற	-3623
▁அந்தச்	-3624
▁சதவிகி	-3625
▁அதிகாரப்பூர்வ	-3626
சார்	-3627
▁ஏனென்றால்	-3628
▁இணக்க	-3629
▁மாதிரி	-3630
▁எச்சரிக்க	-3631
▁பற	-3632
▁வன்	-3633
▁ஒத்த	-3634
▁பதவியில்	-3635
▁பரவ	-3636
▁ஸ்ப	-3637
▁வகையிலும்	-3638
▁ஆழ	-3639
▁பெறும்	-3640
▁மகாராஷ்டிர	-3641
வுப	-3642
▁சங்கம்	-3643
▁தனக்கு	-3644
▁முடிவுகளை	-3645
▁கேரள	-3646
▁குறைவான	-3647
ிருந்தனர்	-3648
▁அறிக்கைகள்	-3649
▁அறிவிப்பின்	-3650
டுப்பது	-3651
▁நிரப்ப	-3652
▁தோற்ற	-3653
▁செய்துள்ளது	-3654
ப்படுவார்	-3655
▁சூழ்நிலையில்	-3656
▁உண்மைகளை	-3657
▁மூன்றாவது	-3658
▁சார்பில்	-3659
▁விகிதத்தில்	-3660
▁கோட்பாடு	-3661
ன்த	-3662
▁உறவு	-3663
ியூ	-3664
▁காலியிட	-3665
▁தேவையற்ற	-3666
▁ஏராளமான	-3667
▁பதிலளிப்ப	-3668
ம்முடைய	-3669
▁பத்தியில்	-3670
ிலா	-3671
▁ஆய்வ	-3672
▁செய்தனர்	-3673
ாவ்	-3674
▁சவு	-3675
த்தறி	-3676
▁இருப	-3677
▁விட்ட	-3678
▁விஷயங்களில்	-3679
▁ஓர	-3680
▁சேத	-3681
▁உத்தரவில்	-3682
▁காலத்திற்குள்	-3683
ுவதாக	-3684
்க்	-3685
▁ஆங்க	-3686
விதி	-3687
▁முற்ப	-3688
▁போதிலும்	-3689
▁வரையறுக்கப்பட்ட	-3690
யில	-3691
▁பிடி	-3692
▁சீன	-3693
▁சென்	-3694
▁என்பதற்கு	-3695
▁மொழிய	-3696
▁சதவீதம்	-3697
▁குற்றவாள	-3698
▁எண்ணிக்கை	-3699
१२	-3700
▁வெளியிடப்பட்ட	-3701
▁உரிமம்	-3702
▁சப்	-3703
குந்த	-3704
ையோ	-3705
த்தனர்	-3706
▁வருவாய	-3707
த்தன்மையை	-3708
▁திருமணம்	-3709
▁அமைச்சகம்	-3710
▁ரிச	-3711
▁பாரபட்ச	-3712
▁பணிபு	-3713
▁o	-3714
▁சாட்சிகளின்	-3715
▁அரசாங்கத்தால்	-3716
▁நாளில்	-3717
▁நிபந்தனைகள்	-3718
▁வரிச	-3719
க்குள்	-3720
ப்பதற்காக	-3721
▁முடிவுகள்	-3722
லைக்	-3723
▁தனியுரிமை	-3724
▁செலவின	-3725
▁குற்றங்கள்	-3726
▁பெறுவதற்கான	-3727
▁கூறுவ	-3728
▁கவுன்சில	-3729
ியோ	-3730
கமான	-3731
▁காரணி	-3732
▁முடியுமா	-3733
விட்டார்	-3734
▁வெளியிடுவ	-3735
▁அதனுடன்	-3736
▁கோப	-3737
▁ஆன	-3738
▁அவ்வப்போது	-3739
ர்க்	-3740
▁இருப்பதை	-3741
▁குத்தகைதாரர்	-3742
▁கட்சிகளின்	-3743
▁அமைக்கப்பட்ட	-3744
▁ஏற்படுத்தும்	-3745
▁உருவாக்கப்பட்ட	-3746
▁கொள்கைகளை	-3747
கசிய	-3748
▁அறிவியல்	-3749
▁ஊக்குவ	-3750
ிலேயே	-3751
ங்கா	-3752
ெக்ட	-3753
▁ராம	-3754
ாளரால்	-3755
▁குடியிருப்பு	-3756
▁ஹை	-3757
▁வேண்டுமென்றே	-3758
▁வீட்டு	-3759
▁விஷயங்கள்	-3760
ஷ்ப	-3761
▁ஆலை	-3762
▁வாஷி	-3763
ப்படாது	-3764
▁பெரும்பாலான	-3765
▁சட்டத்திற்கு	-3766
▁ஃ	-3767
▁எதிர்க்க	-3768
▁ன்	-3769
▁தேவைப்படும்	-3770
▁நீதியின்	-3771
▁நிலக்க	-3772
▁இடங்களில்	-3773
▁நிறைவேற்றிய	-3774
▁சவால	-3775
▁சது	-3776
▁ஆதார்	-3777
க்கப்படவில்லை	-3778
▁கவனி	-3779
▁பழங்கு	-3780
ரிக்	-3781
▁ஈராக்	-3782
ஆர்	-3783
▁பழைய	-3784
▁தனித்துவ	-3785
▁வாடிக்கைய	-3786
▁அறக்கட்டளை	-3787
ரக	-3788
▁பரப்ப	-3789
▁காப்பு	-3790
▁ஹரியான	-3791
▁ஆலோசகரின்	-3792
▁மூட	-3793
▁பிரமாணப்	-3794
▁வைத்திருக்கும்	-3795
எம்	-3796
▁கிராமப்புற	-3797
▁சம்ம	-3798
▁முத்திர	-3799
▁விவரங்கள்	-3800
▁ஒழுங்குபடுத்த	-3801
▁வைத்து	-3802
▁தகராறு	-3803
▁வாஷிங்ட	-3804
▁ஆண்டுகளாக	-3805
▁செயல்பாட்டு	-3806
▁ஊழியர்	-3807
▁எழுந்த	-3808
▁அமைப்பின்	-3809
▁வழக்குகளை	-3810
▁கவனம்	-3811
▁ஆங்கில	-3812
▁செய்வதற்காக	-3813
▁செய்வதற்கும்	-3814
▁விற்பனைய	-3815
▁அதிகாரிகளின்	-3816
▁காசோலை	-3817
▁காட்டப்பட்ட	-3818
▁உலகளாவிய	-3819
▁பஞ்சாய	-3820
ட்படுத்த	-3821
▁ஆன்	-3822
▁தங்க	-3823
▁செயல்படும்	-3824
ர்வ்	-3825
▁நபரை	-3826
▁கிழக்கு	-3827
▁முன்னுரிமை	-3828
▁பெயரில்	-3829
▁வீடியோ	-3830
▁சொற்கள	-3831
▁கைப்பற்ற	-3832
▁திட்டங்களை	-3833
ோபாய	-3834
ப்பிர	-3835
▁கடைசி	-3836
ிருக்கலாம்	-3837
▁உறுதிய	-3838
▁பாராளுமன்றம்	-3839
▁பிரிவுகளின்	-3840
▁ஆளும்	-3841
்களையும்	-3842
▁எதிர்கொள்ள	-3843
▁செய்யலாம்	-3844
▁நிறைவேற்று	-3845
▁சமரச	-3846
▁வரையிலான	-3847
▁காங்க	-3848
▁மக்களுக்கு	-3849
▁வரையறை	-3850
▁சண்ட	-3851
▁வரம்பை	-3852
▁கட்டுரைகள்	-3853
வரால்	-3854
▁வழங்கியது	-3855
▁ஒத்தி	-3856
திக்க	-3857
▁காணவில்லை	-3858
▁நாட்களுக்குள்	-3859
க்கின்	-3860
▁தரம்	-3861
▁பிரெ	-3862
▁பங்களிப்பு	-3863
▁பத்து	-3864
மையையும்	-3865
▁நிர்வாகத்தின்	-3866
▁யோ	-3867
ிழ	-3868
▁லா	-3869
▁அரு	-3870
குதியில்	-3871
▁அறிவிப்ப	-3872
▁அதிகபட்ச	-3873
▁செய்யப்பட்டு	-3874
▁அமைச்சர்	-3875
▁அத்தியாயம்	-3876
▁மாதம்	-3877
முடியாத	-3878
▁நாடாளுமன்ற	-3879
▁பங்குதார	-3880
▁மிகப்பெ	-3881
நாடு	-3882
▁அன்ப	-3883
▁நான்க	-3884
▁திணை	-3885
▁காரணத்திற்காக	-3886
ஹி	-3887
▁திணைக்கள	-3888
▁ஒழுக்க	-3889
▁கலால்	-3890
▁மரியாத	-3891
▁கிடைத்த	-3892
▁குறைக்க	-3893
▁மதிப்பெ	-3894
▁மாக	-3895
▁சேர்க்கை	-3896
▁பகுப்பாய்வு	-3897
▁தொடர்புடையது	-3898
▁ஆதரவ	-3899
▁உரிமைகோரல்	-3900
▁கொண்டிருக்கும்	-3901
▁ஏன்	-3902
▁வல்ல	-3903
னிம	-3904
ம்பரிய	-3905
▁நிலுவைத்	-3906
▁இல்லையெனில்	-3907
▁பிந்தைய	-3908
▁உச்சநீதிமன்றம்	-3909
மயமாக்க	-3910
▁சமீபத்திய	-3911
▁நம்பர்	-3912
▁உங்களுக்கு	-3913
▁அழைத்துச்	-3914
▁கவனித்தது	-3915
▁சொந்தமான	-3916
ப்படியான	-3917
ுவை	-3918
▁காலத்தில்	-3919
▁பாரம்பரிய	-3920
▁தகுதியற்ற	-3921
▁ரயில்வே	-3922
▁ரிசர்வ்	-3923
▁கடின	-3924
▁மூலமும்	-3925
ப்படாவிட்டால்	-3926
▁அரி	-3927
்தா	-3928
▁முன்னணி	-3929
▁முன்னதாக	-3930
▁பகுத்தறி	-3931
ருப்பு	-3932
▁விம	-3933
ட்டில்	-3934
▁மறைமுக	-3935
க்ஷ	-3936
ல்லிய	-3937
▁நியூ	-3938
▁விபத்து	-3939
▁வைக்கப்பட்ட	-3940
▁பிரை	-3941
▁எதையும்	-3942
▁தெளிவாகக்	-3943
▁தாக்குதல்	-3944
▁பெரும்பாலும்	-3945
சாரி	-3946
▁உள்ளனர்	-3947
▁பதவிக்கு	-3948
ெக்டர்	-3949
ப்படுத்துதல்	-3950
▁லாப	-3951
டூ	-3952
க்தி	-3953
▁யார்	-3954
▁தக்கவை	-3955
தானால்	-3956
▁சார்ந்த	-3957
▁என்பதுதான்	-3958
▁க்கும்	-3959
▁பார்வைய	-3960
▁முறையே	-3961
டம்	-3962
▁ஆட்சிய	-3963
▁வேளா	-3964
▁அழைக்க	-3965
வ்வ	-3966
க்குவது	-3967
▁ஆந்திர	-3968
த்தக்கது	-3969
▁பிரச்சினைகள்	-3970
தோ	-3971
▁கணக்கிட	-3972
▁தகவல்கள்	-3973
▁சொத்துக்கள்	-3974
▁முடியாதது	-3975
▁எல்லைக்குள்	-3976
▁ஜீ	-3977
▁vi	-3978
▁மரணம்	-3979
▁முன்மொழி	-3980
லால்	-3981
ப்பிடி	-3982
மையும்	-3983
▁செலவுகள்	-3984
ட்டோ	-3985
▁உள	-3986
▁காங்கிர	-3987
ஞ்	-3988
▁திறனை	-3989
க்கப்படலாம்	-3990
எல்	-3991
▁அதிப	-3992
▁மீறி	-3993
▁அடமான	-3994
▁உள்ளதா	-3995
▁வகுப்பு	-3996
▁அனைவரும்	-3997
▁சம்பள	-3998
த்துவிட்ட	-3999
▁ஆரோக்கிய	-4000
▁ஆப்க	-4001
▁செல்வா	-4002
▁இறுதியாக	-4003
▁குழந்தைகள்	-4004
▁தடைசெய்ய	-4005
▁தடுத்து	-4006
▁கடுமையாக	-4007
▁வாரி	-4008
▁கட்டுர	-4009
▁உறுதியான	-4010
▁பிரித்தெ	-4011
▁சை	-4012
▁வாங்கிய	-4013
▁ரஷ்	-4014
▁சட்டமன்றத்தின்	-4015
▁மாட்ட	-4016
ைக்குரிய	-4017
▁நுகர்வோர்	-4018
▁நீக்கம்	-4019
ையின	-4020
▁நாடுகள்	-4021
ிற்காக	-4022
▁கோரிக்கையை	-4023
▁மாநிலங்கள்	-4024
▁மகாராஷ்டிரா	-4025
▁படிவ	-4026
▁மின்ன	-4027
ரியா	-4028
▁சோத	-4029
▁தாமதம்	-4030
▁குஜராத்	-4031
▁விரும்பும்	-4032
▁தவறிய	-4033
▁மந்திரி	-4034
▁செயல்பாட்டில்	-4035
▁என்பதற்கான	-4036
▁அமெரிக்காவின்	-4037
ென்	-4038
▁கத	-4039
▁தடைய	-4040
ல்களில்	-4041
▁அளிக்கப்பட்ட	-4042
▁தமிழ	-4043
▁நாணய	-4044
▁வரைவு	-4045
▁ஜனநாயகக்	-4046
▁நம்புக	-4047
▁ஒன்றாக	-4048
ிலிருந்தும்	-4049
▁மும்பை	-4050
▁உள்ளீடு	-4051
▁கொள்கைகள்	-4052
▁பயன்படுத்து	-4053
▁விளைய	-4054
▁தவிர்ப்ப	-4055
▁அங்கீகாரம்	-4056
▁அளி	-4057
▁தெரிவ	-4058
▁விதிகளின்படி	-4059
▁பிட	-4060
▁இயக்குனர்	-4061
ப்படுத்துகிறது	-4062
ணு	-4063
ுள்ளோம்	-4064
▁கட்டளைய	-4065
▁உரிமைகோருப	-4066
▁பின்த	-4067
▁குறிப்பிடுவ	-4068
▁iv	-4069
▁ஹரியானா	-4070
▁ப்	-4071
▁சுத்த	-4072
▁அந்நிய	-4073
நக	-4074
▁மகன்	-4075
லைப்	-4076
ுற்ற	-4077
க்கவில்லை	-4078
▁மிகக்	-4079
ப்பதை	-4080
▁திரை	-4081
ெற்ற	-4082
▁உர	-4083
▁இந்தப்	-4084
▁நடந்து	-4085
▁அதற்கான	-4086
is	-4087
▁ஆர்ப்ப	-4088
▁குறைந்தபட்சம்	-4089
▁கான்	-4090
▁பாதுகாப்பை	-4091
▁பிபி	-4092
▁வேலைவாய்ப்பு	-4093
▁பக்	-4094
கட	-4095
▁ஏக்க	-4096
▁சமூகம்	-4097
▁முன்னெ	-4098
▁அதேபோல்	-4099
▁குடியரசு	-4100
க்கும்போது	-4101
▁கூட்டத்தில்	-4102
▁ஒளி	-4103
▁கண்	-4104
▁தலைமைய	-4105
▁நினைவு	-4106
▁வருங்கால	-4107
▁கூடிய	-4108
ார்ப்பு	-4109
▁போதுமானதாக	-4110
டர்	-4111
▁அதிகாரங்கள்	-4112
▁சாட்சிகள்	-4113
▁செயல்திறன்	-4114
▁பயன்படுத்தப்பட	-4115
தாவது	-4116
ராட்சி	-4117
▁காயமடைந்த	-4118
▁தந்தை	-4119
▁வலுவான	-4120
ப்படுகிறார்	-4121
ாமி	-4122
▁அவற்றை	-4123
▁வரிவிதி	-4124
ர்மற	-4125
▁சிறப்ப	-4126
▁வேண்டுமா	-4127
▁எஸ்ட	-4128
▁பவன	-4129
▁படைய	-4130
▁விரைவாக	-4131
▁உட்க	-4132
ாண்டு	-4133
▁வருமானத்தை	-4134
ப்படுகிறார்கள்	-4135
▁தன்னார்வ	-4136
▁வீட்டிற்கு	-4137
▁வெற்றிக	-4138
▁ஊழல்	-4139
ின்றது	-4140
▁மேம்பாடு	-4141
▁சம்பவம்	-4142
▁நிகழ	-4143
▁ஒன்றாகும்	-4144
▁நவீன	-4145
▁தற்	-4146
▁பத்திரம்	-4147
▁காலகட்ட	-4148
ாட்	-4149
ic	-4150
▁செருக	-4151
▁Ex	-4152
▁முன்னில	-4153
▁கொடுத்து	-4154
▁தாது	-4155
ரியின்	-4156
▁பாகுப	-4157
▁ஸ்தாப	-4158
▁உத்தரவுகள்	-4159
▁விண்ணப்பதாரர்	-4160
▁கிரு	-4161
▁ஆணையை	-4162
▁ஆராய்ந்த	-4163
▁கொண்டிருந்த	-4164
நீக்கம்	-4165
ண்டர்	-4166
▁இலிருந்து	-4167
்டு	-4168
▁அனுபவ	-4169
▁வியாப	-4170
▁மனுதாரரின்	-4171
▁வழங்குவதில்	-4172
ர்களைக்	-4173
ுவிட்டது	-4174
▁பம்பாய்	-4175
▁வெற்றிட	-4176
▁அதிகாரசப	-4177
▁தனித்துவமான	-4178
கார்	-4179
▁கொள்	-4180
▁தங்களது	-4181
▁வங்கியின்	-4182
▁உள்கட்டமைப்பு	-4183
ரைக்	-4184
▁ஆசிய	-4185
ழிப்பு	-4186
▁இதேபோன்ற	-4187
▁d	-4188
▁விஞ்	-4189
▁சுற்றற	-4190
▁தற்செய	-4191
▁வக்கீல்	-4192
▁முன்பே	-4193
ாளிகள்	-4194
ிஸ்தான	-4195
▁ஆர்ப்பாட்ட	-4196
க்குவதற்கு	-4197
▁பராமரிப்பு	-4198
▁கார்ப்பரேஷன்	-4199
▁அசோ	-4200
▁१	-4201
▁நபர்களுக்கு	-4202
நெ	-4203
▁வழங்குந	-4204
▁மெட்ரா	-4205
டுக	-4206
▁கூறப்பட்டது	-4207
▁தெளிவாகத்	-4208
▁ஒப்பந்தக்கார	-4209
ாவிற்கு	-4210
▁வாதத்தை	-4211
▁ஓய்வூதியம்	-4212
▁அரசாங்கத்திற்கு	-4213
ண்டி	-4214
▁அல்	-4215
ிட்டல்	-4216
▁மூலோபாய	-4217
▁உள்ளடக்க	-4218
▁விருப்பப்படி	-4219
ட்ரோ	-4220
▁அப்பாற்ப	-4221
மயம்	-4222
▁அரை	-4223
திப	-4224
த்தள	-4225
▁விழு	-4226
▁துணைப்பிரிவின்	-4227
▁ஏற்பட	-4228
▁பிறந்த	-4229
▁ஆலோசனையை	-4230
▁பெஞ்சின்	-4231
ணர்வு	-4232
▁புகை	-4233
மூலம்	-4234
▁மரணத	-4235
▁மனுக்கள்	-4236
▁கொண்டுவர	-4237
▁விவகாரம்	-4238
३०	-4239
▁விஞ்ஞான	-4240
▁கொடூ	-4241
ல்களின்	-4242
▁மனைவிய	-4243
ித்தார்	-4244
▁தடுப்ப	-4245
▁கூறுவதானால்	-4246
▁பங்கேற்ப	-4247
▁புரிந்துக	-4248
▁மேல்முறையீடுகள்	-4249
▁வழியில்	-4250
▁பயன்படுத்தி	-4251
ாந்திர	-4252
▁படித்த	-4253
▁பிடபிள்யூ	-4254
▁அரசியலமைப்பை	-4255
த்ய	-4256
▁xx	-4257
ுறுத்து	-4258
▁விருப்பம்	-4259
AR	-4260
▁தவிர்த்த	-4261
ிருக்கிறார்	-4262
ப்பட்டுள்ளபடி	-4263
ுமாறு	-4264
▁சட்டங்களின்	-4265
▁பார்க்கும்போது	-4266
▁வாதம்	-4267
ியளவில்	-4268
▁திருப்பிச்	-4269
▁ஊழியர்களின்	-4270
▁சேவையை	-4271
▁பெற்றார்	-4272
▁மனுதாரருக்கு	-4273
▁உத்தரவிட	-4274
▁குறியீட்டின்	-4275
▁மாற்றம்	-4276
▁விமர்ச	-4277
▁இந்தத்	-4278
ர்களுடன்	-4279
ூரில்	-4280
▁இரவு	-4281
▁விகிதம்	-4282
ேலிய	-4283
▁இணைந்து	-4284
▁கருத்துக்களை	-4285
▁சந்திர	-4286
▁தயாரிப்ப	-4287
▁உறுப்பினராக	-4288
▁கம்	-4289
▁பிழை	-4290
▁முஸ்	-4291
ிப்பதன்	-4292
▁உதவும்	-4293
▁தெளிவுப	-4294
▁மது	-4295
▁நோட்ட	-4296
▁அதிகாரங்களைப்	-4297
வதை	-4298
▁கூடாது	-4299
▁பற்றாக்கு	-4300
ேயுள்ள	-4301
▁அனைவருக்கும்	-4302
னல்	-4303
▁லால்	-4304
▁சாத்தியமான	-4305
▁கட்சிகளுக்கு	-4306
சமயம்	-4307
தாகத்	-4308
ப்பாடு	-4309
▁அனுபவம்	-4310
▁போன	-4311
▁ஆளுநர்	-4312
▁வழங்குதல்	-4313
▁செலுத்தும்	-4314
ிஸ்	-4315
க்ஸ்	-4316
▁பீகார்	-4317
▁சொற்கள்	-4318
▁கடைசிய	-4319
▁யோச	-4320
▁உயிர	-4321
ாயிர	-4322
▁இந்தியாவுக்கு	-4323
▁கொள்ளும்	-4324
▁ஒன்றை	-4325
▁ஆஸ்திர	-4326
த்தின்படி	-4327
ப்பட்டனர்	-4328
▁துப்பாக்கி	-4329
ஜன	-4330
▁இலக்கு	-4331
▁அமைந்துள்ள	-4332
▁ஷா	-4333
▁காட்சி	-4334
▁கொள்முதல்	-4335
▁இருக்கக்கூடாது	-4336
▁பிரெஞ்சு	-4337
▁முறையீடுகள்	-4338
▁சித்த	-4339
சரி	-4340
▁போலீ	-4341
▁சட்டங்களை	-4342
▁சந்தர்ப்பத்தில்	-4343
▁கிற	-4344
ொருட	-4345
▁டோ	-4346
க்காவ	-4347
வேட்	-4348
▁வாய்ப்பை	-4349
பை	-4350
▁இழந்த	-4351
▁மணியளவில்	-4352
▁விதிமுற	-4353
▁அணுகுமுறை	-4354
▁நாய	-4355
▁குறிப்பிடுவது	-4356
▁அதேசமயம்	-4357
▁விதிவிலக்கு	-4358
▁தனித்தனிய	-4359
▁பாதிக்கும்	-4360
▁செல்லும்	-4361
▁பிரைவேட்	-4362
ரைப்	-4363
ம்பண்ண	-4364
▁சுங்க	-4365
▁பஞ்சாயத்து	-4366
▁விளம்பரம்	-4367
▁தண்டனைக்குரிய	-4368
லீ	-4369
▁இப்பொழுது	-4370
▁கொடு	-4371
ேஷ	-4372
ாதான	-4373
▁இந்	-4374
▁வட்ட	-4375
▁கையாண்ட	-4376
த்தைச்	-4377
▁பெறுவ	-4378
▁பத்திரிகை	-4379
▁மாநிலத்திற்கு	-4380
்களும்	-4381
ாடும்	-4382
▁ஐப்	-4383
▁முடிவெ	-4384
▁ஏற்பட்டது	-4385
▁நிரூபிக்கப்பட்ட	-4386
த்திலே	-4387
▁இருவரும்	-4388
▁மாகாண	-4389
▁நிலைப்பாட்டை	-4390
▁இயலா	-4391
▁நாடுகளில்	-4392
▁கார்ப்பரேட்	-4393
▁மரணதண்டனை	-4394
▁குறிப்பிடு	-4395
த்தொகை	-4396
ாவசிய	-4397
ரியில்	-4398
▁வித்திய	-4399
ம்ஸ்	-4400
▁கணவர்	-4401
▁கலந்துரையாட	-4402
▁u	-4403
ுபான்	-4404
▁ஆஜராக	-4405
▁கலந்த	-4406
ரன்	-4407
▁முரணானது	-4408
சக்தி	-4409
▁ட்	-4410
மென்ட்	-4411
ொடர்பு	-4412
▁படத்தில்	-4413
▁சபா	-4414
▁புலன	-4415
▁கடமையை	-4416
▁குற்றத்திற்காக	-4417
▁ஓட்டு	-4418
▁நிர்வகிக்க	-4419
கமாக	-4420
▁சமாதான	-4421
▁சிறுபான்	-4422
▁அடிக்க	-4423
▁இடமின்றி	-4424
▁வித்தியாச	-4425
▁முன்பாக	-4426
▁வழிநடத்த	-4427
▁அத்தியாவசிய	-4428
▁முக்கியமாக	-4429
ர்வை	-4430
▁உணர	-4431
▁நடிக்க	-4432
ஷ்பிர	-4433
ிக்கப்படலாம்	-4434
▁தார	-4435
▁நிலக்கரி	-4436
ப்படுவதில்லை	-4437
▁அதிகாரத்தைப்	-4438
▁அரசியலமைப்பில்	-4439
▁குண்டு	-4440
▁இருக்கிற	-4441
▁தொடங்கிய	-4442
▁நிறுவனங்களுக்கு	-4443
▁ஹோ	-4444
▁வாகனம்	-4445
▁வேண்டாம்	-4446
▁துஷ்பிர	-4447
▁நலன்களை	-4448
▁பணத்தை	-4449
மனே	-4450
ழகம்	-4451
▁ஆகியோரின்	-4452
▁முயற்சிகள்	-4453
▁விதிக்கப்படும்	-4454
▁தேதிக்கு	-4455
▁கருத்துப்படி	-4456
▁பத்திரத்தை	-4457
னைப்	-4458
▁லே	-4459
▁எல்லை	-4460
▁வழங்கல்	-4461
▁மதிப்பெண	-4462
▁தடுப்புக்காவ	-4463
▁எடுப்ப	-4464
ளிய	-4465
ப்து	-4466
▁முடிக்க	-4467
▁நிலைக்கு	-4468
▁வருடாந்திர	-4469
ித்தன	-4470
ட்பட்ட	-4471
▁வெறுமனே	-4472
சாப்த	-4473
ுக்கள்	-4474
▁வழங்கப்படவில்லை	-4475
▁தீர்ப்பாயத்தால்	-4476
▁சபை	-4477
▁இருத	-4478
்ட்ட	-4479
▁வீட்டில்	-4480
▁இதன்மூலம்	-4481
▁பில்லியன்	-4482
▁வாக்கள	-4483
▁சரிசெய்ய	-4484
▁கொண்டுள்ளன	-4485
▁அட்டவணையில்	-4486
▁எழுப்பிய	-4487
▁பல்கலைக்கழகம்	-4488
▁பரஸ்ப	-4489
▁பட்டியல	-4490
▁வேட்பாளர்	-4491
▁பதிலளிக்க	-4492
▁செலுத்தப்பட்ட	-4493
டியில்	-4494
▁பெறுவதற்கு	-4495
१३	-4496
▁கையில்	-4497
▁தசாப்த	-4498
▁குறிப்பிட்டது	-4499
▁வைக்கப்பட்டுள்ள	-4500
ீல்	-4501
▁நிகழ்ந்த	-4502
ஸி	-4503
▁கோருவ	-4504
▁விதியின்	-4505
▁வரம்பைப்	-4506
ப்படுகிற	-4507
▁செயல்பாடுகள்	-4508
▁பேசிய	-4509
▁முறையீட்டை	-4510
▁துல்லிய	-4511
▁விடுத்த	-4512
▁ஆராய்	-4513
▁கிடைக்கக்கூடிய	-4514
▁வங்கிய	-4515
ிடத்தில்	-4516
▁மிகுந்த	-4517
▁மீட்பு	-4518
ன்கள்	-4519
▁குப்த	-4520
▁தண்டனைச்	-4521
▁தரப்பில்	-4522
▁ஆப்கான	-4523
▁அவற்றில்	-4524
▁கருத்துக்கள்	-4525
▁பண்ட	-4526
▁சபையின்	-4527
▁தவறானது	-4528
ாய்வழி	-4529
▁அனுபவி	-4530
▁பிரிவி	-4531
▁வசூலிக்க	-4532
▁திட்டத்தில்	-4533
▁முக்கியத்துவ	-4534
▁கணக்கி	-4535
▁முரண்பாடு	-4536
▁வாரியத்தின்	-4537
ச்சல	-4538
▁சார	-4539
▁ஆணைக்குழுவ	-4540
▁ஆஸ்திரேலிய	-4541
il	-4542
▁வலு	-4543
▁மெமோ	-4544
▁மகிழ்ச்சிய	-4545
▁தண்ண	-4546
▁உரையாற்ற	-4547
▁உதவுகிறது	-4548
▁ஜனாதிபதியின்	-4549
▁தாய	-4550
▁பெரி	-4551
▁எழுப்பப்பட்ட	-4552
▁வாதிடப்பட்டது	-4553
▁பிற்ப	-4554
▁பொறுப்பை	-4555
▁வரலாற்று	-4556
▁c	-4557
ஐடி	-4558
▁உணர்வு	-4559
ற்ச	-4560
▁துறையின்	-4561
▁ஹோட்ட	-4562
▁வாரிசு	-4563
▁கொடுக்கும்	-4564
▁அவதானிப்புகள்	-4565
▁வெறும்	-4566
▁நிறுவனத்தில்	-4567
▁பிரகட	-4568
▁சமமாக	-4569
▁டெல்ல	-4570
▁தயாரிக்கப்பட்ட	-4571
▁தங்கிய	-4572
▁காரணங்களை	-4573
▁வழங்குவதன்	-4574
னாகிய	-4575
▁சதுர	-4576
▁விதத்தில்	-4577
▁வேறுவ	-4578
▁செய்துள்ளார்	-4579
ொன்று	-4580
▁ஆபத்து	-4581
▁அதிகாரியின்	-4582
▁ஆயிர	-4583
▁பரிந்துரைக்க	-4584
காவ	-4585
▁எக்ஸ்	-4586
▁தேர்தலில்	-4587
▁கிளை	-4588
களுக்காக	-4589
▁செயல்படுவ	-4590
▁கையெழுத்திட்ட	-4591
ஹா	-4592
▁III	-4593
▁நண்ப	-4594
▁அதிகாரிகளுக்கு	-4595
▁பகிர	-4596
ட்டிஷ்	-4597
▁இரண்டாவதாக	-4598
▁தேவன	-4599
▁விழிப்பு	-4600
▁அடிப்படையிலான	-4601
ர்ட்	-4602
▁அமைச்சக	-4603
▁விதிமுறைகளின்	-4604
▁கையகப்படுத்தல்	-4605
▁வங்கிகள்	-4606
▁தொலைபே	-4607
▁டே	-4608
▁அன்	-4609
▁அதிகாரத்தால்	-4610
▁சால	-4611
▁உருவாக	-4612
ப்படுவதால்	-4613
▁இலக்க	-4614
லாக்க	-4615
▁ஆவணங்களை	-4616
▁என்றான்	-4617
▁கதை	-4618
சன்	-4619
வெளி	-4620
▁முறையை	-4621
மக்கு	-4622
▁ராஜா	-4623
▁மீறிய	-4624
▁அளவுகோ	-4625
▁சுமை	-4626
▁வருகை	-4627
▁உறுதியாக	-4628
▁நியாயமற்ற	-4629
▁ஏகா	-4630
▁பில	-4631
நாட்ட	-4632
▁புள்ளி	-4633
▁பதிப்பு	-4634
▁ஒத்துழைப்பு	-4635
▁நபர்களை	-4636
▁ரவ	-4637
▁எப்படி	-4638
▁சேவையின்	-4639
ிப்பதற்காக	-4640
▁திட்டமிடப்பட்ட	-4641
செய்து	-4642
▁மிகப்	-4643
▁காப்புரிமை	-4644
▁மெட்ராஸ்	-4645
வார	-4646
ாலை	-4647
▁வான	-4648
▁இந்தி	-4649
▁சான்றிதழ	-4650
▁திட்டவட்ட	-4651
▁தல	-4652
▁கேள்வியை	-4653
▁நிற்க	-4654
▁எழுதப்பட்ட	-4655
▁கருதப்பட்ட	-4656
▁வெகு	-4657
ரியும்	-4658
▁மக்களை	-4659
▁அடங்கிய	-4660
▁உலகின்	-4661
▁நடத்தப்பட்ட	-4662
சாலை	-4663
▁விருதை	-4664
▁அலட்சிய	-4665
ப்படுவார்கள்	-4666
▁பிரகா	-4667
▁மகா	-4668
▁பழங்குடிய	-4669
▁வழக்குகளின்	-4670
▁எப்போது	-4671
▁மாணவர்கள்	-4672
டனும்	-4673
ட்டுக்	-4674
▁காரணமும்	-4675
▁தீங்கு	-4676
▁உறுப்பினர்களின்	-4677
▁தகுதியான	-4678
மொழி	-4679
▁இடையேயான	-4680
ியன்	-4681
▁சாக	-4682
▁தோல்வியுற்ற	-4683
்க்கு	-4684
▁இயக்குநர்	-4685
பிர	-4686
▁ஓரளவு	-4687
▁வில்	-4688
▁வரிச்	-4689
▁மிகப்பெரிய	-4690
▁பொதுக்	-4691
▁பொருட்படுத்த	-4692
▁ஆர்வமுள்ள	-4693
க்குதல்	-4694
▁நாடுகளின்	-4695
▁ராஜஸ்தான்	-4696
▁வரையற	-4697
▁காயங்கள்	-4698
▁உள்ளார்ந்த	-4699
▁நோக்கமாகக்	-4700
▁அம்ப	-4701
▁ஏகாதிப	-4702
▁அதைப்	-4703
▁ஏற்பட்டால்	-4704
வல	-4705
ரியாக	-4706
▁நெருக்கடி	-4707
மூ	-4708
▁பிரிட்டிஷ்	-4709
us	-4710
▁ஏகாதிபத்திய	-4711
▁வறு	-4712
ிப்பாக	-4713
▁சமாள	-4714
ர்வில்	-4715
▁வன்முறை	-4716
ர்பி	-4717
▁உடல	-4718
ோதி	-4719
▁ஆதாய	-4720
▁சின்	-4721
ியம்	-4722
▁அப்படிய	-4723
ாக்க	-4724
▁செயல்முறைய	-4725
▁முக்கியமானது	-4726
▁ஊக	-4727
▁தாய்	-4728
வ்வளவு	-4729
▁WP	-4730
▁நிகழ்ச்சி	-4731
த்ரா	-4732
▁வரிவிதிப்பு	-4733
▁பசு	-4734
▁புகார்தாரர்	-4735
▁பலவீன	-4736
▁அப்பால்	-4737
▁புகழ	-4738
▁தற்கொலை	-4739
▁தலைவராக	-4740
▁சமர்ப்பிப்ப	-4741
ங்களைச்	-4742
▁குடியரச	-4743
▁கற்றுக்க	-4744
▁இராஜ	-4745
▁அதைத்	-4746
▁காலை	-4747
▁அலுவல	-4748
▁இணைய	-4749
▁தீவிரமாக	-4750
▁செய்யப்பட்டுள்ள	-4751
AC	-4752
டங்கு	-4753
▁இலங்கை	-4754
▁விரும்பவில்லை	-4755
▁விடுதலைப்	-4756
▁வலியுறுத்தினார்	-4757
▁பிழ	-4758
நேர	-4759
▁விவரிக்க	-4760
▁மறுத்துவிட்ட	-4761
வரையில்	-4762
▁நேரத்திலும்	-4763
▁மணிக்கு	-4764
▁அளவை	-4765
▁சத்த	-4766
▁கட்சிகள	-4767
▁தானாக	-4768
▁அவமதிப்பு	-4769
ாததால்	-4770
▁பொறுத்தது	-4771
▁உயிர்	-4772
▁கையகப்படுத்தும்	-4773
▁பிரசா	-4774
▁தூண்டு	-4775
▁என்னும்	-4776
▁தொழில்முறை	-4777
ரூ	-4778
▁லோக	-4779
▁துறைமுக	-4780
க்குகிறது	-4781
▁தீர்மானிக்கும்	-4782
el	-4783
▁வர்த்தமான	-4784
ம்பட	-4785
▁சரண	-4786
▁வரத	-4787
▁அனுப்பிய	-4788
ேல்	-4789
▁முது	-4790
▁கட்டணங்கள்	-4791
▁பேச்சுவார்த்தை	-4792
▁p	-4793
மில்லாத	-4794
▁முன்னோடி	-4795
▁கேட்டுக்க	-4796
▁நோக்கத்துடன்	-4797
▁வெளிப்படுத்திய	-4798
▁குடிமக	-4799
ாலோச	-4800
▁வீர	-4801
▁அம்சம்	-4802
▁எந்தப்	-4803
▁புலனாய்வு	-4804
▁கொண்டுவருவ	-4805
▁நபருக்கும்	-4806
▁கண்காணிப்பு	-4807
ராஜ்	-4808
▁ஆர்வம்	-4809
ிக்கொண்ட	-4810
▁விவேக	-4811
▁காப்பீட்டாள	-4812
னைக்	-4813
ுகின்றன	-4814
▁உரை	-4815
▁திய	-4816
▁உரிய	-4817
▁ராஜ்	-4818
ஸ்டர்	-4819
ைச்	-4820
▁போரா	-4821
ினாலும்	-4822
▁அட்டவணையின்	-4823
▁புதி	-4824
னுக்கும்	-4825
▁முதலாளி	-4826
▁ஆயுதங்கள்	-4827
▁ஈடுபட்டுள்ள	-4828
ிணை	-4829
▁விதிக்கப்பட	-4830
▁கலந்தாலோச	-4831
▁நடைமுறைகள்	-4832
▁n	-4833
யோகம்	-4834
▁அலுவலகம்	-4835
▁சேர்ந்து	-4836
▁மண்டல	-4837
▁வடிவமைக்கப்பட்ட	-4838
▁முனை	-4839
▁பொய்ய	-4840
▁சென்றார்	-4841
▁முதலீட்டாள	-4842
▁உத்தரவிட்டது	-4843
▁நீதித்துறையின்	-4844
முற்ற	-4845
▁பிரப	-4846
▁ஒப்பந்தங்கள்	-4847
▁சிரம	-4848
▁நீடி	-4849
ார்கள	-4850
▁அபாய	-4851
க்கியது	-4852
▁ஏற்றுக்கொள்வ	-4853
▁தமது	-4854
வரையும்	-4855
▁தீர்ப்புகள்	-4856
▁விளைவிக்கும்	-4857
▁நகல்	-4858
▁தாராள	-4859
▁ஆசிரியர்	-4860
ெடுப்பு	-4861
வர்களில்	-4862
▁இடமாற்றம்	-4863
▁காணப்பட்ட	-4864
▁பொறுத்து	-4865
▁செலுத்தப்பட	-4866
▁கற்றல்	-4867
▁வர்க்கத்தின்	-4868
▁மொஹ	-4869
▁மாதங்கள்	-4870
▁பொறுத்தவரையில்	-4871
▁வாய	-4872
▁சிதை	-4873
▁பகுதிகள்	-4874
▁நடைமுறைப்படுத்த	-4875
சே	-4876
▁முறைகே	-4877
▁ஊழியர்களுக்கு	-4878
▁க்	-4879
▁கடல்	-4880
▁வேளாண்	-4881
▁விரைவான	-4882
ட்டின்	-4883
▁காந்தி	-4884
வர்களும்	-4885
▁தணிக்கை	-4886
▁l	-4887
பெய	-4888
ாளியின்	-4889
▁அதிகமான	-4890
▁கொள்ளப்பட்ட	-4891
குதி	-4892
▁நிபுணர்	-4893
மாட்ட	-4894
ழ்ந்த	-4895
▁ஜாமீ	-4896
▁இந்தக்	-4897
▁பேச்சு	-4898
ித்துள்ள	-4899
▁வாய்வழி	-4900
▁வளர்ந்து	-4901
கும்	-4902
▁பட்	-4903
▁பாலின	-4904
▁விலக	-4905
▁ஒத்திவை	-4906
▁இழப்பீட்டு	-4907
▁படத்தை	-4908
▁கொண்டிருப்ப	-4909
▁இறக்கும்	-4910
▁சுதந்திரத்தை	-4911
மான்	-4912
▁அதிகாரங்களை	-4913
ப்பான	-4914
▁கைதி	-4915
▁பிரேத	-4916
▁கவர்	-4917
▁ஓட்டுந	-4918
ஷா	-4919
▁பன்	-4920
▁மனி	-4921
▁ஒன்றிணை	-4922
▁நம்பகத்தன்மை	-4923
▁பெண்ண	-4924
▁பிரதிவா	-4925
▁காலகட்டத்தில்	-4926
▁எடுத்துக்காட்டு	-4927
ோகன்	-4928
▁நோயாளி	-4929
▁பாக்கி	-4930
▁பாலஸ்த	-4931
▁மின்சாரம்	-4932
ra	-4933
▁அன்ற	-4934
▁குரு	-4935
▁ஆண்டுக்கு	-4936
▁வருகின்றன	-4937
▁குண்ட	-4938
▁வரதட்ச	-4939
▁குடியிருப்ப	-4940
▁துஷ்பிரயோகம்	-4941
▁பில்	-4942
▁வழியாக	-4943
▁விரைவில்	-4944
▁பொறுப்பேற்க	-4945
▁சலுகைகள்	-4946
▁வெளியீடு	-4947
▁வகைப்படுத்த	-4948
ுகிறது	-4949
▁xxx	-4950
ொருவர்	-4951
▁பரஸ்பர	-4952
▁ஆதாரங்கள்	-4953
▁குறைந்தது	-4954
▁குண	-4955
்பெற்ற	-4956
▁மீறுவ	-4957
▁மாநாடு	-4958
▁திறம்பட	-4959
▁வசதிகள்	-4960
▁முதலீட்டு	-4961
▁நீதிமன்றமும்	-4962
ையைக்	-4963
▁நெறி	-4964
▁இறப்பு	-4965
▁புகைப்பட	-4966
▁மனுக்களை	-4967
▁கொண்டிருந்தது	-4968
▁அதிகாரத்திற்கு	-4969
ியைக்	-4970
▁ஆதாரங்களின்	-4971
▁தனித்தனியாக	-4972
▁செலுத்திய	-4973
▁மத்தியஸ்த	-4974
▁கீழேயுள்ள	-4975
▁பொறுப்பான	-4976
▁குறைபாடுகள்	-4977
ிக்கான	-4978
▁எங்களால்	-4979
ுக்கள	-4980
லுக்கான	-4981
▁கவனமாக	-4982
ிங்	-4983
▁உத்தரவும்	-4984
▁டிஜ	-4985
▁நுழைந்த	-4986
▁துருப்பு	-4987
▁அளிக்கும்	-4988
▁வேற	-4989
▁கிருஷ்ண	-4990
▁முழ	-4991
▁பன்ன	-4992
▁வளர்ப்ப	-4993
▁வைத்துக்	-4994
▁மாற்றப்பட்ட	-4995
▁வீத	-4996
ட்டுக்கு	-4997
▁விவசாயி	-4998
▁கடைசியாக	-4999
▁புள்ளிவி	-5000
▁நம்பகமான	-5001
▁சேர்ப்ப	-5002
▁தலைவர்கள்	-5003
▁உண்ட	-5004
▁கீழும்	-5005
it	-5006
▁சஞ்ச	-5007
▁பரிமாற்றம்	-5008
▁முன்வைக்கப்பட்ட	-5009
ரொ	-5010
▁கார்	-5011
▁லோ	-5012
ஜித்	-5013
▁துர	-5014
▁நடந்தது	-5015
▁வைக்கப்பட	-5016
▁கொழு	-5017
▁முகா	-5018
தியும்	-5019
வருக்க	-5020
▁கடமைய	-5021
▁அர்ப்ப	-5022
▁குழப்ப	-5023
▁துறைகளில்	-5024
▁முன்னேற்றம்	-5025
▁தொழில்நுட்பம்	-5026
▁தேவைப்படுகிறது	-5027
▁புகழ்பெற்ற	-5028
▁வர்	-5029
▁ஈரான	-5030
டுகின்றன	-5031
▁இடம்ப	-5032
▁சரியானது	-5033
▁டிஜிட்டல்	-5034
▁வெளியிடப்பட்டது	-5035
கொண்ட	-5036
▁விடுப	-5037
▁வரிசையில்	-5038
வரான	-5039
▁பத்திரங்கள்	-5040
▁ஐடி	-5041
▁இவற்ற	-5042
திவு	-5043
▁கவனத்தை	-5044
▁தொழிலாளர்கள	-5045
▁நோட்டீஸ்	-5046
▁மாறி	-5047
▁நட்பு	-5048
▁படிவம்	-5049
▁வரவே	-5050
▁அவர்களது	-5051
▁வேலைநிறுத்த	-5052
▁பெயரிட	-5053
▁கொடூரமான	-5054
▁தரு	-5055
▁கிலோ	-5056
▁தீர்ப்பளித்த	-5057
▁ஜெனர	-5058
னுக்கான	-5059
▁இருந்தனர்	-5060
▁புள்ளிவிவர	-5061
▁உறவின	-5062
▁கடினம்	-5063
▁சகோதரர்	-5064
▁மாற்றுவதற்கான	-5065
▁சராச	-5066
்கூட	-5067
▁கருணை	-5068
▁திரும்பி	-5069
▁துன்புறுத்த	-5070
▁நிறுவனங்களில்	-5071
▁ஒருங்கிணைப்பு	-5072
▁சர்ச்சைக்குரிய	-5073
▁தகுதியுடைய	-5074
ாலே	-5075
நாள்	-5076
ல்களுக்கு	-5077
▁முன்மொழிவு	-5078
▁இல்லாததால்	-5079
▁கார்ப்பரேஷ	-5080
▁அரசியலமைப்ப	-5081
ch	-5082
ேர்	-5083
ந்திய	-5084
▁உதாரண	-5085
▁நிறுத்தி	-5086
ிப்பதற்கும்	-5087
▁விளையாட்டு	-5088
▁மாநிலங்களில்	-5089
▁ஏழை	-5090
▁பாலி	-5091
▁வந்தார்	-5092
▁இயற்றப்பட்ட	-5093
ென்று	-5094
▁புனித	-5095
▁அவர்களில்	-5096
குற	-5097
▁எரிவாய	-5098
▁அதிகாரமும்	-5099
ம்ச	-5100
▁தோன்று	-5101
▁மேற்கொள்வ	-5102
▁பயன்படுத்துவதன்	-5103
த்தப்பட்ட	-5104
▁தேவைகள்	-5105
▁இராணுவம்	-5106
▁வரதட்சணை	-5107
ாட்டி	-5108
▁ரஷ்ய	-5109
மானால்	-5110
லையும்	-5111
▁தோல்வி	-5112
▁தெரிந்த	-5113
▁கட்டணத்தை	-5114
ூறு	-5115
▁ராய	-5116
▁கேள்விகள்	-5117
▁தவிர்த்து	-5118
▁டிர	-5119
னையாக	-5120
▁அடித்தள	-5121
▁பிரத்திய	-5122
▁பாதுகாக்கப்பட்ட	-5123
▁நோய்	-5124
▁மீட்டெடுப்ப	-5125
▁பிரதிவாதிகள்	-5126
டியை	-5127
▁கடமைகள்	-5128
▁தீர்ப்பையும்	-5129
▁உண்மைய	-5130
▁வடக்கு	-5131
ல்லா	-5132
▁ஊக்க	-5133
▁கூறியுள்ளது	-5134
▁மாசு	-5135
▁பாகுபாடு	-5136
ீட	-5137
▁கருவிய	-5138
மயமாக்கல்	-5139
▁வீழ்ச்ச	-5140
▁வெளியுறவு	-5141
▁விதிமுறைகளில்	-5142
நா	-5143
▁செய்தித்த	-5144
மைக்கு	-5145
▁வழங்கினார்	-5146
ணா	-5147
▁நன்	-5148
▁பயன்படுத்துவது	-5149
▁ஆராய்வ	-5150
▁பெட்ரோ	-5151
▁விலக்க	-5152
▁எழுத்த	-5153
ாவிட்டாலும்	-5154
▁அலுவலர்	-5155
▁சான்றிதழை	-5156
▁குப்தா	-5157
▁கொடுப்பனவு	-5158
▁கர்த்தருடைய	-5159
ுகிற	-5160
▁திட	-5161
வாற்ற	-5162
▁ஆக்கிரமிப்ப	-5163
ியைப்	-5164
▁கூற்ற	-5165
▁பெற்றோ	-5166
▁பிரத்தியேக	-5167
▁காஷ்	-5168
த்தினால்	-5169
▁பிரதமர்	-5170
▁வரலாற்ற	-5171
▁மாறுபட்ட	-5172
▁நலன்	-5173
▁தகவல்த	-5174
▁ஒற்று	-5175
▁தப்ப	-5176
▁எடுக்கும்	-5177
▁கட்டுப்பாட்ட	-5178
re	-5179
ன்றும்	-5180
ோடே	-5181
▁நகராட்சி	-5182
▁தொடங்கப்பட்ட	-5183
ஆர்பி	-5184
▁பொறி	-5185
▁மாறிய	-5186
▁ஆக்கிரமிப்பு	-5187
ட்டர்	-5188
▁பெற்றது	-5189
▁கனிம	-5190
▁குழுக்கள்	-5191
▁இருந்தபோது	-5192
▁சேர்க்கப்பட்ட	-5193
▁மட்டுப்படுத்த	-5194
ஸ்தான	-5195
▁இருப்பதைக்	-5196
டியின்	-5197
▁அதின்	-5198
▁கம்யூ	-5199
tion	-5200
ினரின்	-5201
பைல்	-5202
▁கிராம்	-5203
▁எட்டு	-5204
▁பரிந்துரைகள்	-5205
▁புவ	-5206
▁ஐந்த	-5207
ர்களையும்	-5208
ஸை	-5209
விற்கு	-5210
▁இயல்புநிலை	-5211
ினா	-5212
ேகம்	-5213
ாதாரண	-5214
▁ஆதரவை	-5215
கின்றது	-5216
▁விலங்கு	-5217
▁வாதிக்கு	-5218
▁பயன்படுத்துவ	-5219
▁வேட்பாளர்கள்	-5220
▁மார	-5221
▁பேராச	-5222
▁அவரைப்	-5223
▁மேற்கூறியவற்ற	-5224
டெ	-5225
▁குழுவில்	-5226
▁அஞ்ச	-5227
▁பரிசோதி	-5228
▁நன்ற	-5229
▁மீறல்	-5230
▁விரிவுபடுத்த	-5231
▁மாநிலங்களுக்கு	-5232
▁பணிகள்	-5233
▁மதிப்பை	-5234
க்கட	-5235
ரைத்	-5236
▁மாலை	-5237
▁கிறிஸ்த	-5238
▁தடைசெய்யப்பட்ட	-5239
ர்ப்புற	-5240
१४	-5241
லைத்	-5242
ாற்ற	-5243
▁படுக	-5244
▁சம்பாதி	-5245
▁தெளிவற்ற	-5246
▁க்கான	-5247
▁உறுப்பு	-5248
▁மதிப்புமிக்க	-5249
▁அமெரிக்காவில்	-5250
▁பண்பு	-5251
▁வலியுறுத்தல்	-5252
▁IV	-5253
▁திரைப்பட	-5254
▁உரிமையின்	-5255
▁சிக்கல்களை	-5256
▁ஈடுபட்ட	-5257
▁தொழிலாளர்களின்	-5258
▁நடவடிக்கைகளைத்	-5259
ிற்று	-5260
▁கப்பல்	-5261
▁நகர்ப்புற	-5262
▁பிரச்சினையை	-5263
படிய	-5264
▁CA	-5265
▁புத்தி	-5266
▁அறிவிப்பில்	-5267
ிக்கப்படக்கூடிய	-5268
▁ஆவணம்	-5269
▁நகர்த்த	-5270
▁யில்	-5271
▁தொழிற்சாலை	-5272
▁இரும்ப	-5273
▁சித்திர	-5274
▁விய	-5275
▁கட்டமைப்பு	-5276
▁மருத்துவக்	-5277
▁அவசியமான	-5278
▁முடிவின்	-5279
மைச்ச	-5280
க்குமாறு	-5281
▁கூறியுள்ளார்	-5282
▁கான	-5283
▁மொத்தம்	-5284
▁செய்யப்படலாம்	-5285
▁அவளை	-5286
▁அட்வா	-5287
ிஸ்தான்	-5288
▁அமைச்சர்கள்	-5289
யின்	-5290
▁ஏக்கர்	-5291
▁நாட்ட	-5292
▁சிறி	-5293
▁செய்ப	-5294
▁பிரான்ச	-5295
▁பகுதியாகும்	-5296
▁சந்தேகமில்லை	-5297
▁k	-5298
▁சிவ	-5299
▁விதை	-5300
க்குவதற்கான	-5301
▁விண்ணப்பிக்க	-5302
▁மறுவ	-5303
▁பெறுவது	-5304
▁பதிவாளர்	-5305
▁கருதப்பட்டது	-5306
▁நிறைவேற்றுவதில்	-5307
▁ஒளிப	-5308
▁சம்பளம்	-5309
▁பேராசிரிய	-5310
▁விருப்பத்தை	-5311
▁வழிகாட்டுதல்களை	-5312
▁காத	-5313
▁ஓட்ட	-5314
▁பொறியியல்	-5315
▁சங்கத்தின்	-5316
▁செயல்பாடுகளை	-5317
வதற்கான	-5318
▁அசாதாரண	-5319
▁பலர்	-5320
லாமல்	-5321
▁சுற்றுலா	-5322
ுக்கிடையில்	-5323
▁செலுத்தப்படும்	-5324
யர்	-5325
▁இடத்தை	-5326
▁அனுமதித்தது	-5327
▁அனைத்தையும்	-5328
▁ஊன	-5329
▁விவாக	-5330
▁கடமைகளை	-5331
▁சேமிப்பு	-5332
மைப்ப	-5333
▁அப்து	-5334
▁சத்திய	-5335
▁கட்டிடம்	-5336
▁செலுத்துதல்	-5337
▁சென்னை	-5338
▁பரிசோத	-5339
ையைச்	-5340
▁உடைய	-5341
த்ரி	-5342
▁அருகில்	-5343
▁நிபந்தனைகளை	-5344
om	-5345
▁தங்களுக்கு	-5346
▁இயக்குநர்கள்	-5347
▁வாழ்க்கையை	-5348
▁h	-5349
▁நிறைந்த	-5350
▁பிரிட்ட	-5351
▁அற்ப	-5352
டையும்	-5353
ிட்டர்	-5354
▁ஆதாரமும்	-5355
▁நம்பிக்கையை	-5356
ேச	-5357
▁it	-5358
▁ரசீ	-5359
ள்களை	-5360
▁புத்திர	-5361
மித்த	-5362
▁எட்ட	-5363
▁உண்மைகளின்	-5364
▁நியமனங்கள்	-5365
ுடனான	-5366
▁கிடைக்கவில்லை	-5367
▁மேற்கொள்ளப்பட்ட	-5368
▁எடுத்துக்காட்ட	-5369
மாய்	-5370
▁நிர்வாகி	-5371
▁பெறுதல்	-5372
க்கணக்கான	-5373
▁தலைப்பில்	-5374
▁பயணி	-5375
▁தொடங்கி	-5376
▁நினைவில்	-5377
▁யாரும்	-5378
▁ரே	-5379
னங்கள்	-5380
▁அவர்களுடைய	-5381
ப்படுவதற்கான	-5382
▁அதைக்	-5383
▁படத்தின்	-5384
▁போத	-5385
▁காலாவதிய	-5386
னாக	-5387
▁உறவுகள்	-5388
ாவற்ற	-5389
▁தெற்கு	-5390
▁கொள்ளலாம்	-5391
▁இல்லாவிட்டால்	-5392
▁தூத	-5393
▁செய்யத்	-5394
▁நிறுவனத்தால்	-5395
டுகள்	-5396
▁வெளியிட்டது	-5397
▁அதற்க	-5398
▁என்பதைப்	-5399
▁பாதுகாப்பான	-5400
▁அழுத்தம்	-5401
ப்படுத்தல்	-5402
▁செயல்முறையை	-5403
▁பங்கை	-5404
த்துக்கும்	-5405
▁திருத்தத்தின்	-5406
ுதல்	-5407
▁ரூபாய	-5408
டுவதற்கு	-5409
▁ஊனமுற்ற	-5410
▁பாவ	-5411
▁இஸ்லா	-5412
லிப	-5413
▁குறுக்க	-5414
▁அறிவாற்ற	-5415
மீக	-5416
▁கண்டறி	-5417
▁நிலத்தில்	-5418
▁மறுசீரமைப்பு	-5419
ாமலும்	-5420
▁தேட	-5421
▁ரீதியான	-5422
▁ஏலம்	-5423
▁நிமிட	-5424
▁போருக்கு	-5425
▁தடுக்கும்	-5426
▁திறந்திருக்கும்	-5427
தீ	-5428
ன்பு	-5429
▁கடற்ப	-5430
▁விகிதா	-5431
▁சதவிகித	-5432
ில்ல	-5433
▁பங்கேற்க	-5434
▁மாநிலங்களின்	-5435
▁தானிய	-5436
▁வாங்குபவர்	-5437
▁கோரு	-5438
▁கமிட்ட	-5439
▁காங்கிரஸ்	-5440
▁நடைமுறைச்	-5441
▁சர்மா	-5442
▁முதுக	-5443
▁காண்கிறோம்	-5444
ல்டி	-5445
றுகிறது	-5446
▁அகில	-5447
▁நிறைவு	-5448
▁படிப்பு	-5449
சீலி	-5450
▁ஐக்	-5451
▁ஒவ்வொ	-5452
▁பாத்திர	-5453
▁பின்தங்கிய	-5454
டோ	-5455
னியர்	-5456
▁வரவு	-5457
▁குறிப்பிடலாம்	-5458
▁கணினி	-5459
வர்களால்	-5460
▁கூறலாம்	-5461
▁பிரதிநிதிகள்	-5462
ஜீ	-5463
▁நீதிக்கான	-5464
▁இடத்திற்கு	-5465
▁இருக்கிறார்	-5466
▁குள	-5467
▁சார்	-5468
▁மையம்	-5469
▁விடய	-5470
▁அதிகம்	-5471
▁மோசமாக	-5472
▁பரிசீலி	-5473
▁வைக்கப்பட்டது	-5474
▁எடுத்துக்கொள்ள	-5475
்த்	-5476
ளையும்	-5477
▁அவர்களால்	-5478
▁கோரப்பட்ட	-5479
▁தரத்தை	-5480
ர்மறையான	-5481
▁தலைமையிலான	-5482
▁கூறப்பட்டுள்ளது	-5483
▁அத்தியாயத்தின்	-5484
ெடி	-5485
ங்கில்	-5486
▁பெற்றோர்	-5487
▁வரம்புக்கு	-5488
▁அறை	-5489
▁பங்குகளை	-5490
▁அருகிலுள்ள	-5491
▁காணப்பட்டது	-5492
▁ஷெ	-5493
▁ஒன்ப	-5494
▁அதற்காக	-5495
▁மதிப்பிட	-5496
தின்	-5497
ுகிறார்	-5498
▁வந்துள்ளது	-5499
▁எழுகிறது	-5500
▁அம்சங்கள்	-5501
▁இவர்	-5502
▁இரும்பு	-5503
▁பாராட்டு	-5504
ஸ்போ	-5505
▁காட்டிய	-5506
▁மட்டத்தில்	-5507
ாலா	-5508
▁உள்துறை	-5509
▁தேவைகளை	-5510
▁அதற்குப்	-5511
▁வைத்திருப்பது	-5512
வாதிகள்	-5513
▁அளித்தது	-5514
▁வலதுசாரி	-5515
at	-5516
வார்	-5517
▁விளைவைக்	-5518
▁அழைக்கப்படும்	-5519
ிப்படுத்த	-5520
▁தாவர	-5521
▁பின்னோ	-5522
▁மாற்றாக	-5523
▁வருவதற்கு	-5524
ூல்	-5525
செய்யும்	-5526
ங்குகிறது	-5527
▁தொலைபேசி	-5528
▁குத்தகைக்கு	-5529
▁சமர்ப்பிப்புகளை	-5530
▁சகல	-5531
துக்க	-5532
ப்பர்	-5533
▁தெரிவித்த	-5534
▁சம்பந்தமாக	-5535
▁தடுப்புக்காவல்	-5536
▁பிளா	-5537
்குமார்	-5538
▁தொலைக்க	-5539
▁நடைமுறையை	-5540
▁தகவல்தொடர்பு	-5541
▁திரி	-5542
▁வேறுவித	-5543
▁சந்தேகம்	-5544
▁நீட்டிக்க	-5545
வக	-5546
▁இந்தியாவ	-5547
▁பகிர்ந்து	-5548
ாரம்	-5549
▁இணைந்த	-5550
▁காவல்துறையின	-5551
▁செய்தால்	-5552
▁திருத்துவ	-5553
▁விரும்பினால்	-5554
▁கல்க	-5555
▁சிலர்	-5556
▁கைகளில்	-5557
▁உட்பிரி	-5558
▁குழுவால்	-5559
▁கொண்டனர்	-5560
▁இப்படி	-5561
▁இரகசிய	-5562
▁கண்காட்சி	-5563
▁நடத்தியது	-5564
▁நீதிபதிகளின்	-5565
▁மகிழ்	-5566
▁கர்ப்ப	-5567
ுவிட	-5568
ையிட	-5569
ியையும்	-5570
▁எரிவாயு	-5571
▁சட்டவிரோதமானது	-5572
பிட்	-5573
▁புதிதாக	-5574
▁தன்மையைக்	-5575
▁விவரங்களை	-5576
▁கண்காணிப்ப	-5577
▁பாதிக்கப்பட	-5578
கரமான	-5579
▁உன்ன	-5580
ிலாந்த	-5581
▁மாற்றுவது	-5582
▁விஷயங்களை	-5583
▁அறிவித்தார்	-5584
▁நெட்	-5585
▁நொடி	-5586
ப்பண்ண	-5587
▁தவறிவிட்டது	-5588
▁காலத்தை	-5589
▁பணிபுரி	-5590
▁ஒருவருக்க	-5591
▁t	-5592
▁உலகம்	-5593
▁அந்தத்	-5594
▁அந்தஸ்த	-5595
▁எங்க	-5596
ளையில்	-5597
ிக்கப்பட்டு	-5598
▁பணிநீக்கம்	-5599
▁இளம்	-5600
▁கமிஷன்	-5601
▁பிரிவுகள்	-5602
▁பரிசீலித்த	-5603
ராஜ	-5604
▁அறிவித்த	-5605
▁எரிப	-5606
▁இயலாமை	-5607
▁கொண்டுள்ள	-5608
▁தண்டனையின்	-5609
▁நடவடிக்கையும்	-5610
▁கணிசமாக	-5611
▁எல்லாவற்ற	-5612
▁ஆசிரியர்கள்	-5613
வள	-5614
விழ	-5615
▁வெப்ப	-5616
▁இரண்டும்	-5617
▁பகுத்தறிவு	-5618
மாதி	-5619
ன்களை	-5620
▁இயக்கம்	-5621
▁நோக்கில்	-5622
▁சமீபத்தில்	-5623
▁ஸ்திர	-5624
▁அறிகுற	-5625
▁கம்யூனி	-5626
▁சுயாதீனமான	-5627
▁பற்றாக்குறை	-5628
திர்	-5629
▁வேண்டுகோள	-5630
ஜென்	-5631
சால	-5632
▁கர	-5633
▁இல்லாதது	-5634
▁மூலமாகவோ	-5635
▁வசிக்கும்	-5636
▁தீர்ப்புகளை	-5637
▁விதிமுறைகளுக்கு	-5638
▁இன்ஸ்ப	-5639
▁தீர்மானம்	-5640
▁கழு	-5641
மையற்ற	-5642
▁சொற்களை	-5643
▁கலெக்டர்	-5644
▁ஒருவருக்கொருவர்	-5645
கூ	-5646
▁திருப்பித்	-5647
▁இழி	-5648
▁பயோ	-5649
ையின்படி	-5650
▁கொள்வது	-5651
▁பதிவுகள்	-5652
▁ஒன்றுக்கு	-5653
▁நெருக்கமான	-5654
▁வளர்ச்சியை	-5655
▁டொ	-5656
க்களும்	-5657
ாளர்களால்	-5658
▁முன்னே	-5659
▁வழக்குக்கு	-5660
▁குறிப்பிடுகிறது	-5661
TE	-5662
▁பான	-5663
வர்களாக	-5664
▁பரவலாக	-5665
லிருந்து	-5666
▁கடமையாகும்	-5667
▁எலு	-5668
▁அமைக்க	-5669
▁பவனில்	-5670
▁கூட்டாட்சி	-5671
▁பரிந்துரைகளை	-5672
நிக	-5673
ஞ்சம்	-5674
▁போய்	-5675
ியுடன்	-5676
த்துள்ளனர்	-5677
▁சுருக்கமான	-5678
▁பெங்கள	-5679
▁எடுக்கப்பட	-5680
▁மீட்டெடுக்க	-5681
▁வெட்டு	-5682
▁சாட்சியின்	-5683
▁தோன்றுகிறது	-5684
▁உருவாக்குதல்	-5685
▁அனுமதிய	-5686
தற்கோ	-5687
▁சிஆர்பி	-5688
▁காப்பாற்ற	-5689
▁கட்டமைப்பை	-5690
▁இங்குள்ள	-5691
▁நீண்டகால	-5692
▁மத்தியில்	-5693
▁சரக்கு	-5694
▁பசுமை	-5695
▁நடத்து	-5696
▁மருத்துவமனைக்கு	-5697
ரிச	-5698
ண்டிய	-5699
ும்படி	-5700
▁கைவி	-5701
ர்னி	-5702
▁அனுபவிக்க	-5703
▁சாட்சிகளை	-5704
▁முதன்மையான	-5705
▁நிர்மாண	-5706
▁மாநிலங்கள	-5707
ம்மு	-5708
▁பிரசாத்	-5709
▁ரசீது	-5710
▁வழக்கமாக	-5711
▁திட்டமிடல்	-5712
ஜின	-5713
டியும்	-5714
▁பெரும்பான்மை	-5715
்தொ	-5716
செய்வ	-5717
▁பதிவே	-5718
▁இணைக்க	-5719
▁ஸ்டேட்	-5720
▁முடிந்தது	-5721
▁மனுஷ	-5722
▁வாதியின்	-5723
▁வழங்குவதற்கு	-5724
ரால	-5725
மட்ட	-5726
▁அப்போது	-5727
▁உத்தரவால்	-5728
▁விரிவாக்க	-5729
▁வேண்டுகோள்	-5730
▁வணிகத்தை	-5731
▁நிறுவனங்களை	-5732
நல	-5733
▁லார்ட்	-5734
க்குறி	-5735
▁மறைந்த	-5736
▁அதிகரிப்பு	-5737
▁இருப்பதாகவும்	-5738
▁கார்ப	-5739
டுகிறார்	-5740
நெறி	-5741
▁விவாகர	-5742
▁அடுக்கு	-5743
பிரதேச	-5744
▁நம்புகிறேன்	-5745
ாஸ்	-5746
▁இடஒ	-5747
ீடும்	-5748
▁பூர்	-5749
▁ஆலோசனையின்	-5750
▁ஒப்புக்கொண்ட	-5751
▁ஆளு	-5752
▁பெருக்க	-5753
▁மேற்பார்	-5754
▁அறியப்பட்ட	-5755
▁அவனை	-5756
யற்	-5757
▁நிரூபி	-5758
▁தகுதிகள்	-5759
▁குடிமக்கள்	-5760
▁கிடைக்கிறது	-5761
▁சூழல்	-5762
▁க்குப்	-5763
ள்ளி	-5764
▁இழக்க	-5765
ிக்கொள்ள	-5766
▁காலத்தின்	-5767
▁செயல்பாட்டை	-5768
▁கட்டாயப்படுத்த	-5769
▁பச்ச	-5770
▁தொடர்க	-5771
▁அரசுகள்	-5772
மதிய	-5773
▁முதலாவதாக	-5774
▁கூறுகிறார்	-5775
▁உருவாக்குகிறது	-5776
▁......	-5777
▁உத்தரவையும்	-5778
▁கண்டறியப்பட்டது	-5779
▁பின்னோக்கி	-5780
▁உடன்படிக்கை	-5781
▁உத்தரபிரதேச	-5782
ோல்	-5783
லைன்	-5784
ாளரை	-5785
▁எளிய	-5786
▁பொதுச்	-5787
▁பயி	-5788
ிருக்கிறோம்	-5789
▁விளக்கத்தின்	-5790
ர்வே	-5791
▁குற்றவாளிகள்	-5792
▁நீதிமன்றங்களில்	-5793
▁யூத	-5794
ச்சார்ப	-5795
▁தேவி	-5796
▁டெண்டர்	-5797
▁இடஒதுக்க	-5798
▁பகுதியின்	-5799
▁வாஷிங்டன்	-5800
▁நிறுவனத்தை	-5801
ங்காவ	-5802
▁அமைதி	-5803
▁கூட்டணி	-5804
▁வர்க்கம்	-5805
▁விதிகளில்	-5806
▁VII	-5807
▁சிர	-5808
▁அப்படியே	-5809
▁வரம்பைக்	-5810
▁முன்னிலையில்	-5811
பவர்	-5812
▁நீத	-5813
ாட்டையும்	-5814
ur	-5815
▁நினைக்க	-5816
▁இச	-5817
தார்த்த	-5818
▁தொடர்பானது	-5819
▁சட்டப்பூர்வமாக	-5820
▁எகி	-5821
▁உன	-5822
சிங்	-5823
வற்றை	-5824
▁தொலைதூ	-5825
▁வெள்ளை	-5826
▁நெறிமுறை	-5827
▁அதற்கேற்ப	-5828
▁பார்க்கவும்	-5829
▁விண்ணப்பத்தில்	-5830
ாண்டில்	-5831
▁குழந்தையின்	-5832
▁கூடுதலான	-5833
▁நிலங்களை	-5834
▁பத்திரிக	-5835
▁ஏற்பாடுகள்	-5836
▁வணிகத்தின்	-5837
▁கியூ	-5838
▁சந்தையில்	-5839
▁இயற்கையில்	-5840
▁கண்டிப்பாக	-5841
▁நீதிபதியால்	-5842
▁நெரு	-5843
ட்சியை	-5844
▁ஈராக்கில்	-5845
▁குடியரசின்	-5846
▁பொருத்தமாக	-5847
நாள	-5848
▁பரிசு	-5849
▁காணலாம்	-5850
டுவதற்கான	-5851
▁நிலைநிறுத்த	-5852
ுவார்	-5853
▁தானே	-5854
ப்பும்	-5855
▁உணர்ந்த	-5856
▁சட்டமன்றத்தால்	-5857
▁வழிகாட்டுதல்கள்	-5858
▁அந	-5859
▁உருவாக்குவது	-5860
▁கண்டுபிடிக்க	-5861
ரியை	-5862
▁ஆதி	-5863
▁இயல்புநில	-5864
▁அமைந்துள்ளது	-5865
▁உபக	-5866
▁சீர	-5867
▁மாள	-5868
நிறுவ	-5869
▁பெரிதும்	-5870
▁விரும்பிய	-5871
ேந்திர	-5872
▁தெலு	-5873
▁அசையா	-5874
▁நீர்ப்ப	-5875
▁பொருட்கள	-5876
▁பதவியை	-5877
▁தீவிரமான	-5878
வர்களுக்கும்	-5879
▁நிர்வகிக்கும்	-5880
▁மாதங்களுக்குள்	-5881
▁பிரபல	-5882
▁விளைவுகளை	-5883
▁ரச	-5884
▁நிலங்கள்	-5885
▁உறுதிமொழி	-5886
▁ஒப்புக்கொள்ள	-5887
▁கூட்டம்	-5888
▁நிபந்தனைகளுக்கு	-5889
ேஷன்	-5890
▁கோயில	-5891
▁பிரதேசம்	-5892
▁நிகழ்வில்	-5893
▁No	-5894
▁சிங்கின்	-5895
கன்	-5896
னியா	-5897
▁சீனா	-5898
▁அமைப்புகள்	-5899
▁இங்கிலாந்த	-5900
மீர்	-5901
ும்கூட	-5902
▁தங்களை	-5903
▁பெற்று	-5904
▁நிலையத்தில்	-5905
▁அவரிடம்	-5906
▁எடுத்துச்	-5907
▁ரொ	-5908
▁அதிபர்	-5909
▁சுரண்ட	-5910
▁நீதிபதிகளை	-5911
▁ஆப்கானிஸ்தான	-5912
▁மாதிரியான	-5913
▁தீர்ப்பால்	-5914
▁செய்யப்பட்டார்	-5915
▁செய்யப்பட்டால்	-5916
ஞ்சிய	-5917
ிருக்கு	-5918
▁தோன்றும்	-5919
ிருந்தன	-5920
▁அடுத்து	-5921
▁முன்வைக்க	-5922
▁சூட்	-5923
▁உபகரண	-5924
▁பெரும	-5925
▁நெட்வொ	-5926
▁வளர்ந்த	-5927
▁சமத்துவக்	-5928
▁இமா	-5929
▁குறியீடு	-5930
▁நடைமுறைகளின்	-5931
▁காரணத்தை	-5932
▁உழைக்கும்	-5933
▁வெற்றிகரமாக	-5934
▁பகிர்வு	-5935
▁வழிவகுத்தது	-5936
▁வேதனைய	-5937
ப்பான்	-5938
ிவிட்ட	-5939
▁தீர்ப்பளிக்கும்	-5940
▁ஏழ	-5941
ச்சே	-5942
▁செயல்களை	-5943
▁வாக்குறு	-5944
et	-5945
▁தார்	-5946
▁செயற்ப	-5947
▁பணியாளர்கள்	-5948
▁ஹவு	-5949
▁இஸ்ரவேல்	-5950
▁முயற்சிக்க	-5951
வேன்	-5952
ஸ்ரா	-5953
▁ராவ்	-5954
▁விவாகரத்து	-5955
▁குறிப்புகள்	-5956
ீட்டிற்கு	-5957
▁ஆணைக்குழு	-5958
▁ஆற	-5959
▁இதர	-5960
▁அவதூ	-5961
▁சார்பு	-5962
▁அப்துல்	-5963
▁நிறுவனமாக	-5964
▁தேதியிட்டது	-5965
▁திட்டத்திற்கு	-5966
நோய	-5967
முனை	-5968
▁தினசரி	-5969
▁என்பதன்	-5970
்பூர்	-5971
▁வழங்கவில்லை	-5972
ஸ்கோ	-5973
▁தெரியவில்லை	-5974
ராண்ட	-5975
▁கடினமான	-5976
▁செயல்கள்	-5977
▁இதற்க	-5978
▁முறையீட்டில்	-5979
▁ஆய்	-5980
▁சித்திரவதை	-5981
ல்ஸ்	-5982
▁சூத்திர	-5983
IA	-5984
▁எழ	-5985
ாராய	-5986
▁மகள்	-5987
▁பன்னிர	-5988
▁விகிதாசார	-5989
▁ஆண்டிற்கான	-5990
▁வலுப்படுத்த	-5991
▁நிராகரித்தது	-5992
ீர	-5993
▁ஆழ்ந்த	-5994
▁பிரிக்க	-5995
▁படப்பிடி	-5996
தாகவோ	-5997
ுள்ளபடி	-5998
▁தொண்டு	-5999
▁மூப்பு	-6000
▁மொபைல்	-6001
ிப்பதற்கு	-6002
▁ஆகியவற்றுக்கு	-6003
▁நகர்	-6004
▁மாற்றங்கள்	-6005
▁ஆதாரச்	-6006
▁ஆற்றல்	-6007
▁பின்னால்	-6008
▁முரணாக	-6009
▁திறந்து	-6010
▁அனுப்பின	-6011
▁கடிதத்தை	-6012
▁குற்றங்களை	-6013
un	-6014
▁மின்னணு	-6015
▁மீட்டர்	-6016
▁பொருளைக்	-6017
▁கட்டாயமாக	-6018
▁ஒப்புதலுடன்	-6019
▁படுகொலை	-6020
▁கொள்ளுங்கள்	-6021
ோடி	-6022
▁வயதை	-6023
க்கப்படாத	-6024
▁ஞான	-6025
▁பஸ்	-6026
ம்தான்	-6027
▁திட்டமி	-6028
▁கடிதங்கள்	-6029
▁பற்றியும்	-6030
▁மனுதாரர்களின்	-6031
ர்வின்	-6032
ிலாந்து	-6033
▁நேரத்தை	-6034
▁அவனுக்கு	-6035
வழ	-6036
▁அரசாங்கத்தை	-6037
▁வாழ்க்கையின்	-6038
IO	-6039
▁சூரிய	-6040
▁கடந்து	-6041
▁கட்டிய	-6042
▁உம்முடைய	-6043
▁ஏற்றுக்கொண்டது	-6044
▁தேவையை	-6045
▁பங்கேற்ற	-6046
▁குழுவை	-6047
ிருக்கிறார்கள்	-6048
▁வழங்குவதற்கும்	-6049
க்கப்பட்டுள்ளபடி	-6050
▁செலுத்துவதற்கான	-6051
தாம்	-6052
த்திடம்	-6053
▁சமாளிக்க	-6054
▁ஆகியவற்றால்	-6055
▁சிறுபான்மைய	-6056
▁சுற்றறிக்கை	-6057
▁எதிர்காலத்தில்	-6058
▁வர்த்தமானியில்	-6059
▁அவகா	-6060
▁பாட்ட	-6061
▁அமைச்சர	-6062
▁ஈராக்கிய	-6063
▁பரிசுத்த	-6064
▁கவனத்திற்கு	-6065
AI	-6066
டான	-6067
▁டன்	-6068
▁மருத்துவமனையில்	-6069
னைகள்	-6070
ருக்காக	-6071
▁கூட்டா	-6072
க்கூடியது	-6073
ன்னி	-6074
ுகள்	-6075
▁எடை	-6076
▁காக	-6077
வர்களுடன்	-6078
▁முதலமைச்ச	-6079
▁குறிப்பிட்டு	-6080
பிடி	-6081
ரப்ப	-6082
▁மலை	-6083
ையேயான	-6084
▁ஐரோப்ப	-6085
▁சதவிகிதம்	-6086
ப்டின	-6087
▁ஆதாரம்	-6088
▁தவறாகப்	-6089
▁வரலாறு	-6090
▁மாற்றப்பட்டது	-6091
▁நீதிமன்றங்களால்	-6092
▁வெட்ட	-6093
▁வலியுறுத்து	-6094
க்கிர	-6095
ிடையில்	-6096
▁காலமாக	-6097
▁மறுசீரமை	-6098
▁அளவுருக்க	-6099
ற்றது	-6100
ரிப்பு	-6101
▁குறைய	-6102
ொள்கிறது	-6103
▁நீதவான்	-6104
▁கையெழுத்த	-6105
▁இழப்பீட்டை	-6106
▁அறிவிப்புகள்	-6107
▁உயர	-6108
▁ஓர்	-6109
நாயகர்	-6110
▁மோகன்	-6111
▁கோரும்	-6112
▁தகவலறிந்த	-6113
▁இயற்கையின்	-6114
▁இருந்ததால்	-6115
க்கோ	-6116
▁ரிமா	-6117
▁ராஜாவ	-6118
▁புதுமை	-6119
▁பகுதிக்கு	-6120
▁அறிக்கைகளை	-6121
▁விளக்கத்தை	-6122
▁அதிகப்படியான	-6123
ம்பி	-6124
▁ஆப்	-6125
▁கன்	-6126
த்தொக	-6127
ில்தான்	-6128
▁முதன்மையாக	-6129
▁பணிபுரியும்	-6130
▁அலி	-6131
▁பிரிவை	-6132
▁தயாரித்த	-6133
▁முன்மாதி	-6134
▁பத்திரத்தின்	-6135
ேஸ்	-6136
ங்கர்	-6137
▁தரைய	-6138
▁எதிர்த்த	-6139
▁தேர்ந்தெடுப்ப	-6140
ஸ்ட்ரீ	-6141
▁வாரம்	-6142
▁இஸ்ரேலிய	-6143
▁போலி	-6144
க்கூறு	-6145
▁ரகசிய	-6146
▁வருகிறார்	-6147
▁சட்டவிரோதமாக	-6148
ர்களிடமிருந்து	-6149
▁பிரீ	-6150
ுவதும்	-6151
▁தேர்வில்	-6152
▁எண்ணிக்கையில்	-6153
as	-6154
▁அறங்காவ	-6155
▁வெளியேற	-6156
▁துணைப்பிரிவில்	-6157
▁ஹே	-6158
▁எவ்வளவு	-6159
▁சுதந்திரமாக	-6160
▁வசம்	-6161
▁ஜேர்மனிய	-6162
▁தொழிலாளர்களை	-6163
ol	-6164
ைட்	-6165
▁நடுவ	-6166
▁கட்சிக்கு	-6167
▁இள	-6168
▁கார்ட	-6169
▁முன்வைத்த	-6170
லுடன்	-6171
▁வெளியி	-6172
▁அட்டர்னி	-6173
▁நீதிபதியாக	-6174
ெனி	-6175
ிறன்	-6176
னத்தின்	-6177
நாட்டில்	-6178
▁தொடர்ச்சியாக	-6179
▁நிர்ணயிக்கும்	-6180
▁வழங்கியுள்ளது	-6181
சதி	-6182
▁சேகரிக்க	-6183
மிருந்தும்	-6184
பட	-6185
▁ஓடி	-6186
▁வீட்டுவ	-6187
ஸ்கர்	-6188
ால்தான்	-6189
▁ஆலோசகரால்	-6190
▁தீப	-6191
▁யாத	-6192
▁ஜெயின்	-6193
▁இசை	-6194
▁கிரா	-6195
க்குறை	-6196
▁நமக்கு	-6197
१५	-6198
ொன்ற	-6199
▁பென்	-6200
▁கழிவு	-6201
ிவிட்டது	-6202
▁தேதிகளில்	-6203
▁இருப்பதாகக்	-6204
▁ஆலோசகர்களால்	-6205
ோளை	-6206
▁துணி	-6207
ியுள்ளன	-6208
ப்படக்கூடாது	-6209
▁மாதத்திற்கு	-6210
▁அலுவலகத்தில்	-6211
▁தீர்மானிக்கப்பட	-6212
▁மதிப்பிடுவ	-6213
▁காணப்படுகிறது	-6214
ானா	-6215
▁மீறும்	-6216
▁பரிந்துர	-6217
ரின	-6218
ுவதைத்	-6219
▁ரிலைய	-6220
▁மரியாதை	-6221
▁அத்துடன்	-6222
ப்பகுதியில்	-6223
▁g	-6224
▁பிரச	-6225
மர்த்த	-6226
▁விலையை	-6227
▁சந்திக்க	-6228
▁வீட்டுவசதி	-6229
▁வாழ்த்துக்கள்	-6230
▁நடத்தி	-6231
ட்சியில்	-6232
▁ரிலையன்ஸ்	-6233
▁தொடங்கியது	-6234
▁குழந்தைகளின்	-6235
பால்	-6236
▁கலைஞ	-6237
க்குழு	-6238
▁வரவில்லை	-6239
▁கடிதத்தின்	-6240
ந்தா	-6241
பக்ஷ	-6242
▁என்பதே	-6243
▁மாட்டார்	-6244
▁கடிதத்தில்	-6245
▁எண்ணிக்கையிலான	-6246
▁அலகா	-6247
▁நடுத்த	-6248
▁லெப்டின	-6249
▁பாதுகாவ	-6250
▁நிறைவேற்றியது	-6251
ாரிய	-6252
▁சிக்கலான	-6253
▁பார்வையை	-6254
ங்களுக்குள்	-6255
▁மாநாட்டில்	-6256
▁பேராசிரியர்	-6257
▁அதிகாரிகளால்	-6258
▁வணிகம்	-6259
▁தலையீடு	-6260
▁மேம்பட்ட	-6261
▁ஆகியோரால்	-6262
▁செயல்பாட்டின்	-6263
▁டெவல	-6264
நிலையை	-6265
▁மூடப்பட்ட	-6266
▁பார்த்து	-6267
▁உரிமையும்	-6268
▁தமிழ்நாடு	-6269
▁அடிப்படைக்	-6270
▁இரண்டையும்	-6271
▁உரிமையாளர்கள்	-6272
▁பூக	-6273
▁நிகர	-6274
▁முகவர்	-6275
▁வழங்கப்பட்டன	-6276
▁மாளிக	-6277
▁மாறும்	-6278
▁சிறையில்	-6279
▁நீர்ப்பாச	-6280
▁விஷயத்தின்	-6281
▁ஏற்றுக்கொள்வது	-6282
களான	-6283
டனான	-6284
▁அணிவகு	-6285
▁படைகள்	-6286
▁கூட்டாக	-6287
▁பேரழிவு	-6288
▁அதிகாரியாக	-6289
▁முறையீடுகளில்	-6290
ாத்க	-6291
▁சுத்திக	-6292
▁நடுத்தர	-6293
▁நுழ	-6294
ர்சஸ்	-6295
▁கைவிட	-6296
▁செலவுகளை	-6297
▁ஏஜென்	-6298
▁விதம்	-6299
▁ஏற	-6300
▁ரீ	-6301
▁ஸ்ரால	-6302
▁அதுவும்	-6303
▁அவருடன்	-6304
▁வைத்திருந்த	-6305
▁லக்	-6306
▁சினி	-6307
▁பலாத்க	-6308
▁சிறப்பாக	-6309
▁வாய்ப்புகள்	-6310
ri	-6311
▁இதோ	-6312
▁ஊட்ட	-6313
ுக்கிடையேயான	-6314
▁எதிர்பார்ப்பு	-6315
▁நெடு	-6316
▁மன்றம்	-6317
▁வட்டிய	-6318
▁கொடுத்தார்	-6319
▁வழிமுறைகளை	-6320
ளின்	-6321
▁அங்கே	-6322
▁உண்மைதான்	-6323
▁இதற்கிடையில்	-6324
▁ஏற்றுக்	-6325
▁மருத்துவர்	-6326
▁மாட்டார்கள்	-6327
▁அணை	-6328
▁ஆர்ட	-6329
▁மிரு	-6330
▁வருடம்	-6331
▁வழிமுறைகள்	-6332
▁சேர்த்த	-6333
▁சமத்துவம்	-6334
▁தாக்கத்தை	-6335
▁தொலைக்காட்சி	-6336
▁விண்ணப்பங்கள்	-6337
ec	-6338
▁எட்	-6339
கொள்ள	-6340
▁தோற்க	-6341
க்கிற்கு	-6342
AT	-6343
▁எரு	-6344
ந்தார்	-6345
▁இன்னொரு	-6346
▁தொலைதூர	-6347
▁வைக்கும்	-6348
▁நடைமுறைகளை	-6349
▁கழக	-6350
▁கண்ணோட்ட	-6351
▁சபாநாயகர்	-6352
▁பன்முக	-6353
▁வகுப்ப	-6354
வருக்கான	-6355
▁சட்டசப	-6356
▁செயலில்	-6357
▁பங்குகள்	-6358
▁உறுப்பினர்களை	-6359
▁OF	-6360
▁களின்	-6361
▁சொலிச	-6362
▁ஒப்பிடு	-6363
▁வாழ்க்கைத்	-6364
▁விரும்புகிறேன்	-6365
▁வளர்ச்சிக்கு	-6366
ில்லை	-6367
▁உயிரி	-6368
▁புகாரை	-6369
▁சொலிசிட்டர்	-6370
▁வளர்ச்சியின்	-6371
▁ஜோர்	-6372
▁விண்ணப்பங்களை	-6373
▁வழங்கப்பட்டால்	-6374
▁மனோ	-6375
▁எனில்	-6376
ியாகும்	-6377
▁பிரகாஷ்	-6378
▁வக்	-6379
ேயும்	-6380
▁ஜம்மு	-6381
▁வெர்சஸ்	-6382
▁போதுமானது	-6383
▁விளைவுகள்	-6384
▁தாங்க	-6385
▁காலங்களில்	-6386
▁குற்றத்தைச்	-6387
▁முரண்பாடுகள்	-6388
▁வழக்கைத்	-6389
▁விரிவாகக்	-6390
▁பத்திகளில்	-6391
▁என்க	-6392
▁ஆராய்ந்து	-6393
▁அனுமதியின்	-6394
▁கட்டுமானம்	-6395
▁மேம்படுத்துதல்	-6396
ாரும்	-6397
▁ஒன்பது	-6398
▁ஹீ	-6399
நகர்	-6400
தாலும்	-6401
▁உந்து	-6402
▁நம்மை	-6403
▁திரட்ட	-6404
▁அமைப்பில்	-6405
▁அலட்சியம்	-6406
▁கொள்ளவில்லை	-6407
▁எழுது	-6408
▁தரமான	-6409
▁நான்காவது	-6410
▁நேரத்திற்குள்	-6411
மெட்	-6412
▁அதிகாரியால்	-6413
▁எதிர்கொள்ளும்	-6414
▁சிறுவ	-6415
▁டைகர்	-6416
▁இதுதான்	-6417
▁கல்வித்	-6418
▁இராஜபக்ஷ	-6419
▁தீர்ப்பதற்கு	-6420
க்கே	-6421
▁நகலை	-6422
▁வாழ்வ	-6423
▁தணிக்க	-6424
▁அமைப்பை	-6425
நீர்	-6426
▁முஸ்லி	-6427
▁தரநிலை	-6428
▁ஜேர்மன்	-6429
PC	-6430
▁வேளையில்	-6431
▁செய்யப்படாத	-6432
ின்ப	-6433
டைந்து	-6434
▁கீழ்ப்ப	-6435
▁செயல்படுகிறது	-6436
................	-6437
மர்	-6438
▁ஏனைய	-6439
▁அளிப்ப	-6440
▁சமரசம்	-6441
▁அனுப்பு	-6442
▁காலியாக	-6443
▁முன்பதிவு	-6444
டியா	-6445
நிகழ்ச்ச	-6446
▁ஆபத்தான	-6447
▁மக்கள்தொ	-6448
▁அனுமதிக்கும்	-6449
▁காலாவதியாகும்	-6450
▁செபி	-6451
▁கையாண்டது	-6452
▁மேற்பார்வ	-6453
▁வளாகத்தில்	-6454
▁நடத்தப்பட்டது	-6455
▁விஜய	-6456
▁அதைச்	-6457
▁வரிசை	-6458
▁தன்னிச்சையாக	-6459
▁நல்	-6460
▁முகவரி	-6461
▁வேண்டியிருந்தது	-6462
▁இறையா	-6463
▁தர்க்க	-6464
▁அப்போதைய	-6465
▁செய்ததாக	-6466
▁கெஞ்ச	-6467
▁பெருக	-6468
▁க்குள்	-6469
▁சிக்கல்கள்	-6470
▁முயற்சிகளை	-6471
▁தன்னிச்சையான	-6472
▁ஒழ	-6473
▁கடற்க	-6474
▁அவளுக்கு	-6475
▁விடுவிக்க	-6476
▁அதிரு	-6477
ாட்டைப்	-6478
▁உதவியுடன்	-6479
▁உத்தரவைப்	-6480
▁உலகில்	-6481
▁பகிரங்க	-6482
▁பணியமர்த்த	-6483
PA	-6484
▁...	-6485
▁கூறும்	-6486
ித்	-6487
▁நீதிபதிய	-6488
▁சிந்திக்க	-6489
▁உற்பத்தியில்	-6490
▁தேவனாகிய	-6491
▁புகாரில்	-6492
ருங்கள்	-6493
▁பதவிக்க	-6494
he	-6495
▁இஸ்ரேல்	-6496
ேக்	-6497
▁வளை	-6498
▁கம்பெனி	-6499
▁தலைமையில்	-6500
▁புதுப்பிக்க	-6501
▁பாலஸ்தீ	-6502
▁அளவுக்கு	-6503
▁சட்டமும்	-6504
வைத்	-6505
க்குத்	-6506
முறையாக	-6507
▁கையாளு	-6508
▁தலையிடுவ	-6509
▁மஹ	-6510
▁ஐம்ப	-6511
▁இன்றிய	-6512
▁குண்டுவ	-6513
்கர்	-6514
▁PAR	-6515
▁விசுவ	-6516
▁கம்யூனிஸ்ட்	-6517
▁விண்ணப்பத்தின்	-6518
▁வயதுக்கு	-6519
▁செல்வாக்கு	-6520
▁செலுத்துவதில்	-6521
டுதல்	-6522
▁விழாவில்	-6523
▁வழங்குவதை	-6524
▁தட்ட	-6525
▁வார்த்தையின்	-6526
ிலு	-6527
▁தார்மீக	-6528
▁இன்றியமைய	-6529
▁கூட்டமைப்பு	-6530
▁சொத்துக்களின்	-6531
am	-6532
ce	-6533
▁எளிதா	-6534
▁சினிமா	-6535
▁அதிகாரிய	-6536
▁மற்றவற்ற	-6537
▁பரிசீலிக்கப்பட	-6538
தரா	-6539
வழை	-6540
்களால்	-6541
▁நடக்க	-6542
ிருந்தோ	-6543
▁பொதுத்துறை	-6544
▁விஷயத்திலும்	-6545
ஷ்டவச	-6546
ஸுக்கு	-6547
▁தொடங்குவதற்கு	-6548
▁தூய்	-6549
விட்டு	-6550
▁நிதிக்	-6551
ினார்கள்	-6552
ிலி	-6553
நாத்	-6554
்களைப்	-6555
▁தரையிற	-6556
▁நீடிக்க	-6557
ுவிட்டார்	-6558
▁வியாபாரி	-6559
▁ஒழுங்கமை	-6560
▁காப்பீடு	-6561
▁கண்டறிந்தது	-6562
▁லெப்டினன்ட்	-6563
▁நடவடிக்கைக்கான	-6564
▁அன	-6565
▁ஹரி	-6566
▁இன்றைய	-6567
▁வரவழை	-6568
▁துணைத்	-6569
▁திருத்தங்கள்	-6570
த்துள்ளன	-6571
▁உள்ளார்	-6572
▁தரப்பினரால்	-6573
▁டிரா	-6574
▁சிறிது	-6575
▁அதிருப்த	-6576
▁தேசத்தின்	-6577
ணம்	-6578
▁உரிமையைப்	-6579
▁மென்ப	-6580
▁அனுமதிக்கிறது	-6581
ிகா	-6582
ைகளை	-6583
▁தண்ணீ	-6584
▁போன்றவற்றை	-6585
ப்பொருள்	-6586
▁பூர்வாங்க	-6587
▁வாக்குமூலத்தில்	-6588
▁எதிர்கொண்ட	-6589
le	-6590
▁கல்கத்தா	-6591
வாசி	-6592
▁தவறிவிட்ட	-6593
நீக்க	-6594
▁அணுகல்	-6595
▁கமிஷனர்	-6596
▁ஏற்பாட்டின்	-6597
ின்று	-6598
▁பம்பாய	-6599
▁வசதிகளை	-6600
▁வாடகைக்கு	-6601
▁அச்சுறுத்தல்	-6602
IC	-6603
▁சொசை	-6604
▁வறுமை	-6605
▁முறைகள்	-6606
▁வேலையின்	-6607
▁அம்சங்களை	-6608
▁இந்நிகழ்ச்ச	-6609
▁பெறப்பட்டது	-6610
▁பொருளாதாரம்	-6611
▁e	-6612
▁கேட	-6613
ுவின்	-6614
▁சுரே	-6615
▁தமிழக	-6616
பாத்தில்	-6617
முறையின்	-6618
▁முப்பது	-6619
▁கவுன்சிலின்	-6620
வேளை	-6621
மானவை	-6622
▁பட்டா	-6623
▁உண்மைகளையும்	-6624
▁சட்டக்	-6625
▁பிரான்ஸ்	-6626
▁பரிந்துரைத்தது	-6627
ீத்	-6628
▁அழக	-6629
▁போதை	-6630
▁குற்றங்களுக்காக	-6631
▁ஹு	-6632
னையையும்	-6633
▁செலுத்துவதற்கு	-6634
ீச	-6635
▁சேர	-6636
க்குரிய	-6637
▁சராசரி	-6638
▁வருவது	-6639
▁இயக்குன	-6640
▁தொழிலாளி	-6641
▁நன்மைகள்	-6642
▁செய்யுங்கள்	-6643
▁அரசியலமைப்புச்	-6644
▁அசையாச்	-6645
▁மொழிபெய	-6646
▁கொண்டால்	-6647
▁அப்படியான	-6648
▁புத்திசால	-6649
க்கப்பட்டார்	-6650
▁கிராமத்தில்	-6651
ent	-6652
்கோ	-6653
▁ஊடு	-6654
▁ஆபரே	-6655
▁அழிக்க	-6656
▁உருவாக்கி	-6657
ாவே	-6658
▁வின்	-6659
▁மறுவா	-6660
▁அசோசிய	-6661
▁நேற்று	-6662
▁அடமானம்	-6663
▁தடாவின்	-6664
▁அடிக்கடி	-6665
▁காஷ்மீர்	-6666
▁கருவிகள்	-6667
▁முத்திரை	-6668
▁விலையில்	-6669
▁PART	-6670
▁பிள்ள	-6671
▁நுகர்வோ	-6672
▁நடத்தப்படும்	-6673
▁கப	-6674
▁vii	-6675
▁போக	-6676
▁வெளிவந்த	-6677
ச்சார்பற்ற	-6678
▁சந்தேகமும்	-6679
▁பாலஸ்தீனிய	-6680
▁அப்பாற்பட்ட	-6681
▁வாழ்க்கையில்	-6682
ப்பைக்	-6683
▁எழுதி	-6684
▁பணியில்	-6685
ித்திர	-6686
▁எஸ்டேட்	-6687
▁மரப	-6688
ப்போக	-6689
▁பார்ப்ப	-6690
▁காட்டும்	-6691
ப்படுகிறதா	-6692
▁விரும்பினார்	-6693
▁ஒட்டுமொத்தமாக	-6694
்கொ	-6695
▁ஆக்	-6696
▁நுட்ப	-6697
▁பயிர்	-6698
▁ஜாமீனில்	-6699
▁பிராந்தியத்தில்	-6700
தலில்	-6701
பெற்ற	-6702
▁நடவடிக்கையை	-6703
▁பாதகமான	-6704
▁சாட்சியாக	-6705
▁நெருங்கிய	-6706
▁ஈடுபட	-6707
▁போட்ட	-6708
▁எலும்பு	-6709
▁இருதரப்பு	-6710
▁வேறுபட்டது	-6711
▁நம்பியுள்ளார்	-6712
▁தனியுரிமைக்கான	-6713
மட்	-6714
▁சென	-6715
▁உமது	-6716
விலும்	-6717
ிருப்பதாக	-6718
▁அறிவித்தது	-6719
▁வேண்டியதில்லை	-6720
▁கட்டுப்பாடுகள்	-6721
▁ஒன்றில்	-6722
▁உதாரணமாக	-6723
▁வழக்குரைஞர்	-6724
▁குற்றச்சாட்டை	-6725
▁அறுவை	-6726
▁சோவிய	-6727
▁நுகர்வு	-6728
▁மாநிலத்தால்	-6729
▁மீட்கப்பட்ட	-6730
▁முரணான	-6731
▁மேற்பார்வை	-6732
▁விதிக்கும்	-6733
▁வழங்கப்படலாம்	-6734
▁ராக	-6735
▁இத்த	-6736
ளிப்பு	-6737
▁ஆழமான	-6738
▁சமநிலை	-6739
▁சார்க்க	-6740
▁மனுவின்	-6741
▁விற்பனையை	-6742
▁அதிகரிக்கும்	-6743
▁அனுப்பப்பட்ட	-6744
▁உருவாக்கியது	-6745
▁சாத்தியக்கூறு	-6746
▁பொருட்களுக்கு	-6747
▁சட	-6748
▁டைம்ஸ்	-6749
▁தனித்தனி	-6750
▁அளித்தார்	-6751
▁பக்கத்தில்	-6752
▁சமர்ப்பிப்பை	-6753
▁கொண்டிருந்தார்	-6754
ST	-6755
▁ஒலி	-6756
▁பதினை	-6757
ட்டியில்	-6758
▁நெடுஞ்ச	-6759
▁விழிப்புணர்வு	-6760
சூ	-6761
▁பொறுப்பாகும்	-6762
▁ரெஸ்	-6763
▁விளி	-6764
▁அவதூறு	-6765
ப்படாமல்	-6766
ணிய	-6767
ரிம	-6768
▁வழிகாட்ட	-6769
ொன்ன	-6770
▁ஹைதரா	-6771
▁நாட்டு	-6772
சலே	-6773
▁ஆச்ச	-6774
▁பிறகும்	-6775
▁விவாதம்	-6776
▁ரிமாண்ட்	-6777
▁ஸ்ராலினி	-6778
▁பெருநிறுவ	-6779
▁முன்னிட்டு	-6780
▁போட்டியிடும்	-6781
▁பாட்	-6782
ுக்களை	-6783
▁பட்டண	-6784
▁வசிப்ப	-6785
▁நியாயமற்றது	-6786
▁பதிலளிப்பவர்	-6787
ஜிய	-6788
▁லண்ட	-6789
▁சிங்கள	-6790
▁சங்கங்கள்	-6791
▁கையொப்பமிட	-6792
▁செய்தியில்	-6793
▁ஆயுதம்	-6794
▁அர்த்தத்தில்	-6795
ண்ணை	-6796
பாய்	-6797
▁பருவ	-6798
▁எங்களை	-6799
ர்த்துக்	-6800
▁நீட்டிப்பு	-6801
ஜன்	-6802
ெட்டு	-6803
▁கற்பித்தல்	-6804
▁தீர்க்கும்	-6805
▁விரிவாக்கம்	-6806
▁ஆகியவற்றுடன்	-6807
▁உட்பிரிவுகள்	-6808
னியில்	-6809
▁இஸ்லாமிய	-6810
▁தரப்பினருக்கு	-6811
▁உத்தரவுகளுக்கு	-6812
la	-6813
▁ஆஜர்ப	-6814
▁ஆளுநரின்	-6815
▁நேரங்களில்	-6816
▁பயனுள்ளதாக	-6817
▁மதிப்பாய்வு	-6818
ச்சா	-6819
▁அண்	-6820
▁விழா	-6821
ாளர்களாக	-6822
▁மாதிரியாக	-6823
▁மல	-6824
ச்சின்	-6825
▁சோசலி	-6826
▁சொல்லி	-6827
▁நலனில்	-6828
த்திலேயே	-6829
▁செல்லுபடியை	-6830
▁அப்படியானால்	-6831
▁மண்ண	-6832
▁கடத்த	-6833
▁ஒப்புதலை	-6834
▁தெரியும்	-6835
▁நிகழ்வுகள்	-6836
▁வெகுஜன	-6837
மெட்ரிக்	-6838
▁பின்வருவன	-6839
வருடன்	-6840
ப்பெண்ண	-6841
▁பின்பு	-6842
▁தொடரும்	-6843
▁முயற்சியை	-6844
▁வடிவமைப்பு	-6845
▁ஆணைக்குழுவின்	-6846
ளோ	-6847
பான	-6848
ஸ்வ	-6849
▁அறக்கட்டள	-6850
▁ஒன்றியத்தின்	-6851
▁இவ்	-6852
▁கடற்படை	-6853
▁நம்முடைய	-6854
▁கோட்பாடுகள்	-6855
ன்னா	-6856
▁பாதை	-6857
▁வாசி	-6858
▁வாதிட்ட	-6859
▁நாட்களில்	-6860
▁நேர்மையான	-6861
▁உட்பிரிவின்	-6862
▁நியமிக்கும்	-6863
ினாமா	-6864
▁வற்ப	-6865
▁விருதுகள்	-6866
▁ஆணையத்தால்	-6867
▁தொழில்முனை	-6868
▁வருமானத்தில்	-6869
▁நரே	-6870
▁விஜய்	-6871
▁தீர்மானத்தை	-6872
னான்	-6873
ளில்	-6874
வாரி	-6875
▁கடனை	-6876
▁சந்தித்த	-6877
ஸ்கி	-6878
▁மக்களுக்கும்	-6879
வாலா	-6880
▁பண்ண	-6881
ேட்டர்	-6882
▁கருதிய	-6883
ப்பையும்	-6884
▁செலவில்	-6885
▁நிலையம்	-6886
களிடமிருந்து	-6887
▁விரும்புகிறோம்	-6888
ாயுக	-6889
▁கோப்பு	-6890
▁நன்மைகளை	-6891
▁பெறுகிறது	-6892
▁ஆகியோருக்கு	-6893
▁நடத்துவதற்கு	-6894
▁மய	-6895
▁முஸ்லீ	-6896
▁உறவுகளை	-6897
▁சூழ்நிலைகளை	-6898
▁மகிழ்ச்சியடை	-6899
ஸ்ஸ	-6900
▁ஏர்	-6901
▁பழி	-6902
▁பாய	-6903
வந்து	-6904
▁தேவைப்பட்டால்	-6905
▁நம்பகத்தன்மையை	-6906
▁கொண்டிருக்கிறது	-6907
ோக்கு	-6908
▁கையாள்கிறது	-6909
▁பயோமெட்ரிக்	-6910
▁பயன்படுத்திய	-6911
ருதி	-6912
ிவிடும்	-6913
▁அப்படி	-6914
▁மகத்தான	-6915
▁சேவைகளின்	-6916
▁வழிநடத்து	-6917
▁காலாவதியான	-6918
ையினர்	-6919
▁தகுந்த	-6920
▁முகமது	-6921
▁சோவியத்	-6922
ீழ	-6923
பிசி	-6924
▁உளவு	-6925
ப்பொருட	-6926
்களுடன்	-6927
▁பொருளின்	-6928
▁அமைச்சின்	-6929
▁சுருக்கமாகக்	-6930
த்தோ	-6931
▁வக்ஃப்	-6932
▁இவர்கள்	-6933
▁தற்செயலான	-6934
தர்	-6935
▁தளம்	-6936
▁ஜூனியர்	-6937
▁அதிர்ச்ச	-6938
▁அத்தியாயத்தில்	-6939
ியான்	-6940
▁தாக்குதலை	-6941
▁இங்கிலாந்து	-6942
▁சுதந்திரத்தின்	-6943
▁ஆட்டோ	-6944
க்கவும்	-6945
▁மறுவாழ்வு	-6946
▁முடிவடைந்த	-6947
▁தரப்பினரும்	-6948
▁பத்திரத்தில்	-6949
▁இருக்கக்கூடும்	-6950
ாயிரம்	-6951
▁தங்கு	-6952
▁சிறைவா	-6953
▁தாமதமாக	-6954
▁அடையாளத்தை	-6955
▁கணக்கெடுப்பு	-6956
திகள்	-6957
ர்களிடையே	-6958
▁மற	-6959
▁ஜனநாய	-6960
▁மெமோராண்ட	-6961
▁ஆஜர்படுத்த	-6962
▁பரிந்துரைத்த	-6963
▁பயன்படுத்துதல்	-6964
க்குச்	-6965
ிப்பின்	-6966
▁நிதிச்	-6967
▁சட்டப்படி	-6968
▁செயல்பட்டு	-6969
▁எண்ணிக்கையை	-6970
▁உரிமையாளரின்	-6971
▁தொழில்முனைவோ	-6972
▁பிரச்சினையில்	-6973
நகர	-6974
▁பாரி	-6975
▁துரதிர்	-6976
▁நீடித்த	-6977
▁எரிசக்தி	-6978
▁பணியாளர்	-6979
மையைப்	-6980
▁இரட்டை	-6981
▁சூழ்நிலையை	-6982
▁தீர்ப்பைக்	-6983
▁மருந்துகள்	-6984
▁தொடக்கத்தில்	-6985
▁வைத்திருப்பவர்	-6986
ாடி	-6987
▁பிதா	-6988
▁பிரபு	-6989
▁வல்லுந	-6990
▁வெற்று	-6991
▁வளர்க்க	-6992
▁தப்பெண்ண	-6993
▁தவறினால்	-6994
▁சுற்றறிக்க	-6995
▁வேண்டுகோளை	-6996
▁விற்பனைக்கு	-6997
▁விவகாரங்கள்	-6998
ed	-6999
▁களை	-7000
▁சீரான	-7001
▁பிளவு	-7002
▁கணக்கான	-7003
களுக்குள்	-7004
▁பொருள்கள்	-7005
▁வாழ்வாதார	-7006
▁கட்டணங்களை	-7007
▁இன்ஸ்பெக்டர்	-7008
ராம்	-7009
வையாக	-7010
▁வயதி	-7011
த்தினர்	-7012
▁ஒன்றும்	-7013
▁பின்னரே	-7014
விடம்	-7015
▁பொய்	-7016
▁புவிய	-7017
▁வலைத்	-7018
▁ஒன்றியம்	-7019
▁நிர்வாகக்	-7020
ப்படக்கூடிய	-7021
▁குடிமக்களின்	-7022
▁எடுக்கப்பட்டது	-7023
▁சேகரிக்கப்பட்ட	-7024
▁வங்காள	-7025
ாவால்	-7026
▁கடனாளி	-7027
ச்சத்து	-7028
▁வாதிகள்	-7029
▁இழு	-7030
▁உடலில்	-7031
▁சைக்கி	-7032
▁புலம்ப	-7033
ப்படுவதாக	-7034
▁விரோதமாக	-7035
▁நிலைமைகள்	-7036
▁அதிகாரிகளை	-7037
மாற	-7038
▁வேக	-7039
கைகள்	-7040
▁உங்கள	-7041
▁பாங்க	-7042
▁லோகாயுக	-7043
ப்பெருக்க	-7044
▁தொடங்கும்	-7045
▁சிபிசியின்	-7046
▁செயல்திறனை	-7047
ொழு	-7048
▁வின	-7049
சித்து	-7050
▁அருகே	-7051
▁உடலுறவு	-7052
▁தொகையில்	-7053
▁தொடர்ந்தது	-7054
▁நம்பியிருந்தார்	-7055
▁செயலை	-7056
▁ஏழாவது	-7057
▁சுற்றி	-7058
▁மரணத்தை	-7059
▁ஒருவரின்	-7060
▁மகிழ்ச்சி	-7061
▁விகிதத்தை	-7062
▁இழப்பீட்டுத்	-7063
ர்கு	-7064
▁பல்ல	-7065
▁வரியை	-7066
▁பணிகளை	-7067
▁திருப்ப	-7068
▁வேறுபடுத்த	-7069
டுத்துகின்றன	-7070
▁அதிகாரிக்கு	-7071
IT	-7072
மேஷ்	-7073
▁பெயர்கள்	-7074
▁முயற்சிக்கவும்	-7075
▁குற்றப்பத்திரிக	-7076
ig	-7077
▁SL	-7078
▁குளி	-7079
▁மில்	-7080
▁சர்ச்சையை	-7081
▁விளக்கப்பட	-7082
▁விவசாயிகள்	-7083
▁வேதனையடைந்த	-7084
▁இயல்புநிலையாக	-7085
▁கதி	-7086
▁மதம்	-7087
▁தரும்	-7088
▁ஹெக்ட	-7089
▁வழங்குகின்றன	-7090
▁கோட	-7091
▁முதலிய	-7092
▁ஒருபுறம்	-7093
▁இருபது	-7094
▁தத்துவ	-7095
▁நடைபெற	-7096
ிருப்பதால்	-7097
▁மரணத்திற்கு	-7098
▁வரையறுக்கிறது	-7099
ற்றுக்	-7100
▁சிறார்	-7101
▁மடங்கு	-7102
▁தொகுப்பு	-7103
ாவிலும்	-7104
▁வரம்பில்	-7105
▁செய்துள்ள	-7106
ீவ்	-7107
ையு	-7108
▁தை	-7109
▁சேன	-7110
ுவேன்	-7111
▁சுற்றியுள்ள	-7112
▁வண்ண	-7113
▁இடங்கள்	-7114
▁இடைவெளி	-7115
▁பங்கைக்	-7116
▁தீர்ப்புகளில்	-7117
காட்ட	-7118
▁தொழில்கள்	-7119
▁பிரச்சினைகளை	-7120
▁மிருக	-7121
▁கண்ணிய	-7122
▁கடன்களை	-7123
▁செய்வதை	-7124
▁தனிநபர்	-7125
▁ஹோட்டல்	-7126
▁துண்டு	-7127
▁அமலாக்க	-7128
▁அவகாசம்	-7129
▁குறைகளை	-7130
▁வளங்களை	-7131
▁விளக்கு	-7132
மைப்படுத்த	-7133
▁இனப்பெருக்க	-7134
▁பிரிவுகளில்	-7135
சியா	-7136
▁ஆபி	-7137
ர்களைப்	-7138
▁மேலாளர்	-7139
▁ம்	-7140
▁பெயரை	-7141
▁செய்கிறார்	-7142
▁தேவைகளுக்கு	-7143
▁செயல்முறையின்	-7144
ER	-7145
▁வற	-7146
▁கடவு	-7147
▁நடிக	-7148
▁மரபு	-7149
▁மொஹமட்	-7150
விருக்கும்	-7151
▁வங்கியில்	-7152
▁கற்பனை	-7153
வரிட	-7154
▁நுழைய	-7155
த்திருப்ப	-7156
▁எரிபொருள்	-7157
▁கேள்விப்பட்ட	-7158
ET	-7159
தாய	-7160
ப்பார்	-7161
வாழ்வு	-7162
பவர்கள்	-7163
▁பெறவில்லை	-7164
▁சூழ்நிலைகளின்	-7165
▁ஃபெ	-7166
▁கூர்	-7167
மையுடன்	-7168
▁வெளிநாட்ட	-7169
▁கூட்டாண்மை	-7170
▁மன்றத்தின்	-7171
▁ரு	-7172
எஃப்	-7173
▁சொற்ற	-7174
த்தனமான	-7175
▁பிரகடனம்	-7176
ிக்கப்பட்டன	-7177
▁உண்மைகளில்	-7178
▁இடஒதுக்கீடு	-7179
▁கறை	-7180
▁மிர	-7181
▁ரவி	-7182
▁பதின	-7183
▁அசோக்	-7184
▁ஆய்வக	-7185
▁பட்டய	-7186
க்களையும்	-7187
▁வற்புறுத்த	-7188
▁சகா	-7189
ெடுப்ப	-7190
▁மீதும்	-7191
▁மொழியில்	-7192
▁துரதிர்ஷ்டவச	-7193
▁லை	-7194
துடன்	-7195
▁ராய்	-7196
▁ஆர்வத்தை	-7197
▁குறைப்பு	-7198
▁கட்டப்பட்ட	-7199
▁நிர்வாகத்தை	-7200
▁நிறைவேற்றும்	-7201
பொருட	-7202
▁எக்ஸ்ப	-7203
ாதிருந்த	-7204
▁பதவிகளை	-7205
▁வாகனத்தின்	-7206
▁m	-7207
ையொ	-7208
▁மகள	-7209
▁யதார்த்த	-7210
▁ஆவணங்களின்	-7211
ெல்	-7212
ாலம்	-7213
▁களில்	-7214
▁சொற்றொட	-7215
கொ	-7216
லையை	-7217
▁வெங்க	-7218
▁விசுவாச	-7219
▁அம்சத்தை	-7220
▁தொகையும்	-7221
▁அனைவரையும்	-7222
▁அனுப்பப்பட்டது	-7223
▁யூரோ	-7224
▁ஆத்திர	-7225
▁வரிக்கு	-7226
▁குறிப்பை	-7227
ராய	-7228
நோய்	-7229
ஷின்	-7230
▁பிறர்	-7231
▁எருசலே	-7232
▁செய்யுமாறு	-7233
▁வாய்ப்புகளை	-7234
▁வாரியத்தால்	-7235
▁திட்டவட்டமான	-7236
▁பிரித்தெடுக்க	-7237
▁வாதிடப்படுகிறது	-7238
ண்டை	-7239
▁புகாரின்	-7240
▁உரிமையையும்	-7241
▁நீதிபதிக்கு	-7242
நடை	-7243
த்திலோ	-7244
▁டாலர்	-7245
▁ஈர்த்த	-7246
த்தாலும்	-7247
▁சுகாதாரம்	-7248
▁ஊக்குவிக்க	-7249
▁வகுத்துள்ள	-7250
▁செய்யக்கூடிய	-7251
▁சட்டத்தின்படி	-7252
▁அடிப	-7253
▁முறிய	-7254
▁பதிவுகளை	-7255
▁முரண்பாட	-7256
▁விளக்கினார்	-7257
▁போட	-7258
▁மைக்	-7259
டுவதில்	-7260
ித்துள்ளார்	-7261
ஹர்	-7262
ட்ஸ்	-7263
▁ஆயின	-7264
▁அந்தப்	-7265
▁அறிவாற்றல்	-7266
▁இயந்திரங்கள்	-7267
▁மருத்துவர்கள்	-7268
os	-7269
பிய	-7270
▁முட	-7271
▁தயவு	-7272
▁எண்ணெய	-7273
▁எந்தக்	-7274
த்துக்கொள்ள	-7275
▁முயற்சியில்	-7276
▁வெளிப்பாட்டின்	-7277
ழில்	-7278
▁செயற்க	-7279
ெடு	-7280
▁தலைவரான	-7281
▁ஆய்வுகள்	-7282
▁நடத்தப்பட	-7283
▁பொருள்களை	-7284
▁செய்தித்தாள	-7285
▁பதிலளிக்கும்	-7286
ரப	-7287
ரெ	-7288
▁இயல	-7289
▁ஆரில்	-7290
▁டிக்க	-7291
▁கடன்கள்	-7292
த்துடனும்	-7293
▁பயக்கும்	-7294
▁அனுமதியின்றி	-7295
▁கட்டுப்பாட்டில்	-7296
ம்மை	-7297
▁ஒரி	-7298
▁செய்யவோ	-7299
▁தண்டிக்க	-7300
▁பின்பற்றி	-7301
▁போய	-7302
▁முறி	-7303
▁இயல்பான	-7304
▁பின்னணி	-7305
▁ஓட்டுநர்	-7306
▁உத்தரவுப்படி	-7307
▁உலகப்	-7308
▁கவனித்தபடி	-7309
▁நிர்வாகத்தில்	-7310
▁மிகச்	-7311
▁கலெக்ட	-7312
▁மோதல்களை	-7313
▁வழங்கலாம்	-7314
▁திணைக்களம்	-7315
▁தீர்ப்பளித்தது	-7316
▁இமாச்சல	-7317
▁ராஜினாமா	-7318
▁புறக்கணிக்க	-7319
▁யூன	-7320
▁பட்ஜ	-7321
▁தகப்ப	-7322
ப்பட்டதாக	-7323
▁குமாரனாகிய	-7324
▁டெல்லியின்	-7325
▁பெருநிறுவன	-7326
▁வருமானத்தின்	-7327
▁வழிப	-7328
▁தேடல்	-7329
▁பூகோள	-7330
▁அடக்கு	-7331
▁ஏஜென்சி	-7332
▁பதிவின்	-7333
▁காரணிகள்	-7334
த்துக்கொண்ட	-7335
▁வழிவகுக்கிறது	-7336
ேடு	-7337
▁எஃ	-7338
▁இலாபங்கள்	-7339
▁பட்டியலிட	-7340
▁வகைப்பாடு	-7341
▁சர்ச்சையும்	-7342
▁வலியுறுத்தியது	-7343
▁१६	-7344
வுன்	-7345
▁ஜான்	-7346
▁மிஸ்ரா	-7347
▁சேமிக்க	-7348
▁ஆயினும்கூட	-7349
சாமி	-7350
▁வம்ச	-7351
▁தேவன்	-7352
ிப்பில்	-7353
▁அர்த்தம்	-7354
▁அணுகுமுறையை	-7355
பெற	-7356
ிலை	-7357
ாளரான	-7358
ுக்குப்	-7359
▁சலுகைகளை	-7360
▁அவசியத்தை	-7361
▁பதினைந்து	-7362
திர	-7363
▁அக்கற	-7364
▁தங்குமிட	-7365
▁முடியாமல்	-7366
▁முயன்றார்	-7367
▁சொந்தமானது	-7368
▁நெருக்கமாக	-7369
▁வக்கீல்கள்	-7370
▁தரப்பினரின்	-7371
ID	-7372
▁அட்டை	-7373
▁இடைவெ	-7374
▁இப்பட	-7375
▁செயலற்ற	-7376
▁இடத்திலிருந்து	-7377
ாலோ	-7378
▁அகமது	-7379
▁துண்ட	-7380
▁பிரீமிய	-7381
▁செயல்பட்ட	-7382
▁என்பதாகும்	-7383
யு	-7384
▁கோவா	-7385
▁காரிய	-7386
▁ஆன்லைன்	-7387
▁கல்வியை	-7388
▁சிந்தனை	-7389
▁வந்தனர்	-7390
▁வழங்கவும்	-7391
▁வியாபார	-7392
▁ஆலோசனைக்	-7393
▁இராணுவத்	-7394
▁பெட்ரோலிய	-7395
▁காரணத்தையும்	-7396
▁நடவடிக்கைக்கு	-7397
போல	-7398
▁விலகி	-7399
பூர்வமான	-7400
▁அமர்ந்த	-7401
▁அலகுகள்	-7402
▁அவளுடைய	-7403
▁அணுசக்தி	-7404
▁எழுந்தது	-7405
▁பொதுமக்கள்	-7406
▁அதன	-7407
▁கதா	-7408
▁பெறாத	-7409
▁ஹவுஸ்	-7410
▁எச்சரி	-7411
▁கொண்டவை	-7412
▁விஷயமாக	-7413
ாளர்களும்	-7414
▁இருப்பார்	-7415
▁காட்டினார்	-7416
▁நிறுவப்பட்டது	-7417
▁புத்திசாலித்தன	-7418
▁NO	-7419
ட்டம்	-7420
னத்தை	-7421
▁சோதனையை	-7422
▁எப்போதுமே	-7423
▁பத்திரிகைய	-7424
▁செய்யும்போது	-7425
▁ஏஏ	-7426
▁பேசு	-7427
சியில்	-7428
ாக்கள்	-7429
ுக்குள்	-7430
▁ஏமாற்ற	-7431
▁விளம்பரமில்லாத	-7432
நாத	-7433
▁தாக	-7434
ராகிய	-7435
▁ஆட்சியை	-7436
▁ஜனநாயகம்	-7437
▁செய்யவும்	-7438
▁இருக்கின்றன	-7439
ோகம்	-7440
வானது	-7441
ன்புரி	-7442
விக்கான	-7443
முறையில்	-7444
▁நீதிபதியை	-7445
▁என்பதற்காக	-7446
▁டெல்லியில்	-7447
▁வழக்கிலும்	-7448
▁ஆட்சேபனைகளை	-7449
▁முடிவுகளில்	-7450
▁தொழிற	-7451
▁ஜு	-7452
▁போரை	-7453
▁பாரத்	-7454
▁மேற்ச	-7455
▁விளைவை	-7456
▁துருக்க	-7457
▁செயல்பாட்ட	-7458
▁செய்துள்ளனர்	-7459
▁விவகாரத்தில்	-7460
IL	-7461
▁எஃகு	-7462
வாகும்	-7463
▁சமகால	-7464
▁நிறைய	-7465
▁சண்டிக	-7466
▁மதுபான	-7467
▁புவியியல்	-7468
▁அதிகரித்து	-7469
▁சரிபார்ப்பு	-7470
▁விதிவிலக்கான	-7471
▁மழை	-7472
▁கொல்க	-7473
▁பொழுது	-7474
▁உரிமைகளைப்	-7475
▁கொள்கைகளுக்கு	-7476
தாபி	-7477
▁என்ஐ	-7478
▁ஹீரோ	-7479
▁குழும	-7480
ாண்டின்	-7481
▁மனுக்களில்	-7482
▁ஆளுமை	-7483
ுவிட்டன	-7484
▁சகோதரி	-7485
▁விருந்த	-7486
▁பின்னரும்	-7487
▁தொடர்கிறது	-7488
▁பிரச்சாரம்	-7489
▁உரிமைகோருபவர்	-7490
▁பரிவர்த்தனைகள்	-7491
க்ட	-7492
ாகப்	-7493
ாகவே	-7494
ிப்போ	-7495
▁தாஸ்	-7496
▁உற்பத்த	-7497
▁நலன்புரி	-7498
▁கொள்கைக்கு	-7499
லன்	-7500
▁குர	-7501
வுள்ள	-7502
▁பேசும்	-7503
▁சவுத்ரி	-7504
▁எதிரானது	-7505
▁கட்டியெழு	-7506
▁திருமணமான	-7507
ிருக்கின்றன	-7508
பாட	-7509
▁IA	-7510
▁விக்	-7511
வையில்	-7512
▁அடைந்தால்	-7513
te	-7514
றல்	-7515
▁சமய	-7516
▁ரஞ்ச	-7517
ம்பரில்	-7518
ெயர்ந்த	-7519
▁போக்கில்	-7520
▁வேலைக்கு	-7521
▁தன்மையில்	-7522
▁மேற்சொன்ன	-7523
▁திருத்தத்தை	-7524
ாலய	-7525
ங்கல்	-7526
மாக்க	-7527
ள்ளான	-7528
னையுடன்	-7529
▁முறைகேடு	-7530
▁முடிந்தவரை	-7531
▁உண்மைகளுக்கு	-7532
▁AP	-7533
▁தரை	-7534
ென்ஸ்	-7535
▁குடியே	-7536
முடியாது	-7537
▁புலிகளின்	-7538
▁மாணவர்களை	-7539
▁நியாயமானது	-7540
▁சமர்ப்பிப்புகள்	-7541
▁எண	-7542
▁ஈரான்	-7543
▁தற்காலிகமாக	-7544
▁ஆலய	-7545
▁பிளேய	-7546
▁வந்தபோது	-7547
▁பிறப்பிக்க	-7548
▁துவ	-7549
▁செயலா	-7550
▁பாண்ட	-7551
▁வகிக்க	-7552
ிருப்பதை	-7553
▁மேலாதிக்க	-7554
▁கொள்கைகளின்	-7555
ேக்க	-7556
▁ரசிக	-7557
▁தாங்கள்	-7558
▁பிணைப்பு	-7559
▁அடைவதற்கு	-7560
▁வெற்றிடமாக	-7561
▁குற்றத்திற்கு	-7562
ME	-7563
▁அழி	-7564
▁தீய	-7565
▁மலைய	-7566
▁வென்ற	-7567
ுவிடும்	-7568
▁தொழிற்க	-7569
த்ம	-7570
பாமா	-7571
ிறதா	-7572
▁மூடி	-7573
▁நீக்க	-7574
▁வலிமை	-7575
▁பட்டம்	-7576
▁நிலைமையை	-7577
▁கருதினார்	-7578
▁கொள்ளப்பட	-7579
▁வெற்றிகரமான	-7580
▁நம்பியுள்ளது	-7581
▁தீர்க்கப்பட்ட	-7582
▁பெரும்பான்மையான	-7583
▁சந்தோ	-7584
▁கேட்டார்	-7585
▁மதிப்பில்	-7586
▁மாநிலத்திற்கான	-7587
்ப்	-7588
்களுக்கும்	-7589
▁வார்த்தையை	-7590
▁மதிப்பீட்டை	-7591
▁சற்று	-7592
▁டெண்ட	-7593
ையொட்டி	-7594
▁ஆவி	-7595
▁அண்ட்	-7596
▁தடையற்ற	-7597
▁பாராவில்	-7598
▁பாகிஸ்தான	-7599
▁வரம்புகள்	-7600
க்கப்பட்டால்	-7601
▁நடவடிக்கைகளும்	-7602
▁இல்லாவிட்டாலும்	-7603
▁ஜஸ்ட	-7604
லுக்கும்	-7605
▁அப்பாவி	-7606
▁ஊட்டச்சத்து	-7607
ாளரும்	-7608
த்தினாலும்	-7609
▁கூறவில்லை	-7610
▁பாதுகாப்பாக	-7611
▁வாழ்த்துக்களை	-7612
▁உறுப்பினர்களாக	-7613
▁தூர	-7614
▁காகித	-7615
▁சேதம்	-7616
▁எப்படிய	-7617
▁நான்காம்	-7618
▁கேள்விகளை	-7619
▁நிறுவுதல்	-7620
▁மாஜிஸ்திரே	-7621
▁ஒவ்வொன்றும்	-7622
▁கொண்டுள்ளனர்	-7623
▁மதிப்பிடப்பட்ட	-7624
de	-7625
ரைய	-7626
ீம்	-7627
▁அடைந்து	-7628
▁ஆண்டும்	-7629
▁செய்யாத	-7630
▁ஊழியரின்	-7631
▁நீக்குதல்	-7632
▁ஆதாரங்களில்	-7633
▁புதுப்பித்தல்	-7634
▁சுட்டிக்காட்டு	-7635
▁மறுபடியும்	-7636
▁தீர்ப்பதற்கான	-7637
▁பிரதிவாதியின்	-7638
▁ரெட்டி	-7639
ொள்கிறோம்	-7640
▁பெஞ்சால்	-7641
▁வீட்டின்	-7642
ெங்க	-7643
ம்பல்	-7644
▁சூர்	-7645
மைப்பை	-7646
▁இட்டு	-7647
▁சஞ்சய்	-7648
▁தொந்தர	-7649
▁கமிட்டி	-7650
▁சரிசெய்த	-7651
▁பெருமளவில்	-7652
▁திட்டங்களின்	-7653
▁கவனிக்கப்பட்ட	-7654
▁புகார்தாரரின்	-7655
▁மாநக	-7656
ார்களா	-7657
ிற்குள்	-7658
▁சம்மன்	-7659
க்காகவும்	-7660
▁தீர்ப்பும்	-7661
▁சந்தைப்படுத்தல்	-7662
கல்	-7663
▁நாராய	-7664
▁சாதகமாக	-7665
▁துறைகள்	-7666
▁திருப்திக	-7667
▁வெளிப்படை	-7668
▁வழங்குமாறு	-7669
▁நிலையத்திற்கு	-7670
▁இந்தியாவை	-7671
ாவிலிருந்து	-7672
ிப்பதை	-7673
▁ஒரிசா	-7674
▁கோட்ட	-7675
▁வயதான	-7676
வர்த்தி	-7677
▁முடித்த	-7678
▁அவசியமாக	-7679
▁உள்ளீடுகள்	-7680
மீது	-7681
▁திண	-7682
▁அவரின்	-7683
▁வீடுகள்	-7684
▁கவனித்தார்	-7685
▁தவறிவிட்டார்	-7686
▁விண்ணப்பமும்	-7687
▁ஹி	-7688
த்மா	-7689
▁தொழு	-7690
▁அம்பல	-7691
▁சில்ல	-7692
▁முட்ட	-7693
▁துணைவே	-7694
▁முற்றிலு	-7695
▁வரம்பின்	-7696
▁தனிநபரின்	-7697
▁மற்றொன்று	-7698
▁வரையப்பட்ட	-7699
▁ஆயிரக்கணக்கான	-7700
▁ஆசாரிய	-7701
▁வகுக்க	-7702
▁தினத்தை	-7703
▁அனுமானம்	-7704
▁தொடங்கினார்	-7705
▁சிஆர்பிசியின்	-7706
▁நதி	-7707
ation	-7708
▁கருவ	-7709
▁சமயம்	-7710
▁வரைபட	-7711
மருந்து	-7712
வற்றில்	-7713
▁அன்பான	-7714
▁கொடுமை	-7715
▁வடிவம்	-7716
▁செல்கிறது	-7717
▁மற்றவர்கள்	-7718
▁ஏற்படுத்தாது	-7719
▁சாத்தியமில்லை	-7720
▁CO	-7721
▁ஆண்	-7722
▁சுழ	-7723
▁உற்ச	-7724
ீட்டைக்	-7725
▁இழப்பை	-7726
▁நடித்த	-7727
▁நின்று	-7728
▁வீட்டை	-7729
▁மிகாமல்	-7730
▁காட்டியது	-7731
▁மைதான	-7732
▁முயன்றது	-7733
▁ரை	-7734
▁திறமை	-7735
▁மோதல்	-7736
▁நிறுத்து	-7737
▁பகுதிகளை	-7738
▁வாசிப்பு	-7739
▁நிறுவனங்களால்	-7740
ing	-7741
க்கலை	-7742
▁கூறுவது	-7743
▁ஆபிரிக்க	-7744
▁இயற்கையான	-7745
▁கடனாளியின்	-7746
▁பயன்பாட்டு	-7747
▁தேர்ந்தெடுக்க	-7748
சில்	-7749
ொருள	-7750
▁அவனுடைய	-7751
▁கால்நடை	-7752
▁கிருஷ்ணா	-7753
▁மாநாட்டின்	-7754
▁உரிமையாளருக்கு	-7755
▁பொருளாதாரத்தின்	-7756
▁தரங்களை	-7757
▁சமூகத்தில்	-7758
▁நூற்றாண்டு	-7759
▁ஆடை	-7760
▁கோயில்	-7761
▁சொல்வது	-7762
▁படிவத்தில்	-7763
▁கட்டுரையில்	-7764
▁காவல்துறையினர்	-7765
ூரின்	-7766
ரிலும்	-7767
▁ஒபாமா	-7768
▁தடைகள்	-7769
▁நலன்கள்	-7770
▁நடக்கும்	-7771
▁கிடைத்தது	-7772
▁சோசலிஸ்ட்	-7773
▁காட்டுகின்றன	-7774
▁சட்டத்தையும்	-7775
▁அரசாங்கத்தில்	-7776
பல்	-7777
▁கஷ்ட	-7778
▁சொற்ப	-7779
▁உற்சாக	-7780
▁வருத்த	-7781
▁விதியை	-7782
▁நடத்தும்	-7783
▁முதலாவது	-7784
▁அமைப்புகளின்	-7785
▁கட்டாயத்தில்	-7786
▁புரிந்துகொள்ள	-7787
ிழமை	-7788
▁இதய	-7789
▁வேறொரு	-7790
▁அனுப்பி	-7791
▁வரியின்	-7792
▁வழக்குச்	-7793
▁எதிர்ப்பை	-7794
▁பங்களிப்பை	-7795
▁முற்றிலுமாக	-7796
▁குடும்பத்தின்	-7797
்பி	-7798
▁சாவ	-7799
▁இண்ட	-7800
▁பொதி	-7801
▁இறந்தார்	-7802
ித்துள்ளது	-7803
▁எச்சரிக்கை	-7804
▁வைத்திருந்தார்	-7805
மிர	-7806
ூப்	-7807
ணக்கான	-7808
▁தொடர்வ	-7809
▁மனிதாபி	-7810
▁பெண்ணின்	-7811
▁சிகிச்சைய	-7812
▁ஆலோசகர்கள்	-7813
▁குறித்தும்	-7814
▁சுயாதீனமாக	-7815
▁காலப்பகுதியில்	-7816
▁எங்கள	-7817
ப்பிரிக்க	-7818
▁மாற்றும்	-7819
▁அதிகரித்த	-7820
▁தகவல்களைப்	-7821
▁காரணங்களின்	-7822
▁அரசாங்கங்கள்	-7823
▁முடிவெடுக்கும்	-7824
▁லீ	-7825
சின்	-7826
▁SLP	-7827
▁வீச	-7828
வாதம்	-7829
▁உடன்பட	-7830
▁காற்று	-7831
▁முதுகலை	-7832
▁மனிதாபிமான	-7833
▁வெடிமருந்து	-7834
▁வழக்குரைஞரின்	-7835
ுள்	-7836
ோஸ்	-7837
ந்துபோ	-7838
்களைக்	-7839
▁கூற்றை	-7840
▁சுமத்த	-7841
▁குடியேற்ற	-7842
▁மூலமாகவும்	-7843
ச்செ	-7844
▁அவு	-7845
▁உணர்த	-7846
▁கையொப்பம்	-7847
▁நடைபெறும்	-7848
▁பெண்களின்	-7849
ுகிறேன்	-7850
▁குறைவு	-7851
▁பாதிக்காது	-7852
மளிக்க	-7853
▁தொடுப்ப	-7854
▁யாருடைய	-7855
▁மீறுவதாக	-7856
▁பாதுகாக்கும்	-7857
▁நீள	-7858
▁நம்பி	-7859
சியுடன்	-7860
ிருப்பதைக்	-7861
▁பயன்படுத்தும்	-7862
▁பிரதிவாதிக்கு	-7863
▁பூம	-7864
▁அறுப	-7865
லாந்து	-7866
டிகாட்ட	-7867
▁உங்களை	-7868
▁பெட்டி	-7869
▁அலகாபாத்	-7870
▁பலவீனமான	-7871
▁செல்லுபடியாக	-7872
▁ட்ரொ	-7873
ுவதில்லை	-7874
▁இறந்தவரை	-7875
▁நெடுஞ்சாலை	-7876
▁எடுத்துள்ளது	-7877
▁ஊக்குவிக்கும்	-7878
தலின்	-7879
▁உனக்கு	-7880
▁திறக்க	-7881
▁புலிகள்	-7882
▁பிரச்சனை	-7883
▁மோதல்கள்	-7884
▁வாக்குமூலத்தை	-7885
▁In	-7886
▁தலா	-7887
விடும்	-7888
▁நிருப	-7889
▁அவசரகால	-7890
▁வெளிநாடு	-7891
▁கணக்குகள்	-7892
க்களுக்கும்	-7893
▁கொண்டுள்ளோம்	-7894
▁r	-7895
▁இன்ட	-7896
▁பயணம்	-7897
▁விபரீ	-7898
▁தானாகவே	-7899
▁சொத்தில்	-7900
▁கற்பழிப்பு	-7901
▁எதிர்பார்ப்ப	-7902
▁ஜனாதிபதியால்	-7903
▁அறிவிப்புக்கு	-7904
▁எகிப்த	-7905
▁ஆராய்வது	-7906
▁இயங்கும்	-7907
▁எடுத்துள்ள	-7908
▁பாதுகாத்தல்	-7909
▁அக்	-7910
▁ஆரின்	-7911
▁தயார்	-7912
▁நாற்ப	-7913
▁மாண்ட	-7914
▁வாதங்கள்	-7915
▁பொருத்தமற்ற	-7916
▁வைக்கப்படும்	-7917
▁பிரதிபலிக்கிறது	-7918
▁மென்	-7919
▁உடலின்	-7920
▁ஆதாரமாக	-7921
▁ஒத்துப்போ	-7922
▁விசாரணைக்	-7923
▁கணக்கிடப்பட்ட	-7924
▁Mo	-7925
னிங்	-7926
ங்கம்	-7927
டுங்கள்	-7928
ளின்படி	-7929
▁சில்லறை	-7930
▁பெண்களுக்கு	-7931
▁துப்பாக்கிச்	-7932
லெ	-7933
▁பூஜ்	-7934
▁கண்டன	-7935
▁கழகம்	-7936
▁சிபிசி	-7937
▁ஜஸ்டிஸ்	-7938
▁முழுவது	-7939
▁தாமதத்தை	-7940
▁முன்னிலை	-7941
▁மையங்கள்	-7942
▁மன்னிப்பு	-7943
த்துக்கொள்வ	-7944
▁படப்பிடிப்பு	-7945
▁மனசா	-7946
▁சர்வே	-7947
▁தப்பி	-7948
▁அப்புற	-7949
▁நேரில்	-7950
▁சென்றது	-7951
செய்கிறது	-7952
▁ஒழுங்குப	-7953
▁திட்டமிட்ட	-7954
▁காள	-7955
கிறதா	-7956
▁சம்மத	-7957
ுவதாகும்	-7958
▁நடைமுறையின்	-7959
▁தயாரிப்புகள்	-7960
ுறு	-7961
▁ஹூ	-7962
க்குற	-7963
▁தெரியாது	-7964
▁வழக்கறிஞரின்	-7965
ர்ஸ்	-7966
▁நோக்கு	-7967
▁எடுத்துக்கொள்வ	-7968
▁தாவீ	-7969
▁மீன்	-7970
▁ட்ரொட்	-7971
▁ஒப்படைக்க	-7972
▁நபர்களால்	-7973
▁விசித்திர	-7974
▁நேர்மறையான	-7975
▁புரிந்துணர்வு	-7976
▁ஒழுங்குமுறைகள்	-7977
த்யா	-7978
ுவாத	-7979
னியின்	-7980
▁நிலவர	-7981
▁மார்ப	-7982
▁இயலாது	-7983
▁நாட்டை	-7984
▁நம்பிக்கையின்	-7985
▁ஏற்படுத்துகிறது	-7986
ப்பாக	-7987
▁தருவ	-7988
ுவரும்	-7989
▁பயனற்ற	-7990
▁உத்தரவுகளின்	-7991
ீப்	-7992
▁திக	-7993
▁கமிஷன	-7994
▁ஒருவரை	-7995
ினருக்கு	-7996
▁வைப்பது	-7997
▁தேர்வுக்	-7998
▁தொகைக்கு	-7999
▁தயவுசெய்து	-8000
▁எங்களுக்குத்	-8001
▁பழங்குடியினர்	-8002
ழ்க	-8003
ல்களையும்	-8004
ப்படுத்திய	-8005
▁வேட்பாளர்களின்	-8006
ஜினிய	-8007
▁உறவை	-8008
▁பத்த	-8009
▁அளவைக்	-8010
▁கட்டம்	-8011
▁ஆகியோரை	-8012
▁தேவனுடைய	-8013
▁இனப்பெருக்கம்	-8014
▁கட்சியை	-8015
▁நிபந்தனைகளின்	-8016
ிப்	-8017
பிக்	-8018
வைகள்	-8019
வையின்	-8020
▁அளவீடு	-8021
▁படுக்க	-8022
ிடுகிறது	-8023
▁இளைஞர்கள்	-8024
▁வருகின்றனர்	-8025
AL	-8026
▁ஒய்	-8027
ெக்ட்	-8028
▁தெற்க	-8029
னையான	-8030
▁இன்றி	-8031
▁போக்க	-8032
▁ஆயினும்	-8033
▁விளக்கும்	-8034
▁நோக்கங்கள்	-8035
▁அப்பாற்பட்டது	-8036
▁பெர்	-8037
▁மாணவர்	-8038
▁தேர்ச்சி	-8039
▁வளர்ப்பு	-8040
▁விடுத்தார்	-8041
▁ஏற்படுத்திய	-8042
▁ஆண்டுகளுக்கும்	-8043
தாரி	-8044
▁ஏசி	-8045
▁எங்கு	-8046
▁பாரிய	-8047
▁கர்த்தருக்கு	-8048
▁மற்றவற்றுடன்	-8049
▁மாவட்டத்தில்	-8050
▁CR	-8051
லாமா	-8052
ிக்கொ	-8053
▁ஷேக்	-8054
ப்பதாக	-8055
▁இயங்க	-8056
▁க்கள்	-8057
▁மேமன்	-8058
▁ஆண்டுகளுக்குப்	-8059
▁குத்தகைதாரரின்	-8060
▁கலந்துரையாடலின்	-8061
பாய	-8062
ோசி	-8063
பியா	-8064
▁ஸ்தாபன	-8065
▁உண்மையாக	-8066
▁அண்மையில்	-8067
▁அதிகாரத்துவ	-8068
▁உரிமையாளராக	-8069
▁பொறுப்புகள்	-8070
ாரஸ்	-8071
▁தாள	-8072
▁அநீதி	-8073
▁பேரழி	-8074
▁குற்றத்தில்	-8075
▁மாணவர்களுக்கு	-8076
▁வெளிப்படையானது	-8077
▁முயல	-8078
▁உயிரு	-8079
▁மாஸ்டர்	-8080
ாளர்களில்	-8081
▁முறையின்	-8082
▁பெஞ்சிற்கு	-8083
▁மதிப்பெண்கள்	-8084
▁அரசியலமைப்பால்	-8085
▁மறுத்து	-8086
▁மாற்றுவதன்	-8087
▁காச	-8088
▁வருஷ	-8089
▁உன்னை	-8090
▁எளிதில்	-8091
▁ஒழுக்கா	-8092
▁புறநிலை	-8093
்களுக்கான	-8094
▁எக்ஸ்பிர	-8095
▁விசாரித்த	-8096
▁பாகிஸ்தான்	-8097
▁கட்டுப்பாட்டை	-8098
▁செய்யக்கூடாது	-8099
▁மறுத்துவிட்டது	-8100
▁ரோஹ	-8101
லிக்க	-8102
▁உச்சவர	-8103
▁நிலவும்	-8104
▁விநியோகம்	-8105
▁சுத்திகரிப்பு	-8106
ானி	-8107
▁எங்கே	-8108
▁கிடைய	-8109
▁லாபம்	-8110
▁எவரும்	-8111
▁மந்திர	-8112
▁கோரியது	-8113
▁தண்ணீர்	-8114
ாவிற்கும்	-8115
▁குழந்தைகளுக்கு	-8116
▁நேரு	-8117
▁ஆர்ஸ்	-8118
ியடைந்த	-8119
ர்களுக்காக	-8120
▁தலைப்பின்	-8121
▁கட்சிகளுக்கான	-8122
▁வெளிப்படுத்தும்	-8123
ோன்	-8124
ஆர்ட	-8125
▁சச்ச	-8126
▁சிவா	-8127
ப்பைத்	-8128
▁நன்கொ	-8129
▁பண்ணை	-8130
▁கூறுகள்	-8131
▁பின்தொட	-8132
ெங்கிலும்	-8133
▁காண்பிக்கும்	-8134
▁காற்ற	-8135
▁பழக்க	-8136
ரீதியாக	-8137
▁முஸ்லீம்	-8138
▁வழக்கைப்	-8139
▁ஸ்ராலினிச	-8140
▁கையகப்படுத்து	-8141
▁சூழ்நிலைகளையும்	-8142
ய்ட	-8143
▁உயர்க	-8144
▁பணியை	-8145
▁குடும்பம்	-8146
▁பயன்பாட்ட	-8147
▁ஊழியருக்கு	-8148
▁சுற்றுச்சூழ	-8149
▁தயாரிக்கும்	-8150
ாளர்களுக்கும்	-8151
▁கொள்ளும்போது	-8152
▁Crl	-8153
ின்றி	-8154
▁அம்ரப	-8155
▁தியாக	-8156
்களுக்காக	-8157
▁சிறுபான்மை	-8158
▁கட்டிடத்தின்	-8159
்பால்	-8160
▁கோல்	-8161
▁நாகரிக	-8162
▁பயனாளி	-8163
▁திசையில்	-8164
▁நிகழ்த்த	-8165
▁மூன்றில்	-8166
▁தக்கவைக்க	-8167
சர்	-8168
றிவு	-8169
▁நிலப்ப	-8170
▁மறுத்த	-8171
▁தனியுரி	-8172
▁வரும்போது	-8173
▁பலாத்காரம்	-8174
▁இன்றியமையாத	-8175
▁பகுதியையும்	-8176
▁பதவிகளுக்கு	-8177
▁சமுதாயத்தின்	-8178
▁இறை	-8179
▁பட்ச	-8180
▁வளாகத்தை	-8181
▁உரிமைகளின்	-8182
▁முறையீடுகளை	-8183
▁ஏபி	-8184
▁மலி	-8185
▁பங்குச்	-8186
▁மாற்றத்தை	-8187
▁விதிகளால்	-8188
▁விதிக்கிறது	-8189
▁சுமத்தப்பட்ட	-8190
▁சாதிய	-8191
▁பிளாட்	-8192
▁காணாமல்	-8193
▁ஏற்பாட்டை	-8194
▁விகிதங்கள்	-8195
▁நிகழ்வுகளின்	-8196
▁நேப	-8197
▁செஸ்	-8198
▁ஆவார்	-8199
▁அறியும்	-8200
▁ஆனாலும்	-8201
க்கியுள்ளது	-8202
▁திருமணத்தை	-8203
▁மாதங்களில்	-8204
▁அரசாங்கமும்	-8205
▁அழைக்கப்பட்ட	-8206
▁காலியிடங்கள்	-8207
▁உக	-8208
▁போவ	-8209
▁அர்ப்பண	-8210
▁பாக்கிஸ்தான	-8211
▁வாதிடுகிறார்	-8212
ut	-8213
▁மண்	-8214
ஸ்டிக்	-8215
னித்துவ	-8216
▁அரிதான	-8217
▁இடைநிலை	-8218
▁நிகழும்	-8219
▁வாதத்தில்	-8220
▁நிறுவனங்கள	-8221
த்திடமிருந்து	-8222
▁கலந்தாலோசித்து	-8223
No	-8224
▁ஆக்க	-8225
▁நல்லது	-8226
▁இலவசமாக	-8227
▁ஒற்றுமை	-8228
யி	-8229
▁சந்த்	-8230
▁பாங்க்	-8231
▁மாருதி	-8232
▁கடமையில்	-8233
▁கல்வியின்	-8234
▁இருக்கிறதா	-8235
▁குடியரசுக்	-8236
▁பலப்படுத்த	-8237
▁மாற்றுவதற்கு	-8238
▁அஜ	-8239
ல்வி	-8240
▁பாச	-8241
▁சோதி	-8242
ண்டாம்	-8243
▁நடிகர்	-8244
▁இலக்கிய	-8245
▁எங்கும்	-8246
▁நேரடியாகவோ	-8247
▁அமைக்கப்பட்டது	-8248
கிழ	-8249
▁SP	-8250
▁கொன்ற	-8251
▁பகுப்பாய்	-8252
▁தடய	-8253
▁ஆச்சரிய	-8254
▁சூப்பர்	-8255
▁கிடையாது	-8256
▁பொருளும்	-8257
▁போட்டியிட	-8258
▁மேலதிகமாக	-8259
▁உபகரணங்கள்	-8260
▁சட்டமன்றத்	-8261
▁உண்மையிலேயே	-8262
▁காத்திருக்க	-8263
▁முடிவுகளின்	-8264
▁சட்டத்திலும்	-8265
▁குற்றங்களுக்கு	-8266
தாப	-8267
முயற்	-8268
▁எதிர்மற	-8269
▁அம்ரபாலி	-8270
▁ஆணையாளர்	-8271
▁ஊழியர்களை	-8272
▁நோக்கமும்	-8273
▁வழிநடத்தும்	-8274
▁கண்டறியப்பட்ட	-8275
OC	-8276
▁ஆளான	-8277
▁மாலா	-8278
▁எண்ணை	-8279
▁சாதகமான	-8280
▁பிரிவினை	-8281
▁வெளியில்	-8282
▁ஏற்பாடும்	-8283
▁வேறுபாடுகள்	-8284
▁இயற்றப்பட்டது	-8285
▁மனுதாரர்களுக்கு	-8286
ிறு	-8287
▁கிளி	-8288
▁திசையை	-8289
▁வட்டார	-8290
▁மீறுவது	-8291
▁குறிப்பிடவில்லை	-8292
ுவா	-8293
▁மித	-8294
பிள்யு	-8295
▁நின்ற	-8296
▁சாராம்	-8297
▁செழிப்பு	-8298
▁ஊதியங்கள்	-8299
▁வெளியிட்டார்	-8300
▁ஈர்ப்ப	-8301
▁புரட்சி	-8302
▁கேட்டுக்	-8303
▁போராட்டம்	-8304
▁சிக்	-8305
▁உச்சி	-8306
▁எதிராகவும்	-8307
▁நிர்ணயிக்க	-8308
▁காப்பீட்டுக்	-8309
▁மனுதாரருக்கான	-8310
▁தொழிற்சங்கங்கள்	-8311
MP	-8312
▁நடன	-8313
▁மீள	-8314
ப்பைப்	-8315
▁மாசுப	-8316
▁விமர்சன	-8317
▁எடுத்தது	-8318
▁வேலையில்	-8319
களிலிருந்தும்	-8320
ப்படுவதாகவும்	-8321
▁அவதானிப்புகளை	-8322
▁சேர்ந்தவர்கள்	-8323
வர்களிடமிருந்து	-8324
▁கற்றுக்கொண்டார்	-8325
▁நூறு	-8326
▁நீதியை	-8327
▁கண்டனம்	-8328
▁கான்ஸ்ட	-8329
▁ஆயுதங்களை	-8330
▁காலனித்துவ	-8331
▁பயன்பாட்டை	-8332
▁விசாரணைகள்	-8333
▁பிரதிபலிக்க	-8334
▁தொடங்குகிறது	-8335
தள	-8336
வகை	-8337
மியா	-8338
▁சம்	-8339
▁ஆதிக்கம்	-8340
▁கொடுப்பனவுகள்	-8341
யிற்	-8342
▁அவன	-8343
▁அமிக	-8344
▁இந்தோ	-8345
▁விதித்த	-8346
▁தணிக்கும்	-8347
▁ஒருவருக்கு	-8348
▁குண்டுவெடி	-8349
▁வைப்புத்தொக	-8350
▁தாக்குதல்கள்	-8351
▁கொள்ளப்பட்டது	-8352
▁கர்	-8353
▁கழி	-8354
▁நபரால்	-8355
▁இடங்களை	-8356
▁கட்சியாக	-8357
▁மதத்தின்	-8358
▁குற்றமற்ற	-8359
▁மாற்றியமைக்க	-8360
▁ஒப்பந்தக்காரர்	-8361
▁ஈவு	-8362
▁சாய	-8363
▁எமது	-8364
▁நேர்க	-8365
ல்களும்	-8366
க்களுடன்	-8367
▁விடுத்து	-8368
▁நிராகரித்த	-8369
▁வைக்கப்பட்டு	-8370
▁நடவடிக்கையில்	-8371
▁GO	-8372
ஸ்பி	-8373
▁பெய்	-8374
▁தெரிந்து	-8375
III	-8376
ம்போ	-8377
ட்சிக	-8378
▁தளபதி	-8379
▁மைனர்	-8380
▁பணத்தைத்	-8381
▁மின்னஞ்ச	-8382
▁முன்னால்	-8383
▁நிலையங்கள்	-8384
▁தழுவ	-8385
▁படிவு	-8386
▁காணும்	-8387
▁கடத்தல்	-8388
▁பகுதியும்	-8389
▁பதிவேட்டில்	-8390
▁சாட்சியங்களை	-8391
▁ஒப்பிடும்போது	-8392
▁பரிந்துரைக்கும்	-8393
▁சாதனை	-8394
▁சீர்கு	-8395
▁டபிள்யு	-8396
▁இன்ஜினிய	-8397
▁குழந்தையை	-8398
▁சட்டத்தைப்	-8399
▁கருத்தையும்	-8400
▁போன்றவற்றில்	-8401
▁இங்கிலாந்தில்	-8402
▁அறக்கட்டளையின்	-8403
▁தடையாக	-8404
▁பாதிப்பு	-8405
▁தாதுக்கள்	-8406
▁சான்றுகளின்	-8407
▁வேட்பாளர்களை	-8408
▁ஏக	-8409
ாவாக	-8410
▁காம	-8411
▁வழிய	-8412
ிக்கொண்டு	-8413
▁செல்வந்த	-8414
▁மறுப்பது	-8415
▁உண்மையின்	-8416
▁நிகழ்வுகளில்	-8417
▁ஆதாரங்களையும்	-8418
▁வாரியத்திற்கு	-8419
▁திறனில்	-8420
▁வேலைகள்	-8421
▁ஐந்தாவது	-8422
▁கட்டாயம்	-8423
▁பொருட்டு	-8424
▁பற்றாக்குற	-8425
▁மறைமுகமாகவோ	-8426
▁ஏற்பட்டுள்ளது	-8427
▁நர	-8428
▁லு	-8429
▁தற்கா	-8430
▁விபச்சார	-8431
ங்களின்படி	-8432
▁முன்வந்து	-8433
▁நம்புவதற்கு	-8434
▁ஜா	-8435
▁வர்மா	-8436
▁புறக்க	-8437
▁வளங்கள்	-8438
▁மறைமுகமாக	-8439
▁இஸ்ரவேலின்	-8440
▁१७	-8441
▁இதைக்	-8442
▁பழங்குடி	-8443
▁கிழக்கில்	-8444
▁குடிமக்களுக்கு	-8445
▁உருவாக்குவதற்கு	-8446
▁மேல்முறையீடுகளை	-8447
▁விதிமுறைகளையும்	-8448
மன	-8449
க்கா	-8450
லாக்	-8451
▁சித	-8452
▁அலங்க	-8453
▁மாமிய	-8454
▁தரையில்	-8455
ையெல்லாம்	-8456
▁ஒருமித்த	-8457
▁தொலைவில்	-8458
▁முகாம	-8459
▁யாதவ்	-8460
மளிக்கும்	-8461
▁கிளர்ச்ச	-8462
▁செய்தித்	-8463
ிடமிருந்தும்	-8464
▁திரும்பப்பெ	-8465
ீழ்	-8466
த்துப்	-8467
லர்கள்	-8468
▁நபராக	-8469
▁அன்றாட	-8470
▁பெருநகர	-8471
▁செய்யாமல்	-8472
▁சேவைகளில்	-8473
▁குறிப்பிடுவதன்	-8474
ெண்ண	-8475
▁நேரி	-8476
வேண்டிய	-8477
▁ஐம்பது	-8478
▁உத்தரவி	-8479
▁ஆட்சியின்	-8480
▁நோயாளியின்	-8481
▁அனுப்பினார்	-8482
▁முடிந்ததும்	-8483
ுவதோடு	-8484
▁தலையில்	-8485
▁வெடிப்பு	-8486
▁திரும்பிய	-8487
▁உத்தரவிட்டார்	-8488
வாழ்	-8489
▁குறு	-8490
▁ஆதரிக்கும்	-8491
க்குவதற்கும்	-8492
▁ஆரோக்கியமான	-8493
▁உலகெங்கிலும்	-8494
▁குறி	-8495
▁நொய்ட	-8496
க்குழுவ	-8497
ாவையும்	-8498
▁பவனின்	-8499
▁போக்கை	-8500
▁உடன்பாடு	-8501
▁சிறைவாசம்	-8502
▁பகுதியிலும்	-8503
▁விற்பனையின்	-8504
▁ஐய	-8505
▁ஆளுக	-8506
▁சீனிய	-8507
▁மனிதவள	-8508
▁பத்திகள்	-8509
▁வெளியேறி	-8510
▁கருத்தாகும்	-8511
▁சுதந்திரமான	-8512
▁ஆணையத்திற்கு	-8513
▁சுட்டிக்காட்டிய	-8514
▁ஞ	-8515
மாண்ட	-8516
ாதபடி	-8517
▁சியின்	-8518
▁இரத்தக்	-8519
▁தாக்கம்	-8520
▁தோன்றிய	-8521
▁மானியம்	-8522
▁தீர்க்கத	-8523
▁மீறுகிறது	-8524
▁சார்பாகவும்	-8525
▁மாணவர்களின்	-8526
▁கற்றுக்கொண்ட	-8527
▁அய	-8528
▁புனை	-8529
▁இரக்க	-8530
▁வாக்கிய	-8531
▁ஈடுசெய்ய	-8532
▁அர்ப்பணிப்பு	-8533
▁கருதப்படலாம்	-8534
▁நிறுத்தப்பட்ட	-8535
id	-8536
ட்டா	-8537
ினான்	-8538
▁அனில்	-8539
▁அதனால்	-8540
▁பாஸ்போ	-8541
▁சபையில்	-8542
▁நேர்காண	-8543
▁பணக்கார	-8544
▁இணக்கமாக	-8545
▁பிரிவுக்கு	-8546
வரிடமிருந்து	-8547
▁நலன்களுக்கு	-8548
▁அகற்றுவதற்கான	-8549
▁பூஷ	-8550
க்கொலை	-8551
▁விபரீத	-8552
▁வேட்பாளரின்	-8553
ad	-8554
ஹோ	-8555
ேத	-8556
▁யை	-8557
▁நாம	-8558
வூட்ட	-8559
▁லிக்	-8560
▁விதிய	-8561
▁சிக்கலை	-8562
▁கடமையின்	-8563
▁வழங்கும்போது	-8564
▁பயன்படுத்தலாம்	-8565
கையை	-8566
▁ஆண்கள்	-8567
▁கிரிக்க	-8568
▁குமாரன்	-8569
▁முதலியன	-8570
▁பொருளையும்	-8571
▁கையெழுத்திட	-8572
▁பிரதேசத்தின்	-8573
▁ஆகியவற்றிற்கு	-8574
▁கட்டுப்பாட்டின்	-8575
ப்போல	-8576
▁நிதியுத	-8577
▁விழுந்த	-8578
▁கிறிஸ்தவ	-8579
▁செயலாக்க	-8580
▁மகிழ்விக்க	-8581
ெக்	-8582
▁இருதய	-8583
▁கேட்ப	-8584
▁இதற்காக	-8585
▁சோதனைகள்	-8586
ப்படுவதைக்	-8587
▁முகத்தில்	-8588
▁முக்கியம்	-8589
▁வேறுவிதமாக	-8590
ெர்	-8591
ரிங்	-8592
▁ஆவிய	-8593
▁பாரதி	-8594
▁எட்டிய	-8595
▁தோற்றம்	-8596
▁நிற்கும்	-8597
▁குரல்	-8598
▁பொதுத்	-8599
▁உரிமதார	-8600
▁அமைச்சரவை	-8601
▁துருப்புக்கள்	-8602
▁நட்ச	-8603
செய்தது	-8604
▁ஆயிரம்	-8605
▁இயக்கும்	-8606
▁வைத்தார்	-8607
▁ஒதுக்கீட்டாள	-8608
▁வேண்டுமானால்	-8609
▁ஒப்புக்கொண்டார்	-8610
▁தரப்பினருக்கும்	-8611
▁தயக்க	-8612
▁இந்திரா	-8613
▁செயற்கை	-8614
▁பெறலாம்	-8615
▁நட்சத்திர	-8616
▁முன்முயற்	-8617
▁ஆகியவற்றைப்	-8618
▁வருவதாகவும்	-8619
த்திலிருந்தும்	-8620
▁சொசைட்டி	-8621
▁நடைமுறைக்	-8622
▁தீர்மானத்தின்	-8623
▁நிரூபிக்கப்பட	-8624
க்ச	-8625
மையால்	-8626
▁விதமாக	-8627
▁பட்டியலை	-8628
▁நாட்டிற்கு	-8629
▁உள்ளடக்கும்	-8630
▁கோட்பாட்டின்	-8631
▁பயன்பாட்டின்	-8632
▁கூறப்பட்டுள்ள	-8633
பார	-8634
▁இளைய	-8635
▁சச்சர	-8636
▁நிர்ப	-8637
▁வைத்தது	-8638
▁முழுவதிலும்	-8639
ro	-8640
ஞ்ச்	-8641
ல்பி	-8642
▁அடைவ	-8643
▁உகந்த	-8644
ிட்டார்	-8645
▁தவறியது	-8646
▁பிரிவின	-8647
▁மறுப்பு	-8648
▁தொந்தரவு	-8649
▁துப்பாக்கிய	-8650
ன்ம	-8651
ண்டா	-8652
ாலின்	-8653
த்துச்	-8654
▁சென்றனர்	-8655
▁அனுப்பும்	-8656
▁கடைப்பிடி	-8657
▁இடைநீக்கம்	-8658
▁செய்கிறோம்	-8659
▁கட்டுரையின்	-8660
▁கட்டியெழுப்ப	-8661
▁தெரிவித்தனர்	-8662
▁வைப்புத்தொகை	-8663
▁கோய	-8664
▁போரில்	-8665
▁சிவப்பு	-8666
▁ஜெய்ப்ப	-8667
▁படைப்பு	-8668
▁பெற்றவர்	-8669
▁அனுபவித்த	-8670
▁தன்மைக்கு	-8671
▁ஃபோ	-8672
லாந்த	-8673
▁புல்ல	-8674
▁யோசனை	-8675
▁ஊடுருவ	-8676
ட்டியின்	-8677
▁காரணியாக	-8678
▁வாகனத்தை	-8679
▁மாற்றப்படும்	-8680
▁திருத்தப்பட்டது	-8681
▁ஷி	-8682
▁சவா	-8683
▁முத	-8684
▁வந்தன	-8685
ிருந்தே	-8686
▁மசோதாவை	-8687
▁வலைத்தள	-8688
▁பரப்பளவு	-8689
▁செய்வதைத்	-8690
▁வட்டியுடன்	-8691
▁சமூகத்திற்கு	-8692
▁மஹி	-8693
▁எதுவு	-8694
▁ஒளிபரப்ப	-8695
▁பெற்றனர்	-8696
▁முறையற்ற	-8697
▁நிவர்த்தி	-8698
▁கேள்வியைக்	-8699
▁லோகாயுக்தா	-8700
ிருக்கவில்லை	-8701
▁இயக்கத்தின்	-8702
▁தேதியின்படி	-8703
▁SE	-8704
த்தே	-8705
மேன்	-8706
த்தடி	-8707
▁துல்லியமான	-8708
▁குழுக்களின்	-8709
▁அதையே	-8710
▁தலைமுறை	-8711
▁எனக்குத்	-8712
▁சீனியாரி	-8713
▁நூற்றுக்க	-8714
▁அர்த்தமல்ல	-8715
▁திட்டங்களில்	-8716
▁கைப்பற்றப்பட்ட	-8717
▁உயி	-8718
▁நேபாள	-8719
களாலும்	-8720
▁ஜனங்கள்	-8721
▁ஈடுபடுத்த	-8722
▁கொடுத்தது	-8723
▁அனுப்பியது	-8724
ang	-8725
பலி	-8726
ாதே	-8727
▁பவர்	-8728
▁அசாம்	-8729
▁அளவிட	-8730
▁இடைவெள	-8731
▁சர்க்க	-8732
▁இருக்கை	-8733
▁மையத்தில்	-8734
▁கையாள்வதில்	-8735
▁சட்டத்துடன்	-8736
▁பெற்றுள்ளது	-8737
▁தடா	-8738
▁பரீ	-8739
ராவின்	-8740
▁மத்தியப்	-8741
▁பன்னிரண்டு	-8742
▁அறிவிப்பதன்	-8743
▁மெமோராண்டம்	-8744
▁பொதுமக்களின்	-8745
வானி	-8746
▁nan	-8747
▁இன்ப	-8748
▁புனே	-8749
▁அமைதியான	-8750
▁அடிக்கோடி	-8751
▁ராஜாவாகிய	-8752
▁விவகாரத்தை	-8753
▁கட்டமைப்பின்	-8754
▁மேம்பாட்டுத்	-8755
▁தீர்மானிப்பதில்	-8756
▁நீட்டிக்கப்பட்ட	-8757
▁பகை	-8758
▁சிமென்ட்	-8759
ாளருக்கும்	-8760
▁கூர்மையான	-8761
▁மென்பொருள்	-8762
▁பாதுகாப்பதற்கான	-8763
ஜிங்	-8764
▁தூக்க	-8765
வுக்கும்	-8766
▁பிறப்பு	-8767
▁சாட்சியம்	-8768
▁கருணைக்கொலை	-8769
்தே	-8770
▁புன	-8771
▁ஆபாச	-8772
▁காடு	-8773
ரையில்	-8774
▁அருணா	-8775
▁தேயில	-8776
நிலையில்	-8777
▁இந்தியன்	-8778
க்கூடியதாக	-8779
▁இறையாண்மை	-8780
▁பங்கேற்பு	-8781
▁கொள்கையில்	-8782
▁சர்ச்சையின்	-8783
▁மீறுவதாகும்	-8784
மயமாக்கப்பட்ட	-8785
ES	-8786
▁in	-8787
▁பவு	-8788
▁எதிரி	-8789
▁காட்டி	-8790
▁தீர்வை	-8791
▁செல்வம்	-8792
▁தொடர்பும்	-8793
▁சேவையிலிருந்து	-8794
ia	-8795
▁அலை	-8796
▁ரஷ்யா	-8797
வற்றின்	-8798
▁கையாள்வது	-8799
▁பகிரங்கமாக	-8800
▁பிரதேசத்தில்	-8801
▁விவாதிக்கப்பட்ட	-8802
பூ	-8803
்தார்	-8804
▁மேட்	-8805
ர்வால்	-8806
க்கும்படி	-8807
▁போலீசார்	-8808
▁விவாதிக்க	-8809
▁திட்டங்களுக்கு	-8810
வரே	-8811
ண்டுகள்	-8812
▁நிர்பந்த	-8813
▁தொழிற்சால	-8814
▁விசித்திரமான	-8815
ஜு	-8816
ஜினி	-8817
▁இடி	-8818
▁அமில	-8819
▁பயன்	-8820
ட்டிக்	-8821
▁மைக்ரோ	-8822
▁என்பதைத்	-8823
▁ஆட்சிக்கு	-8824
▁பாடத்திட்ட	-8825
▁சமர்ப்பித்தது	-8826
▁புள்ளிவிவரங்கள்	-8827
▁ஆட	-8828
▁பூச	-8829
▁பழுது	-8830
ட்டுகள்	-8831
▁செய்வார்	-8832
▁மாதத்தில்	-8833
▁யூனியனின்	-8834
▁முடிவடையும்	-8835
▁கன்ன	-8836
▁காட்டிலும்	-8837
▁உற்பத்தித்த	-8838
▁அதிகாரியிடம்	-8839
▁உட்குற	-8840
க்குவதன்	-8841
▁செல்வது	-8842
▁ஊடகங்கள்	-8843
▁உச்சவரம்பு	-8844
▁கட்சிகளும்	-8845
▁தெரிவித்துக்	-8846
▁பாதுகாப்பின்	-8847
▁முடிவுகளுக்கு	-8848
▁இருக்கிறார்கள்	-8849
▁எடுத்துக்கொண்ட	-8850
▁ஏற்றுக்கொண்டார்	-8851
டே	-8852
▁சத்ய	-8853
▁யுபி	-8854
க்களால்	-8855
திருப்ப	-8856
▁புரட்சிக	-8857
▁சர்ச்சைகள்	-8858
▁நீர்ப்பாசன	-8859
▁காலியிடங்களை	-8860
▁சொல்லுகிறார்	-8861
▁பெயரிடப்பட்ட	-8862
▁வெளியிட்டுள்ள	-8863
▁செய்யப்பட்டனர்	-8864
oc	-8865
ணியின்	-8866
▁அவரால்	-8867
▁எஞ்சிய	-8868
▁மணிநேர	-8869
▁பங்களாத	-8870
▁பெருகிய	-8871
விலிருந்து	-8872
▁குறிப்பில்	-8873
▁செய்கின்றன	-8874
▁சுரங்கங்கள்	-8875
ஃபி	-8876
▁அஹ்	-8877
லானது	-8878
▁தேய்	-8879
▁பந்த	-8880
மட்டும்	-8881
▁நிர்ணயம்	-8882
▁செலுத்துவ	-8883
▁முழுவதுமாக	-8884
▁நாடுகளுக்கு	-8885
▁வேலைத்திட்ட	-8886
▁மதிப்பீட்டின்	-8887
றுதல்	-8888
▁சாதன	-8889
▁நாளை	-8890
▁வாய்	-8891
▁ஆறாவது	-8892
▁மூலமாக	-8893
▁கடற்கரை	-8894
▁அடைந்தது	-8895
▁உறுதிப்ப	-8896
▁தேவைகளைப்	-8897
▁பணியாற்றிய	-8898
▁கிடைக்கின்றன	-8899
▁தாக்குதலுக்கு	-8900
▁கம	-8901
ங்கை	-8902
நலம்	-8903
▁சூடு	-8904
த்தனமாக	-8905
▁ஆதிக்க	-8906
▁தனியாக	-8907
▁தாண்டி	-8908
▁விடயம்	-8909
▁கண்டார்	-8910
▁சேவைக்கு	-8911
▁பற்றியது	-8912
▁நிறுவனங்களும்	-8913
im	-8914
▁சஹ	-8915
போதும்	-8916
▁வீதம்	-8917
▁ஸ்பெய	-8918
▁உடனேயே	-8919
▁மனதைப்	-8920
▁வணிகப்	-8921
▁மாறியது	-8922
▁ஆவணத்தின்	-8923
▁நோக்கங்களை	-8924
▁ஏடி	-8925
▁சிம்	-8926
▁வடகிழ	-8927
ப்பதும்	-8928
ருத்தல்	-8929
▁ஒருதலை	-8930
▁தாக்கிய	-8931
▁தணிக்கைய	-8932
▁கொள்கிறேன்	-8933
▁முதன்மையானது	-8934
▁ஆப்கானிஸ்தானில்	-8935
▁ஷிய	-8936
▁உள்ளே	-8937
▁நிக்க	-8938
▁உதவியை	-8939
▁பிரிவுகளை	-8940
▁விதிமுறையை	-8941
▁அதிலிருந்து	-8942
▁நிறுவுவதற்கு	-8943
▁அலுவலகத்திற்கு	-8944
ங்களே	-8945
ச்சிற	-8946
ிக்காக	-8947
▁பரீட்ச	-8948
▁வரவேற்ப	-8949
▁கொண்டதாக	-8950
▁சட்டமாகும்	-8951
▁துல்லியமாக	-8952
▁காரணங்களால்	-8953
▁தகுதியற்றவர்	-8954
▁பதிலளித்தவரை	-8955
▁நூற்றுக்கணக்கான	-8956
▁பிரா	-8957
▁ஐரோப்பா	-8958
▁விடுக்க	-8959
▁வாதங்களை	-8960
▁வேளாண்மை	-8961
▁நிறுவனமும்	-8962
▁அறிவுறுத்து	-8963
▁ஊக்குவித்தல்	-8964
▁விற்பனையாளர்	-8965
▁பொருத்தமானதாக	-8966
▁பாப	-8967
ப்பட்ச	-8968
ிட்டது	-8969
▁தாண்ட	-8970
▁சப்ளைய	-8971
▁வெற்றிபெற	-8972
▁ஆட்சேபனைகள்	-8973
லிக	-8974
▁au	-8975
ட்ஜ்	-8976
▁நால	-8977
▁தொற்று	-8978
▁இடையூறு	-8979
▁கட்டுரைகளை	-8980
▁வழக்குகளுக்கு	-8981
▁சட்டமன்றத்தில்	-8982
▁இடு	-8983
▁ஹுசை	-8984
▁சுமையை	-8985
▁தளத்தை	-8986
டும்போது	-8987
▁கழித்தல்	-8988
▁வாடிக்கையாளர்	-8989
மாகிய	-8990
▁செவி	-8991
▁புரோ	-8992
▁குழாய	-8993
▁வேகமாக	-8994
▁யுத்தம்	-8995
▁நம்பப்பட்ட	-8996
▁பரப்பளவில்	-8997
▁விசாரணையைத்	-8998
▁நிர்வாகத்திற்கு	-8999
வனை	-9000
▁or	-9001
துவாக	-9002
மொழிய	-9003
ஷன்ஸ்	-9004
▁விண்	-9005
▁தோற்றுவ	-9006
▁வசித்து	-9007
▁வாடகைக்	-9008
▁தொடர்புப	-9009
வர்களையும்	-9010
▁மறுத்தார்	-9011
▁சட்டபூர்வமாக	-9012
▁ஜனநாயகத்தின்	-9013
▁வாங்குபவருக்கு	-9014
ம்பில்	-9015
ீட்டர்	-9016
▁நோய்வ	-9017
▁ஒருவன்	-9018
▁பயணிகள்	-9019
▁பாதையில்	-9020
▁வாகனங்கள்	-9021
ங்களுக்குப்	-9022
▁இயக்குநராக	-9023
▁வாக்களிக்க	-9024
▁பெற்றவர்கள்	-9025
▁பிரத்தியேகமாக	-9026
▁அதிகரித்துள்ளது	-9027
▁மேக்	-9028
▁ஐபிட்	-9029
▁பண்டைய	-9030
▁கழித்து	-9031
▁வழக்கைக்	-9032
▁அதிகாரசபை	-9033
▁கருதினால்	-9034
▁புதுமையான	-9035
▁தகவல்களின்	-9036
▁குற்றங்களின்	-9037
▁நிறைவேற்றுவது	-9038
▁MC	-9039
ன்றி	-9040
▁பான்	-9041
▁சத்தீ	-9042
▁பாடல்	-9043
▁உருப்ப	-9044
▁கீழ்க்க	-9045
▁சாதாரணமாக	-9046
▁ஓய்வுபெற்ற	-9047
▁கொல்லப்பட்ட	-9048
▁பொதுமக்களுக்கு	-9049
ter	-9050
என்	-9051
▁ஜக	-9052
ராதி	-9053
ீர்கள	-9054
▁செல்க	-9055
▁இடைத்த	-9056
▁வாழும்	-9057
▁விலைகள்	-9058
ொள்கிறேன்	-9059
▁உந்துதல்	-9060
▁என்னுடைய	-9061
▁துறைக்கு	-9062
ப்படாததால்	-9063
▁கூறுகையில்	-9064
யிர்	-9065
▁சால்	-9066
▁தபால்	-9067
▁அமிகஸ்	-9068
▁ஆவணத்தை	-9069
▁இயக்கிய	-9070
▁ஈடுபடும்	-9071
▁கோரினார்	-9072
▁தொழிலில்	-9073
▁சிகிச்சையை	-9074
▁அளித்துள்ளது	-9075
▁வழங்குநர்கள்	-9076
▁வாக்களிக்கும்	-9077
▁கண்டுபிடிப்பது	-9078
▁தவணை	-9079
தியானது	-9080
▁கட்சியும்	-9081
▁செலுத்துங்கள்	-9082
▁த்	-9083
ோக்கான	-9084
▁சந்திப்பு	-9085
▁முரண்பாடான	-9086
▁இல்லாதிருந்த	-9087
▁லெப	-9088
ாராம்	-9089
்களாக	-9090
▁உபரி	-9091
▁காந்த	-9092
▁ராயல்டி	-9093
ுகிறார்கள்	-9094
▁எக்ஸ்பிரஸ்	-9095
▁தீர்ப்பைப்	-9096
▁முன்னோக்கி	-9097
▁கருத்துக்கு	-9098
▁நோய்வாய்ப்ப	-9099
▁நீதிமன்றங்களை	-9100
ஹ்ரா	-9101
ியைத்	-9102
▁கட்ச	-9103
▁மனநல	-9104
▁ஸ்ட்	-9105
▁கட்டட	-9106
▁நகரம்	-9107
▁கார்டு	-9108
▁குடியு	-9109
▁பூங்கா	-9110
▁படங்கள்	-9111
▁மில்லிய	-9112
▁இணக்கமான	-9113
ிக்கப்படாத	-9114
▁குறைக்கும்	-9115
▁இருக்கிறோம்	-9116
▁காரணத்தினால்	-9117
xx	-9118
ஷர்	-9119
்தக	-9120
▁நை	-9121
துங்க	-9122
▁தீவு	-9123
▁தலைநக	-9124
▁அனுசரி	-9125
▁இணக்கம்	-9126
▁ஜனாதிபதிய	-9127
▁வாரிசுகள்	-9128
▁அமெரிக்கப்	-9129
▁பத்திரங்களை	-9130
▁எடுக்கவில்லை	-9131
வாஸ்	-9132
▁அடிய	-9133
த்திலுள்ள	-9134
▁மனைவியின்	-9135
▁சமர்ப்பிக்கும்	-9136
▁பயன்படுத்துவதை	-9137
▁மேகால	-9138
▁கருதுவ	-9139
▁கருவூல	-9140
▁கணவரின்	-9141
▁தேய்மான	-9142
▁உணர்ந்து	-9143
▁நிலத்தடி	-9144
▁பாரபட்சமும்	-9145
▁போன்றவற்றின்	-9146
▁விதிக்கப்பட்டது	-9147
ணக்க	-9148
▁சீல்	-9149
போக்கு	-9150
▁சுயவி	-9151
▁பூட்ட	-9152
▁சட்டமாக	-9153
▁செய்பவர்	-9154
▁குறிக்கோள	-9155
▁சொற்களில்	-9156
▁சந்தேகத்தின்	-9157
▁பாதுகாப்புப்	-9158
▁முஷ	-9159
▁அன்ச	-9160
▁நற்ப	-9161
▁அண்டை	-9162
▁மீட்டெடுப்பது	-9163
▁நிராகரிக்கப்பட	-9164
▁திருத்தத்திற்கு	-9165
னையால்	-9166
▁பதட்ட	-9167
▁பிரத்ய	-9168
▁ஏற்றத்தா	-9169
▁மாதிரிகள்	-9170
▁இராணுவத்தின்	-9171
▁போதைப்பொருள்	-9172
▁செய்கிறார்கள்	-9173
▁குதி	-9174
▁தெரு	-9175
▁வியட்	-9176
▁மதிக்க	-9177
▁எழுப்பின	-9178
▁விளிம்பு	-9179
▁தொழில்துற	-9180
▁கீழ்க்கண்ட	-9181
▁மக்கள்தொகை	-9182
▁கொடுத்துள்ள	-9183
▁குற்றவாளியாக	-9184
▁விரும்புகிறது	-9185
பொ	-9186
ாவோ	-9187
▁உடலை	-9188
▁கற்க	-9189
▁குர்	-9190
▁இதைச்	-9191
▁திடீர	-9192
▁புனைக	-9193
கத்தின்	-9194
▁கோபால்	-9195
▁முற்று	-9196
▁சட்டமிய	-9197
▁பேசினார்	-9198
▁உட்பட்டவை	-9199
▁வாதிகளின்	-9200
▁ஆப்கானிஸ்தான்	-9201
▁Ch	-9202
▁நெகி	-9203
மளித்த	-9204
▁இனவாத	-9205
▁தீபக்	-9206
▁ரமேஷ்	-9207
▁பள்ளத்தா	-9208
ப்படுவதற்கும்	-9209
▁தொடங்கப்பட்டது	-9210
▁தெரிவிக்கவில்லை	-9211
ற்றி	-9212
ள்ளா	-9213
களிடம்	-9214
▁பாட்னா	-9215
▁வெடிகு	-9216
▁சபைக்கு	-9217
▁தொகைகள்	-9218
ொள்கிறார்	-9219
▁உயிரியல்	-9220
▁சீனியாரிட்டி	-9221
▁விதிமுறைக்கு	-9222
மதா	-9223
க்கொ	-9224
▁வர்ண	-9225
மையைக்	-9226
▁உடற்ப	-9227
▁போதும்	-9228
▁கருத்தின்	-9229
▁செலவினங்களை	-9230
▁கோரிக்கையின்	-9231
ud	-9232
ேசு	-9233
▁கவி	-9234
▁தென்	-9235
▁ஆணையின்	-9236
▁விருதுகளை	-9237
▁மேற்கொண்டு	-9238
▁ஒருதலைப்பட்ச	-9239
▁தேர்தல்களில்	-9240
ks	-9241
ள்ளே	-9242
▁கிண	-9243
▁உணர்வை	-9244
▁முதல்வர்	-9245
▁புலம்பெயர்ந்த	-9246
CR	-9247
்ட்ஸ்	-9248
▁ஜாதி	-9249
▁அபிலா	-9250
▁சவாலை	-9251
▁சுழற்	-9252
▁தத்தெ	-9253
▁விஜில	-9254
▁சட்டமா	-9255
▁சக்தியை	-9256
▁சிறைச்ச	-9257
▁கவனித்து	-9258
▁எதிர்மறையான	-9259
▁சட்டங்களில்	-9260
▁ஜனாதிபதிக்கு	-9261
▁குத்தகைதாரர்கள்	-9262
ோப்ப	-9263
▁அடங்க	-9264
▁செலாவ	-9265
க்கொண்ட	-9266
மைப்பின்	-9267
▁ஆபரேட்ட	-9268
▁சர்வாதி	-9269
▁பாதுகாவல	-9270
▁பிரத்யேக	-9271
▁சரியானதல்ல	-9272
▁மூன்றாவதாக	-9273
▁திசைதிருப்ப	-9274
▁அனுப்பப்படும்	-9275
▁ஆசிரியர்களின்	-9276
▁ஹா	-9277
ரகம்	-9278
வனும்	-9279
▁தமிழீழ	-9280
▁மறைக்க	-9281
▁அப்பட்ட	-9282
▁வருவாயை	-9283
▁மாவட்டம்	-9284
▁கோட்பாட்டை	-9285
▁நெட்வொர்க்க	-9286
▁புத்தகங்கள்	-9287
▁டீ	-9288
▁திரா	-9289
▁கோவில	-9290
ப்படுமா	-9291
▁சூர்யா	-9292
▁குற்றச்	-9293
▁சுயவிவர	-9294
▁பருத்தி	-9295
▁அகற்றும்	-9296
▁அனைத்துலக	-9297
▁கேள்விகளுக்கு	-9298
▁பதிலளித்தவரால்	-9299
சாயன	-9300
▁வைர	-9301
ருமான	-9302
▁யுஜி	-9303
வியின்	-9304
▁குர்த	-9305
▁சென்ன	-9306
▁செய்தன	-9307
▁எழுப்பு	-9308
▁ஆலோசனையைக்	-9309
▁உத்தரவிட்ட	-9310
▁குறுக்கீடு	-9311
ont	-9312
தைய	-9313
ழக்க	-9314
▁முதி	-9315
▁எஸ்டி	-9316
▁வளரும்	-9317
▁கருதியது	-9318
▁சதவீதமாக	-9319
▁உள்ளடக்கம்	-9320
▁தேர்தல்கள்	-9321
▁கட்டத்திலும்	-9322
▁அறிவுறுத்தல்கள்	-9323
▁அர்	-9324
▁டெக்	-9325
▁காலவர	-9326
▁யுஎஸ்	-9327
▁அழைப்ப	-9328
▁ஒப்பிட	-9329
▁செலவிட	-9330
▁சொற்பொ	-9331
▁தந்திர	-9332
▁பிரகடன	-9333
▁கூறினர்	-9334
▁வசதியாக	-9335
▁உயிருடன்	-9336
▁சீர்குலை	-9337
▁மாமியார்	-9338
ப்படுகிறோம்	-9339
▁விருப்பத்தின்	-9340
றான	-9341
ிட்டி	-9342
▁ஆகவும்	-9343
▁யூனிட்	-9344
▁நிலைமைகளை	-9345
▁பதவிகளில்	-9346
▁புள்ளிகள்	-9347
▁மசோதாவின்	-9348
▁ஆளுநருக்கு	-9349
▁தகுதியுள்ள	-9350
▁சம்பவத்தின்	-9351
▁உறி	-9352
▁தலைக	-9353
ங்கின்	-9354
ப்படுப	-9355
▁வராது	-9356
▁கருதும்	-9357
▁பாடநெறி	-9358
▁மண்டலம்	-9359
▁வந்தால்	-9360
▁ஒளிபரப்பு	-9361
▁புரட்சிகர	-9362
▁கொண்டுவரப்பட்ட	-9363
ag	-9364
▁வலைய	-9365
▁இயேசு	-9366
▁காதல்	-9367
▁சபாநாயக	-9368
▁புகார்கள்	-9369
▁அடக்குமுறை	-9370
▁நெட்வொர்க்	-9371
▁விஜிலென்ஸ்	-9372
▁அலுவலகத்தின்	-9373
▁சினிம	-9374
▁தங்கள	-9375
த்தைந்து	-9376
▁அமர்த்த	-9377
▁சரியாகக்	-9378
▁அதிருப்தி	-9379
▁அரசியலில்	-9380
▁கவனக்குறை	-9381
▁சுருக்கம்	-9382
▁அடிப்படையை	-9383
▁வாக்களித்த	-9384
▁உறுதியளித்த	-9385
▁வார்த்தைகள்	-9386
▁பகுதிகளுக்கு	-9387
▁வேண்டுகோளின்	-9388
▁நம்பியிருந்தது	-9389
த்தீ	-9390
▁பக்த	-9391
▁மேலோ	-9392
யிற்சி	-9393
▁குழாய்	-9394
▁இவ்வளவு	-9395
▁கடைப்பி	-9396
▁டெவலப்ப	-9397
▁இந்தியாவும்	-9398
▁இழிவுபடுத்த	-9399
▁கட்டாயமாகும்	-9400
▁செயல்படுத்தும்	-9401
▁நாத்	-9402
ுவதால்	-9403
விலங்கு	-9404
▁புறம்ப	-9405
▁அறையில்	-9406
▁உழைப்பு	-9407
▁உருப்படி	-9408
▁புறப்பட்டு	-9409
▁கட்டுப்பாடுகளை	-9410
ணியை	-9411
▁கிஷ	-9412
▁இரவில்	-9413
▁சுவாமி	-9414
▁மாண்டம	-9415
▁ராஜீவ்	-9416
ப்படாதது	-9417
ுவார்கள்	-9418
▁சுவாரஸ்	-9419
▁வங்கிக்	-9420
க்குவதில்	-9421
▁வருவதால்	-9422
▁அதிகாரியை	-9423
▁மறுக்கும்	-9424
▁கிரிக்கெட்	-9425
▁வரலாற்றில்	-9426
▁தனிநபர்களின்	-9427
▁வெளிப்பாட்டை	-9428
▁தீர்ப்புகளின்	-9429
▁சொத்துக்களுக்கு	-9430
ஃபோ	-9431
மணி	-9432
வழி	-9433
▁மண்டப	-9434
▁அணிதிர	-9435
▁ஆனந்த்	-9436
▁எதுவாக	-9437
▁பரிமாண	-9438
▁ஒத்திசை	-9439
▁தண்டனையாக	-9440
▁செய்துள்ளன	-9441
▁மதிப்பீட்ட	-9442
▁நிலையத்தின்	-9443
▁செய்யப்படுவது	-9444
▁செயல்பாடுகளைச்	-9445
பஸ்	-9446
▁ஷ்	-9447
வரிடம்	-9448
▁சின்ஹா	-9449
▁லிக்விட	-9450
▁தீர்த்து	-9451
▁தெலுங்கு	-9452
▁நலனுக்கு	-9453
▁பரிசீலனை	-9454
▁குமாரதுங்க	-9455
▁நேர்மையற்ற	-9456
▁எதிர்மறையாக	-9457
▁பெறுவதற்காக	-9458
▁வல்லுநர்கள்	-9459
▁அமைப்பதற்கான	-9460
▁சமுதாயத்தில்	-9461
▁நாட்களுக்குப்	-9462
டெட்	-9463
ாவைப்	-9464
▁புனர	-9465
▁மாதா	-9466
க்கிக்	-9467
▁டவுன்	-9468
▁மூழ்க	-9469
▁மெகாவ	-9470
வரியில்	-9471
▁மனிதன்	-9472
▁சித்தரி	-9473
▁முன்னறி	-9474
▁கர்நாடகா	-9475
▁படித்தது	-9476
▁இயல்புடைய	-9477
▁மாற்றப்பட	-9478
▁நிச்சயமற்ற	-9479
▁பணிபுரிந்த	-9480
▁நடத்துவதற்கான	-9481
▁பொருத்தமற்றது	-9482
▁கண்காணிப்பாளர்	-9483
▁உறுப்பினர்களால்	-9484
மத்	-9485
டையே	-9486
▁அகா	-9487
▁உறை	-9488
▁ஈட்ட	-9489
கொண்டு	-9490
▁பொலிச	-9491
▁புத்து	-9492
▁மையமாக	-9493
▁வெங்கட	-9494
▁நிகழ்தக	-9495
▁கூட்டுக்	-9496
▁இண்டஸ்ட்ரீ	-9497
▁எடுக்கப்படும்	-9498
▁பயன்படுத்திக்	-9499
▁வைத்திருத்தல்	-9500
▁செயல்படுத்தப்பட	-9501
IV	-9502
ஜர்	-9503
ீட்	-9504
ினேன்	-9505
▁யுனை	-9506
ுத்திர	-9507
▁சின்ன	-9508
▁தைரிய	-9509
▁புண்ப	-9510
▁சாலைகள்	-9511
▁பதவிகள்	-9512
▁கூறினால்	-9513
▁ஜெனரலின்	-9514
▁பின்பற்று	-9515
▁சன	-9516
▁ஜாக	-9517
▁ராத	-9518
▁கூலி	-9519
▁பாலா	-9520
ட்டிங்	-9521
▁விஸ்வ	-9522
▁திசைகள்	-9523
▁அவர்களைப்	-9524
▁சந்தர்ப்பம்	-9525
▁தவிர்ப்பதற்காக	-9526
em	-9527
சூர்	-9528
▁எலக	-9529
ஆர்டி	-9530
▁அரபு	-9531
▁வேதிய	-9532
▁எனவும்	-9533
▁சுவாரஸ்ய	-9534
▁பாலஸ்தீன	-9535
▁திட்டவட்டமாக	-9536
▁வரவிருக்கும்	-9537
RE	-9538
▁எவ்	-9539
▁கலி	-9540
▁ஜவு	-9541
▁பாகு	-9542
▁ஏதும்	-9543
டுத்தது	-9544
▁எலக்ட்	-9545
▁வேண்டியதன்	-9546
▁அதிகாரிகளும்	-9547
▁பக்கச்சார்பற்ற	-9548
ஷிய	-9549
ார்க்	-9550
▁அதனை	-9551
பாடும்	-9552
லையில்	-9553
▁ஆழமாக	-9554
▁தூரம்	-9555
▁உடன்படு	-9556
▁பண்புகள்	-9557
▁நிறுவப்பட	-9558
▁வெடிபொருட	-9559
▁குழந்தைகளை	-9560
▁PS	-9561
▁நச	-9562
த்தகாத	-9563
▁திறன்களை	-9564
▁யுனைடெட்	-9565
ப்பட்டதாகக்	-9566
▁காணப்படும்	-9567
▁தனிநபர்கள்	-9568
▁தெரிவித்தது	-9569
▁இருப்பார்கள்	-9570
▁தண்டிக்கப்பட்ட	-9571
ul	-9572
மறை	-9573
▁தடையை	-9574
▁தொடர்	-9575
▁சங்கில	-9576
▁புத்தகம்	-9577
▁ரூபாய்க்கு	-9578
▁ஏற்பட்டுள்ள	-9579
▁பிறப்பித்தது	-9580
▁நெடுவ	-9581
▁முகம்	-9582
▁நிதியை	-9583
▁மாநிலத்தை	-9584
▁குடியரசுத்	-9585
▁வளர்ச்சியில்	-9586
▁முடியாவிட்டால்	-9587
புர	-9588
▁SCC	-9589
▁சகி	-9590
வினர்	-9591
▁அவரும்	-9592
▁கூடும்	-9593
▁தாவீது	-9594
▁தேதியை	-9595
▁அளித்து	-9596
▁தொடரலாம்	-9597
▁வாதத்தின்	-9598
▁வேறுபாட்டை	-9599
▁சேர்க்கப்பட	-9600
▁குடும்பத்தின	-9601
▁பெரும்பான்மைய	-9602
▁தீர்ப்பாயங்கள்	-9603
வாய்	-9604
ட்டல்	-9605
ந்திரா	-9606
▁சட்டத்	-9607
ப்படியாக	-9608
▁தடையும்	-9609
களுக்குப்	-9610
▁திருத்தச்	-9611
▁நிதியுதவி	-9612
▁உற்பத்தியை	-9613
▁விசாரணையும்	-9614
▁உறுதிப்படுத்தல்	-9615
ஜே	-9616
▁ஆலோசகரான	-9617
▁உணர்ச்சி	-9618
▁வெளியிடு	-9619
▁தரநிலைகள்	-9620
▁கேள்வியும்	-9621
▁விலைப்பட்ட	-9622
▁சர்ச்சையில்லை	-9623
▁வெளியிடுவதற்கு	-9624
▁வாழ்த்துக்களைத்	-9625
ரியல்	-9626
▁கெர்	-9627
▁டிபி	-9628
▁ஜேர்மனி	-9629
▁மாட்டாது	-9630
▁தவிர்ப்பது	-9631
▁செய்தித்தாள்	-9632
ஷை	-9633
▁ஊழ	-9634
ராகவும்	-9635
▁சமநிலையை	-9636
▁அதிகாரசபையின்	-9637
காஸ்	-9638
▁அச்சு	-9639
▁செலவழ	-9640
▁சேருவ	-9641
▁மேலான	-9642
▁காலநிலை	-9643
▁திறனைக்	-9644
▁சாலையில்	-9645
▁நபரையும்	-9646
▁வந்துள்ள	-9647
▁கோருகிறது	-9648
▁என்றார்கள்	-9649
▁செய்ததாகக்	-9650
▁அளிக்கவில்லை	-9651
▁வேலைநிறுத்தம்	-9652
▁கண்ணோட்டத்தில்	-9653
▁மரியாதைக்குரிய	-9654
▁வாரங்களுக்குள்	-9655
ரத்	-9656
ாடாக	-9657
▁ஃப்	-9658
▁மாய	-9659
னாலும்	-9660
▁தரவரி	-9661
▁பிள்ளை	-9662
▁விதிக்கு	-9663
▁நிரந்தரமாக	-9664
tt	-9665
த்தாள	-9666
▁இசைய	-9667
▁உருவ	-9668
▁கணக்கிய	-9669
▁குறையாத	-9670
▁பட்ஜெட்	-9671
▁அறிவிக்கும்	-9672
▁ஒழுக்காற்று	-9673
▁ஏற்படுத்தியது	-9674
யோக	-9675
▁வெள்ளி	-9676
▁பதிப்பை	-9677
▁தன்னாட்சி	-9678
▁பணியாற்றி	-9679
▁நிகழ்வுகளை	-9680
▁நீதிமன்றங்களும்	-9681
▁மாடி	-9682
▁ஜவுளி	-9683
▁இணையதள	-9684
▁சோதனைய	-9685
▁லஞ்சம்	-9686
▁செய்திய	-9687
▁ஆய்வாளர்	-9688
▁தூண்டுதல்	-9689
▁வனவிலங்கு	-9690
▁கருதப்படாது	-9691
▁ஒப்படைக்கப்பட்ட	-9692
ர்ட்ட	-9693
▁பாய்	-9694
ஜியின்	-9695
த்தோடு	-9696
▁சண்டை	-9697
▁கையேடு	-9698
▁மருந்த	-9699
▁எல்லாம்	-9700
▁முஸ்லிம	-9701
▁வருவதாக	-9702
▁முறைக்கு	-9703
▁கொள்ளாமல்	-9704
▁வடகிழக்கு	-9705
▁வருவாயின்	-9706
▁கட்சிகளால்	-9707
▁வளாகத்தின்	-9708
▁திருமணத்தின்	-9709
▁தீர்ப்பளிக்க	-9710
▁பொழுதுபோக்கு	-9711
▁காப்பீட்டாளர்	-9712
▁குறிக்கப்பட்ட	-9713
▁குற்றவாளியின்	-9714
▁அடிக்கோடிட்டுக்	-9715
க்கூட	-9716
▁இன்டர்ந	-9717
▁குற்றஞ்ச	-9718
▁விடுமுறை	-9719
▁தந்தையின்	-9720
▁அலுவலகத்தை	-9721
▁ட்ரொட்ஸ்கி	-9722
▁மன்றத்தில்	-9723
ப்பட்டுள்ளனர்	-9724
▁ஆண்டுகளுக்குள்	-9725
▁அகல	-9726
▁டிரை	-9727
▁திறன	-9728
▁தேடி	-9729
ரிடையே	-9730
▁விற்ற	-9731
▁குற்றமாக	-9732
▁உத்தரவாதத்தை	-9733
▁சக்திவாய்ந்த	-9734
▁தயாரிப்பாளர்	-9735
▁வழக்கறிஞரால்	-9736
▁கலந்துரையாடல்	-9737
▁தெளிவுபடுத்து	-9738
▁விதிமுறைகளால்	-9739
▁கச	-9740
▁கடனாள	-9741
▁ரீதிய	-9742
▁ஆபத்தை	-9743
▁சமூகப்	-9744
▁தாங்கி	-9745
▁தெரியாத	-9746
▁வழிகளில்	-9747
▁சத்தீஸ்கர்	-9748
▁சார்க்கோசி	-9749
▁வங்கிகளின்	-9750
▁வெளியீட்டு	-9751
▁முயற்சியும்	-9752
▁பொறுப்புக்கூ	-9753
▁வருடங்களுக்கும்	-9754
▁அப்	-9755
▁பூமி	-9756
ர்களிடம்	-9757
▁பிடிக்க	-9758
▁தொகையின்	-9759
▁இறக்குமதிய	-9760
▁செய்ததற்காக	-9761
▁நடவடிக்கையின்	-9762
▁நிகழ்வுகளிலும்	-9763
ாமு	-9764
கான்	-9765
ர்த்	-9766
செய்க	-9767
▁எண்ட	-9768
▁நூலக	-9769
ிடமும்	-9770
▁கவுர்	-9771
▁வளாகம்	-9772
▁ஹெக்டேர்	-9773
▁நிலவரப்படி	-9774
▁வெளியிடும்	-9775
▁அறிவிப்பும்	-9776
▁கவனிக்கப்பட	-9777
▁விசாரிக்கும்	-9778
னாம	-9779
▁ஜெய்	-9780
▁புரு	-9781
ப்பூர்	-9782
▁மக்களவை	-9783
▁கவனிப்பு	-9784
க்குறிப்பு	-9785
▁அளித்தவர்	-9786
▁அர்த்தமுள்ள	-9787
▁கடத்தப்பட்ட	-9788
▁கண்டுபிடிப்ப	-9789
ர்களான	-9790
▁முதன்மு	-9791
▁வங்கிக்கு	-9792
ப்படுவதையும்	-9793
▁துன்புறுத்தல்	-9794
▁நோய்வாய்ப்பட்ட	-9795
டாக	-9796
ாலிய	-9797
▁IST	-9798
▁வடிக	-9799
▁பூச்ச	-9800
▁மேத்தா	-9801
▁வியட்ந	-9802
▁விளங்க	-9803
▁தளத்தில்	-9804
▁வழங்காது	-9805
▁நிறுவனமான	-9806
▁பங்குதாரர்	-9807
▁பாதிக்கிறது	-9808
சல்	-9809
ணைப்பு	-9810
▁கொந்த	-9811
▁செலவை	-9812
▁பரம்ப	-9813
▁துறையை	-9814
ரிகையில்	-9815
▁ஒத்ததாக	-9816
▁மார்க்க	-9817
▁தகுதியும்	-9818
▁நலன்களைப்	-9819
▁வட்டிக்கு	-9820
▁விதித்தது	-9821
▁நீதிமன்றக்	-9822
▁முன்னோக்கு	-9823
▁முடிவெடுப்ப	-9824
▁சாட்டப்பட்டது	-9825
▁சடங்கு	-9826
ையுடனும்	-9827
▁ஒவ்வொன்ற	-9828
▁நோக்கமாக	-9829
▁கலாச்சாரம்	-9830
▁நினைவுச்சின்	-9831
▁மற்றவர்களுக்கு	-9832
▁பரிவர்த்தனையின்	-9833
ir	-9834
ist	-9835
ிராம்	-9836
▁மதிய	-9837
▁சுனில்	-9838
▁செயலைச்	-9839
▁கருதுவது	-9840
▁சாட்சியை	-9841
▁பட்டதாரி	-9842
▁பொறியாளர்	-9843
▁சரிசெய்தல்	-9844
▁விருப்பமான	-9845
▁குணப்படுத்த	-9846
▁மொத்தத்தில்	-9847
▁எதிர்க்கட்சி	-9848
▁சாட்சியங்கள்	-9849
▁விதிமுறையின்	-9850
▁மட	-9851
தனம்	-9852
▁உத்	-9853
▁லோக்	-9854
▁நன்றி	-9855
ாடாகும்	-9856
▁மணிப்ப	-9857
▁பசுமைக்	-9858
▁நிதியில்	-9859
▁மனிதனின்	-9860
ப்போக்கில்	-9861
▁கையாளுதல்	-9862
▁அம்சமாகும்	-9863
▁கல்லூரியில்	-9864
▁நடிக்கிறார்	-9865
▁பிரச்சினைக்கு	-9866
▁உறுப்பினர்களைக்	-9867
ஸ்ச	-9868
சிக்க	-9869
டுகிற	-9870
ணர்வை	-9871
தினால்	-9872
▁அகமதா	-9873
▁எல்பி	-9874
▁பதிவை	-9875
ுவிட்டு	-9876
▁கேட்கும்	-9877
▁செல்லாது	-9878
▁ஆயுதப்படை	-9879
▁நாடுகளும்	-9880
▁வரம்புகளை	-9881
▁ஈராக்கிற்கு	-9882
த்திருக்கிறது	-9883
▁தகுதியுடையவர்	-9884
ஸ்தி	-9885
்கறி	-9886
▁ஞாய	-9887
▁பெல்	-9888
▁சிறுமி	-9889
ப்பிரமாண	-9890
▁செல்லாத	-9891
▁சரிபார்ப்ப	-9892
▁வாதிட்டனர்	-9893
▁கொடுக்கப்பட	-9894
▁விண்ணப்பித்த	-9895
▁அதிகாரத்தையும்	-9896
▁நீதித்துறைக்கு	-9897
▁டிய	-9898
▁கமல்	-9899
▁நினைத்த	-9900
▁வடிவமைக்க	-9901
▁இணைப்புகள்	-9902
▁சம்பவங்கள்	-9903
▁தடுக்கிறது	-9904
▁நன்மைகளைப்	-9905
▁வர்த்தகத்தின்	-9906
▁VI	-9907
▁நய	-9908
காந்த்	-9909
▁வேலைய	-9910
▁தேவைக்கு	-9911
▁நினைவுகூ	-9912
▁கணக்கியல்	-9913
▁மேற்பார்வைய	-9914
▁நூற்றாண்டின்	-9915
▁அமெரிக்காவிற்கு	-9916
▁இல்லாதிருந்தால்	-9917
▁தயாரிப்பாளர்கள்	-9918
▁துரதிர்ஷ்டவசமாக	-9919
▁நட்ப	-9920
▁ஆற்றிய	-9921
▁பரவலான	-9922
▁கருவியாக	-9923
▁மதிப்பைக்	-9924
▁விடப்பட்ட	-9925
▁விவாதங்கள்	-9926
▁இணங்கவில்லை	-9927
▁ஒப்பந்தங்களை	-9928
▁தசாப்தங்களாக	-9929
▁நெல்	-9930
▁அத்து	-9931
▁அம்பேத	-9932
▁காய்கறி	-9933
ரிலிருந்து	-9934
▁சதவீதத்தை	-9935
ிருக்கிறேன்	-9936
▁விளைவையும்	-9937
CTE	-9938
▁१८	-9939
ச்சல்	-9940
▁அகாட	-9941
▁சிலி	-9942
▁தம்ப	-9943
▁தீமை	-9944
மேலும்	-9945
▁சிறும	-9946
▁பிபிஏ	-9947
▁லக்ஷ்	-9948
▁தவறாகக்	-9949
▁டாலர்கள்	-9950
▁சமயங்களில்	-9951
▁காட்டவில்லை	-9952
▁படிப்படியாக	-9953
▁உறுப்பினரின்	-9954
▁பாக்கிஸ்தான்	-9955
▁மறுக்கமுடியாத	-9956
ப்போவ	-9957
▁நுண்ண	-9958
▁வசிக்க	-9959
▁சக்தியைப்	-9960
▁பயனுள்ளது	-9961
▁அனுமதிப்பது	-9962
▁இயக்கத்தில்	-9963
▁சேவைகளுக்கான	-9964
▁கார்ப்பரேஷனின்	-9965
▁செலுத்தப்பட்டது	-9966
▁வசூலிக்கப்படும்	-9967
EF	-9968
ர்மா	-9969
▁ஏரி	-9970
▁மேம	-9971
▁கட்டள	-9972
▁பச்சை	-9973
னார்கள்	-9974
ிப்பார்	-9975
ேட்டின்	-9976
▁உரையாட	-9977
▁யுத்தத்தை	-9978
▁ஈடுசெய்யும்	-9979
▁இருவருக்கும்	-9980
▁நிலவு	-9981
ப்போக்கு	-9982
▁இந்தியில்	-9983
▁தீர்மானத்	-9984
▁வேதியியல்	-9985
▁உரிமைகளுக்கு	-9986
▁உறுப்பினரும்	-9987
▁புத்தகத்தில்	-9988
ப்படுத்துகின்றன	-9989
▁OP	-9990
▁கேச	-9991
ன்போது	-9992
பிடிக்க	-9993
▁சந்தோஷ	-9994
▁கடமைப்பட்ட	-9995
▁பார்வைக்கு	-9996
▁ஊக்குவிப்பு	-9997
▁முதலாளியின்	-9998
▁தாக்குதல்களை	-9999
nd	-10000
ாகி	-10001
▁கலவ	-10002
▁மைசூர்	-10003
▁உதவியது	-10004
▁நம்பிக்கையுடன்	-10005
▁PC	-10006
▁xi	-10007
ஃப்ட்	-10008
▁ஓரின	-10009
▁உன்னத	-10010
▁எவ்வித	-10011
▁நேர்மை	-10012
▁இருந்தே	-10013
▁செய்கிற	-10014
▁மென்மையான	-10015
▁ஆட்சேர்ப்ப	-10016
▁ஏக்கருக்கு	-10017
▁கண்டறிந்து	-10018
▁தேவையற்றது	-10019
▁தீர்க்கப்பட	-10020
▁செயல்முறைக்கு	-10021
▁அப்புறப்படுத்த	-10022
ியடைய	-10023
▁ஏதாவது	-10024
▁சிவாஜி	-10025
ளிக்கிறது	-10026
▁நாளைக்கு	-10027
▁நிலைநாட்ட	-10028
▁மதிப்புகள்	-10029
▁வகுப்புவாத	-10030
▁எதிர்த்துப்	-10031
▁பதிப்புரிமை	-10032
▁ஒவ்வொருவரும்	-10033
▁தன்னிச்சையானது	-10034
AS	-10035
▁பச	-10036
▁அழிவு	-10037
ுள்ளதாக	-10038
▁உரையில்	-10039
▁உரிமத்தை	-10040
▁எழுதினார்	-10041
▁சாட்டினார்	-10042
▁நிறுவுவதற்கான	-10043
▁வழக்கறிஞர்கள்	-10044
▁நிறுவனங்களுடன்	-10045
▁முன்னேற்றங்கள்	-10046
um	-10047
▁கரை	-10048
▁துய	-10049
▁ஆர்டர்	-10050
▁பதினான	-10051
▁ஈடுபடுவ	-10052
▁உறவினர்	-10053
▁இருப்பதைப்	-10054
▁நியமிப்பது	-10055
▁பார்த்தால்	-10056
▁வழக்கறிஞரான	-10057
▁கணக்கிடுவதில்	-10058
▁விவசாயிகளுக்கு	-10059
▁சத்	-10060
ம்போத	-10061
▁மாறு	-10062
▁பூஷண்	-10063
▁தூக்கி	-10064
▁செய்யாது	-10065
▁பயன்பாட்டில்	-10066
▁உரிமைகோரல்களை	-10067
▁Ne	-10068
▁ஒடி	-10069
▁சாச	-10070
▁பாபு	-10071
▁எளிதான	-10072
▁நேட்டோ	-10073
▁வழிவகுக்க	-10074
▁கோரிக்கைகள்	-10075
▁ஒப்பந்தத்திற்கு	-10076
க்காய	-10077
▁மரபணு	-10078
▁நகரில்	-10079
▁பழுதுப	-10080
▁வகைப்ப	-10081
▁ஒழுங்கை	-10082
▁மகாத்மா	-10083
▁படங்களில்	-10084
ப்பட்டாலும்	-10085
▁ஆரோக்கியம்	-10086
▁எதிர்பார்த்த	-10087
▁அங்கீகரிக்கிறது	-10088
▁ரவம்	-10089
▁தட்டு	-10090
▁அடிபணி	-10091
▁தேயிலை	-10092
▁விஜயம்	-10093
▁விடாமு	-10094
▁விடுதல	-10095
ுவதாகவும்	-10096
▁உணர்திறன்	-10097
▁கிளர்ச்சி	-10098
▁வழிவகுத்த	-10099
▁ஆராயும்போது	-10100
க்வி	-10101
▁அரே	-10102
▁அறுவ	-10103
▁எடைய	-10104
▁லக்னோ	-10105
க்குறைய	-10106
▁வருகிற	-10107
▁வேலையை	-10108
▁ஆளுநரால்	-10109
▁சேர்த்து	-10110
▁தங்களின்	-10111
▁அனுமதித்த	-10112
▁விடாமுயற்	-10113
▁இடத்திலும்	-10114
▁கூறியதாவது	-10115
▁பிரான்சின்	-10116
▁ஏற்படுகிறது	-10117
▁கட்டிடங்கள்	-10118
▁நலன்களுக்காக	-10119
▁பின்பற்றப்பட	-10120
▁தீர்ப்பாயத்தில்	-10121
▁புகார்தாரருக்கு	-10122
ாகு	-10123
ராஜா	-10124
▁அசை	-10125
த்தாக	-10126
வருமே	-10127
▁கோழி	-10128
யாவின்	-10129
▁அஜித்	-10130
▁சரிவு	-10131
▁நல்லி	-10132
▁மாறான	-10133
▁நன்மையை	-10134
க்குள்ளான	-10135
▁சொன்னார்	-10136
▁கேட்டபின்	-10137
த்தன்மையின்	-10138
▁பிற்போக்கு	-10139
▁வசூலிக்கும்	-10140
▁அறிவிப்புகளை	-10141
▁உரிமைகளையும்	-10142
டரல்	-10143
▁ஃபை	-10144
▁வீண	-10145
▁உடலுற	-10146
▁அத்துமீ	-10147
▁முழுக்க	-10148
▁மேகாலயா	-10149
ப்பட்டபோது	-10150
▁ஏற்றுமதிய	-10151
த்திருக்கும்	-10152
▁நம்புகிறோம்	-10153
▁பழங்குடியின	-10154
▁மேற்கொண்டது	-10155
▁முதன்முதலில்	-10156
ஜை	-10157
▁AF	-10158
▁அநேக	-10159
▁குவி	-10160
▁டேவி	-10161
▁இறங்க	-10162
களாகும்	-10163
▁உணவுப்	-10164
▁நடப்பு	-10165
▁ஆந்திரா	-10166
▁அமைதியாக	-10167
ாளர்களுடன்	-10168
▁இடம்பெற்ற	-10169
▁ஏறக்குறைய	-10170
▁கருத்தாய்வு	-10171
▁குற்றமாகும்	-10172
▁அதிகாரத்தில்	-10173
▁இண்டஸ்ட்ரீஸ்	-10174
▁உற்பத்தியின்	-10175
▁CP	-10176
ர்கா	-10177
கத்தை	-10178
நாதன்	-10179
▁சூழலை	-10180
▁துபாய	-10181
▁மார்க	-10182
▁வீரர்கள்	-10183
▁வேண்டியவை	-10184
▁மதிப்புள்ள	-10185
▁செய்திருக்க	-10186
▁குறிப்பிடும்	-10187
ுவோம்	-10188
ோகிரா	-10189
▁காட்ச	-10190
▁கைவினை	-10191
▁பறிக்க	-10192
▁சாத்தியம்	-10193
▁மாற்றியது	-10194
▁வங்கியால்	-10195
▁சிறைத்தண்ட	-10196
▁வழக்கையும்	-10197
▁தன்மையையும்	-10198
▁கொள்கையாகும்	-10199
▁நீக்குவதற்கான	-10200
ாளர்களிடமிருந்து	-10201
▁பாதுகாப்பதற்காக	-10202
IS	-10203
and	-10204
ட்ரா	-10205
▁திரவ	-10206
▁சொல்வ	-10207
▁டிராக	-10208
▁முத்த	-10209
▁அற்புத	-10210
▁காலாண்டு	-10211
▁சவால்களை	-10212
▁தேசியவாத	-10213
▁சோதனைக்கு	-10214
▁தற்செயலாக	-10215
▁அதிகபட்சம்	-10216
ிருந்தார்கள்	-10217
▁நோக்கத்திற்கு	-10218
▁டய	-10219
▁நகை	-10220
▁மடி	-10221
வகேட்	-10222
▁கேரளா	-10223
▁வாபஸ்	-10224
▁ஜப்பான	-10225
▁நன்றாக	-10226
▁அட்வகேட்	-10227
▁கட்டளைச்	-10228
▁கருதலாம்	-10229
▁சொற்களின்	-10230
▁பெறுவதில்	-10231
▁உறவினர்கள்	-10232
▁முயல்கிறது	-10233
▁வெடிக்கும்	-10234
▁இருப்பதற்கு	-10235
ர்டு	-10236
ரன்ஸ்	-10237
▁தெஹ்	-10238
▁பாஸ்	-10239
▁வால்	-10240
ினதும்	-10241
▁பள்ளிகள்	-10242
▁இறுதியானது	-10243
▁தயாரித்தல்	-10244
▁வர்க்கத்தை	-10245
▁தீர்மானித்த	-10246
டுக்கப்பட்டது	-10247
▁பட்டியலிடப்பட்ட	-10248
▁மசூ	-10249
சிங்க	-10250
த்தாப	-10251
▁சமைய	-10252
▁நீர்வ	-10253
▁சர்வீச	-10254
்களிலும்	-10255
▁மொத்தமாக	-10256
▁இமாச்சலப்	-10257
▁சான்றுகளை	-10258
▁ஹைதராபாத்	-10259
▁வெடிகுண்டு	-10260
▁அனுபவிக்கும்	-10261
▁மன்றத்திற்கு	-10262
▁மதிப்பீட்டில்	-10263
ாமை	-10264
மூட்ட	-10265
ிக்ஸ்	-10266
▁ஹால்	-10267
▁விளைவி	-10268
▁பட்டாசு	-10269
▁உயர்மட்ட	-10270
▁விண்வெளி	-10271
▁சிறப்புச்	-10272
▁இலங்கையில்	-10273
▁குடியுரிமை	-10274
▁புண்படுத்த	-10275
பர்	-10276
▁Re	-10277
▁கேள	-10278
▁சுஷ	-10279
நாளில்	-10280
▁ஒருமை	-10281
▁தனிமை	-10282
▁அஞ்சல்	-10283
▁கருப்பு	-10284
▁கட்சிகளை	-10285
▁முடிவும்	-10286
▁செயலையும்	-10287
▁பாரபட்சம்	-10288
▁நடத்தைக்கு	-10289
▁பராமரித்தல்	-10290
▁ஆட்சேபனையும்	-10291
▁நிபந்தனைக்கு	-10292
▁ஃபா	-10293
ஸ்வர்	-10294
ோரின்	-10295
▁மிகை	-10296
ப்போல்	-10297
மென்று	-10298
▁இன்னமும்	-10299
▁தொழிலின்	-10300
▁ஆகியோருடன்	-10301
▁சட்டமியற்ற	-10302
▁கர்த்தராகிய	-10303
▁கடைப்பிடிக்க	-10304
▁பிரதிபலிக்கும்	-10305
▁துணைப்பிரிவுகள்	-10306
எஸ்இ	-10307
பட்ட	-10308
▁சன்	-10309
தந்திர	-10310
▁பலவித	-10311
▁புதுட	-10312
▁பாலிசி	-10313
▁அப்பீல்	-10314
▁தாராளவாத	-10315
▁மெகாவாட்	-10316
▁இயக்கத்தை	-10317
▁சேர்ப்பது	-10318
▁நகரத்தின்	-10319
▁உருவாக்கம்	-10320
▁முன்மொழிவை	-10321
▁விளம்பரதார	-10322
▁வலியுறுத்தி	-10323
▁போராட்டத்தில்	-10324
▁செயல்திறனுக்கான	-10325
▁சேர்க்கப்பட்டது	-10326
▁விருப்பத்திற்கு	-10327
ரிஸ்	-10328
▁தர்	-10329
த்துத்	-10330
▁இலக்கை	-10331
▁அற்பமான	-10332
▁சலுகையை	-10333
▁விட்டது	-10334
▁முன்மாதிரி	-10335
▁அலுவலகங்கள்	-10336
▁கூட்டத்தின்	-10337
▁கண்டுபிடிப்பை	-10338
▁விண்ணப்பதாரரின்	-10339
▁விளம்பரப்படுத்த	-10340
▁கல்யா	-10341
ப்பகுதி	-10342
▁பிளேயர்	-10343
▁விளக்கமும்	-10344
▁முன்முயற்சி	-10345
ிம்	-10346
ரிமன்	-10347
▁AICTE	-10348
ளவிற்கு	-10349
▁கொள்ளைய	-10350
▁ஜப்பான்	-10351
ுவிட்டால்	-10352
▁தடுப்பது	-10353
▁தன்மையைப்	-10354
▁தரப்பினர்	-10355
▁குழுவிற்கு	-10356
▁சர்வாதிகார	-10357
▁நோக்கத்தின்	-10358
▁பணியாற்றும்	-10359
▁நாடுகளுக்கும்	-10360
▁மேற்கொள்ளப்பட	-10361
▁வெளிப்பாடுகள்	-10362
▁கலவர	-10363
▁மோசே	-10364
▁வாழ்க	-10365
▁இடதுசாரி	-10366
▁பதிலளித்தார்	-10367
▁பெறுவதற்கும்	-10368
▁வருடங்களுக்கு	-10369
னீ	-10370
காரி	-10371
தைச்	-10372
வரது	-10373
▁பரோ	-10374
▁ஹெச	-10375
▁எக்ஸி	-10376
▁பென்ட	-10377
ல்லாமல்	-10378
ொழுதும்	-10379
▁கைக்கு	-10380
▁விரக்த	-10381
▁இரத்தம்	-10382
▁எளிமையான	-10383
▁வரம்புச்	-10384
த்துவிட்டு	-10385
▁அபாயகரமான	-10386
▁சார்புடைய	-10387
▁அமெரிக்கத்	-10388
▁குழுவுக்கு	-10389
▁தால	-10390
▁பதிலை	-10391
▁பூஜ்ய	-10392
க்காரர்	-10393
▁பிளாக்	-10394
▁போஸ்ட்	-10395
ுவதையும்	-10396
▁அமைத்தல்	-10397
▁தொடர்புக	-10398
▁மனுதாரரை	-10399
▁குற்றமும்	-10400
▁துணைவேந்த	-10401
▁நியாயமும்	-10402
▁உண்மைகளைப்	-10403
▁உரிமைகோரல்கள்	-10404
▁அடிப்படையிலும்	-10405
ஜிடி	-10406
ாமின்	-10407
▁ஆளுகை	-10408
▁கேடர்	-10409
▁முஷார	-10410
▁தடைகளை	-10411
▁களத்தில்	-10412
▁தூய்மையான	-10413
▁தீர்க்கதரி	-10414
▁தேதிக்குப்	-10415
▁சர்ச்சைக்கு	-10416
▁கணக்கிடப்படும்	-10417
ானின்	-10418
▁அறிஞ	-10419
▁அடித்த	-10420
▁இலக்காக	-10421
▁கொண்டாட்ட	-10422
▁அவர்களிடம்	-10423
▁ஒத்துப்போக	-10424
▁செலுத்துவது	-10425
▁கையொப்பமிட்ட	-10426
▁நடவடிக்கையாக	-10427
▁நியமிக்கப்பட	-10428
▁நிரூபிக்கும்	-10429
▁ஒப்பந்தங்களின்	-10430
▁பப்	-10431
கண்ட்	-10432
▁இனம்	-10433
த்தாக்க	-10434
ித்துக்	-10435
▁சதிகார	-10436
▁போரின்	-10437
▁லண்டன்	-10438
ளிக்கப்பட	-10439
▁இன்டர்நேஷ	-10440
▁எழுகின்றன	-10441
▁பெற்றுக்க	-10442
▁தங்குமிடம்	-10443
▁இந்தியாவிற்கும்	-10444
▁உறுப்பினர்களும்	-10445
மோச	-10446
▁அனி	-10447
கொள்வ	-10448
நியாய	-10449
▁நீரோ	-10450
▁முப்ப	-10451
▁ராஜ்ய	-10452
ெடுத்து	-10453
▁வேட்பும	-10454
ிருப்பார்	-10455
▁சர்வீசஸ்	-10456
▁ஆதாயங்கள்	-10457
▁ஈர்க்கும்	-10458
▁வேறுபட்டவை	-10459
▁வித்தியாசமாக	-10460
▁மறுத்துவிட்டார்	-10461
DA	-10462
▁IN	-10463
▁டு	-10464
ச்சிதை	-10465
டத்தில்	-10466
▁நாடுகள	-10467
▁அரசிடம்	-10468
▁காசோலையை	-10469
▁மற்றொன்ற	-10470
▁அறங்காவலர்	-10471
▁விநியோகஸ்த	-10472
▁வேலையின்மை	-10473
▁தயாரிப்புகளை	-10474
▁கவனித்துள்ளது	-10475
▁கையகப்படுத்திய	-10476
சஸ்	-10477
னேஷ்	-10478
ழ்த்த	-10479
▁சிசி	-10480
▁ரியல்	-10481
ணத்தில்	-10482
▁தளர்வு	-10483
▁தொழுநோய	-10484
▁வழங்குப	-10485
▁குறைபாடுகளை	-10486
பண்ண	-10487
▁ஆசீ	-10488
▁ஜோன்	-10489
ராவில்	-10490
▁சிறுந	-10491
▁பாக்க	-10492
▁மிஷன்	-10493
▁வெட்க	-10494
▁அறுபது	-10495
▁நொய்டா	-10496
▁ஸ்திரீ	-10497
▁தளர்த்த	-10498
▁மூலதனம்	-10499
▁பிரீமியம்	-10500
▁வாய்ந்தது	-10501
▁இல்லாதபோது	-10502
▁முற்றுப்பு	-10503
▁ஒத்துழைப்பை	-10504
▁சர்ச்சையில்	-10505
▁தகுதியையும்	-10506
▁மேற்கொள்வது	-10507
▁விளக்கத்தில்	-10508
▁காணப்படவில்லை	-10509
▁திணைக்களத்தின்	-10510
ie	-10511
ஏசி	-10512
குல	-10513
ியல	-10514
▁பாசி	-10515
▁காமன்	-10516
▁செல்வி	-10517
▁வாக்குகள்	-10518
▁சாத்தியமற்றது	-10519
ION	-10520
ிறன	-10521
்கி	-10522
ரோன்	-10523
ேகூட	-10524
▁தாத	-10525
▁பசி	-10526
ஷ்ணன்	-10527
கத்தில்	-10528
▁வரிகளை	-10529
▁ஈடுபாடு	-10530
▁பிரிட்டன்	-10531
▁முறையீடும்	-10532
▁நிதியத்தின்	-10533
▁பதவிக்காலம்	-10534
ாடா	-10535
ர்ஜி	-10536
ரித்த	-10537
▁வைட்	-10538
டையில்	-10539
▁பூமிய	-10540
▁தேர்வை	-10541
ுள்ளதால்	-10542
▁தகுதியை	-10543
▁மிட்டல்	-10544
▁குறைத்து	-10545
▁கோப்பில்	-10546
▁சிறப்பான	-10547
▁உச்சரிக்க	-10548
▁எல்லாரும்	-10549
▁கண்காணிக்க	-10550
▁கவனிக்கலாம்	-10551
▁மாநிலங்களவை	-10552
▁வாக்குறுதிய	-10553
▁மேற்கொண்டார்	-10554
▁நோக்கத்தையும்	-10555
▁பயன்படுத்தியது	-10556
AN	-10557
ஹெ	-10558
ிரை	-10559
▁ஹெச்பி	-10560
▁சிதைந்த	-10561
▁பெங்களூ	-10562
▁காப்புரி	-10563
▁யாருக்கு	-10564
த்திற்குச்	-10565
▁நல்வாழ்வு	-10566
▁கொண்டுவந்த	-10567
▁கோரிக்கைகளை	-10568
▁இருப்பதையும்	-10569
ேஜ்	-10570
ஹால்	-10571
படியே	-10572
ப்புதல்	-10573
▁மலையாள	-10574
▁இரண்டுமே	-10575
▁உயர்நிலை	-10576
▁பயிற்சியை	-10577
▁மாறுபடும்	-10578
▁ராஜேந்திர	-10579
▁போதெல்லாம்	-10580
▁வழங்குவார்	-10581
▁வெளியிடுவது	-10582
ிருப்பதாகவும்	-10583
▁சாட்டப்பட்டவரை	-10584
▁நம்பியிருக்கும்	-10585
ச்சிய	-10586
ச்செய	-10587
▁சிரா	-10588
▁மனம்	-10589
ிக்கார	-10590
▁இடமாக	-10591
▁ரஜினி	-10592
▁விதவை	-10593
▁அறுவடை	-10594
▁ஆசீர்வ	-10595
▁என்ஐடி	-10596
▁ஈராக்கின்	-10597
▁நிமிடங்கள்	-10598
▁பட்டியலின்	-10599
▁மின்னஞ்சல்	-10600
▁இயக்குநரகம்	-10601
▁கட்டளையிட்ட	-10602
▁பணியாளர்களின்	-10603
▁வெளிநாடுகளில்	-10604
ஒரு	-10605
ச்சிக	-10606
▁பண்ப	-10607
▁நிறைவ	-10608
▁ஸ்டீல்	-10609
▁ஒருவேளை	-10610
▁பெறுவார்	-10611
▁கொல்கத்தா	-10612
▁பம்பாயில்	-10613
▁படிக்கப்பட	-10614
▁முழுமையானது	-10615
▁வழக்கறிஞராக	-10616
▁அறிக்கையையும்	-10617
▁திருப்திகரமாக	-10618
▁முயற்சிக்கும்	-10619
ap	-10620
குதிய	-10621
ப்படம்	-10622
▁இணையாக	-10623
த்தகுந்த	-10624
ுறத்தில்	-10625
▁அறிகுறி	-10626
▁தேர்தலை	-10627
▁அகர்வால்	-10628
▁இருங்கள்	-10629
▁மாற்றுத்த	-10630
▁வந்துள்ளன	-10631
▁சந்தேகிக்க	-10632
▁மாற்றத்தின்	-10633
▁முற்போக்கான	-10634
▁பங்குதாரர்கள்	-10635
IN	-10636
பீ	-10637
▁LA	-10638
▁சிஐ	-10639
மின்மை	-10640
▁முஸ்லிம்	-10641
▁கருச்சிதை	-10642
▁ஏற்கவில்லை	-10643
▁சித்தரிக்க	-10644
▁உடற்பயிற்சி	-10645
▁பிரதேசங்கள்	-10646
▁வெளிப்படுத்தல்	-10647
யன்	-10648
▁ஆடி	-10649
▁படு	-10650
ழ்ப்ப	-10651
▁போரி	-10652
▁பெருமை	-10653
▁காயத்தை	-10654
▁பங்களிப்ப	-10655
▁வாக்காளர்	-10656
▁விவாதித்த	-10657
▁நன்மைக்காக	-10658
▁அறிக்கையும்	-10659
▁இருப்பதற்கான	-10660
லிங்	-10661
▁கேம	-10662
டியான	-10663
▁காஸ்	-10664
றுப்பு	-10665
▁கூடார	-10666
▁ஈராக்க	-10667
▁கணக்கீடு	-10668
▁நேரிடும்	-10669
▁நிவாரணத்தை	-10670
▁பரிந்துரையை	-10671
ாளரிடமிருந்து	-10672
▁ஆக்கபூர்வமான	-10673
▁ஈடுபட்டுள்ளது	-10674
▁xxxx	-10675
▁அன்ன	-10676
கர்கள்	-10677
▁ஏலதார	-10678
▁கண்டது	-10679
▁திடீர்	-10680
▁வகைகள்	-10681
▁வயதில்	-10682
▁ஆராயப்பட	-10683
▁ஒழுங்கின்	-10684
▁உரையாற்றிய	-10685
▁பொருட்களில்	-10686
▁செலுத்துமாறு	-10687
▁பரிசீலித்தது	-10688
▁வாங்குவதற்கான	-10689
சாக	-10690
▁யெ	-10691
ப்ட்	-10692
லியா	-10693
வாட்	-10694
ிவிட	-10695
▁இக்க	-10696
▁இதனை	-10697
ுகிறோம்	-10698
▁கற்றுக்	-10699
▁இந்தியப்	-10700
▁நியமித்த	-10701
▁இணைக்கும்	-10702
▁செலுத்தத்	-10703
▁நடிக்கும்	-10704
▁வெளியேறும்	-10705
▁ஐரோப்பாவில்	-10706
▁மாற்றுத்திறன	-10707
▁நபர்களுக்கும்	-10708
▁வேதனைக்குள்ளான	-10709
வாச	-10710
▁இரயில்	-10711
▁எண்ணம்	-10712
▁பிரமுக	-10713
▁தலைமைச்	-10714
▁திராட்ச	-10715
▁சக்திகள்	-10716
▁கடைபிடிக்க	-10717
▁நீதிமன்றமாக	-10718
▁நெருக்கடியை	-10719
▁உள்கட்டமைப்பை	-10720
▁குற்றவாளிக்கு	-10721
▁அளிக்கப்பட்டது	-10722
▁சட்டத்திற்கும்	-10723
▁St	-10724
வேதி	-10725
▁சவுத்	-10726
▁தேசம்	-10727
▁மிக்க	-10728
▁ஒடுக்கு	-10729
▁இருந்தும்	-10730
▁உயர்கல்வி	-10731
▁வாய்ப்பைப்	-10732
▁பிரார்த்தனையை	-10733
ac	-10734
கிரு	-10735
வருடைய	-10736
▁விடைய	-10737
டைகிறது	-10738
▁தன்மைய	-10739
▁எங்களது	-10740
▁முறைகளை	-10741
▁மாறுபாடு	-10742
▁கல்லூரிகள்	-10743
▁தொழிற்கட்சி	-10744
▁முதலமைச்சர்	-10745
▁பிரச்சாரத்தை	-10746
▁அம்சங்களையும்	-10747
▁தொடங்குவதற்கான	-10748
ம்த	-10749
▁வேண	-10750
ின்போது	-10751
▁காரில்	-10752
▁பாக்தா	-10753
▁வழக்கும்	-10754
▁அறிவுசார்	-10755
▁பின்வாங்க	-10756
▁விதிகளும்	-10757
▁அகற்றப்பட்ட	-10758
▁அமைச்சகத்தின்	-10759
▁தொழில்நுட்பத்	-10760
▁மாவட்டங்களில்	-10761
▁வைத்திருப்பதை	-10762
▁அறிக்கையின்படி	-10763
சியை	-10764
ீடாக	-10765
▁அமு	-10766
▁ரத்	-10767
ானால்	-10768
ுக்கோ	-10769
▁தேவ்	-10770
▁விற்று	-10771
▁அறைக்கு	-10772
▁வாரியாக	-10773
▁பழிவாங்க	-10774
▁பொருளில்	-10775
▁கற்பனையான	-10776
▁முடியாதவை	-10777
▁சிகிச்சையின்	-10778
▁சமம்	-10779
▁செறி	-10780
▁நலனை	-10781
▁மஞ்ச	-10782
▁ஊதியத்தை	-10783
▁அகற்றுவது	-10784
▁கழிவுநீர்	-10785
▁நபர்களும்	-10786
▁அளவுருக்கள்	-10787
▁கோரப்பட்டது	-10788
▁பிரிவுகளுக்கு	-10789
▁முற்றுப்புள்ளி	-10790
▁குற்றத்திற்கும்	-10791
DF	-10792
வல்	-10793
ெம்	-10794
ஜியா	-10795
▁பலன	-10796
▁எத்த	-10797
▁பாடு	-10798
ாளியாக	-10799
▁ராயல்	-10800
▁வளைகு	-10801
▁ராஜேஷ்	-10802
▁வரையறுக்க	-10803
▁நிர்ணயித்த	-10804
▁என்பதற்கும்	-10805
▁ஒருமைப்பாடு	-10806
▁நியமிப்பதற்கான	-10807
ிடி	-10808
ங்கோ	-10809
ம்ப்	-10810
விரி	-10811
▁ரவீ	-10812
▁கூடி	-10813
ுவிடுவ	-10814
ாளரிடம்	-10815
▁கிரேக்க	-10816
▁மறைத்து	-10817
▁ஈவுத்தொகை	-10818
▁பங்கிற்கு	-10819
ப்படுவதாகக்	-10820
▁பிரான்சில்	-10821
▁தொடர்புபடுத்த	-10822
▁வாக்குமூலத்தின்	-10823
ers	-10824
ண்ணா	-10825
னாமா	-10826
ுவர்	-10827
▁ஏவு	-10828
▁துரோ	-10829
▁பத்ம	-10830
வந்தது	-10831
▁எகிப்து	-10832
▁போர்க்க	-10833
த்துக்கான	-10834
▁ஒருமைப்ப	-10835
த்திற்குத்	-10836
ையிடப்பட்ட	-10837
▁தீர்வுகளை	-10838
▁பட்டியில்	-10839
▁இடைநிறுத்த	-10840
▁சேர்ந்தவர்	-10841
▁பங்குகளின்	-10842
▁ஆதரவாளர்கள்	-10843
▁நிகழ்விலும்	-10844
▁பரிசீலித்து	-10845
▁விதிமுறையில்	-10846
▁ஆளாக	-10847
▁இதுவே	-10848
▁கட்டி	-10849
▁கதையை	-10850
▁நோடல்	-10851
▁பிரேர	-10852
▁தெளிவு	-10853
▁காண்பது	-10854
▁நோக்கிய	-10855
▁கூட்டாளி	-10856
▁தீயணைப்பு	-10857
▁கருதவில்லை	-10858
▁காரணங்களைக்	-10859
▁குற்றவாளியை	-10860
▁கூட்டுத்தாப	-10861
▁நீக்குவதற்கு	-10862
▁முதன்முறையாக	-10863
▁உட்படுத்தப்பட	-10864
ரவ	-10865
▁ஷோ	-10866
▁யூக	-10867
▁அரசை	-10868
▁துளை	-10869
▁வைப்ப	-10870
▁சாதிகள்	-10871
▁தீக்காய	-10872
▁நீர்த்த	-10873
▁மன்னிக்க	-10874
▁வெறுப்பு	-10875
▁ஆய்வுக்கு	-10876
▁பொதுமக்கள	-10877
▁காரணத்தால்	-10878
▁சந்தித்தார்	-10879
▁செருகப்பட்ட	-10880
▁ஒப்பந்தங்களில்	-10881
▁கட்டுப்பாட்டைக்	-10882
OR	-10883
▁சாரா	-10884
▁ஸ்கிரி	-10885
ினிமித்த	-10886
▁கைதிகள்	-10887
▁ஸ்கூட்ட	-10888
▁அருணாச்சல	-10889
▁காசோலைகள்	-10890
▁மாநகராட்சி	-10891
▁கருதுகிறேன்	-10892
▁பொருத்தமானவை	-10893
▁முறைப்படுத்த	-10894
ிக்கப்பட்டுள்ள	-10895
▁சூழ்நிலைகளுக்கு	-10896
▁MS	-10897
▁தலாக்	-10898
▁திருமணச்	-10899
▁குறைத்தல்	-10900
▁அறிகுறிகள்	-10901
▁உத்தரகண்ட்	-10902
▁குறிக்கோள்	-10903
▁போராட்டத்தை	-10904
▁இருந்திருந்தால்	-10905
ov	-10906
१९	-10907
களே	-10908
▁TR	-10909
▁மான	-10910
ஸ்ட்ட	-10911
ொருளை	-10912
▁ஓவிய	-10913
▁கோது	-10914
▁கம்பி	-10915
▁சதாம்	-10916
த்தியது	-10917
வுக்கான	-10918
▁நற்பெய	-10919
▁யுஜிசி	-10920
மில்லாமல்	-10921
்களின்படி	-10922
▁அணுகுமுற	-10923
▁கடனளிப்ப	-10924
▁கொழும்பு	-10925
▁சந்தாதார	-10926
▁தடயவியல்	-10927
▁பட்டியலி	-10928
▁அழைத்தார்	-10929
▁பேசுகிறது	-10930
க்கப்பட்டனர்	-10931
▁சான்றிதழின்	-10932
▁செயல்படுகின்றன	-10933
▁பங்குதாரர்களின்	-10934
▁பொருளாதாரத்தில்	-10935
IF	-10936
ttp	-10937
▁ஹோம்	-10938
்களைத்	-10939
▁அரிசி	-10940
த்தானது	-10941
▁திவால்	-10942
▁துணைப்	-10943
மிருந்தோ	-10944
▁சாகுபடி	-10945
▁முன்னரே	-10946
▁வரவேற்க	-10947
▁என்பதோடு	-10948
▁துறைசார்	-10949
▁ஸ்பெக்ட்	-10950
▁வாக்குகளை	-10951
▁முயற்சித்த	-10952
▁தற்கொலைக்கு	-10953
▁விவகாரங்களை	-10954
▁நிராகரித்தார்	-10955
விழா	-10956
ாரில்	-10957
▁அபத்த	-10958
▁இடம்பெ	-10959
▁மாளிகை	-10960
▁ஸ்ட்ரீ	-10961
▁வெறுக்க	-10962
▁சீனாவின்	-10963
▁உறுதிமொழிய	-10964
▁சந்தேகத்தை	-10965
▁பிரிக்கப்படாத	-10966
▁மீட்கப்பட்டது	-10967
▁தோல்வியுற்றால்	-10968
▁முனி	-10969
தொடர்ப	-10970
▁கும்ப	-10971
▁பிரவே	-10972
▁தவறும்	-10973
▁நானும்	-10974
▁போராளி	-10975
▁சங்கிலி	-10976
▁முழுமைய	-10977
ாதபடிக்கு	-10978
▁அதிர்ச்சி	-10979
▁கிடைக்காது	-10980
▁வேறுபாட்டைக்	-10981
▁தொழில்முனைவோர்	-10982
▁ஜெப	-10983
▁தாம்	-10984
▁தீவன	-10985
ழியின்	-10986
▁ஒழிப்பு	-10987
▁பற்றிக்	-10988
▁புனைகதை	-10989
ிருந்தான்	-10990
▁அவசியமானது	-10991
▁தோட்டக்கலை	-10992
▁அவதானித்தது	-10993
th	-10994
▁Le	-10995
ஸ்டி	-10996
▁காலி	-10997
▁கைரே	-10998
▁வினா	-10999
▁போதாது	-11000
▁செய்தியை	-11001
▁கணக்குகளை	-11002
▁அவர்களுடன்	-11003
▁செயல்களைச்	-11004
▁மும்பையில்	-11005
▁இணையதளத்தில்	-11006
▁கட்டிடத்தில்	-11007
▁செலுத்துவதன்	-11008
▁வருடத்திற்கு	-11009
▁வீட்டிலிருந்து	-11010
▁வெடிமருந்துகள்	-11011
தேய	-11012
▁சிப்ப	-11013
ன்களின்	-11014
▁பொருளாக	-11015
▁பாதுகாக்கப்பட	-11016
▁வழக்குகளிலும்	-11017
▁கொல்லப்பட்டனர்	-11018
க்ஸ	-11019
▁RI	-11020
▁ஜல	-11021
ண்டே	-11022
மோன்	-11023
▁பிய	-11024
▁மேடை	-11025
▁போலிய	-11026
▁செய்துக	-11027
▁முறியடி	-11028
▁வேலைகளை	-11029
ப்படுத்தி	-11030
▁தொடரவும்	-11031
▁வீழ்ச்சி	-11032
▁இதையொட்டி	-11033
▁தோற்கடிக்க	-11034
▁தேர்தலுக்கு	-11035
ாயிரக்கணக்கான	-11036
▁தொடர்புடையவை	-11037
▁செலுத்துகிறது	-11038
▁விவரங்களையும்	-11039
▁பாதுகாப்பிற்கு	-11040
▁வெளியேற்றப்பட்ட	-11041
கர	-11042
▁லூ	-11043
காம்	-11044
▁கலக	-11045
▁குட	-11046
ாவைக்	-11047
▁அய்ய	-11048
▁நீளம்	-11049
▁மறந்த	-11050
▁ரொக்க	-11051
▁பெருகி	-11052
▁மேன்மை	-11053
▁பின்னடை	-11054
▁ஒப்பீட்ட	-11055
▁அமைக்கும்	-11056
▁கொண்டுவரு	-11057
▁வெளிவரும்	-11058
▁அதனால்தான்	-11059
▁கண்டறியும்	-11060
▁பெறுகிறார்	-11061
▁ஆஸ்திரேலியா	-11062
செல	-11063
▁மின	-11064
▁எந்தத்	-11065
▁காட்டிக்	-11066
▁உள்நாட்டில்	-11067
▁விதிகளையும்	-11068
▁வருகிறார்கள்	-11069
▁நிரூபிக்கிறது	-11070
▁டூ	-11071
டுவதன்	-11072
மாறும்	-11073
▁மூடிய	-11074
▁வண்டி	-11075
▁தந்தைய	-11076
▁நண்பர்	-11077
ிக்கிழமை	-11078
▁தமிழில்	-11079
▁கப்பலின்	-11080
▁பாகங்கள்	-11081
▁கூட்டத்தை	-11082
▁மக்களிடையே	-11083
▁முடிவிற்கு	-11084
▁அமைப்புக்கள்	-11085
▁முயற்சிகளில்	-11086
▁தேர்ந்தெடுப்பது	-11087
ran	-11088
ேரி	-11089
▁sp	-11090
மடைய	-11091
வோடு	-11092
▁ரத்த	-11093
▁கேப்ட	-11094
▁சகிப்பு	-11095
▁தொகுதிகள்	-11096
▁பாகத்தின்	-11097
▁அனுமதியைப்	-11098
▁ஆவணங்களில்	-11099
▁நிபந்தனையை	-11100
▁அறிக்கைக்கு	-11101
▁முன்னெடுக்க	-11102
▁காலப்போக்கில்	-11103
▁அரசாங்கத்துடன்	-11104
வதி	-11105
▁பழு	-11106
வழக்க	-11107
▁கழுவ	-11108
▁செட்	-11109
▁தலிப	-11110
▁விரிவ	-11111
▁மாநிலக்	-11112
▁தேர்வின்	-11113
▁பெயர்களை	-11114
▁வர்த்தமானி	-11115
▁தாக்குதலில்	-11116
▁தோட்டாக்கள்	-11117
▁ஓய்வூதியத்தை	-11118
▁வழிகாட்டுதலின்	-11119
▁OS	-11120
ல்த்	-11121
▁நர்	-11122
▁சூடான	-11123
▁வளமான	-11124
▁கூறுகளை	-11125
▁தம்முடைய	-11126
▁பூமியின்	-11127
▁சவாலுக்கு	-11128
▁பாராட்டிய	-11129
▁அடுத்தடுத்து	-11130
▁பொருட்களையும்	-11131
▁தச	-11132
ப்பே	-11133
ாவளி	-11134
▁ஆடு	-11135
▁சடல	-11136
▁மேய	-11137
ப்பேர	-11138
▁VIII	-11139
▁ஆசியா	-11140
▁கடும்	-11141
▁சீரழி	-11142
▁எருசலேம	-11143
▁போன்றது	-11144
▁மேட்ரிக்	-11145
▁அபராதமும்	-11146
▁தங்களுடைய	-11147
▁பகுதியாகவோ	-11148
▁மனுதாரரால்	-11149
▁எதிர்க்கும்	-11150
▁உடன்படவில்லை	-11151
▁குற்றத்தையும்	-11152
▁தோல்வியுற்றது	-11153
▁குறிப்பிட்டபடி	-11154
பந்த	-11155
▁உதய	-11156
ரியர்	-11157
▁திவால	-11158
▁ஒளிப்ப	-11159
க்கொண்டு	-11160
▁குறைமதி	-11161
▁கோத்திர	-11162
▁வாழ்ந்த	-11163
▁சொந்தமாக	-11164
▁உரிமைக்கு	-11165
▁சம்பளத்தை	-11166
▁பொருந்தாத	-11167
▁மாதாந்திர	-11168
▁இரண்டிலும்	-11169
▁தீர்ப்பதில்	-11170
▁மத்தியஸ்தம்	-11171
▁விநியோகிக்க	-11172
▁அனுமதிக்கிறோம்	-11173
▁எச்சரிக்கையுடன்	-11174
ha	-11175
ிகை	-11176
மூடி	-11177
▁மரும	-11178
▁பிரிய	-11179
▁அன்றைய	-11180
▁சுரேஷ்	-11181
▁அறிவின்	-11182
▁இடமில்லை	-11183
▁சுத்தமான	-11184
▁பின்னும்	-11185
▁எனப்படும்	-11186
▁கட்டமைப்ப	-11187
த்துக்கொண்டு	-11188
▁தீர்ப்பாயத்தை	-11189
▁வெளியிடவில்லை	-11190
ளவ	-11191
்ச்	-11192
▁FO	-11193
▁எய	-11194
ஞ்சி	-11195
▁ஏந்திய	-11196
▁காஷ்மீ	-11197
▁ராகேஷ்	-11198
▁வித்யா	-11199
▁விரிவு	-11200
▁பில்கள்	-11201
▁வழங்கத்	-11202
ச்சேர்க்க	-11203
▁சுயாட்சி	-11204
▁சொற்களைப்	-11205
▁முதலீட்டை	-11206
▁விபத்தில்	-11207
▁உரிமைகோரலை	-11208
▁மூலப்பொருட	-11209
▁கல்லூரியின்	-11210
▁நடைமுறையைப்	-11211
▁வேறுவிதமாகக்	-11212
▁குறிப்பிடப்பட	-11213
வீர	-11214
ாயுத	-11215
▁காது	-11216
▁திகதி	-11217
▁நடிகை	-11218
ோருக்கு	-11219
▁ஈரானிய	-11220
▁மார்க்	-11221
நாட்டின்	-11222
▁பழமையான	-11223
மையாகவும்	-11224
▁முன்னுரை	-11225
▁விவேகமான	-11226
▁சக்தியைக்	-11227
▁கொள்கையைப்	-11228
▁படிக்கவும்	-11229
ிருக்கின்றனர்	-11230
▁உள்ளடக்கங்கள்	-11231
▁சதித்திட்டத்தை	-11232
▁உறுப்பினர்களில்	-11233
▁நிறுத்தப்பட்டது	-11234
தெ	-11235
000	-11236
ார்க	-11237
▁Exh	-11238
▁ஐத்	-11239
▁கொல	-11240
▁சேனை	-11241
வர்களைப்	-11242
ுக்களின்	-11243
▁வாரண்ட்	-11244
▁முடிவைப்	-11245
ப்படுவதைத்	-11246
▁குறிப்பும்	-11247
▁வழிநடத்துவ	-11248
▁வாதத்திற்கு	-11249
▁ஆதாரத்தையும்	-11250
▁வர்த்தகத்தில்	-11251
ஹு	-11252
பால	-11253
க்ஷா	-11254
▁the	-11255
ோபால்	-11256
ர்தான்	-11257
▁நிற்ப	-11258
▁ஜோர்ஜிய	-11259
▁ஆஜரானார்	-11260
▁இவற்றில்	-11261
▁சுரங்கத்	-11262
▁அடைந்தார்	-11263
▁குத்தகையை	-11264
▁தண்டனைகள்	-11265
▁சென்னையில்	-11266
▁சட்டவிரோதமான	-11267
▁நிபுணர்களின்	-11268
▁சூழ்நிலையிலும்	-11269
▁பரிசீலித்தபின்	-11270
▁முயற்சிகளுக்கு	-11271
க்கிற	-11272
▁ஜோடி	-11273
▁உப்பு	-11274
▁அணுகலை	-11275
▁இருந்ததா	-11276
▁சர்க்கரை	-11277
▁முடிவைக்	-11278
▁வாழ்ந்து	-11279
த்தில்தான்	-11280
▁ஒப்பீட்டு	-11281
▁ஆராய்ந்தோம்	-11282
▁கொள்வதற்கான	-11283
▁அறிக்கைகளில்	-11284
▁செய்ததாகவும்	-11285
▁நிபந்தனையின்	-11286
▁கீழ்க்கண்டவாறு	-11287
▁வான்	-11288
ணித்து	-11289
க்கேற்ப	-11290
▁பொதுஜன	-11291
ப்படுதல்	-11292
▁அதிகாலை	-11293
▁பதிலில்	-11294
▁உலகளவில்	-11295
▁எஸ்டோப்ப	-11296
▁மனப்பான்	-11297
▁குற்றவாளிகளை	-11298
▁சமத்துவத்தின்	-11299
▁செய்வதிலிருந்து	-11300
▁மாநிலத்திற்குள்	-11301
வர்ட்	-11302
பெறும்	-11303
▁காலனி	-11304
▁உக்கிர	-11305
▁ஜோர்ஜ்	-11306
▁பேருக்கு	-11307
▁பொருளைப்	-11308
▁உட்கார்ந்த	-11309
▁கோருவதற்கு	-11310
▁நகரங்களில்	-11311
▁பாதுகாவலர்	-11312
▁சங்கங்களின்	-11313
▁கட்டுமானத்தை	-11314
▁கருதப்படுவார்	-11315
▁குறிக்கவில்லை	-11316
ன்ட	-11317
▁ஹர்	-11318
▁சாய்	-11319
▁ஜோதி	-11320
▁யுனி	-11321
▁ஸ்கிர	-11322
▁தென்னா	-11323
▁நாராயண	-11324
▁பலமுறை	-11325
▁நாளுக்கு	-11326
▁முன்னுரி	-11327
▁கிடைப்பது	-11328
▁தடுக்காது	-11329
டுகிறார்கள்	-11330
▁ஆதாரத்தின்	-11331
▁வெளிப்படும்	-11332
▁இருந்திருக்க	-11333
▁உற்பத்தியாளர்	-11334
▁கட்டமைக்கப்பட்ட	-11335
▁MO	-11336
▁கய	-11337
▁ஆரை	-11338
▁சுபா	-11339
▁ஊடகம்	-11340
▁தினம்	-11341
▁நியூய	-11342
ெட்டில்	-11343
▁அமைத்த	-11344
▁ஆஜராகி	-11345
▁ஒருவரான	-11346
▁தொடங்கு	-11347
▁அவருக்குத்	-11348
▁குடிமகனின்	-11349
▁புத்துயிர்	-11350
▁கோருவதற்கான	-11351
▁நம்பியிருந்த	-11352
▁வரம்பிற்குள்	-11353
▁கருதப்பட்டால்	-11354
▁புரிந்துகொள்வ	-11355
▁விவகாரங்களில்	-11356
▁கொண்டிருந்தனர்	-11357
க்கப்பட்டுள்ளனர்	-11358
ப்ச	-11359
▁சூற	-11360
▁தகன	-11361
▁லலி	-11362
▁துயர	-11363
▁எதிரொ	-11364
▁ஆய்வில்	-11365
▁உடல்நலம்	-11366
▁புஷ்ஷின்	-11367
▁ஆப்பிரிக்க	-11368
▁ஒப்புதலைப்	-11369
▁வகுப்புகள்	-11370
▁பணியாளர்களை	-11371
▁கட்டுரைகளின்	-11372
▁பகுதிகளிலும்	-11373
▁ஏற்றுக்கொண்டு	-11374
▁உருவாக்குவதில்	-11375
ாயாக	-11376
▁ஸ்வ	-11377
லிபீட	-11378
ந்தரம்	-11379
விந்த்	-11380
▁போதிய	-11381
▁கிரெடி	-11382
▁மனிதர்	-11383
▁பணத்தின்	-11384
▁ஆட்சியில்	-11385
▁முன்னணியில்	-11386
▁அகற்றப்படும்	-11387
▁உரிமையாளரால்	-11388
▁நீதித்துறையில்	-11389
▁ஜவ	-11390
▁பெல	-11391
▁சுக்	-11392
▁பெயர	-11393
▁ஆயத்த	-11394
▁வழிவகை	-11395
▁எடுக்கு	-11396
▁தலைப்பை	-11397
▁பிடித்து	-11398
▁வாங்கும்	-11399
▁தீர்வுகள்	-11400
▁நம்பினார்	-11401
ிக்கப்படாது	-11402
▁இயற்கைக்கு	-11403
த்திலிருந்தே	-11404
▁குற்றவாளியா	-11405
▁நினைக்கிறேன்	-11406
▁காட்டப்பட்டது	-11407
▁உருவாக்குகின்றன	-11408
ாரின்	-11409
▁சேரி	-11410
▁டைம்	-11411
▁த்ரி	-11412
▁யுடி	-11413
ப்பிரமண	-11414
▁சிட்டி	-11415
▁நியூயோ	-11416
▁பச்சன்	-11417
▁நிறுவிய	-11418
▁முறையும்	-11419
▁விஷயமும்	-11420
▁ஒழுங்கற்ற	-11421
▁வைக்கவும்	-11422
▁அம்சங்களில்	-11423
▁எடுப்பதற்கு	-11424
▁ஏற்பாடுகளைச்	-11425
▁குற்றங்களில்	-11426
▁நிர்ணயிப்பது	-11427
▁பரிசோதனைக்கு	-11428
▁அவரிடமிருந்து	-11429
▁ஒப்பீட்டளவில்	-11430
▁துருப்புக்களை	-11431
்குற	-11432
▁வோல்	-11433
▁உம்மை	-11434
▁பயிரி	-11435
▁பெடரல்	-11436
▁தூக்கில	-11437
▁தகுதிகளை	-11438
▁தற்காப்பு	-11439
▁இணைக்கப்பட	-11440
▁நிபுணத்துவ	-11441
▁புனரமைப்பு	-11442
▁விருதுக்கு	-11443
▁அறிவிப்பால்	-11444
▁இடைவெளியில்	-11445
▁நேரத்திற்கு	-11446
▁மதச்சார்பற்ற	-11447
▁சதீ	-11448
▁பொய	-11449
▁மலே	-11450
▁போர்ட	-11451
ீட்டைப்	-11452
▁அறிவிய	-11453
▁ஊகிக்க	-11454
▁குதிரை	-11455
▁தாயார்	-11456
▁ஈர்ப்பு	-11457
▁இராணுவப்	-11458
▁உரிமையாக	-11459
▁பிற்பகல்	-11460
▁தாவரங்கள்	-11461
▁பள்ளியில்	-11462
▁சொத்தையும்	-11463
▁தொடர்புகள்	-11464
▁நோக்குநிலை	-11465
▁வணிகத்தில்	-11466
▁அளவுகோல்களை	-11467
▁பொறுப்பேற்ற	-11468
▁நம்பத்தகுந்த	-11469
▁விசாரிக்கப்பட	-11470
▁விளைவுகளுக்கு	-11471
▁விடுவிப்பதற்கான	-11472
ஜெ	-11473
art	-11474
வரா	-11475
ரங்கு	-11476
▁டிப்	-11477
▁பயம்	-11478
▁வேளை	-11479
▁பிரசு	-11480
▁வேணுக	-11481
▁அறநெறி	-11482
▁பொதுப்	-11483
▁பார்வையிட	-11484
▁அனுமானத்தை	-11485
▁பாதுகாப்புக்	-11486
▁விளக்குகிறது	-11487
▁பாதுகாக்கவும்	-11488
▁விஷயங்களுக்கு	-11489
▁திருமணத்திற்கு	-11490
WS	-11491
போக	-11492
்ஸ்	-11493
ப்பொ	-11494
மண்ட	-11495
▁இயேச	-11496
▁திரைய	-11497
▁வகித்த	-11498
▁காரணமான	-11499
▁புதுச்சே	-11500
▁சம்பாதித்த	-11501
▁தொகையையும்	-11502
▁கான்ஸ்டபிள்	-11503
▁ஜேர்மனியின்	-11504
▁சதவீதத்திற்கும்	-11505
▁செயல்படுத்துதல்	-11506
ுமி	-11507
▁கஜ	-11508
க்கர	-11509
தாரண	-11510
ார்ட	-11511
தலால்	-11512
ரியன்	-11513
▁ஆவது	-11514
▁கலவை	-11515
▁படிய	-11516
▁அவளது	-11517
▁அவ்வா	-11518
▁கொட்ட	-11519
க்கொள்ள	-11520
டப்பட்ட	-11521
▁ஆட்டோமொ	-11522
▁கவர்னர்	-11523
▁கொள்ளவும்	-11524
▁நீடிக்கும்	-11525
▁ஆத்திரமூட்ட	-11526
ாட்டப்பட்டபடி	-11527
▁முறையீட்டின்	-11528
op	-11529
ராவ்	-11530
▁aus	-11531
▁முர	-11532
▁வறிய	-11533
கையின்	-11534
லுக்காக	-11535
▁சட்டப்	-11536
▁வஸ்திர	-11537
▁பிரபலமான	-11538
▁ஆபத்தானது	-11539
▁காட்சிகள்	-11540
▁நகரத்தில்	-11541
▁அம்பேத்கர்	-11542
▁கையெழுத்து	-11543
▁மானியங்கள்	-11544
▁வலியுறுத்திய	-11545
▁நெருக்கடியின்	-11546
▁நிலைப்பாட்டைக்	-11547
▁உட்படுத்தப்பட்ட	-11548
ion	-11549
பிள	-11550
லாய	-11551
களாகக்	-11552
▁இதைத்	-11553
▁துணிக	-11554
▁வானிலை	-11555
த்தாவில்	-11556
▁தோற்கடி	-11557
▁விவேகம்	-11558
ப்படுவதன்	-11559
▁அனுமதியை	-11560
▁செலுத்தி	-11561
▁வகிக்கும்	-11562
▁ஆர்வத்துடன்	-11563
▁நோக்கத்தைக்	-11564
▁குறியீட்டில்	-11565
▁முன்வைக்கிறது	-11566
▁வழங்குநர்களின்	-11567
▁கணக்கிடுவதற்கான	-11568
மைக்க	-11569
ம்பிய	-11570
▁துடி	-11571
▁ஜெர்ம	-11572
▁பஞ்ச்	-11573
▁அநியாய	-11574
▁கொன்று	-11575
▁அதேவேளை	-11576
▁விக்ரம்	-11577
▁வீடுகளை	-11578
▁தலைவரின்	-11579
▁முறையைப்	-11580
▁நிலத்தைப்	-11581
▁மற்றவர்கள	-11582
▁வழியில்லை	-11583
▁உறுதிசெய்ய	-11584
▁பழக்கவழக்க	-11585
▁இல்லையென்றால்	-11586
▁குறைக்கப்பட்ட	-11587
யிட்ட	-11588
னர்கள்	-11589
▁ஈக்வி	-11590
▁தகவலை	-11591
▁விகாஸ்	-11592
▁எழுச்சி	-11593
▁பிழையும்	-11594
▁வழிபாட்டு	-11595
▁ஐபிசியுடன்	-11596
▁செயல்களில்	-11597
▁கிராமத்தின்	-11598
▁கருதப்படவில்லை	-11599
▁தெரிவித்துள்ளது	-11600
ard	-11601
ச்சோ	-11602
▁அஸ்	-11603
▁இம்	-11604
▁இவன்	-11605
▁ராஜு	-11606
டெல்லி	-11607
▁தள்ளி	-11608
▁வல்லரசு	-11609
▁அவைகளின்	-11610
▁கிராச்சு	-11611
▁தயாரித்து	-11612
▁நிகழ்வின்	-11613
▁விவாதத்தை	-11614
▁முன்னுதாரண	-11615
▁வரையறையின்	-11616
▁விமானப்படை	-11617
ிக்கப்பட்டால்	-11618
▁மாவட்டத்தின்	-11619
தீன்	-11620
▁சோல	-11621
▁நீல	-11622
▁மீன	-11623
▁இருப்பை	-11624
▁நன்கொடை	-11625
▁வரையறையை	-11626
▁மதிப்பின்	-11627
▁முடிவானது	-11628
▁ஒப்புதலின்	-11629
▁தண்டனையும்	-11630
▁பகிரப்பட்ட	-11631
▁வேட்பாளராக	-11632
▁அடைந்துள்ளது	-11633
▁குண்டுவெடிப்பு	-11634
▁கண்டறிந்துள்ளது	-11635
▁சவ	-11636
டிக்	-11637
புரா	-11638
▁கோளா	-11639
▁இரட்ட	-11640
▁எஸ்பி	-11641
▁சீற்ற	-11642
▁தொண்ண	-11643
ோடொன்று	-11644
▁தடுத்த	-11645
ொள்கின்றன	-11646
▁சைக்கிள்	-11647
▁பஞ்சனாமா	-11648
▁எங்களிடம்	-11649
▁தயக்கமும்	-11650
▁பாகத்தில்	-11651
▁வெளியேறிய	-11652
▁உளவுத்துறை	-11653
▁பயங்கரவாதி	-11654
▁மாற்றங்களை	-11655
▁தெரிவிக்கும்	-11656
▁பரிசீலனைக்கு	-11657
▁விவாதத்திற்கு	-11658
ங்களிலிருந்தும்	-11659
EC	-11660
ேட	-11661
பன்	-11662
னோத்	-11663
வில்ல	-11664
▁கடலோ	-11665
▁சர்த	-11666
▁ரயில	-11667
▁அவமான	-11668
▁சிரமம்	-11669
▁பலிபீட	-11670
ப்பிரதேச	-11671
மாட்டார்	-11672
▁திரையிட	-11673
▁அறிமுகம்	-11674
▁குறைந்து	-11675
▁நடத்துவது	-11676
▁அடைவதற்கான	-11677
▁இல்லத்தில்	-11678
▁நிகழ்ந்தது	-11679
▁முடிந்தால்	-11680
▁சான்றுகளில்	-11681
▁உரிமைகோரலின்	-11682
▁இயக்கப்படுகிறது	-11683
▁தொழில்நுட்பத்தை	-11684
▁வைக்கப்படவில்லை	-11685
கிரி	-11686
ினிய	-11687
ில்லா	-11688
▁ஒட்டி	-11689
▁காத்த	-11690
▁கிலோம	-11691
▁தூதரக	-11692
▁படேல்	-11693
▁பட்டு	-11694
தலுக்கு	-11695
▁அவரைக்	-11696
▁கடைகள்	-11697
▁தேடும்	-11698
▁கெமிக்க	-11699
▁கொள்ளத்	-11700
▁பரீட்சை	-11701
▁வயதுடைய	-11702
▁வெளியான	-11703
▁அளவுகோல்	-11704
▁உதவியாளர்	-11705
▁பார்ப்பது	-11706
▁வளாகங்கள்	-11707
▁தகுதியானது	-11708
▁அடிப்படையான	-11709
▁ஒன்றோடொன்று	-11710
▁செய்யப்படாது	-11711
▁நிர்வாகத்தால்	-11712
▁பரிந்துரைகளின்	-11713
▁கவனிக்கப்பட்டது	-11714
▁சாறு	-11715
▁டால்	-11716
▁பேசி	-11717
▁தளமாக	-11718
▁ஏற்றும	-11719
பாத்தின்	-11720
ாலத்தில்	-11721
▁கிராமம்	-11722
த்தக்கதாக	-11723
ப்பதாகும்	-11724
▁சண்டிகர்	-11725
▁சேகரிப்பு	-11726
▁உட்பட்டதாக	-11727
▁கூட்டங்கள்	-11728
▁விளைவாகும்	-11729
▁அறிவிப்பைக்	-11730
▁தொழில்நுட்பக்	-11731
▁NPA	-11732
▁சரணடை	-11733
செய்வது	-11734
மடைந்து	-11735
▁அவரைத்	-11736
▁எந்திர	-11737
▁ஆய்வுக்	-11738
▁இறையாண்	-11739
▁கடினமாக	-11740
▁படித்து	-11741
▁வசதியான	-11742
▁நீர்நிலை	-11743
க்காரர்கள்	-11744
▁உள்ளவர்கள்	-11745
▁ஊனமுற்றோர்	-11746
▁பெற்றோரின்	-11747
▁மருத்துவம்	-11748
▁சேவைகளுக்கு	-11749
▁தூண்டுகிறது	-11750
▁முழுவதையும்	-11751
▁அதிகாரங்களின்	-11752
▁கொடுக்கவில்லை	-11753
▁பரிந்துரையின்	-11754
▁ஒத்துப்போகிறது	-11755
▁குற்றத்திற்கான	-11756
▁திருத்துவதற்கு	-11757
▁ஒள	-11758
வல்ல	-11759
ஹித்	-11760
▁ஏவுக	-11761
▁தரவை	-11762
▁படிக	-11763
▁பொன்	-11764
▁விடை	-11765
▁பூர்வ	-11766
▁போகும்	-11767
▁முழுத்	-11768
▁நீதியரச	-11769
▁பொய்யாக	-11770
▁தளத்தின்	-11771
▁உயிருக்கு	-11772
▁சந்தித்து	-11773
▁ஜெய்ப்பூர்	-11774
▁நபர்களுடன்	-11775
▁அதிகபட்சமாக	-11776
▁மேற்கொள்ளும்	-11777
▁விவேகத்துடன்	-11778
▁நிர்ணயிப்பதில்	-11779
▁நிபந்தனைகளையும்	-11780
▁ER	-11781
ுவதே	-11782
வந்த்	-11783
டையின்	-11784
▁தகராற	-11785
▁நீரின்	-11786
▁படைகளை	-11787
▁மாற்றி	-11788
▁ஷியாம்	-11789
▁செயற்கு	-11790
▁படங்களை	-11791
▁ஆங்கிலம்	-11792
▁கடமையும்	-11793
▁சேதங்கள்	-11794
▁தூண்டும்	-11795
▁குடியேறிய	-11796
▁தூரத்தில்	-11797
▁புத்திரர்	-11798
▁வருகிறோம்	-11799
▁அர்த்தத்தை	-11800
▁கல்லூரிக்கு	-11801
▁வைப்பதற்கான	-11802
▁தொடர்பாகவும்	-11803
▁எல்லாவற்றையும்	-11804
பவை	-11805
▁CG	-11806
▁எஜ	-11807
▁துள	-11808
▁சற்ற	-11809
▁சல்ல	-11810
▁வானொ	-11811
நிபந்த	-11812
▁இதைப்	-11813
▁ஜார்க	-11814
▁மூச்ச	-11815
▁கிடந்த	-11816
▁சகாப்த	-11817
▁விடுதி	-11818
▁ஷங்கர்	-11819
▁இதுவும்	-11820
▁கைவிட்ட	-11821
ந்துள்ளது	-11822
▁இத்திட்ட	-11823
▁நுழைந்து	-11824
ிருந்தபோது	-11825
▁எக்ஸிபிட்	-11826
▁கிரேட்டர்	-11827
▁அனுப்பவும்	-11828
▁சமத்துவத்தை	-11829
▁செய்வதாகும்	-11830
▁கூட்டங்களில்	-11831
▁நலனுக்காகவும்	-11832
னிக்	-11833
▁யுக	-11834
▁ஆபரண	-11835
▁மதன்	-11836
ுத்துவ	-11837
▁ஸ்டென	-11838
▁கழிக்க	-11839
▁புற்று	-11840
▁சந்ததிய	-11841
▁வடிவில்	-11842
▁தீர்ப்பது	-11843
▁நிறுத்திய	-11844
▁பெங்களூரு	-11845
▁அனுமதித்து	-11846
▁சேர்ப்பதன்	-11847
▁ஆர்ப்பாட்டம்	-11848
▁ஆலோசனையையும்	-11849
▁கையாள்வதற்கான	-11850
▁குல	-11851
▁அழைத்த	-11852
▁இடைவிட	-11853
▁அதுதான்	-11854
▁அபிவிரு	-11855
▁தெலுங்க	-11856
▁மனிதகுல	-11857
▁அமர்வில்	-11858
▁எடுப்பது	-11859
▁பணிநீக்க	-11860
▁அமைக்கப்பட	-11861
▁அளிக்கப்பட	-11862
▁புதுடெல்லி	-11863
▁விவரித்தார்	-11864
▁சதவீதத்திற்கு	-11865
▁குற்றச்சாட்டின்	-11866
▁தயாரிக்கப்பட்டு	-11867
▁விதிக்கப்படலாம்	-11868
ெலு	-11869
▁யாவ	-11870
▁ஆபிர	-11871
▁கத்தி	-11872
த்திரம்	-11873
▁சிக்கல்	-11874
▁அமைப்பாக	-11875
▁இடத்தைப்	-11876
▁வருகின்ற	-11877
த்துள்ளோம்	-11878
▁அறிவுக்கு	-11879
▁இஸ்ரேலின்	-11880
▁காரணத்தைக்	-11881
▁திறக்கிறது	-11882
▁தேவைக்கேற்ப	-11883
▁இறந்தவருக்கு	-11884
▁திருத்தங்களை	-11885
▁வாய்ப்பில்லை	-11886
▁காவல்துறையின்	-11887
▁நிறுவனத்துடன்	-11888
SA	-11889
மாரி	-11890
▁கட்	-11891
▁கனட	-11892
▁ஜோச	-11893
▁ஆனது	-11894
▁நடவு	-11895
▁வண்ட	-11896
ுவதைக்	-11897
▁இடுகை	-11898
▁உணர்க	-11899
▁செலவி	-11900
▁தீர்வ	-11901
▁ஸ்தான	-11902
ப்பதைத்	-11903
▁தேசியக்	-11904
▁காயங்களை	-11905
▁வார்த்தைகளை	-11906
▁வீட்டிற்குச்	-11907
▁செயல்படவில்லை	-11908
▁பொருளாதாரத்தை	-11909
▁திட்டத்திற்கான	-11910
▁திருத்துவதற்கான	-11911
▁வைக்கப்படுகிறது	-11912
DP	-11913
▁சய	-11914
ஸால்	-11915
ாதம்	-11916
▁http	-11917
தோறும்	-11918
நோக்கி	-11919
▁வைத்திய	-11920
▁அமைப்பது	-11921
▁உடைமைகளை	-11922
▁தரத்தில்	-11923
ட்டுள்ளார்	-11924
▁திட்டமும்	-11925
▁முகவர்கள்	-11926
▁சிறைச்சாலை	-11927
▁அம்சங்களைக்	-11928
▁அறியக்கூடிய	-11929
▁நீக்கப்பட்ட	-11930
▁சம்பவத்திற்கு	-11931
▁அறிந்திருந்தார்	-11932
▁குறைமதிப்பிற்கு	-11933
TA	-11934
ஹ்ச	-11935
▁Co	-11936
▁டா	-11937
▁ஆசை	-11938
ற்றில்	-11939
▁கம்ப்	-11940
▁அவைகள்	-11941
▁தகவலும்	-11942
▁தலைவரும்	-11943
▁விலைக்கு	-11944
தற்காகவும்	-11945
▁புதுதில்ல	-11946
▁மணிப்பூர்	-11947
▁வாங்குவது	-11948
▁பரிசோதித்த	-11949
▁மோதல்களைத்	-11950
ப்பிலிருந்து	-11951
▁மட்டங்களில்	-11952
▁விசாரணையால்	-11953
▁இன்டர்நேஷனல்	-11954
▁குடும்பங்கள்	-11955
▁பாதுகாப்புத்	-11956
▁வாய்ப்புள்ளது	-11957
▁காட்சிப்படுத்த	-11958
ஃபெ	-11959
டியே	-11960
மையா	-11961
ப்பன்	-11962
ினில்	-11963
▁சரண்	-11964
டுவார்	-11965
ட்டியை	-11966
▁வியாழ	-11967
▁அகராதி	-11968
▁இன்ஸ்ட	-11969
▁எதிர்ந	-11970
▁முறிவு	-11971
முடியும்	-11972
த்துக்குப்	-11973
▁இதுதொடர்ப	-11974
▁கடமைகளைச்	-11975
▁ஜுடிகாட்ட	-11976
▁இடங்களுக்கு	-11977
▁செய்தார்கள்	-11978
▁கருதுகின்றனர்	-11979
▁தனிமைப்படுத்த	-11980
▁எழுப்பப்பட்டது	-11981
st	-11982
▁பன	-11983
மால்	-11984
▁சோக	-11985
▁எழுப	-11986
▁ராணி	-11987
ினரால்	-11988
▁பலத்த	-11989
▁கார்த்த	-11990
▁திடீரென	-11991
▁ஆதரித்து	-11992
▁பெட்ரோல்	-11993
▁அலுவலரால்	-11994
▁குறைவாகவே	-11995
▁இராஜதந்திர	-11996
▁செல்வதற்கு	-11997
▁போலல்லாமல்	-11998
▁வர்த்தகத்தை	-11999
▁பாதுகாப்பற்ற	-12000
▁கேட்டுக்கொண்ட	-12001
▁பயன்பாட்டிற்கு	-12002
▁வெளிப்படையாகக்	-12003
२०	-12004
நெறிய	-12005
▁கதவு	-12006
▁குவா	-12007
ல்டிங்	-12008
▁துணிகர	-12009
▁நடுவரை	-12010
▁சம்பவத்தை	-12011
▁திறமையற்ற	-12012
▁ஜேர்மனியில்	-12013
▁நீதிபதியும்	-12014
▁வழக்குகளைத்	-12015
▁அறிக்கைகளின்	-12016
▁உருவாக்கலாம்	-12017
▁சீர்திருத்தம்	-12018
▁நுகர்வோருக்கு	-12019
▁பிராந்தியத்தின்	-12020
▁OA	-12021
▁WS	-12022
▁பொற	-12023
ையிலே	-12024
▁சுரு	-12025
▁நந்த	-12026
▁லாரி	-12027
▁அடக்க	-12028
▁புத்த	-12029
க்கடவன்	-12030
▁அச்சம்	-12031
▁இந்திர	-12032
▁கிளிக்	-12033
▁பெண்ணை	-12034
▁ரஞ்சித்	-12035
ாட்டிற்கான	-12036
▁அகற்றப்பட	-12037
▁கட்சியினர்	-12038
▁வழக்குகளும்	-12039
▁பரிசோதனையின்	-12040
▁வெற்றிடமானது	-12041
▁உரையாற்றினார்	-12042
▁தேர்ந்தெடுத்த	-12043
சாத்	-12044
▁சுல	-12045
▁ஆல்க	-12046
▁கேட்	-12047
▁தாழ்	-12048
▁உத்வே	-12049
▁பட்டி	-12050
▁பிரகாச	-12051
▁வார்டு	-12052
▁கவலைகள்	-12053
▁செஷன்ஸ்	-12054
▁மையமாகக்	-12055
▁கடமைகளின்	-12056
▁மசோதாவில்	-12057
▁ஆதரித்தார்	-12058
▁விகிதங்களை	-12059
ுக்கிடையிலான	-12060
▁சட்டசபையின்	-12061
▁நிலத்திற்கு	-12062
▁ஏற்படக்கூடிய	-12063
▁வாங்குவதற்கு	-12064
▁அதிகாரசபையால்	-12065
CI	-12066
சாரா	-12067
▁அறிவை	-12068
▁தில்ல	-12069
▁காவிரி	-12070
▁தாகூர்	-12071
ச்சந்திர	-12072
வர்களைக்	-12073
ாதிருப்ப	-12074
▁செலாவணி	-12075
▁எழுத்தர்	-12076
▁குழப்பம்	-12077
▁சரியாகப்	-12078
▁கட்சியில்	-12079
▁சக்தியின்	-12080
▁சிக்கலில்	-12081
▁மாற்றமும்	-12082
▁வைக்கிறது	-12083
▁கோடிட்டுக்	-12084
ப்படுத்துவது	-12085
▁சான்றிதழ்கள்	-12086
▁இந்தியாவிலும்	-12087
▁விதிமுறைகளைப்	-12088
▁செய்யப்பட்டதாக	-12089
▁இருந்திருக்கும்	-12090
▁ஏறி	-12091
ோடும்	-12092
▁மாட்சி	-12093
▁ஒருமுறை	-12094
▁மாதிரிய	-12095
▁சேதங்களை	-12096
▁முதுகெலு	-12097
▁வாழ்நாள்	-12098
▁கட்டளையிட	-12099
▁சராசரியாக	-12100
▁வடிவமைப்ப	-12101
▁முன்நிபந்த	-12102
▁அனுமதியுடன்	-12103
▁ரீதியாகவும்	-12104
▁விரும்பினர்	-12105
▁முரண்பாடுகளை	-12106
▁வாங்குபவரின்	-12107
▁கொண்டிருப்பது	-12108
▁திட்டத்தையும்	-12109
▁பரிசீலிக்கும்	-12110
FA	-12111
up	-12112
▁Sec	-12113
மாகப்	-12114
▁சிஐடி	-12115
ீட்டையும்	-12116
▁சாதியினர்	-12117
▁அம்சத்தில்	-12118
▁செயல்களின்	-12119
▁அதிகாரியும்	-12120
▁குறிக்கின்றன	-12121
▁கவுன்சிலுக்கு	-12122
▁நம்பிக்கையில்	-12123
ஜோ	-12124
ணைய	-12125
,000	-12126
பலிய	-12127
ெனவே	-12128
▁கெள	-12129
▁ஊர்வ	-12130
▁தர்ம	-12131
ாதபோது	-12132
▁ஆத்து	-12133
▁கபூர்	-12134
▁இளைஞர்	-12135
▁வருவதை	-12136
னையாகும்	-12137
▁அலங்கார	-12138
▁கதாநாயக	-12139
▁கொண்டவர்	-12140
▁ஆதரிக்கிறது	-12141
▁புலிகளுக்கு	-12142
▁விரும்பியது	-12143
▁கூறியுள்ளனர்	-12144
▁கொண்டிருந்தன	-12145
▁திரட்டப்பட்ட	-12146
▁தேவைப்படலாம்	-12147
▁பாதுகாப்பில்	-12148
▁உருவாக்குவதன்	-12149
▁உடன்படிக்கைக்கு	-12150
▁பயன்படுத்தினார்	-12151
▁ஜெக	-12152
▁தூண	-12153
ர்வது	-12154
▁செவ்	-12155
▁ஹார்	-12156
▁சுட்ட	-12157
▁இந்தோனே	-12158
▁காமன்வெ	-12159
▁கொஞ்சம்	-12160
▁பாக்கிய	-12161
▁பெறாமல்	-12162
▁இருபத்தி	-12163
▁ஏற்கெனவே	-12164
▁பெஞ்சில்	-12165
▁ஆவணத்தில்	-12166
▁பெங்களூர்	-12167
▁ஆண்டுகளின்	-12168
▁வாய்ப்பும்	-12169
▁பாதுகாப்புச்	-12170
▁கவனத்திற்குக்	-12171
▁குடும்பத்தில்	-12172
▁செய்திருந்தார்	-12173
மலை	-12174
தீஷ்	-12175
▁மூளை	-12176
லைனில்	-12177
ெடுத்த	-12178
▁கடலோர	-12179
▁மூலமோ	-12180
ம்பண்ணி	-12181
வற்றைக்	-12182
▁செய்தபோது	-12183
▁நல்லிணக்க	-12184
▁ஏற்பாடுகளை	-12185
▁கையெழுத்தி	-12186
▁கூற்றுக்கள்	-12187
▁ஓரினச்சேர்க்க	-12188
▁வைத்திருக்கிறது	-12189
சில	-12190
ரைச்	-12191
▁யூதா	-12192
ோள்களை	-12193
▁பால்க	-12194
▁மனநில	-12195
▁வசூல்	-12196
▁உமக்கு	-12197
▁சால்வே	-12198
▁சுஷில்	-12199
▁வாங்கி	-12200
ுவதிலும்	-12201
▁காணப்பட	-12202
▁காரணிகளை	-12203
▁கோடிக்கு	-12204
▁வயதிற்கு	-12205
▁ஜூடிகாட்ட	-12206
▁வீதத்தில்	-12207
▁பிளாஸ்டிக்	-12208
▁பாதுகாப்பது	-12209
▁பெட்ரோலியம்	-12210
▁விடுவித்தது	-12211
▁விஷயத்தையும்	-12212
NC	-12213
பர	-12214
நேய	-12215
▁நிழ	-12216
▁பர்	-12217
க்டர்	-12218
▁டாடா	-12219
▁பற்க	-12220
▁முகவ	-12221
ையாவது	-12222
▁கான்ப	-12223
▁சுவாச	-12224
▁புகழ்	-12225
▁முதிய	-12226
▁கணக்கை	-12227
▁கதிரிய	-12228
▁போன்று	-12229
▁மதத்தை	-12230
▁சாராம்ச	-12231
▁முடிவாக	-12232
▁ஒழுக்கம்	-12233
▁தகவலையும்	-12234
▁தோற்றத்தை	-12235
▁பொறிமுறையை	-12236
▁ஆராய்வதற்கு	-12237
▁ஜனாதிபதியாக	-12238
▁மாநிலத்திற்கும்	-12239
னால	-12240
்கீழ்	-12241
▁ஜப்ப	-12242
▁ஜாவே	-12243
▁பணவீ	-12244
▁ஜவஹர்	-12245
▁தெய்வ	-12246
▁மயக்க	-12247
ர்களைத்	-12248
ாட்டைத்	-12249
▁தேவாலய	-12250
▁பேட்டி	-12251
த்துப்பா	-12252
▁தாமதமான	-12253
ியுள்ளோம்	-12254
▁சமூகத்தை	-12255
▁துருக்கி	-12256
▁முன்வந்த	-12257
▁மரணத்தின்	-12258
▁கல்விக்கான	-12259
▁நிலங்களின்	-12260
▁சட்டங்களும்	-12261
▁தொடர்புடையதாக	-12262
▁பெறப்படவில்லை	-12263
▁செயல்பாடுகளின்	-12264
த்வா	-12265
னமாக	-12266
மனித	-12267
ிடியூ	-12268
▁span	-12269
▁மேன்	-12270
ராலும்	-12271
வாவின்	-12272
▁கோபுர	-12273
▁செனட்	-12274
▁அறங்காவல	-12275
▁என்னிடம்	-12276
▁கீழ்ப்படி	-12277
▁வளர்த்துக்	-12278
▁விரோதமானது	-12279
▁ஏற்படவில்லை	-12280
▁திரும்பப்பெற	-12281
▁நீதிபதிகளுக்கு	-12282
மாவ	-12283
ரங்க	-12284
ஹார்	-12285
▁ஏதோ	-12286
▁தோழ	-12287
ரியது	-12288
▁வெறி	-12289
லிலும்	-12290
▁மிகத்	-12291
ிப்போம்	-12292
▁கோர்ட்	-12293
▁நீக்கி	-12294
▁ஜார்க்க	-12295
▁பங்காளி	-12296
▁பழங்கால	-12297
▁பெருந்த	-12298
▁ஜப்பானிய	-12299
▁அழைக்கும்	-12300
▁இலக்குகளை	-12301
▁தினத்தின்	-12302
▁பாஸ்போர்ட்	-12303
▁இதுதொடர்பாக	-12304
▁பிரிட்டனின்	-12305
▁விவாதத்தின்	-12306
▁திருப்திக்கு	-12307
▁நீர்ப்பாசனம்	-12308
▁வாக்காளர்கள்	-12309
▁தர்க்கரீதியான	-12310
▁அறிவுறுத்தலின்	-12311
▁கேள்விக்குள்ளா	-12312
னரி	-12313
க்கர்	-12314
▁கணவன்	-12315
▁சத்து	-12316
▁ஷர்மா	-12317
▁அனுதாப	-12318
▁திவாலா	-12319
▁நாளும்	-12320
ப்பிரிவு	-12321
▁விமானம்	-12322
ுவிட்டதாக	-12323
▁உள்வாங்க	-12324
▁சத்தியம்	-12325
▁பதில்கள்	-12326
▁மக்களில்	-12327
▁மிகச்சிற	-12328
▁கதிரியக்க	-12329
▁ஏற்றத்தாழ்	-12330
▁கொள்வதற்கு	-12331
▁செல்வாக்கை	-12332
▁யாருக்கும்	-12333
▁நிர்வாகிகள்	-12334
▁வாதிகளுக்கு	-12335
▁சதித்திட்டம்	-12336
▁அழைக்கப்பட்டது	-12337
▁காணப்படுகின்றன	-12338
▁எடுத்துக்கொண்டு	-12339
▁விற்பனையாளர்கள்	-12340
ஹே	-12341
மனை	-12342
சேன்	-12343
னாமி	-12344
ுவிடு	-12345
மாவின்	-12346
▁சடலம்	-12347
வனுக்கு	-12348
▁வழிகள்	-12349
த்துப்போ	-12350
வில்லையா	-12351
▁சுமத்துவ	-12352
▁விவேகத்தை	-12353
▁அகிலத்தின்	-12354
▁படிப்புகள்	-12355
▁வெளியுறவுக்	-12356
ிருக்கும்போது	-12357
▁விரைவுபடுத்த	-12358
▁செருகப்பட்டது	-12359
▁செலுத்தப்படாத	-12360
▁முன்னேற்றத்தை	-12361
▁ஆர்ப்பாட்டங்கள்	-12362
TO	-12363
தர	-12364
ெதி	-12365
▁lt	-12366
விலிய	-12367
▁உலோக	-12368
▁ரியோ	-12369
பெரும்	-12370
வேண்டு	-12371
▁தென்க	-12372
▁பரவிய	-12373
▁முந்த	-12374
ற்றுதல்	-12375
ிப்பதாக	-12376
▁ஆயுதப்	-12377
▁ஏவுகணை	-12378
▁குடிசை	-12379
▁வறட்சி	-12380
▁என்னால்	-12381
க்கூடியவை	-12382
▁உதவியும்	-12383
▁ரவீந்திர	-12384
▁வீட்டுக்	-12385
▁தடுப்புச்	-12386
▁விலங்குகள்	-12387
▁நாடுகளிலும்	-12388
▁பராமரிப்பது	-12389
▁மூலதனத்தின்	-12390
▁வைத்துள்ளது	-12391
▁அடிப்படையும்	-12392
▁நிபுணத்துவம்	-12393
▁பிரதிவாதியால்	-12394
▁மாநிலத்திலும்	-12395
▁உட்பிரிவுகளில்	-12396
▁கருதப்படுகின்றன	-12397
▁ES	-12398
ுவரை	-12399
க்கல்	-12400
தல்கள்	-12401
▁ஆடியோ	-12402
▁தேங்க	-12403
▁படிந்த	-12404
முறையும்	-12405
▁உரிமைச்	-12406
▁உளவியல்	-12407
▁யாழ்ப்ப	-12408
ையில்தான்	-12409
▁உன்னதமான	-12410
▁மன்றத்தை	-12411
▁வேறுவழிய	-12412
▁துறைகளின்	-12413
▁அனுப்பப்பட	-12414
▁தேர்வுக்கு	-12415
▁அறிக்கையைத்	-12416
▁காமன்வெல்த்	-12417
▁மண்டலத்தில்	-12418
▁கவனிக்கத்தக்கது	-12419
▁முதலீட்டாளர்கள்	-12420
ணல்	-12421
ூன்	-12422
்போ	-12423
குல்	-12424
நூறு	-12425
ரான்	-12426
▁LCR	-12427
▁நாயக	-12428
▁மாவோ	-12429
ளவிலான	-12430
▁கோபால	-12431
▁சந்தா	-12432
▁டேவிட்	-12433
▁வெளிவர	-12434
▁ஆணையத்தை	-12435
▁செய்தவர்	-12436
▁அடைகிறோம்	-12437
▁இயல்பாகவே	-12438
▁ஈக்விட்டி	-12439
▁கர்த்தாவே	-12440
▁தேர்தலின்	-12441
▁யாழ்ப்பாண	-12442
▁கைத்துப்பா	-12443
▁அங்கிருந்து	-12444
▁சந்தேகங்களை	-12445
▁வகுக்கப்பட்ட	-12446
▁விவசாயிகளின்	-12447
▁வேறுபடுகின்றன	-12448
▁உம்	-12449
▁மல்	-12450
▁சேதம	-12451
▁டான்	-12452
▁தொட்டி	-12453
▁நாரிமன்	-12454
▁ஒன்றுடன்	-12455
▁கடமைக்கு	-12456
▁ஸ்பெயின்	-12457
ாயிருக்கிற	-12458
▁தீர்க்கமான	-12459
ிருக்கின்றது	-12460
▁முழுமையாகவோ	-12461
▁விஞ்ஞானிகள்	-12462
▁உடன்படிக்கையை	-12463
▁வழங்கப்படுவது	-12464
னன்	-12465
ாதை	-12466
▁செப	-12467
▁அகதி	-12468
▁செக்	-12469
▁ஒடிசா	-12470
▁களமாக	-12471
▁பேரின	-12472
ாததற்கு	-12473
▁அஹ்மத்	-12474
▁கத்திய	-12475
▁காவலர்	-12476
▁போட்டு	-12477
▁மதியம்	-12478
▁பன்னிரெ	-12479
▁சார்க்கோ	-12480
▁சுட்டிக்	-12481
▁மாநாட்டை	-12482
▁விசாரணைகளை	-12483
ணாம	-12484
மடை	-12485
▁IS	-12486
ங்க்	-12487
▁அமர்	-12488
நோக்கு	-12489
▁சமநில	-12490
▁புகைய	-12491
ல்களைப்	-12492
▁கோதுமை	-12493
▁பிரேம்	-12494
▁செலவுத்	-12495
▁கட்டாயமா	-12496
▁கடிதங்களை	-12497
▁பிரித்தல்	-12498
▁முன்னறிவி	-12499
▁பள்ளிகளில்	-12500
னையிலிருந்து	-12501
▁தொடர்ந்தும்	-12502
▁கையாள்வதற்கு	-12503
▁விவரக்குறிப்பு	-12504
▁குற்றச்சாட்டில்	-12505
▁viii	-12506
▁டெலி	-12507
▁புல்	-12508
▁ஸ்தல	-12509
▁நரேன்	-12510
▁இயக்கி	-12511
▁உத்தேச	-12512
▁கிளின்	-12513
▁தன்னைத்	-12514
▁விரிவுப	-12515
த்துக்காக	-12516
▁சொற்பொழி	-12517
▁பலாத்கார	-12518
▁ஒப்பந்தச்	-12519
▁குழுக்களை	-12520
▁தொழிற்துற	-12521
வர்களாகவும்	-12522
▁ஒதுக்கீட்டை	-12523
▁காலத்திற்குப்	-12524
ாகிரு	-12525
ாததன்	-12526
ியைச்	-12527
▁அரங்க	-12528
▁இவரது	-12529
▁சாந்த	-12530
▁அரங்கு	-12531
▁என்கிற	-12532
▁எஃப்எஸ்	-12533
▁என்னவாக	-12534
▁கிடங்கு	-12535
▁அந்தஸ்து	-12536
▁ஆபத்தில்	-12537
▁பிரதிபலி	-12538
ப்பிற்குள்	-12539
▁பகுதிகளாக	-12540
வர்களுக்கான	-12541
▁சட்டமன்றக்	-12542
▁அச்சுறுத்தலை	-12543
▁பிரதிநிதியாக	-12544
▁மாற்றத்திற்கு	-12545
▁வேட்பாளருக்கு	-12546
▁புதுதில்லியில்	-12547
▁குடியிருப்புகள்	-12548
▁கொண்டிருப்பதால்	-12549
▁வழிநடத்துகிறோம்	-12550
▁AM	-12551
ழந்த	-12552
▁போராட	-12553
ாட்டும்	-12554
▁மகிழ்வி	-12555
▁வடிகால்	-12556
▁ஏற்படாது	-12557
▁தவறியதால்	-12558
▁வருடங்கள்	-12559
▁வழக்கறிஞரை	-12560
▁வேணுகோபால்	-12561
▁புதுப்பித்த	-12562
▁அறிக்கையுடன்	-12563
▁கண்டறிந்தால்	-12564
▁மேம்பாட்டுக்	-12565
▁குற்றவாளிகளின்	-12566
▁செல்லுபடியாகாது	-12567
ாத்	-12568
ஸ்தல	-12569
▁வீதி	-12570
ப்பிங்	-12571
▁பராஸ்	-12572
▁மலிவு	-12573
▁ஏற்றது	-12574
▁பெஞ்சு	-12575
▁வங்கம்	-12576
ப்பட்டவை	-12577
▁அவ்வளவு	-12578
▁எழுந்து	-12579
▁கரும்பு	-12580
படியினால்	-12581
▁தொகையைத்	-12582
▁எழுத்துத்	-12583
▁கல்வியில்	-12584
▁கொடுப்பது	-12585
▁கொள்வதில்	-12586
▁மனைவிக்கு	-12587
்களிலிருந்து	-12588
▁செயல்படுவது	-12589
▁பெறுவார்கள்	-12590
▁ஆதாரங்களுடன்	-12591
▁இருக்கவில்லை	-12592
▁கல்லூரிகளில்	-12593
▁செயல்களுக்கு	-12594
▁நம்பியிருப்பது	-12595
▁கட்டுப்பாட்டுச்	-12596
ளித்து	-12597
▁ஃபார்	-12598
படியால்	-12599
ாவுக்கு	-12600
▁உறிஞ்ச	-12601
▁ஊழியராக	-12602
▁வெயிட்ட	-12603
▁இடத்தின்	-12604
▁குழுக்கள	-12605
▁தன்னிடம்	-12606
▁தப்பிக்க	-12607
▁ராதாகிரு	-12608
▁ஒப்புக்கொ	-12609
▁ஜார்கண்ட்	-12610
▁தடையின்றி	-12611
▁பட்டப்படி	-12612
▁மேலேயுள்ள	-12613
▁தீர்வுக்கு	-12614
▁நெருக்கடிய	-12615
▁பதிவுகளில்	-12616
▁உறுதிசெய்து	-12617
▁நியாயமானதாக	-12618
▁வாஷிங்டனின்	-12619
▁வெளியிடுவதற்கான	-12620
ine	-12621
ராவ	-12622
்பட	-12623
டிங்	-12624
ம்பே	-12625
▁CIA	-12626
▁துரி	-12627
▁தோராய	-12628
▁பிற்க	-12629
▁சத்தம்	-12630
▁ஆலோசனையும்	-12631
▁எழுத்தாளர்	-12632
▁குழந்தைக்கு	-12633
▁விற்கப்படும்	-12634
▁அதிகாரத்துடன்	-12635
▁புண்படுத்தும்	-12636
▁வளர்ச்சிக்கான	-12637
BI	-12638
முன்	-12639
ாகவோ	-12640
▁வனா	-12641
▁இன்க	-12642
▁கனடா	-12643
▁புளோ	-12644
▁மீனா	-12645
நிலைக்	-12646
்ச்சல்	-12647
▁அதிர்	-12648
▁சமிக்	-12649
▁ஜோசப்	-12650
▁தேர்வ	-12651
▁எக்ஸ்ட்	-12652
▁கண்மூடி	-12653
▁சொத்தாக	-12654
▁பரம்பரை	-12655
▁மறுநாள்	-12656
▁புறம்பான	-12657
▁மாபெரும்	-12658
▁மோசமானது	-12659
ப்படுவதில்	-12660
▁உருவாகும்	-12661
▁ஒப்பந்தத்	-12662
▁தொடர்பில்	-12663
▁நினைவூட்ட	-12664
▁நியாயத்தை	-12665
ப்படுகிறேன்	-12666
▁குறிப்பைக்	-12667
▁கூறப்படுவது	-12668
▁தெளிவாகவும்	-12669
▁பயன்பாடுகள்	-12670
▁பெங்களூரில்	-12671
▁நிதியாண்டில்	-12672
▁நிர்வாகியின்	-12673
▁மற்றவர்களின்	-12674
▁வெளிப்படுகிறது	-12675
▁உடன்படிக்கையின்	-12676
▁தென்னாப்பிரிக்க	-12677
EP	-12678
த்தலை	-12679
மைவாத	-12680
ாமில்	-12681
ினின்	-12682
▁தாள்	-12683
▁கலைக்க	-12684
▁கோளாறு	-12685
▁திங்கள	-12686
▁வரையில்	-12687
க்கப்படாது	-12688
▁அற்புதமான	-12689
▁வருகின்றது	-12690
▁செயல்முறைகள்	-12691
▁நிர்ணயித்தல்	-12692
▁சூழ்நிலைகளைப்	-12693
▁துப்பாக்கிகள்	-12694
▁அங்கீகரிக்கும்	-12695
▁வயதுக்குட்பட்ட	-12696
ட்ச்	-12697
▁செழ	-12698
எம்டி	-12699
▁அரிய	-12700
க்கிங்	-12701
▁சற்றே	-12702
▁தூதர்	-12703
▁சம்மதி	-12704
▁திவான்	-12705
▁பேரும்	-12706
▁சட்டசபை	-12707
▁தலைநகர்	-12708
▁பில்டர்	-12709
▁ஆல்கஹால்	-12710
▁இருப்பிட	-12711
▁தீவிரவாத	-12712
▁தகுதியின்	-12713
▁நிலையானது	-12714
▁அறிக்கையிட	-12715
▁ஏற்படக்கூடும்	-12716
▁விழிப்புணர்வை	-12717
ினோம்	-12718
▁படகு	-12719
▁பைகள்	-12720
▁வேட்ட	-12721
ாலையில்	-12722
▁காத்தி	-12723
▁தினேஷ்	-12724
▁தியேட்ட	-12725
த்தொடர்பு	-12726
▁கண்டிப்ப	-12727
▁வகுப்பின	-12728
▁வெளிச்சம்	-12729
▁அசோசியேஷன்	-12730
▁இருவரையும்	-12731
▁தொழிற்துறை	-12732
▁பார்க்கும்	-12733
▁இடங்களிலும்	-12734
▁ஒப்புக்கொள்வ	-12735
▁தண்டிக்கப்பட	-12736
▁தோல்வியடைந்த	-12737
▁விலக்கப்பட்ட	-12738
▁உடன்படுகிறோம்	-12739
▁பாதுகாக்கிறது	-12740
ஸ்க்	-12741
ஸ்வர	-12742
▁தரி	-12743
▁யாக	-12744
றைகள்	-12745
ினாலே	-12746
▁lang	-12747
▁ஜார்	-12748
▁புவி	-12749
▁பெலி	-12750
▁பரிணாம	-12751
▁வரிகள்	-12752
▁ஏற்படுவ	-12753
▁குடிமகன்	-12754
▁சொன்னால்	-12755
▁ஆசியாவில்	-12756
▁கருத்துச்	-12757
▁கருத்தும்	-12758
▁கர்த்தரின்	-12759
▁தொகுப்பில்	-12760
▁தொடங்கினர்	-12761
▁பிரபுக்கள்	-12762
▁செல்லவில்லை	-12763
▁அறிவிக்கப்பட	-12764
▁காயங்களுக்கு	-12765
▁கிராச்சுட்டி	-12766
▁நினைக்கிறோம்	-12767
▁கட்டளையிடுகிறது	-12768
ிகோ	-12769
ீரல்	-12770
ொல்ல	-12771
▁சமப	-12772
ென்ட்	-12773
ர்பிரை	-12774
▁உடந்த	-12775
▁சிரிய	-12776
▁ஜட்ஜ்	-12777
▁ராணுவ	-12778
▁அகாடமி	-12779
▁மியான்	-12780
▁என்ஜிடி	-12781
▁சம்மந்த	-12782
▁நிதியம்	-12783
▁நுழைவாய	-12784
ரிடத்தில்	-12785
▁ராஜாவின்	-12786
▁ஆன்லைனில்	-12787
▁கழகத்தின்	-12788
▁நடத்தினர்	-12789
▁முரண்பட்ட	-12790
▁ஊதியத்தில்	-12791
▁சந்தைகளில்	-12792
▁நம்பகத்தன்	-12793
▁நியூயோர்க்	-12794
▁செயல்படுவதை	-12795
▁வழங்கப்படாத	-12796
▁மாதத்திற்குள்	-12797
▁பிரச்சாரத்தின்	-12798
▁மாதங்களுக்கும்	-12799
▁உரிமையாளர்களின்	-12800
▁நடவடிக்கையையும்	-12801
AF	-12802
▁இலை	-12803
▁அரண்	-12804
▁டார்	-12805
ப்பால்	-12806
வருமான	-12807
ீர்களா	-12808
▁ஆறாம்	-12809
▁குளிர்	-12810
▁சிங்வி	-12811
▁திவேதி	-12812
▁கழுத்தை	-12813
▁தண்ணீரை	-12814
▁முன்னேற	-12815
▁வாடகையை	-12816
▁சந்தைகள்	-12817
▁திருட்டு	-12818
▁அரசுகளின்	-12819
▁சொல்லுகிற	-12820
▁நிகழ்தகவு	-12821
▁நீக்குவது	-12822
▁திங்களன்று	-12823
▁எழுப்பினார்	-12824
▁இறந்துவிட்டார்	-12825
▁தரப்பினருக்கான	-12826
▁பாதுகாப்பையும்	-12827
BC	-12828
ess	-12829
▁தம	-12830
னைத்	-12831
▁CGT	-12832
▁SPD	-12833
ேயின்	-12834
▁சாப்ப	-12835
▁செங்க	-12836
▁கலப்பு	-12837
▁பூச்சி	-12838
விட்டனர்	-12839
▁களுக்கு	-12840
▁நேர்மாற	-12841
▁நோய்கள்	-12842
▁மையத்தை	-12843
▁அனைவரின்	-12844
▁தருகிறது	-12845
▁வரப்பட்ட	-12846
▁சார்பாகவோ	-12847
▁சுப்பிரமண	-12848
▁தீர்ப்பைத்	-12849
▁பெறக்கூடிய	-12850
▁ஆதாரங்களால்	-12851
▁கட்டங்களில்	-12852
▁கூறுகின்றனர்	-12853
▁செயலாளருக்கு	-12854
▁தரப்பினரிடையே	-12855
ரும	-12856
▁ஓம்	-12857
புரம்	-12858
▁ஒட்ட	-12859
▁மீறு	-12860
▁அடிமை	-12861
▁பயனர்	-12862
▁உறவின்	-12863
▁சம்பிர	-12864
வர்களைத்	-12865
▁உச்சிமா	-12866
த்திற்கிட	-12867
▁பத்தாவது	-12868
▁வரவேற்பு	-12869
▁வாரங்கள்	-12870
▁அமைச்சராக	-12871
▁நன்மைக்கு	-12872
▁கட்டுப்பாட	-12873
▁படத்துக்கு	-12874
▁புகைப்படம்	-12875
▁கண்டறிந்தார்	-12876
▁நினைக்கவில்லை	-12877
▁சட்டபூர்வமானது	-12878
ஜ்ப	-12879
ற்போ	-12880
▁டிஐ	-12881
ரியம்	-12882
▁செது	-12883
பின்பு	-12884
▁உணர்வ	-12885
▁அரசும்	-12886
▁சாக்கு	-12887
▁மில்ஸ்	-12888
▁மைத்து	-12889
▁அக்கிரம	-12890
▁காடுகள்	-12891
▁காலவரைய	-12892
▁நித்திய	-12893
▁சக்தியாக	-12894
▁படிவத்தை	-12895
▁பொலிசார்	-12896
▁விவசாயம்	-12897
▁நியூயார்க்	-12898
▁கட்டணத்தின்	-12899
▁சம்பவத்தில்	-12900
▁சாட்சிகளால்	-12901
▁பக்கங்களில்	-12902
▁வைக்கப்பட்டன	-12903
க்கப்படக்கூடிய	-12904
▁வாங்குபவர்கள்	-12905
▁தேர்ந்தெடுத்து	-12906
iv	-12907
நம்ப	-12908
ுவந்த	-12909
▁அருவ	-12910
ராவும்	-12911
▁புஷ்ஷ	-12912
்ட்டின்	-12913
▁நிதித்	-12914
▁சீனியர்	-12915
▁பொய்யான	-12916
▁யாராவது	-12917
▁அடையப்பட	-12918
▁எழவில்லை	-12919
▁ஒழுங்காக	-12920
▁கருத்திய	-12921
▁பயிர்கள்	-12922
▁பாருங்கள்	-12923
▁மாநிலமும்	-12924
▁இன்ஸ்பெக்ட	-12925
▁பின்வருபவை	-12926
▁தனியுரிமையின்	-12927
▁போராட்டத்தின்	-12928
▁பின்வருவனவற்றை	-12929
▁பிரதிவாதிகளின்	-12930
▁ஆசிரியர்களுக்கு	-12931
ஷிப்	-12932
▁உமி	-12933
▁கசி	-12934
ச்சர்	-12935
▁அளவி	-12936
▁அருண்	-12937
▁நபரிட	-12938
▁எத்தனை	-12939
▁கையால்	-12940
▁பாதையை	-12941
▁பிரதிய	-12942
▁ஆதரவைப்	-12943
▁இட்டுச்	-12944
▁இரங்கல்	-12945
▁கடனாளர்	-12946
▁பண்டிட்	-12947
▁யுனிவர்	-12948
▁சொல்லும்	-12949
▁ஆரம்பித்த	-12950
▁சந்தையின்	-12951
▁அறியப்படாத	-12952
▁இலங்கையின்	-12953
▁குறிப்பின்	-12954
▁பங்கேற்றார்	-12955
▁கிராமங்களில்	-12956
▁மருத்துவரின்	-12957
▁பாதுகாப்புகள்	-12958
▁உறுதிப்படுத்திய	-12959
▁நூல	-12960
்த்து	-12961
▁அழகு	-12962
▁உணவக	-12963
▁கோபி	-12964
▁இப்ரா	-12965
▁சொல்க	-12966
ுவதாகக்	-12967
ைக்கும்	-12968
▁தனிப்ப	-12969
▁ஆர்வமாக	-12970
▁பசிபிக்	-12971
▁பெறப்பட	-12972
ப்பார்க்க	-12973
▁அமைந்தது	-12974
▁தரவுத்தள	-12975
▁ஆண்டிற்கு	-12976
▁உண்மையைப்	-12977
▁சென்றபோது	-12978
▁வசதிக்காக	-12979
▁வாதங்களின்	-12980
▁கொள்வதற்காக	-12981
▁பயிற்சியின்	-12982
▁கொடுத்துள்ளது	-12983
▁மற்றவர்களுடன்	-12984
▁மாற்றுவதற்காக	-12985
▁மருத்துவமனைகள்	-12986
▁மறுக்கப்பட்டது	-12987
▁புரிந்துகொள்வது	-12988
WC	-12989
▁ஒப	-12990
ஹிம்	-12991
ேஸ்வர	-12992
▁எழுவ	-12993
▁ஆனந்த	-12994
▁போர்வ	-12995
ென்றும்	-12996
▁காலக்க	-12997
▁காலமான	-12998
▁மன்னர்	-12999
▁ஆதரவைக்	-13000
▁கறுப்பு	-13001
ியுள்ளபடி	-13002
▁பெற்றால்	-13003
▁நிற்கிறது	-13004
▁அமைப்புகளை	-13005
▁தீர்த்துக்	-13006
▁அரசியல்வாதி	-13007
▁இன்ஸ்டிடியூ	-13008
▁பயங்கரவாதம்	-13009
▁இரண்டிற்கும்	-13010
▁உங்களுக்கும்	-13011
▁தொலைத்தொடர்பு	-13012
ிக்கப்பட்டுள்ளன	-13013
▁கட்டுமானத்தின்	-13014
வுட்	-13015
▁hon	-13016
▁இழை	-13017
ோவின்	-13018
▁டேவ்	-13019
▁ரஜின	-13020
லாகும்	-13021
▁பெறுந	-13022
▁பேரம்	-13023
▁முல்ல	-13024
களிடையே	-13025
ப்பதைக்	-13026
ல்களைக்	-13027
ூட்டும்	-13028
▁மகளிர்	-13029
▁வகுத்த	-13030
▁அடித்து	-13031
▁ஆண்டவர்	-13032
▁பெண்களை	-13033
ப்படுகின்ற	-13034
▁ஐந்தாண்டு	-13035
▁ஒப்பந்தக்	-13036
▁செய்வதும்	-13037
▁செல்வாக்க	-13038
▁டெவலப்பர்	-13039
▁தானியங்கி	-13040
▁நபர்களைக்	-13041
▁பதினான்கு	-13042
▁வாக்குப்ப	-13043
▁அப்பட்டமான	-13044
▁கல்வியறிவு	-13045
▁தொடங்குவது	-13046
▁கோரிக்கையும்	-13047
▁வாக்குமூலங்களை	-13048
▁தவிர்க்கமுடியாத	-13049
சய	-13050
ாசி	-13051
▁al	-13052
ல்ட்	-13053
▁and	-13054
▁ஃபே	-13055
▁கணின	-13056
▁காமெ	-13057
▁குழி	-13058
▁பேரணி	-13059
▁அணிந்த	-13060
▁சந்தர்	-13061
ரியாவின்	-13062
▁நடுவராக	-13063
▁நர்சிங்	-13064
▁வயதிற்க	-13065
▁சரணடைந்த	-13066
▁நோயாளிகள்	-13067
▁பத்தியின்	-13068
▁எண்டர்பிரை	-13069
▁நுகர்வோரின்	-13070
▁தயாரிப்பதில்	-13071
▁மரியாதையுடன்	-13072
▁வழங்கப்படாது	-13073
்து	-13074
பூர்	-13075
வணிக	-13076
▁PET	-13077
▁The	-13078
▁காளை	-13079
விட்டன	-13080
ிக்கல்	-13081
▁காக்க	-13082
▁ஹரிஷ்	-13083
▁ஆன்மீக	-13084
▁இவர்கள	-13085
▁போர்ட்	-13086
▁வழித்த	-13087
▁மாற்றவோ	-13088
▁இடைநீக்க	-13089
▁தேங்காய்	-13090
▁இருந்ததாக	-13091
▁உரிமங்கள்	-13092
▁கலைஞர்கள்	-13093
▁தோன்றியது	-13094
▁நண்பர்கள்	-13095
▁அடையவில்லை	-13096
▁உள்ளடக்கங்களை	-13097
▁பன்னிரெண்டாம்	-13098
▁அறிவித்துள்ளது	-13099
▁விதிக்கப்படுவது	-13100
▁விரும்பத்தக்கது	-13101
நூ	-13102
ண்க	-13103
ொள்	-13104
▁மகன	-13105
▁உடனே	-13106
த்தானே	-13107
▁முனைய	-13108
▁கொள்ளை	-13109
▁ஆணையில்	-13110
▁சுழற்சி	-13111
▁அளவிலும்	-13112
▁எடையுள்ள	-13113
▁சார்ந்து	-13114
▁மண்ணெண்ண	-13115
▁யூதாவின்	-13116
த்துறையில்	-13117
▁செயலாகும்	-13118
▁செயலாளராக	-13119
▁முதலீடுகள்	-13120
▁ஆண்டுதோறும்	-13121
▁செய்வதிலும்	-13122
▁விடுத்துள்ள	-13123
▁அம்பலப்படுத்த	-13124
▁பத்திரங்களில்	-13125
▁கூறியிருந்தார்	-13126
▁நிலைப்பாட்டின்	-13127
▁மருத்துவமனையின்	-13128
மல	-13129
போய்	-13130
ஸ்டு	-13131
▁பாள	-13132
▁மோக	-13133
ையிலோ	-13134
ண்ட்ஸ்	-13135
▁புனர்	-13136
ர்மாவின்	-13137
▁சிறந்து	-13138
▁வனாந்தர	-13139
▁துறையால்	-13140
▁ரீதியில்	-13141
▁விழுந்து	-13142
▁அரசாங்கத்	-13143
▁மாதத்தின்	-13144
▁வாரத்தில்	-13145
▁பங்களாதேஷ்	-13146
▁முடிந்தபின்	-13147
▁நூற்றாண்டில்	-13148
▁வேறுபடுகிறது	-13149
▁கலந்தாலோசித்த	-13150
▁மாநிலத்திற்காக	-13151
IOS	-13152
▁இக	-13153
▁மஜ	-13154
ரைன்	-13155
▁நடா	-13156
▁கன்ச	-13157
▁உத்தி	-13158
▁கருப்ப	-13159
▁சமிக்ஞ	-13160
▁தாயின்	-13161
▁பாபிலோ	-13162
தலுக்கான	-13163
▁தாங்கிய	-13164
▁நடுவில்	-13165
முடியாதது	-13166
▁எழுதியது	-13167
▁தொகையைப்	-13168
▁ஆகியோரும்	-13169
▁உரிமங்களை	-13170
▁உரிமையில்	-13171
▁தேர்வுகள்	-13172
▁முன்பாகவோ	-13173
▁உள்ளீடுகளை	-13174
▁டிசம்பரில்	-13175
▁பெறப்படும்	-13176
▁கொண்டவர்கள்	-13177
▁சட்டங்களால்	-13178
▁வேலைவாய்ப்பை	-13179
▁அச்சுறுத்தலாக	-13180
▁ஒதுக்கீட்டின்	-13181
▁சட்டமன்றங்கள்	-13182
▁மரணத்திற்குப்	-13183
▁மாற்றியமைத்தல்	-13184
▁விரும்புகிறார்	-13185
ou	-13186
▁எல	-13187
▁பரே	-13188
ட்டரி	-13189
ாலயம்	-13190
ோடேகூட	-13191
▁ஆர்டி	-13192
▁ஊடுரு	-13193
▁பாசிச	-13194
ுகையில்	-13195
▁அகநிலை	-13196
▁இயங்கு	-13197
▁உச்சரி	-13198
▁அடையும்	-13199
▁பிடித்த	-13200
▁முழுநேர	-13201
▁அரங்கில்	-13202
▁கொலைக்கு	-13203
▁படைகளின்	-13204
▁பொறியியல	-13205
▁எடுத்துரை	-13206
▁கொள்கிறது	-13207
▁பள்ளியின்	-13208
▁ஸ்கிரிப்ட	-13209
▁அமைச்சரின்	-13210
▁ஆக்குகிறது	-13211
▁சொத்துக்கு	-13212
▁நுழைவதற்கு	-13213
............	-13214
▁எதுவுமில்லை	-13215
▁கருதுகிறார்	-13216
▁குற்றங்களைச்	-13217
▁வாசிக்கப்பட்ட	-13218
ங்களுக்கிடையில்	-13219
▁ஊழியர்களுக்கும்	-13220
ிச	-13221
குவ	-13222
ோசா	-13223
▁வோ	-13224
▁MoEF	-13225
▁சிவ்	-13226
▁சுயா	-13227
▁மல்ல	-13228
▁அரேபிய	-13229
▁கியான்	-13230
▁துணைக்	-13231
▁மேலாதி	-13232
▁செவ்வாய	-13233
▁தரவரிசை	-13234
▁நல்வாழ்	-13235
▁மனிதநேய	-13236
▁வெளிவரு	-13237
▁நடுவரின்	-13238
▁நாக்பூர்	-13239
▁வைப்பதன்	-13240
▁சாராம்சம்	-13241
▁பக்கங்கள்	-13242
▁உதவித்தொகை	-13243
▁தாமதத்தின்	-13244
▁சொற்களுக்கு	-13245
▁பொறுப்புகளை	-13246
▁மண்ணெண்ணெய்	-13247
▁விசாரித்தது	-13248
ளிக்கப்பட்டது	-13249
▁தீர்ப்புக்கு	-13250
▁வங்கிகளுக்கு	-13251
▁வாக்கெடுப்பு	-13252
▁வித்தியாசமான	-13253
நிறை	-13254
▁NIOS	-13255
▁அபிஷ	-13256
▁சில்	-13257
▁மனதை	-13258
▁பிரஸ்	-13259
▁கடனின்	-13260
ட்டுள்ளன	-13261
▁சுந்தர்	-13262
▁விழுமிய	-13263
▁ராஜஸ்தான	-13264
டுகின்றனர்	-13265
▁வளர்ச்சிய	-13266
▁கட்டிடத்தை	-13267
▁விபச்சாரம்	-13268
▁கணக்குகளின்	-13269
▁பாரபட்சமற்ற	-13270
▁சட்டமன்றத்தை	-13271
▁தடைசெய்கிறது	-13272
▁தீர்ப்பாயமும்	-13273
்பா	-13274
தாஸ்	-13275
▁EIA	-13276
▁உணவ	-13277
▁ஹெல	-13278
▁கனவு	-13279
னாவின்	-13280
ிக்கிற	-13281
▁பழிவா	-13282
▁அடைக்க	-13283
▁அணுகிய	-13284
▁அளவைப்	-13285
▁எழுச்ச	-13286
▁நடுப்ப	-13287
பூர்வமாக	-13288
▁அங்கமாக	-13289
▁வகைக்கு	-13290
▁கிடைக்கு	-13291
▁தங்களைத்	-13292
▁குறைப்பது	-13293
▁சுகாதாரப்	-13294
▁மையத்தின்	-13295
▁வைப்பதில்	-13296
▁இயக்கப்பட்ட	-13297
▁கொள்கைகளைப்	-13298
▁பகுதிக்குள்	-13299
▁அனுமதிக்காது	-13300
▁கொண்டுள்ளார்	-13301
▁பின்னோக்கிச்	-13302
ழிக	-13303
ம்மா	-13304
▁சீஷ	-13305
▁நாச	-13306
▁TRAI	-13307
ண்டால்	-13308
ப்பினை	-13309
▁அன்பு	-13310
▁இறக்க	-13311
▁கைத்தொ	-13312
▁நகலைப்	-13313
▁வினோத்	-13314
▁அளவுகள்	-13315
▁உதவிகளை	-13316
▁கண்ணாடி	-13317
▁தெருக்க	-13318
▁ஸ்டாண்ட	-13319
▁கடல்சார்	-13320
டுவதற்கும்	-13321
▁பெயரிலும்	-13322
▁அணிவகுப்பு	-13323
▁அறிவாற்றலை	-13324
▁கட்சியுடன்	-13325
▁இருக்கிறேன்	-13326
▁கட்சிகளிடையே	-13327
▁பரிசீலனையில்	-13328
▁ஒப்பிடுகையில்	-13329
▁பன்முகத்தன்மை	-13330
▁மாற்றுவதற்கும்	-13331
▁செய்யப்பட்டபோது	-13332
ென்ற	-13333
னியம்	-13334
▁WSWS	-13335
▁புதை	-13336
▁ரூபா	-13337
▁குறிக	-13338
▁கெட்ட	-13339
▁யுஐடி	-13340
ல்களால்	-13341
▁சிராக்	-13342
▁அல்ட்ரா	-13343
▁செயலின்	-13344
ாண்டிற்கான	-13345
▁இடைப்பட்ட	-13346
▁வாதிட்டது	-13347
▁பரிசோதனையை	-13348
▁நிறுத்தியது	-13349
▁தெரிவிக்கிறது	-13350
▁வெளிப்படுத்து	-13351
▁கையெழுத்திட்டது	-13352
▁பயங்கரவாதத்தின்	-13353
ht	-13354
மென்	-13355
ையர்	-13356
▁பாழ	-13357
▁காரை	-13358
▁கைலா	-13359
▁தரிச	-13360
▁பாக்	-13361
▁மாலி	-13362
▁மிசோ	-13363
▁ஹில்	-13364
▁சுபாஷ்	-13365
▁வேலைத்	-13366
ையாகவும்	-13367
▁கோருவது	-13368
▁சமபங்கு	-13369
▁வரவேற்ற	-13370
▁அதற்குள்	-13371
▁அறிவித்து	-13372
▁பிரதமரின்	-13373
▁முதிர்ச்ச	-13374
▁இழப்புக்கு	-13375
▁முறையிலும்	-13376
▁ஒப்பந்தமும்	-13377
▁நீண்டகாலமாக	-13378
▁பெரும்பகுதி	-13379
▁மேலாதிக்கம்	-13380
▁முன்னெடுத்து	-13381
▁மனுதாரர்களால்	-13382
▁வரம்புகளுக்கு	-13383
▁பரிமாற்றத்தின்	-13384
▁வைத்திருந்தால்	-13385
▁கொள்ளப்படுகிறது	-13386
▁எட	-13387
தொரு	-13388
▁இரட்ச	-13389
▁கிணறு	-13390
▁இழிவான	-13391
▁எளிதாக	-13392
▁பில்லிய	-13393
▁வில்லிய	-13394
ட்டிருப்ப	-13395
▁குழுவும்	-13396
▁நியாயமாக	-13397
▁மார்க்சி	-13398
▁செய்தபின்	-13399
▁தாக்கியது	-13400
▁சமுதாயத்தை	-13401
▁கிடைத்ததும்	-13402
▁சமுதாயத்திற்கு	-13403
ானை	-13404
ேர்த	-13405
டியது	-13406
ேட்ஸ்	-13407
▁யால்	-13408
▁கிருப	-13409
▁விடக்	-13410
▁ஸ்கிரீ	-13411
▁கோரலாம்	-13412
▁வாசலில்	-13413
▁ரசீதுகள்	-13414
▁உயர்ந்தது	-13415
[...]
