<unk>	0
<s>	0
</s>	0
UuRrLl	0
DdAaTtEe	0
NnUuMm	0
ని	-0
ర్	-1
▁ప	-2
రి	-3
▁మ	-4
▁స	-5
్ర	-6
▁అ	-7
▁క	-8
న్	-9
▁వ	-10
ిం	-11
క్	-12
ార	-13
స్	-14
ది	-15
▁చ	-16
ను	-17
్య	-18
ాల	-19
లో	-20
ించ	-21
▁ప్ర	-22
కు	-23
యు	-24
లు	-25
ట్	-26
▁మరి	-27
ిన	-28
▁మరియు	-29
▁త	-30
▁ఉ	-31
గా	-32
కి	-33
ల్	-34
తు	-35
▁ని	-36
తి	-37
▁చే	-38
▁వి	-39
ంద	-40
టి	-41
ప్	-42
▁ఆ	-43
ాని	-44
▁ల	-45
▁ర	-46
త్	-47
టు	-48
▁య	-49
క్క	-50
▁ద	-51
▁ఇ	-52
ాయ	-53
▁న	-54
ంది	-55
న్న	-56
ండ	-57
ొక్క	-58
▁యొక్క	-59
ప్ప	-60
ారు	-61
ేద	-62
ానికి	-63
వా	-64
ైన	-65
బడ	-66
ంగా	-67
ంచ	-68
▁(	-69
ార్	-70
▁కో	-71
▁సం	-72
క్ష	-73
డు	-74
న్ని	-75
▁బ	-76
▁లేద	-77
సు	-78
▁జ	-79
ిక	-80
▁ఈ	-81
రు	-82
▁ఎ	-83
ంలో	-84
్వ	-85
ష్	-86
ద్	-87
ంధ	-88
ింది	-89
స్తు	-90
▁లేదా	-91
▁సమ	-92
ట్ట	-93
▁పరి	-94
▁భ	-95
▁గ	-96
బంధ	-97
▁చేయ	-98
దు	-99
▁హ	-100
మైన	-101
ంత	-102
ాన	-103
పు	-104
▁వ్య	-105
ాలు	-106
▁ఒ	-107
రించ	-108
డానికి	-109
వి	-110
చ్	-111
▁నిర్	-112
ట్ర	-113
ర్టు	-114
▁వా	-115
ందు	-116
ాన్ని	-117
డి	-118
▁రా	-119
ారం	-120
▁స్	-121
సి	-122
▁ఏ	-123
ేశ	-124
ించిన	-125
▁చట్ట	-126
ల్ల	-127
కో	-128
లను	-129
డం	-130
ండి	-131
▁శ	-132
వం	-133
స్త	-134
మి	-135
లి	-136
షన్	-137
న్య	-138
చ్చ	-139
డ్	-140
ంట	-141
సిన	-142
గ్	-143
▁ఒక	-144
సం	-145
▁ఉన్న	-146
ాం	-147
ామ	-148
▁తీ	-149
▁ము	-150
త్త	-151
వు	-152
ించబడ	-153
▁ను	-154
▁న్య	-155
ాయి	-156
స్థ	-157
▁అప్ప	-158
▁లో	-159
పై	-160
ేర్	-161
▁న్యాయ	-162
ాధ	-163
▁చె	-164
ెం	-165
▁కే	-166
ారా	-167
టీ	-168
రణ	-169
దారు	-170
తో	-171
▁అధ	-172
▁ప్రక	-173
▁అప్పీ	-174
దేశ	-175
▁కోసం	-176
ిత	-177
▁ప్రతి	-178
▁నుండి	-179
▁పి	-180
యో	-181
ాలను	-182
నే	-183
▁సంబంధ	-184
సర	-185
▁కోర్టు	-186
లకు	-187
్వారా	-188
ారణ	-189
ర్య	-190
&#	-191
ూడ	-192
▁చట్టం	-193
గి	-194
▁అను	-195
్యు	-196
ప్పు	-197
వే	-198
▁-	-199
▁ఇది	-200
▁అధిక	-201
బ్	-202
▁కొ	-203
▁ద్వారా	-204
బంధన	-205
ద్ధ	-206
ాత	-207
ూర్	-208
▁కా	-209
ప్ర	-210
ాలి	-211
▁అత	-212
▁నిబంధన	-213
గు	-214
▁చేసిన	-215
▁విధ	-216
ాల్	-217
ష్ట్ర	-218
స్తుంది	-219
▁అభ	-220
నం	-221
▁ఫ	-222
యం	-223
కొ	-224
ింద	-225
▁అవ	-226
▁సూ	-227
▁రాష్ట్ర	-228
▁ప్రా	-229
టువం	-230
టువంటి	-231
▁క్	-232
ము	-233
ీక	-234
ాగ	-235
▁ప్రభ	-236
ంటే	-237
ష్ట	-238
▁రి	-239
కున్న	-240
▁వ్యక్	-241
మా	-242
▁మొ	-243
మ్	-244
▁/	-245
వాది	-246
పి	-247
క్కు	-248
▁పేర్	-249
▁ఉప	-250
ర్థ	-251
టర్	-252
ేక	-253
▁ప్రకారం	-254
▁నా	-255
▁పేర్కొ	-256
కోర్టు	-257
్రమ	-258
▁గు	-259
లా	-260
▁డ	-261
▁కేసు	-262
ేర	-263
ైనా	-264
▁సె	-265
ింగ్	-266
▁.	-267
ారి	-268
ర్త	-269
వచ్చ	-270
ీని	-271
▁కూడ	-272
ేషన్	-273
▁హై	-274
ద్ద	-275
జి	-276
▁సి	-277
ప్పుడు	-278
ావ	-279
ట్లు	-280
వాత	-281
చు	-282
ఫ్	-283
▁అప్పీలు	-284
జ్య	-285
పో	-286
▁కూడా	-287
▁తీసు	-288
▁పె	-289
తుంది	-290
▁చేయబడ	-291
▁నిర్ణ	-292
▁రూ	-293
ించే	-294
▁హైకోర్టు	-295
లలో	-296
ుత్	-297
ర్ప	-298
▁రె	-299
▁మే	-300
▁అవసర	-301
ించడానికి	-302
▁ప్రభుత్	-303
▁ఏద	-304
▁ఉంది	-305
త్య	-306
▁అందు	-307
▁తన	-308
ధ్య	-309
▁అప్పీలుదారు	-310
▁భార	-311
వచ్చు	-312
▁కలి	-313
▁విష	-314
▁దా	-315
ించి	-316
▁కార్	-317
▁దాని	-318
▁స్థ	-319
▁తీర్	-320
ానం	-321
▁క్రి	-322
▁అభి	-323
వ్వ	-324
▁&#	-325
▁తరు	-326
▁డి	-327
ాడు	-328
▁సూచ	-329
ద్య	-330
ించారు	-331
టిక	-332
ంటు	-333
▁ఉండ	-334
▁కింద	-335
▁నియ	-336
▁లే	-337
మో	-338
రో	-339
▁పేర్కొన్న	-340
లే	-341
▁ముందు	-342
▁ఇవ్వ	-343
ింపు	-344
▁సా	-345
ీయ	-346
యోగ	-347
▁భారత	-348
ీల	-349
కోవ	-350
▁ఇత	-351
▁సహ	-352
వహ	-353
▁తరువాత	-354
లేద	-355
▁ఖ	-356
ించడం	-357
▁స్వ	-358
▁పొ	-359
▁ఉత్త	-360
ాంగ	-361
▁వ్యక్తి	-362
జ్	-363
▁కు	-364
రీ	-365
▁పరిశ	-366
క్షన్	-367
▁పిటి	-368
▁మార్	-369
▁అం	-370
..	-371
నర్	-372
▁ఆధ	-373
▁అటువంటి	-374
▁ధ	-375
లీ	-376
▁మధ్య	-377
▁పార్	-378
ాటు	-379
ండా	-380
▁ఏదైనా	-381
▁రాజ్య	-382
▁అనే	-383
▁ఇతర	-384
త్ర	-385
ారీ	-386
ెంట్	-387
▁వె	-388
శ్	-389
జు	-390
ీకరించ	-391
▁తీర్పు	-392
యా	-393
▁సంద	-394
కుండా	-395
▁ప్రతివాది	-396
ఖ్య	-397
▁తె	-398
▁పో	-399
యంలో	-400
ెన్	-401
▁పు	-402
▁సాధ	-403
వర్	-404
▁సంస్థ	-405
గిన	-406
▁మా	-407
రా	-408
▁చేస	-409
▁వారి	-410
ించింది	-411
మని	-412
▁అని	-413
ర్వు	-414
▁హక్కు	-415
▁చెప్ప	-416
▁చెల్ల	-417
▁అయ	-418
తుల	-419
▁రెండ	-420
▁నాటి	-421
▁రాజ్యాంగ	-422
ిక్ష	-423
ంటుంది	-424
వల్ల	-425
▁ఉత్తర్వు	-426
▁శా	-427
ప్పటిక	-428
▁నిర్ణయ	-429
▁కమి	-430
ందని	-431
ాలకు	-432
ూర్తి	-433
▁కారణ	-434
▁అమ	-435
▁కలిగి	-436
▁అందువల్ల	-437
▁అతను	-438
కం	-439
▁మేము	-440
▁ప్రత్య	-441
▁సాక్ష	-442
దే	-443
ెక్	-444
▁మొత్త	-445
ేట్	-446
ధి	-447
▁చేయడానికి	-448
తం	-449
▁స్ప	-450
్యూ	-451
్యా	-452
▁సమర్ప	-453
▁నింది	-454
వత్	-455
▁వే	-456
▁ఆర్	-457
ంప	-458
ాలని	-459
్యం	-460
యోజ	-461
▁సు	-462
ాము	-463
▁సంబంధించి	-464
▁వాస్త	-465
▁పద	-466
▁|	-467
▁ఇచ్చ	-468
▁నేర	-469
ండ్	-470
▁అనుమ	-471
చుకున్న	-472
▁ఆధార	-473
ాజ	-474
వత్సర	-475
టానికి	-476
▁ఉంటుంది	-477
▁సంవత్సర	-478
ర్భ	-479
్యత	-480
▁ప్రయోజ	-481
ంతో	-482
▁నేర్	-483
.0	-484
ళ్	-485
బి	-486
కా	-487
▁అతని	-488
▁చర్య	-489
▁బాధ	-490
లేదు	-491
▁ష	-492
మె	-493
ాక్	-494
▁నేర్చుకున్న	-495
రకు	-496
▁మాత	-497
▁తి	-498
గణ	-499
పడ	-500
▁పరిగణ	-501
స్తున్న	-502
▁జరి	-503
్రీ	-504
్రమే	-505
పర	-506
తులు	-507
ాలా	-508
▁దీని	-509
▁మాత్రమే	-510
▁అప్పీల్	-511
▁ట	-512
ుతుంది	-513
▁భూ	-514
నీ	-515
▁పరిశీల	-516
బడింది	-517
▁S	-518
▁ప్రకట	-519
నా	-520
▁నెం	-521
▁“	-522
▁సెక్షన్	-523
▁శిక్ష	-524
ర్యా	-525
ప్రాయ	-526
▁సే	-527
▁విచ	-528
▁లేదు	-529
ాలలో	-530
▁వై	-531
▁చేసు	-532
మ్మ	-533
▁సందర్భ	-534
ఖలు	-535
▁కార్య	-536
▁నో	-537
డంలో	-538
ెస్	-539
ఖా	-540
▁మొద	-541
▁అవసరం	-542
▁అధికార	-543
తిని	-544
దన	-545
ూల	-546
▁దాఖలు	-547
▁అస	-548
చే	-549
▁విధంగా	-550
▁నిర్వహ	-551
షనర్	-552
▁అభిప్రాయ	-553
▁వివ	-554
▁సవ	-555
▁అమలు	-556
ితే	-557
క్షణ	-558
▁పని	-559
వల	-560
▁పైన	-561
పా	-562
క్య	-563
▁వాస్తవ	-564
జీ	-565
▁మి	-566
▁రో	-567
ాప	-568
▁[	-569
▁ఆఫ్	-570
▁వివా	-571
▁సంబంధించిన	-572
▁మె	-573
బ్ల	-574
ప్పటికీ	-575
▁జారీ	-576
▁అర్	-577
ించబడింది	-578
న్ను	-579
నస	-580
▁ప్రభుత్వ	-581
▁కాదు	-582
త్తి	-583
▁అన్ని	-584
▁చి	-585
▁న్యాయవాది	-586
▁స్పష్ట	-587
రఖా	-588
రఖాస్తు	-589
▁మరణ	-590
బ్ల్యు	-591
▁దరఖాస్తు	-592
ంద్ర	-593
స్థి	-594
▁ఎటువంటి	-595
కరించ	-596
▁అంద	-597
▁నియమ	-598
మిట	-599
నల్	-600
ంజ	-601
డబ్ల్యు	-602
▁ప్రత్యేక	-603
▁ఉపయోగ	-604
▁ఒప్ప	-605
▁ఐ	-606
▁ప్రజ	-607
బర్	-608
▁ప్రభుత్వం	-609
▁స్ట	-610
▁న్యాయమ	-611
లోకి	-612
▁&	-613
ించబడిన	-614
▁నే	-615
▁పొంద	-616
▁పార్టీ	-617
పొ	-618
▁దృ	-619
క్యూ	-620
ంలోని	-621
▁ఒప్పంద	-622
▁పరిస్థి	-623
▁ప్రశ్	-624
▁తర	-625
క్కువ	-626
▁చేశ	-627
▁ట్ర	-628
▁న్యాయస్థ	-629
▁అంగ	-630
▁చాలా	-631
▁విభ	-632
▁వర్	-633
▁గుర్త	-634
▁చూ	-635
▁లోని	-636
▁వ్యవ	-637
దిక	-638
నుగ	-639
▁పిటిషన్	-640
▁సాధారణ	-641
షి	-642
ాను	-643
్డ	-644
ట్రి	-645
▁ఆమె	-646
సీ	-647
▁రెండు	-648
▁వచ్చ	-649
▁వారు	-650
▁బి	-651
▁అధికారం	-652
▁తేద	-653
ాల్సిన	-654
▁ఉద్	-655
▁సభ	-656
ర్శ	-657
▁అంత	-658
▁ఆదేశ	-659
యల్	-660
్రా	-661
ులు	-662
దా	-663
▁విషయ	-664
రించి	-665
▁పూర్తి	-666
డర్	-667
▁ఫి	-668
▁విచారణ	-669
ద్ధి	-670
మాణ	-671
▁A	-672
▁ప్రశ్న	-673
దని	-674
ాగం	-675
▁చేయడం	-676
▁క్రింది	-677
లోని	-678
▁ఉంచ	-679
▁SC	-680
▁అభ్య	-681
▁పరిధి	-682
▁తేదీ	-683
త్రి	-684
ారంభ	-685
▁నిందితు	-686
▁ప్రారంభ	-687
▁గా	-688
▁పే	-689
▁సేవ	-690
▁ఎస్	-691
▁మీ	-692
▁మొత్తం	-693
మెంట్	-694
హి	-695
▁భారతదేశ	-696
బడి	-697
ృద్ధి	-698
మోద	-699
▁కాల	-700
క్కడ	-701
ిల్ల	-702
▁సర	-703
▁మన	-704
▁పిటిషనర్	-705
▁శ్రీ	-706
▁అదే	-707
బడిన	-708
బద్ధ	-709
విధ	-710
▁ప్రయోజన	-711
ెన్స్	-712
ార్థ	-713
ంటి	-714
ాలో	-715
యి	-716
▁సంబంధిత	-717
యన్	-718
ట్టి	-719
▁ఇచ్చిన	-720
▁ఉద్దేశ	-721
▁ఆమోద	-722
ఎస్	-723
▁లా	-724
తే	-725
▁తీసుకు	-726
▁ప్రస్తు	-727
▁రిక	-728
▁వరకు	-729
చి	-730
▁ఉత్	-731
▁రు	-732
స్య	-733
▁జీ	-734
స్ట్ర	-735
▁శాస	-736
▁అర్హ	-737
రుద్ధ	-738
▁ప్రవ	-739
రం	-740
తున్న	-741
▁అంగీకరించ	-742
త్వ	-743
▁పన్ను	-744
ణా	-745
ట్టు	-746
డ్డ	-747
▁సామ	-748
సా	-749
▁ది	-750
కాల	-751
....	-752
▁దేశ	-753
▁బాధ్యత	-754
లతో	-755
▁కేంద్ర	-756
▁చేసే	-757
ెడ్	-758
తిర	-759
ర్చ	-760
▁తప్ప	-761
దాయ	-762
వీ	-763
వ్	-764
▁వ్యతిర	-765
▁గ్ర	-766
పూర్	-767
ీకరణ	-768
▁అనుమత	-769
▁కొన్ని	-770
తీ	-771
▁ప్రకటన	-772
లాం	-773
▁సమయంలో	-774
▁వ్యతిరేక	-775
▁పా	-776
స్టర్	-777
▁గురించి	-778
్డాయి	-779
▁సర్	-780
▁రోజు	-781
▁సమా	-782
ంత్ర	-783
▁బె	-784
నికి	-785
▁I	-786
▁ప్రధ	-787
ిందని	-788
రిగి	-789
▁ఆరో	-790
▁పరిమి	-791
),	-792
▁స్వా	-793
▁పున	-794
▁0	-795
▁తగిన	-796
ఆర్	-797
▁ఉందని	-798
▁ఆస్	-799
▁నె	-800
▁పై	-801
▁భూమి	-802
ష్టి	-803
▁సమర్థ	-804
▁తిరిగి	-805
పతి	-806
గ్ర	-807
ుల	-808
ంగ్	-809
వృద్ధి	-810
▁విద్య	-811
్యాం	-812
▁వస్తు	-813
తంగా	-814
▁వివాద	-815
▁ఏర్ప	-816
▁గమని	-817
ందున	-818
వాదు	-819
▁పిడబ్ల్యు	-820
మిక	-821
▁సభ్యు	-822
ot	-823
▁కేసులో	-824
▁అది	-825
▁ప్రస్తుత	-826
▁ప్రధాన	-827
▁ప్రాంత	-828
క్తి	-829
▁వస్తువు	-830
శం	-831
▁విషయంలో	-832
ోర్	-833
వేదిక	-834
▁సాక్ష్య	-835
▁చేయబడిన	-836
ద్దు	-837
▁నిబంధనలు	-838
▁నివేదిక	-839
▁ముఖ్య	-840
▁చేశారు	-841
qu	-842
కపో	-843
▁సమాచ	-844
▁చెప్పిన	-845
ణంగా	-846
ూరు	-847
▁చేసింది	-848
quot	-849
సిక్యూ	-850
తాయి	-851
▁ప్రాసిక్యూ	-852
▁వ్యతిరేకంగా	-853
▁వద్ద	-854
▁ఉత్ప	-855
క్స్	-856
▁అభివృద్ధి	-857
▁మొదటి	-858
▁వ్యవహ	-859
▁ఉన్నాయి	-860
▁న్యాయస్థానం	-861
▁చెల్లించ	-862
▁అయిన	-863
▁మో	-864
వరి	-865
ందిన	-866
▁రాష్ట్రపతి	-867
ర్యాదు	-868
▁గమనించ	-869
సె	-870
▁స్పష్టంగా	-871
▁రికార్	-872
▁నమో	-873
వంత	-874
▁నమోదు	-875
తిక	-876
ట్లుగా	-877
గుణంగా	-878
▁వివిధ	-879
యర్	-880
▁భా	-881
▁కార్యక	-882
▁ఫిర్యాదు	-883
▁కమిటీ	-884
రస్	-885
తిలో	-886
ట్ల	-887
▁మర	-888
ధీ	-889
మాన	-890
స్ట	-891
ట్రిబ	-892
▁ఆదాయ	-893
▁SCC	-894
mp	-895
▁సమస్య	-896
కంటే	-897
▁అర్హత	-898
▁పోలీ	-899
▁లి	-900
ంగ	-901
భా	-902
ించబడుతుంది	-903
▁స్వాధీ	-904
చ్ఛ	-905
▁చేత	-906
▁ఇండి	-907
న్స్	-908
▁పరిష్	-909
ణి	-910
▁ఉద్య	-911
▁పరిశీలన	-912
ట్రిబ్యు	-913
▁తొ	-914
▁విస్త	-915
బు	-916
లపై	-917
▁మిన	-918
▁కొనస	-919
స్తారు	-920
▁అధికారి	-921
▁సూత్ర	-922
▁అయితే	-923
▁ట్రిబ్యు	-924
రూ	-925
▁పాల్	-926
▁ధృ	-927
▁ఉండాలి	-928
ూని	-929
▁ప్రభా	-930
దర్శ	-931
▁ధృవ	-932
▁పాటు	-933
మతి	-934
రవ	-935
▁స్థి	-936
▁దృష్టి	-937
▁మంజ	-938
ర్థిక	-939
వేయ	-940
▁నిర్ణయం	-941
▁మినహ	-942
▁మంజూరు	-943
టిఫ	-944
ంబ	-945
▁క్రింద	-946
▁సందర్భంలో	-947
▁ట్రిబ్యునల్	-948
▁మధ్యవర్	-949
▁ప్	-950
▁కమిషన్	-951
లాంటి	-952
▁బ్యాం	-953
ారని	-954
కె	-955
టా	-956
▁సంత	-957
ప్తు	-958
రియ	-959
▁ఏమిట	-960
▁నిబంధనల	-961
రుగు	-962
▁స్వాధీనం	-963
య్య	-964
శ్వ	-965
▁వాటి	-966
▁రిట్	-967
▁తెలి	-968
ప్రా	-969
▁D	-970
▁ఆర్థిక	-971
▁జరిగ	-972
కూల	-973
▁సింగ్	-974
లువ	-975
నియోగ	-976
పొంద	-977
▁వర్త	-978
▁ఛ	-979
▁ఉద్యో	-980
▁కంప	-981
గల	-982
లె	-983
బాటు	-984
ళ్ళ	-985
కర	-986
టం	-987
▁భావ	-988
▁ఎక్కువ	-989
▁ఒప్పందం	-990
▁ఇక్కడ	-991
▁ఆర్డర్	-992
▁ప్రవేశ	-993
పరి	-994
▁న్యాయమూర్తి	-995
▁రాష్ట్రం	-996
amp	-997
▁యు	-998
▁ప్రతివాదు	-999
▁చేయబడింది	-1000
▁వ్యా	-1001
కే	-1002
▁నిర్దేశ	-1003
▁సరి	-1004
▁విధాన	-1005
▁పథ	-1006
ర్మ	-1007
▁ఏమిటంటే	-1008
▁ఎందు	-1009
ిస్తుంది	-1010
యన	-1011
▁కాన	-1012
లమ	-1013
జిస్ట్ర	-1014
లగ	-1015
▁అంటే	-1016
స్ట్	-1017
▁అమ్మ	-1018
▁రాజ్యాంగం	-1019
▁కాని	-1020
ద్ర	-1021
▁యూని	-1022
యత్	-1023
▁పర్య	-1024
టిఫిక	-1025
▁రద్దు	-1026
▁అన	-1027
▁మధ్యవర్తి	-1028
▁సీని	-1029
స్తే	-1030
ించు	-1031
▁నియామ	-1032
▁జా	-1033
ించాలి	-1034
▁ప్రయోజనం	-1035
జే	-1036
నుగొ	-1037
▁లక్ష	-1038
▁ఆధారంగా	-1039
▁C	-1040
▁కనుగొ	-1041
▁రూపొంద	-1042
▁ప్రయత్	-1043
త్మ	-1044
▁బా	-1045
▁నిర్ధ	-1046
▁పత్ర	-1047
▁సహాయ	-1048
స్సు	-1049
రీక్ష	-1050
ారించ	-1051
జర్	-1052
▁పరిగణన	-1053
గ్గ	-1054
వాన్ని	-1055
▁తొలగ	-1056
▁జో	-1057
లేము	-1058
▁మినహాయ	-1059
▁జన	-1060
▁అనుగుణంగా	-1061
ాతీయ	-1062
▁అధికారు	-1063
▁ఓ	-1064
జ్ఞ	-1065
పణ	-1066
▁భాగ	-1067
▁సంఘ	-1068
▁పరీక్ష	-1069
▁తయ	-1070
▁చట్టబద్ధ	-1071
ినల్	-1072
పరమైన	-1073
త్స	-1074
▁తీసుకున్న	-1075
పె	-1076
ాల్లో	-1077
▁ప్రజా	-1078
▁కానీ	-1079
కూడ	-1080
సే	-1081
▁వీ	-1082
▁దావా	-1083
సై	-1084
▁అభ్యర్థ	-1085
▁M	-1086
ర్యాప్తు	-1087
▁మిస్టర్	-1088
స్వా	-1089
ాయని	-1090
ల్స్	-1091
▁పరిగణనలోకి	-1092
▁మూ	-1093
▁ఆయన	-1094
▁కంపె	-1095
▁అనుస	-1096
▁దర్యాప్తు	-1097
నీయ	-1098
▁తెలు	-1099
▁ఏర్పాటు	-1100
▁చూప	-1101
మైనది	-1102
▁ప్రాసిక్యూషన్	-1103
▁తీసుకోవ	-1104
▁కి	-1105
థమిక	-1106
ల్లు	-1107
▁ఎందుకంటే	-1108
క్ర	-1109
▁లేకుండా	-1110
ద్దె	-1111
▁విలువ	-1112
▁కొనసాగ	-1113
సర్	-1114
ర్ట్	-1115
▁హాజ	-1116
▁లై	-1117
మే	-1118
పాల	-1119
సుప్రా	-1120
ల్లం	-1121
విల్	-1122
▁నేను	-1123
▁బది	-1124
ii	-1125
▁ప్రాథమిక	-1126
▁అనుమతి	-1127
వన	-1128
నసభ	-1129
ిల్లీ	-1130
▁వంటి	-1131
మార్	-1132
రిక	-1133
ల్లంఘ	-1134
ించవచ్చు	-1135
▁శాసనసభ	-1136
ెడ	-1137
▁నిర్వ	-1138
▁ఉల్లంఘ	-1139
ెక్టర్	-1140
▁దు	-1141
▁ఆస్తి	-1142
మీ	-1143
▁ఇం	-1144
ారిటీ	-1145
▁అవకా	-1146
ృత	-1147
క్రియ	-1148
▁కేట	-1149
టీసు	-1150
▁నిందితుడు	-1151
పిసి	-1152
▁బదిలీ	-1153
▁అదన	-1154
▁పూర్తిగా	-1155
▁చేసుకోవ	-1156
ంటర్	-1157
▁చేస్తుంది	-1158
ంచ్	-1159
▁నోటీసు	-1160
▁వాదన	-1161
▁పోలీసు	-1162
విత	-1163
▁బోర్	-1164
ఎల్	-1165
▁ఏక	-1166
▁అద్దె	-1167
▁మరణించిన	-1168
▁కౌ	-1169
వక	-1170
పోయ	-1171
స్తాయి	-1172
హం	-1173
తను	-1174
▁ప్రక్రియ	-1175
▁పరిస్థితు	-1176
ందుకు	-1177
▁,	-1178
ధన	-1179
మినల్	-1180
ంత్రి	-1181
ఫీ	-1182
▁న్యాయమూర్	-1183
▁పనిచే	-1184
▁గౌ	-1185
▁ఇండియా	-1186
▁ప్రొ	-1187
▁ఎం	-1188
▁ప్రతిపా	-1189
జన్	-1190
▁మంది	-1191
ాన్	-1192
లేదని	-1193
ర్చు	-1194
▁సీనియర్	-1195
▁వాద	-1196
▁మరింత	-1197
▁సంఖ్య	-1198
▁మార్గ	-1199
▁తిరస్	-1200
ణిజ్య	-1201
▁అధ్య	-1202
▁ఉంటే	-1203
▁అంచ	-1204
▁ట్రయల్	-1205
బడుతుంది	-1206
▁వ్యాప	-1207
▁అలాంటి	-1208
▁రుణ	-1209
▁విషయం	-1210
రించిన	-1211
▁సరైన	-1212
ించడంలో	-1213
▁వ్యవస్థ	-1214
గత	-1215
▁తప్పు	-1216
▁కాం	-1217
).	-1218
▁వాణిజ్య	-1219
▁క్రిమినల్	-1220
రల్	-1221
▁తమ	-1222
▁దశ	-1223
▁క్రమ	-1224
లుగా	-1225
ొక	-1226
▁పేర	-1227
▁సమాన	-1228
▁లిమిట	-1229
▁సవరణ	-1230
▁లె	-1231
దిష్ట	-1232
▁లిమిటెడ్	-1233
దల	-1234
▁స్టేట్	-1235
▁సివిల్	-1236
ప్తి	-1237
▁అవసరమైన	-1238
▁నిర్దిష్ట	-1239
▁సహా	-1240
▁పరిహ	-1241
హా	-1242
త్వం	-1243
ాడ	-1244
ీం	-1245
స్తూ	-1246
▁ఉత్పత్తి	-1247
ాలతో	-1248
▁ిల్లీ	-1249
ామ్	-1250
▁ఫలి	-1251
▁గో	-1252
ీర్	-1253
▁వినియోగ	-1254
▁పద్ధ	-1255
▁వాది	-1256
పూర్వక	-1257
▁సాం	-1258
▁రికార్డు	-1259
▁రూప	-1260
▁నిర్మాణ	-1261
▁నం	-1262
ాలపై	-1263
కునే	-1264
▁తక్కువ	-1265
▁తద	-1266
▁మాన	-1267
శ్ర	-1268
▁రెండవ	-1269
▁చేసుకున్న	-1270
▁లేదని	-1271
వ్ర	-1272
▁విధానం	-1273
▁ఎన్	-1274
▁జడ్	-1275
▁కేటాయ	-1276
▁ఉంట	-1277
కార	-1278
త్మక	-1279
▁ఇన్	-1280
▁కంపెనీ	-1281
నుప	-1282
వరకు	-1283
ాక్ట్	-1284
కర్	-1285
ప్రీం	-1286
▁స్థాప	-1287
▁మరొక	-1288
్యూల్	-1289
టిఫికేషన్	-1290
▁పెట్ట	-1291
▁డై	-1292
వార్	-1293
▁సమర్పణ	-1294
▁సూచించిన	-1295
▁అనేక	-1296
▁సంవత్సరాల	-1297
ల్ప	-1298
▁తిరస్కరించ	-1299
▁పేర్కొంది	-1300
బిత	-1301
▁బల	-1302
▁జడ్జి	-1303
ెడ్యూల్	-1304
▁సుప్రీం	-1305
▁తగ్గ	-1306
▁కారణంగా	-1307
▁కాకుండా	-1308
▁నిబంధనలను	-1309
▁పరిష్కరించ	-1310
▁హో	-1311
▁కొత్త	-1312
▁తెలియ	-1313
పొర	-1314
▁విశ్వ	-1315
▁జాబిత	-1316
▁విరుద్ధ	-1317
▁ప్రై	-1318
▁వల్ల	-1319
▁ప్రో	-1320
ోలు	-1321
▁ఖర్చు	-1322
మాస	-1323
▁సూచన	-1324
▁తీవ్ర	-1325
లిక్	-1326
▁లీ	-1327
▁కొంత	-1328
▁మై	-1329
న్సి	-1330
▁మరో	-1331
▁చర్చ	-1332
ాక్టర్	-1333
▁షెడ్యూల్	-1334
▁అంచనా	-1335
▁భారతదేశం	-1336
▁యజ	-1337
ేరే	-1338
కూలంగా	-1339
బ్బ	-1340
▁..	-1341
స్ప	-1342
▁ఉత్తర్వులను	-1343
త్తు	-1344
▁నోటిఫికేషన్	-1345
▁బెంచ్	-1346
▁నిజ	-1347
▁దృష్టిలో	-1348
▁అనేది	-1349
▁సమాచారం	-1350
చిత	-1351
జెక్	-1352
వడం	-1353
నుగోలు	-1354
తా	-1355
కమైన	-1356
▁వ్యవహరించ	-1357
టప్పుడు	-1358
పడ్డ	-1359
షే	-1360
▁తర్	-1361
కూడదు	-1362
▁తే	-1363
▁సమర్పించారు	-1364
వుతుంది	-1365
▁N	-1366
ులను	-1367
▁విభాగం	-1368
ించాల్సిన	-1369
▁జీవిత	-1370
ంచి	-1371
టన	-1372
▁స్వే	-1373
▁స్వేచ్ఛ	-1374
▁అవి	-1375
▁ధర్	-1376
▁సమాజ	-1377
▁సవాలు	-1378
▁కొనుగోలు	-1379
▁ఆధారపడ	-1380
భవ	-1381
▁తో	-1382
▁సుప్రీంకోర్టు	-1383
▁కార్పొర	-1384
మైనా	-1385
▁ధర్మాస	-1386
ించాలని	-1387
▁శాఖ	-1388
▁తర్వాత	-1389
నుపటి	-1390
▁అభిప్రాయం	-1391
▁వివరణ	-1392
▁నిర్ధారించ	-1393
వ్య	-1394
స్టు	-1395
ట్టుబడి	-1396
▁కారణం	-1397
▁సామర్థ	-1398
▁ఆస	-1399
▁ప్రదేశ	-1400
▁మునుపటి	-1401
పున	-1402
▁ధర్మాసనం	-1403
▁జె	-1404
▁అదనపు	-1405
సింది	-1406
సెక్షన్	-1407
▁సిఫ	-1408
ంతర	-1409
▁వర్గ	-1410
▁జిల్ల	-1411
▁కార్యకలా	-1412
▁అంశ	-1413
ాలయ	-1414
▁నెల	-1415
ఫి	-1416
బ్లిక్	-1417
▁కంటే	-1418
▁నేరం	-1419
▁ఆఫీ	-1420
▁మంత్రి	-1421
▁జై	-1422
వారి	-1423
▁క్ర	-1424
▁చట్టబద్ధమైన	-1425
▁కొట్టి	-1426
▁ధృవీకరించ	-1427
వలసిన	-1428
ేతు	-1429
▁రే	-1430
▁మద	-1431
▁మూడు	-1432
▁జరిగింది	-1433
▁డివి	-1434
ండింగ్	-1435
▁గణ	-1436
షణ	-1437
▁దో	-1438
▁ప్రైవే	-1439
▁ఎంప	-1440
▁లోప	-1441
లైన	-1442
దారుడు	-1443
▁డైర	-1444
కులు	-1445
▁వార	-1446
టో	-1447
చన	-1448
▁అంతర్	-1449
▁రక్షణ	-1450
▁మొత్తాన్ని	-1451
టివ్	-1452
ంత్రణ	-1453
ైల్	-1454
▁ఆల	-1455
▁బోర్డు	-1456
▁చెల్లింపు	-1457
hi	-1458
▁షర	-1459
▁తీసుకో	-1460
▁రూల్	-1461
మై	-1462
▁విజ్ఞ	-1463
▁స్థిర	-1464
ప్పటికే	-1465
el	-1466
▁కోడ్	-1467
ద్దతు	-1468
ెంటు	-1469
▁రంగ	-1470
పడు	-1471
▁అవార్	-1472
▁పెద్ద	-1473
▁మద్దతు	-1474
ళ్ల	-1475
కపోతే	-1476
▁కుమార్	-1477
▁చేర్చ	-1478
▁లోబడి	-1479
▁ఎంపిక	-1480
▁ఇప్పటికే	-1481
గొ	-1482
▁భద్ర	-1483
▁సమీ	-1484
▁తరపున	-1485
▁నియంత్రణ	-1486
▁చర్యలు	-1487
▁అర్థ	-1488
▁పదార్థ	-1489
ిన్న	-1490
▁వేయ	-1491
కల	-1492
▁మినహాయింపు	-1493
రూప	-1494
▁ప్రాజెక్	-1495
▁ఏదే	-1496
▁ఏదేమైనా	-1497
▁పాల	-1498
▁దీనిని	-1499
00	-1500
▁ముఖ్యమైన	-1501
▁అవార్డు	-1502
సరి	-1503
▁ఇంకా	-1504
ర్తన	-1505
▁ఆరోపణ	-1506
ుడు	-1507
▁ప్రతివాదులు	-1508
▁చూడ	-1509
దగిన	-1510
శిక్ష	-1511
▁పంప	-1512
ావేశ	-1513
▁సమావేశ	-1514
........	-1515
చ్చిత	-1516
▁పిల్ల	-1517
ామా	-1518
▁జాతీయ	-1519
▁సంఘటన	-1520
▁నివా	-1521
▁ప్రాధ	-1522
▁నీ	-1523
elhi	-1524
మాని	-1525
▁ఖచ్చిత	-1526
▁అనుకూలంగా	-1527
▁భవ	-1528
▁ఒకటి	-1529
▁నిర్వహణ	-1530
▁రాజ	-1531
▁నిందితుల	-1532
▁నిషే	-1533
▁హాజర	-1534
▁మధ్యవర్తిత్వ	-1535
లమెంటు	-1536
▁పౌ	-1537
▁పొందిన	-1538
▁సృ	-1539
▁చెందిన	-1540
▁తయారు	-1541
▁Delhi	-1542
▁నివ	-1543
లేట్	-1544
▁మొదలైన	-1545
▁అల	-1546
రే	-1547
▁సంతృ	-1548
▁ముంద	-1549
▁అధికారాన్ని	-1550
▁కాంట్ర	-1551
▁వాస్తవానికి	-1552
▁శక్తి	-1553
▁బహి	-1554
▁ప్రయోజనాల	-1555
▁పార్లమెంటు	-1556
▁బ్యాంక్	-1557
నిసరి	-1558
▁వచ్చిన	-1559
▁సమాచార	-1560
▁మార్చ	-1561
▁నష్ట	-1562
▁సమ్	-1563
▁తప్పనిసరి	-1564
లర్	-1565
▁గ్రామ	-1566
▁జనరల్	-1567
▁భాగం	-1568
బడ్డాయి	-1569
ందా	-1570
రించడానికి	-1571
▁పెంచ	-1572
▁న్యాయం	-1573
▁వ్యవధి	-1574
▁ఎన్ని	-1575
▁అంది	-1576
కాలు	-1577
స్టి	-1578
కరణ	-1579
▁వ్యక్త	-1580
గ్గు	-1581
▁కని	-1582
▁ఎఫ్	-1583
▁న్యాయస్థాన	-1584
రోధ	-1585
▁దీనికి	-1586
▁చట్టంలో	-1587
ేకపో	-1588
▁చట్టపరమైన	-1589
▁పాత	-1590
▁పథకం	-1591
▁కాదని	-1592
▁ఎగ్	-1593
▁పార్టీల	-1594
్యాన్ని	-1595
▁నిషేధ	-1596
▁సో	-1597
టుంబ	-1598
▁పాల్గొ	-1599
షనల్	-1600
ుకు	-1601
▁ఆఫీసర్	-1602
▁నిబంధనలకు	-1603
సూ	-1604
ాతం	-1605
▁సిం	-1606
ాన్య	-1607
యస్సు	-1608
▁కుటుంబ	-1609
▁పరిహారం	-1610
శాల	-1611
ల్లో	-1612
▁సంబంధం	-1613
▁కోర్ట్	-1614
ద్యు	-1615
▁మంచి	-1616
తులను	-1617
▁P	-1618
▁సము	-1619
▁దారి	-1620
▁డివిజన్	-1621
▁ప్రమాణ	-1622
▁లేఖ	-1623
▁ప్రయత్ని	-1624
దారుల	-1625
▁సూట్	-1626
▁అడ్	-1627
▁వివాదం	-1628
▁స్థాయి	-1629
పార్	-1630
▁గాయ	-1631
షియల్	-1632
▁ఇవ్వడానికి	-1633
▁నేరానికి	-1634
▁విశ్	-1635
▁పం	-1636
క్యం	-1637
ాధి	-1638
▁డె	-1639
ావరణ	-1640
▁సిద్ధ	-1641
సింగ్	-1642
▁తు	-1643
▁జిల్లా	-1644
వితం	-1645
▁ప్రస్త	-1646
లిక	-1647
▁కల	-1648
▁యూనియన్	-1649
లై	-1650
▁ఉన్నప్పటికీ	-1651
ించదు	-1652
▁జరిగిన	-1653
జేయ	-1654
▁ఎక్స్	-1655
గ్యు	-1656
ించాడు	-1657
▁వాదించారు	-1658
▁మూల	-1659
జన	-1660
▁న్యాయమూర్తుల	-1661
విద్య	-1662
▁అందుబాటు	-1663
▁మేజిస్ట్ర	-1664
య్యే	-1665
వలసి	-1666
క్రమ	-1667
పంచ	-1668
▁సహేతు	-1669
ెంబర్	-1670
▁లీజు	-1671
▁అథ	-1672
ళిక	-1673
▁ఖాత	-1674
▁మేజిస్ట్రేట్	-1675
లం	-1676
కేతిక	-1677
ించటానికి	-1678
▁ప్రైవేట్	-1679
▁పక్క	-1680
▁విఫ	-1681
▁సొ	-1682
▁తద్వారా	-1683
▁తలె	-1684
పడింది	-1685
▁ఉద్యోగు	-1686
▁సై	-1687
▁ఐపిసి	-1688
▁హక్కును	-1689
రంగా	-1690
▁కమిషనర్	-1691
▁భూమిని	-1692
హన	-1693
▁అప్పీలేట్	-1694
▁కె	-1695
క్షి	-1696
▁నిరూప	-1697
సాడ్	-1698
▁చట్టాన్ని	-1699
పర్	-1700
ళన	-1701
▁వ్యక్తిగత	-1702
▁పరిపాల	-1703
▁అందుబాటులో	-1704
ించలేదు	-1705
▁సాంకేతిక	-1706
▁అథారిటీ	-1707
వంతమైన	-1708
▁సాక్ష్యాలను	-1709
▁డైరెక్టర్	-1710
▁పేర్కొన	-1711
ాయం	-1712
▁విద్యా	-1713
▁V	-1714
▁ఇద్ద	-1715
నైనా	-1716
▁స్వభా	-1717
ప్పుడ	-1718
▁అండ్	-1719
▁వడ్డ	-1720
▁దిగు	-1721
▁పరిధిని	-1722
▁సబ్	-1723
▁న్యూ	-1724
తారు	-1725
▁కేసును	-1726
▁పబ్లిక్	-1727
▁విశ్వవిద్య	-1728
బా	-1729
▁డాక్టర్	-1730
▁కార్యకలాప	-1731
▁ప్రపంచ	-1732
హ్	-1733
యితే	-1734
డీ	-1735
మానా	-1736
▁అర్థం	-1737
▁అవకాశం	-1738
హీ	-1739
▁వైద్య	-1740
▁కోర్టుకు	-1741
▁కోరు	-1742
▁లేని	-1743
▁చద	-1744
▁తెలుసు	-1745
ున	-1746
▁పక్కన	-1747
స్తుందని	-1748
యిల్	-1749
▁వ్యక్తుల	-1750
▁రెగ్యు	-1751
సెస్	-1752
పెట్ట	-1753
▁ఉపశ	-1754
▁సమయం	-1755
ాడని	-1756
వై	-1757
▁ఒకే	-1758
▁యజమాని	-1759
▁ఉపశమ	-1760
ట్లయితే	-1761
▁యాక్ట్	-1762
స్త్ర	-1763
టింగ్	-1764
▁గౌరవ	-1765
▁అప్పీలుదారుడు	-1766
▁E	-1767
మాద	-1768
కుల	-1769
▁చేయాలి	-1770
▁ప్రేరే	-1771
▁చివరి	-1772
▁అప్పీల్ట్	-1773
▁ఛార్	-1774
▁టె	-1775
▁పూర్	-1776
▁నాన్	-1777
▁సౌ	-1778
▁ధర	-1779
పుణ	-1780
▁సాక్షి	-1781
▁లభ	-1782
▁సేక	-1783
మాండ్	-1784
ందో	-1785
తిప	-1786
१०	-1787
▁పారి	-1788
▁ముఖ	-1789
▁కార్యక్రమ	-1790
▁అర్ధ	-1791
కాలిక	-1792
▁రిజిస్ట్ర	-1793
▁పార	-1794
▁కార్పొరేషన్	-1795
స్వామ	-1796
▁ఇప్పుడు	-1797
నాలు	-1798
పడిన	-1799
▁ప్రస్తావ	-1800
ించబడ్డాయి	-1801
▁బీ	-1802
టరీ	-1803
▁విదేశ	-1804
▁వాస్తవాలు	-1805
▁దానిని	-1806
▁నిర్వచ	-1807
▁ప్రమాద	-1808
ణీ	-1809
▁కౌన్సి	-1810
▁పరిస్థితులలో	-1811
▁తా	-1812
▁కనుగొన	-1813
▁మార్పు	-1814
▁నిందితులు	-1815
▁విధి	-1816
▁విరుద్ధంగా	-1817
గాన్ని	-1818
▁II	-1819
▁ఆసక్తి	-1820
▁లైస	-1821
▁కోరి	-1822
ాజిక	-1823
▁లేన	-1824
న్నారు	-1825
▁భారతదేశంలో	-1826
▁నంబర్	-1827
▁ఆర్టిక	-1828
▁అతనికి	-1829
రక్ష	-1830
కాన్ని	-1831
▁ఉంటాయి	-1832
జయ	-1833
▁దరఖాస్తును	-1834
్యంతో	-1835
కెట్	-1836
▁పేరు	-1837
▁జోక్యం	-1838
పడి	-1839
▁సూచిస్తుంది	-1840
ప్రద	-1841
▁మదింపు	-1842
▁రాజ్యాంగంలోని	-1843
▁చేయవచ్చు	-1844
▁వ్యాపార	-1845
▁సామాజిక	-1846
▁లెక్క	-1847
▁విషయాన్ని	-1848
▁డిక	-1849
దారులు	-1850
▁సమీక్ష	-1851
ోగ	-1852
వె	-1853
డింగ్	-1854
▁సంతృప్తి	-1855
వాహ	-1856
▁మానవ	-1857
▁ఇంటర్	-1858
▁హె	-1859
ట్రీ	-1860
▁ప్రజల	-1861
నీయమైన	-1862
▁గవర్	-1863
▁విభాగ	-1864
నిర్	-1865
▁తరఫ	-1866
▁నిరోధ	-1867
▁అప్పీలుదారులు	-1868
▁ఖా	-1869
ఎం	-1870
వసర	-1871
▁ఇవ్వడం	-1872
వస్థ	-1873
▁సాధారణంగా	-1874
▁గంట	-1875
▁లాభ	-1876
తుందని	-1877
▁కోల్	-1878
▁జైలు	-1879
పిస్తుంది	-1880
▁గొ	-1881
ారసు	-1882
▁బొ	-1883
▁ఎదు	-1884
ఎన్	-1885
▁దృష్ట	-1886
▁వారికి	-1887
ఫరా	-1888
స్మ	-1889
షిక	-1890
▁సిఫారసు	-1891
పాద	-1892
▁ముగి	-1893
▁ఇలా	-1894
▁పరిమితం	-1895
▁నిర్దేశించిన	-1896
ాలయం	-1897
▁లేకపో	-1898
▁ప్రేరేప	-1899
▁పాత్ర	-1900
హు	-1901
▁అందిస్తుంది	-1902
▁నిరా	-1903
▁కౌన్సిల్	-1904
దుపరి	-1905
▁నమ్మ	-1906
▁అయినప్పటికీ	-1907
▁నై	-1908
▁ఇటువంటి	-1909
డాన్ని	-1910
▁సరఫరా	-1911
▁జాబితా	-1912
▁పెండింగ్	-1913
▁వివరించ	-1914
▁తదుపరి	-1915
▁కాప	-1916
▁సమాధ	-1917
▁దానిపై	-1918
భావ	-1919
IR	-1920
సాయ	-1921
▁కాబ	-1922
▁చిన్న	-1923
▁శ్ర	-1924
▁భర్త	-1925
ఎఫ్	-1926
▁చెల్లించాల్సిన	-1927
▁కనీ	-1928
▁కారణాల	-1929
▁ప్రభుత్వానికి	-1930
డా	-1931
▁సృష్ట	-1932
▁భారతీయ	-1933
ెన్సీ	-1934
▁తరఫున	-1935
రిస్తుంది	-1936
▁అలా	-1937
కంగా	-1938
▁వర్తి	-1939
▁అంశం	-1940
▁క్లా	-1941
▁జరిమానా	-1942
వ్యవస్థ	-1943
▁సందే	-1944
▁హాజరైన	-1945
▁సెం	-1946
▁సహాయం	-1947
▁ప్రాధాన్య	-1948
డిక	-1949
మయ్యే	-1950
కారం	-1951
▁పంపి	-1952
పిడబ్ల్యు	-1953
▁అధికారులు	-1954
ణాళిక	-1955
▁మంత్రిత్వ	-1956
▁చేయడంలో	-1957
ండర్	-1958
▁ప్రి	-1959
మారు	-1960
▁మూడ	-1961
నింగ్	-1962
▁వెలు	-1963
యిన	-1964
▁ప్రణాళిక	-1965
▁పునరు	-1966
డిన	-1967
▁ఇంటి	-1968
▁వ్యక్తులు	-1969
▁అసలు	-1970
ుకోవ	-1971
▁పరిమితి	-1972
▁పరిశ్రమ	-1973
▁అయ్య	-1974
▁డే	-1975
▁అమ్మక	-1976
▁తీర్పును	-1977
▁కలిగ	-1978
▁నిందితుడి	-1979
▁కల్ప	-1980
ాంత	-1981
ామిన	-1982
▁ప్రొసీ	-1983
ంతవరకు	-1984
▁దారితీ	-1985
▁పిలు	-1986
▁ప్రాధాన్యత	-1987
నిక	-1988
▁స్వీకరించ	-1989
తులకు	-1990
▁ఆస్తు	-1991
▁వయస్సు	-1992
▁గవర్నర్	-1993
▁బిల్లు	-1994
స్టిస్	-1995
▁నియం	-1996
▁మహి	-1997
▁స్వభావం	-1998
▁అభిప్రాయపడింది	-1999
▁ఆరోగ	-2000
▁ఒప్పు	-2001
వారు	-2002
ప్తంగా	-2003
▁వివర	-2004
వాదే	-2005
▁ఏజ	-2006
డవి	-2007
▁దశలో	-2008
స్తున్నాము	-2009
▁అసెస్	-2010
▁వృ	-2011
▁పార్ట్	-2012
▁భాష	-2013
▁వ్యక్తీకరణ	-2014
▁ఆలో	-2015
ానించ	-2016
▁ప్రభావితం	-2017
▁పంపిణీ	-2018
▁అప్పీలుదారుల	-2019
▁గుర్తింపు	-2020
▁పంచ	-2021
▁ముందుకు	-2022
▁వాటిని	-2023
హరణ	-2024
▁రుజు	-2025
▁సెల	-2026
▁అత్య	-2027
ప్యత	-2028
▁సెషన్	-2029
▁లావాదే	-2030
▁పార్టీలు	-2031
▁జస్టిస్	-2032
▁సంప్రద	-2033
ానిక	-2034
ల్లి	-2035
▁అనుబంధ	-2036
▁ఉన్నారు	-2037
▁విఫలమ	-2038
▁రికార్డ్	-2039
▁అర	-2040
▁ఉనికి	-2041
▁ఆహ	-2042
▁బ్	-2043
ామిక	-2044
ad	-2045
పరచ	-2046
స్యం	-2047
▁భిన్న	-2048
రులు	-2049
▁భావి	-2050
క్షే	-2051
▁సహేతుకమైన	-2052
ోట	-2053
▁మహిళ	-2054
▁వ్యాఖ్య	-2055
▁పొందటానికి	-2056
▁రుజువు	-2057
▁కాబట్టి	-2058
▁సంవత్సరంలో	-2059
▁కళ	-2060
బ్బు	-2061
▁ఉపసం	-2062
▁చేయాలని	-2063
గతి	-2064
లేని	-2065
▁నియమం	-2066
▁కాలం	-2067
▁విడు	-2068
▁పేరా	-2069
▁లక్షణ	-2070
కిత్స	-2071
ప్రి	-2072
ించబడతాయి	-2073
షిగా	-2074
▁గుర్	-2075
ించబడదు	-2076
▁నియామకం	-2077
▁కోర్టులో	-2078
ట్రల్	-2079
▁వార్	-2080
▁వన	-2081
▁పారా	-2082
క్తిని	-2083
▁నియామక	-2084
▁ప్రత్యక్ష	-2085
హరించ	-2086
▁దే	-2087
▁బాధి	-2088
విరుద్ధ	-2089
▁భవన్	-2090
గిల్	-2091
▁లేవన	-2092
▁లేవనె	-2093
టల్	-2094
నాల	-2095
▁ఖాళ	-2096
లేషన్	-2097
▁ప్రోత్స	-2098
▁జి	-2099
▁టై	-2100
▁ఆమోదించిన	-2101
జె	-2102
తిపదిక	-2103
దో	-2104
▁ప్రతిపాదన	-2105
▁ప్రాతిపదిక	-2106
▁దృష్ట్యా	-2107
సూలు	-2108
ోధన	-2109
▁చేసి	-2110
▁ఉన్నాయని	-2111
▁విడుదల	-2112
▁సల	-2113
▁వెళ్ళ	-2114
▁సమర్పించిన	-2115
▁ధృవీకరణ	-2116
కరమైన	-2117
▁తలెత్త	-2118
▁విక్ర	-2119
పట్ట	-2120
శ్రామిక	-2121
▁వహ	-2122
క్సాడ్	-2123
ాముఖ్య	-2124
▁రవా	-2125
▁నీటి	-2126
▁మహ	-2127
ాత్మక	-2128
▁జ్యు	-2129
▁వసూలు	-2130
తీరు	-2131
▁సంవత్సరానికి	-2132
▁వేత	-2133
▁అఫి	-2134
▁డబ్బు	-2135
▁ఇద్దరు	-2136
గర్	-2137
▁విన	-2138
--	-2139
▁పనితీరు	-2140
▁పోస్టు	-2141
▁s	-2142
▁రిజర్	-2143
▁చట్టవిరుద్ధ	-2144
్రాస్	-2145
▁ప్రభావం	-2146
ామ్న	-2147
▁ఉండదు	-2148
▁ఆలస్యం	-2149
▁అధికారిక	-2150
▁నిర్మ	-2151
▁పునరుద్ధ	-2152
▁పారిశ్రామిక	-2153
ఐఆర్	-2154
▁విదేశీ	-2155
ాయ్	-2156
▁వ్యక్తికి	-2157
▁సరిపో	-2158
ంటున్న	-2159
▁కట్టుబడి	-2160
ించుకోవ	-2161
▁తీవ్రమైన	-2162
▁అన్	-2163
▁తుది	-2164
▁ఉంచుకు	-2165
▁వచ్చింది	-2166
▁వైపు	-2167
▁సింగిల్	-2168
▁సీ	-2169
▁రహ	-2170
▁టి	-2171
రావ	-2172
▁డిమాండ్	-2173
▁R	-2174
▁సూత్రం	-2175
▁జ్	-2176
▁సంవత్సరాలు	-2177
▁సంవత్సరం	-2178
▁జ్ఞ	-2179
▁ప్రత్యామ్న	-2180
▁ప్రత్యేకంగా	-2181
నో	-2182
▁సంస్	-2183
వలం	-2184
▁వడ్డీ	-2185
▁ఎగ్జి	-2186
▁అఫిడవి	-2187
▁వచ్చే	-2188
▁ఉంచుకుని	-2189
▁మాకు	-2190
▁నిష్	-2191
▁సర్వీ	-2192
జాతీయ	-2193
▁అమ్మకం	-2194
▁అందించిన	-2195
▁అయినా	-2196
▁చికిత్స	-2197
▁విజయ	-2198
▁పునర్	-2199
నను	-2200
▁ప్రయత్నించ	-2201
▁చెల్లు	-2202
బ్ర	-2203
११	-2204
▁O	-2205
▁యా	-2206
▁కేవలం	-2207
▁ఉన్నందున	-2208
▁లేవనెత్త	-2209
▁సంతకం	-2210
▁మార్కెట్	-2211
▁ఆస్తిని	-2212
▁మౌ	-2213
ించబడు	-2214
▁సేవలను	-2215
▁నిర	-2216
▁ప్రచు	-2217
ూర	-2218
▁ముందస్తు	-2219
ట్రో	-2220
▁ఇవ్వబడింది	-2221
▁ఆపర	-2222
▁చేయబడ్డాయి	-2223
తకు	-2224
యుధ	-2225
హ్య	-2226
▁కోర	-2227
▁హామ	-2228
పత్తి	-2229
▁ఎంట్రీ	-2230
▁సంబంధించినది	-2231
▁సంస్థలు	-2232
▁ప్రవర్తన	-2233
▁ఉన్నత	-2234
రిత	-2235
▁బెయిల్	-2236
స్స	-2237
▁కోర్	-2238
▁ప్లా	-2239
▁సవరించ	-2240
▁సాక్ష్యం	-2241
గం	-2242
▁కాలానికి	-2243
రగ	-2244
▁ప్రార్థ	-2245
▁రాష్ట్రానికి	-2246
▁విధానాన్ని	-2247
iii	-2248
▁ఫో	-2249
▁వెబ్	-2250
ార్య	-2251
పథ	-2252
కోలు	-2253
on	-2254
▁మూడవ	-2255
▁రవాణా	-2256
ించదగిన	-2257
▁ఉండవచ్చు	-2258
తూ	-2259
▁బహు	-2260
ించండి	-2261
▁ఎదుర్	-2262
▁ఆధారపడి	-2263
పడ్డారు	-2264
▁x	-2265
తినిధ్య	-2266
▁బయ	-2267
సిసి	-2268
ప్రిల్	-2269
▁సమగ్ర	-2270
▁అట	-2271
వచ్చని	-2272
ింప	-2273
▁ప్రాతినిధ్య	-2274
▁అరెస్	-2275
త్కాలిక	-2276
▁ఉద్యోగి	-2277
▁పర్యావరణ	-2278
▁ప్రదర్శ	-2279
షీ	-2280
▁సహజ	-2281
శా	-2282
డే	-2283
▁ఒప్పుకోలు	-2284
▁పక్ష	-2285
మెంట	-2286
▁ఖచ్చితంగా	-2287
▁వ్ర	-2288
ట్లా	-2289
▁చట్టంలోని	-2290
భాగం	-2291
▁కలిసి	-2292
ించినట్లు	-2293
బుల్	-2294
▁చది	-2295
ప్పుడూ	-2296
▁వస్తువుల	-2297
టక	-2298
▁వ్యవసాయ	-2299
▁న్యాయవ్యవస్థ	-2300
▁విద్యు	-2301
▁మరణశిక్ష	-2302
▁తయారీ	-2303
▁శిక్షను	-2304
▁ఖాళీ	-2305
▁ఉపశమనం	-2306
▁అంతర్జాతీయ	-2307
ాగే	-2308
▁చెల్లుబాటు	-2309
▁వివాహం	-2310
▁సంస్థల	-2311
▁మార్గదర్శ	-2312
▁చేస్తున్న	-2313
▁విస్తృత	-2314
▁అప్పగ	-2315
డిగ	-2316
▁పట్ట	-2317
▁అవకాశ	-2318
కపై	-2319
వరీ	-2320
▁AIR	-2321
ష్య	-2322
క్షిక	-2323
▁ప్రాతిపదికన	-2324
▁వెంట	-2325
▁నియంత్	-2326
క్త	-2327
సారి	-2328
▁నిర్దో	-2329
▁ఆరోప	-2330
రుల	-2331
▁రేటు	-2332
ింట్	-2333
▁హింద	-2334
▁ఫలిత	-2335
▁తాత్కాలిక	-2336
▁తక్షణ	-2337
▁కస్ట	-2338
▁ఇచ్చింది	-2339
▁విద్యార్థ	-2340
▁పద్ధతిలో	-2341
▁వ్యవధిలో	-2342
▁పోటీ	-2343
రెన్స్	-2344
ాబ్	-2345
ించినప్పుడు	-2346
▁కన్	-2347
▁సెలవు	-2348
డిట్	-2349
▁ఇస్తుంది	-2350
చర్	-2351
సైట్	-2352
▁కొట్టివేయ	-2353
▁ఇంజ	-2354
▁ఇన్స్	-2355
▁ఏప్రిల్	-2356
▁ప్రాముఖ్య	-2357
▁ప్రభావ	-2358
స్తాము	-2359
ినప్పుడు	-2360
▁అఫిడవిట్	-2361
▁మేర	-2362
▁ఉద్దేశ్యం	-2363
▁పాఠ	-2364
▁అమ్మకపు	-2365
వడానికి	-2366
▁మార్చి	-2367
▁మాట్లా	-2368
నుక	-2369
పాయ	-2370
▁శు	-2371
వంతంగా	-2372
▁శాతం	-2373
▁హామీ	-2374
రక్షణ	-2375
పే	-2376
▁రీ	-2377
▁పోలీస్	-2378
▁పాట	-2379
రింగ్	-2380
వర	-2381
▁ఉద్దేశ్యంతో	-2382
క్కి	-2383
▁ఉండటానికి	-2384
▁చోట	-2385
▁దుర్	-2386
▁ప్రాజెక్టు	-2387
▁కోర్సు	-2388
▁i	-2389
▁ప్రోత్సహ	-2390
▁అద్దెదారు	-2391
▁ఉదా	-2392
త్యా	-2393
ామాణ	-2394
▁పేర్కొన్నారు	-2395
▁మత	-2396
కర్య	-2397
▁అభిప్రాయాన్ని	-2398
▁స్థానిక	-2399
▁మొదట	-2400
▁రై	-2401
▁మీద	-2402
▁వాటా	-2403
▁సందర్భాల్లో	-2404
▁రికార్డులో	-2405
దేశ్	-2406
▁కొట్టివే	-2407
బడలేదు	-2408
▁చేసుకో	-2409
ణం	-2410
▁పెన్	-2411
▁కనిప	-2412
▁తల్లి	-2413
▁ఉద	-2414
▁లైసెన్స్	-2415
పూర్వకంగా	-2416
▁వాస్తవం	-2417
మ్స్	-2418
▁ముఖ్యంగా	-2419
▁పెరుగు	-2420
▁గణనీయమైన	-2421
బిఐ	-2422
▁వెంటనే	-2423
▁పర్యవే	-2424
ానా	-2425
ెట్	-2426
▁విర	-2427
▁ప్రామాణ	-2428
▁చర్యలను	-2429
▁తెలుస్తుంది	-2430
▁వ్యత్యా	-2431
▁అభ్యర్	-2432
ఠిన	-2433
కృ	-2434
▁సదు	-2435
మణ	-2436
▁సెంట్రల్	-2437
గానికి	-2438
▁తప్పుగా	-2439
▁ఫలితంగా	-2440
▁హక్కులు	-2441
డిగా	-2442
▁ఆదేశాలు	-2443
▁నొ	-2444
కీయ	-2445
▁కార్మి	-2446
టెడ్	-2447
▁నివేదికను	-2448
పడుతున్న	-2449
▁తీర్పులో	-2450
ంతరం	-2451
పూ	-2452
▁u	-2453
▁మేరకు	-2454
వాద	-2455
▁Cr	-2456
▁ముఖర్	-2457
▁కఠిన	-2458
▁పోస్ట్	-2459
▁కనుగొన్న	-2460
▁విజ్ఞప్	-2461
ీఫ్	-2462
▁B	-2463
లేమని	-2464
ాగ్ర	-2465
▁v	-2466
ులుగా	-2467
ధిక	-2468
ాలంటే	-2469
▁కర్	-2470
▁నిర్బంధ	-2471
▁హక్కుల	-2472
▁సహకార	-2473
జిట్	-2474
ినీ	-2475
▁ప్రవేశపెట్ట	-2476
డో	-2477
వస	-2478
▁డ్ర	-2479
▁రామ్	-2480
▁అధ్యక్ష	-2481
▁అలాగే	-2482
▁డిక్రీ	-2483
▁ఉపసంహరించ	-2484
▁అరెస్టు	-2485
▁సమర్పించబడింది	-2486
▁రక్ష	-2487
▁శ్రీమతి	-2488
▁ఇవ్వబడిన	-2489
▁స్థాన	-2490
▁వర్తింప	-2491
బ్బంది	-2492
ందోళన	-2493
▁ఇంజనీ	-2494
బడతాయి	-2495
ట్స్	-2496
▁అనుసరించ	-2497
▁భౌ	-2498
రిటీ	-2499
▁మైనింగ్	-2500
▁మేనే	-2501
▁చేసినట్లు	-2502
▁శాసనం	-2503
▁చేరు	-2504
II	-2505
▁ఉందా	-2506
▁ఆకర్	-2507
▁పెట్టుబడి	-2508
▁రాష్ట్రంలో	-2509
▁స్థానం	-2510
▁టెక్	-2511
▁రెగ్యులేషన్	-2512
▁X	-2513
▁రాజకీయ	-2514
కింగ్	-2515
▁సందర్భంగా	-2516
▁ఆందోళన	-2517
▁చార్	-2518
▁కమ	-2519
▁నిరాకరించ	-2520
ెసి	-2521
తంత్ర	-2522
▁శాస్త్ర	-2523
▁సమాధానం	-2524
ప్పటి	-2525
▁నెలల	-2526
ప్ట	-2527
ెల్	-2528
▁ఆరోపణలు	-2529
▁సేవా	-2530
▁ఉల్లంఘన	-2531
▁బాగా	-2532
▁మించి	-2533
ించబడలేదు	-2534
▁వ్యక్తిని	-2535
ానంగా	-2536
నిజ	-2537
▁లావాదేవీ	-2538
▁నాలు	-2539
▁సామర్థ్యం	-2540
▁తెలియజేయ	-2541
దారుడి	-2542
▁స్టా	-2543
▁సభ్యులు	-2544
చరణ	-2545
ువు	-2546
▁మనం	-2547
▁భద్రత	-2548
యేషన్	-2549
▁వీటి	-2550
ంటుందని	-2551
▁U	-2552
▁వ్రాత	-2553
▁సమయ	-2554
▁క్లాజ్	-2555
▁విచారించ	-2556
వని	-2557
▁నిలి	-2558
▁అక్కడ	-2559
▁అంగీక	-2560
▁సూచి	-2561
▁ప్రాంగ	-2562
▁స్వచ్ఛ	-2563
▁అందించే	-2564
▁స్టేషన్	-2565
▁సమ్మతి	-2566
లేరు	-2567
▁శిక్షణ	-2568
విధంగా	-2569
రువు	-2570
▁వెల్ల	-2571
▁ఆర్టికల్	-2572
బాద్	-2573
స్వామి	-2574
ీలి	-2575
▁గుర్తు	-2576
▁నియమాలు	-2577
▁నిబంధనను	-2578
▁వ్యాపారం	-2579
స్తో	-2580
▁మీరు	-2581
▁ఆదాయపు	-2582
ేకా	-2583
▁ఆదాయం	-2584
▁సిద్ధాంత	-2585
▁చేపట్ట	-2586
▁మెరుగు	-2587
▁ఐదు	-2588
▁చెంద	-2589
▁చేయండి	-2590
డిని	-2591
▁నేరాలకు	-2592
▁సౌకర్య	-2593
▁ఎల్	-2594
▁సోద	-2595
లభ	-2596
▁స్వతంత్ర	-2597
డంతో	-2598
▁ఎఫ్ఐఆర్	-2599
▁సంభవ	-2600
పక్ష	-2601
▁పిసి	-2602
▁అనుసంధ	-2603
▁పొడిగ	-2604
ఘా	-2605
▁నిబంధనలలో	-2606
▁అదేవిధంగా	-2607
కాం	-2608
▁ఎన్నికల	-2609
▁కేసులలో	-2610
▁నేషనల్	-2611
▁కార్యాలయ	-2612
ూహ	-2613
ట్యూ	-2614
ార్డ్	-2615
▁ముఖర్జీ	-2616
వేరు	-2617
్యూటీ	-2618
▁పిటిషన్ను	-2619
▁హాజరు	-2620
▁దుర్వి	-2621
జా	-2622
▁తప్పనిసరిగా	-2623
▁అనగా	-2624
▁మొదలైనవి	-2625
దాత	-2626
▁ప్రొసీజర్	-2627
▁సదుపాయ	-2628
స్పద	-2629
▁పర్యవస	-2630
▁ఆన	-2631
గ్గా	-2632
▁ఉన్నప్పుడు	-2633
▁వర్తించే	-2634
▁పదవి	-2635
▁ఇచ్చే	-2636
వారికి	-2637
▁డిఫ	-2638
మానం	-2639
▁అభ్యర్ధన	-2640
▁బార్	-2641
▁No	-2642
▁అప్పుడు	-2643
▁ప్రతిపాద	-2644
▁విద్యుత్	-2645
▁భార్య	-2646
▁చేయలేదు	-2647
.,	-2648
▁పరిశీలి	-2649
▁స్పష్టమైన	-2650
ించాయి	-2651
▁దీనిలో	-2652
▁ప్రాజెక్ట్	-2653
▁హక్కులను	-2654
▁రూపంలో	-2655
▁అభ్యర్థి	-2656
రుస	-2657
▁స్పష్టం	-2658
▁చట్టానికి	-2659
ినట్లు	-2660
▁ముగ్గు	-2661
▁శాశ్వ	-2662
▁పరిస్థితుల	-2663
▁పెన్షన్	-2664
▁ప్రతిని	-2665
స్తా	-2666
▁విశ్లే	-2667
▁చదివ	-2668
▁విం	-2669
డికి	-2670
▁వహి	-2671
▁మాట	-2672
▁అంతేకా	-2673
▁హి	-2674
ందులో	-2675
ించాము	-2676
▁సలహా	-2677
▁ఉదాహరణ	-2678
▁ఖై	-2679
▁సభ్యుల	-2680
▁విన్న	-2681
డిషియల్	-2682
▁వ్యక్తం	-2683
ించలేము	-2684
▁నిపుణ	-2685
▁లోపం	-2686
▁తీసుకునే	-2687
▁పత్రం	-2688
▁చదవ	-2689
▁ఎలా	-2690
ర్గ	-2691
▁దిశ	-2692
పాల్	-2693
▁రోజుల	-2694
▁జనవరి	-2695
▁అతన్ని	-2696
▁ఆరోగ్య	-2697
ించగల	-2698
▁లేవు	-2699
▁తేదీన	-2700
▁లక్ష్య	-2701
▁ఇవి	-2702
ేడ్	-2703
సుప	-2704
▁నగ	-2705
▁విస్మ	-2706
▁ఆగ	-2707
▁అన్నారు	-2708
ప్రదేశ్	-2709
ాగ్రత్త	-2710
▁ఇండియన్	-2711
▁ఆసుప	-2712
▁స్వంత	-2713
▁గంటలకు	-2714
రించడం	-2715
▁ఆయుధ	-2716
▁ముగ	-2717
▁ఎగ్జిక్యూ	-2718
ోసి	-2719
▁నాలుగు	-2720
▁బాహ్య	-2721
▁సార	-2722
క్వి	-2723
▁చొ	-2724
షల్	-2725
▁మిగి	-2726
వేషన్	-2727
▁కూడిన	-2728
▁వేర్	-2729
▁భాగాన్ని	-2730
▁పనిచేయ	-2731
▁భిన్నంగా	-2732
▁పట్టు	-2733
ాయిదా	-2734
▁ముగ్గురు	-2735
▁కళా	-2736
▁నాణ	-2737
▁చీఫ్	-2738
లిన	-2739
కత	-2740
▁ఎన్నిక	-2741
▁పొందు	-2742
▁ఇందులో	-2743
వంతం	-2744
నియోగం	-2745
▁సరిగ్గా	-2746
▁కుట్ర	-2747
చారం	-2748
▁అందుకున్న	-2749
▁విషయాలను	-2750
ామినేషన్	-2751
సెంబర్	-2752
▁తీర్మాన	-2753
▁ఉన్నట్లు	-2754
▁కేటాయింపు	-2755
డెంట్	-2756
▁వెనుక	-2757
▁జమ	-2758
▁ఇష్ట	-2759
▁నిర్ణయానికి	-2760
▁ఆరు	-2761
▁జాగ్రత్త	-2762
రంగ	-2763
ూన్	-2764
▁పరిష్కార	-2765
▁తాను	-2766
ృహ	-2767
విష్య	-2768
స్వామ్య	-2769
క్షలు	-2770
▁యూనిట్	-2771
▁నిర్మాణం	-2772
ర్స్	-2773
ti	-2774
▁ఎగు	-2775
మైనవి	-2776
▁నియమించబడిన	-2777
▁బాధితు	-2778
▁ప్రత్యామ్నాయ	-2779
▁జరుగు	-2780
మర్శ	-2781
డియో	-2782
స్తున్నారు	-2783
మూ	-2784
ించకుండా	-2785
▁అంతేకాకుండా	-2786
లెయి	-2787
ామం	-2788
ారో	-2789
వేజు	-2790
స్తావేజు	-2791
▁ప్రాతినిధ్యం	-2792
▁శాసన	-2793
▁పారవేయ	-2794
▁కారణాలు	-2795
▁గౌర	-2796
విభాగం	-2797
▁వస్తువులు	-2798
▁రిజిస్ట్రేషన్	-2799
వేళ	-2800
▁ఎత్తి	-2801
▁భవిష్య	-2802
దారులకు	-2803
▁నిర్వహించడానికి	-2804
▁అమలులో	-2805
▁గోప్యత	-2806
దిగా	-2807
▁విశ్వా	-2808
క్టో	-2809
సైటీ	-2810
▁దస్తావేజు	-2811
▁వేర్వేరు	-2812
లుపు	-2813
ర్గతం	-2814
▁సర్టిఫిక	-2815
▁ప్రతివాదుల	-2816
పోర్ట్	-2817
▁ఒకవేళ	-2818
క్యు	-2819
చె	-2820
],	-2821
డికల్	-2822
▁నాటికి	-2823
▁బహిర్గతం	-2824
ణాటక	-2825
▁పిల్లల	-2826
నుగుణంగా	-2827
▁అప్పీళ్	-2828
▁అయ్యే	-2829
జిస్టర్	-2830
▁బెం	-2831
వైపు	-2832
కీ	-2833
▁దేశం	-2834
▁వాహన	-2835
దీ	-2836
▁కోర్టులు	-2837
१२	-2838
▁చు	-2839
▁కొనసా	-2840
▁గొప్ప	-2841
▁ఫీ	-2842
న్నా	-2843
▁ఇంత	-2844
▁ఎక్	-2845
▁నిధ	-2846
▁సెషన్స్	-2847
▁గత	-2848
▁పదం	-2849
▁నిజమైన	-2850
ముందు	-2851
▁హత్య	-2852
త్వాన్ని	-2853
ాలోని	-2854
▁రుణదాత	-2855
▁వ్యవహరించే	-2856
▁కృ	-2857
▁లేనప్పుడు	-2858
▁పదవీ	-2859
...	-2860
ర్మన్	-2861
▁ప్రతివాదికి	-2862
▁మారు	-2863
▁అధికారాలను	-2864
▁పిలుస్తారు	-2865
▁డేటా	-2866
▁రిజిస్టర్	-2867
కోవడం	-2868
▁ట్రస్ట్	-2869
వర్తన	-2870
▁అసోసి	-2871
▁పక్షప	-2872
▁భౌతిక	-2873
▁ఉంటుందని	-2874
▁కోరిన	-2875
వారీ	-2876
▁విశ్వవిద్యాలయ	-2877
▁క్యా	-2878
▁క్లి	-2879
టిల్	-2880
కుడు	-2881
▁భావన	-2882
▁నొక్కి	-2883
▁నిర్ణయించే	-2884
▁పరిస్థితి	-2885
▁ఉమ్మ	-2886
▁హిం	-2887
▁మనస్సు	-2888
స్తాడు	-2889
▁సిబ్బంది	-2890
▁కార్యదర్శ	-2891
▁కర్ణాటక	-2892
ప్టెంబర్	-2893
ైక	-2894
ార్హ	-2895
▁కలిగిన	-2896
ులకు	-2897
▁విక్రయ	-2898
▁ద్వ	-2899
దిరి	-2900
▁అప్పీలుదారుని	-2901
పల	-2902
▁కావచ్చు	-2903
▁శిక్షార్హ	-2904
▁ఖాతా	-2905
▁రికవరీ	-2906
▁జ్యుడిషియల్	-2907
▁డీ	-2908
గో	-2909
▁వ్యాయ	-2910
▁వృత్తి	-2911
ష్ణ	-2912
▁ప్రొఫ	-2913
▁తదనుగుణంగా	-2914
▁బహిరంగ	-2915
ల్చ	-2916
పల్	-2917
▁అనుభ	-2918
▁కాల్	-2919
▁తెరి	-2920
▁ఇవ్వాలి	-2921
▁ఏకైక	-2922
తమైన	-2923
హె	-2924
▁సొసైటీ	-2925
▁ఆధారాలు	-2926
▁సాక్ష్యాలు	-2927
టెంట్	-2928
▁విరమణ	-2929
గాహన	-2930
ండ్రి	-2931
స్తోంది	-2932
ూలై	-2933
▁డిసెంబర్	-2934
▁అభ్యా	-2935
▁సందర్శ	-2936
▁క్లెయి	-2937
▁పరిధిలో	-2938
రికీ	-2939
▁అవగాహన	-2940
▁డిపా	-2941
▁అపర	-2942
దానం	-2943
పోయిన	-2944
▁మరణం	-2945
గ్రహీ	-2946
▁మెడికల్	-2947
ాయా	-2948
▁అభియోగ	-2949
▁పరిమాణ	-2950
▁నిర్ణయించడానికి	-2951
్యాల	-2952
▁పాల్పడిన	-2953
▁శ్రే	-2954
▁క్రె	-2955
▁హెచ్	-2956
▁సమానంగా	-2957
ాల్సి	-2958
▁అధికారుల	-2959
▁పరిణ	-2960
ంతు	-2961
▁అభిన	-2962
▁సంపాద	-2963
శి	-2964
▁పరిశోధన	-2965
▁ఆసుపత్రి	-2966
▁ఎగ్జిక్యూటివ్	-2967
▁బాల	-2968
▁కఠినమైన	-2969
▁నాకు	-2970
▁భూము	-2971
▁తీర్మానం	-2972
▁పరిహార	-2973
xad	-2974
వంబర్	-2975
▁సమాజం	-2976
▁శరీ	-2977
▁చెప్పాలంటే	-2978
గలి	-2979
▁బదు	-2980
▁చేయమని	-2981
▁జరగ	-2982
బ్రవరి	-2983
▁చేయబడుతుంది	-2984
పూరిత	-2985
మాన్య	-2986
▁పిటిషనర్లు	-2987
................	-2988
▁పరిపాలన	-2989
▁నేపథ	-2990
▁ఫండ్	-2991
▁ప్రేరేపించబడిన	-2992
▁శి	-2993
▁సమస్యను	-2994
▁ప్రణ	-2995
▁బాధపడుతున్న	-2996
▁ఉపాధ	-2997
▁తొలగింపు	-2998
రక్షిత	-2999
▁తండ్రి	-3000
▁ఇచ్చారు	-3001
మన్	-3002
్యంలో	-3003
▁న్యాయస్థానాలు	-3004
▁పరిస్థితులు	-3005
శ్రయ	-3006
▁చట్టాలు	-3007
్యమైన	-3008
▁అందులో	-3009
▁అప్	-3010
▁ప్రణబ్	-3011
▁ప్రాంతం	-3012
▁నిల	-3013
▁సాక్షుల	-3014
చేయ	-3015
▁బెంగ	-3016
న్యాయ	-3017
కోవటానికి	-3018
ంగిక	-3019
▁చేయవలసిన	-3020
▁తీసుకురావ	-3021
రియా	-3022
నిఖ	-3023
▁దిగుమతి	-3024
▁వెల్లడ	-3025
▁యాజ	-3026
రించే	-3027
▁వివక్ష	-3028
▁యాజమాన్య	-3029
ైర్మన్	-3030
ందే	-3031
▁కష్ట	-3032
▁కనీసం	-3033
▁ఏకపక్ష	-3034
కుంది	-3035
ల్డర్	-3036
కుముందు	-3037
▁సెప్టెంబర్	-3038
నూ	-3039
▁దుర్వినియోగం	-3040
▁నిలిపి	-3041
▁అప	-3042
▁అవుతుంది	-3043
▁అంగీకరించిన	-3044
▁ప్రమో	-3045
▁వేగ	-3046
హిత	-3047
కాలను	-3048
మెంటరీ	-3049
▁విఫలమై	-3050
▁పాఠశాల	-3051
▁తనిఖ	-3052
▁ప్రభావాన్ని	-3053
రై	-3054
ీలు	-3055
▁ఉమ్మడి	-3056
ణంలో	-3057
▁జూలై	-3058
రుచు	-3059
సార్	-3060
▁చదు	-3061
▁కాంట్రాక్ట్	-3062
▁చేసుకోవడానికి	-3063
▁వ్యాజ్య	-3064
▁డెవల	-3065
సిక	-3066
ంబాయి	-3067
▁ఎన్ను	-3068
▁బు	-3069
▁పేజీ	-3070
సారం	-3071
టిట్యూ	-3072
▁సమాచారాన్ని	-3073
▁ఫైనా	-3074
▁ప్రామాణిక	-3075
యంగా	-3076
▁పంజ	-3077
దారునికి	-3078
▁ఉత్తర్వులు	-3079
▁ఇవ్వబడుతుంది	-3080
▁సంస్కరణ	-3081
▁వరుస	-3082
▁లేకపోతే	-3083
▁వెలుపల	-3084
కుంట	-3085
▁స్వచ్ఛంద	-3086
దృ	-3087
▁భీ	-3088
స్తున్నాను	-3089
టే	-3090
▁పర్యవసానంగా	-3091
▁ఎల	-3092
ాలనే	-3093
▁ఇండ	-3094
▁కార్యదర్శి	-3095
▁ఆగస్టు	-3096
▁చెల్లించిన	-3097
▁క్లెయిమ్	-3098
▁విండో	-3099
క్టోబర్	-3100
▁అంతకంటే	-3101
▁సభ్యుడు	-3102
▁ఫ్	-3103
నిర్వాహ	-3104
▁రాజీ	-3105
▁విశ్వవిద్యాలయం	-3106
▁దేశంలో	-3107
రళ	-3108
▁ప్రాముఖ్యత	-3109
▁ఏది	-3110
ించని	-3111
తోంది	-3112
▁ఉత్తర్వును	-3113
ార్సు	-3114
న్నీ	-3115
పార్ట్	-3116
▁బొంబాయి	-3117
▁అప్పీలుదారుడి	-3118
ృతి	-3119
▁ఆదాయాన్ని	-3120
▁ఉపాధి	-3121
▁న్యాయవాదు	-3122
▁సిఫార్సు	-3123
ముఖ	-3124
▁ఫిబ్రవరి	-3125
▁వార్షిక	-3126
▁అసాధ	-3127
వ్యా	-3128
పిడి	-3129
▁ఆనంద	-3130
▁ప్రకటించిన	-3131
▁రుణగ్రహీ	-3132
మాను	-3133
▁పుస్త	-3134
▁నిశ్	-3135
▁ఏమి	-3136
▁మహారా	-3137
▁ఖనిజ	-3138
▁విధులను	-3139
▁నిర్వర్త	-3140
యే	-3141
▁వాణిజ్యం	-3142
▁సుం	-3143
▁సముచిత	-3144
▁నాయ	-3145
▁ప్రదేశ్	-3146
▁ముగిసిన	-3147
వాతి	-3148
▁విచారణను	-3149
లాక్	-3150
కొని	-3151
హార్	-3152
షులుగా	-3153
▁పరిస్థితులను	-3154
▁బ్యాంకు	-3155
▁వర్తిస్తుంది	-3156
tion	-3157
▁పురో	-3158
▁చేశాడు	-3159
▁ఉపయోగించిన	-3160
▁దాడి	-3161
▁వాస్తవిక	-3162
▁నిర్ణయాన్ని	-3163
▁కమ్యూ	-3164
▁నవంబర్	-3165
▁శిక్షా	-3166
కుంటున్న	-3167
▁తరువాతి	-3168
దుపు	-3169
▁కావ	-3170
▁ఆకర్ష	-3171
▁న్యాయమూర్తులు	-3172
▁వాట	-3173
▁కేరళ	-3174
▁అసమ	-3175
▁ఉత్పత్	-3176
మవుతుంది	-3177
▁ప్రయా	-3178
ోధ	-3179
మిని	-3180
▁చెప్పలేము	-3181
ాంతి	-3182
▁తనకు	-3183
▁ప్రత్యేకమైన	-3184
▁చదివిన	-3185
▁కార్యనిర్వాహ	-3186
ంత్	-3187
ర్లు	-3188
▁మండ	-3189
ించబడాలి	-3190
ించబడిందని	-3191
▁చేతిలో	-3192
▁హౌ	-3193
క్షేమ	-3194
ాయితీ	-3195
▁చేయగల	-3196
▁పునర్వి	-3197
▁ఎదుర్కొ	-3198
మైంది	-3199
▁కోట్లు	-3200
▁పంజాబ్	-3201
శంస	-3202
▁మెమో	-3203
▁ఒక్క	-3204
▁ఆపరేషన్	-3205
▁క్రెడిట్	-3206
▁ఉత్తర్వులకు	-3207
నాలజీ	-3208
▁సంక్షేమ	-3209
▁a	-3210
▁శాశ్వత	-3211
ఇకపై	-3212
నె	-3213
▁తీర్చ	-3214
ాలుగా	-3215
▁శక్తిని	-3216
▁విచారణలో	-3217
▁స్నే	-3218
▁జూన్	-3219
ించబడే	-3220
▁క్రాస్	-3221
ాయింట్	-3222
▁లేవనెత్తిన	-3223
▁చర్యల	-3224
▁సవరించిన	-3225
న్యూ	-3226
▁వస్తుంది	-3227
▁...	-3228
▁తెలియజే	-3229
▁స్థిరమైన	-3230
▁జోడ	-3231
▁చేయకుండా	-3232
▁నిర్ణయించిన	-3233
్యాండ్	-3234
▁సుమారు	-3235
▁డిప	-3236
ించలేదని	-3237
ైర్	-3238
▁అభ్యంతర	-3239
▁విండోలో	-3240
▁సురక్షిత	-3241
▁వాస్తవాలను	-3242
▁ఎవరి	-3243
లక్ష	-3244
▁బీమా	-3245
▁వేరే	-3246
▁స్వాత	-3247
▁అక్టోబర్	-3248
▁బే	-3249
సన్	-3250
దాని	-3251
▁కోల్పో	-3252
▁గాయం	-3253
▁దోషిగా	-3254
▁సాక్ష్యాల	-3255
▁వ్యవహార	-3256
▁సర్టిఫికేట్	-3257
డ్యు	-3258
▁కవర్	-3259
▁ఖండ	-3260
▁పాలసీ	-3261
▁ఇన్ఫ	-3262
▁పరంగా	-3263
▁స్పె	-3264
▁వాదనను	-3265
▁శిక్షార్హమైన	-3266
హెచ్	-3267
డమే	-3268
▁చేయబడిందని	-3269
▁నిర్వహించిన	-3270
▁కొట్టివేసింది	-3271
▁అసోసియేషన్	-3272
ిందా	-3273
▁గ్రూ	-3274
పార్జన	-3275
▁ఆదేశించింది	-3276
▁అరు	-3277
సిస్ట	-3278
▁ఉద్దేశించిన	-3279
▁రైల్	-3280
ేదు	-3281
▁పరస్	-3282
▁చట్టాల	-3283
ద్ఘా	-3284
▁నైపుణ	-3285
▁బదులుగా	-3286
ిత్ర	-3287
▁మారి	-3288
▁వృద్ధి	-3289
ీర్ఘ	-3290
లియన్	-3291
▁పరస్పర	-3292
▁L	-3293
▁సర్వీస్	-3294
▁సామర్థ్యాన్ని	-3295
బీ	-3296
▁పునరుద్ఘా	-3297
▁१	-3298
▁ఉత్పన్న	-3299
▁పోలీసులు	-3300
నై	-3301
భి	-3302
▁డ్రై	-3303
▁ప్రయోజనాలను	-3304
కల్ప	-3305
▁స్టేట్మెంట్	-3306
డుగు	-3307
▁అధి	-3308
▁దావాను	-3309
▁పరిధిలోకి	-3310
▁ఏజెన్సీ	-3311
▁మరోవైపు	-3312
▁చెందు	-3313
▁మార	-3314
▁అంశంపై	-3315
▁లైంగిక	-3316
▁వారిని	-3317
▁సమానమైన	-3318
▁ఇన్స్టిట్యూ	-3319
▁అందించడానికి	-3320
▁ప్రస్తుతం	-3321
గ్రహ	-3322
్యాయు	-3323
▁గృహ	-3324
▁మెజ	-3325
▁తీసుకోవాలి	-3326
▁షెడ్యూల్డ్	-3327
బే	-3328
గులో	-3329
▁కార్పొరేట్	-3330
ీకృత	-3331
కౌ	-3332
▁Vs	-3333
▁మోట	-3334
▁ఉపయోగించడం	-3335
బడదు	-3336
▁నివేద	-3337
ంగాన్ని	-3338
▁ముందే	-3339
▁చేయటానికి	-3340
కాంక్షలు	-3341
▁అనుసంధానించ	-3342
▁అనుభవ	-3343
▁భవన	-3344
▁తెరుచు	-3345
▁T	-3346
▁ప్రజలకు	-3347
▁స్థల	-3348
▁గ్రహ	-3349
▁ముని	-3350
▁సమర్థవంతమైన	-3351
▁పౌరు	-3352
▁విధించిన	-3353
▁విచక్షణ	-3354
▁వర్తింపజేయ	-3355
▁ప్రయోజనాన్ని	-3356
▁దానికి	-3357
▁అనర్	-3358
ెండ	-3359
లిం	-3360
▁లిం	-3361
▁కనీస	-3362
▁కళాశాల	-3363
▁ఉండటం	-3364
▁అధ్యాయం	-3365
▁క్రమశిక్ష	-3366
▁థ	-3367
▁పను	-3368
▁ప్రెసి	-3369
▁న్యాయమైన	-3370
▁తప్పుడు	-3371
▁చేయబడతాయి	-3372
▁సముపార్జన	-3373
▁బంధ	-3374
▁వేసిన	-3375
▁సెక్యూ	-3376
▁ఉన్నాడు	-3377
పారు	-3378
▁కాలంలో	-3379
బ్లీ	-3380
టర్ల	-3381
▁అవు	-3382
▁భీమా	-3383
▁రైల్వే	-3384
భాగ	-3385
▁ఆత్మ	-3386
▁ఛార్జీ	-3387
▁నాణ్యత	-3388
▁అసెం	-3389
▁శుభా	-3390
▁ఉత్తమ	-3391
▁పేరాలో	-3392
▁జరిగిందని	-3393
▁కాంట్రాక్	-3394
మంది	-3395
▁భవనం	-3396
▁వస్తువులను	-3397
ాజా	-3398
▁అధ్యక్షుడు	-3399
▁మరే	-3400
▁ఆలోచన	-3401
▁రూపాయ	-3402
▁పూర్వ	-3403
▁కుల	-3404
▁ఎలక్	-3405
▁బక	-3406
▁ఇతరులు	-3407
▁సంరక్షణ	-3408
▁ఎవ	-3409
▁కోరింది	-3410
సభ	-3411
▁నిస్స	-3412
▁మధ్యవర్తిత్వం	-3413
▁అర్హులు	-3414
▁కోర్టును	-3415
▁మద్దతుగా	-3416
▁స్థితి	-3417
▁బయట	-3418
వాడు	-3419
▁అసిస్ట	-3420
▁గమనించిన	-3421
▁కాంట్రాక్టు	-3422
బె	-3423
▁కార్యాలయం	-3424
▁శుభాకాంక్షలు	-3425
దాన	-3426
కపోవడం	-3427
▁తనిఖీ	-3428
▁బ్యా	-3429
▁గ్రామీ	-3430
▁పెట్టు	-3431
▁గమనించింది	-3432
ీర్షిక	-3433
▁ఎల్ల	-3434
▁సిబిఐ	-3435
▁అతి	-3436
▁పునర్విమర్శ	-3437
▁కింది	-3438
▁అప్పీలుడు	-3439
▁రకాల	-3440
▁రిజర్వేషన్	-3441
▁పౌర	-3442
▁యంత్ర	-3443
▁తీసుకోవడం	-3444
▁మౌలిక	-3445
దం	-3446
షీట్	-3447
▁ఇలాంటి	-3448
▁డిఫాల్	-3449
▁కలెక్టర్	-3450
▁మహారాష్ట్ర	-3451
▁అడ	-3452
▁పార్ల	-3453
▁రాష్ట్రాల	-3454
▁వది	-3455
▁పేలు	-3456
▁బకాయి	-3457
▁ఘ	-3458
▁ఆవి	-3459
▁అదనంగా	-3460
▁సందేహం	-3461
▁ఎక్సై	-3462
▁నిర్లక్ష	-3463
▁ఎల్లప్పుడూ	-3464
దాస్పద	-3465
ించుకో	-3466
▁యోగ	-3467
▁కాదా	-3468
▁ఉపాధ్యాయు	-3469
▁గె	-3470
హనం	-3471
▁పూర్త	-3472
▁పరిణామ	-3473
▁కేటాయించిన	-3474
▁చూడండి	-3475
ల్లోకి	-3476
▁చేసుకోవడం	-3477
త్పత్తి	-3478
▁గ్రా	-3479
▁కార	-3480
▁చివరికి	-3481
ందనే	-3482
▁మళ్ళ	-3483
▁వివాదాస్పద	-3484
చెప్ప	-3485
▁తాజా	-3486
▁జనా	-3487
▁వ్యాయామం	-3488
డని	-3489
ఫర్	-3490
▁సమస్యలను	-3491
▁శీర్షిక	-3492
రికి	-3493
▁తగినంత	-3494
పడుతుంది	-3495
▁సందర్భం	-3496
▁నిందితులను	-3497
▁కేసుల	-3498
▁నష్టం	-3499
రుగా	-3500
▁అనవసర	-3501
▁పాల్గొన	-3502
▁వ్రాతపూర్వక	-3503
▁మానసిక	-3504
▁ప్రశ్ని	-3505
రిని	-3506
▁జీవన	-3507
▁తేల	-3508
వెన్యూ	-3509
▁కొనసాగు	-3510
▁టెక్నాలజీ	-3511
▁ఆమోదయోగ	-3512
▁అత్యవసర	-3513
▁ఉండాలని	-3514
▁సంఖ్యలో	-3515
▁పాల్గొన్న	-3516
▁మిగిలిన	-3517
१३	-3518
▁కథ	-3519
▁తీసుకువచ్చ	-3520
ండ్ర	-3521
▁కోరారు	-3522
▁చేస్తారు	-3523
▁రిఫ	-3524
▁కేసులను	-3525
ాడా	-3526
▁తమి	-3527
▁అసం	-3528
▁కార్యకలాపాలను	-3529
,00	-3530
జరా	-3531
▁హిందూ	-3532
ంత్ర్య	-3533
▁సాధ్యం	-3534
క్ల	-3535
తిమ	-3536
రేషన్	-3537
▁ఎక్సైజ్	-3538
ందర్	-3539
▁చదువుతుంది	-3540
▁ఫార్	-3541
పడే	-3542
▁ట్రా	-3543
కపోవచ్చు	-3544
▁నమూ	-3545
▁విస్తరించ	-3546
▁స్వాతంత్ర్య	-3547
ట్రిక్స్	-3548
▁మరణానికి	-3549
హ్మ	-3550
▁రెండిం	-3551
ెబ్బ	-3552
▁జ్ఞానం	-3553
నాలను	-3554
▁ప్రే	-3555
▁ప్రశంస	-3556
▁ఫీజు	-3557
▁పత్రాలు	-3558
▁రంగంలో	-3559
▁ఉండకూడదు	-3560
▁F	-3561
▁ఆధార్	-3562
▁రాష్ట్రాలు	-3563
▁మళ్ళీ	-3564
▁సూచించబడిన	-3565
ేటివ్	-3566
రక	-3567
▁బ్ర	-3568
▁అనర్హ	-3569
ీత	-3570
▁బిడ్	-3571
▁వెళ్	-3572
▁పదో	-3573
▁ఆలోచ	-3574
▁విషయాలు	-3575
▁హర్య	-3576
▁విచారణకు	-3577
▁రెవెన్యూ	-3578
▁తరగతి	-3579
▁దిగువ	-3580
▁ఆధారపడిన	-3581
▁ఫ్ర	-3582
▁వైద్యు	-3583
▁పరిశీలించిన	-3584
ూన్య	-3585
▁ఆదేశాల	-3586
▁నిరంతర	-3587
▁అసిస్టెంట్	-3588
▁అణ	-3589
▁సులభ	-3590
▁నివాస	-3591
చూ	-3592
▁పరిపాలనా	-3593
ల్వ	-3594
▁క్రమం	-3595
▁పదోన్న	-3596
కులను	-3597
ెస్ట్	-3598
▁తనను	-3599
▁అవసరాన్ని	-3600
జరాత్	-3601
▁వివాహ	-3602
▁నిర్ధారణ	-3603
▁స్థాయిలో	-3604
ఫ్ట్	-3605
▁III	-3606
▁యజమాను	-3607
▁కం	-3608
▁ఆమోదం	-3609
▁గ్రూప్	-3610
▁ప్రశ్నను	-3611
▁రుణగ్రహీత	-3612
▁ఏమ	-3613
▁వాటికి	-3614
▁సరైనది	-3615
▁జాగ్రత్తగా	-3616
ందన	-3617
▁అంతిమ	-3618
▁దావ	-3619
▁మధ్యంతర	-3620
▁వాస్తవాన్ని	-3621
▁అసెంబ్లీ	-3622
▁లక్ష్యం	-3623
▁స్థాపన	-3624
▁తీవ్రంగా	-3625
▁ప్రక్రియను	-3626
▁రూపొందించిన	-3627
నామా	-3628
▁రిజిస్ట్రార్	-3629
ాప్	-3630
▁ఆహార	-3631
▁శూన్య	-3632
▁ఉచిత	-3633
▁ప్రతికూల	-3634
▁నిర్ణయాలు	-3635
▁హైకోర్టులో	-3636
▁నిర్దోషిగా	-3637
▁వదిలి	-3638
▁విభజన	-3639
▁దూ	-3640
▁ఛార్జ్	-3641
ప్త	-3642
అప్ప	-3643
డల్	-3644
▁ఆక్రమ	-3645
▁ప్రొఫె	-3646
३०	-3647
▁లాల్	-3648
▁సాగ	-3649
కూడదని	-3650
▁సందేహ	-3651
▁వాత	-3652
▁ఎగుమతి	-3653
▁ఖైదు	-3654
▁పరిగణించ	-3655
పూర్ణ	-3656
ుకున్న	-3657
ానని	-3658
▁వాతావరణ	-3659
AR	-3660
----	-3661
▁మదింపుదారుడు	-3662
▁పొందడం	-3663
▁వ్యత్యాసం	-3664
▁అప్పీలుదారునికి	-3665
▁రూపొందించడానికి	-3666
▁p	-3667
▁ఆన్	-3668
▁అధికారాలు	-3669
▁పంచాయ	-3670
బో	-3671
మర్	-3672
ళనాడు	-3673
▁కార్యనిర్వాహక	-3674
▁ఎగ్జ	-3675
▁ఎంచ	-3676
▁ప్రెసిడెంట్	-3677
టేట్	-3678
▁వైకల	-3679
యన్స్	-3680
▁గుజరాత్	-3681
హంగా	-3682
మంత్రి	-3683
▁అర్ధం	-3684
▁హైకోర్టుకు	-3685
▁కేసులు	-3686
తర	-3687
▁క్ల	-3688
▁స్పెషల్	-3689
▁డిపార్ట్	-3690
▁ఆర్టికల్స్	-3691
యారిటీ	-3692
▁మాజీ	-3693
iv	-3694
▁డిప్యూటీ	-3695
▁సెక్యూరిటీ	-3696
మగ్	-3697
▁ఓడ	-3698
▁దెబ్బ	-3699
▁అంశాలను	-3700
▁మూసి	-3701
▁రోడ్	-3702
▁ధి	-3703
▁ఉంచిన	-3704
బడే	-3705
స్తున్నప్పుడు	-3706
మొ	-3707
▁గల	-3708
▁ప్రసం	-3709
▁కొంతమంది	-3710
▁పథకాన్ని	-3711
▁ప్రాంతంలో	-3712
▁బోర్డ్	-3713
దిత	-3714
▁విలువైన	-3715
ించినట్లుగా	-3716
▁యోగ్యత	-3717
▁వేయడానికి	-3718
▁ఒప్పందాన్ని	-3719
▁పెం	-3720
▁ధిక్క	-3721
▁కుమారు	-3722
▁తేలింది	-3723
▁ఉద్యోగుల	-3724
ీస్	-3725
ారోపణ	-3726
సుము	-3727
▁నిస్సందే	-3728
▁ఆవిష్	-3729
▁సమూహ	-3730
▁మునిసి	-3731
లాండ్	-3732
▁ఆమెను	-3733
▁ఉపయోగం	-3734
▁పాక్షిక	-3735
▁ఉండే	-3736
నందున	-3737
▁పైగా	-3738
▁అదుపు	-3739
▁విస్తృ	-3740
▁ఆధారపడటం	-3741
▁ఇన్స్టిట్యూట్	-3742
▁నైతిక	-3743
▁చేయవలసి	-3744
▁మార్పిడి	-3745
తె	-3746
▁మైన	-3747
ాక్స్	-3748
చట్ట	-3749
▁గుర	-3750
▁షరతు	-3751
▁గౌరవం	-3752
▁పరిజ్ఞ	-3753
▁తమిళనాడు	-3754
▁స్థితిలో	-3755
▁భర్తీ	-3756
▁పంట	-3757
▁సేవలో	-3758
▁అమలులోకి	-3759
క్రి	-3760
▁మోటారు	-3761
▁ఎస్టేట్	-3762
▁ఆమోదించింది	-3763
▁అభిప్రాయపడ్డారు	-3764
▁జీవ	-3765
▁చేయని	-3766
▁సీనియారిటీ	-3767
▁విధించే	-3768
▁పునరుద్ఘాట	-3769
▁కీల	-3770
▁స్వయం	-3771
▁బృ	-3772
నిబంధన	-3773
▁డిఫాల్ట్	-3774
▁కార్యకలాపాలు	-3775
].	-3776
▁వేరు	-3777
▁విభాగంలో	-3778
▁విజ్ఞప్తి	-3779
▁అనుభవం	-3780
▁ఖర్చులు	-3781
▁అప్ర	-3782
▁వాహనం	-3783
బద్ధమైన	-3784
▁రిజర్వ్	-3785
▁ప్రశ్నించ	-3786
్వర	-3787
పోయింది	-3788
▁చేస్తే	-3789
▁రుసుము	-3790
హీన	-3791
సాన్ని	-3792
▁ప్రశ్నకు	-3793
▁కమ్యూనిక	-3794
▁ప్రకటనను	-3795
చిన	-3796
కోవడానికి	-3797
▁డిపాజిట్	-3798
▁ప్రిన్సి	-3799
వర్క్	-3800
▁సమన్	-3801
▁నేరారోపణ	-3802
▁ప్రయత్నం	-3803
▁చర్యలకు	-3804
▁W	-3805
దారి	-3806
జింగ్	-3807
పాలి	-3808
▁ప్రాధమిక	-3809
▁వ్యవహరిస్తుంది	-3810
▁కల్	-3811
▁వరుసగా	-3812
▁బృంద	-3813
ించకూడదు	-3814
▁గర్భ	-3815
▁పాలన	-3816
▁మెజారిటీ	-3817
▁పూ	-3818
ైడ్	-3819
▁ఉత్తర	-3820
▁సేవలు	-3821
▁హర్యానా	-3822
▁ప్రక్రియలో	-3823
ంధ్ర	-3824
▁హింస	-3825
▁విలువను	-3826
▁ఆదేశించారు	-3827
;.	-3828
▁ఆశ్రయ	-3829
▁వల	-3830
బిం	-3831
ిస్తున్న	-3832
▁ఉత్తర్వుల	-3833
▁నడు	-3834
▁యుఎస్	-3835
▁పిల	-3836
▁అపరాధ	-3837
▁చార్జి	-3838
ప్పటికప్పుడు	-3839
ానాన్ని	-3840
▁బొగ్గు	-3841
ంద్	-3842
▁ఏదీ	-3843
▁గ్రామీణ	-3844
▁లేకపోవడం	-3845
▁తెరుచుకునే	-3846
▁సాక్షులు	-3847
తలు	-3848
▁ఫర్	-3849
▁ఎగ్జామినేషన్	-3850
▁సమావేశం	-3851
▁కలిగించే	-3852
▁పొందే	-3853
▁వివరాలు	-3854
▁మాటలో	-3855
▁కోరుతూ	-3856
▁ప్రధానంగా	-3857
లసిన	-3858
▁వ్యాజ్యం	-3859
,000	-3860
▁ప్రతిబిం	-3861
గలిగ	-3862
ాధిక	-3863
▁ఎప్పటికప్పుడు	-3864
▁లు	-3865
ల్డ్	-3866
▁ప్రీ	-3867
▁నేరాన్ని	-3868
▁పత్రాలను	-3869
▁సూత్రాన్ని	-3870
చార	-3871
▁జు	-3872
▁భవిష్యత్తు	-3873
పాక్షిక	-3874
▁పునరుద్ధరణ	-3875
రిట	-3876
కుంటే	-3877
▁తనఖా	-3878
▁ఇటీ	-3879
▁వాటిలో	-3880
▁వీడియో	-3881
▁కార్యకలాపాల	-3882
మిది	-3883
లైన్	-3884
▁ప్రజలు	-3885
▁తీసుకె	-3886
త్సా	-3887
▁నిస్సందేహంగా	-3888
బార్	-3889
వాలా	-3890
▁బయో	-3891
▁మాట్లాడు	-3892
▁పిటిషనర్ల	-3893
▁పది	-3894
స్థాన్	-3895
▁బలహీన	-3896
ించిందని	-3897
▁మినహా	-3898
▁రూల్స్	-3899
▁లక్షలు	-3900
శ్చి	-3901
▁మృత	-3902
▁పక్షపాతం	-3903
ప్రదాయ	-3904
▁శారీ	-3905
▁అప్పటి	-3906
▁గడు	-3907
య్యారు	-3908
▁భద్రతా	-3909
ారోగ	-3910
శీ	-3911
▁ముస	-3912
▁అభ్యర్థన	-3913
▁ప్రాసిక్యూటర్	-3914
ష్టంగా	-3915
▁చేస్తూ	-3916
గమ	-3917
▁వెలుగులో	-3918
▁మృతదే	-3919
▁స్వభావ	-3920
▁పర్యవేక్షణ	-3921
▁సొంత	-3922
పబ్లిక్	-3923
▁వీలు	-3924
▁కంపెన	-3925
▁సారాం	-3926
▁పంచాయతీ	-3927
▁విషయాలలో	-3928
▁పేటెంట్	-3929
▁తగ్గింపు	-3930
▁పదోన్నతి	-3931
డియా	-3932
ల్లా	-3933
బడిందని	-3934
▁ప్రతిపాదిత	-3935
▁సర్వే	-3936
▁బీహార్	-3937
▁గమనించబడింది	-3938
▁పరికర	-3939
▁కొల	-3940
▁మూలధన	-3941
▁వివాదాన్ని	-3942
▁ఒప్పందంలో	-3943
▁ప్రారంభించిన	-3944
;,	-3945
త్యం	-3946
▁గరి	-3947
▁ఏమీ	-3948
▁పర	-3949
▁విధులు	-3950
▁దయ	-3951
▁స్క	-3952
స్వామ్యం	-3953
▁అవసరమని	-3954
▁చూపిస్తుంది	-3955
▁పేర్కొన్నాడు	-3956
▁h	-3957
▁దగ్గ	-3958
▁కారణంతో	-3959
▁మరణించినవారి	-3960
▁ప్రచురించ	-3961
▁విస్తృతంగా	-3962
▁కిలో	-3963
▁టెండర్	-3964
తరం	-3965
▁కాపీని	-3966
▁అందించడం	-3967
▁వర్తించదు	-3968
▁బాం	-3969
▁నిల్వ	-3970
క్యులర్	-3971
▁విస్మరించ	-3972
▁దాదా	-3973
▁సేవల	-3974
▁పదాలు	-3975
▁విశ్లేషణ	-3976
వైనా	-3977
▁మైదాన	-3978
▁ఛైర్మన్	-3979
▁సూత్రాలను	-3980
▁యువ	-3981
▁గడువు	-3982
▁పునరుత్పత్తి	-3983
▁ఐటి	-3984
లింగ్	-3985
కుంటుంది	-3986
▁అంగీకరి	-3987
▁పురోగతి	-3988
లియా	-3989
▁అల్	-3990
▁కుమార్తె	-3991
▁సిద్ధాంతం	-3992
▁ఏవైనా	-3993
▁అవార్డును	-3994
▁ఫిర్యాదుదారుడు	-3995
▁రం	-3996
▁అటార్	-3997
▁ప్రవేశం	-3998
రవై	-3999
నిచ్చ	-4000
▁భారీ	-4001
▁వనరుల	-4002
ారిత	-4003
లయన్స్	-4004
▁చార్జిషీట్	-4005
▁చట్టబద్ధంగా	-4006
▁భావిస్తున్నాము	-4007
▁వారస	-4008
▁షరతులు	-4009
వల్	-4010
స్సా	-4011
క్షిప్తంగా	-4012
▁నిర్వచనం	-4013
▁అవినీ	-4014
ెక్స్	-4015
▁సార్	-4016
▁గి	-4017
▁ఎకర	-4018
▁రాత్రి	-4019
చయ	-4020
డె	-4021
▁కాలే	-4022
▁నెట్	-4023
▁అభియోగాలు	-4024
in	-4025
▁నెంబర్	-4026
▁అసాధారణ	-4027
▁విశ్వస	-4028
▁రిలయన్స్	-4029
▁బ్యాల	-4030
▁నిమగ్	-4031
▁సహకారం	-4032
▁అమల్లోకి	-4033
▁ముగింపు	-4034
▁ఎక్కువగా	-4035
▁చేయలేదని	-4036
▁గుర్తించింది	-4037
పద	-4038
దండ్ర	-4039
▁ఉన్నారని	-4040
▁ద్ర	-4041
▁చౌ	-4042
రవేర్	-4043
▁సందేశ	-4044
▁అభివృద్ధికి	-4045
▁కాన్	-4046
▁అభిప్రాయపడ్డ	-4047
▁రాష్ట్రంలోని	-4048
▁శర్మ	-4049
▁పేలుడు	-4050
▁రాజ్యా	-4051
▁నెరవేర్	-4052
▁కాలు	-4053
▁బ్రా	-4054
▁పనిని	-4055
▁బాధ్యతను	-4056
▁సంస్థలకు	-4057
▁తరల	-4058
▁మెరి	-4059
▁వ్యాస	-4060
▁విభిన్న	-4061
▁తల్లిదండ్ర	-4062
▁టీ	-4063
▁నేపథ్యంలో	-4064
▁ప్రారంభంలో	-4065
▁ఎయి	-4066
▁కాపీ	-4067
▁సంతో	-4068
▁మండలి	-4069
ట్లో	-4070
▁ఆరోపించిన	-4071
▁డెవలప్	-4072
మినిస్ట్ర	-4073
▁సంస్థకు	-4074
▁శాంతి	-4075
▁ప్రతినిధి	-4076
నంలో	-4077
▁ఇంగ్	-4078
▁బ్లాక్	-4079
▁కూర్	-4080
ెన్షన్	-4081
▁అవకాశాన్ని	-4082
▁మొత్తానికి	-4083
సల్	-4084
▁మిశ	-4085
▁గాయాలు	-4086
▁ప్రముఖ	-4087
▁క్ష	-4088
కులకు	-4089
▁చేసుకున్నారు	-4090
ోన్	-4091
▁పథక	-4092
▁అటార్నీ	-4093
▁స్థలం	-4094
ించేటప్పుడు	-4095
▁తెరవ	-4096
▁మీకు	-4097
▁సేకరించిన	-4098
▁డిక్ల	-4099
▁కారణాలను	-4100
ించమని	-4101
రుగ	-4102
కాలంలో	-4103
▁అవసరాలను	-4104
▁ఇంతకుముందు	-4105
టన్	-4106
▁రాజస్థాన్	-4107
మాన్	-4108
▁యుపి	-4109
ందరికీ	-4110
రిత్ర	-4111
▁పరిష్కారం	-4112
తుడు	-4113
▁సమీప	-4114
▁లార్డ్	-4115
ించబడ్డ	-4116
▁సోదరు	-4117
వ్యాప్తంగా	-4118
ఐటి	-4119
కపోయిన	-4120
▁సంగ్రహ	-4121
▁జత	-4122
▁అసమాన	-4123
▁తెరిచి	-4124
▁వివరాలను	-4125
▁ఫోర	-4126
▁లైసెన్	-4127
▁జరిగా	-4128
▁మంత్ర	-4129
▁చరిత్ర	-4130
▁ఇప్పటి	-4131
▁అభ్యంతరం	-4132
మైతే	-4133
▁ప్రమాదం	-4134
తున్నాయి	-4135
PC	-4136
గులు	-4137
▁పదార్థాలు	-4138
▁సూచించింది	-4139
▁మొత్తంలో	-4140
▁Ex	-4141
ళ్ళు	-4142
▁అడ్వా	-4143
▁వలె	-4144
▁ఎప్పుడూ	-4145
an	-4146
▁కొట్ట	-4147
▁ప్రతిస్ప	-4148
▁పరిశీలనలు	-4149
▁మొహ	-4150
ట్రా	-4151
▁అటవీ	-4152
డవ	-4153
▁రాయ	-4154
▁విక	-4155
▁ఆంధ్ర	-4156
▁ఆసక్తిని	-4157
▁సమర్థవంతంగా	-4158
▁ప్యా	-4159
▁పెంచడానికి	-4160
▁అడ్మినిస్ట్ర	-4161
థ్	-4162
నంగా	-4163
▁పట్ల	-4164
▁దేశంలోని	-4165
▁నివేదికలో	-4166
▁రోగి	-4167
▁హోల్డర్	-4168
సిటి	-4169
▁చెల్లించాలి	-4170
▁హా	-4171
▁గాంధ	-4172
▁ప్రాంతీయ	-4173
▁నిక్షే	-4174
▁వాల	-4175
జేషన్	-4176
▁నివారణ	-4177
AC	-4178
▁ప్రార్థన	-4179
యాచరణ	-4180
▁పర్యవేక్ష	-4181
ఎమ్	-4182
▁తీసి	-4183
▁విడి	-4184
ార్ధ	-4185
▁చూపు	-4186
లికేషన్	-4187
ఫల	-4188
ొత్త	-4189
▁నోట్	-4190
▁స్కే	-4191
▁ప్లాం	-4192
ించుకునే	-4193
▁ఇదే	-4194
▁అహ్మ	-4195
▁లేవని	-4196
▁మనో	-4197
కపోయినా	-4198
కర్త	-4199
▁స్వేచ్ఛను	-4200
▁చట్టవిరుద్ధమైన	-4201
ుకోవాలి	-4202
▁దృష్టిని	-4203
▁ఉద్యోగులు	-4204
▁నగదు	-4205
▁వారసు	-4206
ూల్	-4207
▁ప్రాంగణ	-4208
▁రెండవది	-4209
▁ప్రజాస్వామ్య	-4210
▁సంపూర్ణ	-4211
▁పిలి	-4212
▁అంగీకరించింది	-4213
టె	-4214
▁దాదాపు	-4215
▁నిలిపివేయ	-4216
ైన్	-4217
▁కారు	-4218
▁కంపెనీల	-4219
▁నిపుణుల	-4220
▁పెరి	-4221
పీ	-4222
▁నాగ	-4223
▁అభినంద	-4224
▁చూపించడానికి	-4225
సిఐ	-4226
▁ఒకరు	-4227
▁టెలి	-4228
▁ఆర్డిన	-4229
▁చిత్ర	-4230
యినప్పటికీ	-4231
▁కాంట్రాక్టర్	-4232
▁కన్నా	-4233
▁సుంకం	-4234
▁అంగీకరించారు	-4235
రాలో	-4236
▁అక్రమ	-4237
ర్మేషన్	-4238
▁ఆవిష్కరణ	-4239
▁చెక్	-4240
१४	-4241
▁పోష	-4242
ప్రతి	-4243
▁కమ్యూనికేషన్	-4244
▁తయారుచే	-4245
▁కార్యాచరణ	-4246
▁పదాన్ని	-4247
▁హాని	-4248
▁o	-4249
రుకు	-4250
హత్య	-4251
దయ	-4252
▁ఏడు	-4253
టేషన్	-4254
సార	-4255
▁రహదారి	-4256
▁అవినీతి	-4257
▁పదార్థాల	-4258
▁వర్గీకరణ	-4259
▁వనరు	-4260
▁క్రమశిక్షణా	-4261
▁బెంగాల్	-4262
▁వివరణాత్మక	-4263
▁కొనసాగించడానికి	-4264
▁ఉత్పన్నమయ్యే	-4265
కొత్త	-4266
▁సూచనలు	-4267
▁షా	-4268
ేటర్	-4269
▁దీ	-4270
▁పేద	-4271
▁వర్సెస్	-4272
గానే	-4273
ేశారు	-4274
ప్తా	-4275
▁పిఎస్	-4276
పెక్టర్	-4277
▁రంగాలలో	-4278
▁[(	-4279
▁నిందితులపై	-4280
ుకో	-4281
▁అప్పీలుదారులకు	-4282
er	-4283
▁బో	-4284
▁ముసాయిదా	-4285
▁చేసుకోవాలి	-4286
▁అభిప్రాయపడ్డాము	-4287
▁కుదు	-4288
▁జాబితాలో	-4289
▁పార్లమెంటరీ	-4290
ప్ల	-4291
పోయే	-4292
▁వైఫల	-4293
▁నిర్ధారణకు	-4294
రియల్	-4295
▁చంద్ర	-4296
▁సమ్మే	-4297
▁సెక	-4298
▁ఆదేశాలను	-4299
వరణ	-4300
▁డిక్ర	-4301
▁పనిచేసే	-4302
▁అకౌ	-4303
్యానికి	-4304
▁విషయాలకు	-4305
▁చెప్పబడింది	-4306
▁వైఖ	-4307
త్రిక	-4308
లలోపు	-4309
▁ప్రదర్శన	-4310
▁నిర్వహించడం	-4311
▁నేరస్థ	-4312
▁సరళ	-4313
▁ఉపయో	-4314
▁హిందీ	-4315
▁సమస్యలు	-4316
▁పెట్టుబడ	-4317
▁చేయాల్సిన	-4318
▁సమర్పణలను	-4319
ందరూ	-4320
▁గాంధీ	-4321
▁అనారోగ	-4322
▁హౌస్	-4323
▁మృ	-4324
▁రక్త	-4325
▁భాగంలో	-4326
▁d	-4327
▁ఆమెకు	-4328
▁ఎక్కడ	-4329
▁ప్రత్యేకించి	-4330
▁సంఘం	-4331
▁అప్లికేషన్	-4332
▁నిష్పత్తి	-4333
▁పనిచేస్తున్న	-4334
▁పరిశీలనలో	-4335
▁రిజిస్టర్డ్	-4336
లేక	-4337
▁వేలం	-4338
▁స్వయంగా	-4339
▁తీసుకుంది	-4340
▁వేతన	-4341
▁తలెత్తే	-4342
▁తరగ	-4343
ించారని	-4344
▁ఏమయినప్పటికీ	-4345
▁మెరుగుపరచ	-4346
కూర్	-4347
▁స్థితిని	-4348
▁చివర	-4349
ట్రిక్	-4350
▁స్త్ర	-4351
▁బలమైన	-4352
▁సూచించే	-4353
▁ఆర్డినెన్స్	-4354
▁నిమగ్న	-4355
▁పరిస్థితిని	-4356
రాష్ట్ర	-4357
.)	-4358
గురు	-4359
▁అత్యా	-4360
▁నామిన	-4361
▁నేరుగా	-4362
శ్చిమ	-4363
▁రాజ్యాంగంలో	-4364
సార్లు	-4365
▁పదార్థం	-4366
▁వర్తించ	-4367
▁పరిమిత	-4368
▁చెందుతున్న	-4369
▁చేసినప్పుడు	-4370
▁ఆంధ్రప్రదేశ్	-4371
▁అంశాలు	-4372
▁వడ్డీని	-4373
▁తీసుకుంట	-4374
▁ఇంటికి	-4375
▁దేశీయ	-4376
▁అన్యాయ	-4377
▁విలీ	-4378
▁కౌంటర్	-4379
▁సందర్భాలలో	-4380
▁పడ	-4381
▁మతం	-4382
▁ఆహ్వ	-4383
▁తేల్చ	-4384
▁కేడర్	-4385
▁మోసం	-4386
▁సిపిసి	-4387
▁రాజ్	-4388
▁స్పీక	-4389
▁చేసినందుకు	-4390
▁తేదీకి	-4391
▁ఆచరణ	-4392
▁తీసుకొని	-4393
▁గుప్తా	-4394
▁్	-4395
▁జనాభా	-4396
▁పట్టణ	-4397
▁ఇంజనీర్	-4398
▁ఇన్ఫర్మేషన్	-4399
▁ప్రమోషన్	-4400
▁వ్యక్తులను	-4401
ంబై	-4402
▁పదార్ధ	-4403
▁నియమాలను	-4404
▁ఇవ్వలేదు	-4405
▁జంతు	-4406
▁మునిసిపల్	-4407
▁సర్క్యులర్	-4408
▁గ్	-4409
దులు	-4410
▁వాడ	-4411
▁త్వర	-4412
▁ఆస్తుల	-4413
▁ఏజెంట్	-4414
యేట్	-4415
IC	-4416
▁డాక్	-4417
ట్రాని	-4418
▁కస్టమ్స్	-4419
▁వేధ	-4420
▁మద్రాస్	-4421
▁సంభా	-4422
ించడాన్ని	-4423
▁చెప్పినట్లుగా	-4424
▁పఠ	-4425
▁చేయదు	-4426
▁సాక్షులను	-4427
▁ప్రొసీడింగ్	-4428
▁MC	-4429
▁మార్గం	-4430
▁ఏకపక్షంగా	-4431
▁నోస్	-4432
▁అక్ష	-4433
▁ప్లాట్	-4434
▁అన్వే	-4435
▁స్పీకర్	-4436
మవు	-4437
▁టాడా	-4438
▁ఇంజనీరింగ్	-4439
న్యు	-4440
▁నిజంగా	-4441
ండు	-4442
▁వివాదాలను	-4443
##	-4444
ందరి	-4445
క్యా	-4446
▁ఆధారం	-4447
ించవలసి	-4448
▁చర్యను	-4449
▁సెంటర్	-4450
▁ఇప్పటివరకు	-4451
▁చర్యకు	-4452
ౌన్	-4453
▁ఉపయోగి	-4454
▁రిపబ్లిక్	-4455
రుష	-4456
గ్రీ	-4457
▁పనికి	-4458
▁విశ్వాసం	-4459
▁డిక్లరేషన్	-4460
▁వైడ్	-4461
▁ప్రయోజనాలు	-4462
▁వ్యవహరి	-4463
▁డిక్రీని	-4464
▁ఉద్దేశపూర్వకంగా	-4465
▁ముంబై	-4466
▁వాదనలు	-4467
విధ్య	-4468
▁ఇతరు	-4469
▁ఫ్లా	-4470
▁వీటిలో	-4471
▁గుర్తుంచ	-4472
▁ఫలితం	-4473
ెక్ట	-4474
▁విధమైన	-4475
▁పదవ	-4476
పన్ను	-4477
▁ఉగ్ర	-4478
▁రెండూ	-4479
హో	-4480
రపు	-4481
డెన్స్	-4482
▁మాదిరి	-4483
▁పశ్చిమ	-4484
▁చెల్లించే	-4485
బడ్డ	-4486
▁జీతం	-4487
▁ఈక్వి	-4488
మ్ము	-4489
▁ump	-4490
▁ఆధారిత	-4491
▁ప్రాంతాలలో	-4492
ప్పున	-4493
▁చొప్పున	-4494
▁అతనిపై	-4495
▁షధ	-4496
వేత్త	-4497
▁తీసుకుంటే	-4498
▁భాగంగా	-4499
▁నియామకానికి	-4500
▁చంప	-4501
▁బలో	-4502
▁తెచ్చ	-4503
▁సమి	-4504
▁పిటిషన్లు	-4505
▁అత్యంత	-4506
LP	-4507
▁అప్పీలుదారుకు	-4508
గవ	-4509
▁ఆశ	-4510
▁జవా	-4511
ంలోకి	-4512
▁జరుగుతుంది	-4513
సమైన	-4514
▁వెళ్ల	-4515
▁తీసుకోవడానికి	-4516
▁చూసు	-4517
▁అభ్యాస	-4518
▁తీర్పులు	-4519
▁వినియోగదారుల	-4520
▁వ్యవస్థాప	-4521
▁విధానానికి	-4522
ంట్	-4523
▁xx	-4524
▁చేసుకునే	-4525
▁సమానత్వం	-4526
▁బలోపే	-4527
▁అనుసరించి	-4528
పిటల్	-4529
ానుసారం	-4530
▁శారీరక	-4531
▁శ్రేయస్సు	-4532
▁భూభాగ	-4533
▁ప్రమాణాలను	-4534
▁కంటి	-4535
▁లక్షల	-4536
▁తీసుకెళ్ల	-4537
▁బ్యాలెన్స్	-4538
▁మరొకటి	-4539
▁సమతుల	-4540
▁చేరుకున్న	-4541
ిస్తారు	-4542
▁మార్చడానికి	-4543
▁ఉద్భవ	-4544
▁ఖచ్చితమైన	-4545
▁......	-4546
▁పిలుపు	-4547
▁మొక్క	-4548
▁మిలియన్	-4549
▁సూత్రాలు	-4550
▁శరీర	-4551
▁షరతుల	-4552
▁సిఆర్	-4553
▁గెజిట్	-4554
▁ట్రేడ్	-4555
▁వాయిదా	-4556
▁సమావేశంలో	-4557
▁ఇన్వ	-4558
▁వీటిని	-4559
▁ఈక్విటీ	-4560
▁తీర్పుకు	-4561
▁మనకు	-4562
▁ట్రాన్స్	-4563
▁ఎలక్ట్రాని	-4564
▁తీసుకువె	-4565
రిన	-4566
మితి	-4567
నైటెడ్	-4568
▁బలోపేతం	-4569
త్సాహ	-4570
▁బహుళ	-4571
▁జవాబు	-4572
▁నిర్వచన	-4573
▁సిద్ధంగా	-4574
▁ప్రతినిధ	-4575
▁కొనుగోలుదారు	-4576
▁పద్ధతి	-4577
▁మరణశిక్షను	-4578
▁న్యాయస్థానాల	-4579
ంటెంట్	-4580
▁స్టేట్స్	-4581
▁సాధించడానికి	-4582
▁గుర్తించబడింది	-4583
▁ఉంచారు	-4584
▁డ్రైవర్	-4585
▁సమానం	-4586
▁చెప్పారు	-4587
▁ప్రదేశంలో	-4588
▁అబ్	-4589
▁ప్రభావానికి	-4590
ంపై	-4591
▁దూర	-4592
ప్రెస్	-4593
▁మేనేజ్	-4594
ించకపోతే	-4595
▁ప్రైవేటు	-4596
▁రాయితీ	-4597
▁లాభాలు	-4598
▁ఛార్జీలు	-4599
▁మోస	-4600
▁ఉంటారు	-4601
▁స్థాపించబడిన	-4602
త్తా	-4603
మిక్	-4604
▁చర్యలలో	-4605
భ్ర	-4606
▁ఓర్స్	-4607
సంక్షిప్తంగా	-4608
జిత్	-4609
▁ఏమిటి	-4610
▁క్రూర	-4611
▁కంప్యూ	-4612
▁టాక్స్	-4613
▁కనిపిస్తుంది	-4614
కోవాలి	-4615
▁SCR	-4616
లంబ	-4617
▁యూ	-4618
ాలయంలో	-4619
▁వినియోగించుకోవ	-4620
▁చట్టాలను	-4621
▁పునరుద్ధరించ	-4622
▁అస్స	-4623
డ్ర	-4624
నీయంగా	-4625
▁అనుమతించబడ	-4626
▁రిఫరెన్స్	-4627
▁వినో	-4628
▁అధిగమ	-4629
▁చేర	-4630
▁బరువు	-4631
▁దళ	-4632
▁అనుమతించబడదు	-4633
తాడు	-4634
▁వైవిధ్య	-4635
▁ఆధారపడింది	-4636
సో	-4637
▁నమ్మకం	-4638
▁ప్రావి	-4639
▁పార్టీకి	-4640
▁ప్రకటనలు	-4641
లేదా	-4642
▁సెక్ర	-4643
టిన	-4644
డ్స్	-4645
వులు	-4646
▁చట్టవిరుద్ధం	-4647
▁పెట్టడానికి	-4648
▁మైనర్	-4649
▁ఆస్తికి	-4650
▁ఉదాహరణకు	-4651
▁ప్రభుత్వాలు	-4652
▁అవలంబ	-4653
▁పరిగణించింది	-4654
▁చదరపు	-4655
▁నివసి	-4656
▁బంధువు	-4657
▁ప్రకటనలో	-4658
▁రిపోర్ట్	-4659
RA	-4660
క్షిప్త	-4661
ేజ్	-4662
కార్	-4663
▁రిజ	-4664
▁ఎస్సీ	-4665
▁వ్యాధి	-4666
▁స్కేల్	-4667
▁భూస్వామి	-4668
▁ఒప్పందాలు	-4669
▁నియంత్రించ	-4670
టర్లు	-4671
▁వ్యక్తులకు	-4672
రాని	-4673
▁టర్	-4674
▁సామగ్	-4675
▁పునరాలో	-4676
▁ఉదయం	-4677
▁సూచించబడింది	-4678
భూ	-4679
జీని	-4680
ష్యూ	-4681
▁సాను	-4682
యాత్మక	-4683
▁కొరకు	-4684
▁గౌరవనీయ	-4685
▁యునైటెడ్	-4686
▁వివరించిన	-4687
ంజ్	-4688
రుగైన	-4689
▁నిబంధనలో	-4690
▁పునరాలోచన	-4691
▁కోర్టుల	-4692
▁పురుష	-4693
బైల్	-4694
▁మోప	-4695
▁నెరవేర్చ	-4696
▁అనువ	-4697
సాద్	-4698
▁రిట	-4699
తతో	-4700
▁కొనసాగింపు	-4701
▁తీసుకురావడానికి	-4702
స్తాన్	-4703
SC	-4704
▁ఎందుకు	-4705
కత్వం	-4706
▁అధికారులకు	-4707
రమైన	-4708
▁ఇరు	-4709
▁సంభవించిన	-4710
▁అధికారికి	-4711
▁అనుమతించింది	-4712
▁మెరుగైన	-4713
▁డిజి	-4714
▁చిక్కు	-4715
▁నివాసి	-4716
▁వంటివి	-4717
▁సంతృప్	-4718
వాస	-4719
▁కామ	-4720
నాన్ని	-4721
ళనం	-4722
▁అస్ప	-4723
▁నొక్కిచెప్ప	-4724
మూల	-4725
▁పునరా	-4726
▁సంభావ	-4727
▁టైటిల్	-4728
శు	-4729
భాయ్	-4730
▁సిస్ట	-4731
▁సహాయక	-4732
▁పరిశీలించడానికి	-4733
హన్	-4734
▁గది	-4735
▁చేయలేము	-4736
▁ఉత్తర్వులలో	-4737
▁ప్రత్యక్షంగా	-4738
ంటీ	-4739
కరంగా	-4740
▁జతచేయ	-4741
▁c	-4742
▁ఒత్తి	-4743
బిట్	-4744
▁విడ	-4745
▁కోట్	-4746
▁జీవితం	-4747
▁నిషేధం	-4748
▁కేసుకు	-4749
▁నిర్ణీత	-4750
ించాడని	-4751
▁వాస్తవాలపై	-4752
▁సమ్మేళనం	-4753
▁నిందితులకు	-4754
▁డీల	-4755
▁అడుగు	-4756
▁బలవంతం	-4757
▁విధిని	-4758
▁ఉంచబడింది	-4759
▁వ్యాఖ్యానం	-4760
గతంగా	-4761
▁సర్వీసెస్	-4762
సిన్	-4763
ునిక	-4764
▁విలీనం	-4765
టిక్	-4766
▁స్నేహ	-4767
▁దానిలో	-4768
▁లక్షణాలు	-4769
షా	-4770
లైట్	-4771
వేసే	-4772
▁అత్యు	-4773
▁దారితీస్తుంది	-4774
తాయని	-4775
ించవచ్చని	-4776
▁పత్రాల	-4777
▁ఫైనాన్	-4778
▁ఆరోగ్యం	-4779
▁పర్	-4780
▁ఇకపై	-4781
▁రకమైన	-4782
▁చెప్పడం	-4783
▁కట్	-4784
▁శిక్షాస్మ	-4785
్వి	-4786
▁నేరపూరిత	-4787
దైన	-4788
▁ఎవర	-4789
▁విశ్వసనీయ	-4790
లమైన	-4791
▁ఫార	-4792
మ్మల్	-4793
▁umption	-4794
▁సేకరించ	-4795
III	-4796
▁టైగర్	-4797
▁గాయపడిన	-4798
▁దరఖాస్తుదారు	-4799
▁ధో	-4800
▁పేపర్	-4801
ించబడుతుందని	-4802
▁వినికి	-4803
▁లేనందున	-4804
▁అసమర్థ	-4805
నింది	-4806
పడ్డాడు	-4807
▁కుమారుడు	-4808
▁రాజ్యాంగాన్ని	-4809
▁లోక్	-4810
▁ఆస్తులను	-4811
▁గణనీయంగా	-4812
▁శాస్త్రీయ	-4813
▁సంప్రదింపు	-4814
▁ఇన్స్పెక్టర్	-4815
▁చెల్లించడానికి	-4816
టీస్	-4817
డినేట్	-4818
▁దేశాల	-4819
లేకపో	-4820
▁వాస్తవాల	-4821
▁సూచిస్తారు	-4822
▁ఉద్యోగులకు	-4823
▁నిందితుడిని	-4824
ౌండ్	-4825
ఛే	-4826
▁సూచించడం	-4827
▁ఆధారపడ్డారు	-4828
హద్దు	-4829
▁సృష్టి	-4830
▁నిర్ణయించింది	-4831
▁పరిశీలించింది	-4832
ంభ	-4833
▁పీ	-4834
▁బట్టి	-4835
స్తాయని	-4836
▁అధ్యాయ	-4837
▁ప్లాంట్	-4838
▁విధించడం	-4839
▁క్రై	-4840
▁చెక్కు	-4841
▁కనిపించే	-4842
బ్ద	-4843
▁ఆర్బి	-4844
▁జీవితాన్ని	-4845
▁గార్	-4846
▁ధర్మ	-4847
▁ఇష్యూ	-4848
▁నైపుణ్యం	-4849
▁తీసుకున్నారు	-4850
▁ఫిర్యాదుదారు	-4851
చల్	-4852
▁చిరు	-4853
▁స్థానంలో	-4854
▁బై	-4855
▁సుద	-4856
▁గుర్తించబడిన	-4857
షిప్	-4858
▁పదే	-4859
▁పరిధికి	-4860
▁సరిహద్దు	-4861
ిస్తూ	-4862
▁ఎయిర్	-4863
▁ఉనికిలో	-4864
▁అసెస్సింగ్	-4865
▁ఎక్స్ఛే	-4866
▁ప్రోగ్ర	-4867
▁పొందవచ్చు	-4868
▁ఉపసంహరించుకోవ	-4869
▁రోజువారీ	-4870
త్సవం	-4871
▁ఇవ్వవచ్చు	-4872
▁ఉన్నట్లుగా	-4873
▁కనుగొన్నాము	-4874
▁పరిహారాన్ని	-4875
ంగి	-4876
▁ముడి	-4877
▁నేరాలు	-4878
▁వైకల్యం	-4879
▁దోషులుగా	-4880
▁హృ	-4881
రాజ్య	-4882
▁బాధ్యతలు	-4883
▁లాభం	-4884
▁గమనించవచ్చు	-4885
▁ఉపయోగించుకోవ	-4886
▁గురి	-4887
▁సేవకు	-4888
▁భూమికి	-4889
త్రా	-4890
లుసు	-4891
ానెల్	-4892
▁పిలవ	-4893
▁దానితో	-4894
▁అంగీకరించడం	-4895
▁సభ్య	-4896
▁ల్యాండ్	-4897
▁ఉద్దేశం	-4898
▁పారవేయడం	-4899
ాలం	-4900
▁శరీరం	-4901
▁మెమోరా	-4902
▁సున్ని	-4903
▁మధ్యప్రదేశ్	-4904
దార్	-4905
▁విశ్లేష	-4906
▁ఫైనాన్స్	-4907
్యంగా	-4908
ించినందుకు	-4909
▁నిర్మాణాన్ని	-4910
▁శిక్షాస్మృతి	-4911
▁ప్రదానం	-4912
వుల	-4913
▁లేదో	-4914
▁డాక్యు	-4915
▁ప్రచురణ	-4916
▁తిప్ప	-4917
▁వేయడం	-4918
▁నిర్ణయంపై	-4919
▁ఒరి	-4920
▁డ్రా	-4921
▁తీర్పుపై	-4922
▁బాధ్యతలను	-4923
డటానికి	-4924
▁ఆహ్వానించ	-4925
▁సరిపోతుంది	-4926
es	-4927
ఖిక	-4928
వాసం	-4929
▁నిధుల	-4930
▁ప్రయాణ	-4931
క్పథ	-4932
▁చూపిన	-4933
▁ఎదుర్కొంటున్న	-4934
▁చేస్తున్నప్పుడు	-4935
▁దీర్ఘ	-4936
▁వినికిడి	-4937
స్తున్నాయి	-4938
స్వాము	-4939
▁నిజం	-4940
▁దావాలో	-4941
▁దృక్పథ	-4942
▁వర్గీకరించ	-4943
▁పరిస్థితులకు	-4944
▁మహా	-4945
▁ఆడిట్	-4946
▁డబ్బును	-4947
▁ధిక్కార	-4948
▁పరిరక్ష	-4949
▁in	-4950
▁ప్రకా	-4951
▁దివాలా	-4952
▁బ్యాంకులు	-4953
▁ఒప్పందానికి	-4954
DA	-4955
▁కార్యక్రమం	-4956
▁నిర్దేశిస్తుంది	-4957
▁IV	-4958
▁సంభ	-4959
ఒక	-4960
१५	-4961
▁దుకా	-4962
▁పురస్	-4963
▁సూచించడానికి	-4964
డిప	-4965
▁విజ్ఞప్తు	-4966
▁ముఖ్యమంత్రి	-4967
ల్టీ	-4968
్వర్	-4969
▁కోట్ల	-4970
▁రెండింటి	-4971
▁వర్తిస్తాయి	-4972
ాత్ర	-4973
▁మౌఖిక	-4974
▁నిర్లక్ష్యం	-4975
▁సమాజంలో	-4976
▁లైసెన్సు	-4977
ed	-4978
ేష	-4979
▁షీ	-4980
▁ఒకదాని	-4981
▁సాంప్రదాయ	-4982
▁భారతదేశంలోని	-4983
నరీ	-4984
▁కృషి	-4985
▁పుట్ట	-4986
ేటప్పుడు	-4987
▁తలెత్తు	-4988
ాప్టర్	-4989
▁ఉంచడం	-4990
▁నిలుపు	-4991
▁చేయబడలేదు	-4992
▁న్యాయవాదులు	-4993
రె	-4994
కిల్	-4995
బల	-4996
▁బ్యాంకింగ్	-4997
▁ఇవ్వబడ్డాయి	-4998
ండం	-4999
▁నివస	-5000
▁పేరిట	-5001
స్రా	-5002
▁ఉత్పాద	-5003
▁ప్రదేశం	-5004
తనం	-5005
▁కర్మ	-5006
▁వర్ణ	-5007
▁విభజ	-5008
▁కాలేదు	-5009
▁ప్రమాణం	-5010
▁వేధింపు	-5011
వేద	-5012
వేసిన	-5013
▁వ్యవస్థను	-5014
కరం	-5015
▁భయ	-5016
▁విభా	-5017
▁తక్కువగా	-5018
ర్చ్	-5019
▁మతపరమైన	-5020
▁అనవసరమైన	-5021
భు	-5022
▁CA	-5023
▁xxx	-5024
▁వలన	-5025
▁భారం	-5026
▁ప్రభావిత	-5027
▁షి	-5028
▁డీడ్	-5029
▁త్వరగా	-5030
గుల	-5031
యనం	-5032
వ్యూ	-5033
▁అంతర్గత	-5034
▁కనుగొనబడింది	-5035
▁ఎడి	-5036
▁పాల్పడ	-5037
▁పూర్తయిన	-5038
▁పెరుగుదల	-5039
▁ప్రయత్నాలు	-5040
▁సోదరుడు	-5041
ాతన	-5042
▁సైట్	-5043
డల	-5044
▁ఇష్టపడ	-5045
▁విస్తరణ	-5046
▁సముచితం	-5047
▁సలహ	-5048
▁పదవికి	-5049
▁వ్యాపారాన్ని	-5050
▁డీలర్	-5051
▁అధ్యయనం	-5052
బడు	-5053
వాన్	-5054
▁తార్	-5055
▁ఫలితాలను	-5056
మరి	-5057
▁విస్తృతమైన	-5058
▁మించిన	-5059
▁రోజులు	-5060
▁పరిశీలిస్తే	-5061
ణ్	-5062
లిసి	-5063
ెస్టి	-5064
టర్స్	-5065
త్తిని	-5066
శ్చ	-5067
విత్ర	-5068
▁మందు	-5069
▁కంపెనీలు	-5070
▁నియామకాలు	-5071
▁బ్రి	-5072
▁సేకరణ	-5073
మైనదిగా	-5074
కున్నాడు	-5075
ించినట్లయితే	-5076
▁నిర్ణయించడం	-5077
▁పాల్పడినట్లు	-5078
ాన్స	-5079
లలోని	-5080
▁లావాదేవ	-5081
▁ఇంధ	-5082
▁దేవి	-5083
▁అభ్యర్థుల	-5084
▁తీసుకోవలసిన	-5085
▁పేర్కొనబడింది	-5086
▁పరిరక్షణ	-5087
▁సముద్ర	-5088
త్వానికి	-5089
▁పాయింట్	-5090
బార్డినేట్	-5091
▁తగ్గించడం	-5092
▁వచ్చినప్పుడు	-5093
▁నిర్వాహ	-5094
▁విషయానికి	-5095
▁ప్రతికూలంగా	-5096
▁చేయడాన్ని	-5097
▁నియంత్రించే	-5098
▁చేసుకోవటానికి	-5099
ళూరు	-5100
▁కృష్ణ	-5101
▁సర్దు	-5102
▁చేస్తాయి	-5103
▁తొలగించడం	-5104
▁ప్రత్యామ్నాయం	-5105
▁కర	-5106
▁ఏర్పా	-5107
▁ప్రాసె	-5108
▁ఫ్యా	-5109
▁పిలువ	-5110
▁రోజున	-5111
▁లేఖను	-5112
▁ప్రకటించింది	-5113
ెక్ట్	-5114
▁సంబంధాలు	-5115
▁పొడిగింపు	-5116
▁నిర్దోషులుగా	-5117
▁వ్యక్తీకరించ	-5118
▁ప్రసంగ	-5119
▁తొలగించడానికి	-5120
▁ప్రొసీడింగ్స్	-5121
▁ప్రత్యామ్నాయంగా	-5122
ar	-5123
▁ఆటో	-5124
▁మార్కె	-5125
▁మృతదేహ	-5126
▁మార్చడం	-5127
ఖండ్	-5128
▁ప్రశ్నలు	-5129
▁సభ్యులకు	-5130
▁నివారించడానికి	-5131
ంచర్	-5132
▁సంతోష	-5133
▁ఆధునిక	-5134
);	-5135
కైన	-5136
▁వివాదాల	-5137
▁చెల్లించాలని	-5138
▁xad	-5139
మ్మల్ని	-5140
▁స్త్రీ	-5141
▁ప్రతిస్పందన	-5142
▁విజ్ఞప్తులు	-5143
▁సబార్డినేట్	-5144
పరింట	-5145
నాత్మక	-5146
▁పెట్రో	-5147
-0	-5148
▁జరిగాయి	-5149
దిద్ద	-5150
▁దినో	-5151
▁భాగస్వామ్య	-5152
రాదని	-5153
▁సైన్స్	-5154
▁SLP	-5155
▁డిస్	-5156
▁పవర్	-5157
▁నుంచి	-5158
▁పిల్లలు	-5159
▁తీర్చడానికి	-5160
▁హృదయ	-5161
▁ఆయుధాలు	-5162
పులు	-5163
▁రిటర్	-5164
▁సూపరింట	-5165
▁నేర్చుకున్నారు	-5166
ొట్ట	-5167
▁వారిలో	-5168
▁ఉగ్రవాద	-5169
▁ప్రోత్సాహ	-5170
▁భాగస్వామి	-5171
నియ	-5172
నియో	-5173
▁గురు	-5174
▁పత్రాన్ని	-5175
▁నింప	-5176
▁ఫారం	-5177
▁శ్రద్ధ	-5178
▁వైఫల్యం	-5179
▁రెగ్యులేషన్స్	-5180
▁పిటిషన్లను	-5181
డిఎ	-5182
చుగా	-5183
ించినప్పటికీ	-5184
▁పరిస్థితిలో	-5185
▁సంబంధించినవి	-5186
▁సమన్వ	-5187
ళి	-5188
▁పాస్	-5189
నేషనల్	-5190
▁నమూనా	-5191
▁తార్కి	-5192
▁సమర్పణను	-5193
▁క్లు	-5194
▁విజ్ఞప్తిని	-5195
▁ఫోర్	-5196
▁ఎని	-5197
దవ	-5198
ృతం	-5199
▁పరో	-5200
▁భావించే	-5201
▁పునరావ	-5202
▁అనుమతించ	-5203
▁చేయకపోతే	-5204
▁న్యాయవాదిని	-5205
▁క్యూ	-5206
ాన్సలర్	-5207
▁ఉనికిని	-5208
▁తిరస్కరించింది	-5209
▁జాయింట్	-5210
▁పరీక్షలో	-5211
▁అణచి	-5212
▁వెళ్లి	-5213
▁శత్ర	-5214
▁పరిజ్ఞానం	-5215
▁అనుసంధానించబడిన	-5216
▁క్షీ	-5217
▁తిప్పిక	-5218
కపోవ	-5219
దేశం	-5220
▁క్రీ	-5221
▁పరీక్షను	-5222
▁చెప్పవచ్చు	-5223
కలు	-5224
కస్	-5225
▁అలీ	-5226
▁నిక్షేపణ	-5227
▁ప్రయోజనానికి	-5228
▁దారితీసింది	-5229
బల్	-5230
▁ఎడ	-5231
▁అవసరాలు	-5232
▁ఆం	-5233
▁m	-5234
▁సంచ	-5235
▁విస్తీర్	-5236
▁సంవత్సరాలకు	-5237
▁తీసుకోవటానికి	-5238
▁చూశ	-5239
ిందనే	-5240
▁కావు	-5241
▁కేటగి	-5242
▁తరచుగా	-5243
▁సంస్థను	-5244
్యూషన్	-5245
▁ఫోరమ్	-5246
▁ప్రశ్నార్థ	-5247
▁స్మ	-5248
▁వ్యవహారాల	-5249
పిఎస్	-5250
▁కంట్రో	-5251
▁లభిస్తుంది	-5252
▁ప్రాక్	-5253
▁కుటుంబం	-5254
▁లలో	-5255
▁వాంగ్	-5256
▁మాట్లాడుతూ	-5257
ల్డింగ్	-5258
▁చేసేటప్పుడు	-5259
▁ప్రయోజనాలకు	-5260
▁అంగీకరించడానికి	-5261
గల్	-5262
▁ఎవి	-5263
▁విఫలమైన	-5264
▁రంగం	-5265
▁పదవీక	-5266
▁సమాధాన	-5267
▁ఐదే	-5268
ార్జ్	-5269
▁వ్యయ	-5270
▁నిర్ధారి	-5271
al	-5272
▁వర్గాల	-5273
▁అనుబంధం	-5274
▁తీర్పులను	-5275
▁సమాజానికి	-5276
వేత	-5277
యుక్త	-5278
▁ప్రాప్యత	-5279
▁తగ్గించడానికి	-5280
ారనే	-5281
▁కలక	-5282
▁ఫై	-5283
పాలిత	-5284
▁ఐక్య	-5285
▁పరోక్ష	-5286
▁మంత్రుల	-5287
▁నిరూపించడానికి	-5288
▁అగ్	-5289
▁కాపా	-5290
▁బయలు	-5291
్రూ	-5292
▁మైదానంలో	-5293
▁అర్ధాన్ని	-5294
లాల్	-5295
▁మనీ	-5296
▁పునా	-5297
మెంటల్	-5298
▁సంరక్ష	-5299
▁అర్ధంలో	-5300
▁సంఖ్యను	-5301
▁వాదికి	-5302
▁విరుద్ధం	-5303
▁పేర్కొనడం	-5304
▁భారతదేశానికి	-5305
▁ఎవరు	-5306
▁కత్తి	-5307
▁గరిష్ట	-5308
▁ఆస్తులు	-5309
▁క్రమబద్ధ	-5310
దృష్ట	-5311
▁ప్రసాద్	-5312
▁సంస్థలను	-5313
▁ఉద్యోగ	-5314
▁స్టాక్	-5315
▁అవసరాలకు	-5316
▁క్రమాన్ని	-5317
▁సంక్షిప్త	-5318
▁కష్టం	-5319
▁పొందారు	-5320
▁వివాదాలు	-5321
ధు	-5322
▁త్	-5323
సంస్థ	-5324
▁డిగ్రీ	-5325
▁రిమాండ్	-5326
▁పడి	-5327
▁ఆక్సాడ్	-5328
▁పనితీరును	-5329
నామ	-5330
▁కన	-5331
ట్లను	-5332
▁బాల్య	-5333
▁కార్డు	-5334
▁ఫిర్యాదును	-5335
▁IS	-5336
▁అసాధారణమైన	-5337
▁ప్రాసెసింగ్	-5338
▁ప్రాముఖ్యతను	-5339
▁నూ	-5340
▁నాల్	-5341
▁పారదర్శ	-5342
▁సరిదిద్ద	-5343
▁చని	-5344
పరంగా	-5345
▁ప్రమే	-5346
▁మేనేజర్	-5347
▁దృష్టికి	-5348
▁గుర్తించడం	-5349
ీష్ట	-5350
్యార	-5351
▁అద్	-5352
▁సురక్షితమైన	-5353
▁అవా	-5354
▁అభీష్ట	-5355
▁గుర్తించారు	-5356
▁ఎన్నుకో	-5357
▁కేంద్రపాలిత	-5358
▁నాశ	-5359
▁ఇచ్చాడు	-5360
▁విభాగాలు	-5361
▁పార్టీలకు	-5362
▁ఘో	-5363
కుని	-5364
వాల్	-5365
▁వ్యయం	-5366
▁అన్వేషణ	-5367
▁సంతృప్తిక	-5368
▁సూచించారు	-5369
▁స్వభావాన్ని	-5370
▁వేతనం	-5371
▁ప్రతివాదిని	-5372
▁భవిష్యత్తులో	-5373
▁క్లియ	-5374
▁మెరిట్	-5375
ాలనుకుంటున్న	-5376
▁ప్రకటించారు	-5377
▁అభీష్టానుసారం	-5378
▁భారత్	-5379
▁ప్రకృతి	-5380
▁నిర్దేశి	-5381
▁బాధితుడు	-5382
జీవ	-5383
ద్దీ	-5384
▁భయం	-5385
▁ధోరణ	-5386
▁రాయ్	-5387
▁సిద్ధం	-5388
▁ఆత్మహత్య	-5389
▁సమయానికి	-5390
▁కావడానికి	-5391
▁ఇరవై	-5392
పరిచే	-5393
▁సాధ్య	-5394
▁వివాదానికి	-5395
మ్మద్	-5396
▁లేబర్	-5397
▁విషయాల	-5398
▁వినియోగం	-5399
▁చెప్పింది	-5400
▁)	-5401
▁PW	-5402
▁చివరకు	-5403
▁వారిపై	-5404
▁హైలైట్	-5405
ించాల్సి	-5406
▁అభ్యాసం	-5407
▁వ్యక్తిగతంగా	-5408
▁తెగ	-5409
▁హేతు	-5410
▁ఇంట్లో	-5411
▁వర్తింపజే	-5412
▁పాక్షికంగా	-5413
▁కొట్టివేయబడింది	-5414
▁ఇంట	-5415
డెన్	-5416
వేర్	-5417
▁ఓటు	-5418
▁అబ్దు	-5419
▁ప్రసారం	-5420
▁ఇప్పటికీ	-5421
▁చాప్టర్	-5422
▁వివరంగా	-5423
▁ధృవీకరించింది	-5424
▁లబ్	-5425
▁మెమన్	-5426
▁ఎవరైనా	-5427
▁క్రమంలో	-5428
▁వారసత్వ	-5429
▁చేయబడు	-5430
▁కేటగిరీ	-5431
▁వచ్చారు	-5432
▁వార్త	-5433
▁కర్మాగ	-5434
▁సంకల్ప	-5435
దీయ	-5436
కున్నారు	-5437
▁పరిమాణం	-5438
▁స్థానాన్ని	-5439
▁ఒకరి	-5440
డుతుంది	-5441
▁డ్యూటీ	-5442
▁తెలిసిన	-5443
▁తాము	-5444
▁విడా	-5445
▁ఎవిడెన్స్	-5446
▁ఆల్	-5447
▁విప	-5448
▁ఆసుపత్రికి	-5449
మీర్	-5450
▁మొదటిసారి	-5451
ఇన్	-5452
▁బయటకు	-5453
ంగానికి	-5454
లిసిటర్	-5455
▁విఫలమైతే	-5456
▁పెట్టి	-5457
▁అవసరమైతే	-5458
స్కృ	-5459
▁అమె	-5460
▁సమాజంలోని	-5461
▁t	-5462
సీదు	-5463
▁మొబైల్	-5464
▁అధికారాల	-5465
▁భిన్నమైన	-5466
▁సర్దుబాటు	-5467
జీల	-5468
ామని	-5469
బడాలి	-5470
▁విద్యను	-5471
బడితే	-5472
▁జ్ఞాన	-5473
▁నేరాల	-5474
ించదగినది	-5475
▁దరఖాస్తులను	-5476
▁అప్పీలుదారుపై	-5477
▁అద్భు	-5478
▁అనువర్తన	-5479
▁ఎక్స్ఛేంజ్	-5480
చయిత	-5481
▁చేతి	-5482
▁సంస్కృ	-5483
▁క్లుప్తంగా	-5484
ఫిక్	-5485
కేషన్	-5486
ic	-5487
▁ఫిర్యాదుదారుడి	-5488
డైన	-5489
స్కృతిక	-5490
▁ఖాన్	-5491
▁హోదా	-5492
▁భవిష్యత్	-5493
▁తల	-5494
▁సారాంశం	-5495
▁అంశాన్ని	-5496
▁దర్యాప్తులో	-5497
రప	-5498
హే	-5499
▁PAR	-5500
▁ఆఫర్	-5501
▁క్వ	-5502
▁మైనా	-5503
ించబడుతున్న	-5504
▁IA	-5505
ెంట్లు	-5506
▁ఆలస్య	-5507
కిలీ	-5508
▁ఫెడ	-5509
గ్రా	-5510
▁దగ్గర	-5511
▁లిక్వి	-5512
▁నష్టాన్ని	-5513
▁రాల	-5514
▁ఎడ్యు	-5515
▁దేశాలలో	-5516
▁ప్రొఫెసర్	-5517
▁స్థాపించడానికి	-5518
▁పదాలను	-5519
▁పవిత్ర	-5520
ేదైనా	-5521
▁వాయు	-5522
▁సుదీర్ఘ	-5523
మం	-5524
ొంగి	-5525
చట్టం	-5526
▁కుడి	-5527
▁టన్ను	-5528
▁హోటల్	-5529
▁స్వీకరించిన	-5530
సియా	-5531
నిర్మాణ	-5532
▁ిల్లీలోని	-5533
ృతిలో	-5534
▁ఆంగ్	-5535
▁వైస్	-5536
▁సంపద	-5537
▁అడ్డం	-5538
▁హక్కుదారు	-5539
▁కార్యక్రమాలు	-5540
▁అహ్మద్	-5541
▁పాత్రను	-5542
▁మెమోరాండం	-5543
▁తిప్పికొట్ట	-5544
▁శతా	-5545
▁రంగు	-5546
▁రచయిత	-5547
▁మైనారిటీ	-5548
▁సూపరింటెండ	-5549
ిందో	-5550
మరియు	-5551
▁ఆమోదించబడిన	-5552
ప్పుడైనా	-5553
▁కార్మికుల	-5554
శో	-5555
▁ఫ్రే	-5556
క్షంలో	-5557
▁ప్రమాణాలు	-5558
బద్ద	-5559
▁ముస్	-5560
▁వాగ్	-5561
▁వివే	-5562
▁లబ్ధి	-5563
▁పారామి	-5564
▁సూత్రాల	-5565
▁పఠనం	-5566
▁సులభతరం	-5567
▁ఫు	-5568
పరిహ	-5569
▁వెళ	-5570
చ్ఛిక	-5571
▁ఏర్పడ	-5572
అప్పీలు	-5573
చిపెట్ట	-5574
▁వికలాం	-5575
▁వివాదంలో	-5576
▁అత్యాచారం	-5577
▁సెబీ	-5578
▁దక్షి	-5579
▁ప్రాంతాల	-5580
▁చేర్చడానికి	-5581
▁ముద్ర	-5582
▁పరిమితులు	-5583
▁బృందం	-5584
▁చేయబడదు	-5585
▁పిలుపునిచ్చ	-5586
క్లి	-5587
▁పర్యా	-5588
▁లభించే	-5589
▁వ్రాతపూర్వకంగా	-5590
▁నకిలీ	-5591
▁కూ	-5592
▁మద్య	-5593
▁ద్రవ్య	-5594
▁గమనించడం	-5595
▁ఆడ	-5596
హ్నం	-5597
▁షరతులను	-5598
న్సె	-5599
విజన్	-5600
▁నిందితుడికి	-5601
బోయే	-5602
▁జోన్	-5603
▁సెక్రటరీ	-5604
▁తిరస్కరించడం	-5605
డప	-5606
య్	-5607
రాజ్	-5608
్యూమ్	-5609
▁PART	-5610
▁పరిగణించాలి	-5611
▁అధ్యయన	-5612
▁చర్చలు	-5613
▁మరేదైనా	-5614
పరు	-5615
▁అనుకూల	-5616
▁సంస్థలలో	-5617
▁అవసరమయ్యే	-5618
▁పౌరుల	-5619
▁సమక్షంలో	-5620
▁సాధించిన	-5621
నప్పుడు	-5622
▁గ్రాడ్యు	-5623
ాటా	-5624
భావిక	-5625
▁క్షే	-5626
▁డెలి	-5627
▁కీలకమైన	-5628
▁నెలల్లో	-5629
▁అధికారులను	-5630
ారత	-5631
ూనియర్	-5632
▁ధోరణి	-5633
▁నాశనం	-5634
▁కొత్తగా	-5635
▁వాస్తవాలకు	-5636
▁రామ	-5637
ాలన్న	-5638
▁సదుపాయాల	-5639
▁తయారుచేసిన	-5640
▁ప్రతివాదులకు	-5641
▁ఆడి	-5642
▁సహాయపడ	-5643
▁సేవలకు	-5644
ీన	-5645
▁ఫె	-5646
ళ్లు	-5647
▁ఎప్పుడైనా	-5648
▁సాంస్కృతిక	-5649
▁లకు	-5650
▁అడ్వ	-5651
▁నగర్	-5652
▁ప్రతిపాదనను	-5653
▁షో	-5654
▁హెడ్	-5655
▁వహించే	-5656
జో	-5657
▁మాస్టర్	-5658
▁అభ్యర్థులు	-5659
రన్	-5660
నిషి	-5661
▁ర్య	-5662
▁రేట్	-5663
▁కొంతవరకు	-5664
▁గమనించినట్లుగా	-5665
సీని	-5666
▁దోపి	-5667
▁అసమంజ	-5668
▁కోరిక	-5669
▁కార్మిక	-5670
▁మూసివేయ	-5671
రత	-5672
ష్ప్ర	-5673
▁శోధన	-5674
హాబాద్	-5675
▁విక్రే	-5676
పిఎ	-5677
▁కెన	-5678
▁సమకాల	-5679
▁చేసిందని	-5680
en	-5681
▁దేవ	-5682
▁గ్రేడ్	-5683
పుతున్న	-5684
▁కలిగిస్తుంది	-5685
గలిగే	-5686
యింట్	-5687
▁త్రి	-5688
▁చేశాయి	-5689
▁ఎస్సిసి	-5690
ప్రతివాది	-5691
▁విధానాలు	-5692
▁దినోత్సవం	-5693
▁ప్రకృతిలో	-5694
▁పట్	-5695
▁ఉంటాడు	-5696
▁నిజాయితీ	-5697
▁విడదీయ	-5698
▁క్షేత్ర	-5699
▁ఉద్దేశ్యాన్ని	-5700
▁నగర	-5701
▁రావు	-5702
▁అండర్	-5703
▁పక్షపాత	-5704
▁చట్టబద్ద	-5705
▁కార్యాలయంలో	-5706
▁విజ	-5707
▁వేగంగా	-5708
▁వాంగ్మూల	-5709
▁లోపల	-5710
▁కౌన్సె	-5711
్యతను	-5712
▁ల్యా	-5713
▁దుష్ప్ర	-5714
▁స్థిరంగా	-5715
▁హైకోర్టుల	-5716
▁సంబంధాన్ని	-5717
▁ప్రాంతానికి	-5718
RI	-5719
వచ్చా	-5720
▁ఉపసంహరణ	-5721
▁జాబితాను	-5722
▁వదిలివేయ	-5723
▁డిపార్ట్మెంట్	-5724
ec	-5725
▁పరిగణించబడిన	-5726
▁సవరించడానికి	-5727
▁స్టీ	-5728
▁ఎలక్ట్రానిక్	-5729
ప్రై	-5730
లేడు	-5731
▁దశాబ్	-5732
▁శాసనసభకు	-5733
సిక్	-5734
▁తెలుసుకోవడానికి	-5735
కల్పన	-5736
▁యజమానులు	-5737
▁సౌకర్యాలు	-5738
▁జైన్	-5739
):	-5740
ప్పై	-5741
▁మూలం	-5742
▁విషయంపై	-5743
▁ప్రత్యర్థ	-5744
▁వ్యాఖ్యాన	-5745
కాని	-5746
▁రహిత	-5747
▁నిర్మాణానికి	-5748
▁స్టాండ్	-5749
▁లక్ష్యంగా	-5750
▁చౌద	-5751
▁బాంబే	-5752
▁ఒత్తిడి	-5753
ంపు	-5754
▁ఉంచడానికి	-5755
జయ్	-5756
▁సారూ	-5757
▁క్షీణ	-5758
▁డొ	-5759
▁వేదిక	-5760
▁ఇద్దరూ	-5761
▁విరుద్ధమైన	-5762
▁అడ్డు	-5763
▁ప్రశ్నలను	-5764
▁ప్రామాణికతను	-5765
దర్	-5766
▁మెహ	-5767
▁షేర్	-5768
▁నియమించిన	-5769
▁ఉత్తర్వులతో	-5770
▁దర్యాప్తును	-5771
▁ప్రిన్సిపల్	-5772
▁ప్రచారం	-5773
▁యూనివర్	-5774
▁WP	-5775
జిసి	-5776
▁గాయాల	-5777
ించలేమని	-5778
ME	-5779
ఆపర	-5780
ఐసి	-5781
▁నమ్మదగిన	-5782
▁నిర్వచించిన	-5783
గటు	-5784
▁మహిళల	-5785
▁ఆక్రమణ	-5786
▁చెల్లించడం	-5787
టాను	-5788
ఎంసి	-5789
▁స్థూల	-5790
▁తీసుకుంటుంది	-5791
▁దరఖాస్తుదారుడు	-5792
ాగత	-5793
▁ఫౌ	-5794
▁ఎంటర్	-5795
▁మీడియా	-5796
▁ముస్లిం	-5797
▁మార్కెటింగ్	-5798
IA	-5799
ాంప్	-5800
▁బస్సు	-5801
▁పునాది	-5802
▁నిర్ణయాల	-5803
▁ప్రాసెస్	-5804
▁కారణాన్ని	-5805
▁ఫైల్	-5806
▁ఎంత	-5807
▁అసెస్సీ	-5808
▁పోలీసులకు	-5809
ారమైన	-5810
▁విము	-5811
▁చేయబడితే	-5812
▁నామినేషన్	-5813
▁తొమ్	-5814
▁ప్రొఫెషనల్	-5815
▁పెరుగుతున్న	-5816
▁ఇవ్వదు	-5817
▁నోటీసును	-5818
No	-5819
▁సాగు	-5820
▁అలహాబాద్	-5821
▁వస్తువును	-5822
▁శాత	-5823
▁యుటి	-5824
▁నియంత్రణలో	-5825
▁:	-5826
▁ప్రశ్నపై	-5827
▁ప్రస్తుతానికి	-5828
న్నత	-5829
▁ఇటీవ	-5830
ప్రతిప	-5831
▁పంపారు	-5832
▁గుర్తించిన	-5833
▁స్వాతంత్ర్యం	-5834
▁ఎడమ	-5835
ఫ్టిన	-5836
్యాలు	-5837
ఫ్టినెంట్	-5838
▁అవకాశాలను	-5839
▁వేల	-5840
▁కన్సల్	-5841
▁సిస్టమ్	-5842
▁పద్ధతులు	-5843
▁ప్రాంతాలు	-5844
▁రావడానికి	-5845
▁మాదిరిగానే	-5846
▁బంగ	-5847
▁బలం	-5848
ద్దని	-5849
శాస్త్ర	-5850
▁లావాదేవీల	-5851
▁స్నేహపూర్వక	-5852
▁వస్తే	-5853
▁నిరంతరం	-5854
▁దుష్ప్రవర్తన	-5855
▁సంవత్సరాలుగా	-5856
▁१६	-5857
ష్టు	-5858
▁చూసిన	-5859
▁కల్పిస్తుంది	-5860
క్ఫ్	-5861
య్యాయి	-5862
▁గురైన	-5863
▁వర్గం	-5864
▁కమిటీని	-5865
▁సగటు	-5866
▁గమనించాలి	-5867
స్టల్	-5868
▁దూరం	-5869
▁అబ్దుల్	-5870
▁యాక్	-5871
▁దోపిడీ	-5872
▁సొలిసిటర్	-5873
;)	-5874
▁పాల్గొనే	-5875
▁స్వచ్ఛందంగా	-5876
▁రచన	-5877
ళ్లను	-5878
▁ఆంగ్ల	-5879
స్తారని	-5880
▁బహుమతి	-5881
▁సమీపంలో	-5882
ాయో	-5883
ూహం	-5884
ష్టమైన	-5885
మతిని	-5886
ర్చుకున్న	-5887
▁చేయబడినది	-5888
▁అనుమతిస్తుంది	-5889
▁రూపొందించబడింది	-5890
నని	-5891
▁వ్యాసం	-5892
▁ప్రతిబింబ	-5893
▁అభ్యంతరాలను	-5894
▁ఇంటర్నేషనల్	-5895
▁పనిచేయడానికి	-5896
▁XX	-5897
ాలిటీ	-5898
స్రావం	-5899
▁నెలలు	-5900
జం	-5901
తుందా	-5902
▁ఎవరూ	-5903
▁చేయాలనే	-5904
▁ఖర్చులను	-5905
▁లెఫ్టినెంట్	-5906
▁పనిచేస్తుంది	-5907
▁మార్గదర్శకాలు	-5908
సూరెన్స్	-5909
▁విముక్తి	-5910
▁ముఖ్యమైనది	-5911
▁భూమిపై	-5912
▁తీసివేయ	-5913
▁ఇవ్వడంలో	-5914
▁పరిగణించబడ	-5915
▁సిఫార్సులు	-5916
▁భాగస్వామ్యం	-5917
▁కోణ	-5918
▁నాల్గవ	-5919
▁దారితీసే	-5920
▁తీసుకోవచ్చు	-5921
▁సత్య	-5922
▁రోజులలోపు	-5923
▁ప్రారంభమైన	-5924
▁నీరు	-5925
▁ఆహారం	-5926
▁ఎత్తు	-5927
▁ర్యాం	-5928
ోప	-5929
ులలో	-5930
▁పన్నును	-5931
▁అందించబడింది	-5932
TE	-5933
▁NO	-5934
గేషన్	-5935
▁వేతనాలు	-5936
▁ఉత్పత్తుల	-5937
▁వెనుకబడిన	-5938
గని	-5939
వింగ్	-5940
▁కొలత	-5941
▁మోడల్	-5942
▁సదుపాయాలు	-5943
▁ప్రతిబింబి	-5944
▁లావాదేవీలు	-5945
▁విసి	-5946
▁ఇండస్ట్ర	-5947
▁నష్టపరిహ	-5948
▁వార్తాప	-5949
▁స్వయంప్రతిప	-5950
▁అనధిక	-5951
▁ఎంచుకున్న	-5952
▁రాక	-5953
▁సంవత్సరాల్లో	-5954
▁పెంచడం	-5955
▁ప్రయోగ	-5956
▁ట్రిబ్యునల్స్	-5957
▁పోరా	-5958
క్రిప్	-5959
స్తుందా	-5960
▁మిషన్	-5961
▁మిశ్రమ	-5962
▁అద్దెకు	-5963
▁చెప్పాడు	-5964
మిన	-5965
డ్డి	-5966
▁అకా	-5967
▁కాశ్	-5968
భివృద్ధి	-5969
▁చేశారని	-5970
▁పెంపొంద	-5971
▁కార్యకలాపాలకు	-5972
▁నోటిఫ	-5973
▁కిలోమీ	-5974
▁అంతర్లీ	-5975
▁విధానపరమైన	-5976
▁r	-5977
మ్మూ	-5978
▁వెం	-5979
ంత్రం	-5980
▁విఫలమైంది	-5981
▁ఆరోపించారు	-5982
▁మోడ్	-5983
▁మరికొ	-5984
▁స్వీయ	-5985
▁హైకోర్టులు	-5986
▁భో	-5987
▁ఐబి	-5988
బద్ధం	-5989
▁నిమి	-5990
▁వచ్చి	-5991
▁ఒకసారి	-5992
▁ఏర్పడిన	-5993
▁డెలివరీ	-5994
▁పరిధిలోని	-5995
▁తేదీని	-5996
▁స్వాభావిక	-5997
▁చేయబడినప్పుడు	-5998
▁రీసె	-5999
▁అతనిని	-6000
▁యాదృ	-6001
▁ఉండదని	-6002
▁ఇన్సూరెన్స్	-6003
▁తీర్మానాన్ని	-6004
▁ప్రస్తావించారు	-6005
భై	-6006
బద్ధత	-6007
▁మిగిలి	-6008
▁బెంగళూరు	-6009
▁అద్భుతమైన	-6010
▁మేనేజింగ్	-6011
▁దీర్ఘకాలిక	-6012
▁హైకోర్టును	-6013
▁రిపో	-6014
▁ఇటీవలి	-6015
▁ఎలాంటి	-6016
▁ముప్పై	-6017
▁పోలీసుల	-6018
▁చేయకూడదు	-6019
్యాంక	-6020
▁రసాయ	-6021
▁రెస్	-6022
▁జరిగే	-6023
▁సభ్యులను	-6024
▁ప్రత్యర్థి	-6025
▁సాయ	-6026
▁అరుదైన	-6027
▁ఫ్లాట్	-6028
తుడి	-6029
పెన్	-6030
▁విల్	-6031
నానికి	-6032
▁ఇటీవల	-6033
▁విషయాలపై	-6034
▁రావ	-6035
▁కావడం	-6036
▁చేసుకోవచ్చు	-6037
▁నిమిష	-6038
▁సంస్థాగత	-6039
▁తప్పుపట్ట	-6040
ంఛ	-6041
▁ఒంట	-6042
▁సంతోషంగా	-6043
▁పార్లమెంటుకు	-6044
▁చుట్ట	-6045
▁ఉపయోగించే	-6046
▁అమాయ	-6047
▁కలకత్తా	-6048
▁తీర్పుల	-6049
▁జరిప	-6050
▁వనరులను	-6051
▁షరతులకు	-6052
▁సాయంత్రం	-6053
▁వచ్చాయి	-6054
▁చేసినప్పటికీ	-6055
▁స్థాపించబడింది	-6056
ంచం	-6057
▁వక్ఫ్	-6058
▁సరసమైన	-6059
▁సూపరింటెండెంట్	-6060
ధా	-6061
▁ఖాళీగా	-6062
▁పరిశ్రమల	-6063
▁మూల్యాంక	-6064
▁అనుసరించిన	-6065
▁పదార్థాలను	-6066
▁ఎనిమిది	-6067
▁సమర్పణలు	-6068
▁వ్యక్తిపై	-6069
▁క్లియరెన్స్	-6070
▁దుర	-6071
తుల్లో	-6072
▁చేయదగిన	-6073
▁ప్రాంగణంలో	-6074
IO	-6075
వశా	-6076
▁ఆర్ధిక	-6077
ించబడితే	-6078
▁వాల్యూమ్	-6079
▁స్థలాన్ని	-6080
▁గుర్తుంచుకోవాలి	-6081
ాతీ	-6082
vi	-6083
▁ఏర్పాట్లు	-6084
▁గౌరవనీయమైన	-6085
చారు	-6086
ులతో	-6087
▁సంభాషణ	-6088
▁పదార్ధం	-6089
▁అప్పీళ్లను	-6090
▁విద్యార్థులు	-6091
▁ప్రోత్సహించడం	-6092
▁బాధిత	-6093
▁లీజుకు	-6094
▁ప్రకాష్	-6095
▁స్థిరపడిన	-6096
▁సంప్రదించి	-6097
IT	-6098
ప్పి	-6099
▁అభిప్రాయాలను	-6100
▁పుర	-6101
▁విజయం	-6102
▁సానుకూల	-6103
▁హాజరయ్యారు	-6104
▁యో	-6105
ేశ్వర్	-6106
▁పిలువబడే	-6107
▁దాస్	-6108
▁అంతకుముందు	-6109
▁ప్రోగ్రామ్	-6110
అప్పీ	-6111
▁సవరణలు	-6112
▁అప్పీల్స్	-6113
రాన్	-6114
ల్త్	-6115
▁వేసే	-6116
▁పరిమితిని	-6117
▁మరణిస్తున్న	-6118
▁విద్యార్థుల	-6119
▁కాలేజీ	-6120
▁చేర్చడం	-6121
▁రక్షణను	-6122
సవరణ	-6123
▁నలు	-6124
▁మాతృ	-6125
▁ఆదేశాలకు	-6126
▁ఇంగ్లాండ్	-6127
▁ప్రతిపాదించిన	-6128
భౌ	-6129
రాలు	-6130
▁దరఖాస్తులు	-6131
▁పేజి	-6132
▁అంగీకారం	-6133
▁ఆట	-6134
చిత్ర	-6135
▁ప్రాణ	-6136
▁లోపాలు	-6137
▁లక్షణాలను	-6138
▁రెగ్యులే	-6139
▁సూచించవచ్చు	-6140
▁మ్యా	-6141
AT	-6142
▁వస	-6143
▁పన్నుల	-6144
▁బిల్లును	-6145
▁గణాం	-6146
▁చారి	-6147
▁యాదృచ్ఛిక	-6148
▁వార్తాపత్రిక	-6149
▁క్షమ	-6150
▁పదాల	-6151
▁మోహన్	-6152
▁సాఫ్ట్	-6153
▁బ్రాంచ్	-6154
▁ఎడ్యుకేషన్	-6155
▁వినియోగదారు	-6156
కేట్	-6157
జెస్	-6158
▁అశో	-6159
▁న్యాయంగా	-6160
▁రశీ	-6161
▁రూపాయలు	-6162
▁రీసెర్చ్	-6163
▁హు	-6164
▁త్ర	-6165
▁కోలు	-6166
▁మాన్యు	-6167
▁సుప్రా	-6168
▁హించిన	-6169
▁రెగ్యులర్	-6170
▁బోధ	-6171
▁మృతదేహాన్ని	-6172
▁సమర్థించింది	-6173
▁సహాయపడుతుంది	-6174
▁వంద	-6175
య్యాడు	-6176
▁ప్లాన్	-6177
▁ముగిసింది	-6178
▁తమను	-6179
▁కస్టడీ	-6180
▁దశాబ్ద	-6181
▁సమిష్టి	-6182
▁కాశ్మీర్	-6183
▁పరిశోధ	-6184
▁ఉద్యోగం	-6185
▁సాధ్యమైన	-6186
▁వహిస్తుంది	-6187
▁పరిశీలించడం	-6188
▁కొనసాగడానికి	-6189
▁పార్టీలను	-6190
▁మార్గదర్శకాలను	-6191
.-	-6192
▁l	-6193
▁లను	-6194
▁నెలకు	-6195
ైపాక్షిక	-6196
▁మదింపుదారుడి	-6197
ఖిత	-6198
కాలం	-6199
స్తవ	-6200
ర్యం	-6201
▁కది	-6202
ారులు	-6203
▁ఉండవు	-6204
▁ప్రబల	-6205
▁చదవండి	-6206
▁పద్ధతిని	-6207
ేద్	-6208
వర్తి	-6209
తుందనే	-6210
ప్య	-6211
ారక	-6212
ేరని	-6213
ాయిస్	-6214
▁తమకు	-6215
▁ప్రమేయం	-6216
దవ్	-6217
▁సాయుధ	-6218
▁ధృవీకరించబడిన	-6219
AA	-6220
▁జల	-6221
ుకునే	-6222
సివిల్	-6223
▁అంబ	-6224
▁కదల	-6225
ారీగా	-6226
▁చట్ర	-6227
▁డిజిటల్	-6228
ికల్	-6229
▁లక్షణం	-6230
▁డెవలపర్	-6231
▁పదానికి	-6232
▁ప్రబలంగా	-6233
▁అపరాధి	-6234
శీల	-6235
▁కనిపి	-6236
▁నాటిది	-6237
▁పుస్తక	-6238
▁గను	-6239
▁వెర్	-6240
▁నిర్ణయంలో	-6241
▁నిర్ణయాలను	-6242
▁నిర్ధారిస్తుంది	-6243
టెక్	-6244
పెద్ద	-6245
▁జమ్మూ	-6246
▁తప్పక	-6247
▁బయోమె	-6248
▁వడ్డీతో	-6249
లికి	-6250
పోయాడు	-6251
▁విత్త	-6252
ారాన్ని	-6253
▁బాధితుడి	-6254
▁ఆదాయానికి	-6255
▁స్టాండింగ్	-6256
▁నివసిస్తున్న	-6257
ద్ది	-6258
▁సెల్	-6259
▁భత్యం	-6260
ల్యూషన్	-6261
▁చారిత్ర	-6262
▁యాజమాన్యం	-6263
▁రాజే	-6264
లెన్స్	-6265
▁నిధులు	-6266
▁నిర్మూల	-6267
▁ప్రామాణీకరణ	-6268
▁పరిశీలించారు	-6269
క్సా	-6270
▁అంతకు	-6271
▁మద్యం	-6272
▁రహస్య	-6273
▁వ్యాప్తి	-6274
▁స్వేచ్ఛా	-6275
▁వృత్తిపరమైన	-6276
మొద	-6277
క్రమంగా	-6278
▁చార్టర్	-6279
ేక్	-6280
▁వనరులు	-6281
▁జూనియర్	-6282
ాంట్	-6283
ేళ్ల	-6284
▁మారింది	-6285
▁స్వభావంలో	-6286
కీమ్	-6287
▁అదుపులో	-6288
▁పునరావాసం	-6289
▁వేగవంతమైన	-6290
డుకు	-6291
▁సన్ని	-6292
▁ఇష్టపడే	-6293
▁కంటెంట్	-6294
▁క్రమబద్ధీకరించ	-6295
▁పేర్కొన్నట్లుగా	-6296
▁నమ్ము	-6297
▁మెరుగుదల	-6298
▁గుర్తింపును	-6299
నాథ్	-6300
బీర్	-6301
రేట్	-6302
▁సాధన	-6303
▁అప్పీళ్లు	-6304
▁స్పష్టమవుతుంది	-6305
స్ట్రే	-6306
▁ప్రసి	-6307
క్రొత్త	-6308
▁ఆచరణాత్మక	-6309
విగా	-6310
▁ప్రవాహ	-6311
▁సహాయంతో	-6312
▁సక్రమంగా	-6313
▁రూపొందించే	-6314
▁రాష్ట్రపతికి	-6315
ంటూ	-6316
దరా	-6317
ారాయ	-6318
--------	-6319
▁సంవత్సరాలలో	-6320
▁ఠ	-6321
▁టో	-6322
▁ఒంటరి	-6323
▁మహిళలు	-6324
▁ఏకకాలంలో	-6325
▁డిఫెన్స్	-6326
▁స్పష్టమైంది	-6327
బ్దం	-6328
▁ధృవీక	-6329
▁అత్యున్నత	-6330
▁సమర్పించింది	-6331
▁సంతృప్తికరంగా	-6332
కంపె	-6333
లెంట్	-6334
▁పండి	-6335
▁చౌదరి	-6336
▁చట్టబద్దమైన	-6337
టిని	-6338
▁ప్రత	-6339
▁లింగ	-6340
▁మార్పులు	-6341
▁పిటిషన్లో	-6342
▁సృష్టించడం	-6343
▁గణన	-6344
▁అనుకో	-6345
▁మనిషి	-6346
▁వ్యర్థ	-6347
▁ప్య	-6348
▁ఫోన్	-6349
▁గట్టి	-6350
▁వహిస్తున్న	-6351
ఇది	-6352
యాలో	-6353
రికా	-6354
▁డిపాజి	-6355
కిస్తాన్	-6356
▁మాట్లాడ	-6357
▁చెప్పడానికి	-6358
న్నో	-6359
▁ఆధి	-6360
▁బిడ్డ	-6361
▁స్వతంత్రంగా	-6362
క్ట	-6363
▁సవా	-6364
వశాత్తు	-6365
▁వాదనలను	-6366
▁గమనించారు	-6367
▁సవరణను	-6368
▁పెట్టడం	-6369
▁నివేదికలు	-6370
NA	-6371
▁విభేద	-6372
▁రూపాయల	-6373
▁నెలవారీ	-6374
▁పన్నులు	-6375
▁దరఖాస్తులో	-6376
లసి	-6377
▁ఆధిప	-6378
వద్దని	-6379
▁మంచిది	-6380
▁కనుగొనడం	-6381
▁తగ్	-6382
పక్	-6383
లియం	-6384
▁రూపకల్పన	-6385
వాదం	-6386
▁పోల్చ	-6387
▁పరికరం	-6388
▁పురాతన	-6389
ఆపరేటివ్	-6390
▁ఉల్లంఘి	-6391
▁నిష్పాక్షిక	-6392
శేష	-6393
▁కల్పన	-6394
క్ష్	-6395
▁గిరి	-6396
▁పంపిన	-6397
▁క్లాస్	-6398
▁పదవిలో	-6399
▁భూభాగం	-6400
▁కేసులకు	-6401
▁నడిప	-6402
▁కేంద్రం	-6403
ేజ	-6404
▁స్ఫ	-6405
▁నిశ్చ	-6406
▁లిఖిత	-6407
▁సేవను	-6408
కైనా	-6409
▁వెంచర్	-6410
▁నియమాన్ని	-6411
▁చెల్లించవలసిన	-6412
▁స్వీకరించడానికి	-6413
▁నేత	-6414
▁లోత	-6415
▁నికర	-6416
▁హాస్	-6417
▁పెరిగ	-6418
▁సాహిత	-6419
▁ముఖ్యం	-6420
▁స్నేహి	-6421
▁వ్యవస్థలో	-6422
▁ప్రజాస్వామ్యం	-6423
▁గడి	-6424
▁తత్	-6425
ంటారు	-6426
వభౌ	-6427
▁చుట్టూ	-6428
ళం	-6429
డవు	-6430
యార్	-6431
వారిని	-6432
▁అందిన	-6433
▁ఎకరాల	-6434
▁కలిగే	-6435
▁అభినంది	-6436
ేటింగ్	-6437
▁ఉత్పాదక	-6438
▁కుదుర్చుకున్న	-6439
ించడమే	-6440
▁వాక్య	-6441
▁ప్రీమి	-6442
▁భాగాలు	-6443
▁శిక్షకు	-6444
▁మార్గంలో	-6445
▁వ్యత్యాస	-6446
▁అధ్యాయంలో	-6447
▁ఉత్తేజ	-6448
▁దేశాలు	-6449
ఖి	-6450
యుక్	-6451
▁కాంగ	-6452
రిస్తూ	-6453
▁ప్రపంచంలో	-6454
▁అభ్యర్ధనను	-6455
మరణ	-6456
▁న్యాయమూర్తిని	-6457
▁ప్రయత్నించండి	-6458
▁గుర్తించడానికి	-6459
▁కంపెనీకి	-6460
▁పెట్టారు	-6461
▁పొందింది	-6462
▁సంబంధాలను	-6463
▁ఫైనాన్షియల్	-6464
వేదన	-6465
▁ముఖం	-6466
దరాబాద్	-6467
▁స్వల్ప	-6468
▁అంశాలపై	-6469
▁అనుమానం	-6470
▁వారెంట్	-6471
ేరా	-6472
వభౌమ	-6473
▁స్టే	-6474
▁నిర్వహణకు	-6475
▁on	-6476
▁వర్క్	-6477
▁క్రైమ్	-6478
▁క్రొత్త	-6479
▁పొందుపరచ	-6480
▁చేర్చబడిన	-6481
▁కార్మికులు	-6482
▁గ్రీ	-6483
▁కలుపు	-6484
▁కార్యాలయానికి	-6485
▁US	-6486
▁దోహ	-6487
▁గోవా	-6488
▁ముగిసే	-6489
▁శిక్షణా	-6490
▁ప్రారంభించారు	-6491
్యూరో	-6492
▁నార్	-6493
▁అస్థి	-6494
▁ఆస్ట్రే	-6495
▁చిరునామా	-6496
▁AP	-6497
▁సహచ	-6498
ాహ్నం	-6499
మార్టం	-6500
కుంటారు	-6501
▁డేటాను	-6502
▁సంస్థలో	-6503
▁వ్యవహరించడం	-6504
కల్	-6505
▁ఖాతాలో	-6506
▁వివక్షత	-6507
▁శిక్షతో	-6508
▁గ్రాడ్యుయేట్	-6509
▁వర్తింపజేయడం	-6510
▁రూపం	-6511
▁చదవడం	-6512
▁సమాఖ్య	-6513
▁అడ్వకేట్	-6514
▁నిర్ణయించడంలో	-6515
శ్య	-6516
సేక	-6517
న్నై	-6518
▁ఆదేశాన్ని	-6519
▁సంపాదించిన	-6520
▁రూపొందించడం	-6521
తీయ	-6522
పిక్	-6523
ేటెడ్	-6524
ించాను	-6525
▁జప్తు	-6526
▁చైర్మన్	-6527
▁విద్యాసంస్థ	-6528
▁అనుమతించదగిన	-6529
ఫలి	-6530
▁అధ్యా	-6531
/0	-6532
తువు	-6533
▁ఇంగ్లీ	-6534
▁సంకల్పం	-6535
▁హైదరాబాద్	-6536
▁హర్	-6537
▁పరిచ	-6538
▁ఆదేశం	-6539
▁హత్యకు	-6540
▁మధ్యాహ్నం	-6541
▁ద్వైపాక్షిక	-6542
▁డాక్యుమెంటరీ	-6543
కుడి	-6544
పోతుంది	-6545
▁దూరంగా	-6546
▁పరిశీలించాము	-6547
▁ప్రారంభించింది	-6548
తలను	-6549
సిఎల్	-6550
▁షీట్	-6551
▁మొహద్	-6552
▁అస్సాం	-6553
▁మిశ్రా	-6554
▁నియంత్రి	-6555
▁ప్రమాణాల	-6556
▁సంక్షేమం	-6557
▁కాపాడటానికి	-6558
ానే	-6559
ఫోన్	-6560
▁పదవీకాలం	-6561
▁రికార్డులు	-6562
మస్	-6563
ంటినీ	-6564
క్రమణ	-6565
▁ఆనందం	-6566
▁సెటిల్	-6567
▁నేరాలను	-6568
▁కనుగొన్నారు	-6569
▁సప్	-6570
▁గ్యా	-6571
▁బెదిరి	-6572
▁సవరించబడింది	-6573
ండీ	-6574
▁చూడటం	-6575
▁బాధపడు	-6576
▁అల్ట్రా	-6577
▁కస్టమర్	-6578
▁పరోక్షంగా	-6579
▁అనుమతించడం	-6580
▁రికార్డును	-6581
▁చెల్లించడంలో	-6582
ేష్	-6583
▁డా	-6584
▁ఎసి	-6585
▁వర్క్స్	-6586
▁ఆరోపణలను	-6587
▁సార్వభౌమ	-6588
▁వాదించాడు	-6589
ర్తనం	-6590
▁కదలిక	-6591
ఫలితంగా	-6592
▁అన్యాయమైన	-6593
▁నడప	-6594
▁లభ్యత	-6595
▁భావనను	-6596
▁అవకాశాలు	-6597
▁విధంగానైనా	-6598
బియా	-6599
▁దురదృష్ట	-6600
బరు	-6601
రాల	-6602
పత్ర	-6603
▁అవయ	-6604
▁విజి	-6605
▁తెలియదు	-6606
▁కంప్యూటర్	-6607
▁నిరోధించడానికి	-6608
పం	-6609
యాన్	-6610
▁ఆఫీస్	-6611
▁తలెత్తుతుంది	-6612
▁సూచిక	-6613
▁పరిచయం	-6614
▁ధరను	-6615
కంపెనీ	-6616
▁బహిష్	-6617
బడటానికి	-6618
నెట్	-6619
సేకరణ	-6620
▁దోషి	-6621
▁ఇతరత్రా	-6622
▁తత్ఫలితంగా	-6623
్వే	-6624
మాచల్	-6625
ార్థం	-6626
ించలేని	-6627
▁సవరణకు	-6628
▁స్కూల్	-6629
▁విజయవంతం	-6630
▁మార్గదర్శక	-6631
▁దస్తావేజును	-6632
▁పేర్కొనవచ్చు	-6633
▁అప్పీలుదారులను	-6634
▁టే	-6635
మేష్	-6636
ాల్లోని	-6637
ఖ్	-6638
థి	-6639
ర్షణ	-6640
▁సమర్థన	-6641
▁అతిపెద్ద	-6642
▁స్టె	-6643
▁కులాలు	-6644
▁సంక్లి	-6645
▁జరిగితే	-6646
గిస్తుంది	-6647
▁మైదానం	-6648
▁అనువర్తనం	-6649
▁ప్రవేశానికి	-6650
▁విడిచిపెట్ట	-6651
▁సమావేశానికి	-6652
బ్బందు	-6653
▁మెట్రో	-6654
▁స్వేచ్ఛగా	-6655
▁న్యాయవాదుల	-6656
▁రూపొందించింది	-6657
చేసి	-6658
▁సిని	-6659
▁చెన్నై	-6660
▁హౌసింగ్	-6661
▁చేపట్టిన	-6662
▁నామినేట్	-6663
▁సమస్యలపై	-6664
▁ఉత్పత్తులు	-6665
▁-.	-6666
▁ఆర	-6667
▁ఇబ్బందు	-6668
▁సందర్భంలోనైనా	-6669
▁చేయబడ్డ	-6670
▁సంస్థగా	-6671
▁భాగస్వాము	-6672
ర్చి	-6673
▁కమిటీకి	-6674
▁వివరించడానికి	-6675
▁పరిశీలించాల్సిన	-6676
ుత్వం	-6677
▁గమనిక	-6678
▁చూడాలి	-6679
▁రాబోయే	-6680
▁తగ్గించే	-6681
▁వర్గానికి	-6682
▁ప్రణాళికను	-6683
▁ప్రదేశాలలో	-6684
▁న్యాయమూర్తికి	-6685
▁సమర్పించడానికి	-6686
స్ట్రి	-6687
▁రాజ్యసభ	-6688
▁సందేశంలో	-6689
▁నిబంధనలతో	-6690
▁ఆమోదయోగ్యం	-6691
▁చక్క	-6692
▁బట్ట	-6693
▁శ్రమ	-6694
నెక్షన్	-6695
▁ఒరిస్సా	-6696
▁ప్రసార	-6697
▁१७	-6698
శిటీ	-6699
▁ఫౌండ	-6700
▁ఫిర్యాదులో	-6701
▁యుద్ధ	-6702
ఎక్సాడ్	-6703
▁ఎడిషన్	-6704
▁భూములు	-6705
▁ఆస్తిపై	-6706
▁న్యాయపరమైన	-6707
▁కీ	-6708
▁చో	-6709
లిటీ	-6710
క్యాడ్	-6711
▁లోపాలను	-6712
▁అప్పీలెంట్	-6713
▁పిం	-6714
▁హోం	-6715
▁భూసేకరణ	-6716
యిన్	-6717
▁గుణ	-6718
▁మాధ	-6719
పోయారు	-6720
▁కట్నం	-6721
▁హాజరుక	-6722
▁కరెన్సీ	-6723
▁సహకారాన్ని	-6724
▁సెటిల్మెంట్	-6725
సస్	-6726
▁బాండ్	-6727
▁రాబడి	-6728
▁వాటర్	-6729
▁కొనసాగించడం	-6730
రుపు	-6731
▁జర్	-6732
▁ఇంధన	-6733
▁ఉందో	-6734
▁అవాంఛ	-6735
బద్ధంగా	-6736
▁ప్రసంగం	-6737
▁పరిశీలించి	-6738
▁రుణం	-6739
దాబాద్	-6740
▁పేరును	-6741
▁కుదుర్చు	-6742
▁తెలిపారు	-6743
▁ఉత్పత్తిని	-6744
జనల్	-6745
టికల్	-6746
▁యాదవ్	-6747
▁కోణంలో	-6748
▁ప్రాంగణం	-6749
▁పేర్కొన్నది	-6750
▁ప్రభుత్వాన్ని	-6751
▁హార్	-6752
▁చర్చల	-6753
▁సమూహం	-6754
▁చూడవచ్చు	-6755
▁దేశానికి	-6756
▁పాకిస్తాన్	-6757
▁కొన్నిసార్లు	-6758
▁ఫం	-6759
▁కాజ్	-6760
▁ఇండస్ట్రీస్	-6761
▁ప్రయత్నిస్తుంది	-6762
టై	-6763
▁లోతు	-6764
▁విడిగా	-6765
▁విమానా	-6766
▁మమ్మల్ని	-6767
▁వ్యత్యాసాన్ని	-6768
▁బిసిసి	-6769
▁హిమాచల్	-6770
▁జీవితంలో	-6771
▁వ్యవధిని	-6772
▁తీసుకోవాలని	-6773
డుక	-6774
▁నిర్ధారించడం	-6775
మైన్	-6776
▁భాషా	-6777
ించినందున	-6778
▁అనుమతించే	-6779
▁ఉపయోగించుకో	-6780
▁ఆమోదయోగ్యమైన	-6781
▁ప్రిన్సిపాల్	-6782
▁సారాంశ	-6783
▁ఫౌండేషన్	-6784
▁పోస్టులకు	-6785
▁మార్గనిర్	-6786
పసు	-6787
కానికి	-6788
▁గతంలో	-6789
▁బాలిక	-6790
▁మహిళా	-6791
▁ఉదహరించ	-6792
▁ఖర్చుతో	-6793
▁నిర్వహించే	-6794
▁నిషేధాన్ని	-6795
సన	-6796
ినా	-6797
ణాంత	-6798
▁పదిహే	-6799
▁విమాన	-6800
▁కాలపరి	-6801
▁కల్పించడం	-6802
▁వాహనాన్ని	-6803
▁మార్గనిర్దేశం	-6804
▁హోమ్	-6805
గలదు	-6806
▁పొడవు	-6807
▁రక్షించడానికి	-6808
ానీ	-6809
కొస్తే	-6810
▁బ్యూరో	-6811
▁అభివృద్ధిని	-6812
▁న్యాయమూర్తిగా	-6813
రాయి	-6814
▁జోక్య	-6815
వెన్షన్	-6816
▁కాంగ్ర	-6817
▁విమర్శ	-6818
▁వివాదాస్పదంగా	-6819
స్ర	-6820
త్మా	-6821
ందరినీ	-6822
▁దుకాణ	-6823
▁కూర్చు	-6824
▁స్కీమ్	-6825
▁కనెక్షన్	-6826
▁హాజరుకావ	-6827
స్టిక్	-6828
▁వాపసు	-6829
ండే	-6830
కట్ట	-6831
మెన్	-6832
▁ఏడవ	-6833
రుధ్య	-6834
▁జార్	-6835
▁పాట్	-6836
▁మారుతుంది	-6837
▁దేని	-6838
▁సింగ	-6839
పారుదల	-6840
▁లొంగి	-6841
▁ఆదాయంలో	-6842
▁రాసిన	-6843
ాధికారి	-6844
▁చివరగా	-6845
▁వస్త్ర	-6846
▁వైరుధ్య	-6847
▁ల్యాండింగ్	-6848
▁దొ	-6849
▁ఎంతో	-6850
PA	-6851
ందరు	-6852
లేవు	-6853
▁ఒంటరిగా	-6854
▁ిల్లీలో	-6855
▁ప్రాణాంత	-6856
▁మార్కులు	-6857
▁రాష్ట్రాలకు	-6858
▁విశ్వాసాన్ని	-6859
పిఎల్	-6860
▁అత్యధిక	-6861
▁నలుగురు	-6862
▁యూనివర్శిటీ	-6863
షణ్	-6864
▁నర్	-6865
▁ఆపాద	-6866
▁గొలుసు	-6867
▁తప్పకుండా	-6868
▁నిరాకరించింది	-6869
▁అంకి	-6870
▁అశోక్	-6871
▁సూచనల	-6872
▁వాక్యం	-6873
▁భూములను	-6874
▁తలెత్తిన	-6875
▁పరిశీలనకు	-6876
▁ప్రాంతాల్లో	-6877
▁కొడుకు	-6878
▁కిలోమీటర్ల	-6879
Cr	-6880
▁సడల	-6881
జినల్	-6882
▁రేటును	-6883
▁విషయాని	-6884
▁లక్ష్యాలను	-6885
▁విషయానికొస్తే	-6886
▁దిశను	-6887
▁భరించ	-6888
▁జవాబుద	-6889
▁కాకపోతే	-6890
▁జరిమానాతో	-6891
▁సహేతుకంగా	-6892
▁విభాగానికి	-6893
▁రిజర్వేషన్లు	-6894
ళ్ళి	-6895
▁తీయ	-6896
▁ఏమిటో	-6897
▁నిరోధక	-6898
▁నీటిపారుదల	-6899
▁ఓపెన్	-6900
▁వాస్తవంగా	-6901
▁ఆసుపత్రిలో	-6902
▁తీసుకోలేదు	-6903
నిక్	-6904
▁నేల	-6905
దేశిక	-6906
▁కేస్	-6907
ద్దీన్	-6908
చిస్తుంది	-6909
▁లక్ష్యాన్ని	-6910
▁టెలిక	-6911
▁స్టాంప్	-6912
▁వివరిస్తుంది	-6913
▁అందరికీ	-6914
▁ప్రాంతాన్ని	-6915
▁రెగ్యులేటరీ	-6916
హర్	-6917
▁జగ	-6918
▁ఏకా	-6919
▁లేఖలో	-6920
▁జరిమాన	-6921
▁విధానాలను	-6922
ండీగ	-6923
▁పథకంలో	-6924
▁రుణాలు	-6925
▁వద్దకు	-6926
▁విక్రేత	-6927
▁పద్ధతులను	-6928
▁దోష	-6929
▁ఎస్టీ	-6930
▁తయారీదారు	-6931
▁డైరెక్టర్ల	-6932
▁ప్రకటించడం	-6933
OC	-6934
nd	-6935
బన్	-6936
▁గంటల	-6937
▁వైఖరిని	-6938
▁నిమగ్నమై	-6939
▁ప్రపంచంలోని	-6940
▁ఆలయ	-6941
▁జాతి	-6942
▁లీగల్	-6943
▁రాలేదు	-6944
▁సంభావ్యత	-6945
▁ప్రాదేశిక	-6946
▁నియమించారు	-6947
▁ప్రదేశానికి	-6948
▁కార్యక్రమంలో	-6949
▁ఆపై	-6950
లేదనే	-6951
▁ఆచార	-6952
▁పర్యాటక	-6953
▁పుట్టిన	-6954
.00	-6955
▁డబ్ల్యు	-6956
▁దరఖాస్తుపై	-6957
▁అభిప్రాయాలు	-6958
స్సే	-6959
ూహిక	-6960
▁అల్ల	-6961
▁మాండ	-6962
▁సమస్యపై	-6963
▁రోజుల్లో	-6964
▁ఎగ్జిబిట్	-6965
▁తగినట్లుగా	-6966
▁మినహాయించి	-6967
▁విరుద్ధమని	-6968
IL	-6969
రిస్	-6970
▁అధ్యాప	-6971
▁భావించారు	-6972
▁రాజు	-6973
▁విచ్ఛ	-6974
▁అమెరిక	-6975
▁పేర్లు	-6976
నప్పటికీ	-6977
▁అర్హతలు	-6978
▁హృదయపూర్వక	-6979
▁ఎదుర్కోవటానికి	-6980
▁ధరల	-6981
ిందర్	-6982
▁ఉపయోగించి	-6983
▁ప్రోత్సహి	-6984
ేదని	-6985
శక్తి	-6986
▁రిజర్వు	-6987
▁ఉత్పత్తు	-6988
▁పథకానికి	-6989
త్తమ	-6990
▁చండీగ	-6991
▁కనుగొంది	-6992
▁లక్ష్	-6993
▁సరిగా	-6994
కాయుక్త	-6995
▁రిటైర్	-6996
▁చేశాడని	-6997
▁ప్రాక్టీస్	-6998
జైన్	-6999
ోచిత	-7000
▁చక్ర	-7001
టికీ	-7002
▁VII	-7003
▁రక్	-7004
్యాలను	-7005
▁అమలుకు	-7006
▁ప్యాకే	-7007
▁గట్టిగా	-7008
▁బిల్డర్	-7009
▁సందర్భోచిత	-7010
ంతృ	-7011
త్న	-7012
▁VI	-7013
▁హే	-7014
▁జన్	-7015
▁కులం	-7016
రితంగా	-7017
మెంట్స్	-7018
ించకపోవడం	-7019
▁విజయవంతంగా	-7020
▁తల్లిదండ్రులు	-7021
భావం	-7022
ించబడవు	-7023
▁తొమ్మిది	-7024
▁చేసుకుంది	-7025
▁పేర్కొంటూ	-7026
▁వస్తువులపై	-7027
▁సందేహానికి	-7028
▁పెట్టుబడులు	-7029
▁తీసుకోబడింది	-7030
గౌ	-7031
క్ష్మ	-7032
▁రశీదు	-7033
▁వైఖరి	-7034
▁రేట్లు	-7035
▁ఎన్నికలు	-7036
▁సాక్ష్యాలలో	-7037
▁పాల్గొనడానికి	-7038
▁పేజీలో	-7039
▁ఇంగ్లీష్	-7040
▁అప్పగించిన	-7041
▁నడుపుతున్న	-7042
▁MS	-7043
▁సిటీ	-7044
▁ఎంపికను	-7045
▁పద్ధతుల	-7046
▁విక్రయించడానికి	-7047
▁బుక్	-7048
▁మందికి	-7049
▁పరిశీలనల	-7050
▁పురస్కార	-7051
▁కీలక	-7052
▁అధికంగా	-7053
▁బిసిసిఐ	-7054
▁సరిపోదు	-7055
▁దేశవ్యాప్తంగా	-7056
▁కౌర్	-7057
▁సురే	-7058
▁చెంది	-7059
స్ట్రియల్	-7060
▁ఛాన్సలర్	-7061
▁ఉద్యోగికి	-7062
▁కార్యకర్త	-7063
▁అంతస్తు	-7064
▁పొందాలి	-7065
▁గుర్తించదగిన	-7066
ేయ	-7067
▁లోతైన	-7068
▁వద్దా	-7069
▁సంఘటనల	-7070
కొక	-7071
ీకారం	-7072
▁నిధి	-7073
దానికి	-7074
▁రాజీనామా	-7075
▁తీర్పులలో	-7076
▁వాస్తవాలలో	-7077
ర్ధ	-7078
సాయం	-7079
▁నిరాశ	-7080
▁నిశ్చిత	-7081
▁సామగ్రి	-7082
▁సూచించినట్లుగా	-7083
పింగ్	-7084
▁సీటు	-7085
▁సూక్ష్మ	-7086
▁ధర్మకర్త	-7087
▁ప్రేరేపిత	-7088
▁అక్క	-7089
▁ఇన్నో	-7090
▁వినడానికి	-7091
EL	-7092
వో	-7093
నోవర్	-7094
▁లీజును	-7095
▁వర్గాలకు	-7096
▁సమ్మతిని	-7097
▁అధికారానికి	-7098
▁పద్	-7099
▁ఐదేళ్ల	-7100
▁యూనిట్లు	-7101
రాలి	-7102
▁లోపు	-7103
▁అనివా	-7104
▁ఖర్చుల	-7105
▁సామూహిక	-7106
▁కోర్సులో	-7107
▁తిరస్కరణ	-7108
▁హోల్డింగ్	-7109
▁డొమైన్	-7110
▁కావాలని	-7111
▁బకాయిలు	-7112
▁ఖండించారు	-7113
▁పెట్టింది	-7114
డిసి	-7115
▁గాలి	-7116
▁వాదనకు	-7117
▁ఆమోదించడానికి	-7118
at	-7119
ించగలదు	-7120
▁ఉంచాలి	-7121
▁చేయబడాలి	-7122
▁విధానంలో	-7123
▁బయోమెట్రిక్	-7124
▁ఉపయోగపడుతుంది	-7125
▁ఆర్మీ	-7126
▁ఇతరుల	-7127
▁సరుకు	-7128
▁వ్యవసాయం	-7129
▁విద్యార్థులను	-7130
▁ఫా	-7131
▁ఫే	-7132
చ్చే	-7133
పర్సన్	-7134
▁నైతికత	-7135
▁పథకాలు	-7136
న్నింటినీ	-7137
▁దృష్టాంత	-7138
▁సంస్కృతి	-7139
▁అభిప్రాయానికి	-7140
▁OF	-7141
▁బాడీ	-7142
డీషియల్	-7143
▁మరోసారి	-7144
▁వాగ్దానం	-7145
ించబడలేదని	-7146
ించబడ్డాడు	-7147
▁సరిపోతుందని	-7148
▁ఇండస్ట్రియల్	-7149
▁ప్రాంగణాన్ని	-7150
▁కర్త	-7151
▁బ్యాచ్	-7152
▁హాస్పిటల్	-7153
or	-7154
ష్ఠ	-7155
▁ఇస్	-7156
▁పెండ	-7157
▁రక్తం	-7158
▁నాగరిక	-7159
▁పూర్వీ	-7160
▁ఫెడరల్	-7161
▁విశ్వాస	-7162
▁పిటిషనర్లకు	-7163
▁సుప్రీంకోర్టుకు	-7164
▁నది	-7165
▁గంటలు	-7166
▁రాయల్టీ	-7167
▁మనస్సులో	-7168
▁ప్రశ్నలకు	-7169
కాన్	-7170
మొదటి	-7171
భిప్రాయ	-7172
▁ప్లాట్లు	-7173
▁ఉద్దేశపూర్వక	-7174
▁కొనసాగుతున్న	-7175
▁చేస్తున్నాము	-7176
▁నిర్వహించింది	-7177
లీల	-7178
నియా	-7179
▁ఛార్జీల	-7180
▁రుణదాతల	-7181
ించుకున్న	-7182
▁నిర్ణయాలలో	-7183
▁పరిష్కారాన్ని	-7184
▁సద	-7185
▁వాహనాల	-7186
▁పేరాల్లో	-7187
▁అథారిటీకి	-7188
▁భావించబడుతుంది	-7189
▁వ్యవహరించడానికి	-7190
జార్	-7191
చింది	-7192
▁నచ్చ	-7193
డికాటా	-7194
▁హెక్ట	-7195
▁ఇవ్వమని	-7196
▁సభ్యుని	-7197
▁పరిణామాలు	-7198
▁పిటిషన్లలో	-7199
కృష్ణ	-7200
▁ఆలయం	-7201
▁చేసాడు	-7202
కుంటున్నాను	-7203
▁ప్రారంభానికి	-7204
ంచాల	-7205
కతవక	-7206
శువు	-7207
పిల్ల	-7208
▁పెంప	-7209
▁అవకతవక	-7210
▁ఫ్రేమ్	-7211
▁విభాగాల	-7212
▁శాతానికి	-7213
▁సమయాన్ని	-7214
RT	-7215
వాస్	-7216
▁కనుక	-7217
▁పన్న	-7218
▁మాలా	-7219
▁ఫారమ్	-7220
▁పోర్ట్	-7221
ాయాచిత్ర	-7222
▁ఆంక్షలు	-7223
▁చెల్లని	-7224
▁ప్రజలను	-7225
▁సున్నితమైన	-7226
▁ధన	-7227
టినీ	-7228
▁సిన్	-7229
▁పట్టిక	-7230
▁ప్రవర్త	-7231
▁తగినంతగా	-7232
▁జ్యుడీషియల్	-7233
నొ	-7234
▁నిర్ణయించారు	-7235
పేరా	-7236
ీర్ణ	-7237
యంచాల	-7238
▁నూనె	-7239
▁ఇన్పు	-7240
▁అందించబడిన	-7241
▁ధృవీకరించే	-7242
▁వ్యవహరించింది	-7243
తులలో	-7244
▁సాదా	-7245
▁భూషణ్	-7246
▁మార్క్	-7247
▁సమన్లు	-7248
▁యోగ్యతపై	-7249
▁గరిష్టంగా	-7250
▁ప్రాజెక్టులు	-7251
ET	-7252
SI	-7253
xx	-7254
ోపాధి	-7255
▁భత్య	-7256
▁ఎరువు	-7257
▁పదవిని	-7258
▁సన్నిహిత	-7259
▁వాటాదారుల	-7260
▁క్రమశిక్షణ	-7261
▁ప్రవర్తనను	-7262
▁తీసుకువచ్చిన	-7263
▁ప్రస్తావించింది	-7264
▁#	-7265
▁తుపా	-7266
▁వెలువ	-7267
▁చేయబడి	-7268
▁నొప్పి	-7269
▁దారితీయ	-7270
▁భాగానికి	-7271
▁ఛాయాచిత్ర	-7272
స్తున్నట్లు	-7273
చూడ	-7274
▁అడి	-7275
▁బయలుద	-7276
టీరియల్	-7277
▁వాటాను	-7278
▁వినియో	-7279
▁సూత్రాలకు	-7280
▁ఉరి	-7281
▁శివ	-7282
▁షేక్	-7283
▁చుట్టు	-7284
స్సాక్షి	-7285
▁చెందితే	-7286
▁అంతిమంగా	-7287
▁స్వయంచాల	-7288
▁మూల్యాంకనం	-7289
ేతర	-7290
▁శం	-7291
స్క్	-7292
▁ఆరాధ	-7293
▁దక్షిణ	-7294
ించబడవచ్చు	-7295
▁నరే	-7296
ూర్పు	-7297
▁నివాసం	-7298
ించబడతారు	-7299
▁యంత్రాలు	-7300
▁అప్పీళ్లలో	-7301
▁కార్యక్రమాలను	-7302
▁దయచేసి	-7303
▁కోరుకునే	-7304
రగో	-7305
▁ఖర	-7306
బాయ్	-7307
ందరగో	-7308
▁చంద్	-7309
బడ్డాడు	-7310
▁క్రితం	-7311
▁ఐదుగురు	-7312
▁నిర్వహి	-7313
▁నిర్వహిస్తున్న	-7314
,0	-7315
▁ఆదర్శ	-7316
▁సిఫారసులను	-7317
▁రికార్డులను	-7318
▁వాడకం	-7319
▁ఉన్నాయా	-7320
▁మనోవేదన	-7321
▁శాస్త్రం	-7322
▁చేసినట్లుగా	-7323
▁న్యాయమూర్తులను	-7324
▁CO	-7325
####	-7326
▁యాభై	-7327
స్టింగ్	-7328
▁జీవనోపాధి	-7329
AIR	-7330
▁ప్ల	-7331
▁ఖైదీ	-7332
▁ఉపశమన	-7333
చడానికి	-7334
▁వారితో	-7335
▁ఉత్తీర్ణ	-7336
బడినప్పుడు	-7337
▁డ్రైవింగ్	-7338
▁మాన్యువల్	-7339
▁సామగ్రిని	-7340
▁ప్రాంతాలకు	-7341
▁చేసుకున్నట్లు	-7342
తన	-7343
సాధ	-7344
▁సిసి	-7345
పాలిటన్	-7346
▁అధీకృత	-7347
▁ఇంటర్వ్యూ	-7348
పస్	-7349
ాత్	-7350
▁గోడ	-7351
▁నేతృ	-7352
▁గందరగో	-7353
టిసి	-7354
శారు	-7355
▁పనులను	-7356
▁పేరుతో	-7357
▁మనస్సాక్షి	-7358
▁పునర్నిర్మాణ	-7359
టిష్	-7360
▁పురోగ	-7361
▁రాష్ట్రాల్లో	-7362
▁దర్శ	-7363
▁నిర్మించిన	-7364
▁వర్తిస్తుందని	-7365
క్రో	-7366
ించుకుంట	-7367
▁చేయవచ్చని	-7368
▁ప్రవేశపెట్టిన	-7369
▁భగ	-7370
▁వేద	-7371
▁అంతటా	-7372
▁కింగ్	-7373
ించలేరు	-7374
▁టర్నోవర్	-7375
▁కాంగ్రెస్	-7376
▁నియమించడం	-7377
బిన	-7378
వాల	-7379
నెస్	-7380
▁పోలి	-7381
▁జంతువు	-7382
▁డైరెక్	-7383
▁హ్యాండ్	-7384
▁చూపుతుంది	-7385
▁ప్రమాదంలో	-7386
▁సముచితమని	-7387
▁విధించింది	-7388
▁వ్యక్తీకరణను	-7389
▁ధై	-7390
ట్టడానికి	-7391
▁కర్మాగార	-7392
▁బ్యాంకుల	-7393
▁అయి	-7394
▁వర్మ	-7395
▁సమస్యకు	-7396
ించబడిందా	-7397
▁యాజమాన్యంలోని	-7398
▁ఆశి	-7399
▁మేఘ	-7400
్రాఫ్	-7401
▁బంగ్	-7402
▁ఇవ్వండి	-7403
▁సలహాలను	-7404
▁పిల్లలను	-7405
▁(“	-7406
▁కణ	-7407
జ్డ్	-7408
గుండు	-7409
▁సెస్	-7410
▁సౌలభ	-7411
ించాలనే	-7412
తున్నాము	-7413
▁మొత్తంగా	-7414
▁ప్రారంభమయ్యే	-7415
▁మెరుగుపరచడానికి	-7416
▁దానిలోని	-7417
▁మందుగుండు	-7418
▁విచ్ఛిన్న	-7419
▁పెట్రోలియం	-7420
▁e	-7421
వసరం	-7422
▁సెట్	-7423
ంటింగ్	-7424
▁నిలబడి	-7425
▁దెబ్బతీ	-7426
▁చెల్లింపులు	-7427
పదే	-7428
వైన	-7429
▁AC	-7430
టంలో	-7431
ాయాస	-7432
▁అటా	-7433
▁తుల	-7434
▁అప్పీల్ను	-7435
▁ప్రయోజనకరమైన	-7436
▁తెలియజేయడానికి	-7437
RC	-7438
భరణ	-7439
ళ్ళకు	-7440
▁సేవ్	-7441
▁అమాయక	-7442
▁ఆయిల్	-7443
కోవడంలో	-7444
▁మోసపూరిత	-7445
పరుస్తుంది	-7446
▁మొత్తాలను	-7447
▁సామర్థ్యంలో	-7448
▁తల్లిదండ్రుల	-7449
▁బడ	-7450
▁తేలి	-7451
▁అసంతృ	-7452
▁చూడటానికి	-7453
ళ్ళలో	-7454
▁రీతిలో	-7455
▁వస్తువులకు	-7456
▁ఎగ్జామినేషన్లో	-7457
▁నిర్ణయిస్తుంది	-7458
శీల్	-7459
▁వసతి	-7460
హాస్పద	-7461
▁బాధితుల	-7462
▁మృతదేహం	-7463
▁తొలగించే	-7464
▁పెరిగింది	-7465
▁తెలుసుకోవడం	-7466
▁నౌ	-7467
ాధార	-7468
▁ఎకె	-7469
▁కారణమని	-7470
▁కౌన్సెల్	-7471
▁ఆర్బిట్రల్	-7472
▁ధృవీకరించబడింది	-7473
వంగత	-7474
▁అంతర	-7475
▁క్లబ్	-7476
▁ప్రేరణ	-7477
▁సంఘటనకు	-7478
▁తీసుకురా	-7479
▁అందించాలి	-7480
▁చేర్చబడింది	-7481
కరి	-7482
నీటి	-7483
▁యుజిసి	-7484
▁ప్రారంభించడం	-7485
▁న్యాయస్థానంలో	-7486
ైతే	-7487
▁చము	-7488
▁తేడ	-7489
▁చెప్పే	-7490
▁దుబాయ్	-7491
▁మెట్రోపాలిటన్	-7492
ట్టడం	-7493
▁గుర్తుచే	-7494
▁జార్ఖండ్	-7495
▁సంభవించే	-7496
▁సాక్షిని	-7497
▁స్వేచ్ఛకు	-7498
▁అయినప్పుడు	-7499
▁పరిణామాలను	-7500
▁విధించబడుతుంది	-7501
ఘిక	-7502
▁ఎమ్	-7503
డేషన్	-7504
సమితి	-7505
▁క్వా	-7506
▁రెట్లు	-7507
▁ఉన్నాము	-7508
▁సందేహాస్పద	-7509
▁వివరించబడింది	-7510
▁నిర్వహిస్తుంది	-7511
గిత	-7512
ెండు	-7513
▁ఏవీ	-7514
▁ఆభరణ	-7515
▁నిరు	-7516
▁రసీదు	-7517
▁తెలియని	-7518
▁చెందింది	-7519
▁పాల్గొనడం	-7520
▁సమావేశాలు	-7521
▁కన్వెన్షన్	-7522
▁నిర్వచిస్తుంది	-7523
▁స్వయంప్రతిపత్తి	-7524
జిన్	-7525
మియా	-7526
డెండ్	-7527
సంబంధ	-7528
ోర్స్	-7529
▁చెడు	-7530
▁ఫోటో	-7531
▁రసాయన	-7532
▁మీటర్ల	-7533
▁వ్యాయామ	-7534
▁రెండింటినీ	-7535
CI	-7536
ంతా	-7537
ఐఎల్	-7538
▁లింక్	-7539
▁సంజయ్	-7540
▁లిక్విడే	-7541
▁క్యాపిటల్	-7542
▁ధృవీకరించబడలేదు	-7543
కమ్	-7544
▁చందా	-7545
▁ఉండకపోవచ్చు	-7546
▁కార్మికులకు	-7547
▁మదింపుదారునికి	-7548
సిస్	-7549
గ్నిజ	-7550
శ్రయం	-7551
▁గ్లో	-7552
▁సూపర్	-7553
▁దివంగత	-7554
▁పదేపదే	-7555
▁రెడ్డి	-7556
▁చట్టవిరుద్ధంగా	-7557
▁నిర్ణయించబడింది	-7558
ండన్	-7559
▁కమీ	-7560
▁రాజధ	-7561
▁చమురు	-7562
▁సమర్థు	-7563
▁సౌకర్యం	-7564
▁ప్యానెల్	-7565
▁పనికిరాని	-7566
▁వ్యాపారంలో	-7567
▁సృష్టించబడిన	-7568
యిక	-7569
టికే	-7570
తాము	-7571
బడని	-7572
ation	-7573
ుకోవడం	-7574
▁చేయడమే	-7575
▁ప్రివి	-7576
▁ప్రీమియం	-7577
▁సంప్రదింపులు	-7578
▁ప్రస్తావించిన	-7579
▁సిద్ధాంతాన్ని	-7580
తాలు	-7581
▁వారాల	-7582
▁సాంఘిక	-7583
నిందితుడు	-7584
▁ఉపాధ్యాయులు	-7585
ించబడని	-7586
▁గ్యాస్	-7587
▁శ్రేణి	-7588
▁బిడ్డర్	-7589
▁ఖచ్చితత్వాన్ని	-7590
▁is	-7591
▁లభి	-7592
▁వర్ష	-7593
గలిగిన	-7594
న్యాయం	-7595
▁కాగిత	-7596
▁ఆరోపణల	-7597
▁సమ్మతితో	-7598
్జె	-7599
లింగ	-7600
ేచర్	-7601
క్రియా	-7602
▁అమరిక	-7603
▁శుభ్ర	-7604
▁అనాయాస	-7605
▁మార్గాల	-7606
రణ్	-7607
▁నెహ	-7608
▁హెచ్చ	-7609
▁ఫలితాలు	-7610
▁విచక్షణతో	-7611
▁విద్యార్థులకు	-7612
DR	-7613
ఎక్స్	-7614
వేసింది	-7615
▁భద్రపరచ	-7616
▁పనిచేయడం	-7617
▁తలెత్తింది	-7618
▁మార్కెట్లో	-7619
▁విజిలెన్స్	-7620
ప్స్	-7621
బినెట్	-7622
▁సెకను	-7623
▁కాపాడు	-7624
▁దగ్గరి	-7625
▁అపెక్స్	-7626
▁దారితీసిన	-7627
▁బెదిరింపు	-7628
▁రిజల్యూషన్	-7629
కద్ర	-7630
▁కలయిక	-7631
▁ఎన్నుకోబడిన	-7632
నాల్	-7633
▁ఓవర్	-7634
గనిరోధ	-7635
ేడింగ్	-7636
▁నిశ్శ	-7637
ించడంతో	-7638
▁చూస్తే	-7639
▁కాలుష్య	-7640
▁పొందాడు	-7641
▁ఒప్పందాల	-7642
▁విన్నాము	-7643
▁అర్హమైనది	-7644
▁లాభాల	-7645
▁సంపర్	-7646
▁మారుతి	-7647
▁ప్రయత్న	-7648
స్పెన్షన్	-7649
▁రోగనిరోధ	-7650
ికస్	-7651
▁అమ్ర	-7652
▁రావడం	-7653
▁సినిమా	-7654
▁మొహమ్మద్	-7655
▁ఇవ్వకుండా	-7656
▁ఐక్యరాజ్య	-7657
▁నిబంధనలపై	-7658
▁వినియోగించుకునే	-7659
భారత	-7660
ారుల	-7661
▁చెబు	-7662
▁ట్రాక్	-7663
▁టెలిఫోన్	-7664
▁పరీక్షలు	-7665
▁డైరెక్టర్లు	-7666
▁తీసుకువెళ్ళ	-7667
▁తీసుకోకుండా	-7668
▁ధృవీకరించడానికి	-7669
జన్మ	-7670
ప్రభ	-7671
చంద్ర	-7672
▁కాంపి	-7673
▁మోషన్	-7674
▁అర్హతను	-7675
▁సంఘర్షణ	-7676
▁సంబంధితంగా	-7677
SCC	-7678
▁కండ	-7679
▁ఆపరేటర్	-7680
▁మనస్సును	-7681
▁సమర్పణకు	-7682
▁విజ్ఞప్తుల	-7683
▁ప్రవేశించిన	-7684
▁అంగీకరించబడింది	-7685
నిటీ	-7686
▁బల్	-7687
▁కోణం	-7688
▁బడ్జె	-7689
▁కావాలి	-7690
▁ప్రాపర్	-7691
▁అడ్వాన్స్	-7692
▁చేసుకోవాలని	-7693
రామ్	-7694
వంతపు	-7695
▁ఆసియా	-7696
▁అమికస్	-7697
▁దావాకు	-7698
▁బ్యాక్	-7699
▁సంఘటనలు	-7700
▁అధికారిని	-7701
▁నిరూపించబడింది	-7702
OR	-7703
ండె	-7704
టిస్	-7705
▁ఏకీ	-7706
ట్టింగ్	-7707
▁మృతుడి	-7708
▁జుడికాటా	-7709
▁నియంత్రణను	-7710
▁ఆర్ట్	-7711
▁మొట్ట	-7712
▁అవాంఛనీయ	-7713
▁ఉపవిభాగం	-7714
▁డివిడెండ్	-7715
▁విజయవంతమైన	-7716
▁ఎండ	-7717
▁ప్రభువు	-7718
▁సహకరించ	-7719
▁పర్యవసాన	-7720
▁१८	-7721
ళ్లీ	-7722
▁తాక	-7723
మిషన్	-7724
▁మళ్లీ	-7725
▁మురికి	-7726
▁ఉపాధ్యాయుల	-7727
▁పరిమితులను	-7728
▁తీసుకురావడం	-7729
▁తహ	-7730
▁జన్మ	-7731
▁బోధన	-7732
▁బహుశా	-7733
డికేచర్	-7734
▁ఉత్సర్	-7735
▁ఖాళీలను	-7736
▁నిధులను	-7737
▁వస్తాయి	-7738
▁సదుపాయాలను	-7739
మండ	-7740
▁బ్రో	-7741
ికేషన్	-7742
వేత్తలు	-7743
▁ఇవ్వవలసిన	-7744
▁భావిస్తున్నారు	-7745
▁n	-7746
ాంగ్	-7747
▁ఆటం	-7748
ించవు	-7749
▁ఎంక్	-7750
జేశారు	-7751
▁నియామకాల	-7752
▁ఎంటర్ప్రై	-7753
▁వో	-7754
క్లా	-7755
ీకృతం	-7756
▁ఇబ్బంది	-7757
▁అప్పటికే	-7758
▁హక్కులకు	-7759
▁జ్యుడికేచర్	-7760
ార్ట్	-7761
▁ముగు	-7762
▁ప్రియ	-7763
▁గ్రామంలో	-7764
.]	-7765
షియ	-7766
ావి	-7767
జికల్	-7768
పియన్	-7769
▁సేల్	-7770
▁శాఖకు	-7771
▁సంభోగ	-7772
▁చెల్లించటానికి	-7773
▁,,	-7774
▁సిఎ	-7775
నేబుల్	-7776
▁బాంబు	-7777
స్తుందనే	-7778
▁నేతృత్వ	-7779
▁క్లయింట్	-7780
▁పొందాలని	-7781
▁ఇంటర్నెట్	-7782
▁విదేశాలలో	-7783
గర్భ	-7784
▁ఆబ్	-7785
క్చర్	-7786
▁అరిక	-7787
▁ఐబిడ్	-7788
............	-7789
▁చేసుకున్నాడు	-7790
▁నిర్ణయించాల్సిన	-7791
▁తనపై	-7792
▁లంచం	-7793
▁నెహ్రూ	-7794
▁సులభంగా	-7795
▁చేయలేమని	-7796
▁తీవ్రతరం	-7797
▁నాణ్యతను	-7798
గ్నిజెన్స్	-7799
▁సస్పెన్షన్	-7800
▁రికార్డింగ్	-7801
▁సరు	-7802
▁పనుల	-7803
▁స్పృహ	-7804
▁సరైనదని	-7805
▁నిర్మాణంలో	-7806
▁పార్లమెంట్	-7807
▁అనుమతించబడిన	-7808
▁um	-7809
త్వా	-7810
▁కలు	-7811
▁వైర్	-7812
మానికి	-7813
▁బాధపడ	-7814
▁భారతీ	-7815
▁వారీగా	-7816
▁పిల్లలకు	-7817
▁బ్రిటిష్	-7818
▁పరిష్కారానికి	-7819
MP	-7820
ాంగం	-7821
ళ్లకు	-7822
▁ఎంపి	-7823
▁శతాబ్ద	-7824
▁పెట్టిన	-7825
▁పౌరులకు	-7826
▁సిఆర్పిసి	-7827
▁ఉపయోగించుకునే	-7828
ru	-7829
▁చా	-7830
మ్డ్	-7831
▁తేలిక	-7832
▁అదుపులోకి	-7833
▁పరిస్థితులపై	-7834
ణే	-7835
టియా	-7836
ష్టత	-7837
▁కామన్	-7838
▁ప్రవహ	-7839
▁చర్చను	-7840
▁ఉన్నవారికి	-7841
▁అభ్యర్థులకు	-7842
▁నిర్లక్ష్యంగా	-7843
కవర్	-7844
▁MCI	-7845
▁అణు	-7846
▁తిరుగు	-7847
▁సిన్హా	-7848
▁స్టీల్	-7849
▁పన్నుకు	-7850
▁రిటర్న్	-7851
▁ఉన్నవారు	-7852
▁వివరించింది	-7853
▁అనుసరించాల్సిన	-7854
గోళిక	-7855
▁నోయి	-7856
▁సిజె	-7857
▁చెల్లదు	-7858
▁వాటాలను	-7859
▁ఆర్బిట్ర	-7860
▁నోటిఫైడ్	-7861
▁విధంగానూ	-7862
చడం	-7863
▁నాబ	-7864
▁ఉచ్చ	-7865
▁సమకూర్	-7866
▁ప్రకటనల	-7867
▁పూర్వజన్మ	-7868
▁ఐక్యరాజ్యసమితి	-7869
▁హోద	-7870
ముద్ర	-7871
రుకుగా	-7872
▁చర్చి	-7873
▁పనులు	-7874
▁వేసింది	-7875
▁అంగీకరించలేదు	-7876
▁బయటపడ	-7877
▁రౌండ్	-7878
▁చూపించే	-7879
▁ఎంట్రీలు	-7880
▁సంప్రదాయ	-7881
▁ఇన్నోవేషన్	-7882
జరీ	-7883
ాపన	-7884
వత్రిక	-7885
▁లాభదాయ	-7886
▁సమగ్రత	-7887
▁అనివార్య	-7888
క్రియాత్మక	-7889
▁ప్రభావంతో	-7890
తున్నప్పుడు	-7891
పోవ	-7892
మావ	-7893
డెడ్	-7894
▁అప్పు	-7895
▁అనుసరి	-7896
▁తేలితే	-7897
▁రోజుకు	-7898
▁పెరిగిన	-7899
▁భద్రతను	-7900
▁ఎన్నికలలో	-7901
గ్జి	-7902
▁సమన్వయ	-7903
ించబడదని	-7904
▁సందర్శన	-7905
▁పునరావృత	-7906
▁విస్తరించడానికి	-7907
బిఎస్	-7908
యోధ్య	-7909
▁వంతు	-7910
▁సోదరి	-7911
▁వయస్సును	-7912
సీల	-7913
▁కలప	-7914
▁పాలి	-7915
▁ఎదురు	-7916
▁లెటర్	-7917
డుకున్న	-7918
▁పోస్టుల	-7919
▁సాక్ష్యంగా	-7920
కస్మిక	-7921
▁భౌగోళిక	-7922
▁మాండమస్	-7923
▁తెలుసుకున్న	-7924
▁ప్రచురించిన	-7925
▁కొరత	-7926
డక్షన్	-7927
▁కూర్పు	-7928
▁జరిపిన	-7929
▁నీటిని	-7930
▁సమస్యలకు	-7931
▁తేల్చింది	-7932
▁చెల్లింపును	-7933
క్టరీ	-7934
డిఆర్	-7935
▁బేస్	-7936
▁మ్యూ	-7937
▁కాన్ఫ	-7938
▁క్లియర్	-7939
▁చురుకుగా	-7940
▁వైద్యులు	-7941
▁పరిశీలనలను	-7942
▁ప్రతివాదిపై	-7943
తల	-7944
▁డో	-7945
▁ఫల	-7946
ద్యో	-7947
ాయిద	-7948
▁ఇనుప	-7949
▁అప్రమే	-7950
▁దీనిపై	-7951
ెక్టరేట్	-7952
▁బడ్జెట్	-7953
▁సవాలును	-7954
▁ప్రస్తావి	-7955
▁శూన్యమైనది	-7956
▁సార్వత్రిక	-7957
శ్లీల	-7958
▁ద్వి	-7959
▁తేలిన	-7960
యోజకవర్	-7961
▁ఇరుకైన	-7962
▁అభ్యంతరాలు	-7963
▁ప్రావిడెంట్	-7964
నికల్	-7965
మవుతాయి	-7966
▁అభ్యర్థనను	-7967
▁చూపి	-7968
▁దత్త	-7969
▁అడిగిన	-7970
▁నేరస్థు	-7971
▁బలవంతపు	-7972
▁రాజధాని	-7973
▁అనుబంధంగా	-7974
▁పట్టించుకో	-7975
▁అప్పగించారు	-7976
▁ప్రధానమంత్రి	-7977
▁నిర్వచించబడింది	-7978
కడ	-7979
▁నవ	-7980
స్టే	-7981
▁అపరాధం	-7982
▁ఆకస్మిక	-7983
ముక	-7984
న్యా	-7985
దాన్ని	-7986
▁బుల్ల	-7987
▁ఆస్తిలో	-7988
▁సమన్వయం	-7989
▁నాణ్యమైన	-7990
▁పోస్టులు	-7991
▁కంట్రోలర్	-7992
▁నియోజకవర్	-7993
▁ఆలస్యాన్ని	-7994
▁ఆమోదించబడింది	-7995
▁కార్యాలయాన్ని	-7996
▁సజీవ	-7997
▁బిఎస్	-7998
▁భాషలో	-7999
▁సబ్సి	-8000
▁వాయువు	-8001
▁ఎనేబుల్	-8002
▁ఐపిసితో	-8003
▁పరీక్షా	-8004
▁పుస్తకం	-8005
▁సబ్జెక్	-8006
▁అనుసంధాన	-8007
▁నివసించే	-8008
▁గౌరవాన్ని	-8009
▁పరిశీలనను	-8010
▁విభాగాలలో	-8011
ఫో	-8012
▁;	-8013
ఇండి	-8014
▁లీవ్	-8015
ించదని	-8016
▁నిరసన	-8017
▁తూర్పు	-8018
ప్రాముఖ్య	-8019
▁మాట్లాడే	-8020
▁చికిత్సను	-8021
ల్ట్	-8022
▁పలు	-8023
విభాగ	-8024
▁తలుపు	-8025
▁పౌరులు	-8026
▁బంగ్లా	-8027
▁సారూప్య	-8028
▁అనధికారి	-8029
▁వయస్సులో	-8030
▁గమనించాము	-8031
▁అస్పష్టంగా	-8032
▁ఎక్స్ప్రెస్	-8033
▁దంత	-8034
▁ట్యాం	-8035
▁పారాస్	-8036
▁పొరుగు	-8037
▁నిపుణులు	-8038
ప్రాముఖ్యత	-8039
▁నిర్వర్తించడంలో	-8040
▁పనిచ	-8041
▁అటాచ్	-8042
▁తప్పి	-8043
▁పెళ్ళి	-8044
▁వాటితో	-8045
ించబడ్డారు	-8046
▁పునర్వ్యవస్థ	-8047
చోట	-8048
యని	-8049
రుణ	-8050
▁మరె	-8051
▁అవుట్	-8052
▁విశ్ర	-8053
▁ఆనకట్ట	-8054
▁తీర్పుతో	-8055
▁ఉత్తీర్ణత	-8056
▁విజ్ఞప్తిలో	-8057
▁అంగీకరించాలి	-8058
▁మార్గదర్శకాల	-8059
▁పోషి	-8060
▁చదవాలి	-8061
▁ముప్పు	-8062
▁పూర్వపు	-8063
▁చారిత్రక	-8064
▁అనుమతించబడతాయి	-8065
రత్	-8066
రని	-8067
▁ఠా	-8068
▁మగ	-8069
దీప్	-8070
▁చేస్త	-8071
▁ఫార్మా	-8072
మరణించిన	-8073
▁దగ్గరగా	-8074
▁కేంద్రాలు	-8075
▁నిర్ణయాత్మక	-8076
▁00	-8077
జియం	-8078
సులు	-8079
▁తదన	-8080
లేరని	-8081
▁సాధిక	-8082
▁సాధారణం	-8083
▁రికార్డుల	-8084
▁అంగీకరించాడు	-8085
▁ప్రార్థించారు	-8086
జిన	-8087
▁ఐదవ	-8088
▁నన్ను	-8089
▁ప్రేమ	-8090
▁దూరంలో	-8091
▁మొగ్గు	-8092
▁సరస్సు	-8093
▁కావడంతో	-8094
▁పరికరాలు	-8095
▁స్థాయికి	-8096
▁అభినందించడానికి	-8097
భ్య	-8098
▁ఏమైనా	-8099
▁పెంచే	-8100
▁నివారించ	-8101
▁అనుకూలమైన	-8102
▁ఎపి	-8103
▁కాలి	-8104
▁నాథ్	-8105
▁మెగా	-8106
▁సంకే	-8107
▁తదనంతరం	-8108
is	-8109
ఇసి	-8110
▁దారు	-8111
▁దిశలో	-8112
▁ప్రెస్	-8113
▁వేశారు	-8114
▁కొనసాగి	-8115
▁బయలుదేర	-8116
▁న్యాయవ్యవస్థకు	-8117
దైనా	-8118
▁మణి	-8119
▁యూరో	-8120
▁లోడ్	-8121
కుడిగా	-8122
▁సూచనను	-8123
▁వేగవంతం	-8124
▁షరతులతో	-8125
▁ప్రారంభం	-8126
▁మార్గాలు	-8127
▁ఆదేశానికి	-8128
▁నిష్క్రియాత్మక	-8129
▁చైర్	-8130
▁జాన్	-8131
శాస్త్రం	-8132
▁తీసుకోవడంలో	-8133
▁వ్యాఖ్యానించ	-8134
స్పె	-8135
▁ఇల్లు	-8136
▁వృద్ధ	-8137
▁నియామకాన్ని	-8138
▁పరిగణించబడదు	-8139
▁పార్లమెంటులో	-8140
గతా	-8141
▁చొరవ	-8142
ంటేషన్	-8143
▁వ్యాధ	-8144
▁ఉండేలా	-8145
▁వృద్ధిని	-8146
▁హక్కులపై	-8147
▁స్వభావంతో	-8148
▁విధించటానికి	-8149
▁IN	-8150
▁నర	-8151
సూర్	-8152
▁నెర	-8153
▁నియమి	-8154
▁హక్కుకు	-8155
▁ప్రభుత్వంలో	-8156
▁నిర్మాణాత్మక	-8157
ేస్	-8158
ారాయణ	-8159
▁గ్యార	-8160
▁స్థలంలో	-8161
▁గుర్తించి	-8162
▁తీసుకువచ్చారు	-8163
అన	-8164
మిన్	-8165
▁పరే	-8166
▁వరక	-8167
▁జనాభ	-8168
▁సిటి	-8169
▁చొప్ప	-8170
▁వెల్లడి	-8171
▁కేసులోని	-8172
▁రంగానికి	-8173
▁లక్ష్యాలు	-8174
దేవ్	-8175
▁భరో	-8176
▁బ్లా	-8177
▁అలియా	-8178
▁ధాన్య	-8179
▁పనిలో	-8180
▁వరకట్	-8181
▁మార్గాలను	-8182
▁రోగనిరోధక	-8183
తపై	-8184
▁XIII	-8185
▁ఫంక్షన్	-8186
▁పరిగణించబడతాయి	-8187
▁భేద	-8188
తారని	-8189
శాలలో	-8190
స్తులు	-8191
▁అతనితో	-8192
▁జైపూర్	-8193
▁అర్థంలో	-8194
▁కోల్పోవడం	-8195
▁అనిపిస్తుంది	-8196
▁పరిగణించలేము	-8197
▁అందించబడుతుంది	-8198
మత్త	-8199
▁IST	-8200
▁ons	-8201
▁కాక	-8202
▁సభలో	-8203
స్టేట్	-8204
▁అస్సలు	-8205
▁పాట్నా	-8206
▁పార్క్	-8207
▁భారతీయు	-8208
▁చేస్తాము	-8209
▁విషయాలతో	-8210
▁లభించింది	-8211
▁వ్యక్తులపై	-8212
కుండ	-8213
ంత్రా	-8214
▁మాని	-8215
▁ఆయనకు	-8216
▁కారకాలు	-8217
▁పెరుగుద	-8218
▁స్పష్టత	-8219
▁అప్రమత్త	-8220
▁మించకూడదు	-8221
ించబడటానికి	-8222
▁అందించింది	-8223
▁హను	-8224
▁కలిపి	-8225
▁పర్యటన	-8226
▁ఇన్వెస్టి	-8227
▁కేటాయించడం	-8228
▁కుటుంబానికి	-8229
▁EC	-8230
▁జయ	-8231
▁ఇంతకు	-8232
▁వాటాల	-8233
▁వ్యభి	-8234
▁వెళ్ళే	-8235
▁పదిహేను	-8236
▁విచిత్ర	-8237
▁ప్రయత్నించిన	-8238
as	-8239
కతను	-8240
ఏదైనా	-8241
▁సంఘాలు	-8242
▁అడ్డంకి	-8243
▁అభియోగం	-8244
▁భారాన్ని	-8245
▁సహాయాన్ని	-8246
▁ప్రస్తావిస్తూ	-8247
▁ఉల్లంఘించినట్లు	-8248
యింగ్	-8249
▁చైనా	-8250
▁టౌన్	-8251
▁తరచూ	-8252
▁హాల్	-8253
కుండానే	-8254
▁ప్రతినిధులు	-8255
▁జే	-8256
▁నాగ్	-8257
▁సునీ	-8258
▁ఎంక్వై	-8259
▁ఉత్సర్గ	-8260
▁అత్యవసరం	-8261
▁అప్రమేయంగా	-8262
▁కల్పించడానికి	-8263
▁వినియోగదారులకు	-8264
▁కవ	-8265
ంటల్	-8266
ండరీ	-8267
▁యాం	-8268
నెన్స్	-8269
▁ఆటంకం	-8270
▁ఖాతాల	-8271
▁ఒకటిగా	-8272
▁ముందస్తుగా	-8273
స్వామ్యాన్ని	-8274
▁UN	-8275
ెండర్	-8276
▁లైన్	-8277
▁అశ్లీల	-8278
▁క్సాడ్	-8279
▁గ్లోబల్	-8280
▁ఇవ్వబడలేదు	-8281
▁విఫలమైందని	-8282
▁మొదటిసారిగా	-8283
▁లిక్విడేటర్	-8284
▁స్వయంచాలకంగా	-8285
▁దాఖ	-8286
▁అనుమాన	-8287
▁రేడియో	-8288
▁యూనిట్ల	-8289
▁అనుమతితో	-8290
▁సంపాదించడానికి	-8291
డిపి	-8292
▁....	-8293
▁రెసి	-8294
దారులను	-8295
▁అసమంజస	-8296
▁విడాకుల	-8297
▁స్ఫూర్తి	-8298
▁విశ్రాంతి	-8299
▁జ్ఞానాన్ని	-8300
▁వాదించడానికి	-8301
▁అంగీకరించలేము	-8302
వేది	-8303
నర్జీ	-8304
▁అనిల్	-8305
▁శక్తితో	-8306
▁ప్రసిద్ధ	-8307
▁వికలాంగుల	-8308
▁శక్తివంతమైన	-8309
▁అభ్యర్థించారు	-8310
నాథ	-8311
పాటు	-8312
▁ఫేసీ	-8313
యుక్తంగా	-8314
▁ఉన్నాను	-8315
▁ప్రకటించే	-8316
▁బహిరంగంగా	-8317
▁లెక్కించిన	-8318
▁విజ్ఞప్తులలో	-8319
రిక్	-8320
చూడండి	-8321
బడ్డారు	-8322
▁ఖాళీలు	-8323
▁భూగర్భ	-8324
తున్నారు	-8325
▁తేదీలలో	-8326
▁నోటీసులు	-8327
▁పరివర్తన	-8328
▁ప్రతిష్ట	-8329
▁నిర్వహణను	-8330
▁సమర్పించాలి	-8331
▁నిర్దేశిస్తాము	-8332
▁టా	-8333
▁మెడ	-8334
ించటం	-8335
▁కోటా	-8336
▁బెది	-8337
లేనిది	-8338
▁నిర్వహణలో	-8339
▁ఆరోగ్యకరమైన	-8340
vii	-8341
ింద్	-8342
▁చర్యలో	-8343
▁స్మారక	-8344
▁ఎప్పుడు	-8345
▁కానిస్టే	-8346
▁హెక్టార్	-8347
▁పోస్టులను	-8348
రాదు	-8349
లాన్	-8350
వన్నీ	-8351
▁ఉండి	-8352
▁వ్యూ	-8353
▁ఎంతవరకు	-8354
▁విచక్షణను	-8355
▁సమర్పించడం	-8356
▁ప్రాంతంలోని	-8357
▁ఆవరణ	-8358
▁పూణే	-8359
▁లైఫ్	-8360
▁అసహ్య	-8361
▁భూముల	-8362
▁యంత్రా	-8363
▁చట్టంపై	-8364
▁తయారీకి	-8365
▁మురికివా	-8366
▁పరిశీలించాలి	-8367
ికా	-8368
▁--	-8369
▁DNA	-8370
▁గోవ	-8371
నియమం	-8372
▁వ్రా	-8373
▁భరోసా	-8374
▁చూపారు	-8375
▁పునరావృతం	-8376
▁వ్యక్తిగా	-8377
▁ఉద్దేశించబడింది	-8378
బడవు	-8379
కప్పు	-8380
జినెస్	-8381
▁వదులు	-8382
▁విధుల	-8383
▁డిజైన్	-8384
▁సమగ్రంగా	-8385
▁లేనప్పటికీ	-8386
▁బంగారు	-8387
▁నష్టానికి	-8388
▁నివేదికలను	-8389
▁విజ్ఞప్తులను	-8390
సవ	-8391
రుసటి	-8392
▁లెవీ	-8393
▁భూమిలో	-8394
▁భావించిన	-8395
▁తిరస్కరించారు	-8396
టర	-8397
పుర	-8398
కంతో	-8399
ందిరా	-8400
▁మాధ్య	-8401
▁వ్రాయ	-8402
▁మరిన్ని	-8403
ించబడాలని	-8404
▁నష్టాలను	-8405
▁నిమగ్నమైన	-8406
▁పరిగణించవచ్చు	-8407
▁సృష్టిస్తుంది	-8408
▁సృష్టించడానికి	-8409
రేజ్	-8410
▁గీయ	-8411
▁అరవై	-8412
▁ఫోరం	-8413
▁వెంక	-8414
▁చెడ్డ	-8415
▁వికృత	-8416
▁వినోదం	-8417
▁ఉత్తమంగా	-8418
▁ఇవ్వలేదని	-8419
▁ప్రాజెక్టుల	-8420
▁నిశ్చితార్థం	-8421
బిసి	-8422
▁తిన	-8423
▁బయటి	-8424
▁శాఖలు	-8425
కోవచ్చు	-8426
▁పారవేసే	-8427
▁దేనినైనా	-8428
▁మినహాయింపును	-8429
▁పిలుపునిచ్చారు	-8430
▁ఉంచాలని	-8431
▁సిమెంట్	-8432
▁అమెరికన్	-8433
▁ఉత్తేజిత	-8434
▁గుర్తుచేసు	-8435
▁వర్తించదని	-8436
▁సంయుక్తంగా	-8437
▁ఉద్దేశించినది	-8438
▁ప్రకటించబడింది	-8439
ధో	-8440
ెన	-8441
▁ఓట	-8442
డ్లు	-8443
▁సగం	-8444
▁నిలబె	-8445
కద్రవ్య	-8446
▁క్రూరత్వం	-8447
▁పరిశ్రమలు	-8448
▁అనుభవించిన	-8449
▁పెంచుతుంది	-8450
▁రాజ్యాంగబద్ధమైన	-8451
▁అవసరాల	-8452
▁గోపాల్	-8453
▁మరుసటి	-8454
▁సయోధ్య	-8455
▁విజయవంత	-8456
▁సంస్కరణల	-8457
▁శాశ్వతంగా	-8458
▁ఉన్నట్లయితే	-8459
▁కొనసాగుతుంది	-8460
▁తొలగించబడింది	-8461
▁ప్రచురించబడిన	-8462
▁వీల	-8463
ించాలా	-8464
▁కమీషన్	-8465
▁ఖాతాలను	-8466
▁పైకప్పు	-8467
▁సందర్భాలు	-8468
ధనం	-8469
▁కాపీలు	-8470
▁ఇంటిగ్ర	-8471
▁సమర్పణలో	-8472
▁క్రిందివి	-8473
▁కంట	-8474
▁ఎగుమ	-8475
▁అమర్చ	-8476
▁తరుగు	-8477
ధిస్తుంది	-8478
▁గర్భస్రావం	-8479
▁రూపొందించబడిన	-8480
లైంది	-8481
ార్జి	-8482
త్తీస్	-8483
▁మెహతా	-8484
▁సంబంధాల	-8485
▁సౌలభ్యం	-8486
▁భారతదేశాన్ని	-8487
వతి	-8488
▁క్షణ	-8489
▁హైడ్ర	-8490
కార్పొర	-8491
▁ఎలక్ట్రి	-8492
▁నిబంధనతో	-8493
▁ఆధారపడతారు	-8494
▁అభ్యర్థులను	-8495
▁కాగ్నిజెన్స్	-8496
దనే	-8497
▁ఆగి	-8498
ఇక్కడ	-8499
వేయడం	-8500
▁తేడా	-8501
▁విపరీ	-8502
▁సెక్ట	-8503
▁హిందు	-8504
వ్యక్తి	-8505
▁అనర్హత	-8506
▁టన్నుల	-8507
▁రిటైర్డ్	-8508
▁నష్టపరిహారం	-8509
కోర్	-8510
నైల్	-8511
▁ఆరవ	-8512
మావళి	-8513
▁ఫోరెన్	-8514
▁కమిటీలు	-8515
▁వెర్షన్	-8516
▁సంఘటనను	-8517
▁ప్రమోటర్	-8518
▁సంస్థలతో	-8519
▁నిర్వహించారు	-8520
ెర	-8521
కోచ	-8522
వ్యం	-8523
నవసరం	-8524
మింగ్	-8525
▁కొండ	-8526
▁అనవసరంగా	-8527
▁సభ్యుడిగా	-8528
▁అనుమతించబడింది	-8529
ఎసి	-8530
మాపణ	-8531
▁ఎర్	-8532
▁మొదటిది	-8533
▁కాల్పులు	-8534
▁జీవితానికి	-8535
▁డైరెక్టరేట్	-8536
▁రైలు	-8537
▁సంభోగం	-8538
▁ప్రయాణీ	-8539
▁తొలగించారు	-8540
▁వాతావరణాన్ని	-8541
మత	-8542
వన్	-8543
▁AS	-8544
స్టా	-8545
తుందో	-8546
▁అగర్	-8547
▁గుండె	-8548
▁కుష్టు	-8549
▁రివ్యూ	-8550
▁చెందినది	-8551
▁నియమావళి	-8552
▁ప్రాంతాలను	-8553
▁ప్రతిపాదనకు	-8554
▁మధ్యవర్తిని	-8555
▁రూపొందించడంలో	-8556
am	-8557
▁సిఐ	-8558
▁అవమాన	-8559
▁చేరిన	-8560
▁దాఖలైంది	-8561
▁ప్రకటనకు	-8562
▁చేస్తుందని	-8563
▁చేసుకోవడంలో	-8564
▁PC	-8565
రిలో	-8566
▁సంగ	-8567
ళ్లలో	-8568
ారిఫ్	-8569
▁కదిలే	-8570
▁వ్యూహ	-8571
▁తరగతుల	-8572
▁మేఘాలయ	-8573
▁చేయకపోవడం	-8574
▁మెటీరియల్	-8575
పడుతున్నాము	-8576
▁విధించబడింది	-8577
ణు	-8578
ేశ్	-8579
▁RI	-8580
మిదవ	-8581
పేక్ష	-8582
▁ఏజెన్	-8583
▁పరిసర	-8584
▁ఉద్యాన	-8585
▁తెలుపు	-8586
▁బకాయిల	-8587
▁లోక్సభ	-8588
▁కారణమైన	-8589
▁క్షమాపణ	-8590
▁సాపేక్ష	-8591
▁నియమించే	-8592
▁సమయాల్లో	-8593
▁భావిస్తారు	-8594
▁అంతర్లీనంగా	-8595
▁చెల్లించండి	-8596
▁విస్తీర్ణంలో	-8597
tt	-8598
▁డం	-8599
ుకుంది	-8600
▁మిగతా	-8601
గలిగితే	-8602
▁పుస్తకాలు	-8603
పుచ్చ	-8604
దారుని	-8605
సిందని	-8606
▁ఏకీభవ	-8607
▁నెంబరు	-8608
▁కమ్యూనిటీ	-8609
▁ఉత్పత్తికి	-8610
▁తీర్మానాలు	-8611
▁కార్యక్రమాల	-8612
భర్త	-8613
▁సౌర	-8614
▁ఠాకూర్	-8615
▁నోయిడా	-8616
▁సహజంగా	-8617
▁రివిజన్	-8618
▁గౌరవప్రద	-8619
▁సిబ్బందికి	-8620
▁ఉల్లంఘించడం	-8621
అను	-8622
నుగడ	-8623
కుమార్	-8624
▁కరువు	-8625
▁మరమ్మ	-8626
ాగ్రాఫ్	-8627
▁ఆధిపత్య	-8628
▁ఆరోపణలపై	-8629
▁సెక్షన్లు	-8630
▁హేతుబద్ధమైన	-8631
१९	-8632
ాయిం	-8633
▁అడగ	-8634
▁పోర్	-8635
▁రిటైల్	-8636
▁సెకండరీ	-8637
▁వైద్యుడు	-8638
▁ఫోరెన్సిక్	-8639
▁అంగీకరించబడిన	-8640
▁పరిశీలిస్తుంది	-8641
▁బూ	-8642
బోర్	-8643
రైట్	-8644
ాలజీ	-8645
ాత్రం	-8646
▁స్కూ	-8647
▁ఉపరిత	-8648
▁మనుగడ	-8649
▁ఎదుర్కొన్న	-8650
▁ఏకాభిప్రాయ	-8651
▁రాజ్యాంగబద్ధంగా	-8652
▁ఆక	-8653
▁వితం	-8654
▁హెల్త్	-8655
▁ఏమాత్రం	-8656
▁ఛత్తీస్	-8657
▁శ్రేష్ఠ	-8658
▁సబ్సిడీ	-8659
▁సవరించడం	-8660
▁సెక్టార్	-8661
▁ప్రాపర్టీ	-8662
▁ఫ్యాక్టరీ	-8663
▁చెల్లించారు	-8664
▁పరిమాణాన్ని	-8665
▁OS	-8666
ఫైడ్	-8667
ాడనే	-8668
కర్షణ	-8669
▁విలువలు	-8670
▁తరలించారు	-8671
▁లోకాయుక్త	-8672
▁ప్రామాణికత	-8673
▁ఉద్భవించింది	-8674
▁ప్రతిస్పందనగా	-8675
రీస్	-8676
▁పుట్టు	-8677
▁చట్టాలకు	-8678
▁సీనియారిటీని	-8679
▁చెల్లించాల్సి	-8680
▁యంత్రాంగాన్ని	-8681
ాలనుకుంటున్నాము	-8682
▁జరప	-8683
▁లేరు	-8684
ప్రత్య	-8685
▁ఆనంద్	-8686
▁చెక్క	-8687
▁ప్రవా	-8688
▁స్వలింగ	-8689
▁కోర్సులు	-8690
▁పరీక్షకు	-8691
ాలీ	-8692
ాయనే	-8693
▁ఆకృ	-8694
▁ఉండట	-8695
▁ఖనిజాల	-8696
▁లోతుగా	-8697
▁విద్యుత్తు	-8698
▁తిరస్కరించిన	-8699
బొ	-8700
▁ట్రై	-8701
▁కలుసు	-8702
కృష్ణన్	-8703
▁ఉత్తరా	-8704
▁బకాయిలను	-8705
▁సమాధానమి	-8706
▁నేతృత్వంలోని	-8707
▁పరిజ్ఞానాన్ని	-8708
▁నేర్చు	-8709
▁మైసూర్	-8710
▁చేయలేరు	-8711
▁ట్రాఫిక్	-8712
లచే	-8713
టిన్	-8714
▁చిత	-8715
▁మాద	-8716
▁ఖరారు	-8717
స్క్రిప్	-8718
▁యజమానికి	-8719
▁సమతుల్యతను	-8720
ఉదా	-8721
▁ఏదో	-8722
▁మాటలలో	-8723
▁సంభావ్య	-8724
▁యూరోపియన్	-8725
▁MP	-8726
▁లక్	-8727
▁నిలు	-8728
▁స్క్ర	-8729
▁స్మాల్	-8730
▁ఉన్నచోట	-8731
▁ముందుగానే	-8732
▁వేధింపులకు	-8733
ల్చి	-8734
▁వేచి	-8735
▁టారిఫ్	-8736
▁నిబద్ధత	-8737
▁సాక్షిగా	-8738
▁తయారుచేసే	-8739
▁ఉత్పత్తులను	-8740
Crl	-8741
రపాటు	-8742
పాలిటీ	-8743
హాత్మక	-8744
▁రమేష్	-8745
▁వినోద	-8746
▁కార్డ్	-8747
▁లాభాలను	-8748
▁పారదర్శకత	-8749
▁బహిష్కరించ	-8750
▁తెలియజేసింది	-8751
ల్య	-8752
▁ఇంటిని	-8753
▁వర్తించవు	-8754
▁కాంపిటెంట్	-8755
▁గ్రామానికి	-8756
▁CR	-8757
▁వినూ	-8758
▁వెళు	-8759
▁అవరోధ	-8760
▁రేట్ల	-8761
▁ఇందిరా	-8762
్యుటేషన్	-8763
▁సభ్యత్వం	-8764
▁పేరాగ్రాఫ్	-8765
▁ధృవీకరించిన	-8766
▁ప్రభుత్వంతో	-8767
ట్యు	-8768
బాయి	-8769
▁చదివి	-8770
▁ఉండండి	-8771
▁మిగులు	-8772
తున్నాను	-8773
▁కోర్టులలో	-8774
▁విద్యార్థి	-8775
▁వెల్లడించింది	-8776
జిస్	-8777
వాలి	-8778
▁ఐడి	-8779
▁శోధ	-8780
▁ముగియ	-8781
▁సంకోచ	-8782
▁పొదుపు	-8783
▁సమస్యల	-8784
▁అసమర్థత	-8785
▁యాక్సెస్	-8786
▁అసంతృప్తి	-8787
▁చేసినందున	-8788
▁మరికొన్ని	-8789
▁సంగ్రహించబడింది	-8790
డమ్	-8791
▁అపరి	-8792
▁కాంట	-8793
▁అంతర్భ	-8794
▁కాలాన్ని	-8795
▁ఇవ్వకపోతే	-8796
▁జవాబుదారీ	-8797
▁బంగ్లాదేశ్	-8798
▁విస్తరించింది	-8799
▁ఛాన	-8800
▁అసాధ్యం	-8801
▁సజీవంగా	-8802
▁ఉపయోగించ	-8803
▁అత్యుత్తమ	-8804
▁సురక్షితంగా	-8805
టిక్స్	-8806
▁కాలుష	-8807
▁టెస్ట్	-8808
▁పట్టుబ	-8809
▁వాదనలో	-8810
▁భాగాలను	-8811
▁వ్యాసాలు	-8812
▁తీర్పులపై	-8813
▁పురస్కారం	-8814
▁అహ్మదాబాద్	-8815
▁ఖు	-8816
▁ధా	-8817
లోడ్	-8818
వేరి	-8819
▁టైమ్	-8820
నొక్కి	-8821
మెయిల్	-8822
▁తరుగుదల	-8823
▁పనిచేసిన	-8824
▁అనుసరించే	-8825
ER	-8826
▁అత్యాచార	-8827
▁కంట్రోల్	-8828
▁పోలిస్తే	-8829
▁వాతావరణం	-8830
▁ప్రభుత్వాల	-8831
▁వ్యూహాత్మక	-8832
డియ	-8833
▁దృశ	-8834
ేకింగ్	-8835
▁ఆడిటర్	-8836
▁సందేశం	-8837
▁సమకాలీన	-8838
▁కొట్టివేసిన	-8839
▁ఉల్లంఘిస్తుంది	-8840
రిడ్	-8841
సిటీ	-8842
▁గురై	-8843
▁నమోద	-8844
▁మళ్ల	-8845
▁ఆకర్షణ	-8846
▁విపత్తు	-8847
▁సడలింపు	-8848
▁చట్టబద్ధత	-8849
ించబడుతోంది	-8850
▁మెరుగుపరచడం	-8851
ాశ	-8852
▁అస్	-8853
▁ఎక్స	-8854
▁గుళిక	-8855
▁నిబంధనకు	-8856
▁ఏజెన్సీలు	-8857
▁మొట్టమొదటి	-8858
▁కార్యకలాపాలలో	-8859
▁పరిస్థితుల్లో	-8860
ఆర్థిక	-8861
సాధారణ	-8862
▁తుపాకీ	-8863
▁దెబ్బత	-8864
▁లేకపోవ	-8865
▁అనుమానించ	-8866
▁కారణమయ్యే	-8867
▁వివాదాలకు	-8868
▁భావించింది	-8869
గావ్	-8870
తులతో	-8871
▁అతడు	-8872
▁అకాడె	-8873
▁పథకాల	-8874
త్వాకర్షణ	-8875
▁పొందడానికి	-8876
▁పరిగణించబడే	-8877
లభై	-8878
▁టు	-8879
▁భు	-8880
జిటి	-8881
▁జ్యూ	-8882
▁ఫ్రా	-8883
గోపాల్	-8884
▁ఎత్తిచూ	-8885
▁పరిణామం	-8886
▁జరిగాయని	-8887
▁గురుత్వాకర్షణ	-8888
▁పండ	-8889
వద్దు	-8890
లేకపోతే	-8891
▁చేసేవారు	-8892
AL	-8893
▁ణం	-8894
క్తులు	-8895
▁ఆర్బిఐ	-8896
▁బలవంతంగా	-8897
▁ఉద్దేశించి	-8898
▁XI	-8899
పెల్	-8900
▁వెయి	-8901
స్పెక్	-8902
▁వాదనల	-8903
▁పౌరుడు	-8904
▁మెగావా	-8905
▁నాయకత్వం	-8906
▁అసమంజసమైన	-8907
చ్చి	-8908
టివి	-8909
▁అఖి	-8910
▁రాదు	-8911
▁ఎంట్ర	-8912
▁ఆకర్షి	-8913
▁ప్రధాని	-8914
అప్పీల్స్	-8915
▁ఉన్నతమైన	-8916
▁క్రికెట్	-8917
▁ప్రకటనలను	-8918
▁కనుగొనలేదు	-8919
▁యథ	-8920
▁శో	-8921
చేసే	-8922
లాస్	-8923
సిఆర్	-8924
▁సౌత్	-8925
▁నాబార్డ్	-8926
▁కొనసాగించే	-8927
▁నిందితులతో	-8928
▁ప్రమాణాలకు	-8929
▁నిశ్చయాత్మక	-8930
▁ముగుస్తుంది	-8931
▁చేస్తున్నారు	-8932
▁ఎలి	-8933
ామాషా	-8934
▁నోటి	-8935
ీనింగ్	-8936
▁మురుగు	-8937
▁మొక్కల	-8938
▁వాటిపై	-8939
▁వ్యాన్	-8940
▁క్రమంగా	-8941
▁భూభాగంలో	-8942
▁నొక్కిచెప్పారు	-8943
▁గమ	-8944
ICTE	-8945
వల్లి	-8946
ించబడినది	-8947
▁ఆరోపణలకు	-8948
▁కాకపోవచ్చు	-8949
▁ప్రవర్తనకు	-8950
▁వాక్	-8951
▁అక్షర	-8952
ఫికేషన్	-8953
▁ఉపాధ్య	-8954
▁నేపథ్యం	-8955
▁ఎంక్వైరీ	-8956
▁కొంతకాలం	-8957
▁ఖర్చులకు	-8958
▁సూత్రానికి	-8959
▁కొనసాగించాలని	-8960
EC	-8961
om	-8962
▁నృ	-8963
▁బేర	-8964
▁గ్రె	-8965
▁ఏరియా	-8966
▁తెలివి	-8967
▁నామినీ	-8968
▁వెలికి	-8969
▁వైర్లు	-8970
▁జరగలేదు	-8971
▁కల్పించే	-8972
▁లేనట్లయితే	-8973
▁ఫిర్యాదులను	-8974
▁వలస	-8975
▁డైరీ	-8976
▁తవ్వ	-8977
▁అగ్ని	-8978
▁డ్రాయ	-8979
▁ఎవరికి	-8980
▁ప్రచార	-8981
▁ఖర్చును	-8982
▁సెక్షన్ల	-8983
▁అనర్హులుగా	-8984
▁వ్యక్తులతో	-8985
▁స్వీకరించడం	-8986
▁ప్రతివాదులను	-8987
MS	-8988
▁మేధో	-8989
▁వైపున	-8990
స్తుందో	-8991
▁ఇతరులకు	-8992
▁ఎప్పటికీ	-8993
▁పిటిషన్ల	-8994
స్ట్రక్షన్	-8995
▁సంప్రదింపుల	-8996
▁ప్రారంభమైంది	-8997
గాయ	-8998
ట్టల్	-8999
సేషన్	-9000
▁ఏకరీ	-9001
▁ఎవరికీ	-9002
▁పెట్టె	-9003
▁ఆమోదంతో	-9004
▁వినూత్న	-9005
▁అభిప్రాయంతో	-9006
▁చూపినట్లుగా	-9007
▁ప్రాథమికంగా	-9008
▁తీసుకున్నప్పుడు	-9009
సిం	-9010
లిన్	-9011
▁పరా	-9012
▁కాలమ్	-9013
▁తెల్ల	-9014
▁నిలిచి	-9015
▁ఫలితాల	-9016
▁అవార్డులు	-9017
▁పరిమితికి	-9018
▁దరఖాస్తుదారుడి	-9019
జూ	-9020
హేతు	-9021
▁కమా	-9022
▁భంగ	-9023
రికల్	-9024
▁ఉందనే	-9025
▁తగ్గు	-9026
▁పెద్దగా	-9027
▁పేర్లను	-9028
▁అధ్యక్షు	-9029
▁బిజినెస్	-9030
▁చేయబడినందున	-9031
▁కొనుగోలుదారులు	-9032
▁గుర్తించబడ్డాయి	-9033
▁హరి	-9034
▁పరేడ్	-9035
▁కుమారులు	-9036
▁నియంత్రణకు	-9037
రుకైన	-9038
ాంబర్	-9039
▁టవర్	-9040
వుతారు	-9041
▁రాజీవ్	-9042
▁దానికంటే	-9043
▁చూపబడింది	-9044
▁పిల్లవాడు	-9045
▁బ్యాంకుకు	-9046
▁రాష్ట్రాలలో	-9047
▁నేడు	-9048
▁పాలక	-9049
▁రైఫి	-9050
▁ప్రైమా	-9051
▁మాదిరిగా	-9052
▁నిర్దేశిత	-9053
▁వినియోగించే	-9054
▁ఉపసంహరించుకున్న	-9055
శ్చర్య	-9056
▁ఎన్వి	-9057
▁సేవకుడు	-9058
▁స్వాధీనంలో	-9059
ఫె	-9060
డమీ	-9061
ైమాస	-9062
▁దాట	-9063
▁ఫ్లో	-9064
ైమాసిక	-9065
▁అరుణా	-9066
▁సంభవి	-9067
▁పెంపకం	-9068
▁అన్యాయం	-9069
▁అర్హతగల	-9070
▁కాకపోయినా	-9071
▁ప్రార్థనను	-9072
కను	-9073
▁ట్రి	-9074
▁వక్ర	-9075
▁వేలి	-9076
ించలేక	-9077
▁ఉండగా	-9078
పత్తిని	-9079
▁ఆదేశించిన	-9080
▁మరణించారు	-9081
▁విశ్వసనీయత	-9082
▁సాక్ష్యాలకు	-9083
▁పోస్టుమార్టం	-9084
▁వ్యవహరించాలి	-9085
▁తోసి	-9086
▁నల్ల	-9087
▁ప్రశ	-9088
లైజేషన్	-9089
▁అనుభవి	-9090
▁ఓటింగ్	-9091
▁ప్రియమైన	-9092
▁అకౌంటెంట్	-9093
▁సిడబ్ల్యు	-9094
▁పరిమితుల్లో	-9095
▁ఎంటర్ప్రైజెస్	-9096
▁ఫోర్స్	-9097
▁సూచనలను	-9098
▁తార్కికం	-9099
▁ఇన్వాయిస్	-9100
▁పిటిషనర్కు	-9101
▁విచిత్రమైన	-9102
వానీ	-9103
▁దోహద	-9104
ుకోండి	-9105
▁నెలలో	-9106
▁రేటుతో	-9107
▁సమర్పణల	-9108
▁కోర్సును	-9109
▁చట్టాలలో	-9110
▁చట్టబద్ధం	-9111
▁నిర్దేశించింది	-9112
CA	-9113
ఎంఎస్	-9114
▁ఆచారం	-9115
▁రియల్	-9116
▁అగర్వాల్	-9117
▁ఇవ్వబడదు	-9118
▁ప్రయోగశాల	-9119
▁ఉద్యోగులను	-9120
▁కనుగొనబడలేదు	-9121
▁తీసుకున్నాడు	-9122
▁నెరవేర్చడానికి	-9123
హజ	-9124
డెం	-9125
ోద్	-9126
టియో	-9127
సిడ్	-9128
▁జైలులో	-9129
▁బయలుదే	-9130
ప్లెక్స్	-9131
▁ప్రొఫైల్	-9132
మైనప్పటికీ	-9133
నొక్కిచెప్ప	-9134
▁ప్రక్రియకు	-9135
▁జరిగినప్పుడు	-9136
FT	-9137
తికి	-9138
హాన్	-9139
ాన్యు	-9140
▁బీచ్	-9141
సైకిల్	-9142
▁సురేష్	-9143
▁స్వామి	-9144
▁ఏర్పడింది	-9145
▁కార్యాలయాలు	-9146
▁ఉపయోగించవచ్చు	-9147
▁శ్	-9148
▁చిహ్	-9149
▁సహచరు	-9150
రైజేషన్	-9151
ప్పుడల్లా	-9152
▁చేస్తాడు	-9153
▁పన్నెండు	-9154
▁పొందుతారు	-9155
▁దరఖాస్తుకు	-9156
▁మునిసిపాలిటీ	-9157
▁రాజ్యాంగానికి	-9158
ఆఫ్	-9159
▁(&#	-9160
డల్పు	-9161
▁సంఘాల	-9162
▁అలియాస్	-9163
▁వెడల్పు	-9164
▁సవాళ్లను	-9165
▁విధించారు	-9166
▁స్థాయిలలో	-9167
ప్షన్	-9168
స్థాయి	-9169
▁AICTE	-9170
▁ఒకేలా	-9171
▁ట్రావ	-9172
▁ఆబ్జెక్	-9173
▁నోటీసులో	-9174
▁వహించాలి	-9175
▁టెలివిజన్	-9176
▁త్రైమాసిక	-9177
▁మాదకద్రవ్య	-9178
ఫా	-9179
రర్	-9180
పెండ	-9181
ేద్కర్	-9182
లాజికల్	-9183
▁ఏకరీతి	-9184
▁పరికరాల	-9185
డెన్షియల్	-9186
▁అందిస్తాయి	-9187
▁బాధితురాలి	-9188
▁రూపొందించారు	-9189
ణ్య	-9190
▁AM	-9191
టేల్	-9192
్వని	-9193
▁మల్	-9194
▁ఆస్వాద	-9195
▁గ్రాంట్	-9196
▁విభాగాన్ని	-9197
వృ	-9198
చన్	-9199
సరీ	-9200
▁as	-9201
▁కై	-9202
▁లౌ	-9203
జాలం	-9204
▁తోట	-9205
కొకటి	-9206
▁కమర్	-9207
▁ఎంఎస్	-9208
▁గ్రీన్	-9209
▁వారసత్వం	-9210
▁కోల్పోయిన	-9211
▁వ్యభిచారం	-9212
▁రిజర్వేషన్ల	-9213
▁ప్రాజెక్టును	-9214
▁దౌ	-9215
రెన్	-9216
జిషన్	-9217
▁తలపై	-9218
▁గ్రహీ	-9219
▁సిఎస్	-9220
ఛాన్సలర్	-9221
▁చివరలను	-9222
▁కోర్టులకు	-9223
▁తీసుకువెళ	-9224
▁కాలపరిమితి	-9225
▁పొందుతుంది	-9226
▁ప్రవేశపెట్టడం	-9227
ES	-9228
;&#	-9229
గనై	-9230
▁MM	-9231
▁ఎక	-9232
▁కూర	-9233
▁పాన్	-9234
▁గొంతు	-9235
▁రేటుకు	-9236
▁ఆధారాలను	-9237
▁సంస్థాపన	-9238
▁జవాబుదారీతనం	-9239
▁నిర్వహించబడతాయి	-9240
IS	-9241
▁ER	-9242
▁థి	-9243
మోట్	-9244
▁తరపు	-9245
▁కాలువ	-9246
▁మానవు	-9247
▁స్పంద	-9248
▁ఖాతాకు	-9249
▁ప్రయాణి	-9250
▁మహిళలకు	-9251
▁నిర్మూలన	-9252
▁పార్టీని	-9253
▁రూపాయలకు	-9254
▁చదివినప్పుడు	-9255
▁తాత్కాలికంగా	-9256
▁దురదృష్టవశాత్తు	-9257
▁సాల	-9258
▁ఉదార	-9259
ట్యుటీ	-9260
హమ్మద్	-9261
▁జరుపు	-9262
▁లక్నో	-9263
▁శంకర్	-9264
▁పేరాలు	-9265
▁చురుకైన	-9266
▁సకాలంలో	-9267
▁అసంబద్ధం	-9268
▁పురుషులు	-9269
▁ఫార్వార్	-9270
▁విడాకులు	-9271
క్యాడక్షన్	-9272
▁ప్రతిస్పంద	-9273
Ex	-9274
రియన్	-9275
▁తత్వ	-9276
వాస్తవ	-9277
▁లండన్	-9278
▁రెగ్యుల	-9279
▁సాధనంగా	-9280
▁విచారణలు	-9281
▁ఫిర్యాదులు	-9282
▁ఉల్లంఘించిన	-9283
▁తెలియజేయాలి	-9284
pp	-9285
క్కల	-9286
▁ఫార్మ	-9287
▁చెప్పాలి	-9288
▁జిల్లాలో	-9289
▁భూస్వాము	-9290
్రు	-9291
అంటే	-9292
యిర్	-9293
▁పడు	-9294
▁రవి	-9295
▁లైట్	-9296
బడినది	-9297
▁కొద్ది	-9298
▁కూడుకున్న	-9299
▁తోసిపుచ్చ	-9300
▁విక్రయించే	-9301
▁ఒకదానికొకటి	-9302
ేఖ	-9303
యోజన	-9304
ాంత్	-9305
▁గని	-9306
ృతజ్ఞ	-9307
▁అవయవ	-9308
నామాను	-9309
▁సర్క్యూ	-9310
▁దామాషా	-9311
▁రైతులు	-9312
▁సరళమైన	-9313
▁పరస్పరం	-9314
▁ఉనికిలోకి	-9315
▁చర్చించిన	-9316
▁గ్రాట్యుటీ	-9317
బై	-9318
ఫ్ర	-9319
ప్ట్	-9320
▁చాల	-9321
▁టిక	-9322
చేయడం	-9323
డియన్	-9324
▁పటేల్	-9325
కోవాలని	-9326
▁అడుగుల	-9327
▁ఆధారాల	-9328
▁బట్టలు	-9329
▁మహాత్మా	-9330
▁ఇండియాకు	-9331
▁వెళ్ళాడు	-9332
▁ఆలోచించిన	-9333
▁పరిమాణంలో	-9334
▁సృష్టించే	-9335
▁తప్పించుకో	-9336
▁నిర్ణయాలకు	-9337
▁విస్మరించడం	-9338
▁నియంత్రించడం	-9339
తంభ	-9340
నివ్వ	-9341
శాన్య	-9342
▁సిపి	-9343
ీకరించిన	-9344
▁ఆసక్తికి	-9345
▁ఒక్కొక్క	-9346
▁సూచిస్తూ	-9347
▁ట్రేడింగ్	-9348
▁అనుమతించారు	-9349
▁వ్యవహరించిన	-9350
▁స్క్రీనింగ్	-9351
▁లెక్కించడానికి	-9352
२०	-9353
▁er	-9354
టియం	-9355
ామన్	-9356
▁నాట	-9357
▁సుబ	-9358
▁స్కో	-9359
▁అమలును	-9360
▁బలహీనత	-9361
▁సహేతుక	-9362
▁అద్దెను	-9363
▁చేర్చారు	-9364
▁ఉపసంహరించుకునే	-9365
రాస్య	-9366
▁మాల్	-9367
▁వీధి	-9368
వాడిని	-9369
▁మారిన	-9370
▁ఇవన్నీ	-9371
▁శాంతియు	-9372
▁ప్రయత్నించారు	-9373
▁మరణించినవారిని	-9374
▁గీ	-9375
▁అసమ్మ	-9376
▁నిర్భ	-9377
▁భాషను	-9378
స్త్రచి	-9379
హరించిన	-9380
▁కృతజ్ఞ	-9381
▁అపారమైన	-9382
▁భద్రతకు	-9383
▁అనారోగ్య	-9384
▁సౌకర్యాల	-9385
▁నిలిపివేయడం	-9386
▁పరిగణించవలసిన	-9387
▁ప్రకటించడానికి	-9388
హై	-9389
▁గర్	-9390
రేటరీ	-9391
లిస్ట్	-9392
ప్పింగ్	-9393
▁లెటర్స్	-9394
▁వేయబడింది	-9395
▁సభ్యులుగా	-9396
▁ప్రస్తుతము	-9397
▁సమావేశాన్ని	-9398
he	-9399
ండగా	-9400
▁కోట	-9401
▁MSME	-9402
▁పిలవబడే	-9403
▁పొరపాటు	-9404
▁ఉపయోగించు	-9405
▁ఆస్ట్రేలియా	-9406
▁ప్రారంభమవుతుంది	-9407
పుల్	-9408
▁ఐడెం	-9409
క్షనరీ	-9410
▁స్తంభ	-9411
సైడింగ్	-9412
▁కాపీరైట్	-9413
▁అకౌంటింగ్	-9414
▁ఫలితాన్ని	-9415
▁కానిస్టేబుల్	-9416
▁పునర్నిర్మాణం	-9417
ీలం	-9418
▁OP	-9419
బారి	-9420
వంత్	-9421
▁ఓడి	-9422
▁రేఖ	-9423
కుడికి	-9424
స్తాను	-9425
▁విశేష	-9426
▁వేడుక	-9427
▁గిరిజన	-9428
▁రిమోట్	-9429
▁స్పెక్	-9430
▁జనాభాలో	-9431
▁ఆధారపడ్డాడు	-9432
▁సర్టిఫికెట్	-9433
▁సూచించబడుతుంది	-9434
య్యా	-9435
స్కో	-9436
▁ముత	-9437
▁మసీదు	-9438
▁తెచ్చిన	-9439
▁శాసనాలు	-9440
▁సర్వీసు	-9441
▁పరిమితుల	-9442
▁ప్యాకేజీ	-9443
▁అంబేద్కర్	-9444
▁ఉత్తర్వులో	-9445
▁విస్తరించిన	-9446
▁లెక్కించడంలో	-9447
▁తీసుకున్నట్లు	-9448
మల్	-9449
న్యం	-9450
లోనూ	-9451
గులకు	-9452
వాదులు	-9453
▁ఆఫీసు	-9454
▁రక్షణకు	-9455
▁ఒరిజినల్	-9456
▁పొందడంలో	-9457
▁వర్కింగ్	-9458
▁వారాల్లో	-9459
▁సాక్ష్యమి	-9460
▁ఇంటిగ్రేటెడ్	-9461
▁రికార్డులోకి	-9462
▁ఎలక్ట్రానిక్స్	-9463
,,	-9464
కిక	-9465
▁కిషన్	-9466
▁దిద్దు	-9467
▁కళాశాలలు	-9468
▁అసోసియేట్	-9469
▁ఛార్జీలను	-9470
▁మార్పులను	-9471
▁నిరోధించడం	-9472
▁ప్రావిన్స్	-9473
▁ఫైనాన్సింగ్	-9474
▁మార్గదర్శకత్వం	-9475
▁విశ్వవిద్యాలయాల	-9476
▁గంభ	-9477
▁లాం	-9478
▁విరా	-9479
▁స్వీ	-9480
సారిగా	-9481
▁ఇస్తే	-9482
▁చేస్తోంది	-9483
▁వారసత్వంగా	-9484
జాల	-9485
ధుమ	-9486
▁డయా	-9487
్యామ్	-9488
▁కాబో	-9489
▁పొడి	-9490
▁మైక్రో	-9491
▁వివరాల	-9492
▁హక్కుగా	-9493
▁అరుణాచల్	-9494
▁ఆసక్తిగల	-9495
▁రెండేళ్ల	-9496
▁నిర్ణయాలపై	-9497
ాజీ	-9498
ష్ణో	-9499
▁ఒడి	-9500
▁సైనిక	-9501
▁కూరగాయ	-9502
▁మూలధనం	-9503
▁వేతనాల	-9504
▁నోటీసుకు	-9505
స్తున్నందున	-9506
▁లెక్	-9507
▁వికా	-9508
▁అన్నీ	-9509
▁ఒకేసారి	-9510
▁మణిపూర్	-9511
▁భావిస్తే	-9512
▁నిరోధించే	-9513
▁ఉత్తరాఖండ్	-9514
▁ప్రతిపాదనలు	-9515
చో	-9516
బేస్	-9517
▁టెస్	-9518
▁తీసిన	-9519
▁రివర్	-9520
▁విజయ్	-9521
బద్ధతను	-9522
▁చేసాము	-9523
▁తేల్చి	-9524
▁సునీల్	-9525
▁అమ్రపాలి	-9526
▁గణాంకాలు	-9527
▁ట్రాక్టర్	-9528
అవు	-9529
▁నయం	-9530
▁ఎంటి	-9531
▁పాలు	-9532
▁కాలిన	-9533
▁గోధుమ	-9534
▁డిశ్చ	-9535
▁దత్తత	-9536
▁వివేక	-9537
▁తెరిచే	-9538
▁నచ్చితే	-9539
▁బిలియన్	-9540
▁డ్రాఫ్ట్	-9541
▁శాసనసభలో	-9542
▁ఆశ్రయించారు	-9543
▁తీర్మానాలను	-9544
▁ప్రిసైడింగ్	-9545
▁ప్రిస్క్రిప్	-9546
▁ప్రశ్నార్థకమైన	-9547
స్వ	-9548
ైట్	-9549
సెన్	-9550
▁బోన	-9551
ీకరణకు	-9552
▁ఉత్సా	-9553
▁సూట్లు	-9554
▁కోరినట్లు	-9555
▁వ్యవస్థకు	-9556
▁స్వచ్ఛమైన	-9557
హ్రా	-9558
▁మిల్స్	-9559
▁అవకాశాల	-9560
▁శస్త్రచి	-9561
▁అనారోగ్యం	-9562
▁ఉన్నంతవరకు	-9563
▁ప్రయత్నాలను	-9564
▁విస్తరించడం	-9565
▁నివేదించబడిన	-9566
ులైన	-9567
గలదని	-9568
ీయమైన	-9569
▁దళాల	-9570
▁ప్రస	-9571
బిలిటీ	-9572
▁లౌకిక	-9573
ించాయని	-9574
▁అబద్ధం	-9575
▁కారకాల	-9576
▁వారసులు	-9577
▁పునరావాస	-9578
▁ఆమోదయోగ్య	-9579
▁విచ్ఛిన్నం	-9580
▁సూచిస్తాయి	-9581
▁ఉల్లంఘిస్తూ	-9582
▁డెవలప్మెంట్	-9583
▁చేపట్టడానికి	-9584
▁Mo	-9585
పాన్	-9586
▁ఈశాన్య	-9587
▁చెప్పలేదు	-9588
▁మిమ్మల్ని	-9589
▁స్టేషన్కు	-9590
▁జాతీ	-9591
▁వందల	-9592
▁ఆరాధన	-9593
ల్లింగ్	-9594
▁వివేకం	-9595
▁వదిలివే	-9596
▁అవకతవకలు	-9597
▁అందించారు	-9598
స్తున్నారని	-9599
▁డిశ్చార్జ్	-9600
▁తిరస్కరించే	-9601
▁పదార్థాన్ని	-9602
▁ప్రమాదానికి	-9603
దుగా	-9604
▁రకం	-9605
ద్దాం	-9606
▁ఓటరు	-9607
▁కట్ట	-9608
▁గంభీ	-9609
▁భారతి	-9610
▁కాబోయే	-9611
▁సేల్స్	-9612
▁ముందుగా	-9613
▁ఎన్విరాన్	-9614
▁కలుపుకొని	-9615
అప్పీలుదారు	-9616
▁వాదిదారులు	-9617
▁నియమించాలని	-9618
▁తెలియజేస్తుంది	-9619
▁IX	-9620
▁బాల్	-9621
ాలోచిత	-9622
▁ఆర్టీ	-9623
▁పదబంధ	-9624
జనాత్మక	-9625
▁ఖాతాలు	-9626
▁దిగుబడి	-9627
▁పాల్పడే	-9628
▁పరిష్కరించే	-9629
▁మార్చబడింది	-9630
▁వెళ్ళడానికి	-9631
▁కార్యక్రమాన్ని	-9632
▁మరణించినవారికి	-9633
▁విచారించడానికి	-9634
▁ఉపసంహరించుకోవడం	-9635
జ్ర	-9636
▁పాయిం	-9637
▁క్యూరీ	-9638
▁వైమాని	-9639
▁నష్టాలు	-9640
▁ఆమోదించడం	-9641
RE	-9642
మిత	-9643
▁Crl	-9644
▁చతు	-9645
▁అంతర్లీన	-9646
▁తెలిసింది	-9647
▁నివేదికపై	-9648
▁నిష్క్రమణ	-9649
▁ప్రణాళికా	-9650
▁సమర్పణలకు	-9651
▁లిఖితపూర్వకంగా	-9652
IDA	-9653
మాట	-9654
పన్న	-9655
▁జంట	-9656
▁గ్రామం	-9657
▁ఛానెల్	-9658
▁విధిగా	-9659
▁ఆదాయంపై	-9660
▁ఎన్నికైన	-9661
▁డబ్ల్యుపి	-9662
▁లక్ష్యంతో	-9663
▁వ్యాఖ్యలు	-9664
ించబడుతున్నాయి	-9665
▁వివాదాస్పదమైన	-9666
▁తొల	-9667
▁అనేద	-9668
▁కొలి	-9669
▁గంగా	-9670
బడలేదని	-9671
▁ఆర్గనై	-9672
▁వీలుగా	-9673
▁పరీక్షల	-9674
▁విలువలో	-9675
▁వివరణను	-9676
▁వైమానిక	-9677
▁ఇవ్వవలసి	-9678
▁విస్తీర్ణం	-9679
▁నిరాకరించిన	-9680
అస	-9681
మిట్	-9682
లేజ్	-9683
▁ప్రె	-9684
▁బాయి	-9685
▁షాక్	-9686
▁శారీర	-9687
▁క్రియా	-9688
▁కథనాలను	-9689
▁పథకాలను	-9690
▁పిస్టల్	-9691
▁పరిశోధనా	-9692
▁భౌతికంగా	-9693
▁మించినది	-9694
▁సభ్యులతో	-9695
▁అకాడెమిక్	-9696
▁అందించాలని	-9697
▁సౌకర్యాలను	-9698
▁కాంప్లెక్స్	-9699
▁నిష్పత్తిని	-9700
రద	-9701
▁భేదం	-9702
▁కుదిరి	-9703
▁చేతులు	-9704
▁చేసుకుని	-9705
▁వహిస్తారు	-9706
▁సృజనాత్మక	-9707
AS	-9708
శ్రీ	-9709
▁చూపడం	-9710
▁మెచ్చ	-9711
▁సమర్ధ	-9712
▁ఉచితంగా	-9713
▁అనాలోచిత	-9714
▁డివిజనల్	-9715
▁తలెత్తదు	-9716
▁నివేదికల	-9717
▁ఖచ్చితత్వం	-9718
▁నిజాయితీగా	-9719
▁మార్గాన్ని	-9720
▁తొలగించాలని	-9721
ent	-9722
వుగా	-9723
నిర్మ	-9724
▁ఎముక	-9725
▁డిసి	-9726
ఇండియా	-9727
▁ఉక్కు	-9728
▁ఎస్టో	-9729
▁నోడల్	-9730
టెక్షన్	-9731
▁గ్రౌండ్	-9732
▁సాహిత్య	-9733
▁వితంతువు	-9734
▁క్రియాశీల	-9735
▁అధికారికంగా	-9736
▁సెక్యూరిటీస్	-9737
▁ప్రతిబింబించే	-9738
▁మల	-9739
ఫార్	-9740
పడితే	-9741
ౌకర్య	-9742
▁ముద్	-9743
▁జన్యు	-9744
▁పశువు	-9745
▁ప్రాణాంతక	-9746
▁మినహాయింపులు	-9747
యస్	-9748
▁టూ	-9749
ండిన	-9750
కోండి	-9751
▁గ్రం	-9752
పూర్తి	-9753
▁గ్రెనే	-9754
పూర్ణంగా	-9755
▁విధానాల	-9756
▁పొందలేదు	-9757
▁ఉల్లంఘించే	-9758
దాస్	-9759
బడటం	-9760
▁అడిగ	-9761
జెన్స్	-9762
పోయాయి	-9763
▁స్టార్	-9764
▁ట్రక్కు	-9765
▁ఎకరానికి	-9766
▁కర్తవ్యం	-9767
▁నమూనాలను	-9768
▁రుణదాతలు	-9769
▁అంగీకరించే	-9770
▁సాక్ష్యంలో	-9771
▁నిర్వహించాలి	-9772
▁పరిస్థితులతో	-9773
▁పెట్టుబడులను	-9774
ఆధ	-9775
కతా	-9776
▁ఎగ	-9777
▁DEL	-9778
▁డాల	-9779
▁రాజేష్	-9780
▁స్పందన	-9781
▁గమనించి	-9782
▁చేయలేని	-9783
▁తార్కిక	-9784
▁యజమానుల	-9785
▁హిందీలో	-9786
▁మిలియన్ల	-9787
▁నడపడానికి	-9788
▁అధికారులతో	-9789
▁ఉత్తర్వుకు	-9790
▁తీసుకుంటారు	-9791
▁ఉపయోగిస్తారు	-9792
కాల్	-9793
టేజ్	-9794
వెల్	-9795
లలోకి	-9796
▁టాక్	-9797
రీక్షణ	-9798
▁దీపక్	-9799
▁సంతాప	-9800
▁అకాడమీ	-9801
▁ప్రతిఘ	-9802
▁బ్యాగ్	-9803
▁వరకట్న	-9804
▁కార్పస్	-9805
▁మార్షల్	-9806
▁వైవిధ్యం	-9807
కార్పొరేషన్	-9808
▁పాటించడంలో	-9809
▁పొందుపరచబడిన	-9810
సుల	-9811
విసి	-9812
▁క్య	-9813
▁సతీ	-9814
▁మిట్టల్	-9815
ించబడకపోతే	-9816
▁నెలల్లోపు	-9817
▁శారీరకంగా	-9818
▁ప్రాజెక్టులను	-9819
la	-9820
కారు	-9821
టాన్	-9822
▁మంద	-9823
▁చల్ల	-9824
పరిచిన	-9825
▁నిజమే	-9826
▁నిలకడ	-9827
▁బేరింగ్	-9828
▁నిరీక్షణ	-9829
▁విడదీయరాని	-9830
ttp	-9831
సాలి	-9832
తులైన	-9833
▁పెరగ	-9834
▁సైన్	-9835
కోలేదు	-9836
▁దాన్ని	-9837
▁చెక్కును	-9838
▁రుణాన్ని	-9839
▁పర్యావరణం	-9840
▁శత్రుత్వం	-9841
▁కేంద్రీకృత	-9842
ించుకోవడానికి	-9843
▁వ్యాఖ్యానానికి	-9844
----------------	-9845
▁ప్రిస్క్రిప్షన్	-9846
గవర్	-9847
పారా	-9848
▁యాంటీ	-9849
▁పదేళ్ల	-9850
▁మార్టం	-9851
▁సంకోచం	-9852
▁అరెస్ట్	-9853
▁సాధించింది	-9854
▁ఓడరే	-9855
▁తెగల	-9856
▁పరాయ	-9857
▁ఖాతాను	-9858
▁ఇన్ఫ్రా	-9859
▁గోప్యతా	-9860
ణాభివృద్ధి	-9861
▁చేయబడిందా	-9862
▁సమాజాన్ని	-9863
▁..........	-9864
▁ఉంచబడుతుంది	-9865
దొ	-9866
▁చల	-9867
గౌరవ	-9868
▁పశు	-9869
త్రిమ	-9870
కుడిని	-9871
▁ర్యాంకు	-9872
▁కూర్చున్న	-9873
▁	-9874
్	-9875
ి	-9876
ర	-9877
ా	-9878
న	-9879
ు	-9880
ం	-9881
క	-9882
ల	-9883
ప	-9884
య	-9885
త	-9886
స	-9887
వ	-9888
ద	-9889
మ	-9890
చ	-9891
ట	-9892
ే	-9893
డ	-9894
ో	-9895
గ	-9896
.	-9897
అ	-9898
ీ	-9899
,	-9900
బ	-9901
ె	-9902
ధ	-9903
ష	-9904
ొ	-9905
జ	-9906
ై	-9907
ూ	-9908
శ	-9909
ఉ	-9910
భ	-9911
ణ	-9912
०	-9913
హ	-9914
ఆ	-9915
ఇ	-9916
१	-9917
ఎ	-9918
థ	-9919
)	-9920
(	-9921
u	-9922
ఈ	-9923
ఫ	-9924
c	-9925
२	-9926
-	-9927
ఖ	-9928
ఒ	-9929
;	-9930
ఏ	-9931
ృ	-9932
३	-9933
&	-9934
ళ	-9935
#	-9936
/	-9937
:	-9938
0	-9939
C	-9940
४	-9941
ౌ	-9942
i	-9943
I	-9944
A	-9945
ఐ	-9946
५	-9947
S	-9948
ఘ	-9949
a	-9950
o	-9951
|	-9952
ఛ	-9953
“	-9954
t	-9955
६	-9956
R	-9957
]	-9958
[	-9959
D	-9960
P	-9961
e	-9962
M	-9963
p	-9964
m	-9965
७	-9966
E	-9967
s	-9968
x	-9969
O	-9970
ఞ	-9971
q	-9972
N	-9973
T	-9974
ఓ	-9975
h	-9976
l	-9977
n	-9978
r	-9979
८	-9980
ఠ	-9981
d	-9982
L	-9983
V	-9984
%	-9985
v	-9986
B	-9987
?	-9988
९	-9989
F	-9990
X	-9991
W	-9992
U	-9993
